<unk>	0
<s>	0
</s>	0
▁the	-2.86362
,	-3.21214
.	-3.39344
▁of	-3.5891
▁and	-3.80526
▁to	-3.83727
▁a	-4.0937
s	-4.13504
▁in	-4.18226
-	-4.35178
▁is	-4.50497
▁that	-4.74127
'	-4.77169
▁for	-4.8364
▁on	-5.05444
▁The	-5.06957
▁I	-5.07247
▁	-5.19968
▁as	-5.21683
▁it	-5.2192
▁be	-5.22382
▁with	-5.26236
▁was	-5.31576
▁by	-5.33264
▁are	-5.44828
▁will	-5.46533
▁"	-5.51599
▁at	-5.6429
▁from	-5.73128
▁you	-5.73526
▁have	-5.7712
▁has	-5.81592
▁which	-5.85731
▁who	-5.90704
▁not	-5.92036
▁an	-5.96375
▁this	-6.04517
▁Korea	-6.0623
▁but	-6.11119
▁can	-6.16187
th	-6.17645
▁or	-6.19709
▁In	-6.20355
ing	-6.20496
t	-6.20801
▁(	-6.21161
▁said	-6.27318
▁It	-6.29637
▁shall	-6.31646
?	-6.33077
▁year	-6.34523
▁been	-6.36026
▁time	-6.37864
▁were	-6.39336
▁he	-6.40574
"	-6.4288
▁there	-6.44313
▁Korean	-6.46057
▁Kim	-6.51243
▁his	-6.5282
▁such	-6.53722
."	-6.54363
▁so	-6.54373
▁also	-6.5517
▁people	-6.56788
▁after	-6.57434
▁when	-6.59604
)	-6.60224
▁more	-6.60407
▁their	-6.60955
▁they	-6.6241
m	-6.64947
▁if	-6.65297
▁than	-6.66492
▁first	-6.6669
▁about	-6.6815
▁A	-6.71051
ed	-6.7156
▁head	-6.74244
▁out	-6.74435
▁we	-6.80408
▁Gyeonggi	-6.81232
▁because	-6.82598
▁one	-6.85656
▁Seoul	-6.87535
▁my	-6.88819
d	-6.8938
▁its	-6.92902
▁government	-6.93345
S	-6.95314
▁where	-6.96233
▁all	-6.96832
▁had	-6.9704
▁may	-6.97405
▁up	-6.98174
▁through	-7.0047
▁public	-7.00831
▁won	-7.0242
▁last	-7.04235
▁including	-7.05307
▁other	-7.0645
▁me	-7.06492
do	-7.06641
▁This	-7.07753
▁two	-7.08683
▁only	-7.09618
▁due	-7.10142
▁under	-7.10721
▁new	-7.11227
▁North	-7.12017
▁like	-7.1213
▁Gu	-7.12481
▁do	-7.13138
gu	-7.13248
,"	-7.15438
▁your	-7.15441
▁held	-7.17198
▁day	-7.17552
▁Province	-7.18091
▁Lee	-7.20836
▁high	-7.21196
▁companies	-7.21526
▁U	-7.21541
▁1	-7.22256
▁over	-7.23038
/	-7.2442
▁National	-7.25049
▁2	-7.2532
▁would	-7.26444
▁no	-7.26627
▁should	-7.268
▁If	-7.28835
▁made	-7.29833
▁As	-7.3096
▁years	-7.31713
▁support	-7.31739
▁many	-7.32389
▁local	-7.32522
▁into	-7.3273
▁work	-7.33174
▁number	-7.33273
▁them	-7.34176
▁market	-7.35651
▁company	-7.35992
▁between	-7.36491
ly	-7.37418
▁business	-7.37611
▁3	-7.38188
▁system	-7.38355
▁make	-7.39171
▁We	-7.39515
▁take	-7.40875
▁school	-7.41695
▁even	-7.4268
▁There	-7.43331
▁use	-7.45121
▁since	-7.45144
in	-7.45169
▁members	-7.45751
▁while	-7.46146
▁well	-7.47419
er	-7.47825
▁President	-7.48017
▁Park	-7.49377
▁each	-7.50883
▁go	-7.51603
▁good	-7.51706
▁order	-7.52243
▁team	-7.53144
▁10	-7.54747
▁being	-7.55627
▁think	-7.56218
▁want	-7.56386
▁get	-7.57292
▁her	-7.57346
▁management	-7.57713
▁next	-7.58275
▁expected	-7.58532
y	-7.58596
▁during	-7.59039
▁three	-7.59105
),	-7.59205
▁place	-7.60129
▁He	-7.60349
▁When	-7.61303
:	-7.62376
▁our	-7.62391
▁project	-7.62453
▁City	-7.63087
▁etc	-7.63298
▁5	-7.63319
▁Party	-7.63429
▁official	-7.63548
▁Ministry	-7.63593
▁meeting	-7.6362
▁some	-7.63721
▁before	-7.64603
▁any	-7.64785
▁various	-7.65163
▁students	-7.65194
▁Article	-7.65294
▁million	-7.65419
re	-7.65637
▁person	-7.66149
▁4	-7.66158
▁could	-7.66996
▁area	-7.67693
▁need	-7.67971
▁necessary	-7.68387
▁office	-7.68875
▁police	-7.70624
▁China	-7.70744
▁second	-7.70753
▁Committee	-7.71172
▁month	-7.71606
▁case	-7.71643
▁Act	-7.71748
▁know	-7.7189
▁same	-7.71921
▁plan	-7.72949
▁what	-7.73375
▁most	-7.73518
▁Do	-7.74044
ll	-7.75189
▁now	-7.75231
▁education	-7.75343
▁residents	-7.75595
▁used	-7.76297
▁Metropolitan	-7.76687
▁service	-7.76974
▁world	-7.77328
▁without	-7.77386
▁South	-7.77683
st	-7.77819
▁days	-7.78044
▁Government	-7.79523
▁long	-7.79721
▁products	-7.80321
▁former	-7.81396
▁around	-7.81585
▁don	-7.81776
▁Center	-7.82052
▁information	-7.82099
▁right	-7.8236
▁how	-7.82432
▁industry	-7.82507
al	-7.82748
▁related	-7.83302
e	-7.83483
▁life	-7.83791
I	-7.84186
▁You	-7.84302
The	-7.84347
▁city	-7.84713
▁small	-7.84863
▁special	-7.85449
▁event	-7.85564
▁just	-7.86372
▁According	-7.87002
▁facilities	-7.87544
▁am	-7.88011
▁investigation	-7.88027
▁development	-7.88371
▁saying	-7.88607
▁lot	-7.88887
▁children	-7.8937
▁20	-7.89666
▁following	-7.90134
▁increase	-7.90225
▁center	-7.9023
▁billion	-7.90711
▁much	-7.91086
▁see	-7.91213
▁within	-7.91477
▁country	-7.91734
▁period	-7.93137
▁Moon	-7.93442
she	-7.93842
▁food	-7.94323
▁performance	-7.9478
▁large	-7.95236
▁among	-7.95459
▁announced	-7.95479
▁rate	-7.95514
▁did	-7.95926
▁University	-7.96278
▁end	-7.96538
▁group	-7.96602
▁against	-7.96971
▁On	-7.97128
n	-7.97431
▁price	-7.97629
ve	-7.97723
▁party	-7.98171
▁re	-7.98823
▁very	-7.9889
▁process	-7.99368
ri	-7.99558
▁referred	-7.99918
▁national	-8.00043
▁home	-8.00382
▁economic	-8.00896
▁social	-8.0096
▁6	-8.01032
nt	-8.02034
▁fact	-8.02159
▁total	-8.02707
▁operation	-8.03086
▁financial	-8.03727
▁way	-8.03776
▁him	-8.03973
▁whether	-8.0431
a	-8.04538
▁'	-8.04743
▁Jung	-8.04744
▁report	-8.05002
▁Jae	-8.05094
dong	-8.05353
▁K	-8.05434
▁come	-8.05596
▁become	-8.06045
▁help	-8.06357
▁back	-8.06995
▁At	-8.07136
r	-8.07326
▁found	-8.07343
▁attention	-8.07371
▁going	-8.07731
▁family	-8.08284
▁charge	-8.08383
▁budget	-8.08762
▁policy	-8.0895
▁future	-8.09768
▁difficult	-8.09826
▁change	-8.10228
▁7	-8.1026
▁product	-8.10437
▁Governor	-8.10646
▁cases	-8.10662
▁those	-8.10759
▁30	-8.11125
▁officials	-8.11334
▁working	-8.11353
▁part	-8.11535
▁construction	-8.11683
▁she	-8.12686
▁again	-8.12826
▁water	-8.12965
▁means	-8.13414
▁situation	-8.1354
▁power	-8.13634
▁committee	-8.14186
▁Minister	-8.14742
▁every	-8.14743
▁Office	-8.15195
▁together	-8.15572
▁member	-8.15986
▁down	-8.15993
i	-8.16301
▁measures	-8.16441
▁amount	-8.1671
▁fire	-8.1725
▁provide	-8.17877
▁interest	-8.181
▁activities	-8.18181
▁particular	-8.18592
▁problem	-8.18736
▁Busan	-8.18919
▁visit	-8.19477
▁reported	-8.19573
▁received	-8.19607
▁possible	-8.1983
▁Ordinance	-8.19895
▁countries	-8.19961
hereinafter	-8.20093
▁term	-8.20252
▁sales	-8.20664
▁set	-8.20942
▁best	-8.21139
▁8	-8.21828
▁Please	-8.22044
▁say	-8.22157
▁Japan	-8.22242
▁private	-8.22325
▁culture	-8.22494
▁room	-8.22624
▁percent	-8.22695
▁That	-8.22763
▁different	-8.23193
▁Assembly	-8.23399
▁matters	-8.23498
▁major	-8.24144
▁give	-8.24189
nd	-8.24288
▁women	-8.24342
▁director	-8.24351
▁19	-8.24536
▁job	-8.24655
We	-8.24708
ho	-8.24823
▁main	-8.24839
▁game	-8.25178
▁experience	-8.25421
▁Samsung	-8.25801
▁areas	-8.25961
▁until	-8.26248
▁B	-8.26304
▁four	-8.26368
▁based	-8.26415
▁today	-8.26443
▁using	-8.26552
▁too	-8.2663
▁reason	-8.26732
▁important	-8.26777
▁here	-8.26787
▁money	-8.26891
▁general	-8.27424
es	-8.27473
▁department	-8.27658
▁9	-8.2806
▁technology	-8.28122
▁growth	-8.28467
▁increased	-8.28586
▁Chinese	-8.28619
▁able	-8.28654
▁real	-8.28662
▁hard	-8.28689
▁five	-8.29259
▁president	-8.29411
▁foreign	-8.29444
▁half	-8.29716
▁why	-8.29773
▁Japanese	-8.30066
▁S	-8.30097
▁still	-8.30337
▁decided	-8.30366
▁Education	-8.30408
▁workers	-8.30427
▁US	-8.30443
▁data	-8.30526
se	-8.30626
▁came	-8.31057
▁pay	-8.31086
▁15	-8.31177
▁car	-8.31188
▁safety	-8.31355
▁level	-8.31802
▁province	-8.31974
▁Dong	-8.32012
▁left	-8.32604
▁house	-8.32634
▁12	-8.3268
▁hope	-8.32823
▁making	-8.32959
▁low	-8.33245
▁New	-8.33277
▁these	-8.33403
▁building	-8.33697
▁check	-8.33832
▁us	-8.34165
▁early	-8.34272
▁past	-8.34297
▁media	-8.34339
▁p	-8.34386
the	-8.34949
▁Trump	-8.35049
▁find	-8.35176
▁tax	-8.35193
▁took	-8.35558
▁pursua	-8.35881
▁projects	-8.35908
▁11	-8.36026
▁show	-8.36417
▁results	-8.3655
▁After	-8.36739
▁Council	-8.36902
▁military	-8.37259
▁released	-8.37368
▁off	-8.3789
▁issue	-8.38283
▁What	-8.38318
▁own	-8.38326
▁site	-8.39062
▁name	-8.39275
▁week	-8.39433
▁KRW	-8.39496
▁Incheon	-8.39535
▁start	-8.40262
▁relevant	-8.40432
▁research	-8.40664
her	-8.40731
▁affairs	-8.40753
▁result	-8.4092
▁then	-8.40986
▁domestic	-8.41267
▁health	-8.41675
▁However	-8.41693
▁investment	-8.417
▁economy	-8.41906
▁labor	-8.423
.”	-8.42423
▁law	-8.42674
▁cultural	-8.42998
▁So	-8.43017
▁times	-8.43449
▁called	-8.43997
▁agreement	-8.446
▁No	-8.44715
▁front	-8.44749
▁An	-8.44805
▁paragraph	-8.44864
o	-8.45157
ers	-8.45235
▁does	-8.45393
A	-8.45425
▁must	-8.45472
▁Chairman	-8.45489
▁For	-8.45666
▁put	-8.45672
rd	-8.45695
▁Although	-8.4578
▁great	-8.45876
▁environment	-8.45882
▁E	-8.45885
")	-8.46007
▁Choi	-8.46126
▁attached	-8.46161
▁plans	-8.46217
▁care	-8.46304
▁per	-8.46418
▁citizens	-8.46628
▁addition	-8.46652
▁Court	-8.46675
▁feel	-8.46852
▁chairman	-8.47355
▁global	-8.47416
▁current	-8.47545
▁18	-8.47811
▁young	-8.47984
▁receive	-8.48466
▁full	-8.48711
an	-8.48715
▁medical	-8.48728
▁Institute	-8.49018
▁prosecution	-8.49342
▁strong	-8.49411
▁went	-8.49438
▁My	-8.49495
▁already	-8.49526
▁body	-8.49686
▁look	-8.49741
▁C	-8.49859
▁once	-8.50113
▁Jong	-8.50147
▁request	-8.50188
▁provincial	-8.50236
▁established	-8.50354
▁hours	-8.50648
▁play	-8.51397
▁court	-8.51693
▁Hong	-8.51787
▁purpose	-8.51882
▁paid	-8.52032
▁side	-8.52078
▁music	-8.52234
▁participate	-8.52265
▁expenses	-8.52505
▁top	-8.5273
▁services	-8.52775
k	-8.53693
▁cooperation	-8.53973
▁employees	-8.54262
▁open	-8.5432
▁They	-8.54441
▁state	-8.5446
▁13	-8.54628
▁Association	-8.54913
▁Dae	-8.54939
▁seems	-8.55084
G	-8.55085
▁free	-8.55101
▁create	-8.55111
▁months	-8.55423
▁apply	-8.55445
▁according	-8.55514
▁send	-8.55515
▁self	-8.55763
▁please	-8.55874
▁conducted	-8.55974
▁explained	-8.56092
▁big	-8.56177
▁living	-8.56215
▁program	-8.56269
▁Young	-8.56349
won	-8.5644
▁cannot	-8.56803
▁selected	-8.57035
▁May	-8.57094
▁love	-8.57317
▁District	-8.57376
▁point	-8.57625
▁recently	-8.57707
▁production	-8.57768
up	-8.57908
▁date	-8.57962
▁Cho	-8.58119
▁meet	-8.58177
▁training	-8.58554
▁ceremony	-8.5857
▁application	-8.58734
on	-8.58765
▁both	-8.59096
▁live	-8.59185
).	-8.59206
▁morning	-8.59301
ro	-8.59724
▁Service	-8.59754
▁less	-8.59756
l	-8.60096
▁United	-8.60104
▁floor	-8.60341
▁organizations	-8.60408
▁trade	-8.60668
▁prevent	-8.60684
▁Democratic	-8.60783
▁prices	-8.6097
▁Since	-8.60974
▁16	-8.61046
▁payment	-8.61066
▁field	-8.61284
▁100	-8.61765
▁test	-8.61911
▁popular	-8.61938
▁English	-8.61945
▁agency	-8.62023
▁summit	-8.62023
▁competition	-8.6213
▁man	-8.62161
▁away	-8.62397
▁14	-8.62568
▁continue	-8.62574
▁representative	-8.62583
▁hold	-8.62649
min	-8.62788
▁got	-8.62833
▁started	-8.6298
▁cost	-8.63075
▁administration	-8.63388
▁old	-8.63434
▁became	-8.6362
▁Han	-8.63675
C	-8.63851
▁taking	-8.6401
▁opening	-8.64039
▁visited	-8.64198
▁late	-8.64285
▁improve	-8.64404
▁community	-8.64463
▁along	-8.64607
▁air	-8.64706
▁income	-8.64775
▁better	-8.65009
▁contract	-8.65063
▁administrative	-8.65201
▁likely	-8.65277
▁season	-8.6541
▁welfare	-8.65433
il	-8.66081
▁Gwangju	-8.66215
▁Mayor	-8.66318
▁Where	-8.66353
un	-8.66799
soo	-8.66862
▁leader	-8.66918
▁led	-8.67015
▁demand	-8.67034
▁asked	-8.67069
▁another	-8.67077
▁human	-8.67115
▁video	-8.67117
▁soon	-8.67156
▁non	-8.67184
▁accident	-8.67372
▁line	-8.6742
or	-8.67925
▁Shin	-8.67973
▁treatment	-8.67988
▁School	-8.68371
▁organization	-8.68463
▁World	-8.68466
▁promote	-8.68615
▁election	-8.68655
▁child	-8.68749
▁international	-8.69222
▁damage	-8.69465
▁D	-8.69545
▁located	-8.69743
▁third	-8.69966
▁history	-8.70137
▁things	-8.70286
▁stage	-8.70403
▁known	-8.70961
▁land	-8.71093
▁book	-8.71095
▁rights	-8.71199
D	-8.71298
▁space	-8.7133
▁establish	-8.71396
▁showed	-8.71424
▁security	-8.71583
▁confirmed	-8.7159
▁March	-8.7161
si	-8.71686
young	-8.71753
▁Kang	-8.71909
▁Group	-8.7193
▁fine	-8.72082
▁Jeju	-8.72172
ra	-8.72191
▁class	-8.72218
2	-8.72321
▁lead	-8.72358
▁un	-8.72682
▁International	-8.72765
▁Commission	-8.7279
▁parents	-8.72902
▁With	-8.73033
jin	-8.73041
▁Ji	-8.73235
▁problems	-8.73255
▁design	-8.73506
▁caused	-8.73552
▁began	-8.73635
▁17	-8.73742
g	-8.73756
▁provided	-8.73865
▁attended	-8.73917
ic	-8.73988
▁G	-8.74192
▁didn	-8.74626
to	-8.74697
▁war	-8.74718
▁added	-8.74941
▁Police	-8.75044
▁position	-8.75074
▁decision	-8.75293
▁subject	-8.75327
san	-8.75427
▁let	-8.75527
▁employment	-8.75576
▁inspection	-8.75928
▁(1)	-8.75996
▁How	-8.76177
▁region	-8.76488
▁middle	-8.76635
p	-8.76646
▁institutions	-8.76731
B	-8.7676
▁night	-8.76815
▁persons	-8.76817
",	-8.76822
▁previous	-8.76928
mi	-8.77242
year	-8.77299
▁movie	-8.77419
ary	-8.77464
▁value	-8.77492
▁policies	-8.77539
▁short	-8.77635
It	-8.78086
▁society	-8.78092
▁Even	-8.78096
▁players	-8.7812
▁ruling	-8.78161
▁housing	-8.78383
▁quality	-8.78528
▁fans	-8.7862
▁sent	-8.78855
▁having	-8.78926
▁bus	-8.79123
le	-8.79139
▁far	-8.79241
▁participated	-8.79266
▁overseas	-8.79374
▁district	-8.79479
▁minutes	-8.79741
▁To	-8.80106
▁role	-8.80155
K	-8.8028
▁actively	-8.80312
▁changed	-8.80392
▁directly	-8.80566
▁trial	-8.80632
▁thought	-8.80654
▁cause	-8.80702
▁move	-8.80728
▁control	-8.80735
▁experts	-8.80851
▁pointed	-8.80894
▁little	-8.81057
▁opposition	-8.81142
▁Seo	-8.81189
▁prepare	-8.81271
▁schools	-8.81306
▁joint	-8.8145
ation	-8.81531
▁exchange	-8.81701
▁final	-8.8186
▁political	-8.81909
▁House	-8.8196
▁store	-8.82053
▁25	-8.82114
▁chief	-8.82257
▁Co	-8.82269
▁return	-8.82468
▁insurance	-8.82486
▁April	-8.82623
▁card	-8.82708
Korean	-8.82731
▁effect	-8.82781
▁promotion	-8.82914
▁run	-8.83243
▁24	-8.83519
it	-8.83527
▁study	-8.83561
▁six	-8.83582
▁facility	-8.83657
▁stock	-8.83849
▁call	-8.83865
▁age	-8.83872
▁States	-8.83954
▁completed	-8.84356
▁funds	-8.8471
▁traditional	-8.84858
▁applied	-8.84909
▁additional	-8.85023
▁road	-8.8506
▁conditions	-8.8512
▁later	-8.85134
▁Can	-8.8514
▁face	-8.85182
▁raised	-8.85552
(	-8.85592
▁existing	-8.85623
▁really	-8.85713
▁near	-8.85897
▁June	-8.85924
▁Sung	-8.85981
▁always	-8.86027
▁given	-8.86088
▁50	-8.86199
▁P	-8.86435
▁tell	-8.86503
▁trillion	-8.86508
▁Liberty	-8.86516
▁customers	-8.86697
▁enjoy	-8.86766
▁evaluation	-8.8686
▁Station	-8.86863
▁senior	-8.86956
▁revealed	-8.8698
▁de	-8.87015
▁Jin	-8.87022
ity	-8.87035
▁survey	-8.87077
▁Provincial	-8.87097
▁businesses	-8.87304
▁Public	-8.87325
▁July	-8.87607
▁jobs	-8.87703
▁CEO	-8.87752
▁supply	-8.88393
▁buy	-8.88671
▁Jang	-8.8869
▁response	-8.88786
▁keep	-8.88801
▁often	-8.88809
▁sector	-8.88849
ment	-8.88854
▁match	-8.88962
▁materials	-8.89132
ion	-8.89358
▁basic	-8.89712
▁hospital	-8.89828
▁taken	-8.89882
▁least	-8.90018
▁But	-8.9004
▁seen	-8.90106
▁share	-8.90117
▁civil	-8.90293
▁account	-8.90395
▁rather	-8.90487
▁exhibition	-8.90498
▁emergency	-8.90762
▁industrial	-8.90828
▁student	-8.90951
▁art	-8.90981
▁e	-8.9099
▁others	-8.9117
▁higher	-8.91231
▁Sang	-8.91335
▁news	-8.91457
▁Supreme	-8.91543
▁21	-8.91587
▁medium	-8.91897
hyun	-8.92032
▁largest	-8.92057
▁wage	-8.92078
▁events	-8.92105
▁Yoon	-8.92199
▁Yang	-8.92351
▁recent	-8.92362
▁Bank	-8.92607
▁Affairs	-8.92612
T	-8.92627
▁increasing	-8.92633
▁Min	-8.92678
”	-8.92866
U	-8.92877
▁though	-8.9292
▁compared	-8.93052
▁planning	-8.93119
▁easy	-8.93268
▁possibility	-8.93365
▁review	-8.93727
▁story	-8.93887
▁operating	-8.94166
▁average	-8.94289
▁Financial	-8.94509
▁Jeong	-8.94583
▁works	-8.9466
▁27	-8.94981
▁co	-8.95208
▁never	-8.95272
▁Form	-8.95443
▁festival	-8.95607
▁phone	-8.95809
▁looking	-8.96166
▁issues	-8.96306
▁size	-8.96306
▁introduced	-8.96359
P	-8.96441
▁T	-8.96614
▁regular	-8.96618
▁inter	-8.96628
▁travel	-8.96704
▁advance	-8.96731
▁Seung	-8.96849
▁Kyung	-8.96891
▁September	-8.96914
▁conduct	-8.96945
▁conference	-8.96945
▁fees	-8.97047
ness	-8.97101
▁form	-8.97106
▁close	-8.97208
▁energy	-8.97439
▁establishment	-8.97549
▁expand	-8.97582
▁leave	-8.97706
▁ago	-8.9796
sa	-8.97988
▁film	-8.98254
▁Hyun	-8.98283
▁Then	-8.98416
▁costs	-8.98509
▁goal	-8.98534
▁course	-8.98538
▁dust	-8.98551
▁Hyundai	-8.98556
▁met	-8.98679
▁Asian	-8.98708
▁eat	-8.98787
▁something	-8.98853
▁Festival	-8.98886
▁audit	-8.98997
▁families	-8.99108
▁officer	-8.9914
▁enough	-8.99228
▁understand	-8.99335
▁key	-8.9935
▁develop	-8.99458
▁press	-8.99517
▁created	-8.9976
▁23	-8.99808
▁Ha	-8.9989
▁outside	-8.99995
▁friends	-9.00026
▁cities	-9.00312
▁controversy	-9.00397
▁complex	-9.00631
▁Department	-9.00727
▁active	-9.00785
▁Management	-9.00876
▁present	-9.00922
woo	-9.0101
▁spread	-9.01066
▁Gangwon	-9.01077
▁Provided	-9.01095
▁death	-9.01107
▁opinions	-9.01115
▁Song	-9.01228
▁Tae	-9.01266
▁illegal	-9.0133
▁points	-9.01339
▁accordance	-9.01371
▁While	-9.01442
▁22	-9.01471
▁F	-9.01517
term	-9.01529
sized	-9.01685
▁developed	-9.01707
▁prepared	-9.01774
▁currently	-9.01797
▁friend	-9.01836
▁groups	-9.01963
▁operate	-9.02088
▁Nam	-9.02095
F	-9.02145
b	-9.02154
▁growing	-9.02193
▁Agency	-9.02196
▁words	-9.02284
▁hit	-9.02321
▁Some	-9.02357
▁talk	-9.02504
▁yet	-9.02602
▁method	-9.02917
▁afternoon	-9.03098
▁opinion	-9.03128
▁40	-9.03258
▁vehicle	-9.03444
▁status	-9.03633
▁try	-9.0368
▁needed	-9.03684
▁leading	-9.03841
▁documents	-9.03861
▁items	-9.03896
▁equipment	-9.04045
▁rise	-9.04103
▁opened	-9.04133
▁content	-9.04164
▁Trade	-9.04192
▁ask	-9.04315
▁October	-9.0433
▁”	-9.04334
able	-9.0434
time	-9.04568
▁Yes	-9.04578
▁sports	-9.04804
▁vice	-9.04841
▁record	-9.04852
hee	-9.04871
▁expressed	-9.04893
1	-9.05015
▁female	-9.05085
▁online	-9.05187
▁efforts	-9.05483
▁Administration	-9.05564
▁photo	-9.05581
▁hand	-9.05857
▁She	-9.06056
▁tomorrow	-9.06204
▁submit	-9.06224
▁Cheong	-9.06276
▁continued	-9.06287
▁parties	-9.06295
▁getting	-9.06301
▁28	-9.06442
▁similar	-9.0659
▁regulations	-9.06601
▁starting	-9.06633
c	-9.06688
▁passed	-9.06889
▁programs	-9.06928
▁purchase	-9.06984
el	-9.06984
gun	-9.07011
▁sold	-9.07015
▁clear	-9.07107
▁Internet	-9.07229
▁26	-9.07275
man	-9.0738
▁single	-9.07393
▁written	-9.07413
▁makes	-9.07462
▁secretary	-9.0752
▁personnel	-9.0763
▁men	-9.07887
▁designated	-9.0816
▁Land	-9.08198
▁manager	-9.08215
▁Yoo	-9.08254
▁believe	-9.08254
▁governor	-9.08268
▁lower	-9.08318
▁trip	-9.08364
ar	-9.08444
▁Gangnam	-9.08601
▁council	-9.08634
na	-9.08637
▁happy	-9.0873
▁legal	-9.08745
▁model	-9.08797
▁Mr	-9.09069
▁staff	-9.09259
▁improvement	-9.09263
▁reduce	-9.09282
▁Electronics	-9.09428
▁university	-9.09569
▁Justice	-9.09581
▁O	-9.09615
▁sorry	-9.09653
▁considered	-9.09789
▁minimum	-9.09865
▁shows	-9.10008
▁authorities	-9.10038
▁Yong	-9.10047
▁village	-9.10137
▁August	-9.10245
▁Wa	-9.1032
▁list	-9.10443
▁told	-9.10514
▁transportation	-9.10595
▁mother	-9.10606
▁nuclear	-9.10647
▁Daegu	-9.10663
▁lives	-9.10723
▁enter	-9.10846
▁contents	-9.10867
▁gave	-9.10917
▁lost	-9.10981
▁few	-9.1104
▁natural	-9.11162
▁further	-9.11322
▁division	-9.11415
▁January	-9.11468
▁language	-9.11554
ta	-9.11557
▁State	-9.11574
▁included	-9.1161
▁estate	-9.11652
▁ahead	-9.11823
▁daily	-9.11844
▁mobile	-9.11911
▁Prime	-9.12158
▁traffic	-9.12191
▁oil	-9.12303
▁sexual	-9.12342
▁Hwang	-9.12363
▁several	-9.1237
▁round	-9.12389
u	-9.12418
▁crisis	-9.12506
▁scene	-9.12601
▁fall	-9.12621
▁Research	-9.12663
▁built	-9.12702
en	-9.12814
▁First	-9.12994
N	-9.13088
▁light	-9.1312
▁heard	-9.13229
po	-9.13234
▁appointed	-9.13247
▁individual	-9.13408
▁Corporation	-9.13409
▁Health	-9.13428
▁Sun	-9.13576
▁Chang	-9.13743
▁schedule	-9.13997
▁station	-9.14145
▁song	-9.14276
▁needs	-9.1432
▁alone	-9.147
▁December	-9.1491
▁One	-9.14922
▁regional	-9.15027
▁vehicles	-9.15059
▁Chung	-9.15092
▁heat	-9.15164
▁lack	-9.15308
▁charges	-9.15317
▁seven	-9.15393
▁transfer	-9.15562
▁users	-9.1562
▁candidate	-9.15684
▁changes	-9.15698
one	-9.15759
▁inside	-9.15848
E	-9.15911
▁personal	-9.16053
▁include	-9.1618
▁kind	-9.16277
ma	-9.16277
▁capital	-9.16344
▁standard	-9.16356
▁rice	-9.16451
▁Vice	-9.16498
▁Se	-9.16702
▁parking	-9.16746
▁November	-9.16752
▁interested	-9.16769
▁contact	-9.16927
▁implement	-9.16998
less	-9.17247
▁action	-9.17263
▁famous	-9.17346
▁summer	-9.17472
su	-9.17766
▁TV	-9.17784
▁professional	-9.17856
▁credit	-9.17909
▁operated	-9.17918
▁easily	-9.17924
de	-9.18057
denuclearization	-9.18234
gi	-9.18245
▁Labor	-9.18277
▁Culture	-9.18288
▁2018	-9.1829
▁agencies	-9.184
▁High	-9.18537
ji	-9.1861
▁bill	-9.18657
yeon	-9.18663
▁burden	-9.18674
▁regarding	-9.18681
▁deliberation	-9.18952
▁Development	-9.18961
▁reform	-9.19017
▁receiving	-9.19023
▁played	-9.19029
▁immediately	-9.19118
▁woman	-9.1917
▁picture	-9.19403
▁central	-9.19411
▁drama	-9.19435
▁institution	-9.19656
▁communication	-9.19658
▁Hall	-9.19695
▁apartment	-9.19722
▁win	-9.19834
▁forward	-9.1987
▁opportunity	-9.19903
▁cold	-9.19972
▁questions	-9.20009
▁carried	-9.20071
▁fund	-9.20189
▁29	-9.20372
▁terms	-9.20624
▁highest	-9.20677
▁Re	-9.20697
▁approval	-9.20703
▁relationship	-9.20807
▁participation	-9.20901
▁issued	-9.20934
▁restaurant	-9.20964
▁original	-9.21036
▁property	-9.21048
▁Because	-9.21054
▁driving	-9.21072
old	-9.21128
▁professor	-9.21256
▁urban	-9.21319
L	-9.21366
▁union	-9.21711
▁cars	-9.21772
▁R	-9.21918
▁excellent	-9.22028
ha	-9.22091
▁available	-9.22136
▁Island	-9.22183
▁hot	-9.22183
▁details	-9.22213
▁governments	-9.22279
▁fee	-9.22301
▁prescribed	-9.22352
▁disaster	-9.22373
▁31	-9.2239
▁patients	-9.22526
▁negotiations	-9.2254
▁poor	-9.22681
▁Si	-9.22751
▁father	-9.22969
▁concerning	-9.22982
▁done	-9.23005
ju	-9.2303
▁trying	-9.23091
▁risk	-9.23092
related	-9.23121
▁relations	-9.23161
▁Among	-9.23196
▁Director	-9.23211
▁youth	-9.23251
▁Welfare	-9.23391
▁duties	-9.23391
▁heart	-9.23574
▁bank	-9.23649
▁Support	-9.2365
▁God	-9.23926
▁submitted	-9.2399
▁trend	-9.24019
▁consumers	-9.24137
▁considering	-9.242
▁games	-9.24266
▁actual	-9.24277
▁drawing	-9.24407
▁pre	-9.24408
▁standards	-9.24449
▁college	-9.24507
▁February	-9.24544
▁executive	-9.24657
▁wanted	-9.24684
▁Security	-9.24729
h	-9.24744
ive	-9.24777
▁session	-9.25187
▁places	-9.25333
▁mind	-9.25353
▁Na	-9.25445
▁coming	-9.25498
▁quickly	-9.25567
▁parts	-9.2565
▁bad	-9.25657
▁type	-9.25747
▁Special	-9.25808
O	-9.2588
▁Let	-9.26045
▁holding	-9.26058
▁talks	-9.2608
▁hall	-9.26095
▁learning	-9.26115
▁determined	-9.26263
▁Foundation	-9.26286
te	-9.26324
▁sense	-9.26376
▁concert	-9.26413
▁And	-9.26467
▁brand	-9.26521
▁worth	-9.26534
▁analysis	-9.26555
▁Local	-9.26859
▁certain	-9.27034
ization	-9.27068
▁presidential	-9.27086
▁board	-9.27244
▁interview	-9.27275
▁impact	-9.273
▁crime	-9.27326
▁stop	-9.27328
▁base	-9.27444
▁pressure	-9.27454
▁showing	-9.275
▁examination	-9.2757
▁corporate	-9.27628
▁Won	-9.27698
▁Russia	-9.27884
▁chairperson	-9.27919
▁disease	-9.28126
▁nation	-9.28155
▁post	-9.28192
▁reduced	-9.28399
▁doing	-9.28518
▁Fund	-9.28701
▁performances	-9.28822
▁structure	-9.28878
▁Day	-9.28922
z	-9.28988
▁attend	-9.29372
▁implementation	-9.29504
am	-9.29521
▁sea	-9.2957
▁matter	-9.29595
▁distribution	-9.2973
▁fell	-9.29849
▁metropolitan	-9.29939
▁Su	-9.30115
▁eyes	-9.30123
ki	-9.30224
▁doesn	-9.30253
cheon	-9.30293
▁waste	-9.30321
▁households	-9.30482
▁organized	-9.30523
▁industries	-9.30615
▁takes	-9.30823
▁saw	-9.30921
▁Science	-9.30943
▁build	-9.31025
▁document	-9.31122
▁Ma	-9.31167
▁statement	-9.31199
▁movement	-9.31266
▁dance	-9.31276
▁commercial	-9.31364
▁stores	-9.31396
▁true	-9.31462
▁might	-9.31486
▁produced	-9.31598
▁followed	-9.31681
▁thing	-9.31695
▁Technology	-9.31698
▁felt	-9.31734
sung	-9.31736
▁loan	-9.31909
▁Ki	-9.31924
▁series	-9.31982
▁Oh	-9.32072
▁sanctions	-9.32185
▁church	-9.32218
▁hearing	-9.32219
▁learn	-9.32236
ting	-9.32292
▁Cup	-9.32367
▁goods	-9.32386
▁required	-9.32489
In	-9.32507
▁agricultural	-9.32516
▁raise	-9.32541
level	-9.32574
R	-9.32647
▁manage	-9.3268
at	-9.32683
▁teams	-9.32697
▁population	-9.32937
▁concerns	-9.33172
▁watch	-9.3321
▁beautiful	-9.3333
▁delivery	-9.33443
▁message	-9.33443
▁failed	-9.33566
▁peace	-9.33608
▁caught	-9.3373
▁Lotte	-9.33743
▁leaders	-9.33956
▁direction	-9.34022
▁Transport	-9.34103
▁centers	-9.34307
▁Defense	-9.34562
▁wife	-9.34612
▁ordered	-9.34804
▁incident	-9.34805
▁Industrial	-9.34854
▁son	-9.34918
▁question	-9.35201
▁launched	-9.35222
us	-9.35254
▁common	-9.35423
▁atmosphere	-9.35435
▁installed	-9.35443
▁release	-9.3546
▁Secretary	-9.35461
▁strengthen	-9.35469
▁scheduled	-9.35502
▁difficulties	-9.35557
3	-9.35658
▁club	-9.35718
▁victims	-9.35804
▁resources	-9.35955
▁Cultural	-9.35965
▁moment	-9.36027
▁educational	-9.36048
▁grow	-9.36106
▁temperature	-9.3612
▁People	-9.36212
▁behind	-9.36261
▁Economic	-9.36358
▁enterprises	-9.36453
▁entrance	-9.36472
▁whole	-9.36539
▁direct	-9.36572
If	-9.36589
▁color	-9.36616
▁Asia	-9.36652
▁pro	-9.36718
lo	-9.36724
▁benefits	-9.3677
▁sites	-9.37039
myeon	-9.37165
▁books	-9.37216
▁view	-9.37474
▁reality	-9.37515
▁skin	-9.37601
7	-9.3762
▁below	-9.37652
▁tried	-9.37736
▁reduction	-9.37772
▁cut	-9.37837
out	-9.37841
▁fourth	-9.37978
▁Son	-9.38003
▁minister	-9.38015
▁ground	-9.38182
▁writing	-9.3822
▁Safety	-9.38301
▁elderly	-9.38485
▁participating	-9.38535
▁anniversary	-9.38562
ist	-9.38872
▁60	-9.38936
▁falling	-9.38966
local	-9.38978
me	-9.3898
▁instead	-9.39052
▁read	-9.3913
▁protection	-9.39169
no	-9.39218
▁weather	-9.39241
▁rest	-9.39435
▁entire	-9.39485
▁deal	-9.39537
▁positive	-9.39562
▁headquarters	-9.39624
▁itself	-9.3965
▁progress	-9.39651
▁shopping	-9.39666
▁image	-9.39675
▁condition	-9.39695
▁Promotion	-9.39728
▁generation	-9.39764
▁introduce	-9.3982
▁accounting	-9.39874
▁bring	-9.39879
▁M	-9.39954
▁evidence	-9.40009
▁hands	-9.40027
▁character	-9.4008
▁annual	-9.40095
ok	-9.40125
▁raising	-9.40235
▁commissioned	-9.40252
▁Vietnam	-9.40286
▁anti	-9.40358
▁died	-9.40454
▁sure	-9.40467
▁entered	-9.40504
▁Business	-9.4054
▁Many	-9.40584
▁filed	-9.40687
▁Ahn	-9.40776
▁earlier	-9.40784
▁perform	-9.40804
▁Mi	-9.40812
▁Go	-9.40826
▁requested	-9.40871
▁appeared	-9.40886
et	-9.40932
▁focus	-9.40984
▁participants	-9.41037
▁occurred	-9.41072
seok	-9.41211
▁winter	-9.41418
▁duty	-9.4143
▁unique	-9.41514
▁Sa	-9.41538
▁skills	-9.4156
▁rain	-9.41752
▁user	-9.41764
▁highly	-9.41813
▁network	-9.41956
▁player	-9.42015
▁wrong	-9.42088
▁stay	-9.42209
▁universities	-9.42483
▁plant	-9.42494
▁Air	-9.42554
ur	-9.42597
▁beginning	-9.4267
rs	-9.42716
▁markets	-9.42739
▁Kong	-9.42742
▁hotel	-9.42924
▁Donald	-9.43011
▁accidents	-9.43036
▁Central	-9.43048
▁eight	-9.43086
▁Germany	-9.43172
▁yesterday	-9.43224
▁website	-9.43358
▁secure	-9.43363
▁Foreign	-9.43418
▁Industry	-9.4349
▁stressed	-9.43515
▁chance	-9.43528
M	-9.4355
li	-9.43593
ul	-9.43598
▁solve	-9.43631
▁involved	-9.43658
hwan	-9.43797
▁quarter	-9.43842
▁Ho	-9.43911
▁owner	-9.43949
▁All	-9.44143
▁Blue	-9.44229
scale	-9.44254
bu	-9.44298
▁collection	-9.44305
▁red	-9.44403
co	-9.44423
tic	-9.44485
▁Chief	-9.44496
▁Year	-9.44513
▁step	-9.44575
▁anything	-9.44644
▁mid	-9.44663
ism	-9.44758
▁expansion	-9.44776
▁across	-9.44884
▁example	-9.44892
yong	-9.45097
▁degrees	-9.45213
▁houses	-9.45234
ted	-9.45383
▁visitors	-9.45386
▁speed	-9.45426
▁holiday	-9.45488
▁Infrastructure	-9.45507
▁agreed	-9.45535
deemed	-9.45589
▁taste	-9.45725
▁intends	-9.45769
W	-9.45811
▁internal	-9.45831
▁specific	-9.45941
ce	-9.46
▁Lim	-9.46026
▁creating	-9.46072
ry	-9.46079
▁variety	-9.46298
▁American	-9.46432
▁worked	-9.46477
▁comes	-9.46483
▁visiting	-9.46542
▁loans	-9.46551
▁tourism	-9.46572
▁sale	-9.46688
▁heavy	-9.4671
▁violence	-9.4671
▁gas	-9.46943
mo	-9.47046
▁export	-9.47121
▁Finance	-9.47178
▁address	-9.47207
▁usually	-9.47227
▁act	-9.47251
▁difference	-9.47497
▁environmental	-9.47501
▁launch	-9.47592
▁posted	-9.47599
▁follow	-9.47797
▁basis	-9.47871
▁rates	-9.47881
4	-9.47944
▁General	-9.47971
▁reading	-9.47979
▁teacher	-9.48073
ci	-9.48169
▁complete	-9.48331
▁protect	-9.48339
▁ability	-9.48362
▁ways	-9.48395
▁investigating	-9.48401
▁De	-9.48421
ate	-9.48464
▁implemented	-9.48536
▁authority	-9.48577
▁defense	-9.48626
go	-9.48666
▁green	-9.4869
▁ensure	-9.4882
▁popularity	-9.48967
▁sound	-9.49033
▁delivered	-9.49093
H	-9.49113
▁turned	-9.49154
▁properly	-9.49308
ty	-9.49339
▁reasons	-9.49407
▁force	-9.49415
▁proposed	-9.4963
▁pass	-9.49655
▁announcement	-9.49677
▁York	-9.49696
▁Professor	-9.49712
▁disabled	-9.49812
▁East	-9.49868
▁coach	-9.49871
▁profit	-9.49942
▁teachers	-9.50025
▁branch	-9.50124
▁arrest	-9.50174
▁Suwon	-9.50174
▁tourists	-9.50185
▁street	-9.50267
▁serious	-9.50332
▁Food	-9.50375
▁couldn	-9.50467
▁limited	-9.50477
▁hour	-9.50478
▁convenience	-9.5055
▁corporation	-9.50582
▁toward	-9.50612
▁prevention	-9.50612
,”	-9.50734
▁airport	-9.50784
hoon	-9.50884
ol	-9.5102
▁During	-9.51053
▁daughter	-9.51162
▁creation	-9.51267
▁Decree	-9.51276
▁career	-9.51415
▁compensation	-9.51468
ja	-9.51484
▁elementary	-9.51585
▁customer	-9.51608
ne	-9.51886
▁safe	-9.51945
ch	-9.51946
▁hair	-9.52016
ter	-9.52069
▁fair	-9.52099
▁Eun	-9.52164
▁theme	-9.52238
▁conflict	-9.52345
▁material	-9.52499
▁blood	-9.52644
▁discuss	-9.52674
▁200	-9.5272
be	-9.52742
▁King	-9.52753
▁War	-9.52837
age	-9.52953
▁(2)	-9.52966
▁award	-9.52979
▁criticized	-9.52996
▁innovation	-9.53038
▁ex	-9.53256
▁comprehensive	-9.53257
▁search	-9.53278
ng	-9.5337
▁predicted	-9.53535
▁Bo	-9.53569
▁Peninsula	-9.53626
pop	-9.53691
5	-9.53697
▁arrested	-9.5372
▁pain	-9.53726
▁effects	-9.53775
▁paper	-9.53841
▁giving	-9.53862
▁section	-9.53865
▁criticism	-9.53921
▁nature	-9.54039
▁foundation	-9.54044
▁proposal	-9.54055
▁someone	-9.54081
▁audience	-9.54191
▁expect	-9.54212
▁candidates	-9.5439
▁era	-9.5442
6	-9.54451
▁sell	-9.54492
▁appointment	-9.54578
▁Life	-9.54626
▁responsibility	-9.54662
ated	-9.54697
friendly	-9.54769
▁moved	-9.54812
▁Sports	-9.54954
▁simple	-9.5505
▁allow	-9.55076
▁providing	-9.5508
▁sign	-9.55098
▁loss	-9.55179
▁signed	-9.55409
▁ball	-9.55463
ia	-9.55546
w	-9.55558
▁Market	-9.55605
▁reached	-9.55667
▁physical	-9.55678
▁Why	-9.55728
▁fun	-9.5591
▁dream	-9.55927
▁banks	-9.55949
▁maintain	-9.56035
▁returned	-9.56111
▁train	-9.56137
▁consideration	-9.56143
▁black	-9.56232
▁Woo	-9.5637
▁recognized	-9.56371
▁River	-9.56378
▁unit	-9.56395
▁mentioned	-9.56403
▁Chairperson	-9.56508
▁especially	-9.56586
▁gathered	-9.56631
▁overall	-9.56651
▁science	-9.56672
▁tour	-9.56713
▁manufacturing	-9.56806
▁carry	-9.56809
▁success	-9.56906
▁influence	-9.56938
▁Kwon	-9.56947
▁function	-9.57285
▁actually	-9.57373
▁reports	-9.57408
▁driver	-9.57453
▁household	-9.57462
▁becoming	-9.57471
▁Enforcement	-9.57679
▁park	-9.5768
▁bit	-9.57724
ling	-9.57766
▁fast	-9.57783
▁recommended	-9.5783
▁practice	-9.57864
▁Hee	-9.57948
▁voice	-9.57956
▁wait	-9.5796
▁themselves	-9.57992
▁clean	-9.57994
▁Yu	-9.58023
▁classes	-9.58054
based	-9.58069
▁answer	-9.58102
▁break	-9.58176
▁responsible	-9.58177
▁t	-9.58234
▁Daejeon	-9.5827
▁forest	-9.58328
▁preparing	-9.58362
9	-9.58373
▁idea	-9.5844
▁registration	-9.58599
ies	-9.58635
▁shown	-9.58661
▁By	-9.58691
▁ever	-9.58692
▁V	-9.58697
▁consultation	-9.58793
▁white	-9.58796
▁Women	-9.58818
▁deputy	-9.5892
▁file	-9.58942
▁multi	-9.58987
▁owners	-9.59
▁except	-9.59038
▁Complex	-9.59107
▁relatively	-9.59179
▁clothes	-9.59203
▁Federation	-9.59231
▁Union	-9.59268
▁2019	-9.59354
▁prize	-9.59389
▁significant	-9.5945
▁biggest	-9.59669
▁vacation	-9.597
▁H	-9.59753
▁turn	-9.5978
▁resolution	-9.59839
▁abroad	-9.59857
▁N	-9.59885
▁contest	-9.5992
▁ratio	-9.59945
▁taxi	-9.6018
▁letter	-9.60324
sik	-9.60358
is	-9.60391
▁nearby	-9.604
▁access	-9.60417
▁buildings	-9.60462
▁says	-9.60466
x	-9.60472
▁suspected	-9.60473
▁location	-9.60555
hwa	-9.60625
bi	-9.60673
ru	-9.60838
▁target	-9.60949
▁wave	-9.60979
▁artists	-9.61033
▁electric	-9.61169
▁registered	-9.61253
▁pm	-9.61347
▁Art	-9.61366
▁himself	-9.61473
8	-9.61526
▁investors	-9.61539
tae	-9.61604
▁separate	-9.61626
▁running	-9.61637
There	-9.61734
▁records	-9.61777
▁notify	-9.61837
▁warrant	-9.61874
jo	-9.62022
▁intention	-9.62041
▁These	-9.62132
▁expectations	-9.623
▁huge	-9.62336
▁strategy	-9.62526
▁allowed	-9.62591
▁Joseon	-9.62592
▁connection	-9.62756
ant	-9.62898
▁Project	-9.62947
".	-9.62993
▁everyone	-9.63025
▁table	-9.63101
led	-9.63103
la	-9.63136
▁adding	-9.63221
f	-9.63293
▁appearance	-9.63307
▁successful	-9.63377
▁selling	-9.63444
head	-9.63647
▁Airport	-9.63695
▁Are	-9.63746
▁sharing	-9.63764
▁closed	-9.6379
jung	-9.63894
▁broadcast	-9.63944
▁analyzed	-9.63991
▁respectively	-9.63995
▁entrusted	-9.6411
▁Deputy	-9.64117
▁SK	-9.64186
▁prescribe	-9.64214
▁zone	-9.64231
▁From	-9.64417
▁LG	-9.64454
▁platform	-9.64495
▁nothing	-9.64516
▁warm	-9.64539
▁expanding	-9.64606
▁Hye	-9.64616
jeong	-9.64676
▁jurisdiction	-9.64708
▁entertainment	-9.6471
▁Gyeongsang	-9.64736
▁planned	-9.64809
▁wish	-9.64858
▁includes	-9.64887
▁goes	-9.64934
▁meaning	-9.64985
▁fully	-9.65049
▁European	-9.65057
ful	-9.65144
▁northern	-9.6517
▁characteristics	-9.65177
▁trust	-9.65192
▁campaign	-9.6524
▁gap	-9.6541
▁farmers	-9.65433
▁hosted	-9.65549
▁revision	-9.65705
▁reach	-9.65732
as	-9.65759
seong	-9.65786
▁waiting	-9.65884
▁agenda	-9.65901
▁newly	-9.65924
▁coffee	-9.66067
▁joined	-9.66119
▁(1),	-9.66186
▁actor	-9.6624
op	-9.66343
▁winning	-9.66395
▁join	-9.66449
line	-9.66592
▁playing	-9.6663
▁prison	-9.66636
▁Europe	-9.66672
▁recorded	-9.6679
▁determine	-9.66799
▁introduction	-9.66815
▁Seong	-9.6688
▁certificate	-9.66887
▁watching	-9.66916
bo	-9.66945
han	-9.66958
▁published	-9.6704
▁moving	-9.67058
ex	-9.67202
▁reportedly	-9.67211
▁bought	-9.67242
▁older	-9.67264
day	-9.67343
▁hear	-9.67402
▁cancer	-9.67534
ni	-9.67621
▁limit	-9.67645
▁range	-9.67661
▁presented	-9.67677
▁infrastructure	-9.67682
▁gift	-9.67717
▁elections	-9.6773
▁screen	-9.6778
▁circumstances	-9.67789
▁resident	-9.67804
▁ship	-9.67843
▁caus	-9.68003
▁rising	-9.68056
▁investigate	-9.68108
▁designed	-9.68124
▁killed	-9.68124
ad	-9.68132
▁Thank	-9.68223
▁Village	-9.68226
▁lawmakers	-9.68246
▁Currently	-9.68329
▁supporting	-9.68435
▁wind	-9.68452
▁exercise	-9.68553
▁victim	-9.68568
▁broke	-9.6857
▁separately	-9.68669
▁Social	-9.68799
▁recommend	-9.68845
▁selection	-9.68858
▁expanded	-9.68879
▁rental	-9.69013
▁Church	-9.69117
▁Byung	-9.69198
▁improved	-9.69299
▁notice	-9.69376
▁con	-9.69379
▁Koreans	-9.69393
▁external	-9.69461
▁Wave	-9.69469
▁70	-9.69522
▁healthy	-9.69534
▁Un	-9.69565
▁box	-9.69581
▁Hospital	-9.69669
▁screening	-9.69803
▁drop	-9.69864
▁dollars	-9.69892
▁promoting	-9.69946
▁claimed	-9.70061
▁songs	-9.70114
▁measure	-9.70136
▁brother	-9.70236
▁exports	-9.70322
▁viewers	-9.7034
▁eligible	-9.70345
▁competitiveness	-9.7037
▁Ja	-9.70457
▁superintendent	-9.70535
▁everything	-9.70609
▁Cha	-9.70615
▁above	-9.70643
pa	-9.7066
▁regions	-9.70676
▁counseling	-9.70697
▁Ko	-9.70767
▁word	-9.70822
▁Jeon	-9.70911
▁improving	-9.71133
▁advanced	-9.71168
▁longer	-9.71263
▁pension	-9.71336
▁formed	-9.7136
im	-9.71399
▁suffering	-9.71399
▁provisions	-9.71437
▁gender	-9.71556
▁almost	-9.71559
▁becomes	-9.71574
▁thinking	-9.71617
▁employee	-9.71641
▁Sam	-9.71673
▁lecture	-9.71676
▁Tourism	-9.71875
▁depending	-9.71906
▁grade	-9.72017
▁served	-9.72038
▁focused	-9.72063
▁elected	-9.72106
▁collected	-9.7216
▁maintenance	-9.72167
▁singer	-9.72202
▁husband	-9.7228
▁sleep	-9.72311
▁assets	-9.72423
way	-9.72438
▁supported	-9.72477
▁knowledge	-9.72547
▁serve	-9.72564
▁detailed	-9.72575
▁consumer	-9.72654
▁technologies	-9.72868
▁although	-9.72903
nam	-9.72915
▁delayed	-9.72945
▁Environment	-9.72978
▁Sejong	-9.73019
▁spring	-9.73048
▁Singapore	-9.73071
▁smart	-9.73083
▁beauty	-9.73147
▁negative	-9.73163
▁Man	-9.7326
di	-9.73339
▁principle	-9.73421
ized	-9.73438
▁Also	-9.73443
▁provides	-9.73503
▁factory	-9.73555
▁birth	-9.73717
▁claim	-9.7372
▁contribute	-9.73773
▁lawmaker	-9.73823
▁completely	-9.73953
per	-9.74004
▁Most	-9.74018
▁accept	-9.74043
▁eye	-9.74061
▁300	-9.74079
▁item	-9.74087
▁cooperate	-9.74234
sun	-9.74239
pe	-9.74288
▁Fair	-9.74315
▁effective	-9.74321
▁League	-9.74324
▁marketing	-9.74334
▁Regard	-9.74348
▁cash	-9.74348
▁looks	-9.74447
con	-9.7446
▁soccer	-9.74488
and	-9.74523
▁changing	-9.74598
▁forced	-9.74609
▁fields	-9.7473
▁article	-9.74886
▁despite	-9.74891
▁meal	-9.74902
▁discussion	-9.74902
▁mayor	-9.74938
▁County	-9.75074
hye	-9.75087
▁style	-9.75098
▁types	-9.75106
▁remarks	-9.75119
▁mainly	-9.7535
▁emphasized	-9.75417
▁photos	-9.75442
▁modern	-9.75448
▁score	-9.75516
▁reflect	-9.75552
▁procedures	-9.75583
▁Movement	-9.75583
▁500	-9.75593
▁seats	-9.75688
▁broadcasting	-9.75698
▁Jo	-9.75737
▁venue	-9.75914
▁consist	-9.7596
▁specialized	-9.76011
V	-9.76052
▁studying	-9.76087
▁discount	-9.76155
▁rose	-9.76174
▁continues	-9.76208
0	-9.76209
▁wide	-9.76279
▁album	-9.76284
▁Myung	-9.76373
ti	-9.76408
▁developing	-9.76493
▁choose	-9.76542
▁consecutive	-9.76591
▁allows	-9.76604
▁meters	-9.76656
▁star	-9.76657
▁consumption	-9.76777
▁select	-9.76836
▁fish	-9.7684
▁Mountain	-9.76876
ver	-9.76877
▁stocks	-9.76907
▁disabilities	-9.76913
▁greatly	-9.7692
▁independence	-9.77137
▁Representative	-9.7727
▁Employment	-9.77369
▁nine	-9.77436
▁Be	-9.77442
▁ordinary	-9.77486
▁respond	-9.77565
est	-9.77569
China	-9.77746
v	-9.77784
▁units	-9.77843
▁drink	-9.77848
▁fishing	-9.77975
▁Baek	-9.78122
▁performed	-9.78133
▁surgery	-9.78188
ent	-9.78224
▁leaving	-9.78224
▁installation	-9.7831
▁girl	-9.78335
▁Pyongyang	-9.78351
▁petition	-9.78352
▁delay	-9.78399
▁promoted	-9.7841
▁flight	-9.78516
▁door	-9.7852
▁scope	-9.78563
▁methods	-9.78573
▁choice	-9.78613
▁rapidly	-9.78639
▁wear	-9.78694
▁suffered	-9.78758
▁Sea	-9.7877
20	-9.78823
▁vote	-9.78868
▁standing	-9.78869
▁judge	-9.78909
▁Soo	-9.78954
▁attract	-9.78978
▁entering	-9.78995
▁library	-9.79018
▁divided	-9.79152
▁Don	-9.79159
ga	-9.79208
▁settlement	-9.79214
▁throughout	-9.79422
▁seem	-9.79556
▁abuse	-9.79608
▁speech	-9.7964
▁Roh	-9.79723
▁collect	-9.79734
▁meetings	-9.79746
chan	-9.79757
▁finished	-9.79835
▁exam	-9.79858
▁brought	-9.80088
▁Of	-9.80166
ke	-9.80172
▁focusing	-9.80268
▁worried	-9.8028
▁Ju	-9.80296
▁concern	-9.80353
▁medicine	-9.80384
▁remaining	-9.8039
▁seat	-9.80437
▁severe	-9.80449
site	-9.80561
▁taxes	-9.80584
▁walk	-9.8062
▁write	-9.80626
▁weight	-9.80639
▁activity	-9.80689
▁produce	-9.80692
▁academic	-9.80791
ang	-9.80804
▁Ulsan	-9.80839
▁preparation	-9.80845
▁stable	-9.809
▁ticket	-9.80954
▁significantly	-9.80974
▁Rules	-9.81041
▁background	-9.81058
▁snow	-9.81131
▁male	-9.81184
▁eating	-9.81211
▁advantage	-9.81232
▁receipt	-9.81242
▁profits	-9.81339
▁electronic	-9.81342
▁Peace	-9.81428
▁subway	-9.81523
▁criminal	-9.81559
▁fan	-9.81573
▁meaningful	-9.81614
▁Line	-9.81622
▁dramas	-9.81632
▁Me	-9.8164
▁2016	-9.81727
▁camp	-9.81753
▁busy	-9.8189
▁push	-9.81957
ating	-9.82067
▁opportunities	-9.82144
▁paying	-9.82186
▁Hae	-9.82191
eun	-9.82218
▁estimated	-9.82282
▁refund	-9.82302
▁Last	-9.82361
▁Small	-9.82367
▁county	-9.82391
▁America	-9.82408
▁Division	-9.82458
▁permission	-9.825
▁appropriate	-9.82516
▁assessment	-9.82593
▁weeks	-9.82611
▁Ga	-9.82692
▁subsidies	-9.82733
▁Table	-9.82763
▁Games	-9.82877
▁representatives	-9.82929
▁Our	-9.82988
▁preliminary	-9.83179
▁express	-9.83199
▁assault	-9.83205
▁title	-9.83266
▁Hotel	-9.8329
▁weekend	-9.83328
jae	-9.83389
ran	-9.83405
▁restaurants	-9.83437
um	-9.83447
▁arts	-9.83448
▁W	-9.83485
▁deep	-9.83545
▁Motor	-9.83591
▁pictures	-9.83643
▁spend	-9.83685
▁arrived	-9.83831
▁source	-9.83858
▁accounts	-9.83955
▁Human	-9.83992
▁avoid	-9.84003
▁decline	-9.84142
▁mountain	-9.84222
▁KT	-9.84224
▁speak	-9.84247
▁consider	-9.84337
▁movies	-9.84355
▁monthly	-9.84482
▁Policy	-9.84604
▁understanding	-9.84612
▁license	-9.84624
▁achieve	-9.84691
▁recruitment	-9.84692
▁dinner	-9.84764
▁respect	-9.84838
▁Facebook	-9.84885
▁More	-9.84885
▁shared	-9.84901
▁attending	-9.84914
▁autonomous	-9.84931
▁La	-9.84934
▁guarantee	-9.8506
▁shop	-9.85095
▁appear	-9.85135
▁volunteer	-9.85308
▁rent	-9.85318
▁volume	-9.8541
▁managed	-9.85466
ah	-9.85585
▁His	-9.85721
▁twice	-9.85735
▁L	-9.85768
▁thereof	-9.85824
ck	-9.85902
▁acting	-9.85951
▁computer	-9.85958
▁email	-9.86191
▁nationwide	-9.86307
▁factors	-9.8645
▁town	-9.86463
▁revenue	-9.86585
▁double	-9.86965
▁ten	-9.86991
▁Heung	-9.87007
ian	-9.87045
▁listen	-9.87048
▁Port	-9.87171
run	-9.87176
▁g	-9.87184
▁efficient	-9.87213
▁figure	-9.87255
▁decide	-9.87323
ir	-9.87325
▁Information	-9.87436
▁Agricultural	-9.87456
▁impossible	-9.87497
ak	-9.87561
▁devices	-9.87707
▁gold	-9.87709
▁remains	-9.87722
▁mean	-9.87806
▁contains	-9.87817
▁weak	-9.87839
▁decrease	-9.87997
▁shot	-9.8804
▁Services	-9.88063
▁majority	-9.88108
▁ended	-9.88222
▁Fire	-9.88268
▁Seok	-9.88281
▁occur	-9.88375
▁drug	-9.88417
▁stories	-9.88494
▁text	-9.88529
▁digital	-9.88536
▁forces	-9.88667
▁apartments	-9.88732
▁reporters	-9.88819
▁attack	-9.88842
▁follows	-9.88846
▁Recently	-9.88871
▁wrote	-9.88913
▁leadership	-9.88926
▁J	-9.88945
▁Da	-9.89061
North	-9.89117
▁suggested	-9.89124
▁Now	-9.8914
ine	-9.8915
▁confirm	-9.8921
▁punishment	-9.89253
▁blockchain	-9.89375
▁Ra	-9.89378
▁strength	-9.89425
▁believed	-9.89474
▁Under	-9.89706
▁track	-9.89719
▁heads	-9.89757
▁tourist	-9.89849
▁Museum	-9.89882
▁difficulty	-9.89967
▁sex	-9.90042
▁filled	-9.90075
▁exchanges	-9.90265
▁Yeong	-9.9027
▁films	-9.90325
▁Le	-9.90397
▁limits	-9.90446
▁prior	-9.90459
▁unable	-9.90473
As	-9.90614
▁concerned	-9.90694
ence	-9.90706
▁anyone	-9.90835
▁Ro	-9.90875
ance	-9.90898
▁handle	-9.90976
▁sentenced	-9.91031
▁fashion	-9.91047
▁Could	-9.91075
▁executives	-9.9108
▁myself	-9.91177
▁Construction	-9.91203
▁spirit	-9.91231
▁normal	-9.9129
▁beyond	-9.91591
▁extra	-9.91628
▁solution	-9.91748
▁judges	-9.9178
▁Po	-9.91822
▁expects	-9.91889
▁potential	-9.91892
▁cover	-9.91916
▁debate	-9.91936
▁nice	-9.9194
▁missing	-9.91973
▁surrounding	-9.91988
▁smartphone	-9.92011
▁endeavor	-9.92022
▁explain	-9.92041
▁require	-9.9207
▁feeling	-9.92084
▁allegations	-9.92163
▁happened	-9.92199
▁damaged	-9.92233
ton	-9.92236
▁reservation	-9.92293
▁deposit	-9.923
▁Republic	-9.92353
▁born	-9.92374
50	-9.92427
▁index	-9.92458
▁association	-9.92458
▁manner	-9.92472
▁Former	-9.92532
▁wearing	-9.92556
▁accused	-9.92605
▁expensive	-9.9263
▁stand	-9.92697
▁proceed	-9.92711
▁2017	-9.928
▁cell	-9.92844
▁revised	-9.92847
▁directors	-9.92886
▁path	-9.92926
▁Russian	-9.92954
▁Taiwan	-9.92977
▁calling	-9.93005
▁retirement	-9.93024
▁Insurance	-9.93285
▁concept	-9.93336
▁lawsuit	-9.93437
▁app	-9.93495
▁decreased	-9.93653
▁remember	-9.9375
▁named	-9.93753
▁plants	-9.93777
▁task	-9.93917
▁farming	-9.93922
▁quite	-9.93941
▁worker	-9.9399
▁asking	-9.94005
▁About	-9.9406
▁Yi	-9.94087
▁Organization	-9.9411
▁firm	-9.94195
▁Joon	-9.94212
▁shape	-9.94225
▁victory	-9.94253
▁judgment	-9.94324
▁Iran	-9.94337
▁Goyang	-9.9435
▁diseases	-9.94372
▁temporary	-9.94595
▁finally	-9.94666
▁processing	-9.94682
▁enhance	-9.9485
▁calls	-9.94904
▁roads	-9.9496
end	-9.94969
sang	-9.95042
▁affected	-9.95083
▁semiconductor	-9.95182
▁Youth	-9.95203
▁conducting	-9.95228
▁intelligence	-9.95231
▁deliver	-9.9528
▁dis	-9.95288
▁couple	-9.95305
▁repair	-9.9536
▁Mo	-9.95362
▁residential	-9.95363
▁mental	-9.95404
▁device	-9.95498
Y	-9.95503
▁patient	-9.95624
▁master	-9.95632
ge	-9.95775
▁independent	-9.95833
▁counties	-9.95905
▁spent	-9.96041
▁violation	-9.96062
dae	-9.96208
ung	-9.96208
▁capacity	-9.96216
▁attracting	-9.96231
▁strike	-9.96258
free	-9.96287
ous	-9.96368
▁draw	-9.9645
▁guide	-9.96472
▁Economy	-9.9649
▁mark	-9.96531
▁dog	-9.96547
▁1,	-9.96581
▁theater	-9.96704
▁briefing	-9.96707
▁fixed	-9.96942
▁foreigners	-9.96982
pi	-9.97118
son	-9.97127
▁trees	-9.97139
▁effort	-9.97193
ie	-9.97209
▁shares	-9.97227
▁wants	-9.97245
▁admission	-9.97343
▁cancel	-9.97563
▁failure	-9.97628
income	-9.97644
yang	-9.97645
▁Through	-9.97645
▁complaints	-9.97652
▁Therefore	-9.97673
▁kept	-9.97673
▁soldiers	-9.97678
▁researcher	-9.9774
▁eco	-9.97775
▁ranked	-9.97814
▁host	-9.97849
▁Due	-9.97881
▁discussed	-9.97952
▁increases	-9.97987
▁offer	-9.98067
▁en	-9.98078
▁suspect	-9.98105
▁dead	-9.98127
▁technical	-9.98132
10	-9.98196
▁resolve	-9.98216
▁France	-9.98226
▁begin	-9.98257
▁baby	-9.98271
▁stopped	-9.98275
▁crimes	-9.98326
▁German	-9.98342
▁alleged	-9.98432
▁Not	-9.98482
▁practical	-9.98501
▁Securities	-9.98593
▁baseball	-9.98642
▁artificial	-9.98685
▁Prosecutors	-9.98701
▁discussions	-9.98738
▁chicken	-9.98778
▁Headquarters	-9.98824
▁prosecutor	-9.98829
▁learned	-9.98871
▁lived	-9.98903
▁exact	-9.98951
▁commission	-9.99005
▁Jun	-9.99162
▁drinking	-9.99257
▁invest	-9.99312
▁completion	-9.99381
type	-9.99392
▁encourage	-9.99454
▁livestock	-9.99476
▁Energy	-9.99489
▁Geun	-9.99517
▁rich	-9.99564
▁reducing	-9.99575
long	-9.99742
▁historical	-9.99809
▁80	-9.99877
▁urgent	-9.99934
▁favorite	-9.99991
▁talking	-10
▁actors	-10.0001
▁suspicion	-10.0001
▁declaration	-10.0004
▁core	-10.0008
▁reflected	-10.0009
▁camera	-10.0015
▁Je	-10.0017
▁alternative	-10.0031
▁bag	-10.0035
▁features	-10.0036
▁cool	-10.0037
▁San	-10.0046
ee	-10.0068
va	-10.0075
▁checked	-10.0076
▁save	-10.0078
mun	-10.0082
▁pushed	-10.0088
▁pick	-10.009
▁trustee	-10.0102
jong	-10.0107
▁parliamentary	-10.0108
▁excessive	-10.0111
▁correct	-10.0117
▁justice	-10.0119
▁functions	-10.0123
▁attitude	-10.0126
▁animal	-10.013
▁officers	-10.0138
ize	-10.0139
▁scored	-10.0139
▁rooms	-10.0144
▁characters	-10.0145
▁display	-10.0152
id	-10.0154
▁minute	-10.0159
▁dispute	-10.016
men	-10.0166
▁accepted	-10.0175
ial	-10.019
ish	-10.0191
▁integrated	-10.0191
▁Middle	-10.0198
▁painting	-10.02
▁younger	-10.0201
▁judicial	-10.0201
▁Today	-10.0203
▁suddenly	-10.0207
▁secured	-10.0211
▁looked	-10.0214
seo	-10.0224
▁balance	-10.0226
▁Investment	-10.0233
▁establishing	-10.0233
▁currency	-10.0236
▁square	-10.0236
▁interpreted	-10.0239
▁sending	-10.0241
▁subparagraph	-10.0242
▁gather	-10.0247
red	-10.0252
▁marriage	-10.0257
▁suspended	-10.0266
▁injured	-10.027
▁AI	-10.0282
▁Medical	-10.0284
▁kinds	-10.029
▁seemed	-10.0291
com	-10.0296
▁presentation	-10.0301
▁ice	-10.0304
▁excluded	-10.0306
▁politics	-10.0308
▁debt	-10.0309
▁runs	-10.0315
▁applying	-10.0328
kyung	-10.0331
▁reporter	-10.0336
▁operator	-10.0345
▁Unlike	-10.0347
▁kindergartens	-10.0347
▁Rights	-10.0351
▁proper	-10.0371
▁comments	-10.0375
▁net	-10.0378
▁Team	-10.0384
▁scale	-10.0384
▁experienced	-10.0387
▁walking	-10.0391
▁electricity	-10.0393
chul	-10.0395
▁behavior	-10.0395
▁vulnerable	-10.0397
▁animals	-10.0401
▁Just	-10.0402
▁wall	-10.0409
▁truth	-10.0415
▁fight	-10.0416
▁lunch	-10.0419
▁jointly	-10.0422
▁trading	-10.0435
▁Civil	-10.0435
▁drive	-10.0442
wook	-10.0445
▁India	-10.0446
Gu	-10.0447
▁lawyer	-10.0449
ner	-10.0461
▁Yeon	-10.0479
▁outstanding	-10.0482
▁c	-10.0484
▁southern	-10.0489
▁suit	-10.0489
▁designation	-10.0494
▁league	-10.0495
▁rules	-10.05
▁benefit	-10.05
▁guidance	-10.0503
▁explanation	-10.0508
we	-10.0514
▁clearly	-10.0515
wi	-10.0518
▁finance	-10.0526
▁agree	-10.0532
▁foot	-10.0535
▁2015	-10.0537
▁1,000	-10.0539
off	-10.0541
▁Nowon	-10.0545
▁coast	-10.0546
da	-10.0547
▁finish	-10.0555
▁gradually	-10.0558
▁entry	-10.0563
▁announce	-10.0564
▁overcome	-10.058
▁Hak	-10.0586
▁musical	-10.0591
▁Did	-10.0599
▁Your	-10.0602
vi	-10.0603
▁Indonesia	-10.0604
Pop	-10.0608
▁Joo	-10.0608
▁lose	-10.0618
▁else	-10.0627
▁golf	-10.0629
▁outdoor	-10.0635
▁symptoms	-10.0639
▁o	-10.065
ster	-10.0654
▁rule	-10.0656
▁unfair	-10.0656
▁sister	-10.0661
US	-10.0682
▁innovative	-10.0712
▁Ba	-10.0714
▁doctor	-10.0715
▁via	-10.0717
gil	-10.0725
▁recommendation	-10.0735
▁White	-10.0735
▁realize	-10.0735
▁strengthening	-10.0744
▁stated	-10.0744
lu	-10.0745
em	-10.0752
▁requires	-10.0754
▁route	-10.0758
▁fresh	-10.076
ae	-10.0762
▁continuously	-10.0767
▁civic	-10.0773
▁border	-10.0788
▁sentence	-10.0791
ac	-10.0793
▁certification	-10.08
▁creative	-10.0803
▁conservative	-10.0807
▁Sohn	-10.0814
▁St	-10.0815
▁Saturday	-10.0817
▁plastic	-10.0822
▁regardless	-10.0825
▁stone	-10.0826
▁strongly	-10.0829
▁spot	-10.0865
▁memory	-10.0874
▁System	-10.0875
▁criteria	-10.088
▁distance	-10.0883
▁venture	-10.0885
▁false	-10.0889
▁machine	-10.0897
▁Bareunmirae	-10.09
▁Chungcheong	-10.091
▁committed	-10.0916
▁incurred	-10.0926
▁regulation	-10.0934
▁install	-10.0938
▁Monday	-10.0942
of	-10.0947
▁debut	-10.0957
▁interests	-10.096
▁Pyeongtaek	-10.0962
▁interesting	-10.0963
▁remain	-10.0964
▁recovery	-10.0965
▁battle	-10.097
▁scandal	-10.0978
▁salary	-10.0978
▁applicants	-10.0979
▁suspension	-10.0983
▁conversation	-10.0987
▁Grand	-10.099
▁Children	-10.0997
▁meat	-10.1003
▁hurt	-10.1014
wa	-10.1015
▁tree	-10.1016
▁Rep	-10.1019
▁approved	-10.1028
joon	-10.1029
▁foster	-10.103
▁falls	-10.1035
▁upon	-10.1035
▁sub	-10.1036
▁Consider	-10.1036
▁okay	-10.1045
▁experiences	-10.1047
▁aimed	-10.1057
hi	-10.1063
▁tickets	-10.1069
▁sides	-10.1079
called	-10.1087
▁fear	-10.1091
▁Friday	-10.1095
▁b	-10.1097
ong	-10.1097
▁Film	-10.1118
je	-10.1118
▁ideas	-10.1127
▁author	-10.113
▁Canada	-10.1134
▁subsidize	-10.1135
▁amid	-10.1143
▁Sin	-10.1145
▁thanks	-10.1146
▁BTS	-10.1155
▁transaction	-10.1155
▁concentration	-10.1163
▁signs	-10.1168
▁bar	-10.1168
▁ingredients	-10.1169
▁occurs	-10.1174
▁disclosure	-10.1175
▁regime	-10.1186
▁communicate	-10.1192
he	-10.1192
▁consulting	-10.1194
dy	-10.12
▁Il	-10.12
▁supplement	-10.1205
▁corruption	-10.1219
▁drawn	-10.1222
▁Australia	-10.1233
▁Base	-10.1234
▁lots	-10.1248
▁transactions	-10.1249
▁subparagraphs	-10.1259
▁Ryu	-10.1263
▁reporting	-10.1265
▁enforcement	-10.1266
▁Law	-10.1266
▁cryptocurrency	-10.1271
▁flow	-10.1273
▁expert	-10.1279
▁connected	-10.1287
▁Arts	-10.129
▁setting	-10.1293
▁rescue	-10.1296
▁attracted	-10.1299
▁Google	-10.13
▁2009	-10.1321
▁seek	-10.1325
▁earnest	-10.1325
▁distributed	-10.1325
▁stars	-10.133
▁evening	-10.1334
▁composed	-10.1335
▁offices	-10.1342
▁rural	-10.1351
▁Mu	-10.1353
▁buses	-10.1356
▁frequently	-10.1361
▁menu	-10.1364
▁Soon	-10.1371
▁pop	-10.1373
km	-10.1374
▁childcare	-10.1379
▁Pro	-10.138
▁checking	-10.138
▁efficiency	-10.1389
▁tasks	-10.1392
▁drunk	-10.1393
▁Olympics	-10.1396
▁concluded	-10.1399
▁examine	-10.1399
ups	-10.14
▁ran	-10.1402
▁foods	-10.1404
▁Jeolla	-10.1404
by	-10.1407
▁register	-10.1411
▁importance	-10.1416
▁kindergarten	-10.1421
sion	-10.1427
▁bottom	-10.1427
▁eventually	-10.1427
▁grounds	-10.1432
▁tired	-10.1435
▁Power	-10.1438
▁Award	-10.1438
▁IT	-10.144
30	-10.1465
▁laws	-10.1466
▁institute	-10.1476
▁warning	-10.1478
▁add	-10.1489
rim	-10.149
▁essential	-10.1492
▁maximum	-10.1497
▁Cheonan	-10.1498
▁bio	-10.15
▁putting	-10.1502
▁typhoon	-10.1503
▁SNS	-10.1505
▁auto	-10.1508
▁latest	-10.1512
myung	-10.1513
▁premium	-10.1515
▁Vi	-10.1517
▁obtain	-10.152
▁exceed	-10.1521
▁appeal	-10.1522
▁(3)	-10.1524
ba	-10.1525
▁2016,	-10.1525
chi	-10.1526
▁argued	-10.1534
▁loved	-10.154
class	-10.1541
▁Road	-10.1542
du	-10.1544
so	-10.1551
▁News	-10.1559
▁corporations	-10.1562
▁band	-10.1565
▁Rule	-10.1566
▁inconvenience	-10.1571
▁listed	-10.1578
▁sweet	-10.1601
▁Ye	-10.1608
▁watched	-10.1612
ship	-10.1619
▁achieved	-10.1626
▁complaint	-10.1626
▁port	-10.1628
▁donation	-10.1638
▁seeing	-10.1641
▁Mexico	-10.1642
izing	-10.1644
ring	-10.1657
mer	-10.1663
ors	-10.1666
▁systems	-10.1667
▁Li	-10.1671
▁Supervisory	-10.1695
ut	-10.1698
▁designate	-10.1705
sh	-10.1707
▁sometimes	-10.1711
▁Green	-10.1716
▁French	-10.1717
▁helped	-10.172
▁suffer	-10.173
ally	-10.1735
om	-10.1739
che	-10.1743
▁goals	-10.1743
▁awareness	-10.1746
▁damages	-10.1761
▁emerged	-10.1766
▁perfect	-10.1766
▁century	-10.1771
▁officially	-10.1773
land	-10.1787
▁cooperative	-10.1791
▁Seongnam	-10.1791
▁island	-10.1793
▁believes	-10.1793
▁orders	-10.1794
▁placed	-10.1798
▁regard	-10.1802
▁Gyeongnam	-10.1807
▁Stadium	-10.1812
▁sentiment	-10.1818
▁talent	-10.1819
ca	-10.1821
▁block	-10.1831
▁departments	-10.1841
▁birthday	-10.1853
▁priority	-10.1856
▁married	-10.1857
▁affiliated	-10.1859
▁Family	-10.188
▁Bu	-10.1883
▁videos	-10.1885
▁aid	-10.1885
tra	-10.1895
▁cosmetics	-10.19
▁haven	-10.19
▁purchased	-10.1905
▁models	-10.1909
▁West	-10.1912
▁Hallyu	-10.1918
ct	-10.192
▁happen	-10.1923
if	-10.1928
▁challenge	-10.1931
▁Con	-10.1941
▁blue	-10.1942
▁35	-10.1947
jun	-10.1955
▁upper	-10.1957
▁confidence	-10.1958
▁Kakao	-10.1979
▁newspaper	-10.198
▁fuel	-10.1981
▁farm	-10.1983
▁plane	-10.1985
▁offering	-10.2002
▁emerging	-10.2005
▁Sunday	-10.2007
▁trouble	-10.2012
▁Speaker	-10.2014
▁cross	-10.2019
▁advice	-10.2022
▁diplomatic	-10.2026
▁Paju	-10.2029
▁formulate	-10.2035
▁deem	-10.2047
tech	-10.2059
▁homes	-10.2068
▁extended	-10.2072
▁Meteorological	-10.2074
ron	-10.2074
▁suitable	-10.2075
▁tea	-10.2078
▁Dynasty	-10.2086
▁disciplinary	-10.2086
▁expenditure	-10.2091
▁causes	-10.2101
▁expression	-10.2104
▁enjoyed	-10.2108
▁Myeong	-10.2114
▁lines	-10.2114
▁shipping	-10.2115
▁wages	-10.2116
▁Gyeong	-10.2128
▁artist	-10.213
▁passing	-10.2132
▁fifth	-10.2134
▁confirmation	-10.214
▁broken	-10.2149
▁race	-10.2157
▁gives	-10.2158
▁Dr	-10.2158
▁equipped	-10.2158
▁earthquake	-10.2161
▁spreading	-10.2164
-2	-10.2164
▁feature	-10.2168
J	-10.2176
eup	-10.2182
▁extent	-10.2184
▁Pohang	-10.219
▁slow	-10.2193
▁judged	-10.2194
▁execution	-10.2202
▁transferred	-10.2203
▁sharp	-10.2207
▁firms	-10.221
▁ready	-10.2213
ning	-10.2219
▁bright	-10.222
▁secret	-10.2226
▁comfortable	-10.2226
▁sample	-10.2226
Do	-10.2231
▁storage	-10.2231
▁passengers	-10.2232
▁appears	-10.2248
▁Kwang	-10.2251
▁mouth	-10.2259
▁drugs	-10.2259
side	-10.2264
soon	-10.227
house	-10.2275
▁aware	-10.2278
▁British	-10.229
▁pollution	-10.229
▁figures	-10.229
▁contribution	-10.2292
▁combined	-10.2298
▁Christian	-10.23
▁amendment	-10.2302
▁courses	-10.2302
▁Hwa	-10.2306
▁version	-10.2306
▁unification	-10.2309
▁arrive	-10.2312
▁treated	-10.2316
▁sad	-10.2316
▁mostly	-10.2324
▁invited	-10.233
▁deadline	-10.2332
▁grades	-10.2333
▁gets	-10.2335
▁complexes	-10.234
use	-10.2347
▁notified	-10.2348
▁Actor	-10.2348
▁stance	-10.2349
▁forum	-10.2352
▁finding	-10.2352
dang	-10.2354
▁lectures	-10.2357
▁demanded	-10.2358
▁2014	-10.2365
▁Pompeo	-10.2366
▁suicide	-10.2366
ping	-10.2374
▁comprised	-10.2403
mp	-10.2406
▁worry	-10.2406
▁Western	-10.2408
espite	-10.2408
der	-10.241
▁subjects	-10.2413
▁drew	-10.2414
▁recognition	-10.2414
▁Jesus	-10.242
▁ecosystem	-10.242
▁values	-10.2422
▁topic	-10.2425
▁10,000	-10.2428
▁Society	-10.2432
▁sluggish	-10.2432
▁museum	-10.2437
▁shooting	-10.2437
▁smooth	-10.2438
▁flower	-10.2439
▁carrying	-10.2441
▁injury	-10.2444
▁Bae	-10.245
▁sectors	-10.2452
▁SMEs	-10.2458
▁delicious	-10.2462
▁holidays	-10.2466
▁individuals	-10.2482
▁Yun	-10.2484
▁mail	-10.2488
▁map	-10.2507
yeol	-10.2511
▁offered	-10.2514
▁ride	-10.2516
▁Hanwha	-10.2529
▁allowing	-10.2532
▁stations	-10.2533
▁Company	-10.2534
▁colors	-10.2534
▁Shim	-10.2536
jang	-10.2537
▁inform	-10.2537
▁lowest	-10.2538
▁surface	-10.254
▁di	-10.2551
▁procedure	-10.2558
▁proportion	-10.2559
▁gain	-10.2564
▁stress	-10.2566
▁maintained	-10.257
▁performing	-10.2572
▁mixed	-10.2575
▁Ka	-10.2579
▁names	-10.2587
bin	-10.2588
▁Have	-10.2588
▁entrust	-10.2592
▁Seocho	-10.2612
▁Al	-10.2617
▁competitive	-10.2621
▁meals	-10.2621
▁Changwon	-10.2625
ui	-10.2633
▁shops	-10.2636
▁code	-10.2644
king	-10.2651
▁negotiation	-10.2657
▁obtained	-10.2663
▁flowers	-10.2666
▁hospitals	-10.2669
▁statutes	-10.2681
▁cooking	-10.2681
▁dark	-10.2691
▁murder	-10.2693
que	-10.2696
▁customized	-10.27
▁contributed	-10.2703
shin	-10.2708
▁hydrogen	-10.2711
▁claims	-10.2714
▁feelings	-10.2715
▁Wi	-10.2718
▁represent	-10.2719
▁guidelines	-10.2721
▁levels	-10.2722
▁Operation	-10.2723
▁naturally	-10.2731
tion	-10.2744
▁actions	-10.2747
▁nearly	-10.2749
▁districts	-10.2749
▁diverse	-10.2754
▁identified	-10.2779
▁phenomenon	-10.2779
▁efficiently	-10.2782
▁predict	-10.2783
▁reply	-10.2785
▁slightly	-10.2787
▁suspicions	-10.2794
▁hike	-10.2803
▁signing	-10.2808
▁honor	-10.2815
▁connect	-10.2819
▁exclusive	-10.2822
▁bonds	-10.2824
▁YouTube	-10.2826
▁Yeouido	-10.2828
Re	-10.2829
▁Wednesday	-10.283
▁applications	-10.2832
ap	-10.2834
▁Marine	-10.2835
▁gathering	-10.2835
▁careful	-10.2838
▁mission	-10.2838
▁articles	-10.2841
▁alcohol	-10.2851
▁enterprise	-10.2852
hyeon	-10.2856
▁concentrated	-10.2858
▁Gangneung	-10.2859
▁canceled	-10.2869
▁promised	-10.288
▁ruled	-10.2884
▁Philippines	-10.2888
▁conflicts	-10.289
▁penalty	-10.2897
▁pushing	-10.2897
▁Bang	-10.2898
▁rapid	-10.2909
▁meantime	-10.2924
▁smile	-10.2924
▁ministry	-10.2941
ten	-10.2945
▁grant	-10.2947
▁ease	-10.295
▁involving	-10.2953
law	-10.2959
▁convenient	-10.296
▁declared	-10.2963
▁Global	-10.2972
▁awarded	-10.2973
▁seal	-10.2983
▁Academy	-10.2985
▁either	-10.2985
▁football	-10.2985
style	-10.2989
▁factor	-10.299
▁teenagers	-10.2991
▁ICT	-10.2998
▁subsidy	-10.3004
▁wake	-10.301
▁Workers	-10.3011
▁aged	-10.3012
▁Apple	-10.3013
▁2017,	-10.3021
▁Chuseok	-10.3023
▁athletes	-10.3028
▁successfully	-10.3029
▁garden	-10.3033
ities	-10.3033
bong	-10.3034
▁inevitable	-10.3035
▁rating	-10.3042
pro	-10.3042
▁tournament	-10.3055
▁regret	-10.3061
▁prime	-10.3061
▁Community	-10.3067
▁contracts	-10.3069
▁sun	-10.3075
▁Yongin	-10.308
▁Ansan	-10.309
▁closely	-10.3091
▁exposed	-10.3094
▁90	-10.3098
ability	-10.3098
▁Motors	-10.3108
▁operations	-10.311
Korea	-10.3111
▁losing	-10.3112
▁Medium	-10.3112
▁managing	-10.3119
▁deliberate	-10.3121
▁Yongsan	-10.3127
▁fiscal	-10.3138
▁studies	-10.3138
▁spending	-10.3138
▁Free	-10.314
▁engaged	-10.3144
▁shareholders	-10.3153
▁Ca	-10.3153
▁Agriculture	-10.3157
hu	-10.3157
▁collapse	-10.316
▁mass	-10.3165
▁grand	-10.3169
▁wedding	-10.3175
▁dropped	-10.3177
ue	-10.3187
▁Love	-10.3194
▁statistics	-10.3195
▁vision	-10.3196
▁Forest	-10.3198
▁Tax	-10.32
▁imposed	-10.3204
▁Music	-10.3204
▁fill	-10.3208
▁boost	-10.3214
▁Would	-10.3218
▁buying	-10.3221
▁Gi	-10.3225
▁grown	-10.323
▁operators	-10.323
▁reward	-10.323
.1	-10.3235
00	-10.3237
▁organize	-10.324
ical	-10.3242
▁pilot	-10.3247
▁stability	-10.3247
joo	-10.325
2%	-10.3254
▁handed	-10.3259
tro	-10.3264
▁hiring	-10.3267
▁tariffs	-10.3277
▁gained	-10.3279
▁remove	-10.3283
▁leisure	-10.3286
▁weapons	-10.3286
▁Unification	-10.3287
▁covered	-10.3291
▁losses	-10.3292
▁Brazil	-10.3293
▁Bureau	-10.3299
▁degree	-10.33
▁religious	-10.3306
▁blind	-10.3312
▁engine	-10.3318
▁Temple	-10.3319
▁funeral	-10.3319
▁army	-10.3322
▁flag	-10.3324
▁resolved	-10.3326
▁Chun	-10.3334
▁disposal	-10.3339
▁containing	-10.3346
▁replace	-10.3355
▁mutual	-10.3358
▁initial	-10.3358
▁Tokyo	-10.3359
▁favor	-10.3359
▁powerful	-10.3362
▁monitoring	-10.3363
▁2015,	-10.3364
▁Thailand	-10.3365
▁desire	-10.3376
fe	-10.3376
▁package	-10.3377
ka	-10.338
▁multiple	-10.3381
▁evaluated	-10.3386
ven	-10.3386
▁semester	-10.3391
▁dialogue	-10.3397
▁farms	-10.3408
▁supervision	-10.3411
▁soft	-10.3412
▁begun	-10.3412
▁Beijing	-10.3417
▁Amid	-10.3425
▁Gyeongsangnam	-10.3425
▁catch	-10.3438
▁sit	-10.3446
ya	-10.3457
les	-10.3457
▁Army	-10.3458
▁Board	-10.3464
▁Innovation	-10.3466
▁150	-10.3468
▁dishes	-10.3472
▁cleaning	-10.3473
▁sudden	-10.3477
▁narrow	-10.3478
rt	-10.3479
▁32	-10.3479
▁extension	-10.3483
▁straight	-10.3483
▁easier	-10.349
▁Vietnamese	-10.349
▁sharply	-10.349
▁voting	-10.3497
▁sky	-10.3497
▁Hyo	-10.3503
▁Engineering	-10.3503
▁combination	-10.3503
▁revitalize	-10.351
▁Planning	-10.351
▁blocked	-10.3517
▁detail	-10.3528
ft	-10.3535
▁bridge	-10.3543
▁carefully	-10.3544
▁satisfaction	-10.3545
▁competent	-10.3546
▁Urban	-10.3553
▁channel	-10.3553
▁voices	-10.3563
▁plays	-10.3563
▁advertising	-10.3563
▁fraud	-10.357
▁litigation	-10.357
▁Gangseo	-10.3587
▁municipal	-10.359
▁fierce	-10.3597
▁asset	-10.3597
▁continuing	-10.3598
▁identity	-10.3603
▁mis	-10.361
yeong	-10.3617
▁familiar	-10.3617
5%	-10.3623
▁gaining	-10.3626
▁College	-10.363
▁Administrative	-10.3631
25	-10.3635
▁Senior	-10.3635
▁pretty	-10.3637
▁investigated	-10.3643
▁rejected	-10.3648
▁Declaration	-10.3651
▁sick	-10.3658
▁lease	-10.3663
▁Two	-10.3665
vo	-10.3666
ber	-10.3667
▁Star	-10.367
▁revolution	-10.3671
▁2013	-10.3672
io	-10.3673
▁100,000	-10.3687
▁dispatched	-10.3692
▁d	-10.3694
▁Cheongju	-10.3705
kyu	-10.3711
mail	-10.3712
▁recruit	-10.3712
Kim	-10.3713
▁stadium	-10.3718
▁bills	-10.3721
▁residence	-10.3725
▁Until	-10.3728
▁mistake	-10.3728
▁heritage	-10.3732
▁Town	-10.3733
▁partner	-10.3735
▁invested	-10.374
▁Moo	-10.3741
▁introducing	-10.3746
▁downtown	-10.3753
▁charged	-10.3756
▁realized	-10.3757
▁facing	-10.3759
▁extreme	-10.3762
▁responded	-10.3767
▁Citizens	-10.3768
▁comply	-10.3769
▁Strategy	-10.3773
▁bureau	-10.3773
▁quantity	-10.3773
▁aging	-10.3779
▁transport	-10.378
▁Hwaseong	-10.378
▁bigger	-10.3788
mon	-10.3789
▁pleasant	-10.3794
▁drivers	-10.3796
▁entrustment	-10.3798
▁Attention	-10.3807
▁exceeded	-10.3808
▁publicly	-10.3809
▁cards	-10.3811
▁securing	-10.3814
▁purchasing	-10.3821
▁king	-10.3821
▁continuous	-10.3828
▁Disaster	-10.3835
▁Washington	-10.3835
▁Housing	-10.3835
CEO	-10.3835
▁Big	-10.3836
▁Di	-10.3842
▁adjust	-10.3843
▁refers	-10.3846
▁capabilities	-10.3848
▁isn	-10.3849
ot	-10.3855
▁acts	-10.3858
▁import	-10.3858
▁recognize	-10.386
point	-10.386
▁legislation	-10.3862
▁Especially	-10.3869
how	-10.3869
▁smartphones	-10.3871
▁winner	-10.3872
▁Bong	-10.3872
▁touch	-10.3873
▁detected	-10.3874
▁aircraft	-10.3876
▁Independence	-10.3883
▁perspective	-10.389
▁tests	-10.3891
▁acquisition	-10.3897
▁Bridge	-10.3897
▁turning	-10.3899
▁originally	-10.3903
▁Matters	-10.3911
▁Gyeongbuk	-10.3911
▁corner	-10.3915
▁brands	-10.3915
▁imported	-10.3915
▁Plan	-10.3918
▁2010	-10.3919
▁singing	-10.3923
▁page	-10.3924
▁requirements	-10.3925
▁medal	-10.3926
▁whenever	-10.393
▁Job	-10.3931
▁bags	-10.3934
▁memorial	-10.3938
▁Car	-10.3944
▁Pension	-10.3945
▁comfort	-10.3955
▁protest	-10.3957
▁utilize	-10.3963
▁Christmas	-10.3966
▁Other	-10.3966
▁tons	-10.3966
▁exemption	-10.3967
▁troops	-10.3971
▁patent	-10.3971
▁villages	-10.3973
oriented	-10.3973
▁peak	-10.398
▁Street	-10.398
cheol	-10.3988
▁gone	-10.399
mm	-10.3994
person	-10.3998
▁differences	-10.4005
▁plenary	-10.4008
▁talked	-10.402
▁gate	-10.4021
▁agriculture	-10.4029
▁daycare	-10.4032
▁category	-10.4036
▁citizen	-10.4036
▁beer	-10.4042
▁dangerous	-10.4043
▁brain	-10.4045
▁marine	-10.405
▁applicant	-10.4054
▁reasonable	-10.406
▁merchants	-10.4064
▁Bar	-10.4074
▁prosecutors	-10.4077
▁rally	-10.4078
▁Real	-10.408
▁filming	-10.4084
▁window	-10.4093
▁Regional	-10.4093
▁centered	-10.4105
▁returning	-10.4105
▁Industries	-10.4106
▁landscape	-10.4107
▁affect	-10.4107
pil	-10.4109
▁replaced	-10.411
▁images	-10.4114
▁principal	-10.4116
▁consent	-10.4121
▁super	-10.4121
ual	-10.4132
gen	-10.414
▁passenger	-10.4141
▁idol	-10.4149
▁greater	-10.4153
▁replacement	-10.4157
▁Ex	-10.4163
▁fruit	-10.4164
▁Du	-10.4165
▁bed	-10.4165
ip	-10.4174
▁thank	-10.4175
▁linked	-10.4175
▁solid	-10.418
▁33	-10.418
▁simply	-10.4184
▁raw	-10.4186
hour	-10.4188
▁spokesman	-10.4191
▁railway	-10.4192
▁singers	-10.4194
▁uses	-10.4203
▁Jeollanam	-10.4214
ative	-10.4214
▁cafe	-10.4215
▁miss	-10.4219
▁composition	-10.422
▁happiness	-10.4227
▁discrimination	-10.423
▁noise	-10.4231
▁Show	-10.4235
▁Water	-10.4236
▁behalf	-10.4237
▁height	-10.4241
pyo	-10.4246
▁dismissed	-10.4247
▁Gwang	-10.4249
▁Design	-10.4249
▁ordinance	-10.4249
▁2011	-10.4253
▁Mun	-10.4255
▁knew	-10.4256
▁Malaysia	-10.426
sook	-10.4264
▁charm	-10.4265
▁allowances	-10.4267
▁river	-10.4271
▁monitor	-10.4279
▁Ri	-10.4279
deok	-10.4281
▁adjustment	-10.4283
▁(1	-10.4288
▁handling	-10.4294
▁researchers	-10.4296
4%	-10.4301
▁belonging	-10.4307
ko	-10.4317
▁shoes	-10.4327
▁relief	-10.4328
▁specified	-10.4328
win	-10.4329
▁guard	-10.4343
▁Huawei	-10.4349
▁helping	-10.4353
ology	-10.4353
▁worse	-10.4353
work	-10.4355
▁ranking	-10.4357
▁empty	-10.4357
▁unlike	-10.4359
▁Bio	-10.4366
▁keen	-10.4371
▁crackdown	-10.4371
▁friendly	-10.4371
▁freely	-10.4383
▁Koo	-10.4384
▁listening	-10.4385
▁steel	-10.4386
▁approach	-10.4388
▁f	-10.4393
▁link	-10.4397
▁bear	-10.4399
employed	-10.4402
▁receives	-10.4405
▁widely	-10.4405
▁curriculum	-10.4408
▁recover	-10.4423
▁disappeared	-10.4423
▁extend	-10.4427
▁temple	-10.4429
cu	-10.4431
▁annually	-10.444
▁urged	-10.444
▁adults	-10.4441
▁forget	-10.4441
▁payments	-10.4447
▁Jongno	-10.445
▁Military	-10.4459
▁Singer	-10.4459
▁boat	-10.4464
").	-10.4466
▁wonder	-10.4468
▁wasn	-10.4472
▁Experts	-10.4481
▁however	-10.4485
He	-10.4488
▁trends	-10.449
▁relation	-10.4493
▁forecast	-10.4496
den	-10.4505
▁mutati	-10.4507
▁impose	-10.4515
▁mood	-10.4525
▁demands	-10.4529
▁Only	-10.4539
▁memories	-10.4547
▁2012	-10.4548
▁usage	-10.4553
Gun	-10.4555
including	-10.4559
▁conclusion	-10.4569
▁Store	-10.4569
▁ban	-10.4579
▁Head	-10.4583
▁chose	-10.4589
geun	-10.4589
▁Ilbo	-10.459
ear	-10.4595
▁Before	-10.4599
▁draft	-10.4599
jeon	-10.4604
▁0	-10.4607
▁succeeded	-10.461
quality	-10.4628
▁phase	-10.4628
▁Each	-10.4637
ab	-10.4638
▁Northern	-10.4651
▁Saudi	-10.4651
▁celebrate	-10.4651
▁Im	-10.4653
generation	-10.4658
▁respondents	-10.4658
▁attendance	-10.466
▁dry	-10.4665
▁recording	-10.4666
40	-10.4672
▁grew	-10.4673
▁automatically	-10.4673
▁unusual	-10.4689
▁frequent	-10.4689
▁securities	-10.4696
0%	-10.4698
▁enable	-10.47
▁Earlier	-10.4703
▁investments	-10.4706
▁mom	-10.4716
▁discovered	-10.4718
▁Chi	-10.4719
▁34	-10.4721
▁Elementary	-10.4733
tor	-10.4739
▁Fisheries	-10.4741
▁communities	-10.4741
pre	-10.4743
▁wins	-10.4743
▁withdrawal	-10.4744
▁kimchi	-10.4748
rate	-10.4749
▁upcoming	-10.4751
▁comment	-10.4751
▁dedicated	-10.4756
▁internet	-10.4757
gok	-10.4764
▁Shinhan	-10.4767
▁faith	-10.477
▁smell	-10.4778
▁dogs	-10.4784
making	-10.4789
▁Heritage	-10.4794
▁seeking	-10.4794
▁teaching	-10.4794
▁refer	-10.4795
▁Those	-10.4797
▁Cooperation	-10.4801
▁Command	-10.4803
▁buyers	-10.4809
▁helps	-10.4811
▁mall	-10.4815
▁vi	-10.4822
▁smoke	-10.4831
▁dish	-10.4831
▁Spain	-10.4832
▁faster	-10.4838
▁die	-10.4838
▁2020	-10.4848
▁yourself	-10.4849
light	-10.4854
▁verification	-10.4854
▁Self	-10.4857
▁writer	-10.4862
▁seminar	-10.4862
▁emotional	-10.4868
▁yellow	-10.4869
▁Starting	-10.487
▁demonstration	-10.4873
▁Residents	-10.4882
ny	-10.4884
▁leads	-10.4885
▁adult	-10.4889
▁appreciate	-10.489
▁spaces	-10.4891
ification	-10.4892
▁positions	-10.4893
▁quick	-10.4894
▁Home	-10.4899
▁flexible	-10.49
tan	-10.4901
ever	-10.4903
▁Gyeongsangbuk	-10.4908
▁traveling	-10.4915
▁Hanoi	-10.4916
▁Pa	-10.4917
▁Intelligence	-10.4923
lin	-10.4927
qui	-10.4931
▁pa	-10.494
▁disclosed	-10.4956
▁underground	-10.4957
▁regulatory	-10.4957
▁episode	-10.4959
▁adopted	-10.4969
hun	-10.4981
pl	-10.4991
▁agent	-10.4992
▁consensus	-10.4992
▁requests	-10.4994
▁prefer	-10.4997
▁fit	-10.5001
▁boy	-10.5009
▁awards	-10.5012
▁diagnosis	-10.5018
▁donated	-10.5023
▁succeed	-10.5034
▁Lu	-10.5036
?"	-10.5038
▁1.5	-10.5043
▁votes	-10.5048
▁subordinate	-10.5054
▁Good	-10.5056
chon	-10.506
▁bereaved	-10.5062
▁Care	-10.5063
▁beat	-10.5065
▁provinces	-10.5067
▁promise	-10.5067
▁staying	-10.5067
▁actress	-10.5067
▁Thanks	-10.5077
▁owned	-10.5085
Committee	-10.51
▁copy	-10.5101
▁favorable	-10.5102
ai	-10.5109
▁rare	-10.511
▁strengthened	-10.5116
▁institutes	-10.5116
▁Kia	-10.5126
ries	-10.5126
▁Dan	-10.5132
▁unveiled	-10.5136
▁thus	-10.514
▁interior	-10.5146
▁views	-10.515
▁destination	-10.5156
▁Look	-10.5157
7%	-10.5158
▁collecting	-10.5165
▁civilian	-10.5166
▁compete	-10.5173
ier	-10.5179
▁Turkey	-10.5179
▁Valley	-10.5179
for	-10.5182
▁rock	-10.5187
gra	-10.519
▁stood	-10.5195
▁resignation	-10.5196
▁whom	-10.5202
▁guess	-10.5203
ator	-10.5205
▁lifelong	-10.5209
▁solo	-10.5216
▁Three	-10.5217
▁steps	-10.522
▁illegally	-10.5223
ory	-10.5225
▁personality	-10.5225
▁towards	-10.5227
guk	-10.524
▁expertise	-10.5243
par	-10.5243
▁logistics	-10.525
oc	-10.5251
▁luxury	-10.5258
▁stake	-10.5259
ger	-10.5263
▁400	-10.5272
▁closing	-10.5274
ide	-10.5276
fi	-10.5282
▁Joint	-10.5282
suk	-10.5286
▁subcommittee	-10.5298
▁voluntary	-10.53
▁strategic	-10.5305
▁Rural	-10.5306
▁founded	-10.5307
▁Songpa	-10.5309
▁Who	-10.5323
▁paintings	-10.5337
▁accompanied	-10.5338
▁Exchange	-10.5338
This	-10.5339
tain	-10.5339
▁strange	-10.5341
▁milk	-10.5346
▁cat	-10.5349
▁65	-10.5354
▁professors	-10.5356
▁zones	-10.5361
▁mutandis	-10.5362
▁supplied	-10.5362
▁perception	-10.5362
8%	-10.5366
▁Control	-10.537
▁visits	-10.5372
▁portion	-10.5373
▁audiences	-10.5377
▁serving	-10.5383
▁Analysts	-10.5386
▁tears	-10.539
-1	-10.5394
▁starts	-10.5398
▁usual	-10.5398
▁cancellation	-10.5402
hak	-10.5402
▁fake	-10.5403
▁massive	-10.5403
mb	-10.5407
▁climate	-10.541
▁Following	-10.5412
▁hundreds	-10.5412
▁fallen	-10.5416
lic	-10.5416
ple	-10.5416
▁smoothly	-10.5418
▁chat	-10.5419
80	-10.5425
▁thoughts	-10.5425
like	-10.5428
▁channels	-10.543
▁disclose	-10.5432
▁minor	-10.5433
▁wine	-10.5433
▁afraid	-10.5434
▁smoking	-10.5444
▁(3	-10.5446
▁horse	-10.545
▁previously	-10.5455
▁leaves	-10.5455
▁Forum	-10.5463
▁dollar	-10.5466
▁Gwanak	-10.5467
▁Another	-10.5467
▁remained	-10.5469
▁wild	-10.5474
▁Bucheon	-10.5476
▁surprised	-10.5483
▁shareholder	-10.5488
ble	-10.549
▁governed	-10.5492
▁accumulated	-10.5494
▁Mapo	-10.5495
▁classified	-10.55
▁Officials	-10.5503
▁repeatedly	-10.5505
▁Buddhist	-10.5507
▁chosen	-10.5511
▁roof	-10.5515
▁Naver	-10.5521
▁Thursday	-10.5521
▁Red	-10.5523
▁preventing	-10.5524
▁violations	-10.553
▁harassment	-10.5531
▁hidden	-10.5531
▁Gun	-10.5536
▁Girls	-10.5536
▁safely	-10.5541
▁struggle	-10.5546
▁missile	-10.5546
▁PC	-10.5548
ow	-10.5552
▁permanent	-10.5555
▁formation	-10.5556
▁steadily	-10.5564
▁38	-10.5567
▁opponent	-10.5571
▁Twitter	-10.5572
▁tend	-10.5576
▁treat	-10.5577
▁uncomfortable	-10.558
▁voluntarily	-10.558
▁workshop	-10.5581
▁removed	-10.5585
▁Ltd	-10.5585
▁deeply	-10.5593
gang	-10.5595
▁Which	-10.5597
▁Deliberation	-10.5601
▁studied	-10.5605
▁Dream	-10.5613
▁royal	-10.5621
bok	-10.5628
▁anxiety	-10.563
▁martial	-10.563
▁certified	-10.5636
▁autumn	-10.5638
▁restoration	-10.5638
▁restrictions	-10.5641
▁managers	-10.5645
Ma	-10.5652
▁graduate	-10.5652
war	-10.5657
▁Yeo	-10.5658
▁implementing	-10.5661
▁expense	-10.5662
▁manipulation	-10.5663
eo	-10.5668
▁accommodation	-10.5671
▁command	-10.5673
▁Hi	-10.5676
▁bicycle	-10.5679
▁evaluate	-10.5681
▁Once	-10.5682
▁clubs	-10.5683
▁Hyung	-10.5689
cha	-10.5692
▁escape	-10.5694
▁Entertainment	-10.5696
▁neighborhood	-10.5696
▁45	-10.5699
▁guests	-10.5705
gye	-10.5711
▁minimize	-10.5712
▁subscription	-10.5712
▁defeat	-10.5717
▁studio	-10.5721
▁employed	-10.5721
▁gun	-10.5723
▁pursue	-10.5727
▁KBS	-10.5734
▁Leader	-10.5737
▁Doosan	-10.5738
▁cup	-10.5739
▁2000	-10.574
▁soup	-10.5741
▁freedom	-10.5746
▁begins	-10.5746
▁Maritime	-10.5754
ag	-10.5758
▁multicultural	-10.5758
▁institutional	-10.5759
hae	-10.5762
wing	-10.5762
▁servants	-10.5762
▁feet	-10.5766
▁Super	-10.5767
▁Square	-10.577
uk	-10.5775
▁supplies	-10.5779
yu	-10.5794
▁assembly	-10.5794
ep	-10.5795
▁Ham	-10.5799
▁issuance	-10.58
▁presence	-10.5804
▁consult	-10.5813
profit	-10.5816
▁EU	-10.5819
▁aims	-10.5819
▁appoint	-10.5829
▁intellectual	-10.5837
▁Sewol	-10.5838
▁cake	-10.584
▁battery	-10.584
rae	-10.5844
ight	-10.5861
▁momentum	-10.5864
▁achievements	-10.5868
▁Mar	-10.5869
▁situations	-10.5876
▁refused	-10.5878
▁fundamental	-10.5882
ction	-10.5885
▁Branch	-10.5888
▁Chan	-10.589
▁streets	-10.5892
nu	-10.5893
form	-10.5893
▁inspections	-10.5896
▁Southeast	-10.5896
▁south	-10.5896
▁repeated	-10.5905
▁cited	-10.5905
ists	-10.5909
▁feasibility	-10.5913
▁keeping	-10.5915
▁absence	-10.5922
▁10%	-10.5926
▁livelihood	-10.593
▁violating	-10.593
▁pork	-10.593
▁matches	-10.5936
ite	-10.5938
▁Competition	-10.5939
ud	-10.5939
▁assistant	-10.5941
▁Paris	-10.5943
▁Hana	-10.5946
seon	-10.595
▁collapsed	-10.5952
ub	-10.5955
▁Corp	-10.5956
▁routes	-10.5956
▁maintaining	-10.5961
▁purposes	-10.5962
▁dreams	-10.5963
▁settled	-10.5964
▁Jeonju	-10.5967
▁selecting	-10.5967
▁Galaxy	-10.5977
▁resulting	-10.598
▁supposed	-10.5982
▁workplace	-10.5982
▁thoroughly	-10.5987
▁opposed	-10.5988
tu	-10.5988
▁inspect	-10.5989
▁Amazon	-10.5998
▁peninsula	-10.5998
▁anymore	-10.6
▁Hu	-10.6004
▁displayed	-10.6011
▁counter	-10.6014
▁cells	-10.6015
▁magazine	-10.6015
▁Future	-10.6016
▁factories	-10.6016
▁Investigation	-10.6017
ev	-10.6018
▁solar	-10.6026
▁Audit	-10.6029
When	-10.6029
▁uniform	-10.603
▁willingness	-10.6034
mu	-10.6035
▁bond	-10.604
▁facts	-10.6047
▁Open	-10.6047
▁diet	-10.6049
▁50%	-10.6049
▁invoice	-10.605
▁Pastor	-10.6055
▁messages	-10.6058
▁Olympic	-10.6064
▁Next	-10.6071
▁customs	-10.6075
▁closer	-10.6083
ition	-10.6086
▁length	-10.6089
▁indoor	-10.6097
▁strategies	-10.6101
▁assist	-10.6103
▁shortage	-10.6106
▁36	-10.6107
▁ma	-10.6111
▁feels	-10.6119
▁2014,	-10.6124
cy	-10.6125
▁Ta	-10.6127
▁hate	-10.6131
▁earth	-10.6144
▁guest	-10.6144
▁Post	-10.6145
▁supports	-10.6145
dan	-10.6146
▁ones	-10.6148
▁festivals	-10.6149
▁solved	-10.6151
▁sauce	-10.6153
ration	-10.6156
▁Inter	-10.616
pon	-10.6164
▁Gwangjin	-10.6164
▁mine	-10.6164
▁Abe	-10.6165
▁Asiana	-10.6165
back	-10.6166
low	-10.6171
▁identify	-10.6177
▁glass	-10.6177
▁sources	-10.6182
▁cast	-10.6185
rin	-10.6187
wan	-10.6192
▁outcome	-10.6195
▁Seon	-10.6198
▁enjoying	-10.6199
▁Ok	-10.6202
▁kilometers	-10.6206
▁subsidiary	-10.6214
▁Force	-10.6215
▁spicy	-10.6223
▁phones	-10.6226
▁sensitive	-10.623
▁harmony	-10.6231
rn	-10.6237
Park	-10.6238
▁honorary	-10.6242
▁countermeasures	-10.6252
chang	-10.6256
▁Dis	-10.6257
▁garbage	-10.6267
▁earnings	-10.6267
aged	-10.6274
▁aired	-10.6274
▁Prize	-10.6275
▁error	-10.6276
▁Mike	-10.6279
▁analyze	-10.6284
ure	-10.6291
▁mo	-10.6296
▁refugees	-10.63
▁withdraw	-10.6303
▁pieces	-10.6303
60	-10.6304
▁disasters	-10.6306
▁cream	-10.631
▁Any	-10.6319
▁incumbent	-10.6319
▁2008	-10.6323
▁Geum	-10.6328
▁regarded	-10.6329
▁formal	-10.633
▁engineering	-10.6335
▁Times	-10.6339
▁joy	-10.6345
▁worst	-10.6346
▁admitted	-10.6346
ped	-10.6347
▁blow	-10.6353
▁mandatory	-10.6355
▁struggling	-10.6355
▁startups	-10.6359
▁Summit	-10.6363
arious	-10.6364
▁Chae	-10.6375
▁Bi	-10.6376
▁kick	-10.6378
▁processed	-10.6389
cent	-10.6394
▁generations	-10.6399
▁assaulted	-10.6399
room	-10.6401
▁exit	-10.6412
▁attempt	-10.6415
▁provision	-10.6418
book	-10.642
▁arranged	-10.6421
▁li	-10.6422
▁Her	-10.6424
▁Exhibition	-10.6426
▁producing	-10.6429
▁Training	-10.643
▁satisfied	-10.6435
ard	-10.6438
▁CCTV	-10.6447
▁allowance	-10.6448
▁neighbors	-10.645
▁Goryeo	-10.6452
▁hometown	-10.6454
▁seriously	-10.6454
▁Area	-10.6455
▁dementia	-10.6461
▁Resources	-10.6463
▁controversial	-10.647
▁swimming	-10.647
▁Framework	-10.6472
▁timing	-10.6479
▁harmful	-10.648
▁rebound	-10.648
▁accurate	-10.6491
▁Tuesday	-10.6495
▁20%	-10.6496
▁Election	-10.6497
▁informed	-10.6497
▁critical	-10.6498
▁Conference	-10.6515
▁showcase	-10.6516
▁north	-10.6519
3%	-10.6519
▁theory	-10.6523
▁granted	-10.6523
▁lowered	-10.6527
70	-10.6527
▁clothing	-10.6531
▁somewhat	-10.6533
▁fighting	-10.6545
ero	-10.6547
shaped	-10.6557
▁John	-10.656
▁deficit	-10.656
▁balanced	-10.6561
▁origin	-10.6562
▁winners	-10.6567
▁Every	-10.6569
▁passion	-10.6573
▁shock	-10.6573
▁cook	-10.6577
▁confident	-10.6578
▁kitchen	-10.6578
28	-10.6585
yo	-10.6586
▁Commerce	-10.6587
▁precious	-10.6597
▁fails	-10.6598
▁Chosun	-10.6599
▁Club	-10.6605
▁expiration	-10.6605
▁statue	-10.6605
▁iron	-10.6606
▁limitations	-10.6608
ile	-10.6609
ging	-10.6614
▁inauguration	-10.6615
▁franchise	-10.6619
▁la	-10.6619
▁imports	-10.6631
family	-10.6632
▁Card	-10.6636
ill	-10.6638
Chairman	-10.6641
▁probably	-10.6642
▁Theater	-10.6642
▁Uzbekistan	-10.6643
▁parent	-10.6644
▁Chungnam	-10.6644
▁Here	-10.6649
▁POSCO	-10.6651
▁larger	-10.6652
18	-10.6653
▁boyfriend	-10.6658
▁Kookmin	-10.666
gyu	-10.666
▁Awards	-10.666
cor	-10.6662
meter	-10.6662
▁thorough	-10.6663
▁answers	-10.6667
▁Okay	-10.6669
▁MBC	-10.667
6%	-10.667
▁ships	-10.6674
▁risen	-10.6677
▁promising	-10.6678
▁tough	-10.6681
My	-10.6683
▁missed	-10.6685
▁piece	-10.6687
chun	-10.6687
▁Like	-10.6694
▁Wang	-10.6697
▁abundant	-10.6706
▁angry	-10.6706
buk	-10.6707
▁Eui	-10.6709
▁exhibitions	-10.6709
▁stream	-10.6712
▁practices	-10.6714
▁disputes	-10.6714
▁bread	-10.6715
gan	-10.6719
eng	-10.6719
▁impression	-10.6724
▁imp	-10.6729
▁percentage	-10.6732
▁generated	-10.674
▁posting	-10.674
▁bodies	-10.6742
▁utilizing	-10.6742
▁insufficient	-10.6749
▁Protection	-10.6752
▁robot	-10.6761
▁insisted	-10.6766
▁Jakarta	-10.677
▁holds	-10.6779
▁2016.	-10.6787
▁Judge	-10.6788
▁truck	-10.6789
▁circles	-10.6791
11	-10.6794
▁particularly	-10.6799
13	-10.6801
▁30%	-10.6814
▁Guro	-10.6817
shi	-10.6823
▁curious	-10.6826
▁advertisement	-10.6826
▁anger	-10.683
▁risks	-10.6833
▁sitting	-10.6836
▁slowdown	-10.6854
▁partially	-10.6857
ix	-10.686
▁killing	-10.6869
▁joining	-10.6872
▁vegetables	-10.6876
Constitutional	-10.6877
▁officio	-10.6881
about	-10.6883
▁championship	-10.6891
kg	-10.6898
▁delegation	-10.69
▁exactly	-10.6912
ray	-10.6915
▁waves	-10.6915
▁folk	-10.6919
car	-10.6919
kyun	-10.6922
▁indicators	-10.6928
▁Environmental	-10.6929
▁Jeonnam	-10.693
▁convention	-10.6932
ze	-10.6933
▁manpower	-10.6938
ery	-10.694
▁scholarship	-10.694
▁37	-10.6944
▁literature	-10.6947
▁preservation	-10.6947
▁pool	-10.6947
bak	-10.6948
bang	-10.6953
▁effectively	-10.6953
▁Black	-10.6956
ik	-10.6957
▁contain	-10.6957
▁sexually	-10.6967
▁cycle	-10.6968
▁Does	-10.6975
▁denied	-10.6984
▁earned	-10.6986
act	-10.6995
▁founder	-10.6995
▁Consumer	-10.6998
▁funding	-10.6998
▁Revolution	-10.6999
art	-10.7002
▁collaboration	-10.7003
▁colonial	-10.7003
▁constantly	-10.7008
▁engage	-10.7011
▁danger	-10.7012
▁Indian	-10.7017
▁membership	-10.7018
▁excluding	-10.7023
▁row	-10.7024
▁client	-10.7026
▁stayed	-10.7027
12	-10.7031
▁Italy	-10.7032
fer	-10.7035
▁west	-10.7035
our	-10.7036
▁note	-10.7037
▁Uijeongbu	-10.7041
▁Unions	-10.7044
▁k	-10.7045
▁girlfriend	-10.7047
▁Gimpo	-10.706
▁tuition	-10.706
▁stamp	-10.706
▁assistance	-10.7061
▁preference	-10.7061
▁alliance	-10.707
▁Buk	-10.7087
▁Lunar	-10.7089
tter	-10.7092
▁unexpected	-10.7092
▁beach	-10.7096
▁Airlines	-10.7098
▁reviewing	-10.7101
▁intended	-10.7103
▁Members	-10.7107
▁calculation	-10.7108
▁teach	-10.7108
▁glad	-10.7108
▁carbon	-10.7109
▁te	-10.7112
ack	-10.7114
▁ambassador	-10.7117
▁dress	-10.7118
▁Given	-10.7119
▁reveal	-10.7119
President	-10.7119
pen	-10.7126
▁citing	-10.7127
▁manual	-10.7129
fa	-10.7131
▁correction	-10.7136
▁temporarily	-10.7136
pped	-10.7143
▁Major	-10.7146
pyeong	-10.715
▁assigned	-10.715
▁pitcher	-10.7154
▁systematic	-10.7157
▁subscribers	-10.7162
▁answered	-10.7164
▁En	-10.7165
▁expressing	-10.7165
▁(2	-10.717
▁39	-10.7187
▁Tour	-10.7189
▁ministries	-10.7194
▁Winter	-10.7194
▁artistic	-10.7202
▁east	-10.7203
▁separated	-10.7205
▁ID	-10.7205
▁flavor	-10.7207
▁reserve	-10.7207
ler	-10.7208
▁tension	-10.7212
▁shipment	-10.7214
▁passage	-10.7216
)"	-10.7218
▁ferry	-10.7223
▁disposition	-10.7223
▁offers	-10.7224
ned	-10.7231
fledged	-10.7232
▁signature	-10.7233
▁considerable	-10.7235
ryong	-10.7236
▁reflecting	-10.7237
▁fostering	-10.7241
▁Coast	-10.7242
▁belt	-10.7243
▁faced	-10.7249
1%	-10.7259
▁Contest	-10.7262
▁visual	-10.7265
▁fulfill	-10.7269
To	-10.7269
▁symbol	-10.7271
▁stronger	-10.7274
▁cloud	-10.7284
bit	-10.7285
▁server	-10.7289
▁hire	-10.7292
▁bid	-10.7293
▁intensive	-10.7299
▁welcome	-10.73
▁sixth	-10.7302
▁secondary	-10.7303
▁academy	-10.731
▁typical	-10.731
▁cable	-10.7313
▁cutting	-10.7313
hyuk	-10.7321
▁Deok	-10.7323
▁consultations	-10.7324
19	-10.733
▁Will	-10.7331
▁2017.	-10.7334
▁emotions	-10.7336
No	-10.7337
▁otherwise	-10.7339
▁600	-10.7342
right	-10.7344
▁beef	-10.7351
▁Gangdong	-10.7352
▁statements	-10.7353
over	-10.7354
▁operates	-10.7364
▁commander	-10.7366
▁advertisements	-10.7368
za	-10.7369
▁breaking	-10.7373
ded	-10.7373
▁pastor	-10.7373
▁Africa	-10.7375
▁settle	-10.7379
▁Except	-10.7379
iv	-10.7382
▁weapon	-10.7388
▁easing	-10.7388
▁interpretation	-10.7389
▁volunteers	-10.7394
▁fail	-10.7395
35	-10.7395
▁sh	-10.7398
▁sustainable	-10.7398
▁UN	-10.7398
15	-10.74
ye	-10.74
▁Building	-10.7401
▁strict	-10.7401
▁suspend	-10.7406
▁Heavy	-10.7408
▁donations	-10.7413
fo	-10.7413
▁radio	-10.7418
▁Hello	-10.7418
▁temperatures	-10.742
▁2022	-10.742
▁discharge	-10.7427
▁expectation	-10.7433
▁ho	-10.7434
▁Ui	-10.7438
General	-10.7441
▁proud	-10.7442
▁Or	-10.7446
▁semi	-10.7448
▁heating	-10.7448
▁noodles	-10.7457
▁analyzing	-10.7467
▁concrete	-10.7467
▁deceased	-10.7467
ley	-10.7471
▁attraction	-10.7471
▁collective	-10.7473
face	-10.7476
▁aim	-10.7478
▁restricted	-10.7484
▁impressive	-10.7487
▁Gyeongju	-10.7488
public	-10.749
▁violated	-10.7496
▁scores	-10.7503
▁Meeting	-10.7506
▁observation	-10.7506
▁recession	-10.7506
▁western	-10.7507
vis	-10.7507
▁Lake	-10.7513
▁boss	-10.7519
▁reviewed	-10.752
▁Transportation	-10.7522
▁motor	-10.7527
▁Byeong	-10.7528
▁abandoned	-10.753
▁marks	-10.7533
▁cargo	-10.7535
▁restore	-10.7538
▁qualification	-10.7539
▁r	-10.754
▁colorful	-10.7542
▁humans	-10.7548
▁fires	-10.7548
▁Library	-10.7556
▁cr	-10.7558
▁leg	-10.7566
▁novel	-10.7567
▁Woori	-10.7574
▁surprise	-10.7576
▁Period	-10.7586
▁preferential	-10.759
▁cheap	-10.759
▁attractions	-10.7596
▁reviews	-10.7597
ig	-10.7606
gon	-10.7608
▁Doo	-10.7616
beom	-10.7616
▁guilty	-10.7617
▁tariff	-10.762
▁Shanghai	-10.7626
▁Jinju	-10.7637
▁manufacturers	-10.7638
▁exist	-10.7643
▁achievement	-10.7643
▁Myanmar	-10.7646
▁solutions	-10.765
▁calculated	-10.7651
▁dealing	-10.7655
▁democracy	-10.7665
▁hearts	-10.7665
hy	-10.7666
ible	-10.7666
▁fat	-10.7666
mate	-10.7667
ken	-10.7669
▁calm	-10.7671
▁earn	-10.7671
▁letters	-10.7674
▁violate	-10.7677
▁pace	-10.768
▁objection	-10.768
▁tradition	-10.7686
▁booked	-10.7689
▁option	-10.7692
▁seniors	-10.7695
▁London	-10.7697
▁stages	-10.7698
▁intense	-10.7707
▁Great	-10.7712
▁states	-10.7715
▁furniture	-10.7717
▁revise	-10.7717
▁speculation	-10.7718
-3	-10.7721
ute	-10.7727
▁resume	-10.7727
▁revitalization	-10.7737
port	-10.774
▁Yeosu	-10.774
▁2013,	-10.7743
▁shift	-10.7746
▁relocation	-10.7748
▁affiliates	-10.7755
▁childbirth	-10.7758
▁graduates	-10.7758
▁pending	-10.7759
▁shortly	-10.7763
▁Property	-10.7768
▁terminal	-10.7768
ice	-10.7768
24	-10.777
▁flat	-10.7771
▁superior	-10.7777
▁Heo	-10.7782
▁Private	-10.7785
▁England	-10.7788
▁Football	-10.7788
▁contained	-10.7791
▁titled	-10.7794
▁dispatch	-10.7797
▁119	-10.7798
▁signal	-10.7799
▁wood	-10.7799
au	-10.7801
▁kids	-10.7803
ram	-10.7817
▁Establishment	-10.7819
▁Persons	-10.7819
▁2,000	-10.7821
▁Iranian	-10.7822
▁CJ	-10.7823
▁Prosecutor	-10.7826
▁Students	-10.7828
▁Drug	-10.7829
▁Jeonbuk	-10.783
os	-10.7832
▁rumors	-10.7834
lim	-10.7835
▁marked	-10.7836
▁entity	-10.784
▁El	-10.784
Japan	-10.7846
▁disappear	-10.7848
▁software	-10.785
9%	-10.7854
▁certificates	-10.7855
▁promotional	-10.786
month	-10.7867
▁Pre	-10.7871
▁attractive	-10.7873
▁notification	-10.7876
▁incentives	-10.7876
▁alley	-10.7877
▁metal	-10.7877
▁cute	-10.7878
sam	-10.7879
▁thick	-10.7879
▁frame	-10.788
▁Brexit	-10.7881
▁equity	-10.7881
▁restructuring	-10.7881
▁psychological	-10.7881
▁crew	-10.7881
▁sufficient	-10.7881
cho	-10.7881
▁solving	-10.7882
▁equality	-10.7884
▁m	-10.7884
board	-10.7885
▁coal	-10.7885
▁Daewoo	-10.7886
elecommunication	-10.789
▁explains	-10.7893
▁Pi	-10.7896
▁monetary	-10.7901
▁nursing	-10.7901
▁opposite	-10.7901
▁talented	-10.7902
▁boom	-10.7904
▁micro	-10.7906
▁scenery	-10.7916
don	-10.7918
▁Lawmaker	-10.7922
▁wastes	-10.7927
▁supporters	-10.7931
▁Lo	-10.7931
▁pledge	-10.7931
▁desk	-10.7932
▁characterized	-10.7935
90	-10.7936
▁churches	-10.7944
Japanese	-10.795
tle	-10.7951
▁Gumi	-10.7953
▁Plaza	-10.7953
▁publication	-10.7956
▁interviews	-10.7973
tal	-10.798
management	-10.7981
finding	-10.7981
▁soil	-10.7981
▁crowded	-10.7984
▁scenes	-10.7985
med	-10.7989
▁claiming	-10.799
▁resource	-10.7994
▁demanding	-10.7995
▁walls	-10.7996
▁dismissal	-10.7997
▁consultati	-10.8
▁pen	-10.8003
▁hub	-10.8005
▁harm	-10.8014
story	-10.8014
▁Congress	-10.8014
▁Officer	-10.8021
▁sponsored	-10.8023
▁Expressway	-10.8026
▁shoot	-10.8027
▁Prevention	-10.8036
▁confusion	-10.8036
▁utilization	-10.8036
▁sp	-10.8042
▁Yo	-10.8043
▁Dongdaemun	-10.8047
▁reference	-10.8048
▁cl	-10.8049
▁corresponding	-10.8053
▁everyday	-10.8056
▁Regulations	-10.8067
▁helpful	-10.807
sol	-10.8078
▁pregnant	-10.8078
▁patrol	-10.8078
Since	-10.8086
▁hired	-10.8089
▁Thai	-10.809
▁fines	-10.8094
▁flood	-10.8099
▁extraordinary	-10.8099
general	-10.8107
▁Test	-10.8109
▁Spanish	-10.811
▁nervous	-10.812
▁FSS	-10.8121
chairperson	-10.8129
▁(4	-10.8131
▁Ambassador	-10.8131
▁Over	-10.8137
17	-10.8142
ect	-10.8147
▁Panmunjom	-10.8152
▁grandmother	-10.8152
▁makeup	-10.8153
▁root	-10.8162
▁belief	-10.8163
▁curiosity	-10.8163
ach	-10.8168
▁happens	-10.8171
▁stick	-10.8174
▁confrontation	-10.8174
▁unemployment	-10.8174
▁homepage	-10.8174
ea	-10.8176
range	-10.8178
▁reflects	-10.818
▁turns	-10.8181
▁attorney	-10.8184
▁worship	-10.8184
▁Nak	-10.8191
▁FC	-10.8192
▁Authority	-10.8195
▁acquired	-10.8202
▁fever	-10.8206
▁Chungcheongnam	-10.8206
▁prove	-10.8213
▁Above	-10.8216
▁apology	-10.8216
▁Bible	-10.8219
▁48	-10.822
▁charging	-10.822
▁3,000	-10.8222
▁Instead	-10.8229
▁smaller	-10.823
▁Camp	-10.8233
▁ratings	-10.8235
▁excited	-10.8237
▁speaking	-10.8238
▁Smart	-10.8238
Act	-10.8239
▁constructed	-10.8242
▁instructors	-10.8245
Although	-10.8246
▁objective	-10.8253
ph	-10.8254
▁Book	-10.8257
▁inning	-10.8258
▁legislative	-10.8259
▁Democracy	-10.8269
▁renewable	-10.827
▁distribute	-10.827
▁Reform	-10.8274
▁rear	-10.8275
▁reconstruction	-10.8281
▁DM	-10.8282
▁SBS	-10.8291
▁pride	-10.8291
▁apologize	-10.8291
▁prayer	-10.8293
100	-10.8294
ward	-10.8297
▁savings	-10.8299
▁wooden	-10.8303
▁targets	-10.8305
▁merit	-10.8313
bal	-10.8319
▁parks	-10.8323
▁button	-10.8325
▁120	-10.8335
▁Ban	-10.8341
▁hole	-10.8341
vers	-10.8355
▁partnership	-10.8356
▁tight	-10.8359
▁classroom	-10.8368
▁organic	-10.837
▁equivalent	-10.8377
▁rehabilitation	-10.8377
▁resort	-10.8377
ff	-10.838
▁virtual	-10.8382
▁Game	-10.8385
▁tall	-10.839
cm	-10.839
▁witness	-10.8395
ren	-10.8397
hop	-10.84
▁hat	-10.8401
▁Official	-10.8404
▁thousands	-10.8405
Ho	-10.8413
▁automobile	-10.8416
▁ha	-10.8418
▁ultra	-10.842
▁phrase	-10.842
▁pray	-10.8421
▁clinic	-10.8422
▁arm	-10.8422
You	-10.8426
gg	-10.8428
tation	-10.843
ranking	-10.8431
▁lights	-10.8433
▁existence	-10.8439
life	-10.844
▁advisory	-10.8445
▁Pay	-10.8446
▁graduation	-10.8453
▁Actress	-10.8453
val	-10.8458
▁recall	-10.8464
▁equal	-10.8466
▁installing	-10.8474
▁hitting	-10.8481
▁sleeping	-10.8482
▁warned	-10.8488
▁investigations	-10.8491
▁pharmaceutical	-10.8492
▁Yeongdeungpo	-10.8497
▁departure	-10.8497
minute	-10.8498
▁guaranteed	-10.8502
▁Wan	-10.8504
▁pet	-10.8505
▁Anyang	-10.8506
▁native	-10.8508
▁attempted	-10.8512
nce	-10.8512
▁Gang	-10.8513
▁succession	-10.8513
▁valuable	-10.8516
oh	-10.8517
▁Agreement	-10.8519
▁cheering	-10.8523
▁2012,	-10.8527
▁sweat	-10.853
▁(5	-10.8531
▁adjusted	-10.8538
▁detention	-10.8541
▁friendship	-10.8543
ral	-10.8551
maker	-10.8552
▁chain	-10.8555
▁politicians	-10.8555
▁Budget	-10.8563
gyo	-10.8564
▁circle	-10.8571
▁Confederation	-10.8574
▁basketball	-10.8574
▁unknown	-10.8575
▁passport	-10.8586
▁cap	-10.8586
rea	-10.8587
▁Daily	-10.8588
▁Tong	-10.8594
▁Cheol	-10.86
▁generally	-10.8601
ces	-10.8605
▁neck	-10.8606
▁judiciary	-10.8607
▁swing	-10.8608
clock	-10.8609
▁po	-10.8612
all	-10.8613
tr	-10.8619
▁complicated	-10.8629
▁survival	-10.8629
▁bathroom	-10.8629
▁Ne	-10.8629
▁panel	-10.864
▁Inspection	-10.864
▁breakfast	-10.8641
▁stepped	-10.8641
▁Hanjin	-10.8644
▁liked	-10.8648
▁sing	-10.865
▁BMW	-10.8652
ious	-10.8662
▁Meanwhile	-10.8663
▁Articles	-10.8667
▁finals	-10.8668
▁startup	-10.8672
▁argument	-10.8673
▁iPhone	-10.8674
cre	-10.8676
cus	-10.8678
made	-10.8678
▁immediate	-10.8679
heung	-10.8679
▁object	-10.8679
▁2007	-10.8685
▁Celsius	-10.8685
▁leak	-10.8686
▁anywhere	-10.8686
pping	-10.8686
▁movements	-10.8688
▁5,000	-10.8706
ku	-10.8707
▁accounted	-10.8714
▁Mongolia	-10.8715
▁samples	-10.8716
▁winds	-10.8717
▁removal	-10.8718
▁Network	-10.8719
▁Review	-10.8719
governing	-10.8728
▁gifts	-10.8729
▁pattern	-10.873
▁Sweden	-10.873
▁exceeding	-10.8737
▁celebrities	-10.8741
000	-10.8742
▁Cheon	-10.8744
fu	-10.8749
▁harvest	-10.8752
Presidential	-10.8756
▁unions	-10.8763
▁moves	-10.8766
▁(2),	-10.8771
▁portal	-10.8771
▁Both	-10.878
▁moon	-10.8786
▁talents	-10.8796
▁genre	-10.8798
29	-10.8801
late	-10.8802
cut	-10.8807
▁switch	-10.8808
▁Studies	-10.8808
▁chronic	-10.8808
▁Seodaemun	-10.8809
▁convergence	-10.8809
▁translation	-10.8809
▁web	-10.8812
▁plate	-10.8812
▁elect	-10.8826
▁destroyed	-10.8829
school	-10.8832
▁virtually	-10.8838
▁Convention	-10.8854
▁Work	-10.8854
▁sheet	-10.8855
▁ring	-10.8856
▁Compar	-10.8857
▁elements	-10.8863
▁Tower	-10.8866
▁pure	-10.8868
▁girls	-10.8871
▁2015.	-10.8872
▁chemical	-10.8872
▁chart	-10.8873
▁experiencing	-10.8877
▁transparent	-10.8877
▁Arabia	-10.8881
sin	-10.8885
▁(4)	-10.8885
▁connecting	-10.8891
▁Federal	-10.8899
▁species	-10.89
cing	-10.8902
▁suggest	-10.8915
▁estimate	-10.8915
▁faces	-10.8918
▁stands	-10.8921
▁targeting	-10.8926
ged	-10.8942
▁Instagram	-10.8945
▁Memorial	-10.8945
▁defendant	-10.8946
ek	-10.8947
▁remind	-10.8956
▁finishing	-10.8957
▁proposals	-10.8966
▁Four	-10.8972
▁supervisor	-10.8975
▁observed	-10.8976
▁mini	-10.8977
▁tower	-10.8977
member	-10.8979
▁reign	-10.8983
▁correspondent	-10.8991
CC	-10.9
▁exchanged	-10.9002
▁integration	-10.9003
▁UK	-10.9005
▁20,000	-10.9008
▁progressive	-10.901
▁Australian	-10.9021
tch	-10.9025
▁permit	-10.9032
▁Te	-10.9034
▁offline	-10.9034
▁clerk	-10.9037
▁primary	-10.9037
▁math	-10.904
▁Credit	-10.9049
▁telephone	-10.9049
▁mask	-10.9054
▁Gong	-10.906
▁libraries	-10.906
▁Rather	-10.906
▁Gender	-10.9062
▁42	-10.9073
▁retail	-10.9077
▁Asset	-10.9078
▁container	-10.9084
▁knowing	-10.9088
▁100%	-10.9097
▁Catholic	-10.9107
known	-10.9108
▁diagnosed	-10.9112
▁Hope	-10.9113
▁Candidate	-10.9119
▁doctors	-10.912
lecommunications	-10.9124
▁Fe	-10.9124
▁numerous	-10.913
▁launching	-10.9133
▁feed	-10.9135
▁ancient	-10.9145
▁Communication	-10.9148
▁couples	-10.9154
▁com	-10.9157
▁quiet	-10.9159
▁finalized	-10.9162
br	-10.9165
▁Techno	-10.9166
▁semiconductors	-10.9166
▁saved	-10.9167
field	-10.9167
top	-10.9175
hong	-10.9177
▁knee	-10.9177
▁loud	-10.9177
▁playground	-10.9178
▁constitutional	-10.9178
▁governance	-10.918
▁booth	-10.9185
▁Fi	-10.9187
▁unlikely	-10.9187
▁ministers	-10.9188
▁shelter	-10.9189
▁resistance	-10.9189
eum	-10.919
37	-10.9192
▁43	-10.9195
▁Ni	-10.9198
▁highway	-10.9201
▁normally	-10.9206
bum	-10.921
▁slump	-10.9212
▁visa	-10.9214
▁bottle	-10.922
▁restrict	-10.9222
▁branches	-10.9223
▁cheaper	-10.9231
hyung	-10.9235
▁passes	-10.9235
▁label	-10.9237
▁50,000	-10.9238
▁mode	-10.9238
▁ledger	-10.9239
▁heatwave	-10.9248
▁Ya	-10.925
▁seekers	-10.9253
▁discussing	-10.9258
▁Guard	-10.9258
▁crowd	-10.9259
▁Talk	-10.926
▁Cheongdo	-10.9265
▁philosophy	-10.9271
▁bringing	-10.928
▁rainy	-10.9282
▁analysts	-10.9284
▁posts	-10.9284
aving	-10.9289
▁occupation	-10.9291
▁Sha	-10.9291
▁reaching	-10.9295
▁shut	-10.9295
500	-10.9295
▁throw	-10.9296
▁ritual	-10.9307
▁threat	-10.9309
▁FTC	-10.9319
▁Gov	-10.932
▁repayment	-10.9321
▁praised	-10.9327
▁seizure	-10.9331
▁leaked	-10.9331
▁Jinping	-10.9334
▁55	-10.9339
▁adopt	-10.9341
▁quit	-10.9345
▁quarters	-10.9348
▁transition	-10.9349
▁extremely	-10.9353
▁kill	-10.9356
ency	-10.9358
▁CSAT	-10.9373
▁identification	-10.9378
▁reaction	-10.9379
ura	-10.9385
ign	-10.9385
31	-10.9393
▁urgently	-10.9394
ological	-10.9395
▁sum	-10.9395
▁producer	-10.9399
▁responses	-10.94
▁200,000	-10.9401
▁margin	-10.9402
▁casualties	-10.9402
▁Chungbuk	-10.9404
▁Child	-10.9406
▁heated	-10.9407
▁edge	-10.941
▁infants	-10.9411
▁lawyers	-10.9414
▁silver	-10.9414
▁Republican	-10.942
▁inevitably	-10.9426
▁pursued	-10.9429
sha	-10.9431
▁Confucian	-10.9432
▁premiums	-10.9436
▁reorganization	-10.9439
▁partners	-10.9439
▁chances	-10.9445
▁tied	-10.9446
▁exception	-10.9449
▁useful	-10.9449
place	-10.9456
▁Emergency	-10.9463
▁visible	-10.9463
▁slowly	-10.9463
grade	-10.9464
▁advised	-10.9468
▁listing	-10.9468
▁regularly	-10.9471
▁headed	-10.9472
▁Capital	-10.9475
▁explore	-10.9475
▁separation	-10.9475
▁mountains	-10.948
ham	-10.948
De	-10.9481
▁banking	-10.9489
▁convey	-10.9497
▁autonomy	-10.9499
▁Class	-10.9503
lar	-10.9504
▁stomach	-10.9511
▁worsening	-10.9511
▁indicted	-10.9514
bae	-10.9514
▁Gwanghwamun	-10.9523
▁Christ	-10.953
▁para	-10.953
▁ill	-10.9537
▁ba	-10.9538
▁investing	-10.9539
▁fa	-10.954
▁bomb	-10.9547
dam	-10.9547
▁j	-10.9552
▁Standards	-10.9554
▁verify	-10.9564
▁destruction	-10.9572
▁amazing	-10.9572
▁Chamber	-10.9572
▁laugh	-10.9576
▁resulted	-10.9577
▁violent	-10.9584
▁sugar	-10.9584
▁inappropriate	-10.9585
dis	-10.9588
▁boxes	-10.9593
▁proportional	-10.9595
▁scientific	-10.9596
▁Mokpo	-10.9597
ture	-10.9597
▁ownership	-10.9598
▁Silla	-10.9598
▁Wall	-10.96
▁salt	-10.9602
▁arrival	-10.9608
▁commemorate	-10.9608
▁essay	-10.9608
▁Kindergarten	-10.9611
▁merger	-10.9612
▁Indonesian	-10.9617
▁differ	-10.9631
▁impeachment	-10.9633
▁Sim	-10.9634
▁junior	-10.9636
lan	-10.9642
▁Buddha	-10.9645
▁banned	-10.9646
▁GM	-10.9647
▁democratic	-10.9648
▁immigrants	-10.9649
election	-10.9649
▁steady	-10.9658
seop	-10.9658
▁concentrate	-10.966
▁riding	-10.966
▁bowl	-10.9662
▁tank	-10.9662
▁refugee	-10.9665
▁fabric	-10.9666
▁ordinances	-10.9669
▁instructor	-10.9673
oo	-10.9673
▁completing	-10.9682
▁Namyangju	-10.9683
▁defect	-10.9687
▁fix	-10.9688
▁wire	-10.9689
▁handled	-10.9691
▁USD	-10.9693
▁Media	-10.9693
▁shipbuilding	-10.9695
gar	-10.9699
▁jumped	-10.9704
▁Palace	-10.9707
▁healing	-10.9708
▁%	-10.9708
▁processes	-10.9708
▁encouraged	-10.9709
▁invite	-10.9709
▁contrary	-10.972
▁Siheung	-10.972
▁conclude	-10.9722
▁preserve	-10.9722
▁rank	-10.9723
▁fairness	-10.9725
▁declined	-10.9726
▁bi	-10.9727
▁print	-10.9731
▁combines	-10.9736
▁44	-10.9736
▁functional	-10.974
▁lyrics	-10.974
▁personally	-10.9743
▁flu	-10.9748
▁Along	-10.9765
▁numbers	-10.9769
▁Pangyo	-10.9769
▁largely	-10.9772
▁feared	-10.9772
▁Kyu	-10.9775
▁constant	-10.9775
ana	-10.9778
▁initiative	-10.9781
▁bidding	-10.9782
▁fruits	-10.9782
▁Los	-10.9785
▁nor	-10.9787
▁Communications	-10.9799
▁arms	-10.9799
▁weekends	-10.98
▁outlook	-10.9806
▁Coach	-10.9808
ants	-10.981
▁thousand	-10.9812
▁Suk	-10.9814
▁Embassy	-10.9819
▁Gimhae	-10.9819
▁directed	-10.9824
Chairperson	-10.9826
5,000	-10.9828
istic	-10.9832
▁speaker	-10.9842
▁sought	-10.9844
▁principles	-10.9851
▁injuries	-10.9856
▁auction	-10.9856
▁contacted	-10.9867
▁inner	-10.9869
▁closure	-10.9869
▁celebration	-10.987
▁Second	-10.9874
▁30,000	-10.9885
▁outbreak	-10.9887
▁induce	-10.9894
▁invitation	-10.9897
▁producers	-10.9898
yoon	-10.9899
▁sounds	-10.9899
▁juvenile	-10.9901
▁mention	-10.9903
▁Manager	-10.9907
▁Concert	-10.9907
▁laughter	-10.9908
▁protecting	-10.9908
▁illness	-10.9918
▁encouraging	-10.9919
▁liberal	-10.9919
▁submission	-10.992
▁Forces	-10.9922
▁underway	-10.9923
▁netizens	-10.9926
ps	-10.9928
▁hang	-10.993
▁41	-10.993
▁Taekwondo	-10.9932
▁unclear	-10.9933
▁noted	-10.9938
pri	-10.9939
▁harder	-10.9939
▁Pacific	-10.9942
▁legs	-10.9943
ware	-10.9943
▁Nuclear	-10.9945
▁Program	-10.9945
▁Yeah	-10.9946
▁bulletin	-10.9947
▁hoped	-10.9949
night	-10.9949
▁drinks	-10.9953
▁adapt	-10.9957
ium	-10.9959
▁shoulder	-10.9959
▁counsel	-10.9961
▁immigration	-10.9963
ox	-10.9965
▁clinical	-10.9968
▁decreasing	-10.997
▁Joong	-10.9971
▁unified	-10.9972
▁Lord	-10.9973
▁Experience	-10.9983
mal	-10.9983
▁Everyone	-10.9984
▁picked	-10.9989
▁forms	-10.9991
▁chair	-10.9991
▁Cooperative	-10.9992
mar	-10.9994
▁buried	-10.9996
▁Sorry	-10.9997
▁measurement	-11.0001
▁abolition	-11.0008
▁reputation	-11.0008
▁infection	-11.0008
▁Jeollabuk	-11.0009
14	-11.0025
▁seventh	-11.0025
▁defined	-11.0028
▁sand	-11.0031
▁lifted	-11.0031
priced	-11.0033
▁realistic	-11.0036
▁mothers	-11.0036
dding	-11.004
cheong	-11.0046
▁fisheries	-11.0047
▁History	-11.0047
▁Such	-11.0047
▁discover	-11.0049
qua	-11.0049
▁compensate	-11.0049
▁threatened	-11.0053
▁bo	-11.0054
▁substances	-11.0057
investigative	-11.0059
Mo	-11.006
▁Equality	-11.0063
▁locations	-11.0066
▁blocking	-11.0066
▁slogan	-11.0072
▁Electric	-11.0072
▁techniques	-11.0073
TV	-11.008
▁argue	-11.0085
▁trials	-11.0087
▁(1).	-11.0088
▁raises	-11.0089
ctor	-11.0096
▁religion	-11.0098
▁structural	-11.0098
▁scoring	-11.0098
▁discharged	-11.0098
▁systematically	-11.0098
taek	-11.01
▁Take	-11.0104
▁Dongjak	-11.0111
▁Kingdom	-11.0111
▁Southern	-11.0111
▁hip	-11.0112
my	-11.0116
▁networks	-11.0117
cal	-11.012
rang	-11.0122
▁stating	-11.0124
▁ate	-11.0127
sil	-11.0136
▁Reuters	-11.0137
▁split	-11.0137
▁tonight	-11.0137
▁Gunsan	-11.0139
▁scholars	-11.0145
▁Ar	-11.0149
▁exciting	-11.0149
▁grateful	-11.0149
▁dawn	-11.015
▁issuing	-11.0151
▁profitability	-11.0151
▁survive	-11.0152
pan	-11.0157
▁log	-11.0159
▁Turkish	-11.0162
ec	-11.0168
sul	-11.0169
▁captured	-11.0172
sign	-11.0173
▁Well	-11.0174
▁powder	-11.0175
wol	-11.0176
▁Per	-11.0186
city	-11.019
▁vessels	-11.0198
▁Kaesong	-11.0201
▁prolonged	-11.0201
▁purchases	-11.0203
▁wheel	-11.0203
▁investor	-11.0205
▁regeneration	-11.0207
IS	-11.0211
▁peaceful	-11.0213
▁Sure	-11.0215
▁resign	-11.0217
▁communications	-11.0217
▁Interior	-11.0217
▁300,000	-11.0219
▁"2018	-11.0222
attached	-11.0224
▁competitions	-11.0226
▁compromise	-11.0227
▁shipped	-11.0228
▁pan	-11.0232
55	-11.0241
▁Kumho	-11.0241
▁Burning	-11.0242
ens	-11.0248
ably	-11.0248
▁KB	-11.0249
▁entrepreneurs	-11.025
▁automatic	-11.0253
▁Britain	-11.0253
▁bloom	-11.0253
▁appliances	-11.0255
▁Fed	-11.0256
chu	-11.0257
▁tastes	-11.0258
▁cameras	-11.0259
▁punished	-11.0265
▁replied	-11.0267
▁treasury	-11.0267
▁2004	-11.0273
bl	-11.0276
▁ending	-11.0276
▁determination	-11.0277
▁enters	-11.0278
▁overwhelming	-11.0281
▁burn	-11.0285
▁Suncheon	-11.0286
sim	-11.0287
▁Th	-11.0288
▁Com	-11.0292
▁Har	-11.0293
▁clause	-11.0293
▁desirable	-11.0293
▁logic	-11.0294
▁complained	-11.0301
air	-11.0306
▁involvement	-11.0306
▁trips	-11.0307
▁taxation	-11.0314
hang	-11.0316
Ch	-11.0318
▁patterns	-11.0319
▁52	-11.032
▁sc	-11.0321
▁runner	-11.0323
uff	-11.0326
graphic	-11.033
23	-11.0331
▁featuring	-11.0332
▁Am	-11.0337
▁suggests	-11.0342
▁Pan	-11.0343
Lee	-11.0343
▁relatives	-11.0344
▁contrast	-11.0345
▁Sky	-11.0347
▁experiment	-11.0348
▁Bay	-11.0349
▁fried	-11.0357
▁lie	-11.0357
ball	-11.0358
▁Canadian	-11.0358
▁Gapyeong	-11.0359
heon	-11.0364
▁contractor	-11.0366
▁crack	-11.0366
▁productivity	-11.0374
▁wouldn	-11.0375
▁tens	-11.0378
▁fly	-11.0378
ene	-11.038
tting	-11.0383
od	-11.0384
▁conservation	-11.0385
▁sessions	-11.0388
▁Chul	-11.0394
lit	-11.0397
▁hits	-11.0397
▁Kwak	-11.0398
▁intervention	-11.0398
▁lighting	-11.04
▁protected	-11.0401
▁mediation	-11.0403
▁Tottenham	-11.0404
▁greenhouse	-11.0413
▁stabilize	-11.0415
▁Right	-11.0415
▁250	-11.0419
▁disability	-11.0426
▁Constitution	-11.0431
▁acid	-11.0441
32	-11.0441
▁capture	-11.0442
sco	-11.0442
▁Pocheon	-11.0444
▁skill	-11.0446
▁delegated	-11.0446
regular	-11.0449
▁Should	-11.0451
▁remote	-11.0451
▁shower	-11.0453
▁Noh	-11.0453
AR	-11.0455
▁guardian	-11.0455
▁Anti	-11.046
▁abortion	-11.0465
▁footage	-11.0467
▁defeated	-11.0471
▁spoke	-11.0475
▁Report	-11.0476
▁2002	-11.0476
▁hurry	-11.0478
▁saving	-11.0478
▁Plant	-11.0492
▁warehouse	-11.0505
▁ecological	-11.0505
dol	-11.0506
▁firefighters	-11.0508
▁oppose	-11.0508
▁Hyeon	-11.0509
▁washing	-11.0509
▁spots	-11.0514
▁fewer	-11.0517
53	-11.0517
▁stir	-11.0518
dle	-11.0519
▁mistakes	-11.0519
Me	-11.052
part	-11.0521
ise	-11.0525
▁aspects	-11.0531
▁coordination	-11.0532
▁hopes	-11.0537
▁understood	-11.0545
▁guys	-11.0554
▁hasn	-11.0558
▁evil	-11.0559
ov	-11.056
▁deaths	-11.056
▁nose	-11.0562
▁fault	-11.0567
▁Pu	-11.0568
▁parliament	-11.057
▁stored	-11.0571
▁Municipal	-11.0572
▁Shinsegae	-11.0572
▁technological	-11.0572
▁fare	-11.0573
▁rains	-11.0576
▁Boo	-11.0579
▁App	-11.0579
▁Press	-11.0587
▁Huh	-11.0587
row	-11.0589
▁attacks	-11.0596
leg	-11.0596
▁recruiting	-11.0598
▁decisions	-11.0598
▁Hollywood	-11.0599
▁explosion	-11.0599
▁opposing	-11.0599
▁Seungri	-11.0599
▁1980	-11.0604
36	-11.0605
▁burned	-11.0611
▁railroad	-11.0613
uri	-11.0615
▁im	-11.0617
verse	-11.0618
▁papers	-11.0623
▁therapy	-11.0628
▁49	-11.063
▁classical	-11.0632
▁borrow	-11.0633
▁2.5	-11.0633
▁wealth	-11.0635
▁dancing	-11.064
▁commitment	-11.0641
▁auditor	-11.0643
rac	-11.0646
▁2011,	-11.065
▁virus	-11.0652
▁ordering	-11.0656
▁decorated	-11.0656
▁effectiveness	-11.0658
▁petitions	-11.0659
▁Cabinet	-11.0667
▁Content	-11.0667
▁Hoe	-11.067
come	-11.0671
▁sets	-11.0675
▁featured	-11.0677
▁imprisonment	-11.0694
▁unfamiliar	-11.0694
▁businessmen	-11.0698
▁Anseong	-11.0703
▁airline	-11.0706
nk	-11.0706
▁meets	-11.0708
▁preferred	-11.0709
▁1990	-11.0711
▁pot	-11.0717
▁cope	-11.072
▁negligence	-11.0721
▁Dance	-11.0722
▁writers	-11.0733
rat	-11.0737
▁coverage	-11.0737
▁w	-11.0743
▁driven	-11.0745
▁lo	-11.0747
▁Disabled	-11.0749
▁Eastern	-11.0749
app	-11.075
▁Pe	-11.0751
▁lending	-11.0754
▁ski	-11.0756
▁testing	-11.0761
▁chocolate	-11.0763
▁filter	-11.0763
▁harsh	-11.0763
▁telling	-11.0766
38	-11.0767
pt	-11.0769
▁luggage	-11.0776
▁commendation	-11.0777
eul	-11.0788
chairman	-11.079
▁taught	-11.079
▁simultaneously	-11.0793
real	-11.0797
▁weekly	-11.0798
IT	-11.0813
▁emissions	-11.0814
cle	-11.0815
▁examples	-11.0815
▁Previously	-11.0818
ified	-11.0821
ions	-11.0822
▁Autonomy	-11.0832
▁competing	-11.0832
▁download	-11.0833
▁reverse	-11.0839
▁remark	-11.0842
▁Volunteer	-11.0845
▁childhood	-11.0846
ino	-11.0853
▁yard	-11.0854
▁grass	-11.0859
▁l	-11.086
▁expressions	-11.0861
▁missionary	-11.0863
27	-11.0868
▁restriction	-11.087
▁Chuncheon	-11.0872
▁tools	-11.0872
▁Up	-11.0872
▁quarantine	-11.0873
▁unavoidable	-11.0873
▁explaining	-11.0882
▁Dobong	-11.0883
▁willing	-11.0886
▁eggs	-11.0891
▁doubt	-11.0894
▁absolute	-11.0895
▁newsletter	-11.0901
▁Site	-11.0902
OS	-11.0908
hand	-11.0909
▁sport	-11.0912
▁Notwithstanding	-11.0915
▁Bundang	-11.0915
▁refuse	-11.0918
▁daytime	-11.0918
▁exceeds	-11.0925
yun	-11.0927
▁punish	-11.093
ject	-11.0932
▁Traditional	-11.0943
▁rival	-11.0943
▁prospective	-11.0944
34	-11.0946
fic	-11.0946
▁painful	-11.0947
▁roles	-11.095
▁linking	-11.0953
▁rescued	-11.0955
ick	-11.0958
▁publishing	-11.0959
▁Wol	-11.096
▁snacks	-11.0961
▁approve	-11.0961
ced	-11.0963
▁machines	-11.0965
▁increasingly	-11.0969
▁hide	-11.0969
▁cyber	-11.0971
▁pack	-11.0972
▁Night	-11.0972
▁wallet	-11.0973
▁Time	-11.098
▁midst	-11.0981
▁exempted	-11.0981
▁searching	-11.0982
▁characteristic	-11.0983
uc	-11.0985
▁threw	-11.0985
▁fellow	-11.0987
rak	-11.099
rk	-11.0991
▁relieve	-11.0991
j	-11.0992
bel	-11.0992
▁audition	-11.0993
▁Nexen	-11.0999
▁synergy	-11.0999
Mayor	-11.1001
▁provisional	-11.1002
▁Superintendent	-11.1002
▁directions	-11.1005
▁Golden	-11.1008
▁Dal	-11.101
▁commemorative	-11.1013
▁exposure	-11.1013
▁outlets	-11.102
▁requesting	-11.1027
▁manufacturer	-11.1028
▁500,000	-11.1032
▁hosting	-11.1032
▁marking	-11.1033
▁financing	-11.1034
▁sight	-11.1038
▁failing	-11.1042
▁burst	-11.1044
gyeong	-11.1046
TO	-11.1047
▁Yangcheon	-11.1055
▁v	-11.1056
▁Broadcasting	-11.1061
▁depends	-11.1063
set	-11.1069
▁objects	-11.1071
▁update	-11.1074
▁happening	-11.1077
tric	-11.1085
▁Room	-11.1085
▁facilitate	-11.1085
▁enthusiastic	-11.1086
▁reside	-11.1086
▁nomination	-11.1089
▁Happy	-11.1091
▁maximize	-11.1094
48	-11.1101
▁categories	-11.1112
▁Master	-11.1115
▁agents	-11.1118
track	-11.1123
▁publicity	-11.1126
▁Argentina	-11.1127
▁Companies	-11.1127
▁explosive	-11.1127
▁poet	-11.1127
▁arise	-11.113
Even	-11.1131
iness	-11.1132
wn	-11.1132
uch	-11.1133
▁Y	-11.1135
▁lifestyle	-11.1135
With	-11.1137
▁dam	-11.1138
▁Evaluation	-11.1141
▁maritime	-11.1141
▁malls	-11.1151
▁Representatives	-11.1154
▁Dam	-11.1154
neighboring	-11.1165
iz	-11.1171
net	-11.1172
▁par	-11.1174
▁booths	-11.1175
▁mu	-11.1179
▁birds	-11.1182
▁Sp	-11.1183
▁KOSDA	-11.1184
▁helicopter	-11.1184
let	-11.1192
pass	-11.1193
hui	-11.1194
▁dismiss	-11.1197
Integrated	-11.1198
▁designs	-11.1202
▁belongs	-11.1202
▁recovered	-11.1207
seung	-11.1211
▁Premier	-11.1212
▁contributing	-11.1212
▁Though	-11.1212
▁monk	-11.1213
▁floors	-11.1213
▁scar	-11.1216
▁campus	-11.1222
die	-11.1223
▁KOSPI	-11.1227
▁architecture	-11.1227
tive	-11.1231
▁acquire	-11.1231
▁yield	-11.1233
26	-11.1234
bb	-11.1234
▁pose	-11.1238
▁Ten	-11.1241
▁grace	-11.1241
▁Taiwanese	-11.1242
▁decade	-11.1243
▁pig	-11.1244
▁prohibited	-11.125
▁attach	-11.1251
▁Chu	-11.1253
▁forming	-11.1255
▁Druking	-11.1255
▁revealing	-11.1257
▁inland	-11.1258
▁Yeoncheon	-11.1258
▁African	-11.126
▁poured	-11.1261
▁rush	-11.1264
▁Political	-11.1274
▁journalists	-11.1275
▁ties	-11.1277
)."	-11.1289
▁generate	-11.1289
▁rankings	-11.1296
▁wishes	-11.1296
star	-11.1297
▁ends	-11.1298
▁grows	-11.1299
▁Beach	-11.1302
▁uniforms	-11.1303
sen	-11.1307
government	-11.1313
▁2018,	-11.1313
▁Living	-11.1314
▁Angeles	-11.1315
support	-11.1317
▁deployed	-11.132
▁Nations	-11.1321
myeong	-11.1324
▁components	-11.1325
▁Tr	-11.1325
▁Critics	-11.1328
▁electoral	-11.1328
moon	-11.1328
▁herself	-11.1329
▁Goseong	-11.1332
▁controlled	-11.1335
▁layer	-11.1336
▁cluster	-11.1343
▁excavation	-11.1343
▁Earth	-11.1343
▁km	-11.1344
hyang	-11.1345
▁worldwide	-11.1345
▁files	-11.1346
▁designer	-11.1348
▁postponed	-11.1349
16	-11.135
▁2010,	-11.1351
▁abnormal	-11.1356
ook	-11.1356
uck	-11.1356
▁proved	-11.1356
▁Basic	-11.1357
▁Statistics	-11.1357
ening	-11.1357
private	-11.136
▁retired	-11.1363
▁tap	-11.137
▁depression	-11.1372
▁scenario	-11.1372
▁stuff	-11.1372
▁2021	-11.1376
▁presenting	-11.1378
▁cheer	-11.1379
tel	-11.138
▁46	-11.1385
▁infant	-11.1387
▁800	-11.1388
▁Ad	-11.1389
▁fired	-11.139
▁Best	-11.14
▁diesel	-11.1401
▁conversion	-11.1401
▁alert	-11.1402
▁hill	-11.1405
▁veterans	-11.1405
▁influenced	-11.1407
▁described	-11.1409
21	-11.1409
▁honest	-11.141
▁judging	-11.1416
▁ocean	-11.1416
▁sewage	-11.1416
▁Bento	-11.1419
▁Geo	-11.142
▁ca	-11.142
33	-11.143
▁overtime	-11.1431
▁nights	-11.1433
ueen	-11.1435
▁lay	-11.144
Co	-11.1446
kwon	-11.1446
▁Sc	-11.1448
▁nations	-11.1448
▁faithfully	-11.1449
▁wireless	-11.1453
▁propose	-11.1455
▁sin	-11.1457
▁monument	-11.146
▁frozen	-11.146
▁wholesale	-11.1461
▁affection	-11.1463
▁lifting	-11.1465
▁lift	-11.1467
▁negotiating	-11.1475
▁irregularities	-11.1475
▁40%	-11.1477
▁challenges	-11.1483
▁Yangju	-11.1484
▁confirming	-11.1486
For	-11.1489
▁bribery	-11.149
▁blog	-11.149
▁Kwan	-11.1492
▁graduated	-11.1493
▁emerge	-11.1494
▁printing	-11.1499
▁liquid	-11.1501
▁imposition	-11.1504
▁organizing	-11.1504
▁definitely	-11.1506
▁highlight	-11.1507
▁historic	-11.1507
mouth	-11.1508
▁70%	-11.1511
AI	-11.1512
▁screened	-11.1512
wha	-11.1513
▁spa	-11.1514
▁Treasury	-11.1519
▁stroke	-11.1519
▁laid	-11.152
▁deduction	-11.152
▁indictment	-11.1523
▁Tu	-11.1525
▁700	-11.153
▁destroy	-11.1532
▁Champions	-11.1534
▁teeth	-11.1534
45	-11.1534
▁Their	-11.1534
▁Brazilian	-11.1536
▁Councilor	-11.154
nic	-11.154
▁toilet	-11.1542
▁massage	-11.1544
▁Hill	-11.1544
▁protested	-11.1544
▁wonderful	-11.1548
▁Arab	-11.1551
DA	-11.1552
▁exams	-11.1561
▁creates	-11.1562
▁buyer	-11.1563
▁Dokdo	-11.1564
▁options	-11.1571
▁Extension	-11.1578
▁Garden	-11.1579
▁goalkeeper	-11.1579
▁(7	-11.1583
vol	-11.1583
▁confessed	-11.1583
▁Shi	-11.1584
▁lend	-11.1584
▁Live	-11.1586
▁Icheon	-11.1588
▁romance	-11.1593
▁golden	-11.1599
▁(19	-11.1603
▁paragraphs	-11.1604
▁uploaded	-11.1604
▁testimony	-11.1608
▁zero	-11.1608
▁dominated	-11.1614
▁flights	-11.1614
▁musicians	-11.162
▁framework	-11.1624
▁observe	-11.1627
47	-11.1634
▁transformed	-11.1634
▁Facilities	-11.1638
▁Mexican	-11.1638
▁signboard	-11.1639
▁machinery	-11.1641
▁80%	-11.1646
▁noteworthy	-11.1653
inter	-11.1662
▁Pal	-11.1664
sale	-11.1665
▁everywhere	-11.1669
▁supervise	-11.1673
49	-11.1674
▁47	-11.1675
46	-11.1683
▁prestigious	-11.1683
▁valley	-11.1683
▁vocational	-11.1683
▁Use	-11.1684
▁capable	-11.1685
▁draws	-11.1695
▁pad	-11.1697
▁California	-11.1699
▁passionate	-11.17
▁rises	-11.1705
moo	-11.1708
sup	-11.171
▁Isn	-11.1713
empt	-11.1713
▁Osaka	-11.1714
▁grave	-11.1714
▁bath	-11.1717
▁eastern	-11.1721
▁cheese	-11.1729
▁leap	-11.1729
▁51	-11.1735
▁exists	-11.174
▁lodging	-11.1744
▁recycling	-11.1745
▁offense	-11.1745
▁transparency	-11.1759
▁dating	-11.1761
▁workplaces	-11.1766
▁cultures	-11.1766
▁returns	-11.1772
▁Creative	-11.1774
▁Furthermore	-11.1774
▁aren	-11.1776
▁greeting	-11.1785
▁Kimchi	-11.1786
▁context	-11.1789
▁FTA	-11.179
▁clip	-11.179
BC	-11.1793
ST	-11.1795
Director	-11.1795
▁surpassed	-11.18
▁borrowed	-11.1803
▁operational	-11.1807
▁pair	-11.1809
▁Men	-11.181
▁concerts	-11.181
▁praise	-11.181
▁disorder	-11.1816
▁colleagues	-11.1818
▁economies	-11.182
▁Baseball	-11.182
oma	-11.1821
▁Space	-11.1821
▁broadcaster	-11.1826
▁2003	-11.1827
▁basement	-11.1829
39	-11.1833
▁robots	-11.1835
▁deposits	-11.1837
▁instructions	-11.1841
▁shake	-11.1842
▁occasion	-11.1842
▁comp	-11.1849
▁Orchestra	-11.1851
▁Shopping	-11.1851
▁subsidized	-11.1856
▁aggressive	-11.186
▁conglomerates	-11.1861
▁Egypt	-11.1863
ay	-11.1867
▁MERS	-11.1872
▁Natural	-11.1881
▁steering	-11.1881
▁voters	-11.1885
▁promptly	-11.1886
▁soul	-11.1886
▁pine	-11.1889
▁tells	-11.1892
pic	-11.1895
▁Traffic	-11.1897
▁Fortress	-11.1897
▁Advisory	-11.1899
ically	-11.1899
CE	-11.1905
ina	-11.1906
▁guards	-11.1908
not	-11.1911
▁Bloomberg	-11.1912
▁assignment	-11.1913
▁Miss	-11.1917
▁2006	-11.1917
Ha	-11.1917
▁exclude	-11.1918
▁slowing	-11.1919
▁sat	-11.192
ky	-11.1925
▁afford	-11.1926
zi	-11.1926
▁Sydney	-11.1928
▁drove	-11.1928
▁focuses	-11.1928
▁restored	-11.1928
▁Steel	-11.1929
▁fence	-11.1929
▁walked	-11.1929
▁KBO	-11.193
CO	-11.1931
fully	-11.1931
▁defender	-11.1931
lip	-11.1934
▁touching	-11.1942
depth	-11.195
▁protests	-11.1951
▁textbooks	-11.1954
▁ongoing	-11.1954
▁Farm	-11.1955
▁batter	-11.1956
▁Journal	-11.1958
▁ginseng	-11.1958
▁shutdown	-11.1959
56	-11.1964
▁Bus	-11.1966
▁theaters	-11.1968
▁shouldn	-11.1969
▁sang	-11.1972
▁heading	-11.1972
▁cultivation	-11.1974
▁liquor	-11.1974
▁worn	-11.1974
▁Italian	-11.1974
pp	-11.1976
▁Play	-11.1976
▁sponsor	-11.1977
▁manufactured	-11.1982
ella	-11.1984
▁wash	-11.1987
Po	-11.1988
▁Yonsei	-11.199
▁grandfather	-11.199
▁coalition	-11.199
▁na	-11.1992
dent	-11.1996
An	-11.1997
▁acknowledged	-11.1999
22	-11.1999
▁Expo	-11.2
▁Five	-11.2002
▁Learning	-11.2005
64	-11.2007
▁therefore	-11.2009
gging	-11.2009
rok	-11.2009
ori	-11.2011
▁format	-11.2014
▁homeless	-11.2015
▁Jan	-11.2021
▁attributed	-11.2021
▁tomb	-11.2025
67	-11.2026
▁USA	-11.2028
▁sort	-11.2029
▁qualifications	-11.2033
▁jump	-11.2036
▁keeps	-11.2036
▁dignity	-11.2036
▁Corps	-11.2038
▁relax	-11.2038
▁critics	-11.2039
AN	-11.204
▁Ku	-11.2045
▁recruited	-11.2048
▁Ab	-11.2051
▁informatization	-11.2052
▁worries	-11.2052
rage	-11.2055
MA	-11.2061
▁undergo	-11.2066
▁rarely	-11.208
▁cur	-11.2081
▁technique	-11.2083
▁Criminal	-11.2083
▁Stream	-11.2083
▁Robert	-11.2083
▁Sharing	-11.2084
Pa	-11.2086
▁languages	-11.2087
▁Ilsan	-11.2088
▁alive	-11.2091
▁Call	-11.2092
▁stops	-11.2095
▁ceiling	-11.2099
▁releasing	-11.2099
▁applies	-11.2099
▁bike	-11.21
▁detect	-11.2105
▁Gil	-11.2108
▁congratulatory	-11.2115
▁piano	-11.2115
▁pregnancy	-11.2115
▁Staff	-11.2115
▁i	-11.2116
▁camping	-11.2116
▁striker	-11.2117
▁Tak	-11.2117
▁sacrifice	-11.212
68	-11.2123
▁additionally	-11.2123
▁Gen	-11.2124
Pro	-11.2128
▁abilities	-11.213
▁gratitude	-11.213
▁alarm	-11.2131
▁deleted	-11.2136
standing	-11.2137
▁agreements	-11.2145
▁inflation	-11.2146
▁drastically	-11.2146
▁bound	-11.2147
200	-11.2148
▁armed	-11.2149
▁relationships	-11.215
▁responding	-11.2152
▁youths	-11.2152
▁attempts	-11.2156
▁accurately	-11.2157
▁Sometimes	-11.2162
05	-11.2162
▁Navy	-11.2162
▁rewards	-11.2163
qu	-11.2165
Be	-11.2171
gn	-11.2177
▁coordinate	-11.2178
▁pizza	-11.2178
57	-11.2178
▁Out	-11.2179
▁Gochang	-11.2182
wer	-11.2183
▁cons	-11.2189
2)	-11.2193
▁quota	-11.2193
▁nominee	-11.2194
▁NC	-11.2195
▁acceptance	-11.2196
lation	-11.2197
▁checks	-11.2202
▁knows	-11.2203
▁GS	-11.2206
ric	-11.2207
▁Gwacheon	-11.2209
▁cautious	-11.2209
▁silent	-11.2209
▁gene	-11.2211
▁sells	-11.2217
high	-11.2218
gal	-11.222
ale	-11.2221
At	-11.2222
▁indicating	-11.2225
▁Israel	-11.2228
▁Kyo	-11.2233
▁trail	-11.224
▁advantages	-11.2245
▁bra	-11.2254
▁disappointed	-11.2257
▁breath	-11.226
▁script	-11.2265
nova	-11.2266
▁covering	-11.2267
▁Sal	-11.227
▁hotels	-11.2271
▁initially	-11.2272
▁heavily	-11.2273
▁refrain	-11.2273
▁inquiry	-11.2273
▁Venture	-11.2273
combining	-11.2273
▁aftermath	-11.2273
▁abolished	-11.2284
▁Seongdong	-11.2288
▁congestion	-11.2289
▁creativity	-11.2289
▁redevelopment	-11.2291
▁representation	-11.2293
▁Mongolian	-11.2294
▁floating	-11.2294
▁contributions	-11.2299
▁thin	-11.23
▁absent	-11.2305
▁lobby	-11.2305
▁unprecedented	-11.2305
▁animation	-11.2305
▁texture	-11.2306
▁specialty	-11.2312
Fi	-11.2319
▁cuts	-11.2321
▁packaging	-11.2321
iving	-11.2325
43	-11.2328
van	-11.2336
▁mathematics	-11.2337
▁necessity	-11.2337
▁captain	-11.2338
▁textile	-11.2338
▁adoption	-11.234
▁Championship	-11.2341
▁shed	-11.2348
▁documentary	-11.2348
▁transform	-11.2348
▁expecting	-11.2349
clusive	-11.2353
▁offensive	-11.2353
▁portrait	-11.2353
▁instrument	-11.2357
▁magic	-11.2359
▁midterm	-11.2361
▁desired	-11.2362
ari	-11.2365
fish	-11.2365
lon	-11.2366
▁truly	-11.237
ob	-11.237
▁Geumcheon	-11.2371
▁emission	-11.2375
▁Tell	-11.2378
order	-11.2385
graph	-11.2385
▁Jamsil	-11.2386
▁journey	-11.2386
▁prominent	-11.2386
▁tendency	-11.2386
▁Oct	-11.2388
▁twin	-11.2388
▁drone	-11.239
count	-11.2393
▁weakened	-11.2393
08	-11.2393
▁apart	-11.2393
▁flying	-11.2394
66	-11.2395
press	-11.2397
▁decades	-11.2416
▁width	-11.2418
▁James	-11.2418
▁Fu	-11.2423
▁amounts	-11.2423
▁Bon	-11.2425
▁Accounting	-11.2426
road	-11.2427
▁rough	-11.2428
▁instruments	-11.243
ez	-11.2434
▁palace	-11.2434
▁yuan	-11.2434
▁batteries	-11.2435
Mart	-11.2438
▁photographs	-11.244
▁greatest	-11.2443
specializing	-11.2444
speed	-11.2445
▁prediction	-11.2448
▁(6	-11.2449
▁dessert	-11.2451
▁somewhere	-11.2452
▁sta	-11.2457
sia	-11.2458
▁severely	-11.2461
▁forests	-11.2466
▁spouse	-11.2467
▁da	-11.2469
▁Jecheon	-11.247
▁Later	-11.2472
ional	-11.2472
▁obligation	-11.2473
▁dad	-11.248
▁Psy	-11.2484
▁surge	-11.2487
▁Data	-11.2488
▁lying	-11.2489
▁Mok	-11.2489
▁guarantees	-11.2492
FC	-11.2493
▁Chungju	-11.2493
▁luck	-11.2495
▁commit	-11.2497
▁breast	-11.25
▁satellite	-11.25
44	-11.2504
▁Kazakhstan	-11.2516
▁occurrence	-11.2516
▁Ph	-11.2517
▁differentiated	-11.2519
ug	-11.252
▁revive	-11.2522
▁lies	-11.2528
▁serves	-11.253
▁stimulate	-11.2532
hoe	-11.2548
▁Liberal	-11.2549
▁excitement	-11.2549
▁lowering	-11.256
responsibilities	-11.2565
▁excellence	-11.2565
▁neglected	-11.2572
▁1.2	-11.2574
▁carriers	-11.2574
▁assessed	-11.2574
▁Hang	-11.2577
▁2014.	-11.2577
PA	-11.2581
▁literary	-11.2582
▁television	-11.2582
chae	-11.2582
▁march	-11.2582
▁rational	-11.2585
▁Girl	-11.2589
▁represents	-11.259
▁Songdo	-11.2596
▁lacking	-11.2597
▁trucks	-11.2598
▁romantic	-11.2598
▁searched	-11.2599
▁stepping	-11.26
▁52-	-11.2604
▁upload	-11.2609
South	-11.261
▁suggesting	-11.2611
body	-11.2613
▁Language	-11.2615
▁cave	-11.262
▁delegate	-11.2621
97	-11.2622
song	-11.2624
▁Bok	-11.2625
New	-11.2627
▁announcing	-11.2631
▁column	-11.2631
▁Cross	-11.2631
▁shaking	-11.2631
▁uncertainty	-11.2632
play	-11.2632
▁Non	-11.2638
gol	-11.2638
▁newspapers	-11.2638
▁readers	-11.2639
▁Netflix	-11.2648
▁spray	-11.2648
ient	-11.2648
▁seed	-11.2649
▁tool	-11.2659
▁rid	-11.2659
▁Veterans	-11.2665
▁lung	-11.2665
▁nominated	-11.2666
▁crops	-11.2669
▁Putin	-11.2669
77	-11.2669
▁180	-11.267
▁tracking	-11.2677
▁Gye	-11.2677
▁Manchester	-11.2681
▁hobby	-11.2681
▁ages	-11.2687
party	-11.2692
PS	-11.2693
▁Sokcho	-11.2698
▁chest	-11.2698
▁stuck	-11.2698
▁2008,	-11.2699
▁downward	-11.2702
▁Ik	-11.2703
▁renewed	-11.2705
▁Asan	-11.2709
▁Unit	-11.2709
▁appearing	-11.2713
▁integrity	-11.2714
▁Prior	-11.2714
▁habits	-11.2716
▁Paul	-11.2717
▁seasons	-11.2719
▁Seol	-11.2719
▁sincerely	-11.2721
▁abused	-11.2725
▁adviser	-11.2726
▁cruise	-11.2731
▁diplomacy	-11.2731
▁advantageous	-11.2733
fra	-11.274
Ro	-11.274
har	-11.2744
▁Madrid	-11.2748
▁occupied	-11.2748
▁surpass	-11.2753
▁executed	-11.2755
▁2001	-11.276
▁exclusively	-11.2765
▁pocket	-11.2765
▁tunnel	-11.2765
▁inquiries	-11.2765
rry	-11.277
▁poll	-11.277
▁consistently	-11.277
▁Mark	-11.2773
ranging	-11.2776
smoking	-11.2777
ica	-11.2777
list	-11.2781
▁fought	-11.2782
▁reunion	-11.2782
▁unstable	-11.2782
▁thereby	-11.2782
Ex	-11.2782
▁Seongbuk	-11.2783
▁muscles	-11.2783
▁impressed	-11.2784
▁exempt	-11.2785
▁Participants	-11.2798
▁sincerity	-11.2798
▁aviation	-11.2798
▁vitality	-11.2799
▁accusation	-11.2799
▁Paulo	-11.2804
▁medals	-11.2809
dal	-11.2809
▁resigned	-11.2814
og	-11.2817
▁clouds	-11.2818
▁frequency	-11.282
▁platforms	-11.2824
▁taxpayer	-11.2827
▁Ver	-11.2829
▁Prince	-11.283
▁kid	-11.2832
▁comfortably	-11.2832
▁referring	-11.2833
▁repeat	-11.2834
gak	-11.2834
▁broad	-11.2836
▁54	-11.2839
rib	-11.2843
-19	-11.2844
"),	-11.2846
▁Baekje	-11.2849
▁shorter	-11.2849
▁beating	-11.285
▁Old	-11.285
▁renewal	-11.2851
▁vary	-11.2852
under	-11.2853
▁FA	-11.2853
lat	-11.2856
▁variable	-11.2861
driving	-11.2862
▁examined	-11.2864
▁elevator	-11.2866
▁Chungcheongbuk	-11.2867
▁Make	-11.287
Han	-11.2873
▁Spring	-11.2877
▁Nov	-11.2879
▁engines	-11.2883
▁criticizing	-11.2883
▁Campus	-11.2885
suming	-11.2885
▁sincere	-11.289
300	-11.289
▁defects	-11.2892
▁activists	-11.2899
▁Yeoju	-11.2899
▁Telecom	-11.29
▁Nonghyup	-11.29
▁Toronto	-11.29
▁requiring	-11.29
▁fishery	-11.2901
▁Vision	-11.2901
▁shocking	-11.2904
lie	-11.2904
▁apple	-11.2907
fighting	-11.2915
▁comparison	-11.2917
▁Berlin	-11.2917
cen	-11.2917
▁mock	-11.2919
woong	-11.2923
▁compare	-11.2924
fire	-11.2928
▁obtaining	-11.2928
▁gains	-11.2933
▁juice	-11.2934
▁disposable	-11.2934
▁Light	-11.2935
▁Sol	-11.2936
ey	-11.2936
▁anticipated	-11.2937
▁Ti	-11.2941
cer	-11.2946
▁prospect	-11.2947
▁substantial	-11.2951
She	-11.2952
▁welcomed	-11.2952
▁75	-11.2955
▁discipline	-11.2956
59	-11.2956
gro	-11.2957
▁PM	-11.2958
view	-11.2958
▁substitute	-11.2958
▁presents	-11.2963
▁Haeundae	-11.2968
▁Stock	-11.2968
▁choosing	-11.2968
▁surplus	-11.2968
▁batting	-11.2969
▁revenues	-11.2971
▁count	-11.2972
▁retain	-11.2976
76	-11.2977
▁fi	-11.2977
▁fate	-11.2981
▁donate	-11.2983
▁unnecessary	-11.2985
aging	-11.2985
▁asleep	-11.2985
▁flagship	-11.2986
▁Enterprises	-11.2988
lf	-11.2992
▁neighbor	-11.2995
▁Maybe	-11.2996
▁Ssangyong	-11.3003
▁exemplary	-11.3003
▁pleasure	-11.3003
69	-11.3006
des	-11.3012
▁incidents	-11.3015
▁egg	-11.3018
▁doors	-11.3019
▁Bupyeong	-11.3021
▁leakage	-11.3021
▁belong	-11.3026
gate	-11.3027
▁accepting	-11.3029
▁59	-11.303
▁holder	-11.3035
▁muscle	-11.3035
▁painted	-11.3036
▁KEPCO	-11.3037
▁suspicious	-11.3037
▁Pil	-11.3038
▁suppliers	-11.304
600	-11.3043
▁2005	-11.3044
▁MC	-11.3047
wo	-11.305
▁errors	-11.3052
▁commencement	-11.3055
▁seafood	-11.3055
▁arrangement	-11.3056
uality	-11.3056
▁63	-11.3056
▁Ce	-11.3057
▁Lab	-11.306
▁delivering	-11.3062
Let	-11.3063
SA	-11.3063
bra	-11.3064
▁distributing	-11.3072
▁liver	-11.3076
itis	-11.3084
eon	-11.3086
sharing	-11.3087
▁Improvement	-11.3089
▁underprivileged	-11.309
down	-11.3091
nation	-11.3093
▁converted	-11.3099
▁Ae	-11.3101
▁Excuse	-11.3106
Star	-11.3107
centered	-11.3109
▁shocked	-11.3112
▁passive	-11.3112
gram	-11.3115
ade	-11.3115
mul	-11.3116
test	-11.3117
▁tie	-11.3121
▁surveys	-11.3123
▁Steering	-11.3124
▁relics	-11.3124
EC	-11.3124
What	-11.3138
owned	-11.3138
▁outer	-11.314
▁pursuing	-11.3141
woon	-11.3143
▁traveled	-11.3143
▁mix	-11.3145
ada	-11.3149
▁reserved	-11.3149
▁viewing	-11.3158
▁diversity	-11.3159
▁hygiene	-11.3159
▁Ocean	-11.3159
▁reception	-11.316
65	-11.3161
▁tries	-11.3163
▁Northeast	-11.3163
▁meant	-11.3163
ties	-11.3165
▁sections	-11.3172
gy	-11.3179
kyo	-11.318
▁threatening	-11.3182
NA	-11.3184
▁Gate	-11.319
▁acquaintances	-11.3191
▁dozens	-11.3194
▁windows	-11.3194
▁revitalizing	-11.3194
hoo	-11.3196
ened	-11.3197
box	-11.3202
▁barriers	-11.3206
MO	-11.3209
claim	-11.3209
▁filmed	-11.3211
▁genetic	-11.3213
▁schedules	-11.3215
▁locals	-11.3217
▁questioned	-11.3226
some	-11.3227
▁poster	-11.3227
▁Comp	-11.3227
▁envoy	-11.3229
▁predecessor	-11.3229
▁Acts	-11.3231
xi	-11.3233
▁van	-11.3234
▁faction	-11.3238
▁tent	-11.3239
-20	-11.324
▁pointing	-11.324
▁trainees	-11.3241
▁lineup	-11.3242
▁Golf	-11.3247
▁scent	-11.3249
ealand	-11.3259
▁aspect	-11.326
▁cats	-11.3261
▁genres	-11.3262
▁prizes	-11.3263
oli	-11.3264
▁tennis	-11.3264
▁intersection	-11.3264
▁Student	-11.3266
▁questioning	-11.3266
▁900	-11.327
▁positively	-11.3271
▁Mt	-11.3273
stone	-11.3276
▁Generation	-11.3282
▁measuring	-11.3282
▁verified	-11.3282
▁taxis	-11.3287
▁summon	-11.3288
bar	-11.3289
gong	-11.3291
▁vocal	-11.3294
▁Gyo	-11.3295
▁embezzlement	-11.3299
▁moisture	-11.3299
▁Mal	-11.33
▁rooftop	-11.33
▁72	-11.3301
▁dividend	-11.3304
▁partial	-11.3305
▁proven	-11.3307
▁Startups	-11.3308
75	-11.3317
▁enhancing	-11.3317
▁colon	-11.3318
▁roll	-11.3327
yi	-11.3331
▁Fortunately	-11.3335
▁acquaintance	-11.3338
▁Choo	-11.3339
▁Ed	-11.3339
▁Bra	-11.334
▁champion	-11.3352
▁Judicial	-11.3353
▁ethics	-11.3353
▁lonely	-11.3353
▁consciousness	-11.3353
6,000	-11.3355
▁homework	-11.3363
▁confidential	-11.337
Se	-11.337
▁Guarantee	-11.337
▁cherry	-11.337
▁rhythm	-11.337
▁vitamin	-11.337
tern	-11.3376
mination	-11.338
stop	-11.3383
rap	-11.3384
▁Junior	-11.3388
▁innocent	-11.3388
▁ob	-11.3393
▁voted	-11.34
▁Seosan	-11.3404
▁rail	-11.3404
▁upward	-11.3404
▁universal	-11.3406
▁Domestic	-11.3406
▁soared	-11.3406
▁Mom	-11.3408
▁prospects	-11.341
▁innings	-11.341
▁substance	-11.341
▁vessel	-11.341
▁VR	-11.342
95	-11.3421
▁therefor	-11.3421
vin	-11.3423
▁mature	-11.3425
▁secretly	-11.3425
▁publish	-11.3425
▁qualified	-11.343
▁suits	-11.3434
shirt	-11.3442
▁Solidarity	-11.3442
▁territory	-11.3442
▁removing	-11.3443
▁professionals	-11.3443
yn	-11.3447
▁crash	-11.3448
lli	-11.3448
▁Ste	-11.3451
FA	-11.3457
▁suppress	-11.3459
▁unreasonable	-11.346
▁Gwangmyeong	-11.346
care	-11.3462
▁storm	-11.3465
▁humanities	-11.3465
▁hospitalized	-11.3467
▁conducts	-11.3468
▁opens	-11.3477
▁sensor	-11.3483
▁(20	-11.3485
▁Pung	-11.3485
▁inspector	-11.3487
▁Mc	-11.3488
dra	-11.3494
driven	-11.3495
▁aiming	-11.3499
▁corrective	-11.35
▁discovery	-11.3503
▁juveniles	-11.3504
▁submitting	-11.3505
ender	-11.3508
La	-11.3509
▁Travel	-11.3514
4,000	-11.3516
▁barrier	-11.352
▁noticeable	-11.352
▁Reserve	-11.3521
▁landing	-11.3522
lay	-11.3523
Jo	-11.353
▁60%	-11.3531
Governing	-11.3532
▁federal	-11.3532
▁surveillance	-11.3532
▁vacancy	-11.3532
▁transmission	-11.3532
▁Sae	-11.3539
▁topics	-11.3543
water	-11.3544
cro	-11.3546
▁bell	-11.3547
KRW	-11.355
▁wrap	-11.355
▁Mount	-11.355
ome	-11.3551
▁founding	-11.3552
▁Ge	-11.3552
▁Cla	-11.3555
▁endure	-11.3566
▁displays	-11.3566
▁tenants	-11.3567
After	-11.3568
▁poverty	-11.3569
▁trash	-11.3569
▁spotlight	-11.357
▁mobilized	-11.3572
▁seller	-11.3572
▁emotion	-11.358
▁ideal	-11.3583
▁trick	-11.3583
lia	-11.3584
62	-11.3584
ane	-11.3584
▁valid	-11.3585
Go	-11.3586
3,000	-11.3586
▁Shipbuilding	-11.3587
▁organizational	-11.3588
ker	-11.3588
▁successor	-11.3595
▁freeze	-11.3595
ew	-11.3597
▁networking	-11.3598
▁developers	-11.36
Un	-11.3604
▁grasp	-11.3605
▁edition	-11.3606
▁ears	-11.3616
▁eaten	-11.3617
▁Executive	-11.3623
▁JTBC	-11.3623
▁Starbucks	-11.3623
▁distributor	-11.3623
▁laundry	-11.3623
▁liberation	-11.3623
▁53	-11.3629
rch	-11.3631
8,000	-11.3632
▁va	-11.3632
love	-11.3633
non	-11.3633
▁desperate	-11.3635
▁Ru	-11.3637
▁infectious	-11.3642
▁Lawyer	-11.3642
▁filling	-11.3644
▁Yangpyeong	-11.3644
illa	-11.3644
▁organ	-11.3645
▁LED	-11.3648
▁divorce	-11.365
▁caf	-11.366
▁Renault	-11.366
▁solidarity	-11.366
▁vaccination	-11.366
▁invasion	-11.366
▁facial	-11.366
▁allocation	-11.366
▁competitors	-11.3663
len	-11.3663
▁dramatic	-11.3667
ement	-11.3668
▁appeals	-11.3672
▁wondering	-11.3674
▁adjacent	-11.3678
▁Creation	-11.3678
ao	-11.368
▁detection	-11.368
American	-11.3681
▁Products	-11.3682
71	-11.3686
▁pitchers	-11.3687
▁criticize	-11.3687
▁shots	-11.369
▁dynamic	-11.3697
▁wore	-11.3697
▁Morning	-11.3697
▁Dec	-11.3698
▁witnesses	-11.3701
▁cooling	-11.3701
▁1970	-11.3702
▁breaks	-11.3703
▁paint	-11.3705
▁carrier	-11.3706
▁forever	-11.3706
take	-11.3708
▁LA	-11.371
mok	-11.3713
▁waters	-11.3715
▁believing	-11.3715
▁circulation	-11.3715
▁brush	-11.3715
▁eliminate	-11.3716
az	-11.3719
▁abolish	-11.372
▁tire	-11.3723
▁Malaysian	-11.3724
61	-11.3726
▁anytime	-11.3727
▁targeted	-11.3729
geum	-11.373
sure	-11.3731
▁Disease	-11.3734
▁benchmark	-11.3734
commerce	-11.3734
lock	-11.3734
▁depicts	-11.3736
▁conventional	-11.3745
▁dealt	-11.3751
▁trained	-11.3751
▁reflection	-11.3755
▁traces	-11.376
▁doubled	-11.376
▁automobiles	-11.3761
▁cow	-11.3761
rrow	-11.3763
▁Change	-11.3763
▁pepper	-11.3771
▁Eunpyeong	-11.3772
▁bitter	-11.3777
ounce	-11.3777
▁preserved	-11.3786
▁rumor	-11.3788
▁bilateral	-11.3789
▁caution	-11.3789
▁protein	-11.3789
▁Pyeongchang	-11.379
▁cafes	-11.3791
▁specifically	-11.3792
▁computers	-11.3796
door	-11.3804
▁pollutants	-11.3808
▁copies	-11.3808
▁jacket	-11.3808
▁reluctant	-11.3808
▁breakthrough	-11.3808
▁auditorium	-11.3808
cc	-11.381
▁mainstream	-11.381
▁boats	-11.3816
58	-11.382
▁mat	-11.3821
employment	-11.3826
▁David	-11.3826
▁suspects	-11.3827
▁supplying	-11.3827
▁examining	-11.3827
▁resolving	-11.3828
▁perfectly	-11.3829
▁64	-11.3833
▁Gas	-11.3835
▁cooked	-11.3841
▁deals	-11.3842
▁packed	-11.3843
▁listened	-11.3845
▁courage	-11.3845
▁exploration	-11.3845
▁Plus	-11.3845
▁lit	-11.3847
rous	-11.385
▁breathing	-11.385
▁discounts	-11.385
▁comeback	-11.3852
▁inspected	-11.3853
AM	-11.3854
▁undergoing	-11.3855
▁burning	-11.3855
IC	-11.3857
▁strictly	-11.3857
▁pipe	-11.3858
07	-11.3859
▁shrine	-11.3864
Governor	-11.3865
AP	-11.3869
▁amended	-11.3872
Con	-11.3873
Mi	-11.3874
51	-11.3874
aries	-11.3877
▁attacked	-11.388
▁excess	-11.3882
▁Animal	-11.3883
▁arrange	-11.389
▁crashed	-11.3895
bat	-11.3897
▁decisive	-11.3902
▁enemy	-11.3902
▁vaccine	-11.3902
▁heaven	-11.3902
▁tissue	-11.3902
▁dressed	-11.3906
▁encounter	-11.3909
▁Age	-11.3911
cover	-11.3912
▁eased	-11.3913
teen	-11.3915
▁Fa	-11.3918
▁Particularly	-11.3921
▁welcoming	-11.3921
▁Crime	-11.3921
▁Honam	-11.3925
▁(8	-11.3932
▁68	-11.3933
▁rely	-11.3938
▁journalist	-11.3938
▁achieving	-11.3939
▁scattered	-11.3939
▁mound	-11.394
▁feedback	-11.394
▁downturn	-11.3941
▁comprehensively	-11.3942
▁photograph	-11.3949
52	-11.3952
▁villa	-11.3953
▁warnings	-11.3955
▁Expenses	-11.3958
▁sticker	-11.3961
▁ASEAN	-11.3966
ose	-11.3967
74	-11.3969
▁menus	-11.397
atory	-11.3973
ese	-11.3974
EF	-11.3975
▁uncertain	-11.3976
gwang	-11.3977
▁dried	-11.3977
▁shuttle	-11.3978
▁capability	-11.3978
baek	-11.398
lor	-11.3981
▁god	-11.3984
there	-11.3986
▁Week	-11.3994
▁Concern	-11.3996
▁Citizen	-11.4004
▁parade	-11.4007
enti	-11.4009
▁130	-11.4009
▁obvious	-11.4009
▁surprising	-11.4009
▁snack	-11.401
▁catching	-11.4011
▁hero	-11.4015
▁Convergence	-11.4015
▁celebrity	-11.4015
▁diabetes	-11.4015
▁pottery	-11.4015
ara	-11.4017
▁insist	-11.4017
▁str	-11.4023
▁Gwan	-11.4026
▁printed	-11.4034
▁oxygen	-11.4034
▁stairs	-11.4034
▁grain	-11.4034
ld	-11.4036
▁complain	-11.4039
▁distinguish	-11.4046
▁seasonal	-11.4046
yon	-11.4049
▁charts	-11.405
▁calculating	-11.4053
▁fatigue	-11.4053
gae	-11.4059
▁divide	-11.406
▁exhaust	-11.4061
▁lesson	-11.4061
▁millions	-11.4062
▁Boy	-11.4062
▁convened	-11.4063
▁makers	-11.4065
▁pedestrian	-11.4068
▁tip	-11.407
▁deterioration	-11.4072
▁evasion	-11.4072
▁confused	-11.4073
▁motion	-11.4074
▁quoted	-11.4077
ivity	-11.4077
▁pink	-11.4079
▁pulled	-11.4084
▁cakes	-11.4086
▁guitar	-11.4092
▁mirror	-11.4092
▁steep	-11.4092
▁ward	-11.4096
▁lessons	-11.4096
utonomous	-11.4098
coastal	-11.4098
▁57	-11.41
▁structures	-11.4101
llegedly	-11.4101
▁poisoning	-11.4104
lam	-11.4106
▁tone	-11.411
▁Researcher	-11.411
▁babies	-11.4111
▁enthusiasm	-11.4111
▁mortgage	-11.4111
▁sympathy	-11.4111
▁Index	-11.4111
▁commentator	-11.4112
umb	-11.4122
▁hanging	-11.4122
ying	-11.4124
▁Working	-11.4126
▁brothers	-11.4128
▁Holdings	-11.413
▁unmanned	-11.413
aw	-11.4135
▁Hun	-11.4136
▁speeding	-11.4137
▁Mac	-11.414
▁proceeded	-11.4144
▁grammar	-11.4149
▁injection	-11.4149
▁Gwanggyo	-11.415
▁1998	-11.4152
▁declare	-11.4159
▁2013.	-11.4159
▁pouring	-11.4161
BA	-11.4161
▁statute	-11.4166
▁25%	-11.4168
▁commute	-11.4169
▁residing	-11.4169
▁slowed	-11.4169
▁Inc	-11.4172
▁fined	-11.4174
largest	-11.4174
▁describe	-11.4178
▁Christians	-11.418
▁exhausted	-11.4181
▁approached	-11.4181
name	-11.4184
▁Enterprise	-11.4186
gwan	-11.4186
▁laptop	-11.4188
▁doll	-11.4188
▁tablet	-11.4189
▁bone	-11.4191
NE	-11.4194
▁convene	-11.4197
▁persuade	-11.4199
▁instant	-11.4202
▁outlet	-11.4203
pit	-11.4203
▁supermarket	-11.4208
▁meter	-11.4208
▁properties	-11.4208
▁soldier	-11.4208
▁Mirae	-11.4209
▁Andong	-11.4215
▁bacteria	-11.4215
▁2007,	-11.4217
ily	-11.4221
▁fe	-11.4226
▁comic	-11.4226
▁imagination	-11.4227
▁notable	-11.4228
▁longest	-11.4228
hosted	-11.4234
▁habit	-11.4236
▁reject	-11.4237
▁approaching	-11.4241
▁consistent	-11.4243
▁irregular	-11.4246
▁Personnel	-11.4246
▁supreme	-11.4246
▁parcel	-11.4246
Bo	-11.4248
98	-11.4249
matic	-11.425
put	-11.4251
▁interpret	-11.4252
▁Rock	-11.4256
▁bronze	-11.4258
▁90%	-11.4263
▁dual	-11.4264
▁resumed	-11.4265
▁Muslim	-11.4266
▁coexist	-11.4266
▁mobility	-11.4266
▁Export	-11.4267
▁refunded	-11.4268
▁minority	-11.4269
▁angle	-11.4271
92	-11.4272
▁touched	-11.428
▁Venezuela	-11.4282
position	-11.4284
▁Belgium	-11.4285
▁inequality	-11.4285
▁collusion	-11.4285
▁Senate	-11.4286
▁posture	-11.4287
py	-11.4293
▁trains	-11.4295
▁qua	-11.4304
cost	-11.4305
▁prop	-11.4306
Pacific	-11.4308
sub	-11.431
▁flows	-11.4311
▁Sales	-11.4312
▁designers	-11.4314
▁viewed	-11.4319
rest	-11.4321
▁gym	-11.4325
▁Indeed	-11.4325
▁accessibility	-11.4325
sports	-11.4326
▁aside	-11.4326
▁DSC	-11.4326
▁appealed	-11.4328
pha	-11.4336
cept	-11.4337
▁drones	-11.4338
▁represented	-11.4343
▁manages	-11.4343
▁prescribing	-11.4344
▁Che	-11.4345
▁reborn	-11.4346
▁dye	-11.4347
ryeong	-11.4347
99	-11.4352
▁indirect	-11.4352
only	-11.4353
▁Masan	-11.4357
nal	-11.4358
▁renowned	-11.4359
▁Hadong	-11.4361
▁nurse	-11.4363
▁emphasizing	-11.4364
iti	-11.4365
▁greet	-11.4371
▁custom	-11.4374
▁Yeom	-11.4375
▁Ben	-11.4375
54	-11.4376
▁differently	-11.4378
▁(18	-11.4379
▁Survey	-11.4383
▁emphasis	-11.4383
▁Story	-11.4385
▁banner	-11.4385
85	-11.4389
▁travelers	-11.439
▁convert	-11.4391
▁maker	-11.4397
▁upset	-11.44
wang	-11.4401
▁Apartment	-11.4403
▁appreciation	-11.4403
▁practicing	-11.4403
▁jail	-11.4403
llow	-11.4403
▁yen	-11.4404
▁Floor	-11.4404
▁nail	-11.4406
▁pants	-11.4408
▁spiritual	-11.441
DS	-11.441
▁produces	-11.4411
tz	-11.4412
▁deliberated	-11.4414
▁56	-11.4415
▁relative	-11.4418
Ba	-11.4422
▁squad	-11.4423
▁crude	-11.4423
▁Mart	-11.4423
▁infected	-11.4423
GB	-11.4424
▁activist	-11.4424
▁finger	-11.4425
▁bail	-11.4426
Gyeonggi	-11.4428
▁revoke	-11.4433
▁ranks	-11.4436
▁Inside	-11.4437
▁lover	-11.444
▁84	-11.4443
▁excuse	-11.4443
88	-11.4444
▁Osan	-11.4446
▁hi	-11.4447
lum	-11.4454
▁Bin	-11.4459
▁Mae	-11.4461
▁Latin	-11.4463
▁distrust	-11.4463
▁Measures	-11.4463
▁lady	-11.4464
▁backlash	-11.4465
▁expired	-11.4466
▁Seven	-11.4468
▁manufacture	-11.4468
▁prohibit	-11.4469
iding	-11.4469
▁intentionally	-11.4469
ters	-11.4475
▁Tri	-11.4475
fin	-11.4475
▁lovers	-11.4477
▁Yeongdong	-11.4478
post	-11.4478
▁determining	-11.4483
▁prejudice	-11.4483
▁significance	-11.4483
▁troupe	-11.4483
▁inflow	-11.4485
▁poem	-11.4486
▁traded	-11.4494
▁highlighted	-11.4499
▁credibility	-11.4503
63	-11.4504
▁NIS	-11.4504
▁midnight	-11.4504
▁react	-11.4505
▁tenant	-11.4508
Di	-11.4509
rey	-11.4509
▁enacted	-11.4511
▁boiler	-11.4516
gam	-11.4522
▁Dongducheon	-11.4523
▁compulsory	-11.4523
▁recipe	-11.4523
▁omitted	-11.4523
▁flooded	-11.4525
▁Sept	-11.4525
turn	-11.4527
9,000	-11.4529
mark	-11.453
af	-11.4534
▁depth	-11.4534
41	-11.4536
▁1.3	-11.4537
▁flash	-11.4538
▁Bolton	-11.4543
▁recurrence	-11.4543
▁unauthorized	-11.4543
▁Performance	-11.4543
▁soaring	-11.4543
▁funny	-11.4544
pu	-11.4546
▁petitioner	-11.4547
▁seized	-11.4547
▁glasses	-11.4549
▁preparations	-11.4549
▁Namsan	-11.455
▁Hanyang	-11.4551
▁noticed	-11.4561
▁Gymnasium	-11.4563
▁embarrassed	-11.4563
▁immune	-11.4563
▁replacing	-11.4563
▁proof	-11.4563
▁assaulting	-11.4564
▁tri	-11.4565
from	-11.4568
▁acted	-11.457
Da	-11.4572
▁imagine	-11.4573
ER	-11.4575
▁apologized	-11.4582
▁ramen	-11.4583
▁copyright	-11.4583
▁lake	-11.4584
Seoul	-11.4589
▁demonstrate	-11.4593
SC	-11.4595
power	-11.4596
▁1,0	-11.4598
▁broker	-11.46
▁indicates	-11.4602
▁Professional	-11.4603
▁nurture	-11.4603
▁refrigerator	-11.4603
▁Summer	-11.4603
▁struck	-11.4603
▁halls	-11.4604
▁Bill	-11.4605
▁1999	-11.4606
▁weekdays	-11.4606
▁prevented	-11.4607
▁referee	-11.4607
▁rape	-11.4609
▁Six	-11.4615
▁preferentially	-11.4616
▁eliminated	-11.4621
▁Nexon	-11.4623
▁messenger	-11.4623
▁occupancy	-11.4623
▁Gyu	-11.4625
misunderstanding	-11.4629
▁eighth	-11.4631
01	-11.4632
▁Chemical	-11.4644
eat	-11.4649
▁reveals	-11.4652
▁realizing	-11.4653
▁recalled	-11.4659
▁Tomorrow	-11.4664
▁extenuati	-11.4664
▁deregulation	-11.4664
▁attends	-11.4665
▁crafts	-11.4673
-4	-11.4675
One	-11.4681
▁undermine	-11.4684
▁conveniently	-11.4684
▁Relations	-11.4684
▁starring	-11.4686
▁strongest	-11.4695
Sa	-11.4697
zo	-11.47
▁hitter	-11.4701
▁Mon	-11.4704
▁Digital	-11.4704
▁dormitory	-11.4704
▁exercising	-11.4704
▁instability	-11.4705
▁defectors	-11.4705
▁brokerage	-11.4706
▁Case	-11.4709
▁Commissioner	-11.471
▁activated	-11.4713
SO	-11.4716
▁output	-11.4717
▁fortress	-11.472
oid	-11.472
72	-11.4722
42	-11.4723
oon	-11.4724
▁defensive	-11.4725
reliance	-11.4725
▁arose	-11.4726
▁cry	-11.4726
▁Gwangyang	-11.4726
▁hikes	-11.473
del	-11.4731
new	-11.4732
▁textbook	-11.4732
▁walks	-11.4733
TE	-11.4736
▁password	-11.4746
▁hoping	-11.4746
▁scholar	-11.4752
▁allocated	-11.4752
ibility	-11.4754
▁sorrow	-11.4761
log	-11.4762
▁pets	-11.4763
▁Pass	-11.4765
▁Mat	-11.4765
▁Barcelona	-11.4766
▁FIFA	-11.4766
▁essence	-11.4766
▁pioneer	-11.4766
▁recipients	-11.477
▁newborn	-11.4771
▁bribes	-11.4772
▁translated	-11.4773
▁hiding	-11.4774
▁2012.	-11.4776
▁cartoon	-11.4779
▁flowing	-11.4781
▁cheered	-11.4783
▁surveyed	-11.4783
▁2018.	-11.4786
▁chemistry	-11.4786
▁pavilion	-11.4786
▁plaintiff	-11.4786
▁Ronaldo	-11.4787
▁inheritance	-11.4787
state	-11.4789
▁cigarette	-11.479
▁Part	-11.4791
▁guy	-11.4791
▁Yeongam	-11.4791
▁overcoming	-11.4792
▁Whether	-11.4793
▁al	-11.4794
lap	-11.4795
▁pull	-11.4798
▁Fine	-11.4798
▁treaty	-11.4799
7,000	-11.4801
▁seconds	-11.4805
yard	-11.4805
▁Alliance	-11.4807
▁gambling	-11.4807
▁teaser	-11.4808
▁Islamic	-11.4808
▁lucky	-11.4813
▁ingredient	-11.4814
▁chef	-11.4815
▁extract	-11.4821
owner	-11.4822
▁deposited	-11.4822
▁staged	-11.4823
▁conservatives	-11.4823
▁Battle	-11.4828
▁Compensation	-11.4828
▁plenty	-11.4828
▁vacant	-11.4828
▁remarkable	-11.4829
▁Come	-11.483
▁surrounded	-11.483
▁61	-11.4831
▁Long	-11.4831
▁besides	-11.4832
▁painter	-11.4833
▁Ah	-11.4834
ound	-11.4841
▁viewer	-11.4843
▁adds	-11.4843
▁extensive	-11.4848
▁intangible	-11.4848
▁occurring	-11.485
▁advisor	-11.4852
▁weakness	-11.4852
▁escaped	-11.4853
▁Teachers	-11.4855
▁Around	-11.4858
▁emphasizes	-11.4859
vid	-11.4862
▁waited	-11.4866
▁specialist	-11.4867
▁reconciliation	-11.4869
▁reliable	-11.4869
▁civilians	-11.487
▁SUV	-11.4881
▁description	-11.489
▁reservoir	-11.489
▁umbrella	-11.489
▁cabinet	-11.489
▁problematic	-11.4891
▁Cor	-11.4894
▁58	-11.4894
▁commissioner	-11.4895
▁Beom	-11.4897
chief	-11.4897
▁kit	-11.4901
tier	-11.4904
▁worsen	-11.4909
▁Ms	-11.4909
▁bubble	-11.491
▁inconvenient	-11.491
▁mysterious	-11.491
▁utility	-11.491
▁interfere	-11.4911
▁tag	-11.4915
▁introduces	-11.4921
POP	-11.4923
▁bother	-11.4924
▁stones	-11.4927
fect	-11.4929
▁bold	-11.4929
▁commuting	-11.4931
▁prostitution	-11.4932
▁Thus	-11.4933
▁predicts	-11.4937
rye	-11.4951
▁associations	-11.4951
▁reshuffle	-11.4952
▁subsidiaries	-11.4952
▁architectural	-11.4952
▁string	-11.4953
▁depend	-11.4954
▁Finally	-11.4955
06	-11.4962
▁reaches	-11.4969
▁constitution	-11.4972
▁Bitcoin	-11.4973
▁Hynix	-11.4973
▁brilliant	-11.4973
▁presumed	-11.4973
▁emphasize	-11.4973
▁filing	-11.4974
ller	-11.4981
▁ignored	-11.4983
▁inconveniences	-11.4984
ature	-11.4985
▁comedy	-11.4986
▁Hoon	-11.4989
added	-11.499
MS	-11.4991
decentralization	-11.4994
▁absurd	-11.4994
▁cumulative	-11.4994
pect	-11.4997
ees	-11.5003
▁crossing	-11.5004
▁conditioner	-11.5008
▁pin	-11.5008
q	-11.501
▁moral	-11.501
▁leaking	-11.5011
▁Biegun	-11.5015
▁Parents	-11.5015
each	-11.5017
Ang	-11.5018
▁upgrade	-11.5021
▁Jincheon	-11.5028
well	-11.5029
▁rivers	-11.5032
▁Expectations	-11.5036
▁prescription	-11.5036
▁Advanced	-11.5036
▁grape	-11.5036
▁sail	-11.5036
▁descendants	-11.5043
▁utilized	-11.5045
▁cloudy	-11.5047
sided	-11.5048
▁apps	-11.5053
▁rushed	-11.5054
▁85	-11.5055
▁1:	-11.5057
era	-11.5062
▁Hanbok	-11.5062
▁Ram	-11.5063
▁Sub	-11.5065
▁Arena	-11.5066
▁approximately	-11.5068
▁stem	-11.5071
▁Hanam	-11.5075
▁cuisine	-11.5078
▁drought	-11.5078
▁Pursu	-11.5079
▁detective	-11.508
▁till	-11.508
▁73	-11.508
ching	-11.5082
can	-11.5087
▁calculate	-11.509
▁Fourth	-11.5096
▁tropical	-11.51
▁giant	-11.51
▁crying	-11.51
ulation	-11.5102
▁jam	-11.5103
tent	-11.5108
try	-11.511
▁Nae	-11.5111
with	-11.5115
94	-11.5117
atar	-11.5118
▁adjusting	-11.5119
▁suggestions	-11.5119
▁Terminal	-11.5121
▁gasoline	-11.5121
▁glance	-11.5121
▁marry	-11.5121
▁input	-11.5123
▁disruption	-11.5124
▁elder	-11.5128
economic	-11.5129
▁urge	-11.5138
▁Nuri	-11.514
▁Perhaps	-11.5142
▁evaluating	-11.5142
▁syndrome	-11.5142
▁invention	-11.5142
400	-11.5143
▁realization	-11.5144
▁1,500	-11.5147
▁covers	-11.5148
▁oldest	-11.5152
▁nutrition	-11.5154
▁62	-11.5156
▁throwing	-11.5157
▁prompt	-11.5158
▁shame	-11.5159
▁2020.	-11.516
▁developmental	-11.516
gyun	-11.516
So	-11.5161
clo	-11.5161
▁enormous	-11.5163
▁hacking	-11.5163
▁pyeong	-11.5166
▁Season	-11.5166
▁defend	-11.5166
even	-11.5169
ians	-11.517
▁indirectly	-11.517
▁bird	-11.5171
▁melt	-11.5175
▁/	-11.5176
0.0	-11.5177
▁prosperity	-11.5178
▁parked	-11.5182
▁logo	-11.5183
▁ne	-11.5184
▁Moscow	-11.5185
▁Usually	-11.5185
▁artifacts	-11.5185
rc	-11.519
▁variables	-11.519
▁indicated	-11.5191
▁electrical	-11.5192
▁interim	-11.5192
▁Code	-11.5194
▁Edu	-11.5195
▁accelerate	-11.5196
▁minds	-11.52
▁seeds	-11.5202
▁companion	-11.5206
▁preemptive	-11.5206
▁sophisticated	-11.5206
▁wise	-11.5207
▁onto	-11.5208
▁1997	-11.5209
On	-11.5213
▁Gar	-11.5216
▁cigarettes	-11.522
▁profile	-11.5224
cation	-11.5227
▁electronics	-11.5228
▁terrible	-11.5228
▁slope	-11.5228
▁combine	-11.5232
▁conversations	-11.5233
,800	-11.5236
▁remembered	-11.5243
▁Paldang	-11.525
ched	-11.5253
▁cultivate	-11.5261
▁veteran	-11.5264
▁Web	-11.5266
▁imposing	-11.5271
▁obesity	-11.5271
▁Besides	-11.5271
▁motorcycle	-11.5271
▁wrapped	-11.5271
▁repay	-11.5272
▁Actually	-11.5274
▁workweek	-11.5276
▁ignore	-11.5282
▁consultant	-11.5284
▁Choe	-11.5285
ria	-11.5288
IA	-11.5291
▁Assessment	-11.5292
▁UNESCO	-11.5292
▁penalties	-11.5292
▁daughters	-11.5294
bro	-11.5296
▁threats	-11.5297
▁Wonju	-11.5297
yl	-11.5298
bul	-11.5298
▁Gam	-11.5303
▁intensively	-11.5306
▁allegation	-11.5308
mart	-11.5308
▁slight	-11.531
ahn	-11.5312
▁broadcasters	-11.5313
▁architect	-11.5314
▁CNN	-11.5314
▁Graduate	-11.5314
▁stabilization	-11.5314
▁Tree	-11.5316
▁admissions	-11.5319
▁Mall	-11.5322
reum	-11.5322
▁villagers	-11.5324
▁containers	-11.533
▁coupon	-11.5331
▁sentences	-11.5332
▁boasts	-11.5332
▁Third	-11.5336
▁Switzerland	-11.5336
▁leaf	-11.5336
▁Heroes	-11.5336
active	-11.5337
▁missiles	-11.534
▁proceeding	-11.5341
▁boys	-11.5342
▁Byun	-11.5347
▁BioLogics	-11.5357
▁entitled	-11.5357
▁Customs	-11.5357
▁reappointed	-11.5358
▁Interest	-11.5359
▁foreigner	-11.5361
third	-11.5363
▁ankle	-11.5365
read	-11.5367
ban	-11.5367
▁airlines	-11.5368
▁clients	-11.537
▁socially	-11.5372
now	-11.5376
stitution	-11.5378
▁pagoda	-11.5379
▁resumption	-11.5379
▁soybean	-11.5379
▁fingerprint	-11.5379
▁avoiding	-11.5379
▁crush	-11.5379
▁belatedly	-11.5381
▁reactions	-11.5382
joong	-11.5389
▁exercises	-11.539
bed	-11.5391
▁du	-11.5392
FI	-11.54
▁delicate	-11.5401
▁Railroad	-11.5401
▁Order	-11.5402
▁attaching	-11.5409
Dong	-11.541
open	-11.541
kin	-11.5416
ify	-11.5416
▁SM	-11.5419
▁Eco	-11.5422
▁consignment	-11.5423
▁influential	-11.5423
▁ninth	-11.5423
▁reversal	-11.5423
ou	-11.5424
DC	-11.5425
bot	-11.543
ES	-11.5431
▁Top	-11.5432
▁compliance	-11.5432
▁exceptional	-11.5432
▁bicycles	-11.5444
▁tours	-11.5444
▁Spokesman	-11.5445
▁Studio	-11.5445
▁awkward	-11.5445
▁rookie	-11.5445
▁pesticide	-11.5445
▁Senator	-11.5445
▁II	-11.5448
more	-11.5456
▁broadcasted	-11.5459
▁fairy	-11.546
ei	-11.5463
▁resting	-11.5464
▁KakaoTalk	-11.5467
▁airplane	-11.5467
▁humanitarian	-11.5467
▁radiation	-11.5467
▁shook	-11.5467
▁choir	-11.5467
▁transferring	-11.5471
Dae	-11.5473
▁corrected	-11.5478
▁boarding	-11.5485
▁spare	-11.5485
▁Dodgers	-11.5489
▁Happiness	-11.5489
gh	-11.5498
bank	-11.5504
▁drill	-11.5508
nified	-11.5509
TC	-11.551
▁reservations	-11.5511
▁Michael	-11.5511
▁Spirit	-11.5511
▁Statistical	-11.5511
▁anxious	-11.5511
hold	-11.5511
▁fairly	-11.5514
▁unemployed	-11.5516
rum	-11.5517
▁Futures	-11.5518
▁Study	-11.552
hood	-11.553
ground	-11.5532
▁tale	-11.5533
▁embassy	-11.5533
▁sympathize	-11.5533
▁"2019	-11.5533
▁occupy	-11.5533
▁disbursement	-11.5533
▁Fan	-11.5533
▁salad	-11.5534
▁sunlight	-11.5534
▁joke	-11.5534
▁Monet	-11.5535
▁speakers	-11.5535
▁pump	-11.5535
▁conf	-11.554
▁bottles	-11.554
▁exhibit	-11.5541
▁controlling	-11.5544
purpose	-11.5544
▁Commercial	-11.5555
▁arriving	-11.5555
▁module	-11.5555
▁uncertainties	-11.5555
▁Hyuk	-11.5556
▁crossed	-11.5557
▁bat	-11.5557
▁inventory	-11.5558
▁1.8	-11.5558
pot	-11.5561
geo	-11.5564
working	-11.5565
▁decreases	-11.5567
▁trans	-11.5568
▁estimates	-11.5571
▁avoided	-11.5577
▁default	-11.5577
▁eldest	-11.5577
▁remodeling	-11.5577
▁swept	-11.5577
▁odor	-11.5578
▁strive	-11.5578
▁united	-11.5582
▁assumed	-11.5586
▁Mary	-11.5587
▁shorten	-11.5588
kwang	-11.5589
▁Mor	-11.559
▁Multi	-11.559
▁tear	-11.5593
itive	-11.5594
mic	-11.5597
ducing	-11.5597
▁recommendations	-11.56
▁ethnic	-11.56
▁vertical	-11.56
▁blanket	-11.56
town	-11.5601
:10	-11.5604
▁cha	-11.5605
▁coin	-11.5611
Ordinance	-11.5611
▁dealer	-11.5613
▁certainly	-11.5616
78	-11.5621
▁Koh	-11.5621
▁Subsidies	-11.5622
▁applause	-11.5622
▁surname	-11.5622
▁Gyeyang	-11.5623
▁normalize	-11.5628
▁coat	-11.5631
▁Royal	-11.5631
▁Photo	-11.5632
▁publicize	-11.5633
▁commonly	-11.5634
▁flame	-11.5635
▁load	-11.5637
▁unity	-11.5637
fl	-11.5642
▁caring	-11.5642
▁merchant	-11.5644
▁Angel	-11.5644
▁warming	-11.5646
▁Ability	-11.5649
▁believers	-11.5655
osis	-11.5655
League	-11.5656
Samsung	-11.5656
▁worsened	-11.5658
▁starter	-11.5658
▁Sch	-11.5662
2,000	-11.5666
▁servant	-11.5667
▁tested	-11.5668
Scholastic	-11.5668
▁transformation	-11.5669
▁photography	-11.5673
▁debts	-11.5674
▁assess	-11.5677
INTE	-11.5684
▁lecturer	-11.5686
▁Soviet	-11.5689
▁gentle	-11.5689
▁Attorney	-11.5689
▁clarify	-11.5689
▁spectators	-11.5689
▁islands	-11.5694
▁bow	-11.5696
ural	-11.5698
▁headquarter	-11.5699
▁lamp	-11.57
ography	-11.5701
live	-11.5704
▁dependent	-11.5705
ON	-11.5705
▁Americans	-11.5705
▁opera	-11.5707
▁intensified	-11.5712
▁medication	-11.5712
▁dramatically	-11.5712
▁66	-11.5719
▁aides	-11.572
National	-11.5724
▁vivid	-11.5728
▁IP	-11.5729
▁4,000	-11.5729
▁respected	-11.5733
▁modified	-11.5734
▁PyeongChang	-11.5734
▁Hangeul	-11.5735
▁regrettable	-11.5735
▁foldable	-11.5735
sum	-11.5736
▁retailers	-11.5737
▁firefighting	-11.5738
1,000	-11.5744
86	-11.5745
▁charter	-11.5746
▁unfold	-11.5746
Because	-11.5747
bri	-11.5748
▁advancement	-11.5753
▁Resort	-11.5757
▁challenging	-11.5757
▁grievance	-11.5757
▁wisdom	-11.5757
▁Price	-11.5757
area	-11.5757
▁Regulation	-11.5758
digit	-11.5762
▁firmly	-11.5766
▁subscribe	-11.5776
harm	-11.5778
▁nurses	-11.5779
▁commerce	-11.5779
▁Challenge	-11.578
▁Dubai	-11.578
▁nickname	-11.578
▁overdue	-11.578
▁Gangbuk	-11.578
▁stew	-11.578
▁poetry	-11.5781
▁Bum	-11.5785
▁absorb	-11.579
▁postpone	-11.5791
▁lovely	-11.5791
▁Roman	-11.5794
wide	-11.5796
▁accountant	-11.5797
▁administrator	-11.5802
▁commodity	-11.5802
▁ourselves	-11.5802
▁brown	-11.5802
▁sunset	-11.5803
▁suggestion	-11.5807
84	-11.5816
▁Pharmaceutical	-11.5825
▁delinquent	-11.5825
▁procurement	-11.5825
rise	-11.5829
▁none	-11.5829
edge	-11.583
▁Nu	-11.5831
▁bases	-11.5832
▁concepts	-11.5837
▁overnight	-11.5838
▁Allowances	-11.5839
interest	-11.5839
▁(9	-11.584
▁summoned	-11.5841
▁Aug	-11.5844
▁wider	-11.5844
▁NH	-11.5846
▁matching	-11.5846
▁conveyed	-11.5848
Com	-11.5848
yeo	-11.5848
▁beneficiaries	-11.5848
▁protocol	-11.5848
81	-11.5848
▁investigator	-11.5851
▁cleared	-11.5858
▁shaken	-11.5861
▁climb	-11.5862
▁pages	-11.5862
▁breeding	-11.5862
▁circuit	-11.5863
▁reversed	-11.5865
▁Kuk	-11.5866
▁fishermen	-11.5871
▁hanbok	-11.5871
▁ideology	-11.5871
▁specialists	-11.5873
▁Guardian	-11.5873
▁accommodate	-11.5877
▁overlap	-11.5879
▁regain	-11.5882
duk	-11.5883
96	-11.5886
▁Gold	-11.5887
▁toxic	-11.5887
▁interact	-11.5891
▁5%	-11.5892
key	-11.5893
▁comparing	-11.5894
▁drank	-11.5894
▁flee	-11.5894
▁zoo	-11.5895
▁Put	-11.5897
▁associated	-11.59
▁terminated	-11.5902
CA	-11.5904
▁relieved	-11.591
▁unfavorable	-11.5917
▁Things	-11.5917
▁enactment	-11.5918
▁restroom	-11.5919
▁rounds	-11.5921
▁Rev	-11.5924
▁Start	-11.5925
▁brings	-11.5925
▁Deal	-11.5926
▁Note	-11.5928
▁Hav	-11.5928
▁headache	-11.594
▁thankful	-11.5941
▁relay	-11.5944
▁alternatives	-11.5945
▁encouragement	-11.5947
tur	-11.5947
▁masks	-11.5952
aka	-11.5957
▁proceeds	-11.5958
▁confront	-11.5962
▁knife	-11.5963
▁malicious	-11.5963
▁paradigm	-11.5963
▁gospel	-11.5963
▁hungry	-11.5964
▁(5)	-11.5965
shing	-11.5966
ltitude	-11.5967
▁affair	-11.5967
▁component	-11.5968
▁IC	-11.597
▁forgot	-11.597
▁providers	-11.597
▁admit	-11.5982
▁measured	-11.5983
▁Juvenile	-11.5986
▁amusement	-11.5986
▁auxiliary	-11.5986
▁minus	-11.5986
▁dental	-11.5986
tang	-11.5988
phy	-11.5989
▁lock	-11.599
aid	-11.5992
▁stressing	-11.5993
▁(15	-11.5995
▁Pra	-11.5999
▁pity	-11.5999
09	-11.6003
▁affiliate	-11.6004
▁hurts	-11.6008
▁Ceremony	-11.6009
▁ancestors	-11.6009
▁urging	-11.6009
▁Flower	-11.6009
▁160	-11.6012
▁Gyeonggido	-11.6012
dimensional	-11.6013
▁athlete	-11.6015
▁arch	-11.6015
▁resist	-11.6019
handed	-11.6022
▁whatever	-11.6023
Su	-11.6023
▁blocks	-11.6026
▁decides	-11.6027
▁cooperatives	-11.603
hai	-11.6032
▁OLED	-11.6033
▁List	-11.6035
▁Estate	-11.6035
▁1994	-11.6035
oe	-11.6036
▁shine	-11.6038
▁enhanced	-11.6038
mission	-11.6044
rie	-11.6044
▁Cambodia	-11.6056
▁Newspaper	-11.6056
▁decoration	-11.6056
▁gallery	-11.6056
▁Growth	-11.6056
▁Wind	-11.6057
▁fog	-11.6057
▁stolen	-11.6059
▁1995	-11.6059
▁stu	-11.6059
▁Nan	-11.6061
▁sculpture	-11.6062
▁beverage	-11.6062
▁2019.	-11.6066
IN	-11.6067
▁2030	-11.6072
ore	-11.6073
▁preventive	-11.6075
▁flooding	-11.6077
▁dismantle	-11.6078
▁faculty	-11.6079
▁straw	-11.6079
▁fusion	-11.6079
▁threaten	-11.6084
▁pays	-11.6099
▁advise	-11.61
▁Ethics	-11.6103
▁nowadays	-11.6103
▁orchestra	-11.6103
▁contemporary	-11.6103
▁practiced	-11.6108
▁pensions	-11.6109
▁Resident	-11.611
▁kicked	-11.6111
▁hospitalization	-11.6117
▁paste	-11.6117
▁climbing	-11.6123
▁112	-11.6124
▁calendar	-11.6126
▁keyword	-11.6127
LO	-11.6144
▁Railway	-11.615
▁fled	-11.6152
▁symbolic	-11.6154
▁legally	-11.6158
▁treating	-11.616
▁1.6	-11.6161
▁Oil	-11.6164
▁fatal	-11.617
▁Christianity	-11.6179
▁shouted	-11.6181
dia	-11.6183
:40	-11.6187
▁burdened	-11.619
▁declining	-11.6197
▁volatility	-11.6197
▁COE	-11.6198
▁reinforcement	-11.6198
▁farmland	-11.6198
▁permitted	-11.6198
table	-11.62
▁Series	-11.6201
▁Coin	-11.6201
▁exported	-11.6204
▁negotiate	-11.621
▁execute	-11.6211
using	-11.6212
▁Pen	-11.6214
nae	-11.6216
▁neutral	-11.6219
▁geographical	-11.6221
▁waist	-11.6221
▁clue	-11.6221
▁calligraphy	-11.6224
▁intend	-11.6224
hal	-11.6225
04	-11.6235
▁scan	-11.6236
▁commemoration	-11.6244
▁smiling	-11.6244
gyeom	-11.6246
▁stopping	-11.6248
lig	-11.6249
▁thrown	-11.6251
▁withdrawn	-11.6253
▁Mobile	-11.6254
▁steam	-11.6257
▁disc	-11.6263
▁Beauty	-11.6264
ama	-11.6268
▁Controversy	-11.6268
▁Fashion	-11.6268
▁ROK	-11.6268
▁revelation	-11.6268
▁endless	-11.6268
▁reckless	-11.6268
▁authorized	-11.6269
Ta	-11.6272
▁satisfy	-11.6272
▁planted	-11.6272
▁reorganized	-11.6276
▁deepening	-11.6279
▁righteous	-11.6283
complete	-11.6285
zu	-11.6285
▁secrets	-11.6285
rated	-11.6287
ette	-11.6292
▁Medicine	-11.6292
▁Wage	-11.6292
▁honey	-11.6292
89	-11.6292
▁polarization	-11.6292
▁luncheon	-11.6293
▁Va	-11.6304
special	-11.6308
uro	-11.6311
▁routine	-11.6316
▁disagreement	-11.6317
▁brake	-11.6323
▁warrants	-11.6324
▁anyway	-11.6324
▁mentally	-11.6325
▁Duk	-11.633
▁lens	-11.633
RI	-11.6334
▁Tech	-11.6337
▁mounting	-11.634
▁unconscious	-11.634
▁click	-11.634
▁physically	-11.6341
▁classification	-11.6345
▁Rose	-11.6348
▁Dai	-11.6349
▁Standard	-11.6351
▁incentive	-11.6351
▁triple	-11.6353
▁intensity	-11.6354
▁recognizes	-11.6359
▁AR	-11.6361
cap	-11.6364
▁forgotten	-11.6364
▁beans	-11.6364
ani	-11.6365
▁Shinzo	-11.6366
cla	-11.6374
▁sanction	-11.6375
▁poly	-11.6378
▁selects	-11.6385
▁motivation	-11.6388
▁webtoon	-11.6388
▁burdensome	-11.6389
▁Cafe	-11.6393
▁worrying	-11.6397
▁blame	-11.6402
▁Pyeong	-11.6405
▁addiction	-11.6412
▁widespread	-11.6412
▁complaining	-11.6413
▁thermal	-11.6413
ua	-11.6414
ending	-11.6414
ney	-11.6414
▁afterward	-11.642
▁Bur	-11.6423
30,000	-11.6423
▁Ke	-11.6424
▁youngest	-11.6426
▁accordingly	-11.6427
▁fighter	-11.6427
match	-11.6433
bing	-11.6435
▁occupant	-11.6436
▁privacy	-11.6436
▁vacuum	-11.6436
▁Folk	-11.6436
▁shirt	-11.6438
▁jet	-11.6439
▁sisters	-11.6441
▁taxpayers	-11.6444
▁1.4	-11.6444
SI	-11.6444
▁upgraded	-11.6448
▁celebrated	-11.6449
▁distinguished	-11.6452
▁lasted	-11.6452
▁110	-11.6453
▁aide	-11.6457
▁Express	-11.646
▁kiln	-11.6461
▁sanitary	-11.6461
▁lottery	-11.6461
flow	-11.6461
▁Honor	-11.6464
▁mold	-11.6464
▁normalization	-11.6466
▁Hand	-11.6472
▁Too	-11.6481
▁coaches	-11.6483
▁appraisal	-11.6485
▁custody	-11.6485
▁lunar	-11.6485
▁keynote	-11.6485
▁Main	-11.6486
▁Asked	-11.649
▁competed	-11.6492
pet	-11.6497
TS	-11.6498
▁TF	-11.6498
▁activate	-11.6499
▁developer	-11.6503
),"	-11.6505
nel	-11.6505
▁constitute	-11.6509
▁flew	-11.6509
Provisional	-11.6509
▁kingdom	-11.6509
▁comedian	-11.6509
▁orange	-11.6511
▁shoe	-11.6514
▁unilaterally	-11.6514
▁intensifying	-11.6523
▁auditors	-11.6529
▁installment	-11.653
▁SW	-11.6532
▁congress	-11.6533
▁Gallery	-11.6534
▁Judiciary	-11.6534
▁collision	-11.6534
▁diversify	-11.6534
▁oriental	-11.6534
Ju	-11.6535
▁lifetime	-11.6538
▁hardly	-11.6542
▁specialize	-11.6544
▁pastors	-11.6546
▁Fo	-11.655
▁mess	-11.6551
▁relaxed	-11.6553
▁Syria	-11.6555
phe	-11.6557
▁Suh	-11.6557
ef	-11.6558
▁termination	-11.6558
▁cliff	-11.6558
▁Player	-11.656
▁craft	-11.6569
met	-11.657
▁vegetable	-11.6573
▁dispose	-11.6573
▁PD	-11.6575
5)	-11.6578
▁chamber	-11.6583
▁adverse	-11.6583
▁Tongyeong	-11.6584
▁rejection	-11.6585
ished	-11.6589
▁Reporter	-11.659
▁pipes	-11.6592
PM	-11.6593
AS	-11.6595
▁reduces	-11.6595
keun	-11.6596
▁countermeasure	-11.6598
pin	-11.6599
▁tombs	-11.66
▁140	-11.66
▁lane	-11.6605
▁Standing	-11.6608
▁Low	-11.6608
▁Display	-11.6608
▁boring	-11.6608
▁episodes	-11.6616
zy	-11.6619
▁closest	-11.6625
▁hung	-11.6626
▁cups	-11.6631
▁chaebol	-11.6632
▁collateral	-11.6632
▁commodities	-11.6632
▁possession	-11.6634
-5	-11.6635
▁healthcare	-11.6635
▁mill	-11.6637
▁ear	-11.664
50,000	-11.6641
▁CO	-11.6651
▁weakening	-11.6651
floor	-11.6652
inch	-11.6655
▁IoT	-11.6656
▁Yellow	-11.6657
▁Personal	-11.6658
▁nano	-11.6659
▁Stone	-11.6662
▁tensions	-11.6664
87	-11.6665
▁celebrating	-11.6665
▁designating	-11.6667
▁76	-11.6668
▁outflow	-11.6669
▁mechanical	-11.667
▁performers	-11.667
▁shoulders	-11.6672
▁notes	-11.6674
payment	-11.6674
▁bookstore	-11.6675
▁choices	-11.6675
▁lacks	-11.6676
▁acknowledge	-11.6679
▁demolition	-11.6682
▁eager	-11.6682
▁virtuous	-11.6682
▁GT	-11.6682
▁bones	-11.6685
▁terrorist	-11.6685
▁Democrats	-11.6686
EN	-11.6693
print	-11.6695
▁revived	-11.6697
▁photographer	-11.6699
▁belly	-11.67
other	-11.67
check	-11.6707
▁Seogwipo	-11.6707
▁aptitude	-11.6707
▁fantastic	-11.6707
▁luxurious	-11.6707
▁remittance	-11.6707
▁hinder	-11.6707
▁Sector	-11.6709
▁VIP	-11.671
▁workforce	-11.671
▁disadvantage	-11.6713
▁attendant	-11.6715
▁Cold	-11.6716
▁politician	-11.6724
▁crown	-11.6728
▁GDP	-11.6729
▁Collection	-11.6732
▁fraudulent	-11.6732
▁optimal	-11.6732
▁unjust	-11.6732
▁woke	-11.6732
▁validity	-11.6734
▁countless	-11.6735
▁Lot	-11.6736
▁brief	-11.6743
▁commented	-11.6746
▁obligations	-11.6747
2018	-11.6748
round	-11.675
▁respective	-11.6756
▁communicating	-11.6757
▁eligibility	-11.6757
▁ratification	-11.6757
▁Kiwoom	-11.6757
▁hesitate	-11.6757
▁sidewalk	-11.6757
▁liquidity	-11.6759
▁trauma	-11.6759
▁barely	-11.676
▁1960	-11.6764
▁Sign	-11.6764
lly	-11.6767
▁planting	-11.6769
▁intentions	-11.6769
▁cleaner	-11.6769
▁extending	-11.6775
Council	-11.6777
PO	-11.6778
▁Parliament	-11.6782
▁Presbyterian	-11.6782
▁crucial	-11.6782
▁happily	-11.6782
▁cotton	-11.6782
▁Livestock	-11.6782
▁breakdown	-11.6783
raw	-11.6783
▁panels	-11.6785
▁Op	-11.6785
93	-11.6786
▁Educational	-11.6786
▁outline	-11.6787
▁patents	-11.679
▁rite	-11.679
get	-11.6794
sea	-11.6794
▁67	-11.6794
5%)	-11.6795
▁holes	-11.6797
▁expresses	-11.6798
▁engineer	-11.6801
▁specifications	-11.6803
▁dividends	-11.6803
▁Distribution	-11.6807
▁fintech	-11.6807
▁Father	-11.6807
▁1996	-11.681
koo	-11.6812
▁(10	-11.6817
▁Inha	-11.6821
▁pitching	-11.6826
▁Tom	-11.6826
▁strengths	-11.6832
▁modify	-11.6832
▁exterior	-11.6832
▁Duty	-11.6835
▁reserves	-11.6839
▁Holy	-11.684
▁eradicate	-11.6842
▁asks	-11.6843
▁assume	-11.6848
▁hundred	-11.6851
▁Unfortunately	-11.6857
▁beneficial	-11.6857
▁measles	-11.6857
▁2006,	-11.6859
▁mining	-11.6861
Li	-11.6863
rio	-11.6865
▁Choir	-11.6866
▁deploy	-11.6869
▁reforms	-11.6876
▁poems	-11.688
▁stole	-11.688
zen	-11.6883
▁Overseas	-11.6883
▁Pavilion	-11.6883
▁Saemaul	-11.6883
▁Together	-11.6883
▁ambulance	-11.6883
▁immunity	-11.6883
▁Anyone	-11.6886
03	-11.6889
most	-11.6893
▁locked	-11.6896
num	-11.6899
▁assign	-11.6903
▁recipient	-11.6903
▁construct	-11.6903
Please	-11.6904
▁spatial	-11.6908
▁receipts	-11.691
▁broadcasts	-11.6921
lee	-11.6922
▁raining	-11.6923
▁Coordination	-11.6933
▁desert	-11.6933
0%)	-11.6938
▁Countermeasures	-11.6944
▁unveil	-11.6947
10,000	-11.6947
▁Trans	-11.6947
▁dominate	-11.6949
▁provider	-11.6954
▁supplier	-11.6955
▁conjunction	-11.6959
▁miracle	-11.6959
▁ripple	-11.6959
▁kiss	-11.6959
▁emergence	-11.6959
▁74	-11.696
80,000	-11.696
▁Max	-11.6962
▁compiled	-11.6963
▁71	-11.6965
▁briefly	-11.6965
▁disorders	-11.6966
▁40,000	-11.6969
vil	-11.6969
▁pond	-11.6969
gre	-11.6971
▁soju	-11.6974
▁Pat	-11.6977
▁updated	-11.6977
▁treasure	-11.6979
▁pressed	-11.6983
▁chapter	-11.6984
▁arguing	-11.6984
▁verge	-11.6984
▁burial	-11.6985
▁Auto	-11.6985
▁backdrop	-11.6986
▁dining	-11.6986
LC	-11.6988
▁rot	-11.6993
FT	-11.6994
▁demonstrations	-11.6998
▁rap	-11.7002
unit	-11.7004
▁77	-11.7005
▁Event	-11.7006
Russia	-11.7006
▁protesting	-11.7007
neung	-11.7007
▁clash	-11.7008
▁legend	-11.701
▁fluctuation	-11.701
▁attendees	-11.7011
▁strip	-11.7012
▁cloth	-11.7014
▁1.1	-11.7032
▁pigs	-11.7034
▁helicopters	-11.7035
▁taekwondo	-11.7036
▁tragedy	-11.7036
▁Michuhol	-11.7036
▁dragon	-11.7037
tentative	-11.7037
▁accessible	-11.7038
▁preach	-11.7039
▁bump	-11.704
▁69	-11.704
▁excessively	-11.7044
hen	-11.7045
mount	-11.7046
lessly	-11.7049
▁Mer	-11.706
▁athletic	-11.7062
▁craze	-11.7062
▁refreshing	-11.7062
▁Daniel	-11.7062
▁Billboard	-11.7062
▁chaos	-11.7062
▁2005,	-11.7067
▁consisted	-11.7068
▁classic	-11.7072
ole	-11.708
chol	-11.7086
▁fluent	-11.7089
▁attachment	-11.709
▁pledges	-11.7091
cular	-11.7093
▁fits	-11.7095
▁tape	-11.7095
mae	-11.7099
▁sal	-11.7102
▁intervene	-11.7103
▁Whenever	-11.7104
hyo	-11.7106
▁scared	-11.7109
season	-11.7109
▁noble	-11.711
▁experiments	-11.7111
▁Obama	-11.7113
▁entities	-11.7113
▁Geoje	-11.7114
▁infringement	-11.7114
▁350	-11.7116
▁YG	-11.7117
▁individually	-11.7117
▁fastest	-11.7118
▁Jack	-11.7118
▁requirement	-11.712
73	-11.7123
away	-11.7129
▁sensors	-11.7132
▁earning	-11.7137
gress	-11.7139
▁salaries	-11.7139
▁scrap	-11.714
▁hiking	-11.714
▁biological	-11.714
▁chip	-11.7142
▁publisher	-11.7143
▁Santa	-11.7144
▁Sho	-11.7148
▁continent	-11.7149
▁economically	-11.7155
79	-11.7159
▁lotus	-11.716
weight	-11.7164
▁Disabilities	-11.7165
▁Knowledge	-11.7165
▁steak	-11.7165
▁cinema	-11.7165
▁generous	-11.7166
▁recogniz	-11.7166
▁tail	-11.7166
director	-11.7167
▁audio	-11.7169
▁distorted	-11.7171
▁tile	-11.7172
Sun	-11.7173
▁booking	-11.7175
ough	-11.7177
▁2:	-11.7184
▁journal	-11.7184
▁Far	-11.7188
rick	-11.7188
you	-11.7188
train	-11.719
▁railways	-11.7191
TA	-11.7191
▁exchanging	-11.7191
▁sibling	-11.7191
▁cease	-11.7191
▁idle	-11.7192
▁unpaid	-11.7193
▁bin	-11.7194
▁Check	-11.7194
bol	-11.7195
▁stipulated	-11.7198
▁dong	-11.72
▁employers	-11.72
▁bean	-11.7204
▁moderate	-11.7204
▁trusted	-11.7207
▁fr	-11.7209
▁scholarships	-11.721
EM	-11.721
▁define	-11.7215
▁purifiers	-11.7217
▁noodle	-11.7218
▁Nowadays	-11.7218
▁Style	-11.7218
▁cellphone	-11.7218
▁Waste	-11.7219
▁conductor	-11.722
▁thereto	-11.7222
▁soap	-11.7223
▁steal	-11.7224
▁disadvantages	-11.7226
ib	-11.7226
▁pitch	-11.7228
Vi	-11.7231
▁engineers	-11.7233
▁Win	-11.7234
▁Netherlands	-11.7244
▁carpool	-11.7244
▁freight	-11.7244
▁retaliation	-11.7244
▁subsequent	-11.7244
▁penetrate	-11.7244
▁triggered	-11.7252
wood	-11.7255
▁reinforce	-11.7259
▁depart	-11.7266
ranked	-11.7268
▁rented	-11.7269
flight	-11.727
▁pleased	-11.727
▁erupted	-11.727
▁skating	-11.727
▁Modern	-11.727
▁cried	-11.727
▁outcomes	-11.7271
two	-11.7271
gel	-11.7274
▁exploded	-11.7275
▁plunged	-11.7278
:1	-11.7282
▁improvements	-11.7282
▁borrowing	-11.7283
arm	-11.7286
▁Tang	-11.7288
▁cabbage	-11.7297
▁evacuation	-11.7297
▁shadow	-11.7297
▁spectacular	-11.7297
▁Depend	-11.7297
▁indicator	-11.7298
▁excavated	-11.7299
▁witnessed	-11.7299
▁precedent	-11.7299
▁maybe	-11.73
▁fitness	-11.7301
case	-11.7301
▁beds	-11.7302
▁blowing	-11.7303
lk	-11.7305
▁Guri	-11.7306
Gangnam	-11.7321
cker	-11.7321
▁criminals	-11.7322
▁arrears	-11.7323
▁memorable	-11.7323
▁freezing	-11.7323
president	-11.7325
▁ghost	-11.7326
Seo	-11.7329
▁polls	-11.733
▁Organizations	-11.7331
holder	-11.7332
EU	-11.7333
▁Wal	-11.7336
pm	-11.734
▁rocks	-11.7347
vice	-11.7348
▁scratch	-11.735
▁Early	-11.735
▁Everything	-11.735
▁plot	-11.735
▁coaching	-11.7351
▁plum	-11.7354
▁Tea	-11.7356
▁enforced	-11.7357
RO	-11.7358
▁costumes	-11.7363
▁CCTVs	-11.7364
ites	-11.7366
▁probation	-11.7366
looking	-11.7367
week	-11.7369
gap	-11.7369
Corruption	-11.7374
first	-11.7374
▁Stephen	-11.7376
▁intelligent	-11.7376
▁CBS	-11.7376
▁rainfall	-11.7377
▁Messi	-11.7379
▁testified	-11.738
▁devoted	-11.7381
▁retire	-11.7389
▁Kun	-11.739
▁Host	-11.7391
▁u	-11.7394
CI	-11.7397
▁intent	-11.7398
▁faithful	-11.7399
▁bonus	-11.74
ET	-11.7402
▁barrel	-11.7403
▁conceal	-11.7403
▁abusing	-11.7403
▁Subway	-11.7404
▁disappearance	-11.7404
▁Forestry	-11.7406
▁3.5	-11.7413
▁expires	-11.7414
load	-11.7417
▁portray	-11.7419
4)	-11.7419
▁accumulate	-11.742
played	-11.742
food	-11.7427
▁fiercely	-11.7428
excluding	-11.7428
▁forefront	-11.743
▁priest	-11.743
▁Cinema	-11.743
fine	-11.7439
▁weigh	-11.744
▁terminate	-11.7446
▁delete	-11.7446
▁packages	-11.7448
▁findings	-11.7453
ax	-11.7453
▁potato	-11.7454
▁lump	-11.7457
▁naval	-11.7457
▁sponsorship	-11.7457
▁plain	-11.7458
▁Moreover	-11.7458
▁latter	-11.7458
▁Kids	-11.7458
▁guided	-11.7462
rooted	-11.7466
RE	-11.7467
▁UAE	-11.7472
boo	-11.7478
They	-11.748
While	-11.7482
▁Corporate	-11.7483
▁recreation	-11.7483
▁committing	-11.7485
▁commentary	-11.7489
motion	-11.7493
▁borne	-11.7497
▁lawsuits	-11.7497
▁mart	-11.75
▁tube	-11.7502
▁Liberation	-11.751
▁spokesperson	-11.751
▁isolated	-11.751
▁Smartphone	-11.751
▁Gap	-11.7511
phone	-11.7514
▁ceramic	-11.7515
▁insult	-11.7521
▁Ali	-11.7525
▁Literature	-11.7537
▁modification	-11.7537
▁Cyber	-11.7537
▁Francisco	-11.7538
▁overlapping	-11.7538
ility	-11.7539
▁resemble	-11.7542
▁predicting	-11.7543
▁fla	-11.7545
▁LH	-11.7546
mber	-11.7547
▁cho	-11.7548
coming	-11.755
ifying	-11.7551
▁mineral	-11.7553
vision	-11.7553
ique	-11.7554
▁MOU	-11.7559
child	-11.7564
▁liaison	-11.7564
▁stagnant	-11.7564
▁foul	-11.7565
▁sovereignty	-11.7565
AC	-11.7567
▁Yeongnam	-11.7568
▁element	-11.7568
▁AM	-11.7571
▁evacuated	-11.7572
nyeong	-11.7572
▁Dasan	-11.7575
▁commercialized	-11.7577
▁mushrooms	-11.7579
▁totally	-11.758
▁15,000	-11.758
▁forgive	-11.7582
▁infinite	-11.759
market	-11.7591
▁maturity	-11.7591
▁revival	-11.7591
▁dominant	-11.7591
▁martyr	-11.7592
▁Think	-11.7592
woman	-11.7592
▁dying	-11.7593
▁headlines	-11.7593
▁obstacle	-11.7598
▁coupons	-11.7598
▁academia	-11.7599
bon	-11.7599
▁Comprehensive	-11.76
▁finances	-11.7603
self	-11.7604
▁counterpart	-11.7605
ular	-11.7605
quarter	-11.7606
▁wounds	-11.7606
▁ruin	-11.7607
▁landslide	-11.7619
▁tuberculosis	-11.7619
▁wildfire	-11.7619
▁towel	-11.7619
▁anchor	-11.762
▁Uber	-11.7622
base	-11.7625
▁struggled	-11.7625
LA	-11.7627
▁Peter	-11.7628
burg	-11.7628
band	-11.7629
▁THAAD	-11.7632
Moon	-11.7633
▁exhibited	-11.7633
cade	-11.7634
AT	-11.7642
col	-11.7645
▁Typhoon	-11.7646
▁probability	-11.7646
▁shrimp	-11.7646
▁varieties	-11.7646
▁devise	-11.7648
▁museums	-11.765
▁Infinite	-11.7653
gation	-11.7655
▁Doctor	-11.7655
▁consumed	-11.7656
kuk	-11.7661
▁translate	-11.7664
▁enabl	-11.7664
▁favors	-11.7668
▁neglect	-11.7669
people	-11.7673
▁deciding	-11.7673
▁frustrated	-11.7673
▁withdrew	-11.7673
▁clock	-11.7674
▁Employees	-11.7674
▁persist	-11.7676
rator	-11.7682
risk	-11.7682
tail	-11.7692
▁employ	-11.7694
▁counselors	-11.7699
▁Chicken	-11.7701
▁detached	-11.7701
▁voucher	-11.7701
▁fiber	-11.7701
▁1988	-11.7706
▁picking	-11.7707
▁Rain	-11.7707
▁Nine	-11.7707
▁independently	-11.7712
▁guideline	-11.7713
▁chips	-11.7714
fr	-11.7715
▁blossoms	-11.772
ata	-11.7726
▁Chicago	-11.7728
▁Empire	-11.7728
▁Texas	-11.7728
▁leather	-11.7728
▁migrant	-11.7728
▁tasting	-11.7728
▁threshold	-11.7728
▁compound	-11.7729
tax	-11.773
▁potatoes	-11.7731
▁editing	-11.7738
▁practically	-11.7738
▁disadvantaged	-11.774
▁demonstrated	-11.7742
▁repaired	-11.7747
▁Band	-11.7752
▁Donghae	-11.7753
kilometer	-11.7755
rmal	-11.7755
▁Merchant	-11.7756
▁inflammation	-11.7756
▁marathon	-11.7756
▁twenty	-11.7756
▁volleyball	-11.7756
▁wheelchair	-11.7756
▁Trust	-11.7756
▁inviting	-11.7756
▁Arm	-11.7756
nap	-11.7757
▁colleges	-11.7758
▁bands	-11.7758
▁refuted	-11.7759
▁correctly	-11.7765
▁perpetrator	-11.7765
▁carries	-11.7765
▁permits	-11.777
▁renew	-11.7772
ita	-11.7775
▁obstacles	-11.7778
,700	-11.778
▁Participation	-11.7784
▁denuclearize	-11.7784
▁plaque	-11.7784
▁gray	-11.7785
▁apparently	-11.7787
▁Harry	-11.7787
Jung	-11.7788
DP	-11.779
▁Soft	-11.7793
▁Namdaemun	-11.7812
▁duration	-11.7812
step	-11.7813
▁deserve	-11.7815
▁ports	-11.7819
▁entirely	-11.7823
▁cart	-11.7824
▁definition	-11.7826
▁revoked	-11.7826
▁Intellectual	-11.7839
▁Vehicle	-11.7839
▁legitimate	-11.7839
▁Bal	-11.784
▁Lady	-11.7842
▁tide	-11.7842
▁occasions	-11.7847
▁presided	-11.7847
▁Pur	-11.7848
Cha	-11.7849
▁weaken	-11.7852
▁breathe	-11.7856
PC	-11.7856
▁themes	-11.7862
▁lacked	-11.7865
▁Deliberati	-11.7865
▁extinguish	-11.7867
▁Colombia	-11.7867
▁nephew	-11.7867
▁refusal	-11.7867
▁Sexual	-11.7867
▁Large	-11.7868
▁Metro	-11.7868
▁disturbance	-11.7868
condition	-11.7868
▁Mother	-11.7869
▁Clean	-11.7869
▁icon	-11.787
▁Accordingly	-11.787
▁packing	-11.7879
▁toilets	-11.7883
▁Treatment	-11.7895
▁defamation	-11.7895
▁tailored	-11.7895
▁tobacco	-11.7895
▁Feb	-11.7896
second	-11.7896
breaking	-11.7898
RP	-11.7902
▁DJ	-11.7904
▁quarterly	-11.7904
▁Ship	-11.7905
▁Front	-11.7907
ddle	-11.7909
▁stipulates	-11.7916
▁chemicals	-11.7918
▁1.7	-11.792
▁disturb	-11.7923
▁Examination	-11.7923
▁dividing	-11.7923
▁plaza	-11.7923
▁reliability	-11.7923
▁Iraq	-11.7923
east	-11.7926
being	-11.7943
▁amend	-11.7943
mine	-11.7947
▁casual	-11.7952
▁baggage	-11.7952
▁democratization	-11.7952
▁intermediate	-11.7952
▁Castle	-11.7952
▁blessing	-11.7952
▁varies	-11.7952
watch	-11.7954
▁Poland	-11.7954
park	-11.7954
▁boundary	-11.7954
former	-11.7957
▁lecturers	-11.7958
▁Rice	-11.7967
▁educate	-11.797
▁integrate	-11.797
EA	-11.7971
▁dioxide	-11.798
▁monopoly	-11.798
▁drum	-11.798
▁observers	-11.7982
▁exert	-11.7982
▁retreat	-11.7982
▁Cam	-11.7989
▁answering	-11.7993
7.5	-11.7998
▁beverages	-11.8001
▁sculptures	-11.8001
cl	-11.8002
MB	-11.8003
BO	-11.8004
▁mild	-11.8008
▁wound	-11.8009
▁Trend	-11.801
▁noon	-11.8011
▁Try	-11.8011
▁Hyang	-11.8013
▁evenly	-11.8013
▁doubts	-11.8016
berg	-11.8017
,000,000	-11.8019
final	-11.8022
▁Sta	-11.8024
▁farmer	-11.8028
▁recovering	-11.8029
▁Rome	-11.8031
national	-11.8033
▁Buddhism	-11.8037
esteem	-11.8037
▁fortune	-11.8037
▁mud	-11.8037
▁balloon	-11.8038
(1)	-11.8038
▁affects	-11.804
▁probe	-11.8042
▁streaming	-11.8042
▁150,000	-11.8045
rai	-11.8045
colored	-11.8045
▁bull	-11.8045
▁sellers	-11.8047
▁1%	-11.8048
Our	-11.8048
▁stain	-11.805
▁shouting	-11.8052
unconstitutional	-11.8052
▁costume	-11.8052
rom	-11.8056
▁cheers	-11.8058
▁Hankyoreh	-11.8065
▁Liverpool	-11.8065
▁accessories	-11.8065
▁landlord	-11.8065
▁memorandum	-11.8065
▁Mobis	-11.8065
▁Sookmyung	-11.8065
▁missionaries	-11.8066
▁Laos	-11.8067
Palembang	-11.8067
All	-11.8069
bay	-11.807
▁Egyptian	-11.807
▁ICO	-11.8071
▁GP	-11.8072
▁unfairly	-11.8072
▁1,2	-11.8078
▁cosmetic	-11.8079
wage	-11.8092
▁LNG	-11.8094
▁Prosecution	-11.8094
▁briquette	-11.8094
▁consortium	-11.8094
▁elite	-11.8094
▁Legislation	-11.8094
▁crab	-11.8095
yeop	-11.8095
arch	-11.8095
▁lately	-11.8098
▁shell	-11.8101
▁Yeonsu	-11.8102
▁internally	-11.8102
▁Ken	-11.8107
▁midfielder	-11.8108
▁Startup	-11.8111
▁Action	-11.8115
▁spark	-11.812
▁Direct	-11.8121
▁amateur	-11.8122
▁nursery	-11.8123
▁deployment	-11.8124
cat	-11.8125
▁forcing	-11.8126
▁Nobel	-11.8127
governmental	-11.813
▁intake	-11.813
▁announcer	-11.8133
▁cheerful	-11.8139
▁odds	-11.8142
▁simultaneous	-11.8145
▁considers	-11.8146
▁gang	-11.8149
▁Yul	-11.8151
▁pursuit	-11.8151
▁composer	-11.8151
▁silence	-11.8151
▁horizontal	-11.8151
▁CD	-11.8152
▁laser	-11.8152
▁Mission	-11.8153
▁Namwon	-11.8153
▁Against	-11.8154
▁1992	-11.8155
▁conscientious	-11.8158
KI	-11.8163
▁consume	-11.8166
▁openly	-11.817
▁narrowed	-11.8174
▁Ice	-11.8175
▁Mid	-11.8179
▁neither	-11.818
▁parallel	-11.818
▁tremendous	-11.818
▁radar	-11.818
▁gross	-11.818
▁discomfort	-11.818
▁coins	-11.8183
▁Ball	-11.8191
▁privilege	-11.8199
Mon	-11.8199
MC	-11.8204
▁campaigns	-11.8206
▁Para	-11.8206
ola	-11.8207
▁candlelight	-11.8209
▁vague	-11.8209
▁annex	-11.8209
▁Uiwang	-11.8209
craft	-11.821
examination	-11.8211
▁weird	-11.8212
▁promises	-11.8212
▁determines	-11.8214
cell	-11.8214
▁tightening	-11.822
▁habitat	-11.822
▁sparked	-11.8221
▁licensing	-11.8238
▁masterpiece	-11.8238
6.5	-11.824
▁landmark	-11.824
Special	-11.8241
▁confession	-11.8241
patient	-11.8241
▁nationality	-11.8245
▁deteriorated	-11.8245
▁relocated	-11.8245
▁trace	-11.8256
▁delivers	-11.8258
▁Ci	-11.8265
▁lab	-11.8265
▁dreamed	-11.8265
▁Gaya	-11.8266
▁stationed	-11.8266
▁Biennale	-11.8267
▁hormone	-11.8267
▁Model	-11.8268
▁Gojong	-11.8272
▁screens	-11.8273
▁pedestrians	-11.8273
▁someday	-11.8279
▁hardships	-11.8279
▁Gal	-11.8287
▁stealing	-11.8289
▁82	-11.829
▁investigators	-11.8292
▁autopsy	-11.8296
▁exclusion	-11.8296
▁premise	-11.8296
▁Section	-11.83
▁Opera	-11.83
cher	-11.8304
▁vast	-11.8304
40,000	-11.8304
vy	-11.8319
path	-11.832
▁crazy	-11.8325
▁interpreter	-11.8325
▁euros	-11.8325
▁trapped	-11.8325
RT	-11.8332
60,000	-11.8332
▁bargaining	-11.8333
taking	-11.8334
▁presentations	-11.8334
▁incorporated	-11.8337
▁fur	-11.834
▁View	-11.8346
▁unfortunate	-11.8348
▁regulated	-11.8349
Ra	-11.8352
▁fighters	-11.8353
nim	-11.8354
▁advocate	-11.8355
▁bamboo	-11.8355
▁bracket	-11.8355
▁housewives	-11.8355
▁melody	-11.8355
▁translator	-11.8355
▁Grade	-11.8355
▁Philip	-11.8355
▁blend	-11.8355
▁bench	-11.8355
▁idols	-11.8356
▁enact	-11.8357
performance	-11.8358
▁shifted	-11.836
herself	-11.8361
▁desperately	-11.8365
▁nerves	-11.8367
keeper	-11.837
▁inherit	-11.8374
▁verbal	-11.8378
▁insect	-11.838
▁timely	-11.8381
▁instruction	-11.8382
UN	-11.8384
▁phishing	-11.8384
▁quantities	-11.8384
▁mechanism	-11.8384
▁flaw	-11.8386
cia	-11.8387
business	-11.8388
02	-11.8388
NC	-11.8388
▁88	-11.8395
▁regulate	-11.8403
▁attacking	-11.8406
▁cleaned	-11.8409
itude	-11.8413
ffer	-11.8413
▁Bangkok	-11.8413
▁acquiring	-11.8413
▁circumstantial	-11.8413
▁mileage	-11.8413
▁respiratory	-11.8413
▁virtue	-11.8413
▁indication	-11.8413
▁rope	-11.8414
▁equally	-11.843
-15	-11.8432
▁Shop	-11.8433
▁contacting	-11.8436
▁Championships	-11.8436
▁roots	-11.8436
▁curve	-11.8439
▁skilled	-11.844
▁drastic	-11.8443
▁dismantling	-11.8443
▁crane	-11.8444
▁Pink	-11.8444
stream	-11.8445
proof	-11.8446
fried	-11.8447
rip	-11.8449
hur	-11.8449
▁argues	-11.8449
▁falsely	-11.8449
gla	-11.8455
▁Watch	-11.8456
▁civilization	-11.8461
duct	-11.847
▁Ceramic	-11.8473
▁Bears	-11.8473
guard	-11.8474
▁PO	-11.8474
▁Tra	-11.8475
▁Didn	-11.8477
pung	-11.8482
▁dolls	-11.8484
▁Cur	-11.8487
How	-11.8487
rail	-11.849
▁fold	-11.8498
▁destinations	-11.8501
served	-11.8501
▁Little	-11.8503
▁arbitration	-11.8503
▁corps	-11.8503
▁roast	-11.8503
▁placing	-11.8503
▁Disney	-11.8503
▁dumpling	-11.8503
▁duck	-11.8504
will	-11.8505
pel	-11.8505
▁instructed	-11.8508
▁seeks	-11.8508
▁lanes	-11.8514
90,000	-11.852
▁verifying	-11.8522
▁78	-11.8522
hole	-11.8523
▁employer	-11.853
▁SME	-11.8531
▁Maduro	-11.8532
▁breach	-11.8532
▁stabbed	-11.8532
▁detained	-11.8532
5.5	-11.8533
▁distinctive	-11.8533
▁neuro	-11.8533
▁ballistic	-11.8534
▁bonuses	-11.8535
▁Merit	-11.8535
83	-11.8536
▁irr	-11.8539
▁Eight	-11.854
Benz	-11.8541
▁funded	-11.8541
▁mentoring	-11.8545
parent	-11.8546
▁mentioning	-11.855
▁crop	-11.856
▁automotive	-11.8562
▁empathy	-11.8562
▁Shimbun	-11.8563
▁arises	-11.8563
▁piled	-11.8571
▁wipe	-11.8571
▁inherited	-11.8574
▁absolutely	-11.8576
▁meaningless	-11.8578
RA	-11.8581
▁diplomat	-11.8584
▁Organiz	-11.8591
▁Entrustment	-11.8592
▁anticipation	-11.8592
▁depressed	-11.8592
▁naked	-11.8592
roo	-11.8595
▁tender	-11.8597
▁Brand	-11.8598
▁loses	-11.8601
▁depicted	-11.8604
▁intern	-11.861
▁greeted	-11.8611
▁1950	-11.8611
▁favored	-11.8617
▁honored	-11.862
▁innocence	-11.8622
▁Paik	-11.8623
▁bored	-11.8624
effective	-11.8628
▁delaying	-11.8631
nan	-11.8631
dium	-11.8632
▁emit	-11.8632
▁profitable	-11.8635
▁bars	-11.8636
▁Kangwon	-11.8637
▁progressed	-11.8642
ashi	-11.8642
▁Hwan	-11.8643
▁rub	-11.8644
▁Product	-11.8645
▁plates	-11.8649
▁KO	-11.8651
▁Taxi	-11.8652
▁Communist	-11.8653
▁Minimum	-11.8653
▁condolence	-11.8653
▁imbalance	-11.8653
▁proving	-11.8653
▁Factory	-11.8653
ace	-11.8663
▁deeper	-11.8665
▁retro	-11.8669
▁intentional	-11.8674
▁challenged	-11.8676
▁Cloud	-11.8683
▁fountain	-11.8683
▁terrestrial	-11.8683
▁sake	-11.8683
▁whereabouts	-11.8683
▁skirt	-11.8684
▁DNA	-11.8686
▁incorporat	-11.8687
▁Give	-11.869
Yong	-11.8692
▁Counseling	-11.8692
▁Kane	-11.8695
ump	-11.8695
photo	-11.8696
lac	-11.8696
▁transplant	-11.8712
▁Geumgang	-11.8713
▁acquitted	-11.8713
▁boycott	-11.8713
▁courier	-11.8713
▁invalid	-11.8713
▁counterattack	-11.8713
▁rapper	-11.8714
▁rotation	-11.8715
▁humanity	-11.8717
value	-11.8721
▁approaches	-11.8724
▁elders	-11.8725
eung	-11.8731
▁diagnose	-11.8731
▁colored	-11.8735
Some	-11.8736
▁Assistant	-11.8744
▁Saemangeum	-11.8744
▁karaoke	-11.8744
▁portfolio	-11.8744
▁secretariat	-11.8744
▁yacht	-11.8744
▁Scholarship	-11.8744
▁vicious	-11.8744
▁Balance	-11.8744
▁pound	-11.8747
logy	-11.8748
▁existed	-11.875
▁spy	-11.8758
▁involve	-11.8759
cin	-11.8763
▁Vol	-11.8763
ental	-11.8766
▁juniors	-11.8768
▁circumstance	-11.877
▁genuine	-11.8774
▁gesture	-11.8774
▁possibilities	-11.8774
▁Woman	-11.8774
▁radon	-11.8774
pack	-11.8778
protective	-11.8778
▁wing	-11.8778
▁enhancement	-11.8784
▁proceedings	-11.8784
▁catches	-11.8787
▁scientists	-11.8787
fold	-11.8796
▁entertain	-11.88
AD	-11.8803
▁Austria	-11.8805
▁applicable	-11.8805
▁revenge	-11.8805
▁Originally	-11.8805
▁salon	-11.8807
▁Col	-11.8808
eu	-11.8817
rmo	-11.8824
▁unilateral	-11.883
arian	-11.8831
▁organizers	-11.8832
▁appliance	-11.8833
▁prince	-11.8833
▁pledged	-11.8835
▁slaughter	-11.8836
▁kidney	-11.8836
▁combat	-11.8836
▁exhibits	-11.8837
▁liability	-11.8837
▁originated	-11.8838
▁gotten	-11.8844
▁alien	-11.8845
▁Hui	-11.8845
▁surely	-11.8848
ID	-11.8854
flu	-11.8854
▁OECD	-11.8864
kan	-11.8864
PGA	-11.8865
▁literally	-11.8867
▁Money	-11.8868
▁Supervis	-11.8868
▁sued	-11.8869
▁handsome	-11.887
▁Know	-11.8872
▁Full	-11.8874
▁Reading	-11.8876
▁identifying	-11.8876
▁Tan	-11.8877
▁poison	-11.8878
last	-11.8879
CP	-11.8881
ida	-11.8884
▁oral	-11.8885
▁Dang	-11.8892
▁Yongbyon	-11.8898
▁remuneration	-11.8898
▁seaweed	-11.8898
▁Petition	-11.8898
▁torture	-11.8898
▁cooperating	-11.8898
▁authorization	-11.8903
▁basically	-11.8905
dar	-11.8906
▁Dongtan	-11.8908
▁adolescents	-11.8912
▁ceramics	-11.8923
2.5	-11.8927
▁refusing	-11.8929
▁reunification	-11.8929
▁spill	-11.893
▁sexy	-11.8934
▁KIA	-11.8934
minister	-11.8936
three	-11.8936
▁shipments	-11.8937
▁surged	-11.8948
▁pressing	-11.8948
▁desires	-11.8953
▁2.0	-11.8956
▁2018-2019	-11.896
▁galleries	-11.896
▁improper	-11.896
▁loving	-11.896
▁sanitation	-11.896
▁unlimited	-11.8961
▁defective	-11.8962
▁Wanna	-11.8965
raising	-11.8967
▁appropriateness	-11.897
born	-11.897
▁sour	-11.8973
cate	-11.8975
4.3	-11.8977
▁abandon	-11.8978
▁wondered	-11.898
▁dense	-11.8986
▁defending	-11.8989
▁Campaign	-11.8991
▁Field	-11.8991
▁quantitative	-11.8991
▁establishes	-11.8991
▁lined	-11.8993
▁preview	-11.8993
catching	-11.8999
▁chairs	-11.9001
▁lively	-11.9004
▁2025	-11.9008
▁170	-11.9015
main	-11.9022
▁Shilla	-11.9022
▁accuracy	-11.9022
▁algorithm	-11.9022
▁erected	-11.9022
▁sprinkl	-11.9022
▁stalled	-11.9023
▁foregoing	-11.9023
▁altogether	-11.9023
▁mystery	-11.9023
▁queen	-11.9023
▁Nissan	-11.9023
▁carved	-11.9023
ised	-11.9025
▁jar	-11.9026
▁Micro	-11.9027
▁sadness	-11.9029
▁discarded	-11.903
▁nutrients	-11.9032
▁specify	-11.9034
▁arrives	-11.9036
nia	-11.9038
▁cure	-11.9045
▁toys	-11.9047
▁400,000	-11.9053
▁Oriental	-11.9054
▁atmospheric	-11.9054
▁meticulous	-11.9054
▁slept	-11.9054
▁motive	-11.9054
▁1991	-11.9056
▁trademark	-11.9057
▁ultimately	-11.9059
▁Independent	-11.9062
▁sensation	-11.9067
▁climbed	-11.907
ule	-11.9071
MI	-11.9071
ality	-11.9079
pose	-11.9084
▁Appraisal	-11.9085
▁Hungary	-11.9085
▁Truth	-11.9086
▁George	-11.9086
▁minimal	-11.9086
▁purifier	-11.9086
▁insert	-11.9087
▁Ganghwa	-11.9087
renowned	-11.9094
▁Place	-11.9099
▁scary	-11.91
▁Hot	-11.9101
▁quietly	-11.9102
▁shrinking	-11.9103
gung	-11.9112
pur	-11.9113
▁Coffee	-11.9117
▁choreography	-11.9117
▁disappointing	-11.9117
▁elegant	-11.9117
▁sandwich	-11.9117
▁summarize	-11.9117
▁tumor	-11.9117
▁unchanged	-11.9117
▁cough	-11.9119
▁macro	-11.9119
▁Sindang	-11.9119
▁editor	-11.9119
▁initiated	-11.912
▁trailer	-11.912
▁lightly	-11.9122
▁Electronic	-11.9123
plication	-11.9131
▁reforming	-11.9134
▁indicate	-11.914
ider	-11.9141
▁aggregate	-11.9142
2017	-11.9143
▁analyzes	-11.9143
▁centimeters	-11.9149
▁cousin	-11.9149
▁embrace	-11.9149
▁fantasy	-11.9149
▁Tesla	-11.9149
▁bullpen	-11.9149
page	-11.915
▁Mill	-11.9152
▁lightning	-11.9155
lets	-11.9157
elect	-11.9164
▁Shall	-11.9165
▁depict	-11.9165
▁Still	-11.9169
▁stretch	-11.9181
▁Facility	-11.9181
▁culprit	-11.9181
▁tangible	-11.9181
▁humidity	-11.9182
Related	-11.9182
▁gateway	-11.9183
▁pole	-11.9184
▁councilors	-11.9185
▁Member	-11.9185
▁Taean	-11.9185
Car	-11.9186
▁Seongsan	-11.9188
▁appreciated	-11.9191
▁breed	-11.9193
nor	-11.9193
▁2.2	-11.9201
▁guardians	-11.9206
▁Belgian	-11.9213
▁Brother	-11.9213
▁bleeding	-11.9213
▁dictatorship	-11.9213
Mr	-11.9214
▁indeed	-11.9215
▁uncle	-11.9215
▁1987	-11.9216
Man	-11.9218
berry	-11.9224
four	-11.9226
3.2	-11.923
▁discovering	-11.9231
▁Radio	-11.9232
▁Heart	-11.9233
▁Mars	-11.9235
▁broth	-11.9237
▁boast	-11.9238
▁volunteering	-11.9242
Le	-11.9244
▁Tire	-11.9244
▁councilor	-11.9244
▁catalyst	-11.9245
▁charcoal	-11.9245
▁filial	-11.9245
▁navigation	-11.9245
▁shade	-11.9246
▁15%	-11.9248
▁counselor	-11.9252
▁biased	-11.9253
▁Ahead	-11.9268
▁1,3	-11.9271
▁10:30	-11.9277
▁Hawaii	-11.9277
▁granting	-11.9283
icide	-11.9283
▁assert	-11.9284
▁destroying	-11.9288
cast	-11.9291
0.4	-11.9298
saving	-11.9304
large	-11.9305
▁Way	-11.9306
▁corn	-11.9308
▁Emirates	-11.9309
▁Inspector	-11.9309
▁embroiled	-11.9309
▁flexibility	-11.9309
▁swift	-11.9309
▁condemn	-11.9309
▁groundbreaking	-11.931
▁1,200	-11.9311
▁drills	-11.9313
20,000	-11.9313
lash	-11.9316
shot	-11.9316
▁forecasts	-11.9318
▁cheat	-11.9319
▁lid	-11.9321
▁parental	-11.9323
aga	-11.9325
▁Sen	-11.9326
Gyeong	-11.9327
boy	-11.9329
▁impaired	-11.933
▁Eye	-11.9332
▁Commander	-11.9333
▁experimental	-11.9337
▁Chelsea	-11.9342
▁Video	-11.9342
▁graduating	-11.9342
▁influenza	-11.9342
▁sweep	-11.9342
▁implant	-11.9342
▁dirty	-11.9345
▁grilled	-11.935
▁greetings	-11.9352
▁signals	-11.9353
PE	-11.9355
media	-11.9355
▁extinguished	-11.9355
▁consulted	-11.9355
rich	-11.9356
▁gardens	-11.9356
▁catcher	-11.9359
▁92	-11.9363
▁plunge	-11.9364
▁Boat	-11.9372
▁memo	-11.9373
Na	-11.9373
▁Sungkyunkwan	-11.9374
▁aesthetic	-11.9374
▁disappointment	-11.9374
▁wrist	-11.9374
▁Arirang	-11.9374
▁conscience	-11.9374
▁Yangsan	-11.9375
▁strain	-11.9375
▁occasional	-11.9376
▁colleague	-11.9379
▁alter	-11.9385
▁businessman	-11.9387
lib	-11.9388
everal	-11.9391
▁0.1	-11.9394
▁sink	-11.9397
finals	-11.9399
▁blank	-11.9406
▁Emperor	-11.9407
▁dynasty	-11.9407
▁finalize	-11.9407
▁advertise	-11.9407
▁Eagles	-11.9413
▁95	-11.9419
block	-11.9422
▁mad	-11.9423
▁bur	-11.9428
Love	-11.9433
▁bullet	-11.9434
▁Prefecture	-11.9439
▁Samcheok	-11.9439
▁William	-11.9439
▁hamburger	-11.9439
▁pencil	-11.9439
▁monster	-11.9439
▁bride	-11.9439
▁Nongak	-11.944
▁instance	-11.944
▁slim	-11.9442
▁Gunpo	-11.9444
▁boiled	-11.9446
▁Sangju	-11.9448
cultural	-11.9449
▁bookstores	-11.945
▁Gae	-11.9452
IP	-11.9457
LL	-11.9462
wear	-11.9469
▁Ser	-11.947
▁Gimje	-11.9472
▁Violence	-11.9472
▁Vladimir	-11.9472
▁necessarily	-11.9472
▁renovation	-11.9472
▁sensitivity	-11.9472
▁serial	-11.9472
▁boundaries	-11.9472
▁(27	-11.9472
▁Taegeukgi	-11.9473
▁Dol	-11.9473
▁slip	-11.9474
▁halt	-11.9475
▁Cat	-11.9479
▁subcontractor	-11.948
▁1919	-11.9481
▁appointing	-11.9485
Life	-11.9485
▁81	-11.9491
▁Mang	-11.9493
▁novels	-11.9495
▁subcontractors	-11.9498
enter	-11.9502
after	-11.9504
▁digest	-11.9505
▁Logistics	-11.9505
▁Additional	-11.9505
▁horror	-11.9505
▁Chilgok	-11.9505
▁spoon	-11.9505
▁axis	-11.951
▁exporting	-11.9512
▁participant	-11.9512
▁Highway	-11.9514
▁correspond	-11.9517
design	-11.9519
▁departed	-11.952
▁printer	-11.9528
OL	-11.9531
▁precede	-11.9538
▁Assistance	-11.9538
▁CGV	-11.9538
▁emperor	-11.9538
▁exotic	-11.9538
▁provocation	-11.9538
▁bulk	-11.9539
▁Euro	-11.954
▁birthrate	-11.9541
▁inducement	-11.9542
▁Nature	-11.9542
▁tram	-11.9544
▁pasta	-11.9545
▁entrusting	-11.9548
▁Sri	-11.9549
prosperity	-11.9549
91	-11.9549
▁Cal	-11.9553
▁Halla	-11.9563
▁60,000	-11.9567
▁distinct	-11.9568
▁Uzbek	-11.9571
▁accomplice	-11.9571
▁anonymous	-11.9571
▁vocabulary	-11.9571
▁restoring	-11.9571
▁Civic	-11.9571
▁whale	-11.9571
▁Country	-11.9572
▁opponents	-11.9575
▁interviewed	-11.9579
3%)	-11.958
8%)	-11.9581
▁insects	-11.9583
eui	-11.9585
▁disk	-11.9585
▁deny	-11.959
▁organizer	-11.9595
▁offenders	-11.9596
report	-11.9597
▁Mega	-11.96
▁Sur	-11.9601
▁Technical	-11.9604
▁density	-11.9604
▁activation	-11.9604
▁congressman	-11.9606
▁SAT	-11.9607
▁boosting	-11.9607
Shin	-11.9609
▁conditioners	-11.9616
▁supervisory	-11.9618
▁Dia	-11.9621
IM	-11.9627
▁sir	-11.9633
▁Liu	-11.9635
▁deliberately	-11.9637
▁ventilation	-11.9638
▁tutor	-11.9638
▁semifinals	-11.9638
▁dock	-11.9638
▁slavery	-11.9638
▁cattle	-11.9638
▁hyper	-11.9639
▁arguments	-11.9639
action	-11.964
bell	-11.9643
▁discounted	-11.9645
▁blossom	-11.9647
▁Tomb	-11.9647
▁blamed	-11.9651
cca	-11.9656
rance	-11.9668
Ga	-11.9669
▁Trip	-11.967
▁Restaurant	-11.9671
▁accelerating	-11.9671
▁repository	-11.9671
▁quiz	-11.9671
▁thunder	-11.9671
▁(17	-11.9671
▁Macron	-11.9672
▁Dangjin	-11.9673
▁gear	-11.9673
▁formulation	-11.9674
▁Hap	-11.9676
▁Sir	-11.9678
selling	-11.968
▁wings	-11.968
▁jumping	-11.9681
▁protesters	-11.9682
invested	-11.9683
winning	-11.9684
▁runway	-11.9685
▁accelerated	-11.9687
▁twist	-11.9693
directed	-11.9693
▁79	-11.9693
▁belonged	-11.9695
ckle	-11.9695
▁musician	-11.9698
aved	-11.9699
▁8,000	-11.9701
MP	-11.9701
▁mega	-11.9703
▁Behind	-11.9705
▁porcelain	-11.9705
▁scream	-11.9705
▁cheek	-11.9705
▁sushi	-11.9705
▁psychology	-11.9705
▁quarterfinals	-11.9705
▁Payment	-11.9709
bun	-11.9709
▁franchises	-11.9713
▁ads	-11.972
▁Income	-11.9721
▁accompanying	-11.9721
▁newlyweds	-11.9721
▁disciples	-11.9723
▁oversee	-11.9724
▁partly	-11.9727
▁fundamentally	-11.9729
▁loose	-11.9735
▁addresses	-11.9736
▁Mur	-11.9736
kyum	-11.9737
▁revising	-11.9738
▁sword	-11.9739
▁sisterhood	-11.9739
▁collided	-11.9741
▁Cap	-11.9741
▁database	-11.9741
▁Ewha	-11.9743
▁creditors	-11.9745
human	-11.9746
ogue	-11.9747
▁killer	-11.9747
▁clearance	-11.9747
▁Chile	-11.9749
▁Pop	-11.975
▁conglomerate	-11.975
▁Bell	-11.975
Min	-11.975
pay	-11.9754
change	-11.9764
▁Hyeong	-11.9766
▁hint	-11.9768
70,000	-11.9771
▁(16	-11.9771
▁tactics	-11.9772
▁tweet	-11.9772
▁ethical	-11.9772
▁dissemination	-11.9773
▁Online	-11.9774
▁Mental	-11.9774
▁PR	-11.9774
paid	-11.9774
Bu	-11.9777
▁Eul	-11.9778
specific	-11.9785
efficient	-11.9785
lift	-11.9789
▁majored	-11.9793
eb	-11.9796
▁Audi	-11.9797
▁Coalition	-11.9806
▁advancing	-11.9806
▁bakery	-11.9806
▁obstruction	-11.9807
hua	-11.9808
▁ensur	-11.9809
7%)	-11.9809
▁101	-11.9814
▁mm	-11.9816
▁Tourist	-11.9827
▁Hit	-11.9828
rating	-11.9829
ED	-11.9829
▁registering	-11.983
3.8	-11.9831
▁survived	-11.9832
▁Patriots	-11.984
▁forcibly	-11.984
▁justifiable	-11.984
▁influx	-11.984
▁fireworks	-11.984
▁3.3	-11.984
2%)	-11.984
▁rubber	-11.984
▁persistent	-11.9841
▁allies	-11.9842
▁ballot	-11.9843
▁Yeongjong	-11.9844
▁Namhae	-11.9845
▁Par	-11.9848
▁officetel	-11.9851
▁beforehand	-11.9852
▁pour	-11.9853
▁Back	-11.9855
stage	-11.9858
gul	-11.9861
▁compress	-11.9863
▁Mercedes	-11.9874
▁glimpse	-11.9874
▁offshore	-11.9874
▁symposium	-11.9874
▁verdict	-11.9874
▁Kumgang	-11.9874
▁syn	-11.9879
▁Jinhae	-11.988
▁3.1	-11.988
▁accidentally	-11.9885
▁profession	-11.9886
▁dump	-11.9889
hearted	-11.989
▁sinking	-11.9896
▁appealing	-11.9897
▁Neo	-11.9902
▁99	-11.9905
▁congratulate	-11.9908
▁exploring	-11.9908
▁tribute	-11.9908
▁Gimcheon	-11.9908
▁memorize	-11.9908
trip	-11.9909
▁lips	-11.9911
▁handmade	-11.9912
▁interval	-11.9913
▁creators	-11.9913
▁Body	-11.9913
▁valuables	-11.9918
▁surgical	-11.9918
▁insight	-11.9918
▁professionalism	-11.9921
hara	-11.9922
▁Assemblyman	-11.9923
funded	-11.9926
▁loaded	-11.9927
▁organs	-11.9928
▁Lastly	-11.9928
▁Clan	-11.9932
uce	-11.9933
▁entertainers	-11.9936
▁See	-11.9937
3.6	-11.9938
▁millimeters	-11.9943
▁participatory	-11.9943
PT	-11.9943
▁cm	-11.9944
▁manipulated	-11.9949
▁warmth	-11.9954
▁83	-11.9956
daero	-11.9962
cup	-11.9963
▁Tim	-11.9966
▁tech	-11.9969
plex	-11.9972
▁poorly	-11.9973
▁calligraph	-11.9975
▁purification	-11.9977
▁swear	-11.9978
▁authentication	-11.9978
▁useless	-11.998
▁Gongju	-11.998
▁prohibition	-11.9981
▁rolling	-11.9982
▁dig	-11.9985
▁teaches	-11.9987
82	-11.999
▁Chil	-11.9992
▁(12	-11.9992
▁fares	-11.9994
▁Sook	-11.9994
plan	-11.9995
▁enforce	-12.0001
logical	-12.0002
▁Sao	-12.0003
▁globalization	-12.0009
▁laughed	-12.0011
▁Vo	-12.0012
▁Microsoft	-12.0012
▁altar	-12.0012
▁violin	-12.0012
▁acute	-12.0012
▁console	-12.0013
▁rocket	-12.0015
▁hunger	-12.002
▁2023	-12.0021
▁mushroom	-12.0028
▁mistaken	-12.0028
▁tanks	-12.0034
▁Hanok	-12.0036
▁wh	-12.0037
▁formulated	-12.0038
▁washed	-12.004
▁proves	-12.0041
▁fu	-12.0043
▁complement	-12.0045
▁Pakistan	-12.0046
▁brutal	-12.0046
▁retaliatory	-12.0046
▁algae	-12.0047
▁silk	-12.0047
▁Fish	-12.0048
▁weren	-12.0048
▁Near	-12.0053
▁Sport	-12.0055
▁modernization	-12.0055
▁blacklist	-12.0057
-16	-12.0058
▁Minh	-12.0061
establish	-12.0061
▁licensed	-12.0063
uo	-12.007
▁Bak	-12.0071
tong	-12.0072
▁vest	-12.0072
Jin	-12.0077
firm	-12.0078
▁Sil	-12.0079
▁satisfactory	-12.0081
▁alumni	-12.0081
▁convicted	-12.0081
▁rude	-12.0081
▁speculative	-12.0082
▁stern	-12.0084
▁mountainous	-12.0085
▁Fox	-12.0086
0/100	-12.0091
▁Cooperatives	-12.0093
Chief	-12.0096
▁Mong	-12.0097
NP	-12.0102
▁calmly	-12.0103
▁sole	-12.0104
▁raid	-12.0106
▁collaborate	-12.0106
nie	-12.0108
▁aroma	-12.011
ense	-12.0113
▁Reconciliation	-12.0116
▁beneficiary	-12.0116
▁fermented	-12.0116
▁overhaul	-12.0116
▁Woods	-12.0116
▁Sachs	-12.0117
▁Ve	-12.0118
▁Get	-12.0118
tak	-12.0118
▁laboratory	-12.012
▁portable	-12.0124
▁packs	-12.0124
▁specially	-12.0124
home	-12.0127
development	-12.0128
▁Fall	-12.013
6%)	-12.0136
▁disposed	-12.0136
zar	-12.0138
▁(14	-12.0147
owl	-12.0148
▁6,000	-12.015
lio	-12.015
pul	-12.0151
▁Analysis	-12.0151
▁engaging	-12.0151
▁petrochemical	-12.0151
▁tvN	-12.0151
▁beloved	-12.0151
▁Drama	-12.0152
▁slice	-12.0153
▁postponement	-12.0154
▁minimiz	-12.0155
ancy	-12.0155
tec	-12.0155
▁Shortly	-12.0157
▁drunken	-12.0159
▁seriousness	-12.0167
▁grab	-12.0172
▁intending	-12.0182
▁vent	-12.0184
▁refine	-12.0186
▁Response	-12.0187
▁summary	-12.0187
▁brick	-12.0187
▁1989	-12.019
▁Perform	-12.0193
4%)	-12.0202
▁consecutively	-12.021
small	-12.0212
listed	-12.0217
uestion	-12.0218
▁Ran	-12.0218
▁merchandise	-12.0222
▁splendid	-12.0222
▁Task	-12.0222
▁insisting	-12.0223
▁Goldman	-12.0224
▁proactively	-12.0225
▁Dongnae	-12.0226
▁inspired	-12.0226
▁vowed	-12.0228
ME	-12.0237
3.4	-12.0239
Hyun	-12.0241
▁Guk	-12.0245
▁counted	-12.0247
▁Sul	-12.0247
▁gases	-12.0255
▁swim	-12.0257
▁Legend	-12.0257
▁Procedure	-12.0257
▁dinosaur	-12.0257
▁vibration	-12.0257
▁Contract	-12.0257
▁Pyeongyang	-12.0258
▁Metal	-12.026
▁artworks	-12.0263
▁inspecting	-12.027
▁wealthy	-12.027
▁installments	-12.0273
kook	-12.0275
▁nerve	-12.0278
▁advisors	-12.0279
def	-12.029
▁disagree	-12.0292
atic	-12.0292
▁Blockchain	-12.0293
▁reconsider	-12.0293
▁Suspicion	-12.0293
▁compliment	-12.0293
▁conviction	-12.0293
▁divulge	-12.0293
▁fracture	-12.0293
▁imprisoned	-12.0293
▁Kolon	-12.0294
doo	-12.03
hard	-12.0301
▁pier	-12.0305
▁educated	-12.0306
▁Fans	-12.0308
▁Key	-12.0309
▁nut	-12.031
▁(26	-12.031
Why	-12.0312
▁4.5	-12.0312
ige	-12.0314
▁Gri	-12.0316
avi	-12.0317
▁affecting	-12.0323
▁posters	-12.0325
▁corrupt	-12.0327
▁cleaners	-12.0328
▁nurturing	-12.0329
▁supervising	-12.0329
▁radical	-12.0329
▁tongue	-12.0329
▁ultrafine	-12.0329
▁Legal	-12.033
corn	-12.0332
▁Hangul	-12.0332
▁Congressman	-12.0333
gger	-12.0335
▁Pak	-12.0336
▁Being	-12.0338
▁casting	-12.034
District	-12.0345
elected	-12.0346
Je	-12.0351
▁tips	-12.0355
▁geo	-12.0357
CT	-12.0358
▁Eulji	-12.0364
▁attributable	-12.0365
▁necessities	-12.0365
▁tiger	-12.0365
▁Visit	-12.0365
▁helmet	-12.0365
▁chairmen	-12.0366
▁wastewater	-12.0366
▁Cheil	-12.0368
0.8	-12.0369
,900	-12.0371
▁lean	-12.0371
▁underdeveloped	-12.0371
▁Word	-12.0373
▁flowed	-12.0373
▁skip	-12.0375
▁intensify	-12.038
distance	-12.0381
length	-12.0381
▁Kyeong	-12.0381
social	-12.0382
control	-12.0382
help	-12.0383
space	-12.0384
1.5	-12.0388
▁thr	-12.0388
▁Pla	-12.0388
▁negatively	-12.0391
ked	-12.0395
rine	-12.0398
▁asbestos	-12.0401
▁celadon	-12.0401
▁constituency	-12.0401
▁optimistic	-12.0401
▁salmon	-12.0401
▁rampant	-12.0401
▁intact	-12.0402
▁Geon	-12.0404
▁Eo	-12.0404
DM	-12.0412
▁alleviate	-12.0413
3.7	-12.0413
▁hinted	-12.0413
Tech	-12.0418
▁chefs	-12.0423
store	-12.0428
▁Bob	-12.043
▁neat	-12.0432
▁fingers	-12.0432
▁limiting	-12.0432
▁bud	-12.0433
▁consolation	-12.0437
▁protagonist	-12.0437
ennial	-12.0437
▁Elderly	-12.044
▁fist	-12.0443
▁87	-12.0444
▁KCC	-12.0447
▁politically	-12.0448
▁interaction	-12.045
▁rushing	-12.0451
yul	-12.0453
According	-12.0454
▁widening	-12.0455
▁confess	-12.0457
rong	-12.046
SP	-12.0462
trust	-12.0463
▁constructing	-12.0465
▁interrupt	-12.047
▁basket	-12.0473
▁Treaty	-12.0473
▁Vladivostok	-12.0473
▁sprout	-12.0473
▁lounge	-12.0473
▁Freedom	-12.0473
▁isolation	-12.0473
▁internship	-12.0473
▁eliminat	-12.0474
▁kindly	-12.0475
▁Bareun	-12.0476
kwan	-12.0478
▁Dome	-12.0478
▁Minjoo	-12.0479
▁graders	-12.0482
written	-12.0489
▁Gugak	-12.049
People	-12.049
liner	-12.0492
resistant	-12.0495
▁symboliz	-12.0497
▁Teacher	-12.0497
▁exercised	-12.0506
Beautiful	-12.0509
▁casino	-12.0509
▁inscription	-12.0509
Current	-12.0509
▁thanked	-12.0512
▁dressing	-12.0513
▁Hangang	-12.0518
▁subtitles	-12.052
▁(24	-12.0522
iga	-12.0522
saeng	-12.0523
▁Hannam	-12.0527
▁subcontracting	-12.0529
▁Hub	-12.0531
▁transit	-12.0533
▁symptom	-12.0534
▁immigrant	-12.0534
sufficiency	-12.0546
▁Forensic	-12.0546
▁KORAIL	-12.0546
▁Khashoggi	-12.0546
▁harmonious	-12.0546
▁sightseeing	-12.0546
▁9:30	-12.0546
▁dissatisfaction	-12.0546
▁bankruptcy	-12.0546
▁Baekdu	-12.0551
▁priced	-12.0553
▁refined	-12.0556
▁nest	-12.0556
▁(21	-12.056
▁kindness	-12.0569
▁letting	-12.0571
▁Val	-12.0575
▁curb	-12.0579
MR	-12.058
▁Oceans	-12.0582
▁Participatory	-12.0582
▁candidacy	-12.0582
▁constraints	-12.0582
▁endangered	-12.0582
▁federation	-12.0582
▁harassed	-12.0582
▁jazz	-12.0582
▁Crown	-12.0582
▁admire	-12.0582
▁ornament	-12.0583
▁bidder	-12.0584
▁derived	-12.0585
▁unite	-12.0594
▁possess	-12.0602
script	-12.0606
▁inspectors	-12.061
eur	-12.0612
▁Yemeni	-12.0613
PP	-12.0613
▁Bul	-12.0617
▁vendors	-12.0618
KO	-12.0619
▁abusive	-12.0619
▁inferior	-12.0619
▁Boston	-12.0619
▁Meal	-12.0619
▁readjustment	-12.062
ologist	-12.0621
got	-12.0621
▁limitation	-12.0625
▁Wonder	-12.0625
▁landfill	-12.0626
▁hardware	-12.0626
▁attempting	-12.0628
organized	-12.0634
▁reactor	-12.0635
May	-12.064
OO	-12.0642
game	-12.0644
▁ABC	-12.065
▁Eric	-12.0651
LE	-12.0652
▁91	-12.0652
▁circular	-12.0656
▁sandbox	-12.0656
▁kilograms	-12.0656
▁drainage	-12.0657
▁patch	-12.0657
▁0.2	-12.0658
▁Dragon	-12.0659
thirds	-12.066
▁spotted	-12.0662
five	-12.0664
▁Wu	-12.0666
▁deducted	-12.0666
▁wounded	-12.0672
▁fasting	-12.0675
▁Bun	-12.0678
ception	-12.0678
▁perpetrators	-12.0681
▁survivors	-12.0684
Hi	-12.0684
▁Tigers	-12.0689
operative	-12.0692
▁Saenuri	-12.0693
▁hybrid	-12.0693
▁imminent	-12.0693
▁presidency	-12.0693
▁tsunami	-12.0693
▁archives	-12.0693
▁stiff	-12.0693
▁Saint	-12.0693
▁wrapping	-12.0694
▁recycled	-12.0699
▁charger	-12.0699
▁underwear	-12.0702
▁subcontract	-12.0708
▁shrink	-12.071
▁repairing	-12.071
0.6	-12.0711
▁stranger	-12.0714
▁Photograph	-12.0715
▁Customers	-12.0717
▁drying	-12.0718
▁implementer	-12.0723
▁precise	-12.0724
imp	-12.073
corporate	-12.073
▁Disclosure	-12.073
▁cafeteria	-12.073
▁frustration	-12.073
▁statistical	-12.073
▁universe	-12.073
▁urgency	-12.073
▁Gospel	-12.073
▁distant	-12.073
communist	-12.073
▁blueprint	-12.0731
ichi	-12.0731
▁Keep	-12.0731
▁posing	-12.0731
▁hallyu	-12.0734
▁starred	-12.0735
▁flocked	-12.074
▁Nakdong	-12.0741
ush	-12.0747
Happy	-12.075
anda	-12.0752
entrepreneurship	-12.0753
ffi	-12.0762
▁Advisor	-12.0763
powered	-12.0764
▁hydro	-12.0767
▁optical	-12.0768
▁reiterated	-12.0768
▁discharging	-12.0768
▁merely	-12.0768
▁Turn	-12.0769
▁dismantlement	-12.077
▁Meng	-12.0771
▁consolidated	-12.0774
▁merged	-12.0775
▁BBC	-12.078
▁raided	-12.078
▁castle	-12.0781
▁(13	-12.0781
▁mentors	-12.0784
▁Actual	-12.0785
▁planet	-12.0786
Local	-12.0787
▁magnitude	-12.0788
half	-12.0788
▁wrinkles	-12.0797
▁followers	-12.0797
▁inaugura	-12.0804
▁Semiconductor	-12.0805
▁friction	-12.0805
▁strawberry	-12.0805
▁crosswalk	-12.0805
▁administer	-12.0805
▁spite	-12.0806
▁stack	-12.0806
▁sunny	-12.0807
▁365	-12.0807
0.5	-12.0808
▁beginner	-12.0809
TR	-12.0811
ume	-12.0811
nyang	-12.0813
▁Regardless	-12.0816
rium	-12.0816
homeowners	-12.0816
ius	-12.0819
▁0.3	-12.082
▁salty	-12.0821
▁absorbed	-12.0825
VR	-12.0829
vian	-12.083
▁contracted	-12.0832
▁evacuate	-12.0833
▁fortunate	-12.0836
▁Punishment	-12.0843
▁earliest	-12.0843
▁misconduct	-12.0843
▁proviso	-12.0843
▁Louis	-12.0843
vant	-12.0843
▁pipeline	-12.0844
▁linger	-12.0844
▁ribs	-12.0844
▁Gijang	-12.0845
4.6	-12.0848
bil	-12.0849
▁Wood	-12.085
▁Selection	-12.0851
they	-12.0851
▁shout	-12.0851
▁pub	-12.0853
▁Dongguk	-12.0855
▁12,000	-12.0855
▁tense	-12.0858
▁Bush	-12.0859
▁conscious	-12.0863
credit	-12.0864
Wi	-12.0866
▁laughing	-12.0867
▁critic	-12.0868
▁sustain	-12.0871
▁DPRK	-12.088
▁ceremonies	-12.088
▁charisma	-12.088
▁decree	-12.088
▁perfume	-12.088
▁Subcommittee	-12.088
▁pronunciation	-12.088
▁Everland	-12.0881
▁artwork	-12.0881
▁repatriation	-12.0881
▁Giants	-12.0882
▁Naju	-12.0884
▁Block	-12.0886
▁involves	-12.0886
▁Records	-12.0887
▁honorable	-12.0887
▁compact	-12.0889
Won	-12.0889
▁Namyang	-12.0889
▁diary	-12.089
stay	-12.089
▁widened	-12.0892
▁BB	-12.0897
tomic	-12.0897
approximately	-12.0901
dul	-12.0901
screen	-12.0901
▁shortened	-12.0904
▁Run	-12.0905
▁pest	-12.091
▁Resource	-12.0913
▁disappearing	-12.0916
▁arbitrarily	-12.0918
▁ascertain	-12.0918
▁maternity	-12.0918
▁referendum	-12.0918
▁reminiscent	-12.0918
▁dragged	-12.0918
▁layout	-12.092
▁Exist	-12.0923
▁80,000	-12.0924
▁clam	-12.0925
▁Ly	-12.0925
▁Month	-12.0937
culture	-12.0939
▁dreaming	-12.0941
▁Hy	-12.0947
▁1000	-12.0948
EL	-12.0948
▁pulling	-12.0955
▁Konkuk	-12.0956
▁RBI	-12.0956
▁duplicate	-12.0956
▁KEB	-12.0956
▁roadmap	-12.0956
▁secretaries	-12.0957
▁banning	-12.0958
▁globally	-12.0959
▁pile	-12.0959
▁tele	-12.0959
▁Sound	-12.0961
▁enrolled	-12.0962
flower	-12.0962
▁placement	-12.0964
▁Gan	-12.0965
▁aunt	-12.0971
Song	-12.0972
▁Dun	-12.0975
roll	-12.0975
▁decent	-12.0976
▁projectile	-12.0978
▁souvenirs	-12.098
▁86	-12.0982
OM	-12.0984
▁Martin	-12.0994
▁Commodity	-12.0994
▁Netmarble	-12.0994
▁Platform	-12.0994
▁accumulation	-12.0994
▁ambiguous	-12.0994
WSJ	-12.0995
▁Friends	-12.0995
▁Locate	-12.0996
▁Farmers	-12.1
▁VI	-12.1005
ryul	-12.1009
▁Pope	-12.101
▁2.3	-12.1016
HD	-12.102
▁trigger	-12.1021
▁teamwork	-12.1023
▁hunt	-12.1023
▁Point	-12.1028
west	-12.103
▁Families	-12.1033
▁controversies	-12.1033
▁diversified	-12.1033
▁ombudsman	-12.1033
▁rallies	-12.1033
▁trophy	-12.1033
▁caregiver	-12.1033
▁injected	-12.1033
▁Lanka	-12.1033
▁Past	-12.1035
▁convinced	-12.1036
▁relaxation	-12.1036
mmy	-12.1037
ville	-12.1042
urge	-12.1055
Young	-12.1057
▁Infant	-12.1065
cou	-12.1069
ena	-12.107
▁Biologics	-12.1071
▁Saemaeul	-12.1071
▁appetite	-12.1071
▁manuscript	-12.1071
▁7:30	-12.1071
▁massacre	-12.1071
▁damaging	-12.1071
▁radioactive	-12.1072
mitt	-12.1072
MW	-12.1074
operation	-12.1075
▁Share	-12.1075
▁displaying	-12.1079
▁Mass	-12.1079
▁3%	-12.108
▁selective	-12.1081
▁supplemented	-12.1081
▁pretend	-12.109
leaning	-12.1092
education	-12.1093
SNS	-12.1093
▁Accounts	-12.1094
(2)	-12.1097
▁enjoyable	-12.1101
▁Jordan	-12.111
▁cognitive	-12.111
▁ignoring	-12.111
▁octopus	-12.111
▁rupture	-12.111
▁Course	-12.111
ppellate	-12.111
▁formulating	-12.1111
▁Taek	-12.1116
Al	-12.1116
▁2.4	-12.1118
▁Lions	-12.112
▁End	-12.1127
▁baseman	-12.1129
product	-12.1131
going	-12.1132
green	-12.1135
erg	-12.1135
▁Mag	-12.1136
▁(6)	-12.1141
▁conflicting	-12.1143
rag	-12.1147
▁despair	-12.1149
anti	-12.1149
▁valve	-12.1149
dustrialization	-12.1154
▁concessions	-12.1155
▁(23	-12.1158
▁informing	-12.1163
▁Artist	-12.1163
▁nearest	-12.1163
▁mourn	-12.1167
▁93	-12.1169
▁Goo	-12.117
contract	-12.1171
▁appropriately	-12.1171
timate	-12.1173
▁plea	-12.1173
▁DB	-12.1176
▁(11	-12.1179
▁(22	-12.1181
▁thesis	-12.1186
▁exploit	-12.1186
▁Twenty	-12.1187
▁currencies	-12.1187
▁handicapped	-12.1187
▁puppy	-12.1187
▁preceding	-12.1187
▁LCD	-12.1187
▁Uljin	-12.1187
fact	-12.1188
▁editorial	-12.1188
▁70,000	-12.1189
▁revocation	-12.1189
▁birthplace	-12.1189
▁strap	-12.119
NO	-12.119
▁reminded	-12.1192
▁1993	-12.1192
▁cancelled	-12.1193
▁Mont	-12.1193
▁polling	-12.1195
▁treasurer	-12.1195
▁inserted	-12.1202
▁reinforced	-12.1202
▁lent	-12.1203
▁socio	-12.1204
▁hopeful	-12.1205
rge	-12.1206
▁disrupt	-12.1209
▁cord	-12.1209
▁beside	-12.1214
▁mono	-12.1217
▁envelope	-12.1226
▁transcript	-12.1226
▁yoga	-12.1227
▁Nepal	-12.1227
▁Silicon	-12.1227
▁Boeing	-12.1227
▁chasing	-12.1227
▁subsidization	-12.1227
▁Healing	-12.1227
▁Eung	-12.1229
activat	-12.1229
▁earners	-12.1235
▁coup	-12.1235
dress	-12.1237
▁backward	-12.1238
▁disrupted	-12.1238
▁0.5	-12.124
▁unify	-12.124
▁Box	-12.1243
▁soundness	-12.1244
▁restrain	-12.1246
KMA	-12.1249
▁insurers	-12.125
▁Joe	-12.1251
1%)	-12.1255
▁1.9	-12.1256
▁premiere	-12.1257
▁pillars	-12.1258
iya	-12.1262
▁reimburse	-12.1264
▁98	-12.1265
iff	-12.1266
▁cemetery	-12.1266
▁consequence	-12.1266
▁creature	-12.1266
▁illustration	-12.1266
▁pharmacy	-12.1266
▁vinyl	-12.1266
▁diligent	-12.1266
▁Ireland	-12.1266
▁farewell	-12.1266
assembl	-12.1272
▁occasionally	-12.1274
cru	-12.1275
host	-12.1282
0.7	-12.1287
▁pear	-12.129
cial	-12.1291
building	-12.1293
0.9	-12.1296
▁OK	-12.1298
rench	-12.1298
▁slave	-12.1304
▁assailant	-12.1305
▁expedition	-12.1305
▁impracticable	-12.1305
▁proposing	-12.1305
▁rabbit	-12.1305
▁tasty	-12.1305
▁grabbed	-12.1305
▁Afterwards	-12.1305
▁enrich	-12.1306
▁Strait	-12.1306
▁subtle	-12.1307
tat	-12.1307
▁wishing	-12.1307
▁Iksan	-12.1309
EP	-12.1311
▁inroads	-12.1311
kind	-12.1313
▁450	-12.1316
▁vividly	-12.1316
9%)	-12.1317
fil	-12.1325
ONE	-12.1326
used	-12.1338
▁Consultati	-12.1343
"):	-12.1343
▁Anniversary	-12.1345
▁Individual	-12.1345
▁Severance	-12.1345
▁economist	-12.1345
▁engraved	-12.1345
▁inadequate	-12.1345
▁throat	-12.1345
▁valuation	-12.1345
▁overheated	-12.1345
▁courtesy	-12.1345
▁Kevin	-12.1345
▁adventure	-12.1345
▁heightened	-12.1345
▁directing	-12.1346
▁mankind	-12.1346
▁Classic	-12.1347
▁optimized	-12.1352
5.4	-12.1355
▁oneself	-12.136
ico	-12.1361
▁wherever	-12.1363
Through	-12.1369
Lo	-12.137
▁encountered	-12.137
▁relocate	-12.1374
▁Jungang	-12.138
▁extinguisher	-12.138
▁formula	-12.1383
▁Greek	-12.1384
▁fertilizer	-12.1384
▁incidence	-12.1384
▁manipulating	-12.1384
▁petroleum	-12.1384
▁sausage	-12.1384
▁dentist	-12.1384
▁palm	-12.1385
8.5	-12.1386
▁Anyway	-12.1387
▁Artists	-12.1388
▁dropping	-12.1388
▁beaten	-12.1392
▁trap	-12.1395
▁vested	-12.1398
▁roughly	-12.14
▁Send	-12.1401
▁Cell	-12.1407
▁360	-12.1408
▁differential	-12.1408
scenes	-12.1409
▁tasted	-12.1411
good	-12.1411
▁rolled	-12.1411
6.4	-12.1412
nyeo	-12.1415
▁Rio	-12.1418
▁Short	-12.1418
Nam	-12.142
came	-12.1423
VE	-12.1423
▁technician	-12.1424
▁fluctuate	-12.1424
▁striving	-12.1424
▁Conduct	-12.1425
▁Dutch	-12.1425
▁Silver	-12.1426
▁Youtube	-12.1427
ison	-12.1429
▁Secondary	-12.1429
▁coating	-12.1434
▁possessed	-12.1437
▁Rhee	-12.1447
hon	-12.1449
▁fixing	-12.1449
▁visually	-12.145
▁authentic	-12.1461
▁LPG	-12.1462
▁mutually	-12.1462
▁Basketball	-12.1464
▁Cemetery	-12.1464
▁exaggeration	-12.1464
▁genius	-12.1464
▁Nakdonggang	-12.1464
▁envy	-12.1465
▁notebook	-12.1465
▁innovate	-12.1465
bble	-12.1467
▁joyful	-12.1468
▁herald	-12.1468
▁carpet	-12.1469
▁Liga	-12.1469
▁Pusan	-12.1469
▁perceived	-12.1469
▁laborers	-12.1475
▁hotter	-12.1479
expected	-12.1488
▁median	-12.149
▁associate	-12.1494
▁Croatia	-12.1504
▁Greece	-12.1504
▁phenomena	-12.1504
▁ambition	-12.1504
▁arranging	-12.1504
▁Frank	-12.1504
▁northwest	-12.1505
▁prioritize	-12.1505
▁elimination	-12.1506
▁Round	-12.1506
▁Corruption	-12.1507
▁freshmen	-12.1508
▁wandering	-12.1519
stein	-12.1521
▁underwater	-12.1522
ryang	-12.1525
▁hunting	-12.1525
▁Bit	-12.1529
▁teenage	-12.1541
▁Hungarian	-12.1545
▁Passenger	-12.1545
▁abstract	-12.1545
▁patience	-12.1545
▁streak	-12.1545
▁tragic	-12.1545
▁Automobile	-12.1545
▁angel	-12.1545
▁Institutions	-12.1545
▁transmit	-12.1547
▁Seminar	-12.155
▁overturned	-12.155
▁qualifying	-12.1556
wind	-12.1565
▁tightly	-12.1568
▁dumping	-12.1568
lease	-12.157
Don	-12.157
while	-12.1571
Free	-12.1573
▁Train	-12.1575
deung	-12.1577
ika	-12.1584
▁Android	-12.1585
▁Practice	-12.1585
▁compilation	-12.1585
▁humidifier	-12.1585
▁chorus	-12.1585
▁transmitted	-12.1586
▁minorities	-12.1587
▁bite	-12.1588
▁counting	-12.1592
▁vitalize	-12.1593
ugh	-12.1593
▁cookies	-12.1593
▁pressured	-12.1602
degree	-12.1611
Consider	-12.1611
wife	-12.1614
evertheless	-12.1625
▁Ukraine	-12.1626
▁harbor	-12.1626
▁sensibility	-12.1626
▁surviving	-12.1626
▁vicinity	-12.1626
▁copper	-12.1626
▁Goguryeo	-12.1626
▁firing	-12.1627
▁competence	-12.1627
▁Steven	-12.163
▁1945	-12.1633
▁Daelim	-12.1634
▁terrorism	-12.1642
▁capitalization	-12.1645
direct	-12.1646
cancer	-12.1652
▁rumored	-12.1652
evaluation	-12.1652
▁unexpectedly	-12.1652
cci	-12.1655
▁96	-12.1655
▁transported	-12.1656
▁sometime	-12.1658
cco	-12.1659
▁assemble	-12.166
▁Celltrion	-12.1667
▁Conservation	-12.1667
▁Incident	-12.1667
▁immersion	-12.1667
▁ridiculous	-12.1667
▁quarrel	-12.1667
▁SOC	-12.1667
▁slide	-12.1667
▁Gift	-12.1669
▁Syrian	-12.1672
arily	-12.1674
▁lighter	-12.1677
▁relie	-12.1678
App	-12.1678
center	-12.1681
▁1:1	-12.1685
▁shy	-12.1691
▁Aid	-12.1691
mak	-12.1695
issue	-12.1697
▁rebuild	-12.1702
3.9	-12.1706
▁114	-12.1707
▁Shrine	-12.1708
▁adequate	-12.1708
▁legitimacy	-12.1708
▁prototype	-12.1708
▁garlic	-12.1708
▁cruel	-12.1708
▁distress	-12.1708
▁2-0	-12.1708
▁2,500	-12.1709
▁mural	-12.1709
▁thrill	-12.171
▁shipper	-12.1715
▁intervened	-12.1723
▁aggressively	-12.1724
▁trim	-12.1726
▁accompany	-12.1729
▁burnt	-12.1734
oi	-12.1734
6.7	-12.1737
too	-12.1738
▁praying	-12.1742
▁cracked	-12.1745
▁demonstrating	-12.1749
▁unpredictable	-12.1749
▁storing	-12.1749
▁Jangchung	-12.175
▁municipalities	-12.1751
lex	-12.1751
▁linkage	-12.1753
▁liable	-12.1754
▁pillar	-12.1756
▁spec	-12.1757
▁KAIST	-12.1766
▁nobody	-12.1766
▁portrayed	-12.1767
▁bug	-12.1768
father	-12.1776
introduction	-12.1776
world	-12.1776
▁sparking	-12.1778
▁Walk	-12.1781
▁Stra	-12.1789
▁Gyeongin	-12.179
▁cerebr	-12.179
▁Yesterday	-12.179
▁swallow	-12.179
▁levy	-12.179
▁Ajou	-12.179
▁surf	-12.179
▁robe	-12.179
▁feast	-12.179
▁loyalty	-12.1791
▁Citing	-12.1792
▁1/3	-12.1803
4.4	-12.1804
miss	-12.1804
▁cultivated	-12.1809
▁Materials	-12.181
▁justification	-12.1811
electric	-12.1818
Busan	-12.182
▁exporters	-12.1823
▁Range	-12.1824
visit	-12.1825
▁Cy	-12.1832
▁radish	-12.1832
▁turtle	-12.1832
▁KOTRA	-12.1832
▁declaring	-12.1832
▁southeastern	-12.1832
▁Visitors	-12.1832
LED	-12.1834
▁reconstructed	-12.1837
4.8	-12.1839
OR	-12.1841
▁leftover	-12.1842
▁7,000	-12.1851
▁defended	-12.1855
▁Academic	-12.1858
Defense	-12.186
▁deteriorate	-12.1863
Yang	-12.1865
gle	-12.1868
ncluding	-12.1869
▁Juk	-12.187
▁booming	-12.1871
dari	-12.1871
4.2	-12.1872
▁Namhansanseong	-12.1873
[...]
