<unk>	0
<s>	0
</s>	0
▁the	-2.92311
,	-3.27086
.	-3.43404
▁of	-3.65223
s	-3.683
▁and	-3.86891
▁to	-3.89314
▁a	-4.12272
▁in	-4.21729
-	-4.40711
▁is	-4.56502
▁that	-4.80465
'	-4.83321
▁for	-4.89129
▁	-4.91354
▁I	-5.10743
▁on	-5.11411
▁The	-5.12847
▁be	-5.26206
▁it	-5.27313
▁as	-5.29499
▁with	-5.32441
▁was	-5.36916
▁by	-5.39615
ing	-5.45481
▁are	-5.51029
▁will	-5.52509
▁"	-5.58012
▁at	-5.70621
ed	-5.73557
▁from	-5.79467
▁you	-5.7979
▁have	-5.83379
▁has	-5.8738
t	-5.91213
▁which	-5.92069
▁who	-5.96019
▁not	-5.96939
d	-5.97247
▁an	-6.01
▁this	-6.10856
th	-6.11256
▁Korea	-6.1249
▁but	-6.17178
▁(	-6.17634
▁In	-6.22057
▁can	-6.22396
▁or	-6.24698
▁said	-6.33656
▁It	-6.36187
m	-6.36985
▁shall	-6.37985
?	-6.39425
▁year	-6.39936
▁been	-6.4245
▁time	-6.42568
▁he	-6.43274
ly	-6.44145
▁were	-6.45351
"	-6.49515
▁there	-6.50125
▁Korean	-6.51631
▁so	-6.51678
▁A	-6.55734
▁Kim	-6.56653
▁his	-6.58903
."	-6.59557
)	-6.5962
▁such	-6.60061
▁also	-6.61509
▁after	-6.62838
▁people	-6.63127
y	-6.64564
▁when	-6.65938
▁more	-6.66747
er	-6.67628
▁their	-6.67729
▁if	-6.71662
S	-6.71719
▁they	-6.72234
▁than	-6.728
▁first	-6.7303
▁out	-6.73986
▁about	-6.74496
n	-6.74587
▁head	-6.75629
e	-6.77365
▁we	-6.83502
in	-6.85964
▁Gyeonggi	-6.86743
▁because	-6.88935
▁one	-6.90065
▁Seoul	-6.93872
▁my	-6.94282
al	-6.95925
▁up	-6.98709
▁government	-6.98714
do	-6.99238
▁where	-7.00775
▁all	-7.00984
re	-7.02342
▁may	-7.02863
▁had	-7.03387
▁public	-7.04375
▁its	-7.0461
▁me	-7.05088
▁through	-7.06804
gu	-7.08307
▁won	-7.0883
▁last	-7.09579
▁including	-7.11652
▁other	-7.11864
▁do	-7.12638
▁under	-7.13165
▁Gu	-7.13667
▁This	-7.14099
▁new	-7.1487
▁two	-7.15017
▁1	-7.15347
▁like	-7.15676
▁due	-7.1649
▁only	-7.16707
▁North	-7.18444
▁U	-7.18613
r	-7.18691
▁over	-7.20487
,"	-7.20566
▁day	-7.21002
▁2	-7.21746
▁your	-7.21975
▁held	-7.23531
▁Province	-7.2443
▁no	-7.24839
ll	-7.2529
st	-7.26058
▁Lee	-7.27194
▁high	-7.27354
▁companies	-7.27865
/	-7.27907
ri	-7.28602
▁would	-7.30509
▁should	-7.30698
▁National	-7.3139
▁re	-7.31472
es	-7.32047
▁support	-7.33982
▁work	-7.3523
▁If	-7.35381
a	-7.36074
▁made	-7.36185
▁number	-7.37029
▁local	-7.37061
▁As	-7.37981
▁many	-7.38754
▁We	-7.38809
o	-7.38872
▁into	-7.39043
▁market	-7.40211
▁years	-7.40585
▁3	-7.414
▁make	-7.41599
▁company	-7.42329
▁between	-7.42829
▁business	-7.42863
▁system	-7.43766
▁them	-7.44023
▁take	-7.44725
:	-7.45285
▁use	-7.45365
l	-7.46968
▁school	-7.47102
▁even	-7.4746
▁since	-7.4935
I	-7.49542
se	-7.49981
▁There	-7.50136
i	-7.51094
▁go	-7.52451
▁while	-7.5248
▁members	-7.52557
▁President	-7.53288
▁well	-7.53843
▁order	-7.54561
▁Park	-7.55346
▁good	-7.55694
▁10	-7.56243
k	-7.56747
▁each	-7.57234
▁team	-7.57496
le	-7.57803
),	-7.5856
▁her	-7.60089
▁He	-7.60881
▁want	-7.61585
▁think	-7.62331
ve	-7.62665
▁get	-7.62688
▁5	-7.63063
▁management	-7.64064
▁place	-7.64264
▁being	-7.64417
or	-7.6451
▁next	-7.64614
▁expected	-7.64905
A	-7.64913
▁during	-7.65379
▁three	-7.65436
▁some	-7.65796
▁When	-7.66001
▁S	-7.66085
▁project	-7.66692
▁any	-7.67512
▁Article	-7.67685
ation	-7.6777
▁our	-7.68795
▁official	-7.68841
▁4	-7.68916
▁meeting	-7.69122
▁million	-7.69433
▁City	-7.69445
▁etc	-7.69639
▁before	-7.69643
▁Party	-7.69772
▁Ministry	-7.69929
on	-7.70508
▁p	-7.70862
▁K	-7.70862
▁know	-7.71251
il	-7.71341
▁various	-7.71501
▁person	-7.71502
▁Act	-7.71739
▁students	-7.71802
▁need	-7.72097
an	-7.72644
▁office	-7.72844
▁could	-7.73263
▁Do	-7.73433
▁area	-7.73579
p	-7.74385
▁necessary	-7.74726
▁second	-7.74809
b	-7.75487
ers	-7.76457
▁plan	-7.76761
▁month	-7.7691
▁B	-7.76947
▁police	-7.7696
▁case	-7.77034
▁China	-7.77108
▁Committee	-7.77522
▁what	-7.77645
it	-7.78179
▁same	-7.78259
ur	-7.79686
▁most	-7.79764
▁E	-7.80023
g	-7.80674
ro	-7.80901
▁19	-7.8127
▁now	-7.81608
▁education	-7.81615
▁residents	-7.82072
▁special	-7.82188
▁service	-7.82364
ic	-7.82489
▁long	-7.82633
▁used	-7.82975
▁Metropolitan	-7.83026
ment	-7.83255
▁world	-7.83669
▁without	-7.83767
▁don	-7.83985
▁South	-7.84187
C	-7.84282
▁Government	-7.85858
▁de	-7.86166
▁days	-7.86221
▁products	-7.87394
▁end	-7.87619
▁former	-7.87798
▁right	-7.87798
en	-7.87943
▁life	-7.87973
▁around	-7.87992
▁Center	-7.88385
▁information	-7.88438
The	-7.8847
▁how	-7.88791
▁industry	-7.88842
▁20	-7.89028
▁am	-7.89139
▁You	-7.89234
▁investigation	-7.89363
▁C	-7.89676
▁related	-7.89686
▁small	-7.90082
▁just	-7.90506
nt	-7.90662
ra	-7.91032
▁event	-7.91068
▁city	-7.91077
▁According	-7.9137
▁development	-7.92109
▁lot	-7.92137
▁6	-7.93304
ion	-7.9378
▁facilities	-7.9388
▁saying	-7.9511
▁center	-7.95412
ho	-7.95416
▁increase	-7.95466
▁children	-7.95707
dong	-7.95922
▁following	-7.96527
▁country	-7.96715
▁large	-7.96737
D	-7.96965
▁billion	-7.97053
▁see	-7.97069
▁home	-7.97373
▁much	-7.97426
she	-7.98141
▁within	-7.98492
c	-7.98653
ive	-7.98852
nd	-7.98935
▁7	-7.99361
▁period	-7.99475
▁Moon	-7.9979
▁food	-7.99863
▁performance	-8.0019
P	-8.00812
▁rate	-8.00818
▁fact	-8.01171
▁On	-8.01176
▁price	-8.01513
▁among	-8.01812
▁announced	-8.01842
2	-8.01894
▁group	-8.01994
▁did	-8.02284
▁help	-8.02458
▁University	-8.02614
▁social	-8.03228
▁against	-8.03337
▁operation	-8.04218
▁national	-8.04263
▁party	-8.04567
▁economic	-8.0481
▁G	-8.04925
▁very	-8.05221
▁process	-8.05228
▁fire	-8.0574
▁referred	-8.06255
▁Jung	-8.06985
▁total	-8.07211
▁water	-8.07504
▁come	-8.07934
un	-8.08071
ar	-8.08198
T	-8.0831
ity	-8.08734
ul	-8.09008
u	-8.09067
▁way	-8.0938
▁found	-8.09626
▁report	-8.09861
▁At	-8.09861
M	-8.1002
▁financial	-8.10068
▁him	-8.10306
▁part	-8.10394
▁back	-8.10438
B	-8.10486
▁whether	-8.10644
▁she	-8.11231
▁become	-8.11453
▁Jae	-8.11461
▁situation	-8.11616
▁charge	-8.11765
▁attention	-8.1371
▁product	-8.14132
▁going	-8.145
▁family	-8.14636
▁8	-8.14761
▁budget	-8.15098
▁car	-8.15262
▁un	-8.15281
▁policy	-8.15285
▁change	-8.15455
▁difficult	-8.16076
▁future	-8.16107
▁'	-8.16148
▁visit	-8.16165
▁30	-8.16221
▁provide	-8.16951
▁Governor	-8.16991
▁those	-8.17098
▁hard	-8.1754
▁construction	-8.18026
▁working	-8.1821
▁power	-8.18288
▁cases	-8.18408
▁amount	-8.18552
▁set	-8.18923
▁again	-8.19133
▁officials	-8.19215
ne	-8.19499
▁every	-8.1967
▁means	-8.19977
▁committee	-8.20542
▁different	-8.2073
ent	-8.20834
▁9	-8.20848
▁Minister	-8.21073
▁down	-8.21107
up	-8.21153
▁member	-8.21392
▁Office	-8.21472
the	-8.21727
▁together	-8.21907
h	-8.22409
G	-8.2284
▁interest	-8.23049
▁measures	-8.23067
▁culture	-8.23741
▁Dong	-8.23768
▁problem	-8.24133
▁activities	-8.24519
▁hope	-8.24554
to	-8.247
▁particular	-8.24833
▁Busan	-8.25254
E	-8.25511
her	-8.25569
▁term	-8.25738
min	-8.25754
ary	-8.25951
▁reported	-8.26053
▁received	-8.26085
ry	-8.26098
▁possible	-8.26168
▁Ordinance	-8.2624
san	-8.26264
▁countries	-8.26301
hereinafter	-8.26431
f	-8.27045
▁real	-8.27212
▁sales	-8.27271
▁best	-8.2731
▁say	-8.27327
▁Assembly	-8.27429
▁province	-8.27664
▁room	-8.28091
▁major	-8.28105
▁Please	-8.28366
ter	-8.28465
▁Japan	-8.28596
▁private	-8.28674
ma	-8.28958
▁percent	-8.29028
▁That	-8.29098
▁main	-8.2942
▁give	-8.29527
able	-8.2959
O	-8.29704
▁director	-8.29748
na	-8.30003
▁job	-8.30031
▁matters	-8.30165
▁US	-8.3049
We	-8.30524
▁game	-8.30562
▁experience	-8.30655
▁women	-8.30675
▁So	-8.30706
▁reason	-8.30863
▁11	-8.31133
F	-8.31178
▁No	-8.31372
▁start	-8.31427
▁Re	-8.31902
▁foreign	-8.31973
▁Samsung	-8.32147
w	-8.32476
▁until	-8.32586
ce	-8.32677
▁four	-8.32683
▁based	-8.32877
▁here	-8.32889
▁show	-8.32931
▁P	-8.32965
▁department	-8.33053
▁today	-8.33065
▁using	-8.33084
")	-8.33095
▁important	-8.33119
▁money	-8.33223
▁Education	-8.33372
▁An	-8.33435
▁pay	-8.33544
▁general	-8.3368
▁areas	-8.34182
▁past	-8.34234
▁check	-8.34249
▁too	-8.3431
L	-8.34331
▁data	-8.34344
ate	-8.34371
▁technology	-8.34473
▁M	-8.34647
▁12	-8.34786
▁growth	-8.34816
▁Chinese	-8.34947
3	-8.35021
▁15	-8.35076
▁increased	-8.35155
mi	-8.35392
▁five	-8.35619
▁able	-8.35691
▁president	-8.35722
▁investment	-8.35964
▁per	-8.35977
▁half	-8.36042
▁test	-8.36112
▁why	-8.36125
▁week	-8.36389
rd	-8.36412
▁Japanese	-8.36419
▁Han	-8.36518
▁still	-8.36676
▁decided	-8.36746
▁left	-8.36839
li	-8.36978
▁workers	-8.37014
▁media	-8.37118
▁request	-8.37243
▁Council	-8.37252
▁level	-8.37272
R	-8.37283
▁came	-8.37365
▁safety	-8.3769
el	-8.37733
4	-8.37742
▁off	-8.37975
▁New	-8.38002
▁house	-8.38098
▁result	-8.38418
▁D	-8.38532
▁building	-8.39182
▁making	-8.39322
v	-8.39448
▁low	-8.3954
▁us	-8.40171
▁co	-8.40578
▁early	-8.40608
▁After	-8.40787
▁find	-8.41294
▁tax	-8.41324
▁Trump	-8.4138
▁receive	-8.41405
▁feel	-8.4187
▁T	-8.41987
▁e	-8.42129
▁pursua	-8.4222
won	-8.42407
▁took	-8.42648
▁labor	-8.42812
▁issue	-8.43523
▁military	-8.43591
ci	-8.43597
▁released	-8.4376
at	-8.43869
▁results	-8.43999
▁health	-8.44101
▁projects	-8.44301
▁own	-8.44372
▁name	-8.44496
▁site	-8.4456
▁What	-8.44666
▁paragraph	-8.44767
▁agreement	-8.44849
et	-8.4525
am	-8.45494
▁domestic	-8.45834
▁KRW	-8.45844
▁F	-8.45877
▁Incheon	-8.45903
de	-8.4632
▁purpose	-8.46422
te	-8.46689
▁relevant	-8.4677
▁research	-8.46906
▁affairs	-8.47131
si	-8.47199
▁Cho	-8.47221
▁Ma	-8.4748
▁these	-8.47848
▁demand	-8.47886
▁However	-8.48028
▁law	-8.48164
▁care	-8.4824
▁economy	-8.48244
▁global	-8.48283
.”	-8.48651
▁Co	-8.49159
▁strong	-8.49177
▁Choi	-8.49178
lo	-8.49231
▁cultural	-8.49367
▁t	-8.49927
▁f	-8.50235
▁state	-8.50338
K	-8.50406
▁young	-8.50429
▁For	-8.50479
▁Dae	-8.50485
▁called	-8.50518
ist	-8.50655
▁hold	-8.50775
▁open	-8.50781
▁front	-8.5108
ting	-8.51448
▁environment	-8.51749
▁must	-8.51823
▁Chairman	-8.51848
▁does	-8.51849
ated	-8.51995
us	-8.52031
▁great	-8.52033
▁put	-8.52128
▁Although	-8.52136
▁addition	-8.52312
▁human	-8.52388
▁attached	-8.52555
▁payment	-8.52617
▁Hong	-8.52756
H	-8.52935
▁Court	-8.53013
▁citizens	-8.53153
▁18	-8.53227
1	-8.53503
▁chairman	-8.5371
▁current	-8.53778
po	-8.53854
▁create	-8.54154
▁plans	-8.54633
▁look	-8.54698
ia	-8.54816
▁full	-8.5497
▁medical	-8.55056
▁My	-8.55062
▁less	-8.55075
ha	-8.55086
▁live	-8.55102
▁Institute	-8.55356
▁court	-8.55377
▁music	-8.55485
ng	-8.55608
man	-8.55676
▁prosecution	-8.55678
▁went	-8.55814
▁play	-8.55816
ch	-8.55837
▁already	-8.55865
▁body	-8.56104
est	-8.56178
).	-8.56258
▁meet	-8.56359
ta	-8.56462
▁Jong	-8.56489
▁point	-8.56535
▁prevent	-8.56544
▁provincial	-8.56575
▁13	-8.56618
▁established	-8.56868
la	-8.56991
▁once	-8.56994
▁May	-8.57212
▁according	-8.57385
▁hours	-8.57394
▁times	-8.57598
N	-8.57698
▁side	-8.57736
▁O	-8.57897
▁trade	-8.57905
▁please	-8.58088
▁love	-8.58235
jin	-8.58338
▁paid	-8.58355
▁participate	-8.58449
ization	-8.58582
▁free	-8.58869
▁floor	-8.58928
▁season	-8.58937
▁expenses	-8.58967
▁man	-8.5925
▁To	-8.59426
▁stage	-8.59441
▁program	-8.59443
id	-8.59722
▁competition	-8.59791
▁both	-8.60208
ge	-8.60248
▁cooperation	-8.60311
▁self	-8.60367
ted	-8.60678
▁employees	-8.60894
▁fine	-8.60962
▁services	-8.61154
▁Association	-8.61251
ness	-8.61277
▁apply	-8.61628
▁send	-8.61642
▁land	-8.61645
▁seems	-8.61742
7	-8.61881
▁top	-8.62025
▁space	-8.62052
z	-8.6219
rs	-8.62194
▁16	-8.62298
▁line	-8.62329
▁conducted	-8.62481
▁big	-8.62517
▁lead	-8.6253
▁explained	-8.62543
▁living	-8.62545
▁Young	-8.62698
▁14	-8.62765
▁V	-8.6312
▁cannot	-8.63125
vi	-8.63178
▁They	-8.63374
▁selected	-8.63459
su	-8.63515
▁District	-8.6372
▁pre	-8.63814
▁months	-8.6398
▁recently	-8.64114
▁production	-8.64128
▁application	-8.64132
ju	-8.6418
▁date	-8.64348
▁old	-8.64515
▁ceremony	-8.64908
▁contract	-8.64929
▁training	-8.65049
▁Service	-8.65151
▁position	-8.65236
0	-8.65242
▁design	-8.65249
ca	-8.65283
▁inter	-8.654
▁late	-8.65471
sa	-8.65552
tic	-8.65604
▁got	-8.65618
▁morning	-8.6564
▁class	-8.65787
ti	-8.66011
ru	-8.66165
age	-8.66367
▁United	-8.66423
co	-8.665
▁field	-8.66742
▁100	-8.66743
ck	-8.66821
▁Shin	-8.67001
▁organization	-8.67071
▁Democratic	-8.67129
▁Since	-8.67341
▁inspection	-8.67384
time	-8.67399
▁organizations	-8.67789
▁continue	-8.67812
▁representative	-8.67967
im	-8.68052
▁popular	-8.6826
▁English	-8.68279
▁summit	-8.68361
▁agency	-8.68362
U	-8.68366
be	-8.68472
▁cost	-8.68508
▁along	-8.68835
ol	-8.68887
▁book	-8.69014
▁short	-8.69051
▁then	-8.69133
▁accident	-8.69136
▁prices	-8.69181
gi	-8.69197
▁away	-8.69384
ating	-8.69466
▁started	-8.69644
▁administration	-8.69727
di	-8.69738
▁non	-8.69899
▁became	-8.69942
ant	-8.7011
▁taking	-8.70326
mo	-8.70349
▁improve	-8.70563
▁opening	-8.70676
▁community	-8.70796
▁thought	-8.70804
▁visited	-8.70903
is	-8.71153
▁Se	-8.71194
▁income	-8.71221
▁better	-8.71419
▁administrative	-8.71536
▁welfare	-8.71767
ang	-8.71785
▁war	-8.71917
▁air	-8.72069
▁final	-8.72072
▁likely	-8.72088
▁decision	-8.72134
▁(1)	-8.72175
ke	-8.72244
me	-8.72277
▁leader	-8.72382
▁video	-8.72514
▁Gwangju	-8.72543
▁international	-8.72614
▁Where	-8.72686
less	-8.72693
▁Mayor	-8.72709
▁night	-8.72857
▁Commission	-8.72884
soo	-8.73071
▁establish	-8.73212
▁Seo	-8.73338
▁another	-8.73435
▁asked	-8.73546
▁led	-8.73594
▁soon	-8.73802
▁tell	-8.73997
▁Kang	-8.74052
▁election	-8.74097
ok	-8.74252
▁treatment	-8.74335
as	-8.74463
▁b	-8.74535
▁g	-8.74605
▁School	-8.74701
▁damage	-8.74703
▁promote	-8.74799
▁World	-8.7481
ance	-8.74928
▁17	-8.75007
▁move	-8.75027
▁child	-8.75112
▁exchange	-8.75206
ong	-8.75454
▁De	-8.75512
ver	-8.75529
▁pro	-8.75554
young	-8.75697
▁Ji	-8.75811
▁Ha	-8.75832
no	-8.75863
▁located	-8.7608
▁account	-8.76311
▁third	-8.7634
▁history	-8.76476
▁trial	-8.76484
ial	-8.76577
▁let	-8.76597
x	-8.76761
▁role	-8.76874
▁store	-8.7712
▁things	-8.77138
▁form	-8.7754
▁known	-8.77559
▁Even	-8.7773
▁security	-8.77927
▁March	-8.77947
▁confirmed	-8.7802
▁showed	-8.78095
▁Group	-8.78269
▁subject	-8.78314
▁survey	-8.7849
▁Jeju	-8.78497
▁control	-8.78524
▁Ho	-8.78784
ir	-8.78932
▁light	-8.79053
pe	-8.79076
▁International	-8.79093
▁face	-8.79174
▁return	-8.79263
▁senior	-8.79342
▁With	-8.79409
▁parents	-8.79482
um	-8.79863
▁rights	-8.79865
ty	-8.79988
▁began	-8.80044
▁caused	-8.80115
▁attended	-8.80411
8	-8.80418
▁provided	-8.80506
",	-8.80803
▁hospital	-8.8081
6	-8.81013
▁exhibition	-8.81046
▁Nam	-8.81087
▁didn	-8.81122
▁problems	-8.8124
▁added	-8.81339
▁Police	-8.81376
▁region	-8.81824
op	-8.81917
▁employment	-8.81927
▁sent	-8.82061
ling	-8.82191
▁Jin	-8.82481
ring	-8.8257
▁How	-8.8261
▁Bo	-8.82763
▁movie	-8.82815
▁value	-8.82861
▁middle	-8.82973
▁response	-8.83028
▁previous	-8.83169
▁dis	-8.83177
▁ex	-8.83224
▁additional	-8.83269
year	-8.83507
▁institutions	-8.83689
▁age	-8.83731
ine	-8.83754
▁policies	-8.83878
▁card	-8.83893
▁art	-8.84081
▁political	-8.84333
▁run	-8.84424
▁society	-8.8443
▁ruling	-8.845
▁festival	-8.84513
▁far	-8.84551
▁review	-8.84608
▁road	-8.84658
▁housing	-8.84721
It	-8.84799
▁district	-8.84866
▁quality	-8.84901
▁phone	-8.8494
▁players	-8.84989
▁buy	-8.85044
▁leave	-8.85111
▁having	-8.85264
▁keep	-8.8535
▁bus	-8.85362
▁House	-8.85382
▁fans	-8.85396
▁25	-8.85548
▁24	-8.85574
▁Mi	-8.85616
woo	-8.85706
▁overseas	-8.85712
▁participated	-8.85807
▁cause	-8.85941
(	-8.86045
▁persons	-8.86064
▁Can	-8.8619
▁travel	-8.86216
▁minutes	-8.8636
ous	-8.86507
9	-8.86695
▁actively	-8.8673
ga	-8.86807
▁supply	-8.86826
▁directly	-8.86984
▁present	-8.87042
▁changed	-8.87047
▁little	-8.87395
▁experts	-8.87443
▁prepare	-8.87455
▁opposition	-8.87481
▁pointed	-8.87519
▁joint	-8.87712
▁Yang	-8.87893
▁effect	-8.88144
▁increasing	-8.88154
▁conduct	-8.88245
▁near	-8.88348
ies	-8.88407
▁R	-8.88451
▁Min	-8.88603
▁chief	-8.88617
▁match	-8.88684
▁hit	-8.88738
▁insurance	-8.88817
▁call	-8.88821
▁enjoy	-8.88823
Korean	-8.88902
ized	-8.88916
▁April	-8.88947
▁Tae	-8.89038
▁promotion	-8.89196
▁stock	-8.89232
▁study	-8.89658
old	-8.89736
one	-8.89806
▁Na	-8.89841
▁six	-8.89911
▁facility	-8.89996
W	-8.89997
▁Me	-8.90052
▁develop	-8.90074
ism	-8.90188
▁50	-8.90368
▁Sang	-8.90373
▁view	-8.90415
bu	-8.90516
▁completed	-8.90776
▁States	-8.91013
▁film	-8.91043
5	-8.91142
▁basic	-8.91155
▁traditional	-8.91205
▁applied	-8.91248
▁Jang	-8.91284
▁Wa	-8.91289
▁con	-8.91311
▁manager	-8.91334
▁civil	-8.91473
▁schools	-8.91539
▁later	-8.91569
ad	-8.91675
▁operate	-8.9171
▁press	-8.91809
lu	-8.91883
▁funds	-8.91914
▁raised	-8.92016
▁conditions	-8.92022
▁existing	-8.92058
▁June	-8.92282
▁really	-8.92301
▁Sung	-8.92353
▁always	-8.92366
▁H	-8.92428
▁given	-8.92578
▁Liberty	-8.92847
▁trillion	-8.92847
▁evaluation	-8.93206
▁Station	-8.93243
▁revealed	-8.93408
▁Provincial	-8.93436
pi	-8.9352
▁customers	-8.93535
▁Public	-8.93648
▁businesses	-8.9384
▁July	-8.9399
▁CEO	-8.94131
▁sector	-8.94246
cheon	-8.94689
▁21	-8.94951
ung	-8.95028
▁trip	-8.95226
▁death	-8.95271
▁share	-8.95356
▁Be	-8.95712
▁But	-8.95764
▁advance	-8.95791
▁jobs	-8.95857
▁Jeong	-8.95876
▁often	-8.9588
ction	-8.95951
▁materials	-8.95975
▁eat	-8.95992
▁hand	-8.96155
▁student	-8.9634
▁least	-8.96357
▁industrial	-8.96517
▁taken	-8.96591
▁close	-8.96663
▁seen	-8.96663
▁rather	-8.96826
ally	-8.96907
way	-8.96943
▁emergency	-8.97092
▁Sa	-8.97322
▁story	-8.97372
▁lack	-8.97389
▁wage	-8.97423
▁Song	-8.97509
▁Si	-8.97594
▁Su	-8.97704
▁Cheong	-8.97735
▁Supreme	-8.97881
▁higher	-8.97955
▁27	-8.97974
▁medium	-8.98215
hyun	-8.98352
▁largest	-8.98506
▁Yoon	-8.98614
▁recent	-8.98634
pa	-8.98702
▁Affairs	-8.98932
▁Bank	-8.98941
▁rise	-8.9908
▁though	-8.99195
”	-8.99376
▁compared	-8.99405
▁planning	-8.99489
▁easy	-8.99607
▁possibility	-8.99703
ful	-8.99818
▁purchase	-8.99837
ni	-9.00055
▁di	-9.00418
ian	-9.00438
▁operating	-9.00498
▁clear	-9.006
▁average	-9.00628
▁Financial	-9.00839
▁met	-9.01106
▁never	-9.01183
▁events	-9.01233
▁ago	-9.01639
▁scene	-9.01682
▁Form	-9.01779
mb	-9.0181
▁list	-9.01895
ning	-9.02144
▁size	-9.02202
▁key	-9.02355
▁23	-9.02395
▁contact	-9.02434
▁Some	-9.02569
hee	-9.02705
▁post	-9.02781
▁2018	-9.02814
▁introduced	-9.02818
▁looking	-9.02838
▁submit	-9.02882
▁regular	-9.02882
▁outside	-9.02888
▁mother	-9.02967
▁enter	-9.03014
▁Seung	-9.03166
▁Kyung	-9.03219
▁September	-9.03259
▁conference	-9.03283
hi	-9.0329
ex	-9.0337
▁en	-9.0337
▁22	-9.03383
out	-9.03479
▁expand	-9.03491
▁others	-9.0368
▁energy	-9.03769
▁lower	-9.03794
▁council	-9.03853
▁establishment	-9.03924
▁news	-9.03962
▁professor	-9.03971
▁course	-9.03977
▁few	-9.04091
ize	-9.04144
▁fees	-9.04147
▁goal	-9.04193
term	-9.04339
▁issues	-9.04358
▁illegal	-9.04385
▁Hyun	-9.04595
▁officer	-9.04711
▁Pa	-9.04806
▁ask	-9.04825
▁Hyundai	-9.04884
▁dust	-9.04926
▁Asian	-9.05103
▁something	-9.05194
▁Festival	-9.05224
▁audit	-9.05244
▁believe	-9.05338
▁families	-9.05446
▁understand	-9.05448
▁enough	-9.05567
per	-9.05868
bo	-9.06202
▁costs	-9.06207
▁language	-9.06235
▁friend	-9.06324
▁heart	-9.06358
▁created	-9.0637
▁works	-9.06381
ut	-9.06517
▁cities	-9.06659
▁controversy	-9.06736
▁disaster	-9.06788
▁40	-9.06923
▁complex	-9.06926
▁village	-9.06967
▁Department	-9.07065
▁seven	-9.071
▁active	-9.07117
▁spread	-9.07178
▁Management	-9.07204
▁friends	-9.07323
▁L	-9.07385
tion	-9.07406
▁Gangwon	-9.07419
▁Provided	-9.0743
▁talk	-9.07435
▁legal	-9.07644
▁accordance	-9.0771
▁While	-9.07793
land	-9.07938
Y	-9.07996
▁Yes	-9.07996
om	-9.08002
▁reduce	-9.08051
▁professional	-9.08074
▁Mo	-9.08079
▁currently	-9.08282
▁developed	-9.08286
▁prepared	-9.08302
▁method	-9.08312
▁risk	-9.08358
▁opinions	-9.08386
▁interview	-9.08449
▁c	-9.08478
▁opinion	-9.08524
▁Agency	-9.08534
▁improvement	-9.08698
▁growing	-9.08733
▁vehicle	-9.08832
▁Then	-9.08878
▁yet	-9.08943
▁28	-9.09022
▁words	-9.091
▁Chang	-9.09131
▁photo	-9.09294
▁Research	-9.09295
▁points	-9.09422
▁afternoon	-9.09437
▁schedule	-9.09468
▁content	-9.09565
▁26	-9.09595
▁bank	-9.09777
▁try	-9.09792
▁record	-9.09806
▁Go	-9.09934
▁status	-9.09972
▁station	-9.10149
sized	-9.10162
▁She	-9.10337
▁li	-9.10357
▁equipment	-9.10384
nam	-9.10415
▁men	-9.10452
▁Trade	-9.1053
▁leading	-9.10567
▁October	-9.10653
ki	-9.10663
▁union	-9.10693
▁items	-9.10707
▁round	-9.10709
go	-9.10817
▁needed	-9.10837
▁opened	-9.1086
▁”	-9.10884
▁documents	-9.10925
▁kind	-9.10926
▁communication	-9.11032
▁groups	-9.11048
▁vice	-9.11153
▁sports	-9.11214
▁individual	-9.11353
▁expressed	-9.11358
▁question	-9.11365
▁female	-9.11412
▁waste	-9.1154
▁reform	-9.11551
▁target	-9.11666
▁online	-9.11757
▁Administration	-9.11903
▁Land	-9.12045
▁stop	-9.12125
▁efforts	-9.12201
wa	-9.12219
▁rain	-9.12417
he	-9.12529
▁tomorrow	-9.12543
▁Ro	-9.12602
gun	-9.12602
▁parties	-9.12655
act	-9.12661
▁getting	-9.12692
fi	-9.12741
ven	-9.1275
▁continued	-9.12866
ji	-9.12883
▁similar	-9.12929
▁deal	-9.12952
▁heat	-9.1307
▁transfer	-9.13123
▁regulations	-9.13279
▁sold	-9.13357
▁passed	-9.134
les	-9.1343
▁starting	-9.13555
▁Internet	-9.13558
▁single	-9.13724
mp	-9.13729
▁written	-9.13787
▁secretary	-9.13869
▁drama	-9.13893
▁personnel	-9.13965
ot	-9.14135
ba	-9.14187
▁model	-9.14188
▁capital	-9.14263
▁Chung	-9.14426
▁Ga	-9.14428
▁Yoo	-9.1451
▁relationship	-9.14527
▁designated	-9.14549
▁governor	-9.146
▁rest	-9.14858
▁programs	-9.14944
▁Gangnam	-9.14955
▁message	-9.1505
▁happy	-9.15069
▁fund	-9.15077
▁personal	-9.15124
▁traffic	-9.15125
▁Prime	-9.15182
ap	-9.15204
▁hall	-9.15354
line	-9.1549
▁staff	-9.15602
▁Mr	-9.15648
▁Electronics	-9.15672
▁N	-9.15772
▁university	-9.159
▁Justice	-9.15921
▁club	-9.15979
▁statement	-9.15995
▁sorry	-9.16017
▁session	-9.16033
va	-9.16109
▁minimum	-9.16204
▁considered	-9.16268
▁Yong	-9.16299
we	-9.16323
▁authorities	-9.1638
▁protect	-9.16403
▁attend	-9.16414
▁Sun	-9.16486
com	-9.16549
ide	-9.16551
▁August	-9.16566
▁burden	-9.16585
▁Health	-9.16624
▁told	-9.16679
▁quarter	-9.1668
▁po	-9.16836
▁transportation	-9.16944
▁standard	-9.16972
▁State	-9.16991
▁Daegu	-9.16998
▁nuclear	-9.17022
▁youth	-9.17072
yeon	-9.17161
▁Po	-9.17219
▁gave	-9.17256
▁credit	-9.17325
der	-9.17327
▁lost	-9.17341
▁natural	-9.17385
▁implement	-9.17503
ak	-9.17559
▁St	-9.1756
▁mind	-9.17569
side	-9.17618
▁read	-9.17648
▁further	-9.1766
▁division	-9.17739
▁fall	-9.17771
ber	-9.17783
▁January	-9.17795
▁bring	-9.17838
▁estate	-9.17989
sh	-9.18051
▁included	-9.18098
▁daily	-9.18183
▁sp	-9.1822
▁contents	-9.18224
▁mobile	-9.18241
▁ahead	-9.183
▁song	-9.18304
▁bill	-9.18393
▁cr	-9.18437
▁network	-9.18479
▁movement	-9.18497
▁sexual	-9.18549
sion	-9.18595
▁oil	-9.18649
▁Hwang	-9.18663
▁several	-9.18708
▁High	-9.18747
▁Won	-9.18756
▁shows	-9.1881
▁crisis	-9.18845
▁W	-9.18883
▁base	-9.18908
▁concert	-9.1902
▁built	-9.1904
▁pain	-9.19048
▁lives	-9.19092
▁bad	-9.19171
▁dream	-9.19216
▁First	-9.19315
▁makes	-9.1944
▁appointed	-9.19645
▁inside	-9.19728
▁direct	-9.19737
▁Corporation	-9.19747
▁heard	-9.19769
▁hot	-9.19772
▁nation	-9.19929
ence	-9.19938
▁temperature	-9.2003
▁Hall	-9.20047
30	-9.20277
che	-9.20466
▁generation	-9.20807
▁alone	-9.2104
▁candidate	-9.2108
V	-9.21158
In	-9.21186
▁December	-9.21236
▁minister	-9.21367
▁include	-9.21417
▁regional	-9.21441
▁One	-9.21469
▁raise	-9.21665
bi	-9.21721
▁And	-9.22429
▁vehicles	-9.22467
led	-9.22545
ard	-9.22549
▁rice	-9.22794
▁users	-9.22806
▁Vice	-9.22864
▁poor	-9.2298
▁November	-9.23074
▁college	-9.23176
▁parking	-9.23357
▁interested	-9.23662
▁famous	-9.23666
▁certain	-9.23728
▁summer	-9.23811
▁board	-9.23891
▁29	-9.23907
▁structure	-9.23912
▁app	-9.24047
▁win	-9.24073
con	-9.24098
▁TV	-9.24179
▁easily	-9.24263
▁action	-9.2437
▁direction	-9.24486
▁operated	-9.24492
denuclearization	-9.24573
▁charges	-9.24606
▁Culture	-9.24614
▁Labor	-9.24619
▁agencies	-9.24738
▁picture	-9.24775
▁changes	-9.24803
▁needs	-9.24973
▁institution	-9.251
▁regarding	-9.25104
▁apartment	-9.25116
▁commercial	-9.25174
day	-9.25183
▁deliberation	-9.25278
▁Development	-9.25301
wi	-9.25335
▁receiving	-9.25362
ical	-9.25453
▁woman	-9.25466
▁immediately	-9.25475
▁31	-9.25612
▁played	-9.25735
▁central	-9.25738
▁train	-9.25858
▁practice	-9.25905
▁cut	-9.26128
ative	-9.26183
ship	-9.26186
▁opportunity	-9.26241
tal	-9.26269
▁grow	-9.26305
▁cold	-9.26323
ities	-9.26342
▁restaurant	-9.26361
▁carried	-9.2641
▁forward	-9.2661
and	-9.26794
▁ground	-9.26861
▁search	-9.26898
▁approval	-9.27022
▁la	-9.2708
▁highest	-9.27099
▁manage	-9.27171
▁participation	-9.27235
▁answer	-9.27258
▁original	-9.27274
▁property	-9.2739
▁Because	-9.2741
▁driving	-9.27433
▁fee	-9.27461
▁street	-9.27511
▁taste	-9.27618
▁issued	-9.27636
▁urban	-9.27639
yang	-9.27685
▁ball	-9.27811
▁incident	-9.27874
▁Special	-9.27907
▁questions	-9.27908
▁park	-9.28006
ster	-9.28111
▁turn	-9.28211
▁pressure	-9.28336
▁excellent	-9.28367
▁launch	-9.2839
▁available	-9.28474
▁export	-9.28507
▁Island	-9.28536
▁prescribed	-9.28792
▁details	-9.28859
▁mo	-9.29171
▁negotiations	-9.29214
related	-9.29275
▁father	-9.29282
▁patients	-9.29322
▁clean	-9.29348
▁trend	-9.29424
mon	-9.29441
▁concerning	-9.29451
▁sound	-9.29508
▁Among	-9.29534
cu	-9.29542
▁Director	-9.29578
▁terms	-9.29585
men	-9.29596
▁trying	-9.29705
▁Welfare	-9.2973
▁duties	-9.29731
red	-9.29745
▁relations	-9.2978
▁done	-9.29856
▁chance	-9.29883
▁Support	-9.29969
▁anti	-9.30011
▁executive	-9.30034
du	-9.30129
▁God	-9.30336
▁submitted	-9.30345
▁actual	-9.3051
ner	-9.30513
▁Ra	-9.30515
▁Ki	-9.30599
▁considering	-9.30731
▁sh	-9.3074
▁sea	-9.30797
▁February	-9.30869
▁drawing	-9.30919
end	-9.31009
▁watch	-9.31049
▁consumers	-9.31063
▁Security	-9.31067
son	-9.31088
▁type	-9.31278
▁focus	-9.31295
▁common	-9.31339
▁perform	-9.31357
▁Yeong	-9.31761
▁plant	-9.31804
▁brand	-9.31925
▁quickly	-9.31933
▁standards	-9.31956
▁cars	-9.32015
▁coming	-9.32052
▁wanted	-9.32133
seong	-9.32311
tra	-9.32312
▁positive	-9.32356
20	-9.32416
ig	-9.32573
▁Let	-9.32583
tu	-9.32588
▁Foundation	-9.32624
▁learning	-9.32666
▁crime	-9.32713
▁sense	-9.32714
▁determined	-9.32724
▁worth	-9.32849
▁analysis	-9.32894
▁holding	-9.32986
sung	-9.33037
▁Local	-9.33166
▁games	-9.33187
▁example	-9.33371
▁learn	-9.33411
▁presidential	-9.33453
▁disease	-9.33522
▁ship	-9.33556
▁talks	-9.33638
▁impact	-9.33644
▁examination	-9.33923
▁hotel	-9.33939
▁corporate	-9.33972
▁Russia	-9.34158
▁chairperson	-9.34298
▁Yu	-9.34359
▁introduce	-9.34363
▁showing	-9.34508
▁break	-9.34672
▁Le	-9.34728
▁beautiful	-9.34777
▁reduced	-9.34948
▁matter	-9.34998
▁Fund	-9.35019
▁fair	-9.35027
▁intention	-9.35076
▁Bu	-9.35225
▁Day	-9.35274
▁1,	-9.35314
▁color	-9.35426
▁reach	-9.35431
ue	-9.35444
▁parts	-9.35529
tro	-9.35668
king	-9.35673
▁Ja	-9.35813
chi	-9.3584
▁implementation	-9.35869
▁coach	-9.36032
▁distribution	-9.36068
▁(2)	-9.36072
▁fell	-9.36212
▁metropolitan	-9.36277
5%	-9.36317
▁document	-9.36506
▁discuss	-9.36691
▁doesn	-9.36746
uk	-9.36767
▁Woo	-9.36821
▁places	-9.36903
▁industries	-9.36954
▁organized	-9.36978
▁entire	-9.37024
▁unit	-9.37033
level	-9.37043
▁doing	-9.37103
▁eight	-9.37109
▁build	-9.37137
▁thing	-9.37146
▁Union	-9.37176
ct	-9.37212
▁saw	-9.37264
▁eyes	-9.37278
▁Science	-9.37282
▁loan	-9.37321
▁proposal	-9.37447
▁consultation	-9.37502
▁households	-9.37548
▁dance	-9.37628
▁expect	-9.37638
▁Cha	-9.37718
▁Li	-9.37751
▁true	-9.378
▁progress	-9.37816
▁might	-9.37825
▁reflect	-9.37904
▁hands	-9.37959
▁produced	-9.38034
▁Technology	-9.38036
▁felt	-9.3806
▁wave	-9.3809
▁followed	-9.38216
myeon	-9.38226
ip	-9.38279
▁series	-9.38321
▁governments	-9.3837
▁consist	-9.38387
▁pass	-9.3842
vo	-9.3848
tor	-9.3849
▁church	-9.38513
▁Oh	-9.38517
▁speed	-9.38595
▁sanctions	-9.38617
▁hearing	-9.38718
▁Cup	-9.38783
▁performances	-9.3882
▁agricultural	-9.38844
▁required	-9.38938
ite	-9.39047
em	-9.39055
▁sure	-9.39086
▁population	-9.39277
jo	-9.39347
ff	-9.39515
▁letter	-9.39516
▁stores	-9.39752
▁skin	-9.39821
▁delivery	-9.39853
▁failed	-9.4001
▁protection	-9.40017
work	-9.40025
▁caught	-9.40069
▁Lotte	-9.40089
▁concerns	-9.40109
▁peace	-9.40153
pro	-9.40187
▁bit	-9.40265
▁Transport	-9.40411
▁paper	-9.40462
▁Un	-9.40621
ee	-9.40653
▁fast	-9.40802
▁Defense	-9.40912
▁wife	-9.40918
▁Industrial	-9.41121
▁act	-9.41154
▁American	-9.41217
▁Son	-9.41315
▁strengthen	-9.41404
hwa	-9.41449
yong	-9.41504
▁release	-9.41655
▁atmosphere	-9.41774
▁Secretary	-9.41798
▁launched	-9.41821
▁installed	-9.41879
▁difficulties	-9.41921
▁Business	-9.42044
▁scheduled	-9.42051
ie	-9.42097
▁leaders	-9.42219
▁Cultural	-9.42291
▁60	-9.42332
▁moment	-9.42405
tch	-9.42452
▁ordered	-9.42484
▁resources	-9.42518
▁People	-9.42564
▁behind	-9.42588
▁proceed	-9.42637
▁educational	-9.42684
val	-9.42684
▁Economic	-9.42687
▁sell	-9.42702
▁entrance	-9.42811
▁victims	-9.42826
If	-9.42892
seok	-9.42967
▁Lo	-9.42971
▁Asia	-9.42981
▁internal	-9.43075
▁enterprises	-9.4317
ries	-9.43204
▁Ca	-9.43212
▁forest	-9.43248
▁explain	-9.43264
▁son	-9.43326
▁attack	-9.43534
▁o	-9.43545
▁benefits	-9.4359
▁success	-9.43811
▁ten	-9.43829
▁reality	-9.43908
▁takes	-9.4393
▁below	-9.4403
▁Jo	-9.44051
▁screen	-9.44087
▁reduction	-9.4411
▁whole	-9.44116
▁tried	-9.44201
▁influence	-9.44236
ory	-9.44315
▁wrong	-9.44337
▁fourth	-9.44358
ft	-9.44376
▁Con	-9.44435
▁condition	-9.4445
ration	-9.44537
▁writing	-9.44538
▁section	-9.44564
▁Air	-9.44577
▁Safety	-9.44639
rea	-9.44698
▁centers	-9.44745
▁broadcast	-9.44757
▁location	-9.44843
▁elderly	-9.44849
▁participating	-9.44867
▁goods	-9.44873
▁anniversary	-9.44893
▁certificate	-9.44893
▁daughter	-9.44994
local	-9.45025
▁teams	-9.45065
▁score	-9.45076
▁image	-9.45081
▁notice	-9.45113
▁comprehensive	-9.45121
da	-9.45258
dy	-9.45309
▁instead	-9.4535
▁mark	-9.45444
▁follow	-9.45452
▁character	-9.45466
▁weather	-9.45579
▁books	-9.45599
▁falling	-9.45605
ag	-9.45633
▁red	-9.45635
▁address	-9.45656
rt	-9.45731
▁headquarters	-9.45784
▁file	-9.45853
▁gas	-9.4586
ill	-9.45905
▁sites	-9.45952
▁shopping	-9.45992
▁itself	-9.46065
▁Promotion	-9.46065
que	-9.46184
▁profit	-9.46254
▁walk	-9.46308
▁annual	-9.46317
▁wide	-9.46319
▁evidence	-9.46348
▁petition	-9.46453
▁Vietnam	-9.46605
▁raising	-9.46623
ator	-9.46729
▁accounting	-9.46739
▁commissioned	-9.46741
▁Blue	-9.4689
▁wind	-9.4696
▁Many	-9.46981
▁Ahn	-9.47097
▁earlier	-9.47122
▁entered	-9.47181
▁mid	-9.47194
▁filed	-9.47204
▁All	-9.47248
▁died	-9.47309
ja	-9.47392
▁appeared	-9.47408
▁occurred	-9.47415
▁participants	-9.47451
▁specific	-9.47529
▁player	-9.47587
▁gift	-9.47616
▁user	-9.47695
yeong	-9.47745
▁duty	-9.47757
▁ba	-9.47774
▁winter	-9.47778
▁unique	-9.47851
▁requested	-9.4788
▁safe	-9.4792
▁stay	-9.48173
▁Al	-9.48199
izing	-9.48214
▁idea	-9.48285
▁skills	-9.48312
▁volunteer	-9.48558
▁environmental	-9.48685
▁serious	-9.48767
fin	-9.4878
▁universities	-9.48821
▁beginning	-9.49014
▁warm	-9.4902
▁highly	-9.49042
ton	-9.49045
▁Kong	-9.49171
▁Donald	-9.4935
▁Central	-9.49376
▁Ko	-9.49393
▁prize	-9.4943
▁secure	-9.49547
▁Germany	-9.49557
▁yesterday	-9.49562
▁owner	-9.49565
▁website	-9.49695
▁Foreign	-9.49748
▁solve	-9.4982
▁Industry	-9.49828
▁green	-9.49851
▁step	-9.49926
▁stressed	-9.49995
▁hour	-9.50004
▁involved	-9.50028
hwan	-9.50077
▁Pro	-9.50098
▁wait	-9.50178
▁physical	-9.50202
▁conflict	-9.50389
scale	-9.50417
▁taxi	-9.50478
▁sc	-9.50572
ever	-9.50598
▁collection	-9.50657
▁Ex	-9.50809
▁Chief	-9.50848
▁Year	-9.50868
▁holiday	-9.50884
▁anything	-9.50986
han	-9.51003
▁expansion	-9.51114
▁across	-9.51223
▁access	-9.51518
lic	-9.51602
▁accidents	-9.51617
by	-9.51685
▁visitors	-9.51741
▁2016	-9.51755
▁comp	-9.51769
▁ma	-9.51813
▁Infrastructure	-9.51845
J	-9.51913
▁degrees	-9.51946
▁agreed	-9.51958
▁sale	-9.51962
let	-9.52114
▁By	-9.52124
▁creating	-9.5239
▁intends	-9.52416
▁source	-9.52418
ens	-9.52426
▁exercise	-9.525
▁hair	-9.52535
▁variety	-9.52636
fe	-9.52659
▁Lim	-9.52747
▁difference	-9.52894
▁tourism	-9.52898
▁heavy	-9.53048
▁platform	-9.53048
▁violence	-9.53048
▁2019	-9.53157
▁Are	-9.53318
▁teacher	-9.53498
▁multi	-9.53508
▁Finance	-9.53517
▁sub	-9.53544
▁electric	-9.53598
▁usually	-9.53599
▁mountain	-9.53683
ac	-9.53743
▁visiting	-9.5384
▁table	-9.53952
ub	-9.53962
if	-9.5397
▁loans	-9.53992
▁era	-9.54108
▁black	-9.5421
▁basis	-9.54211
▁La	-9.54244
10	-9.54258
▁star	-9.54313
▁posted	-9.54331
▁General	-9.54362
▁Ba	-9.54406
head	-9.54414
▁complete	-9.5444
▁houses	-9.54542
▁principle	-9.54572
▁worked	-9.54651
▁reading	-9.54713
▁investigating	-9.5474
▁accept	-9.54851
▁authority	-9.54932
▁defense	-9.54936
▁ensure	-9.54944
▁ability	-9.54951
fa	-9.55017
▁implemented	-9.55179
▁popularity	-9.55346
▁limit	-9.55619
▁discount	-9.55641
▁delivered	-9.55644
▁Man	-9.55654
▁warrant	-9.55667
▁properly	-9.55703
ea	-9.55752
▁turned	-9.5578
▁Je	-9.55797
▁corporation	-9.55978
▁girl	-9.56005
▁proposed	-9.56014
▁Professor	-9.56035
▁York	-9.56036
▁Eun	-9.56037
▁announcement	-9.56045
od	-9.56087
ral	-9.56095
▁disabled	-9.5612
▁East	-9.56179
jeong	-9.56204
ran	-9.56258
▁arrest	-9.5631
▁branch	-9.5642
▁force	-9.56433
▁Suwon	-9.56528
▁voice	-9.56533
ward	-9.56556
▁Food	-9.5669
,”	-9.56758
▁convenience	-9.56888
▁limited	-9.57013
▁prevention	-9.57014
▁markets	-9.57017
▁customer	-9.5702
▁airport	-9.5713
▁comes	-9.5716
▁tourists	-9.57165
ny	-9.57252
▁couldn	-9.57257
▁theme	-9.57319
▁teachers	-9.57344
▁During	-9.57386
pen	-9.574
▁trust	-9.57414
▁toward	-9.5748
▁Decree	-9.57576
▁creation	-9.57606
▁correct	-9.57685
▁str	-9.57789
cent	-9.57795
▁compensation	-9.57807
▁material	-9.5788
▁elementary	-9.57932
▁drink	-9.57959
pop	-9.58008
hoon	-9.58008
▁career	-9.58095
▁Seong	-9.58097
00	-9.58098
ual	-9.58111
par	-9.58247
▁2014	-9.58314
ants	-9.58349
▁protest	-9.58449
▁deposit	-9.58454
▁Ju	-9.58679
▁rates	-9.58685
▁ways	-9.58831
▁200	-9.58902
▁serve	-9.58931
▁blood	-9.58967
▁reasons	-9.59137
▁broke	-9.59144
▁War	-9.59187
▁happen	-9.59231
▁tour	-9.59233
yo	-9.59337
▁criticized	-9.59362
▁award	-9.59367
▁innovation	-9.59377
▁avoid	-9.59377
▁cover	-9.59386
je	-9.59478
▁audience	-9.59588
▁stand	-9.59913
▁brother	-9.59935
▁Peninsula	-9.59964
▁predicted	-9.60051
▁sign	-9.60136
▁giving	-9.60208
▁weak	-9.6024
▁criticism	-9.60263
▁arrested	-9.60268
▁select	-9.60281
cre	-9.60356
▁Representative	-9.60377
▁nature	-9.60383
▁someone	-9.60445
▁foundation	-9.60527
▁allow	-9.60649
ors	-9.60714
ten	-9.60716
▁campaign	-9.60733
▁J	-9.60749
▁Life	-9.60923
▁appointment	-9.60929
friendly	-9.60943
▁responsibility	-9.61001
▁2017	-9.6103
▁King	-9.61053
▁meaning	-9.611
▁newly	-9.61109
▁Sports	-9.61121
▁measure	-9.61301
▁simple	-9.61389
▁providing	-9.61419
▁Da	-9.61438
▁loss	-9.61473
▁moved	-9.61543
▁birth	-9.61649
tae	-9.61697
▁respect	-9.61929
▁Market	-9.61932
▁signed	-9.61955
▁maintain	-9.61955
▁determine	-9.61975
▁Why	-9.62028
▁effects	-9.62059
▁weekend	-9.62081
▁fun	-9.621
▁candidates	-9.62133
ya	-9.62148
▁flight	-9.62278
▁reached	-9.62317
▁respond	-9.6239
▁solution	-9.6241
▁consideration	-9.62516
▁River	-9.62726
▁San	-9.62749
▁household	-9.62805
50	-9.62821
▁mentioned	-9.62823
▁recognized	-9.62833
▁driver	-9.62883
▁Chairperson	-9.62891
▁especially	-9.62925
▁returned	-9.62937
▁science	-9.62986
▁carry	-9.63008
▁overall	-9.63011
▁gathered	-9.63098
ear	-9.63106
▁host	-9.63131
▁wish	-9.63136
▁manufacturing	-9.63138
shi	-9.63162
ae	-9.63177
▁Vi	-9.63182
▁function	-9.63257
▁exam	-9.6327
▁Kwon	-9.63349
ron	-9.63536
▁pension	-9.63691
▁becoming	-9.63751
▁pick	-9.63841
ek	-9.63845
▁actually	-9.63848
▁deep	-9.6385
gra	-9.63878
▁Sea	-9.64019
▁Enforcement	-9.64026
based	-9.64223
▁banks	-9.64317
▁themselves	-9.64331
▁Daejeon	-9.64337
▁recommended	-9.64343
▁responsible	-9.64516
▁classes	-9.64517
▁preparing	-9.64701
▁vote	-9.64754
▁consider	-9.64905
▁registration	-9.64917
▁Hee	-9.64944
▁r	-9.64997
▁white	-9.65107
▁Women	-9.65135
▁deputy	-9.65259
▁shown	-9.65311
▁abuse	-9.65379
▁except	-9.65384
▁Complex	-9.65445
▁severe	-9.65539
▁clothes	-9.65547
▁Federation	-9.6557
▁relatively	-9.6557
▁ever	-9.65626
▁significant	-9.65691
▁advantage	-9.65743
jung	-9.65746
▁camp	-9.65883
▁door	-9.65918
".	-9.65934
▁biggest	-9.66007
▁vacation	-9.66041
pl	-9.66087
▁normal	-9.66094
▁dispute	-9.66102
▁Tr	-9.66114
▁resolution	-9.66164
▁abroad	-9.66195
▁Sam	-9.66202
eun	-9.66249
▁contest	-9.66263
▁ratio	-9.66356
▁Baek	-9.6637
▁eye	-9.66377
▁appeal	-9.66478
▁owners	-9.66518
site	-9.66595
▁nearby	-9.66746
▁deliver	-9.66753
▁Mu	-9.66793
oc	-9.668
mun	-9.66973
▁suspected	-9.67005
▁block	-9.67276
▁sun	-9.67372
light	-9.67388
▁flow	-9.67411
▁Hye	-9.67419
ish	-9.67482
hu	-9.67494
▁Te	-9.67561
▁notify	-9.6762
▁com	-9.67712
▁separate	-9.67713
▁registered	-9.67741
▁computer	-9.67776
▁drop	-9.67805
ab	-9.67815
▁himself	-9.67817
ah	-9.67864
▁bar	-9.6787
▁artists	-9.67894
▁running	-9.67997
sik	-9.6808
▁investors	-9.68112
There	-9.68147
▁wall	-9.68173
▁grade	-9.68211
▁reports	-9.68244
▁appear	-9.68321
▁secret	-9.68325
▁appropriate	-9.68351
▁pm	-9.68397
▁offer	-9.68531
▁express	-9.68607
▁huge	-9.68688
▁produce	-9.68746
ric	-9.68827
cha	-9.68854
▁strategy	-9.68865
▁Joseon	-9.68908
ple	-9.68934
▁expectations	-9.68949
ture	-9.69032
deemed	-9.6904
▁connection	-9.69077
cor	-9.69094
▁guarantee	-9.69127
▁allowed	-9.69153
▁semiconductor	-9.6922
▁couple	-9.69252
▁Project	-9.69288
▁Art	-9.69334
▁everyone	-9.69379
▁slow	-9.69391
for	-9.69451
▁bo	-9.69481
ible	-9.69524
▁preparation	-9.69544
▁zone	-9.69584
▁guide	-9.6961
▁successful	-9.69627
▁appearance	-9.69657
tr	-9.69673
▁records	-9.69821
▁0	-9.6986
▁adding	-9.69862
▁negative	-9.69999
▁Airport	-9.70038
▁selling	-9.7007
▁net	-9.70124
▁sharing	-9.70138
▁SK	-9.70191
▁buildings	-9.70221
▁confirm	-9.70223
▁refund	-9.70292
▁respectively	-9.70325
▁prescribe	-9.70398
▁analyzed	-9.70413
▁Deputy	-9.70456
▁closed	-9.70463
▁gap	-9.70558
▁entrusted	-9.70563
▁says	-9.70669
▁From	-9.70718
▁choice	-9.70751
▁LG	-9.70769
▁nothing	-9.70865
▁electronic	-9.71014
gen	-9.71031
▁jurisdiction	-9.71047
▁entertainment	-9.71057
▁Gyeongsang	-9.71071
▁planned	-9.71143
▁assault	-9.71319
▁expanding	-9.7139
▁European	-9.7142
▁Regard	-9.71443
▁revenue	-9.71476
▁northern	-9.71509
▁fully	-9.71527
▁farmers	-9.71614
▁These	-9.71618
▁goes	-9.71679
▁characteristics	-9.71738
▁modern	-9.71743
▁revision	-9.72057
▁enhance	-9.72172
▁hosted	-9.72185
▁agenda	-9.72239
▁join	-9.72291
▁coffee	-9.72406
ile	-9.72415
rn	-9.72456
▁waiting	-9.72537
▁actor	-9.72607
▁sta	-9.72621
▁joined	-9.72661
▁winning	-9.72694
▁delay	-9.7274
▁includes	-9.72785
▁2013	-9.72895
▁consecutive	-9.72941
▁70	-9.7296
▁Europe	-9.72964
▁(1),	-9.72966
▁prison	-9.72975
▁spot	-9.73155
▁introduction	-9.73169
dae	-9.73222
▁Singapore	-9.73244
▁double	-9.73244
hye	-9.73293
▁resident	-9.73332
▁receipt	-9.73345
▁moving	-9.73378
part	-9.73417
hy	-9.73433
▁track	-9.73452
▁recorded	-9.73512
▁published	-9.73524
▁bought	-9.73581
▁Thank	-9.73588
▁watching	-9.73624
▁listen	-9.73667
▁playing	-9.73713
▁older	-9.73822
▁hear	-9.73878
▁victim	-9.73966
▁shot	-9.7397
▁reportedly	-9.73977
▁caus	-9.73985
▁cancer	-9.73999
ome	-9.74002
▁infrastructure	-9.74021
▁criminal	-9.74156
▁range	-9.74184
▁circumstances	-9.74232
▁Award	-9.74259
▁investigate	-9.74276
▁rising	-9.74395
▁Star	-9.74466
▁presented	-9.74551
▁killed	-9.74553
▁Village	-9.74565
▁2015	-9.74579
▁Currently	-9.74667
▁recommend	-9.7495
▁display	-9.75038
▁Social	-9.75112
▁separately	-9.75112
▁designed	-9.75115
ium	-9.75131
▁occur	-9.75137
ev	-9.75178
▁selection	-9.75229
▁rental	-9.75411
▁Church	-9.75456
nu	-9.75476
▁lawmakers	-9.75484
▁Byung	-9.75541
▁expanded	-9.75633
▁fan	-9.75718
▁external	-9.758
▁viewers	-9.75804
▁Wave	-9.75864
▁camera	-9.75878
▁Hospital	-9.76007
▁box	-9.76023
▁improved	-9.76078
chan	-9.76167
▁healthy	-9.76177
▁word	-9.7618
▁draw	-9.76197
▁promoting	-9.76284
▁commission	-9.76312
tain	-9.76327
▁screening	-9.76525
▁claimed	-9.76598
▁lawyer	-9.766
▁graduate	-9.76632
▁dollars	-9.76638
▁elections	-9.76651
▁eligible	-9.76667
▁lecture	-9.76697
▁competitiveness	-9.76712
▁repair	-9.76806
▁superintendent	-9.76884
▁judge	-9.76886
▁everything	-9.7695
▁above	-9.76982
▁Jeon	-9.76986
▁decrease	-9.77006
ep	-9.77022
▁employee	-9.77036
▁counseling	-9.77099
▁decide	-9.77147
▁author	-9.77185
▁add	-9.77247
▁recruit	-9.77291
▁More	-9.77354
▁supporting	-9.774
▁improving	-9.77471
ug	-9.77484
▁theater	-9.77546
▁singer	-9.77554
▁rent	-9.77606
▁doctor	-9.77648
▁Ye	-9.77753
▁almost	-9.77823
▁advanced	-9.77871
▁suffering	-9.77882
▁gender	-9.77901
▁Last	-9.77922
▁consumer	-9.78065
▁longer	-9.78108
▁Gi	-9.78128
▁provisions	-9.78152
▁songs	-9.78192
▁depending	-9.78211
▁Tourism	-9.78218
▁collect	-9.7828
▁Hae	-9.78303
.1	-9.78349
▁donation	-9.78358
▁sleep	-9.78423
▁elected	-9.78456
▁maintenance	-9.78494
ey	-9.78583
▁husband	-9.78601
▁served	-9.78621
▁touch	-9.78696
▁cross	-9.78708
▁collected	-9.7871
▁focused	-9.78725
▁Ne	-9.78732
▁exports	-9.78738
▁claim	-9.78755
rate	-9.78793
ping	-9.78824
▁formed	-9.78848
▁knowledge	-9.78885
▁speech	-9.78956
▁detailed	-9.79023
▁vi	-9.79175
▁technologies	-9.79206
▁lawmaker	-9.79222
▁Environment	-9.79227
▁although	-9.79242
▁assets	-9.79267
▁seem	-9.7932
ability	-9.79338
▁Sejong	-9.79365
▁import	-9.79395
▁spring	-9.79412
▁smart	-9.79423
▁beauty	-9.79457
▁regions	-9.79475
▁Of	-9.79509
▁delayed	-9.79514
▁Also	-9.79787
▁300	-9.79846
▁item	-9.79877
▁association	-9.79887
▁thinking	-9.79926
▁contribute	-9.79957
med	-9.7997
▁factory	-9.79973
run	-9.80012
▁license	-9.80031
mer	-9.80059
▁push	-9.80077
▁strength	-9.80229
▁Port	-9.80269
▁article	-9.80283
▁discussion	-9.80336
▁challenge	-9.80356
▁completely	-9.80418
▁Most	-9.80481
▁cooperate	-9.80573
▁effective	-9.8064
▁Fair	-9.8067
▁reservation	-9.80682
▁League	-9.80692
▁cash	-9.80729
▁soccer	-9.80827
▁Don	-9.80915
▁2012	-9.8092
▁changing	-9.80938
mm	-9.80981
jong	-9.81043
▁Soo	-9.8107
▁debt	-9.81194
▁meal	-9.81209
rac	-9.81213
▁supported	-9.81229
sang	-9.81231
▁despite	-9.81231
▁ho	-9.81239
▁represent	-9.81244
▁prior	-9.8127
au	-9.81324
▁fresh	-9.81336
▁mean	-9.81392
▁forced	-9.81393
▁County	-9.81439
▁Ri	-9.81453
▁remember	-9.81467
▁approach	-9.81482
▁500	-9.81533
▁style	-9.816
▁firm	-9.81663
jae	-9.81705
▁mayor	-9.8178
io	-9.8181
ure	-9.81826
▁emphasized	-9.81828
▁require	-9.81852
▁suit	-9.81866
ious	-9.81915
▁Movement	-9.81922
▁Che	-9.81982
▁concept	-9.82001
tan	-9.82034
▁va	-9.8208
cy	-9.82114
▁mainly	-9.82141
ger	-9.82148
▁remarks	-9.82149
▁snow	-9.82186
▁suspect	-9.82189
▁na	-9.82237
▁venue	-9.82253
▁specialized	-9.82354
▁broadcasting	-9.82431
cing	-9.82469
ren	-9.82471
▁procedures	-9.82497
▁rose	-9.82517
▁sister	-9.82548
▁cell	-9.82561
ition	-9.82596
▁album	-9.82622
ight	-9.82662
▁Myung	-9.82742
▁meters	-9.82749
▁choose	-9.82881
▁seats	-9.82938
▁becomes	-9.82985
▁types	-9.82996
▁studying	-9.82999
ai	-9.83054
▁fish	-9.8309
▁consumption	-9.83103
▁Mountain	-9.83215
▁marketing	-9.83233
▁Roh	-9.83249
▁disabilities	-9.83252
use	-9.83397
▁sex	-9.83441
▁independence	-9.83475
▁developing	-9.83477
▁autonomous	-9.83529
▁greatly	-9.83622
▁Employment	-9.83699
ified	-9.83709
▁photos	-9.83727
▁nine	-9.83777
▁ordinary	-9.83811
▁talent	-9.83871
China	-9.83899
▁cool	-9.84035
▁fields	-9.84062
▁premium	-9.84111
▁machine	-9.84123
▁born	-9.84134
▁allows	-9.84146
▁looks	-9.8417
▁cur	-9.84231
port	-9.84257
pect	-9.84495
▁surgery	-9.84537
▁fishing	-9.84543
▁leaving	-9.84563
▁admission	-9.84564
▁Human	-9.84581
▁installation	-9.84672
▁Pyongyang	-9.84675
▁lawsuit	-9.84675
▁mental	-9.84711
▁attract	-9.84842
▁performed	-9.84845
qui	-9.84859
▁scope	-9.84902
▁Organization	-9.85021
▁rapidly	-9.85036
▁cat	-9.85156
▁Christian	-9.85171
▁promoted	-9.85212
▁provides	-9.85235
▁suffered	-9.85235
▁concern	-9.85306
▁Pe	-9.85328
▁wear	-9.8533
▁d	-9.8535
▁library	-9.85357
▁divided	-9.85522
▁continues	-9.85551
▁settlement	-9.85562
▁standing	-9.85662
▁stocks	-9.85675
▁dead	-9.85787
▁throughout	-9.85817
▁Ta	-9.85826
▁entering	-9.85911
nk	-9.8596
▁seat	-9.85994
▁Ni	-9.86151
fer	-9.86237
▁units	-9.86249
ui	-9.86329
▁finished	-9.86331
rib	-9.86338
▁ticket	-9.8635
fu	-9.86407
▁brought	-9.86426
oo	-9.86462
19	-9.86497
ound	-9.86534
▁sample	-9.86541
▁worried	-9.86618
▁write	-9.86658
▁medicine	-9.86695
▁arm	-9.86888
▁remaining	-9.8693
▁Com	-9.86952
▁methods	-9.86953
▁independent	-9.86965
▁rescue	-9.87005
▁activity	-9.87007
▁weight	-9.87009
▁focusing	-9.8705
▁taxes	-9.87108
▁academic	-9.87146
▁Ulsan	-9.87158
ification	-9.87172
▁Mon	-9.8718
pp	-9.87205
▁encourage	-9.87214
▁stable	-9.87244
▁background	-9.87399
▁significantly	-9.87434
▁j	-9.87477
▁master	-9.87561
▁male	-9.87637
▁His	-9.87694
▁Peace	-9.8774
▁subway	-9.87875
▁meaningful	-9.87912
▁cl	-9.87923
ble	-9.87943
▁Fire	-9.87967
off	-9.87979
▁Line	-9.88044
▁exceed	-9.88047
▁Rules	-9.88055
▁alternative	-9.88091
▁subsidize	-9.88208
ded	-9.88219
▁eating	-9.8822
▁Gyeong	-9.88283
▁Sin	-9.88361
▁busy	-9.88451
▁opportunities	-9.88482
▁catch	-9.88525
▁Small	-9.88679
▁estimated	-9.88693
▁county	-9.88797
▁Division	-9.88798
▁permission	-9.88844
▁America	-9.88864
▁Yeon	-9.88908
fo	-9.8891
▁du	-9.88929
▁assessment	-9.88931
▁subsidies	-9.89072
our	-9.89111
▁perfect	-9.89123
▁Motor	-9.89162
▁Table	-9.89189
ack	-9.89226
▁Du	-9.89241
▁profits	-9.89318
▁practical	-9.89348
▁Our	-9.89382
▁title	-9.89451
▁preliminary	-9.89506
▁Games	-9.89564
▁mis	-9.89596
▁bi	-9.89628
▁paying	-9.8963
▁Hotel	-9.89636
▁farm	-9.89659
ctor	-9.8967
▁speak	-9.89682
▁spend	-9.89816
▁Hu	-9.89938
▁rating	-9.90007
▁Fe	-9.9023
▁dramas	-9.90264
3%	-9.90278
▁arrived	-9.90306
▁decline	-9.90327
▁mistake	-9.90344
nce	-9.9036
sun	-9.9049
▁shop	-9.90522
▁KT	-9.90531
▁excessive	-9.90548
▁w	-9.90584
Pop	-9.9071
▁achieve	-9.90849
▁Policy	-9.90942
▁recruitment	-9.91068
▁dinner	-9.91103
lin	-9.91114
▁Under	-9.91202
▁Facebook	-9.91224
ice	-9.9146
▁understanding	-9.91487
▁restaurants	-9.9156
2%	-9.9156
▁shared	-9.91644
ph	-9.91647
▁monthly	-9.91655
▁predict	-9.91675
▁attending	-9.91721
▁volume	-9.91749
▁pictures	-9.91798
▁begin	-9.91883
▁desire	-9.91954
lit	-9.9206
▁twice	-9.92073
▁managed	-9.92123
lan	-9.9215
▁thereof	-9.92167
▁cons	-9.92244
▁conservative	-9.92358
▁figure	-9.92433
▁representatives	-9.9247
ud	-9.92476
▁email	-9.92535
▁expression	-9.92566
▁cancel	-9.92574
▁nationwide	-9.92644
▁port	-9.92671
▁examine	-9.92723
▁acting	-9.92724
▁Di	-9.92738
tern	-9.92788
▁stone	-9.92857
ze	-9.92928
pre	-9.92967
1%	-9.93064
▁sentence	-9.93076
▁arts	-9.93114
▁recommendation	-9.93314
▁factors	-9.93429
▁Heung	-9.93433
▁town	-9.93462
▁Mar	-9.93467
▁efficient	-9.93476
▁movies	-9.9349
▁Or	-9.93531
▁obtain	-9.93559
km	-9.93597
▁recover	-9.93691
▁Ka	-9.93706
▁Information	-9.93753
▁Agricultural	-9.93794
form	-9.9381
▁impossible	-9.93835
▁weeks	-9.93951
▁gold	-9.94053
▁accounts	-9.94071
▁presentation	-9.94177
▁path	-9.94201
7%	-9.94355
▁foot	-9.9448
win	-9.9449
▁majority	-9.94537
4%	-9.94551
▁contains	-9.94587
▁meetings	-9.94618
▁conversation	-9.94624
▁Seok	-9.94724
type	-9.94782
▁Not	-9.94791
▁stories	-9.94833
▁text	-9.94859
▁digital	-9.94875
▁finance	-9.94917
▁devices	-9.94926
eng	-9.9499
▁remains	-9.95009
▁im	-9.95118
▁Recently	-9.95209
▁wrote	-9.95251
ify	-9.95262
▁tourist	-9.95263
North	-9.95271
▁leadership	-9.95284
▁Dis	-9.95291
▁reward	-9.95435
▁Now	-9.95458
▁menu	-9.95532
▁punishment	-9.95599
▁blockchain	-9.95714
▁suggested	-9.95723
▁announce	-9.95842
▁warning	-9.95884
▁drug	-9.95958
▁deliberate	-9.95967
over	-9.96046
▁reporters	-9.96124
▁believed	-9.96214
▁Museum	-9.96221
▁hurt	-9.96305
▁ended	-9.96322
▁newspaper	-9.96517
▁filled	-9.96591
ka	-9.96626
▁Chi	-9.96645
▁unfair	-9.9673
▁difficulty	-9.96789
▁forces	-9.96823
▁supplement	-9.96858
▁unable	-9.96927
▁follows	-9.96931
lock	-9.96952
▁apartments	-9.96977
▁anyone	-9.9721
▁Hwa	-9.9723
▁link	-9.97241
▁fashion	-9.97242
▁Did	-9.9725
▁concerned	-9.97261
vis	-9.9728
▁ran	-9.97283
▁handle	-9.97312
▁lose	-9.97318
▁prove	-9.97357
ups	-9.97398
▁smartphone	-9.97409
▁Could	-9.97414
▁myself	-9.97539
▁Construction	-9.97542
▁extra	-9.9755
▁sentenced	-9.9755
free	-9.97699
▁auto	-9.97861
▁Services	-9.97874
▁contribution	-9.97929
▁beyond	-9.97929
▁spirit	-9.9801
▁deem	-9.98163
▁potential	-9.98231
8%	-9.98241
iz	-9.98269
▁debate	-9.98275
▁nice	-9.98277
▁surrounding	-9.98317
▁endeavor	-9.98361
▁missing	-9.98453
▁print	-9.9852
▁worse	-9.98524
▁limits	-9.98591
▁alleged	-9.98609
▁feeling	-9.98666
▁Republic	-9.98674
▁allegations	-9.98692
▁threat	-9.98704
pri	-9.98721
▁Yi	-9.98741
▁Inter	-9.98774
ow	-9.98787
▁inconvenience	-9.98794
▁index	-9.98805
▁manner	-9.98833
▁partner	-9.98895
▁happened	-9.98923
▁expensive	-9.98968
▁shape	-9.98991
▁accused	-9.99
▁Former	-9.99065
▁damaged	-9.99106
▁bio	-9.99156
▁wearing	-9.99156
▁revised	-9.99252
▁false	-9.99273
▁executives	-9.99275
▁k	-9.99308
▁task	-9.99312
▁Taiwan	-9.99317
▁retirement	-9.9937
▁judges	-9.99424
▁Russian	-9.99447
▁imp	-9.99462
▁burn	-9.9954
6%	-9.99557
▁Insurance	-9.99623
yu	-9.99752
▁films	-9.99937
lar	-9.99949
▁calling	-10.0004
▁lunch	-10.0006
▁honor	-10.0008
▁shock	-10.0019
▁decreased	-10.0021
▁leg	-10.0027
▁quite	-10.0031
▁exchanges	-10.0032
▁About	-10.0037
▁worker	-10.004
▁poll	-10.005
18	-10.0053
▁expects	-10.0053
▁farming	-10.0058
▁victory	-10.0059
▁judgment	-10.0064
▁Goyang	-10.007
ign	-10.0076
▁stress	-10.0082
▁named	-10.0084
▁device	-10.0089
▁temporary	-10.009
▁Iran	-10.0093
press	-10.0097
ect	-10.0103
▁Joon	-10.0104
▁patient	-10.0105
▁gain	-10.011
▁suggest	-10.0121
Ch	-10.0133
▁finally	-10.0139
ik	-10.0139
▁violation	-10.0144
tent	-10.0151
▁reveal	-10.0152
▁Th	-10.0154
▁intelligence	-10.0157
▁affected	-10.0164
▁asking	-10.0165
▁residential	-10.0168
▁Youth	-10.0169
0%	-10.0185
▁Koreans	-10.0187
▁AI	-10.0194
bin	-10.0199
▁drive	-10.0205
▁wonder	-10.0212
▁fit	-10.0217
▁counties	-10.0225
▁favor	-10.0226
sure	-10.0228
gang	-10.0233
▁conducting	-10.0236
▁80	-10.0241
▁else	-10.0242
▁roads	-10.0243
▁spent	-10.0244
▁plants	-10.0248
▁consult	-10.025
▁strike	-10.025
▁capacity	-10.0251
▁diseases	-10.0256
▁dog	-10.0258
9%	-10.0258
▁effort	-10.0259
▁processing	-10.0264
▁cooperative	-10.0265
▁seek	-10.0267
▁Economy	-10.0283
▁fruit	-10.0283
▁attracting	-10.0284
▁ordinance	-10.0296
▁Wi	-10.0303
▁exclusive	-10.0306
▁foreigners	-10.0313
▁kid	-10.0316
▁Car	-10.0316
▁briefing	-10.032
▁topic	-10.0334
▁fixed	-10.0339
▁eco	-10.0343
▁researcher	-10.0347
hae	-10.0364
▁compete	-10.0365
lim	-10.0367
wan	-10.0377
ick	-10.038
▁island	-10.038
income	-10.0383
40	-10.0394
▁failure	-10.0397
▁Through	-10.0401
▁kept	-10.0401
▁Therefore	-10.0401
law	-10.0402
▁calls	-10.0419
▁prosecutor	-10.0422
▁soldiers	-10.0424
▁trees	-10.0431
▁ranked	-10.0433
▁Due	-10.0439
▁resolve	-10.044
▁band	-10.0443
▁medal	-10.0443
▁Pre	-10.0445
▁directors	-10.0446
▁technical	-10.0447
▁organize	-10.045
▁France	-10.0456
▁German	-10.0457
seo	-10.0457
▁stopped	-10.0462
▁baby	-10.0462
▁discussed	-10.0473
▁complaints	-10.0478
▁Securities	-10.0493
▁baseball	-10.0498
▁artificial	-10.0502
▁chicken	-10.0512
▁Headquarters	-10.0516
▁invest	-10.0517
▁exact	-10.0523
▁suspicion	-10.0541
▁fi	-10.0541
▁Jun	-10.0544
▁Prosecutors	-10.0547
▁register	-10.0549
▁initial	-10.0554
chul	-10.0563
▁learned	-10.0564
▁completion	-10.0572
ped	-10.0576
▁Energy	-10.0581
▁livestock	-10.0581
▁rich	-10.0583
▁Geun	-10.0585
▁coast	-10.0587
▁reducing	-10.0593
▁lived	-10.0598
▁drunk	-10.06
▁drinking	-10.0603
▁treat	-10.0606
▁engine	-10.0607
▁bag	-10.0608
▁urgent	-10.0618
▁historical	-10.0619
van	-10.0621
joon	-10.0627
▁discussions	-10.0628
dang	-10.063
▁remain	-10.0632
▁favorite	-10.0634
▁declaration	-10.0637
▁shares	-10.0638
▁2011	-10.0649
▁comment	-10.0651
▁crimes	-10.0661
▁2010	-10.0663
▁animal	-10.067
▁thank	-10.0671
▁core	-10.0675
▁reflected	-10.0692
tter	-10.0693
▁talking	-10.0696
▁save	-10.0697
house	-10.07
▁ease	-10.0703
▁Tax	-10.0703
wing	-10.0705
▁minute	-10.0706
pped	-10.0713
ces	-10.0728
of	-10.0729
▁trustee	-10.0733
▁painting	-10.0738
▁parliamentary	-10.0742
gan	-10.0744
▁(1	-10.0745
▁features	-10.0747
▁pushed	-10.075
▁justice	-10.0755
▁attitude	-10.076
▁actors	-10.077
lie	-10.078
▁subparagraph	-10.0782
15	-10.0783
▁hike	-10.0784
▁advertisement	-10.0794
▁cloud	-10.0808
▁scored	-10.0808
▁fill	-10.0813
▁integrated	-10.0826
▁checked	-10.0828
shin	-10.0829
▁worry	-10.0831
▁Middle	-10.0831
▁battle	-10.0831
▁judicial	-10.0831
▁Today	-10.0836
▁gather	-10.0838
long	-10.084
▁balance	-10.0844
▁suddenly	-10.0848
▁accepted	-10.0848
▁Investment	-10.0865
▁square	-10.0865
ging	-10.0867
▁currency	-10.087
▁younger	-10.087
▁bright	-10.0871
▁secured	-10.0872
▁pop	-10.0878
▁interpreted	-10.0883
▁operator	-10.0885
▁marriage	-10.0889
▁convenient	-10.0894
Gu	-10.0899
▁functions	-10.0903
jun	-10.0903
▁injured	-10.0903
pon	-10.0906
60	-10.0908
▁suspended	-10.091
tech	-10.0916
▁Medical	-10.0918
deok	-10.092
cho	-10.0925
▁reporter	-10.0927
▁ban	-10.0929
▁politics	-10.0942
▁looked	-10.0943
▁fight	-10.0943
▁excluded	-10.0945
▁characters	-10.0955
▁seemed	-10.0957
▁establishing	-10.0958
▁ranking	-10.0964
kyung	-10.0967
25	-10.0968
▁sending	-10.0974
▁inform	-10.0981
▁Unlike	-10.0981
▁proper	-10.1003
den	-10.1004
▁Grand	-10.1005
▁Team	-10.1018
wer	-10.1023
▁affect	-10.1023
▁ice	-10.1023
ler	-10.1025
cc	-10.1028
▁behavior	-10.1029
▁vulnerable	-10.1029
▁electricity	-10.103
▁Just	-10.1031
room	-10.1034
▁Rights	-10.1036
▁benefit	-10.1038
▁truth	-10.1049
▁officers	-10.105
▁scale	-10.1052
jang	-10.1062
▁applying	-10.1062
▁kindergartens	-10.1067
▁Civil	-10.1068
▁trading	-10.1068
▁grand	-10.1068
called	-10.1075
▁India	-10.1075
▁walking	-10.1081
tle	-10.1084
▁jointly	-10.1089
▁museum	-10.1093
gye	-10.1094
wook	-10.1095
▁writer	-10.1107
ec	-10.1111
▁experienced	-10.1114
▁attempt	-10.1115
▁guard	-10.1116
▁outstanding	-10.1117
▁finding	-10.1119
▁southern	-10.1122
▁league	-10.1127
▁animals	-10.1132
▁guidance	-10.1137
▁formulate	-10.1138
▁explanation	-10.1142
▁designation	-10.1142
▁1,000	-10.1143
▁cook	-10.1144
▁finish	-10.1146
▁agree	-10.1147
▁flu	-10.1151
▁blue	-10.1152
▁comments	-10.1168
▁clearly	-10.1181
▁rule	-10.1181
▁river	-10.1182
▁photograph	-10.1185
▁Nowon	-10.1185
▁gradually	-10.1191
▁entry	-10.1197
▁mall	-10.12
ko	-10.12
▁arrive	-10.1206
▁Hak	-10.1214
▁overcome	-10.1215
▁increases	-10.1218
ps	-10.122
▁kinds	-10.1221
▁musical	-10.1224
▁rules	-10.1228
▁sad	-10.1228
▁Indonesia	-10.123
night	-10.1232
ology	-10.1233
▁tea	-10.1235
▁attraction	-10.1236
gil	-10.1245
▁Joo	-10.1245
app	-10.1246
▁35	-10.1256
▁golf	-10.1265
bok	-10.1266
▁outdoor	-10.1266
▁Your	-10.1283
▁symptoms	-10.1286
▁minor	-10.1286
ulation	-10.1287
▁agent	-10.1296
▁route	-10.1297
▁borrow	-10.1306
▁runs	-10.1307
gar	-10.131
US	-10.132
▁Bi	-10.1325
bit	-10.1326
▁inspect	-10.1328
▁window	-10.1342
▁innovative	-10.1346
▁realize	-10.1359
▁exist	-10.1359
▁rooms	-10.136
▁White	-10.1366
▁te	-10.1379
As	-10.1379
▁reserve	-10.1383
▁Im	-10.1395
rim	-10.1397
▁civic	-10.1407
▁continuously	-10.1408
▁border	-10.1422
▁strengthening	-10.1424
▁certification	-10.1432
▁creative	-10.1437
▁via	-10.1447
▁Saturday	-10.1447
▁Sohn	-10.1447
▁plastic	-10.1452
duct	-10.1457
▁regardless	-10.1459
qua	-10.1464
▁stated	-10.1465
▁wants	-10.1466
▁regulation	-10.1468
▁Kakao	-10.1473
▁trouble	-10.1473
ay	-10.1486
▁memory	-10.1503
▁System	-10.1509
▁distance	-10.1509
▁criteria	-10.1514
▁entrust	-10.1514
▁strongly	-10.1516
▁venture	-10.1519
▁mission	-10.152
▁install	-10.1523
▁Bareunmirae	-10.1534
list	-10.1539
fl	-10.1543
▁Chungcheong	-10.1544
▁requires	-10.1549
▁committed	-10.1551
▁tree	-10.1552
▁tight	-10.1558
▁incurred	-10.156
wo	-10.157
▁Monday	-10.1577
▁refer	-10.1585
ological	-10.1586
dent	-10.1589
▁debut	-10.1591
▁Pyeongtaek	-10.1596
▁rock	-10.1606
▁Malaysia	-10.1611
▁scandal	-10.1611
▁salary	-10.1611
▁recovery	-10.1612
▁suspension	-10.1617
set	-10.1619
▁cafe	-10.1627
▁Children	-10.1627
▁Force	-10.1628
▁Green	-10.1632
▁foster	-10.1641
▁adjust	-10.1643
ier	-10.1644
▁object	-10.1651
▁pa	-10.1666
▁approved	-10.1667
▁meat	-10.1668
▁Rep	-10.1668
▁Consider	-10.1673
▁Forest	-10.1673
▁okay	-10.1679
▁applicants	-10.1683
ram	-10.1686
▁aimed	-10.1686
▁transaction	-10.1695
▁rare	-10.17
ach	-10.1703
▁counter	-10.1709
▁fear	-10.171
ery	-10.1719
water	-10.1721
so	-10.1724
▁Il	-10.1725
▁Friday	-10.1726
direct	-10.1727
tric	-10.1733
▁upon	-10.1736
▁ha	-10.1738
Re	-10.174
▁utilize	-10.1741
▁Film	-10.1752
Ma	-10.1753
▁interesting	-10.1755
▁aid	-10.1757
joo	-10.1765
▁Canada	-10.1768
▁grant	-10.1772
▁Dr	-10.1786
▁boat	-10.1787
▁BTS	-10.1789
ned	-10.1789
▁concentration	-10.1794
▁amid	-10.1795
-2	-10.1799
▁disclosure	-10.1804
▁expert	-10.1818
▁package	-10.1819
▁forecast	-10.182
▁regime	-10.1821
▁communicate	-10.1825
▁ingredients	-10.1827
▁tickets	-10.1831
▁pack	-10.184
▁Sha	-10.1852
▁corruption	-10.1856
▁Australia	-10.1856
▁consulting	-10.1863
▁Soon	-10.1864
▁drawn	-10.1869
▁garden	-10.1878
▁Ryu	-10.1886
▁Ti	-10.189
▁Law	-10.19
▁habit	-10.1901
▁enforcement	-10.1901
▁cryptocurrency	-10.1905
▁flood	-10.1916
▁page	-10.1916
mate	-10.1916
▁cheer	-10.1917
▁falls	-10.1925
▁Google	-10.1932
▁setting	-10.1937
▁connected	-10.1938
▁thanks	-10.1943
▁2009	-10.1956
▁earnest	-10.196
▁kindergarten	-10.196
▁attracted	-10.1961
▁distributed	-10.1966
▁recognize	-10.1966
▁composed	-10.1969
▁Dan	-10.1972
▁signs	-10.1972
▁transactions	-10.1979
▁dark	-10.198
ists	-10.1984
▁rural	-10.1985
▁occurs	-10.199
▁fierce	-10.199
▁ideas	-10.1991
▁subparagraphs	-10.1998
▁frequently	-10.2002
ham	-10.2003
▁buses	-10.2006
▁plane	-10.2008
▁childcare	-10.2013
▁institute	-10.2015
▁uniform	-10.2023
▁efficiency	-10.2025
▁Hi	-10.2028
▁dress	-10.2033
▁Jeolla	-10.2038
▁concluded	-10.2039
▁narrow	-10.2039
▁importance	-10.2052
▁bottom	-10.206
▁eventually	-10.206
▁Arts	-10.2068
▁boost	-10.2071
▁Power	-10.2072
▁tired	-10.2073
put	-10.2082
▁reporting	-10.2085
▁chart	-10.2088
▁Olympics	-10.2089
▁witness	-10.2098
▁murder	-10.2104
▁Rule	-10.2107
wang	-10.2112
air	-10.2114
▁essential	-10.2126
▁(3)	-10.2126
▁da	-10.2129
▁maximum	-10.2131
▁SNS	-10.2131
▁fa	-10.2132
▁Cheonan	-10.2133
▁typhoon	-10.2136
▁Free	-10.2138
▁tasks	-10.2142
▁putting	-10.2142
▁YouTube	-10.2147
▁Ar	-10.215
myung	-10.2151
▁patent	-10.2153
class	-10.2158
▁latest	-10.2163
▁workplace	-10.2163
employed	-10.2164
▁sides	-10.2164
▁checking	-10.2168
▁complaint	-10.2174
llow	-10.2177
▁Road	-10.2179
▁argued	-10.2179
▁dry	-10.218
▁IT	-10.2189
▁Lu	-10.219
▁smile	-10.2197
▁stars	-10.2218
mu	-10.2223
hyeon	-10.2228
▁sweet	-10.2235
▁Corp	-10.2235
▁Base	-10.2247
▁loved	-10.2256
▁interests	-10.2263
soon	-10.227
▁heads	-10.2273
▁Mexico	-10.2273
▁listed	-10.2276
▁achieved	-10.2281
right	-10.2285
▁watched	-10.2299
▁experiences	-10.2302
▁News	-10.2318
▁evening	-10.232
▁suffer	-10.2321
▁sometimes	-10.2324
▁Supervisory	-10.2329
▁designate	-10.2332
▁French	-10.2351
ST	-10.2353
▁grounds	-10.2361
▁2016,	-10.2367
style	-10.237
▁corporations	-10.2379
▁awareness	-10.2381
▁alcohol	-10.2384
sol	-10.2388
▁regard	-10.2392
▁Pi	-10.24
▁century	-10.2401
▁emerged	-10.2412
▁railway	-10.2413
kyu	-10.2423
▁ca	-10.2425
▁Seongnam	-10.2426
▁Yeo	-10.2431
▁2020	-10.2433
▁Gyeongnam	-10.2442
▁mass	-10.2445
▁Stadium	-10.2446
▁sentiment	-10.2452
cer	-10.2459
istic	-10.2474
tation	-10.2474
▁mutual	-10.2474
dam	-10.2475
row	-10.248
▁extend	-10.2482
▁mu	-10.2485
▁birthday	-10.2487
▁priority	-10.249
▁married	-10.2491
▁seeing	-10.2494
▁affiliated	-10.2499
▁Family	-10.2508
Do	-10.2512
▁fe	-10.2517
▁Any	-10.2517
▁Gwang	-10.2518
▁Bar	-10.2529
▁officially	-10.2534
▁wild	-10.2536
▁Hallyu	-10.2549
▁helped	-10.255
▁cosmetics	-10.2552
chang	-10.2553
▁rumor	-10.257
▁fail	-10.2578
▁civilian	-10.2587
▁confidence	-10.2587
▁purchased	-10.2597
▁tri	-10.26
▁West	-10.2605
▁upper	-10.2607
▁boy	-10.2608
▁fuel	-10.261
▁idol	-10.2616
▁Music	-10.2627
▁accurate	-10.2627
mark	-10.2628
▁Fa	-10.2629
bri	-10.2629
▁emerging	-10.2639
▁Sunday	-10.2642
▁placed	-10.2643
▁laws	-10.2643
▁Speaker	-10.2645
▁instructor	-10.2651
▁diplomatic	-10.2651
▁advice	-10.2656
pil	-10.2656
aving	-10.2656
pic	-10.2664
▁gate	-10.2665
▁lo	-10.2667
▁Paju	-10.2668
▁Would	-10.2673
▁conf	-10.2678
▁robot	-10.2679
▁artist	-10.2684
chon	-10.2686
▁offering	-10.2687
▁Fi	-10.2689
▁feature	-10.2692
▁goals	-10.2693
▁Meteorological	-10.2708
▁transform	-10.2708
▁2008	-10.2711
▁suitable	-10.2712
▁municipal	-10.2714
▁Dynasty	-10.2719
▁disciplinary	-10.2719
▁throw	-10.272
▁expenditure	-10.2725
▁drugs	-10.2726
▁extended	-10.2729
qu	-10.2736
▁Myeong	-10.2748
tel	-10.275
▁shipping	-10.275
af	-10.2757
▁fifth	-10.2766
art	-10.277
▁foods	-10.2775
▁confirmation	-10.278
▁believes	-10.2781
▁thousand	-10.2783
▁Mun	-10.2785
▁equipped	-10.2789
▁earthquake	-10.2795
▁defect	-10.2797
▁race	-10.2799
▁broken	-10.28
▁error	-10.2801
▁Ya	-10.281
iving	-10.2813
▁extent	-10.282
▁damages	-10.2822
▁Pohang	-10.2824
▁enjoyed	-10.2825
ency	-10.2826
▁passing	-10.2829
▁sharp	-10.2831
▁cake	-10.2831
▁models	-10.2832
▁execution	-10.2835
▁transferred	-10.2839
▁Bang	-10.2847
mul	-10.285
ix	-10.2852
▁judged	-10.2855
▁lots	-10.286
▁transport	-10.2861
▁comfortable	-10.2861
▁storage	-10.2865
▁spreading	-10.2873
▁ready	-10.2874
▁bureau	-10.2876
▁episode	-10.2876
▁lease	-10.2885
▁Kwang	-10.2886
grade	-10.2888
eup	-10.2897
▁mouth	-10.29
▁demonstration	-10.29
▁Real	-10.2904
pyeong	-10.2907
▁faith	-10.2912
▁manufacturer	-10.2923
▁British	-10.2923
▁pollution	-10.2923
ye	-10.2925
▁cast	-10.2935
▁amendment	-10.2935
▁version	-10.2935
▁passengers	-10.2944
▁unification	-10.2946
▁Hyo	-10.2947
▁combined	-10.2948
▁En	-10.2956
▁aware	-10.2956
▁escape	-10.2959
▁videos	-10.2959
▁deadline	-10.2966
▁invited	-10.2971
▁truck	-10.2977
▁treated	-10.2982
▁stance	-10.2984
▁flower	-10.2988
▁complexes	-10.2988
▁missile	-10.2989
▁Pompeo	-10.3
▁suicide	-10.3
▁notified	-10.3011
ox	-10.3017
ook	-10.3018
all	-10.3018
▁saving	-10.302
▁Bae	-10.3027
▁citizen	-10.3031
▁comprised	-10.3036
▁firms	-10.3038
▁10,000	-10.3041
espite	-10.3042
▁pledge	-10.3042
▁Western	-10.3042
za	-10.3045
▁Actor	-10.3045
▁drew	-10.3048
▁recognition	-10.3048
▁ecosystem	-10.3054
▁Jesus	-10.3054
▁SMEs	-10.306
▁figures	-10.3061
▁smooth	-10.3062
▁Society	-10.3066
▁sluggish	-10.3066
bb	-10.3069
▁stick	-10.3072
▁mostly	-10.3076
▁injury	-10.3078
▁shooting	-10.3084
▁delicious	-10.3096
▁procedure	-10.3098
gg	-10.3099
▁wages	-10.31
zo	-10.3106
yeol	-10.3109
▁appears	-10.3112
▁bicycle	-10.3114
born	-10.3118
▁carrying	-10.312
aries	-10.3121
▁departments	-10.3131
▁Geo	-10.3132
▁demanded	-10.3133
▁causes	-10.3136
▁publish	-10.3142
▁option	-10.3144
book	-10.3147
▁mail	-10.3148
ray	-10.3151
▁lectures	-10.3153
how	-10.3154
▁Hanwha	-10.3164
▁offices	-10.3166
▁Communication	-10.3168
▁Company	-10.3168
▁grades	-10.3169
▁ride	-10.3174
▁surface	-10.3174
▁Home	-10.3175
▁lowest	-10.3181
▁Shim	-10.3189
▁negotiation	-10.3191
▁pattern	-10.3192
▁offered	-10.3193
▁32	-10.3197
▁discover	-10.3198
▁north	-10.3199
▁restore	-10.32
▁forum	-10.321
▁glass	-10.321
▁allowing	-10.3213
gok	-10.3214
▁haven	-10.3215
▁permit	-10.3217
▁proportion	-10.3218
▁mixed	-10.3224
▁height	-10.3225
▁Seocho	-10.3226
▁Yun	-10.3227
▁Have	-10.3229
ero	-10.3233
▁qualification	-10.3235
▁maintained	-10.3245
▁competitive	-10.3251
▁Changwon	-10.326
ened	-10.3261
▁courses	-10.327
▁performing	-10.3273
cation	-10.3281
ade	-10.3282
▁code	-10.3287
▁sit	-10.3296
13	-10.3297
▁90	-10.3298
▁promise	-10.3301
▁holidays	-10.3311
▁breath	-10.3314
late	-10.332
▁guidelines	-10.332
▁earn	-10.3323
▁obtained	-10.3331
▁Command	-10.3332
▁customized	-10.3333
▁pastor	-10.3333
▁lines	-10.3339
meter	-10.3339
▁Pu	-10.3342
▁hydrogen	-10.3345
▁statutes	-10.3345
point	-10.3347
▁map	-10.3349
▁cooking	-10.3355
▁Operation	-10.3357
▁contributed	-10.3363
wn	-10.3365
▁Bong	-10.3369
▁ob	-10.3371
▁appreciate	-10.3375
▁Future	-10.3376
▁charm	-10.3388
▁diverse	-10.3388
▁enterprise	-10.3391
▁naturally	-10.3396
▁flowers	-10.3403
cut	-10.3405
▁disappear	-10.3411
▁identified	-10.3412
▁phenomenon	-10.3412
▁shops	-10.3415
▁meals	-10.3416
▁slightly	-10.3419
▁reply	-10.3419
▁connect	-10.3422
▁producer	-10.3422
▁nearly	-10.3425
person	-10.3429
▁efficiently	-10.343
▁welcome	-10.3431
▁colors	-10.3443
17	-10.3447
▁destination	-10.345
lor	-10.3454
▁sectors	-10.346
▁Wednesday	-10.3462
▁Yeouido	-10.3462
▁homes	-10.3466
▁careful	-10.3466
▁convention	-10.3468
▁individuals	-10.347
▁Marine	-10.3471
▁values	-10.3476
uc	-10.3477
▁feelings	-10.3485
▁cup	-10.3485
cro	-10.3489
▁signing	-10.349
jeon	-10.3493
▁Gangneung	-10.3493
▁fat	-10.3496
iv	-10.3496
▁gives	-10.3496
phone	-10.3497
▁gathering	-10.3499
▁celebrate	-10.3499
▁Philippines	-10.3499
▁concentrated	-10.35
ced	-10.3503
▁subjects	-10.3503
▁mini	-10.3504
rang	-10.3509
▁claims	-10.3513
▁bonds	-10.3527
▁penalty	-10.3531
▁promised	-10.3532
▁rapid	-10.3533
▁canceled	-10.3536
▁stations	-10.3536
▁ruled	-10.3538
-1	-10.3549
▁factor	-10.3553
▁suspicions	-10.3554
▁symbol	-10.3557
▁meantime	-10.3559
▁struggle	-10.3562
▁sky	-10.3562
▁Har	-10.3567
▁seal	-10.3568
▁straight	-10.3568
▁pushing	-10.3573
▁ministry	-10.3575
▁involving	-10.3587
▁bed	-10.359
flow	-10.3592
▁Global	-10.36
▁declared	-10.3602
mar	-10.3605
▁teenagers	-10.3607
▁ICT	-10.3613
▁Academy	-10.3619
▁either	-10.3619
▁football	-10.3619
top	-10.3619
bl	-10.3626
gyu	-10.3629
▁Chun	-10.3632
▁belong	-10.3632
▁subsidy	-10.3638
▁articles	-10.3638
▁wake	-10.3644
▁pitcher	-10.3644
▁tend	-10.3647
▁Apple	-10.3648
▁Workers	-10.3648
▁Bio	-10.365
▁awarded	-10.3651
▁Chuseok	-10.3657
hop	-10.3667
▁franchise	-10.3669
▁inevitable	-10.3669
▁actions	-10.3671
▁chair	-10.3673
▁occasion	-10.3676
▁successfully	-10.3681
▁athletes	-10.3687
▁tournament	-10.3688
▁regret	-10.3695
▁prime	-10.3695
og	-10.3698
▁Community	-10.3701
atory	-10.3717
Korea	-10.3718
▁exposed	-10.3727
ient	-10.3727
▁Yongin	-10.373
▁Ansan	-10.3735
hak	-10.374
▁Medium	-10.3746
▁losing	-10.3747
dra	-10.3749
▁trans	-10.3752
▁managing	-10.3754
▁eliminat	-10.3759
▁solid	-10.3759
hen	-10.3761
▁Yongsan	-10.3763
▁closely	-10.3766
▁studies	-10.3771
▁fiscal	-10.3771
▁conflicts	-10.3771
▁collapse	-10.3778
▁Work	-10.378
▁withdraw	-10.3782
▁corner	-10.3784
▁Agriculture	-10.3791
▁engaged	-10.3791
bong	-10.3796
▁Gang	-10.3799
▁Chan	-10.3801
▁beat	-10.3801
▁kick	-10.3804
▁districts	-10.3807
▁spending	-10.3808
▁aged	-10.3809
▁wedding	-10.3809
▁dropped	-10.3811
▁strict	-10.3817
▁Other	-10.3817
000	-10.3818
▁statistics	-10.3829
▁booth	-10.3829
▁hospitals	-10.3831
▁instruct	-10.3842
xi	-10.3843
▁degree	-10.3843
cus	-10.385
▁names	-10.3851
▁imposed	-10.3852
▁Love	-10.3853
▁vision	-10.3855
▁shareholders	-10.3862
▁Motors	-10.3869
generation	-10.3872
▁Student	-10.3881
▁pilot	-10.3881
▁stability	-10.3881
▁attach	-10.3888
▁grown	-10.389
▁2017,	-10.3892
▁hiring	-10.39
▁remove	-10.3902
▁multiple	-10.3902
hold	-10.3913
▁Fu	-10.3917
▁leisure	-10.392
▁unusual	-10.392
▁Unification	-10.3921
▁Brazil	-10.3925
▁shift	-10.3927
▁systems	-10.3929
pping	-10.393
▁Bureau	-10.3933
▁losses	-10.3935
▁religious	-10.3939
▁bear	-10.394
▁blind	-10.3946
▁150	-10.3947
▁gained	-10.3947
▁flag	-10.3952
▁Temple	-10.3953
▁funeral	-10.3953
▁novel	-10.3956
▁powerful	-10.3964
▁buying	-10.3969
▁handed	-10.397
▁disposal	-10.3972
▁tariffs	-10.3973
▁outcome	-10.3974
▁army	-10.3974
▁replace	-10.3975
▁orders	-10.3979
▁covered	-10.3979
▁resolved	-10.3982
▁weapons	-10.3983
▁El	-10.3989
▁operators	-10.3991
▁Tokyo	-10.3992
▁south	-10.3992
▁applications	-10.3995
▁containing	-10.3996
▁opponent	-10.3998
▁Thailand	-10.3999
▁Super	-10.4
umb	-10.4001
ise	-10.4013
▁monitoring	-10.4018
owned	-10.4019
▁disc	-10.4023
▁semester	-10.4025
▁strange	-10.4026
▁dialogue	-10.4031
▁mine	-10.4031
▁evaluated	-10.4032
12	-10.4032
▁infant	-10.404
▁begun	-10.4042
log	-10.4044
▁supervision	-10.4045
▁levels	-10.4046
▁pet	-10.4047
▁detail	-10.405
PO	-10.405
▁Beijing	-10.4051
▁client	-10.4051
▁count	-10.4052
▁Amid	-10.4058
▁Gyeongsangnam	-10.406
▁soft	-10.4072
ley	-10.4075
▁33	-10.4078
▁cap	-10.4083
▁Citizens	-10.4091
▁Army	-10.4091
▁channel	-10.4093
▁Innovation	-10.4097
▁blow	-10.4099
▁sudden	-10.4101
▁Board	-10.4102
▁dishes	-10.411
▁extension	-10.4117
guk	-10.4117
rin	-10.4122
▁easier	-10.4124
▁Vietnamese	-10.4124
▁voting	-10.4124
▁34	-10.4132
▁sharply	-10.4135
▁Engineering	-10.4137
▁combination	-10.4137
rk	-10.4139
▁revitalize	-10.4144
▁Planning	-10.4145
▁appoint	-10.4161
▁resume	-10.4171
16	-10.4173
▁Gun	-10.4173
▁satisfaction	-10.4177
▁actress	-10.4177
▁bridge	-10.4178
▁pan	-10.4179
▁competent	-10.4183
▁CCTV	-10.4184
▁Urban	-10.4184
▁carefully	-10.4188
▁asset	-10.4188
▁cleaning	-10.4194
▁advertising	-10.4197
▁preferential	-10.4197
▁2015,	-10.42
▁fraud	-10.4204
▁litigation	-10.4204
▁blocked	-10.4205
▁stake	-10.4209
▁intensive	-10.4217
▁signal	-10.4219
▁Gangseo	-10.422
▁retail	-10.4223
ov	-10.4225
▁continuing	-10.4231
▁Tour	-10.4233
▁identity	-10.4237
lay	-10.4243
▁familiar	-10.4251
▁(5	-10.4257
▁prohibit	-10.4257
▁52	-10.4261
▁Administrative	-10.4264
▁College	-10.4264
▁Senior	-10.4264
▁pretty	-10.4271
▁fundamental	-10.4278
▁farms	-10.4278
▁Declaration	-10.4284
low	-10.4285
▁super	-10.4285
▁contracts	-10.4289
95	-10.4293
▁sick	-10.4294
▁rejected	-10.4298
▁Two	-10.4301
▁gaining	-10.4302
75	-10.4303
▁revolution	-10.4305
▁chat	-10.4306
▁investigated	-10.4308
▁Care	-10.431
▁100,000	-10.4315
▁identify	-10.4332
Kim	-10.4339
▁dispatched	-10.434
▁Cheongju	-10.4341
ably	-10.4347
▁stadium	-10.4352
mail	-10.4355
49	-10.4358
▁Until	-10.4359
▁residence	-10.4359
▁heritage	-10.4366
98	-10.4367
▁Town	-10.4368
▁introducing	-10.4379
▁extreme	-10.4384
▁downtown	-10.4386
▁facing	-10.4394
▁gets	-10.4401
like	-10.4402
He	-10.4405
▁Strategy	-10.4407
▁quantity	-10.4407
lf	-10.4407
▁invested	-10.4408
▁winner	-10.4413
▁Hwaseong	-10.4415
▁realized	-10.4419
▁bigger	-10.4424
23	-10.4426
car	-10.4427
▁pleasant	-10.4427
place	-10.4427
▁entrustment	-10.4433
care	-10.4433
▁automobile	-10.4434
CC	-10.4438
bra	-10.4439
▁comply	-10.444
▁Attention	-10.4441
▁voices	-10.4444
rap	-10.4446
▁securing	-10.4448
CEO	-10.4451
▁responded	-10.4452
▁continuous	-10.4452
▁Moo	-10.4454
▁purchasing	-10.4455
▁smoke	-10.4455
▁analyze	-10.4457
▁permanent	-10.4462
body	-10.4467
▁Disaster	-10.4468
▁Washington	-10.4468
▁Housing	-10.4468
hand	-10.4473
▁experiment	-10.4475
seon	-10.448
▁Big	-10.4482
▁capabilities	-10.4482
▁genre	-10.4482
▁exceeded	-10.4484
▁hang	-10.4491
CO	-10.4496
▁legislation	-10.4496
ute	-10.45
▁Especially	-10.4503
▁scholarship	-10.4511
▁aircraft	-10.4511
▁Independence	-10.4517
▁requirements	-10.4517
▁perspective	-10.4524
▁Plan	-10.4524
▁qua	-10.4528
▁acquisition	-10.453
99	-10.4531
▁detected	-10.4532
▁Bridge	-10.4533
▁Matters	-10.4544
▁rush	-10.4545
▁Gyeongbuk	-10.4545
▁singing	-10.4545
▁charged	-10.455
▁stream	-10.4555
▁tension	-10.4561
▁aging	-10.4569
▁originally	-10.457
▁Job	-10.4572
▁Sub	-10.4572
▁memorial	-10.4572
ane	-10.4579
▁Pension	-10.4579
oli	-10.458
▁comfort	-10.4583
▁whenever	-10.4585
▁Thanks	-10.4591
▁troops	-10.4593
▁applicant	-10.4594
▁imported	-10.4599
▁Christmas	-10.46
▁exemption	-10.4601
▁peak	-10.4607
oriented	-10.4607
BC	-10.4608
▁Street	-10.4614
▁origin	-10.4617
▁deploy	-10.4621
cheol	-10.4627
▁turning	-10.4627
▁Yo	-10.4634
▁plenary	-10.4642
▁drivers	-10.4646
▁apologize	-10.4649
ged	-10.4651
▁parent	-10.4651
▁smartphones	-10.4657
▁agriculture	-10.4663
rry	-10.4668
▁category	-10.467
▁gone	-10.467
▁daycare	-10.467
▁refers	-10.4673
▁king	-10.4674
▁dangerous	-10.4678
▁passenger	-10.468
▁marine	-10.4684
gn	-10.4684
▁brain	-10.4687
▁convey	-10.4691
lon	-10.4702
▁reasonable	-10.4705
▁bags	-10.4709
▁rally	-10.4715
▁bills	-10.4719
▁Regional	-10.4726
▁technique	-10.4726
▁Ban	-10.4727
▁merchants	-10.4728
pt	-10.4733
▁scar	-10.4735
▁talked	-10.4736
▁Industries	-10.474
▁landscape	-10.474
▁publicly	-10.4744
▁principal	-10.4747
▁consent	-10.4759
▁replaced	-10.4761
▁tons	-10.4771
play	-10.4771
▁2007	-10.4773
▁strategic	-10.4783
▁36	-10.4786
▁replacement	-10.4794
▁micro	-10.4797
about	-10.4804
▁raw	-10.4805
▁bra	-10.4805
▁simply	-10.4818
▁operations	-10.4822
▁acts	-10.4823
▁pray	-10.4824
▁Ph	-10.4825
▁spokesman	-10.4825
uff	-10.4826
▁plays	-10.483
▁greater	-10.4836
▁filming	-10.4838
▁linked	-10.4843
▁brands	-10.4845
▁root	-10.4847
▁Jeollanam	-10.4848
hour	-10.4853
▁composition	-10.4854
▁prosecutors	-10.4856
▁discrimination	-10.4861
▁happiness	-10.4861
▁behalf	-10.4861
▁Show	-10.4867
▁noise	-10.4869
▁returning	-10.4871
▁Water	-10.4876
range	-10.4879
▁differences	-10.488
▁Design	-10.4884
nal	-10.4889
▁Regulation	-10.489
▁knew	-10.489
▁monitor	-10.489
▁dismissed	-10.4891
pyo	-10.4893
▁ultra	-10.4897
▁38	-10.4898
tail	-10.4907
▁shoes	-10.4911
▁adjustment	-10.4917
▁handling	-10.4933
▁cards	-10.4957
lig	-10.496
▁relief	-10.4962
▁specified	-10.4962
▁equal	-10.4973
gon	-10.4975
▁allowances	-10.4978
11	-10.4978
▁belonging	-10.4982
▁Huawei	-10.4983
▁joy	-10.4984
▁unlike	-10.4985
14	-10.4985
5,000	-10.4987
field	-10.4989
▁empty	-10.4991
24	-10.4997
▁centered	-10.5001
▁keen	-10.5005
▁crackdown	-10.5005
▁images	-10.5013
maker	-10.5018
▁steel	-10.502
▁singers	-10.5025
▁leak	-10.5029
▁relation	-10.5031
▁Hana	-10.5034
▁laugh	-10.504
▁curriculum	-10.5041
▁villages	-10.5043
▁miss	-10.5049
▁forget	-10.505
▁45	-10.5062
▁Koo	-10.5063
▁temple	-10.5063
▁widely	-10.5072
▁listening	-10.5075
ject	-10.5076
▁urged	-10.5079
▁freely	-10.5084
▁disappeared	-10.5087
▁Jongno	-10.5089
▁friendly	-10.5092
▁Military	-10.5092
▁Singer	-10.5095
▁researchers	-10.5097
▁annually	-10.5101
graph	-10.5104
▁undergo	-10.5105
▁bird	-10.5105
▁Experts	-10.5114
▁pen	-10.5125
▁however	-10.5125
▁abolish	-10.5129
▁resign	-10.5131
▁impose	-10.5134
back	-10.5134
▁fly	-10.5134
sook	-10.5139
▁shipment	-10.5157
▁mood	-10.5161
▁Wan	-10.5165
▁adults	-10.5166
▁Pay	-10.517
including	-10.5175
▁mutati	-10.518
▁memories	-10.5181
bal	-10.5189
▁usage	-10.5195
▁Non	-10.5196
▁conclusion	-10.5203
▁Store	-10.5203
70	-10.521
Gun	-10.5212
▁Sp	-10.5214
▁chose	-10.5214
▁65	-10.5218
▁Ilbo	-10.5219
▁Head	-10.522
bel	-10.5222
▁Before	-10.5233
▁draft	-10.5233
aged	-10.5233
quality	-10.5234
▁juvenile	-10.524
▁guest	-10.5243
▁diet	-10.525
take	-10.5257
▁phase	-10.5263
▁succeeded	-10.5263
▁emission	-10.5264
▁Each	-10.5276
▁Four	-10.5276
▁assembly	-10.5277
ender	-10.5277
▁teach	-10.5279
▁helping	-10.5279
geun	-10.528
▁Saudi	-10.5285
▁Northern	-10.5285
▁note	-10.5287
▁Only	-10.5288
▁royal	-10.5292
▁substance	-10.5292
▁respondents	-10.5292
▁attendance	-10.5298
NA	-10.5304
ugh	-10.5305
▁ski	-10.5306
▁grew	-10.5307
▁Leader	-10.5307
▁automatically	-10.5308
▁frequent	-10.5314
▁disadvantage	-10.5322
▁Good	-10.5325
▁preserve	-10.5328
▁securities	-10.5329
▁Ui	-10.5333
▁Earlier	-10.5337
script	-10.5352
▁Audit	-10.5352
▁Kyo	-10.5359
yeo	-10.5361
▁Elementary	-10.5367
▁dish	-10.5373
▁Fisheries	-10.5375
▁communities	-10.5375
▁vessel	-10.5375
▁enable	-10.5376
▁buyers	-10.5377
▁estimate	-10.5379
▁kimchi	-10.5382
▁upcoming	-10.5382
▁discovered	-10.5384
▁withdrawal	-10.5386
▁dedicated	-10.539
craft	-10.539
▁internet	-10.5391
▁recording	-10.5396
▁Nu	-10.5396
▁mom	-10.54
▁Shinhan	-10.5402
46	-10.5405
making	-10.5408
▁smell	-10.5412
▁hole	-10.5425
▁Heritage	-10.5427
▁Those	-10.5427
▁adult	-10.5428
▁Cooperation	-10.5435
▁trends	-10.5443
92	-10.545
▁rank	-10.5453
▁teaching	-10.5456
ken	-10.5465
▁Spain	-10.5465
▁seeking	-10.5473
▁container	-10.548
▁yourself	-10.5486
▁verification	-10.5488
▁Self	-10.5492
45	-10.5494
▁seminar	-10.5496
▁faster	-10.5498
▁Starting	-10.55
▁yellow	-10.5503
▁emotional	-10.551
▁prefer	-10.5513
▁decade	-10.5513
▁Ku	-10.5516
▁quick	-10.5518
▁relax	-10.5519
well	-10.5523
▁politician	-10.5526
eo	-10.5531
board	-10.5533
▁flexible	-10.5534
▁Geum	-10.5537
▁Smart	-10.5537
dan	-10.5538
▁Tong	-10.554
▁Gyeongsangbuk	-10.5542
▁Residents	-10.5547
▁John	-10.5549
▁Hanoi	-10.5549
gak	-10.555
▁Intelligence	-10.5557
▁liquid	-10.5557
cle	-10.5576
▁dogs	-10.5578
lam	-10.5584
▁bottle	-10.5588
▁regulatory	-10.5588
▁underground	-10.5592
▁egg	-10.5598
▁detect	-10.5598
hood	-10.5602
▁1.5	-10.5603
▁disclosed	-10.5604
▁panel	-10.5606
?"	-10.5606
▁nurse	-10.5611
▁adopted	-10.5616
▁Ham	-10.5617
▁mask	-10.5619
▁spa	-10.5624
▁consensus	-10.5626
▁unexpected	-10.5626
▁reaction	-10.5634
▁bid	-10.5634
▁bound	-10.5637
▁succeed	-10.5648
▁diagnosis	-10.565
▁donated	-10.5672
▁earth	-10.5681
▁subordinate	-10.5688
▁traveling	-10.5689
▁bereaved	-10.5696
▁exception	-10.5697
ties	-10.5699
▁recall	-10.5701
47	-10.5706
vol	-10.5712
Committee	-10.5716
ari	-10.5723
▁visual	-10.5727
▁convert	-10.5727
▁wins	-10.5729
rae	-10.5733
▁copy	-10.5734
▁die	-10.5737
▁favorable	-10.5739
▁Guard	-10.5749
▁indicate	-10.5758
▁lay	-10.5764
▁interior	-10.5766
▁doubt	-10.5766
▁calm	-10.5766
▁Goryeo	-10.5767
▁staying	-10.5768
▁thus	-10.5775
▁unveiled	-10.5776
itive	-10.5776
▁combine	-10.5788
▁Kia	-10.5794
▁upload	-10.5794
ware	-10.5795
▁Look	-10.5796
▁radio	-10.5801
▁roll	-10.5809
▁Turkey	-10.5813
▁Valley	-10.5813
▁pull	-10.5814
▁strengthened	-10.5815
ump	-10.5816
▁stood	-10.5829
under	-10.583
▁resignation	-10.5834
tress	-10.5836
▁guess	-10.5837
▁lifelong	-10.5843
▁Second	-10.5845
▁Three	-10.5845
hun	-10.585
▁collecting	-10.5853
88	-10.5854
▁relative	-10.586
arious	-10.5861
▁personality	-10.5865
▁expertise	-10.5877
▁400	-10.5879
▁scholar	-10.5883
De	-10.5883
▁logistics	-10.5884
▁institutes	-10.5887
▁luxury	-10.5892
85	-10.5899
▁Who	-10.5899
▁awards	-10.5903
▁illegally	-10.5903
▁closing	-10.5908
97	-10.5915
▁Joint	-10.5916
▁solo	-10.5925
94	-10.5926
cept	-10.593
ku	-10.5931
▁voluntary	-10.5932
▁subcommittee	-10.5932
200	-10.5937
clock	-10.5939
▁Rural	-10.594
No	-10.5944
▁Songpa	-10.5946
▁bull	-10.5951
▁owned	-10.5953
This	-10.5954
▁surpass	-10.5964
▁tears	-10.5967
▁Exchange	-10.5972
▁accompanied	-10.5972
▁milk	-10.598
▁wh	-10.5986
▁multicultural	-10.5988
▁votes	-10.5992
▁Class	-10.5992
▁Sc	-10.5993
▁element	-10.5993
▁dollar	-10.5994
▁pig	-10.5995
▁mutandis	-10.5996
▁perception	-10.5996
▁supplied	-10.5996
▁Control	-10.6004
▁portion	-10.6011
▁serving	-10.6012
▁gun	-10.6012
▁37	-10.6013
▁Analysts	-10.602
▁usual	-10.6026
heung	-10.6027
▁shareholder	-10.6027
▁cancellation	-10.6036
▁fake	-10.6038
▁massive	-10.6041
▁Following	-10.6044
▁climate	-10.6044
▁600	-10.6045
▁surge	-10.6049
▁disclose	-10.6051
▁fare	-10.6056
▁minimize	-10.606
life	-10.606
▁fallen	-10.606
▁smoothly	-10.6065
▁snack	-10.6068
▁afraid	-10.6068
uck	-10.6072
▁hundreds	-10.6076
pan	-10.6077
Mo	-10.6083
▁Standard	-10.6084
▁horse	-10.6084
▁Congress	-10.6085
▁smoking	-10.6087
▁instrument	-10.6092
▁chemical	-10.61
▁Gwanak	-10.61
▁Another	-10.6102
▁Sal	-10.6103
▁Forum	-10.6105
gel	-10.611
▁wine	-10.611
▁Bucheon	-10.6113
▁PC	-10.612
bak	-10.6122
▁speaker	-10.6123
▁governed	-10.6125
▁towards	-10.6128
▁surprised	-10.6129
▁paintings	-10.613
▁steps	-10.6132
▁accumulated	-10.6132
▁fulfill	-10.6133
AR	-10.6134
▁classified	-10.6136
▁remained	-10.614
▁Buddhist	-10.6141
▁Mapo	-10.6141
▁previously	-10.6146
ori	-10.6146
▁repeatedly	-10.6148
▁roof	-10.6149
▁Thursday	-10.6149
▁guy	-10.6152
▁chosen	-10.6153
▁Every	-10.6156
▁Naver	-10.6157
▁harassment	-10.6165
▁hidden	-10.6165
Seo	-10.6166
bang	-10.6169
▁engage	-10.6172
▁Per	-10.6175
▁channels	-10.6179
▁founded	-10.6189
▁remark	-10.619
▁steadily	-10.6198
▁para	-10.62
▁expense	-10.6202
▁Twitter	-10.6206
▁safely	-10.6207
▁Officials	-10.6208
▁uncomfortable	-10.6214
▁voluntarily	-10.6214
▁Ltd	-10.6215
▁formation	-10.6215
▁workshop	-10.6216
▁Girls	-10.6216
▁journalist	-10.622
▁beach	-10.6224
▁zones	-10.6229
▁Which	-10.6231
▁Deliberation	-10.6232
▁removed	-10.6238
▁studied	-10.6239
▁Dream	-10.6239
500	-10.6241
▁Nak	-10.6242
35	-10.6245
▁deeply	-10.6257
▁anxiety	-10.6263
▁certified	-10.6263
▁martial	-10.6263
cal	-10.6264
▁Southeast	-10.6267
▁audiences	-10.627
▁plate	-10.627
▁autumn	-10.6272
▁restoration	-10.6272
▁mode	-10.6291
▁command	-10.6295
▁evaluate	-10.6296
▁manipulation	-10.6296
▁accommodation	-10.6305
pel	-10.6307
▁acknowledg	-10.6313
▁Hyung	-10.6321
▁Entertainment	-10.6329
▁neighborhood	-10.633
▁defeat	-10.6331
▁restrictions	-10.6331
▁Does	-10.6331
▁boom	-10.6331
▁violations	-10.6337
▁collective	-10.6337
▁pipe	-10.6339
▁aims	-10.6341
▁Once	-10.6342
▁pursue	-10.6346
▁subscription	-10.6346
▁KBS	-10.6346
round	-10.635
▁preventing	-10.6351
▁studio	-10.6354
▁thick	-10.6355
chun	-10.6364
▁valuable	-10.6371
▁Doosan	-10.6373
▁freedom	-10.6379
▁2000	-10.6383
▁Maritime	-10.6388
▁implementing	-10.6397
▁employed	-10.64
▁Ok	-10.6401
▁ill	-10.6401
rmal	-10.6402
▁airline	-10.6404
▁Square	-10.6404
ller	-10.6407
▁supplies	-10.6413
▁institutional	-10.6419
▁Red	-10.642
28	-10.642
▁Child	-10.642
▁argument	-10.6421
arch	-10.6427
▁neglect	-10.6429
▁issuance	-10.643
▁feet	-10.643
profit	-10.6431
▁servants	-10.6431
▁soup	-10.6432
▁proud	-10.6433
▁Ste	-10.6435
▁Shi	-10.6435
▁presence	-10.6438
▁EU	-10.645
80	-10.6458
▁Buk	-10.6463
▁guests	-10.6468
▁intellectual	-10.6471
▁Sewol	-10.6473
▁battery	-10.6478
▁crack	-10.649
▁depict	-10.6497
made	-10.6499
▁momentum	-10.6502
nova	-10.6503
▁Comp	-10.6509
Co	-10.6511
TO	-10.6517
▁refused	-10.652
▁Branch	-10.6522
▁emerge	-10.6522
▁cited	-10.6539
lk	-10.6539
▁repeated	-10.6545
▁feasibility	-10.6547
az	-10.6548
▁absence	-10.6556
▁climb	-10.6556
▁10%	-10.6563
▁livelihood	-10.6564
▁violating	-10.6564
▁pork	-10.6566
▁Competition	-10.6573
▁Paris	-10.6574
face	-10.6574
lat	-10.6578
▁assistant	-10.658
ature	-10.6581
▁achievements	-10.6581
▁bond	-10.6587
To	-10.6594
▁matches	-10.6596
▁highlight	-10.66
suk	-10.6601
▁Jeonju	-10.6602
▁Olympic	-10.6604
▁collapsed	-10.6606
▁Galaxy	-10.6607
▁muscle	-10.6607
▁begins	-10.661
▁settled	-10.6612
▁supposed	-10.6615
sign	-10.662
war	-10.662
▁thoroughly	-10.663
▁opposed	-10.6631
▁formal	-10.6632
▁Amazon	-10.6632
▁peninsula	-10.6632
▁anymore	-10.6632
▁adapt	-10.6632
▁supervisor	-10.6641
▁quiet	-10.6641
▁Card	-10.6643
You	-10.6645
When	-10.6646
▁Investigation	-10.6649
▁magazine	-10.6649
hal	-10.665
▁factories	-10.6651
▁maintaining	-10.6659
pose	-10.6662
▁indoor	-10.6663
down	-10.6663
net	-10.6665
▁willingness	-10.6668
turn	-10.6673
▁selecting	-10.6678
▁solar	-10.6679
▁Open	-10.6681
▁invoice	-10.6684
▁Pastor	-10.6684
▁50%	-10.6684
▁keeping	-10.6687
96	-10.6691
▁Col	-10.6693
▁Next	-10.6703
▁displayed	-10.6704
▁log	-10.6708
▁length	-10.6709
aging	-10.671
road	-10.6717
▁strategies	-10.6735
▁reverse	-10.674
▁closer	-10.6744
▁assist	-10.6745
▁Play	-10.6747
▁shortage	-10.6748
▁routes	-10.6751
▁cheap	-10.6757
▁verify	-10.677
▁Report	-10.6776
▁extinguish	-10.6778
▁UN	-10.6787
▁sauce	-10.6787
▁customs	-10.6787
▁manufacture	-10.6797
▁Gwangjin	-10.6799
vin	-10.6801
▁Gong	-10.6801
▁sufficient	-10.6804
kin	-10.6815
matic	-10.6818
▁Asiana	-10.682
▁carrier	-10.6823
▁Post	-10.6824
▁relieve	-10.6831
▁solved	-10.6835
▁kilometers	-10.684
▁Abe	-10.6846
▁subsidiary	-10.6848
▁veteran	-10.6848
▁earnings	-10.6849
▁resulting	-10.6853
Park	-10.6853
27	-10.6855
▁sensitive	-10.6857
▁spicy	-10.6857
wha	-10.6858
▁harmony	-10.6865
buk	-10.6866
depth	-10.6867
rch	-10.6867
▁39	-10.6867
▁prospect	-10.6871
MO	-10.6873
▁honorary	-10.6879
▁exhibit	-10.6879
▁auditor	-10.6889
▁junior	-10.6892
▁poet	-10.6893
▁garbage	-10.69
▁folk	-10.69
▁hate	-10.6901
gal	-10.6908
▁kill	-10.6908
▁Prize	-10.6909
▁Deok	-10.6912
▁cells	-10.6915
▁Mike	-10.6919
▁countermeasures	-10.692
▁Seon	-10.6934
test	-10.6943
▁cream	-10.6944
▁neck	-10.6944
▁textbook	-10.6945
▁provision	-10.6948
▁incumbent	-10.6953
Ba	-10.6959
▁acquaintance	-10.6962
▁enjoying	-10.6974
▁tie	-10.6974
68	-10.6975
▁worst	-10.698
▁admitted	-10.698
▁designer	-10.6985
curr	-10.6988
▁struggling	-10.6988
▁mandatory	-10.6988
▁engineering	-10.6991
▁allowance	-10.6991
▁regarded	-10.6995
▁Summit	-10.6997
▁mention	-10.6998
▁refugees	-10.7001
fect	-10.7007
▁remind	-10.7007
▁Times	-10.7014
▁drone	-10.7015
oh	-10.7017
▁Over	-10.7022
kg	-10.7025
▁hung	-10.7025
▁pieces	-10.7029
▁objective	-10.7038
▁superior	-10.7042
▁producing	-10.7052
▁aired	-10.7057
▁Chae	-10.7057
▁Exhibition	-10.7059
▁Resources	-10.7059
▁Training	-10.7059
▁barrier	-10.706
▁arranged	-10.7063
ished	-10.7067
▁satisfied	-10.7068
▁exit	-10.7069
▁startups	-10.707
▁bomb	-10.7072
FA	-10.7072
▁component	-10.7077
▁hometown	-10.7086
eum	-10.7088
▁assaulted	-10.7093
▁dementia	-10.7095
ana	-10.7096
▁argue	-10.7097
▁Framework	-10.7104
▁controversial	-10.7104
▁swimming	-10.7104
84	-10.7106
90	-10.7108
▁rebound	-10.7113
▁timing	-10.7113
▁harmful	-10.7114
▁20%	-10.7119
▁Tuesday	-10.7122
▁seriously	-10.7122
▁hat	-10.7123
uch	-10.7129
▁Election	-10.7131
▁App	-10.7131
▁Out	-10.7141
64	-10.7144
▁Conference	-10.7149
▁showcase	-10.7149
▁somewhat	-10.7167
▁Area	-10.7167
▁critical	-10.7168
del	-10.7169
▁clothing	-10.7173
▁informed	-10.7174
▁neighbors	-10.7175
▁pitch	-10.7176
▁deficit	-10.7194
▁granted	-10.7195
▁limitations	-10.7203
▁confident	-10.721
▁kitchen	-10.7212
▁passion	-10.7214
▁piece	-10.7216
▁Commerce	-10.7221
▁balanced	-10.7224
▁skill	-10.7224
▁Account	-10.723
▁precious	-10.723
▁Chosun	-10.7231
▁expiration	-10.7239
▁Club	-10.7239
▁statue	-10.7239
▁iron	-10.724
53	-10.7241
family	-10.7247
▁inauguration	-10.7249
Chairman	-10.7256
▁tank	-10.7258
power	-10.7259
▁fighting	-10.7261
▁Enterprise	-10.7266
▁Uzbekistan	-10.7276
▁probably	-10.7276
driven	-10.7276
▁lowered	-10.7277
▁Theater	-10.7277
100	-10.7281
▁Chungnam	-10.7281
▁POSCO	-10.7285
▁luck	-10.7285
▁boyfriend	-10.7285
▁thorough	-10.7287
▁Kookmin	-10.7294
▁induce	-10.7295
▁Her	-10.7295
▁Okay	-10.7303
▁MBC	-10.7306
▁promising	-10.7312
▁processed	-10.7312
66	-10.7312
AI	-10.7316
▁Revolution	-10.7322
fic	-10.7324
▁update	-10.7325
▁winners	-10.7326
▁Like	-10.7328
▁activist	-10.733
▁Test	-10.7332
▁abundant	-10.7339
▁angry	-10.734
▁missed	-10.7345
▁appliance	-10.7349
▁bread	-10.7349
▁Wang	-10.7349
▁Eui	-10.7349
▁gene	-10.735
▁shake	-10.735
▁Product	-10.735
65	-10.7355
▁impression	-10.7358
▁risen	-10.7358
▁larger	-10.7361
▁salt	-10.7363
▁switch	-10.7367
▁insufficient	-10.7367
▁crash	-10.7367
▁immigrant	-10.7376
▁utilizing	-10.7376
▁bodies	-10.7376
56	-10.7378
▁percentage	-10.7378
▁generated	-10.7383
▁Protection	-10.7385
▁helicopter	-10.7385
▁contain	-10.7387
▁broadcaster	-10.739
▁Jakarta	-10.7404
)"	-10.7404
▁Here	-10.7408
▁insisted	-10.7419
▁Judge	-10.7422
election	-10.7427
CE	-10.7428
ement	-10.743
▁occupation	-10.7432
58	-10.7441
59	-10.7443
▁30%	-10.7444
63	-10.7446
gro	-10.7454
clo	-10.7455
▁curious	-10.7461
▁sitting	-10.7472
My	-10.7474
bul	-10.7477
Ju	-10.7477
▁fails	-10.7477
57	-10.748
DP	-10.748
▁partially	-10.7487
▁slowdown	-10.7488
▁anger	-10.7499
▁circles	-10.7504
▁tough	-10.7505
▁Cooperative	-10.7515
▁officio	-10.7515
shaped	-10.752
▁championship	-10.7525
▁posting	-10.753
▁killing	-10.7532
▁delegation	-10.7534
▁Guro	-10.7535
▁vegetables	-10.7546
gram	-10.755
▁particularly	-10.7551
rc	-10.7553
26	-10.7556
21	-10.7556
87	-10.756
▁survive	-10.7562
leg	-10.7563
▁Jeonnam	-10.7565
▁exactly	-10.7566
▁joining	-10.7569
kyun	-10.7572
▁manpower	-10.7573
▁literature	-10.7581
▁preservation	-10.7581
▁Black	-10.7581
▁Environmental	-10.7585
▁pool	-10.7589
▁indicators	-10.7595
▁guardian	-10.7602
MA	-10.7604
IT	-10.7611
▁fix	-10.7611
▁effectively	-10.7613
▁possess	-10.7618
▁denied	-10.7618
▁tap	-10.7627
▁Consumer	-10.7628
▁collaboration	-10.7637
▁flavor	-10.7637
▁reinforce	-10.7637
▁colonial	-10.7638
pha	-10.7644
▁cycle	-10.7644
▁danger	-10.7646
ball	-10.7648
▁sexually	-10.7648
▁constantly	-10.7649
▁Indian	-10.7653
▁variable	-10.7656
▁earned	-10.7658
▁membership	-10.7659
fold	-10.7659
▁excluding	-10.7663
▁Italy	-10.7668
other	-10.7673
▁Uijeongbu	-10.7675
▁girlfriend	-10.7675
▁Gimpo	-10.7694
▁tuition	-10.7694
▁preference	-10.7695
▁assistance	-10.7696
▁correction	-10.7696
▁stamp	-10.7697
▁sand	-10.77
elect	-10.7701
▁assess	-10.7701
▁alliance	-10.7703
gyo	-10.7705
geo	-10.771
come	-10.7713
▁absolute	-10.7713
▁Lunar	-10.7722
▁Airlines	-10.7732
▁carbon	-10.7734
▁stayed	-10.7734
President	-10.7736
▁calculation	-10.7741
▁glad	-10.7741
▁row	-10.7742
▁ambassador	-10.7751
school	-10.7754
▁intended	-10.7754
▁Given	-10.7754
▁funding	-10.7757
▁disorder	-10.7761
▁citing	-10.7761
▁Book	-10.7765
▁manual	-10.7767
▁Members	-10.7768
▁temporarily	-10.777
▁subscribers	-10.7771
▁seed	-10.7779
▁Major	-10.778
▁assigned	-10.778
▁arise	-10.7781
▁tenant	-10.7784
▁2006	-10.7785
aw	-10.7785
▁48	-10.7786
▁systematic	-10.7788
▁abnormal	-10.7789
▁founder	-10.781
lip	-10.7811
▁exhaust	-10.7818
▁artistic	-10.7822
▁ministries	-10.7828
▁Winter	-10.783
▁convene	-10.7833
teen	-10.7833
▁west	-10.7835
proof	-10.785
new	-10.7851
▁passage	-10.7854
▁ferry	-10.7857
▁disposition	-10.7857
fledged	-10.7866
▁signature	-10.7867
▁considerable	-10.7874
▁Coast	-10.7876
▁expressing	-10.7878
fighting	-10.788
▁belt	-10.788
▁defend	-10.7881
▁separated	-10.7885
elecommunication	-10.7888
▁east	-10.789
rrow	-10.7892
▁Contest	-10.7896
▁answered	-10.7905
▁hire	-10.7909
▁reviewing	-10.7911
▁expire	-10.7915
▁fostering	-10.7917
▁toilet	-10.7918
▁weapon	-10.7927
▁academy	-10.7944
▁typical	-10.7944
▁sixth	-10.7945
▁shoulder	-10.7947
▁cutting	-10.7954
chu	-10.7954
Go	-10.7956
hyuk	-10.7956
▁cable	-10.7959
▁secondary	-10.796
cm	-10.7961
67	-10.7962
▁beef	-10.7964
▁server	-10.7968
Constitutional	-10.7972
▁otherwise	-10.7973
zy	-10.7973
▁stronger	-10.7982
▁expectation	-10.7986
▁observe	-10.7987
▁Gangdong	-10.7988
22	-10.7989
▁mix	-10.799
▁reflecting	-10.7993
government	-10.7997
▁settle	-10.7998
▁Africa	-10.8001
▁Except	-10.8003
▁faced	-10.8006
▁commander	-10.8014
▁Will	-10.8018
▁sponsor	-10.8019
▁suspend	-10.8019
▁emotions	-10.802
▁easing	-10.8022
▁interpretation	-10.8026
ryong	-10.8028
▁Building	-10.8032
▁execute	-10.8032
▁wealth	-10.8033
▁sustainable	-10.8033
▁Heavy	-10.8042
now	-10.8042
bum	-10.8044
▁discharge	-10.8046
▁Hello	-10.8052
east	-10.8055
▁2022	-10.8055
General	-10.8056
▁obligation	-10.8081
▁entrepreneur	-10.8082
▁semi	-10.8082
▁revive	-10.8091
▁analyzing	-10.8101
▁concrete	-10.8101
▁deceased	-10.8101
public	-10.8104
▁breaking	-10.8107
gging	-10.8109
city	-10.8109
▁impressive	-10.812
▁Gyeongju	-10.8125
▁Daewoo	-10.8125
▁noodles	-10.8127
▁restricted	-10.8128
▁Sim	-10.8129
▁Byeong	-10.8137
▁observation	-10.814
▁recession	-10.814
▁Meeting	-10.814
▁western	-10.8141
▁violated	-10.8145
AN	-10.8149
▁Lake	-10.815
▁delete	-10.8157
▁tariff	-10.8159
▁motor	-10.8164
▁colorful	-10.8165
▁crowd	-10.8168
▁Transportation	-10.8169
▁taxpayer	-10.817
graphic	-10.8171
▁prop	-10.8172
▁boss	-10.8172
▁abandoned	-10.8176
▁cargo	-10.8176
▁summon	-10.8181
timate	-10.8189
▁achievement	-10.819
▁Egypt	-10.819
▁Library	-10.819
▁surprise	-10.8195
▁Ten	-10.8202
54	-10.8208
▁Period	-10.822
29	-10.8227
▁Woori	-10.8228
4,000	-10.8233
86	-10.8239
▁guilty	-10.825
Ho	-10.8255
▁Shanghai	-10.826
▁Jinju	-10.826
beom	-10.8268
▁margin	-10.827
▁stipulat	-10.828
▁Myanmar	-10.828
▁Part	-10.8282
▁calculated	-10.8292
▁Mac	-10.8292
▁violate	-10.8295
▁boast	-10.8301
▁democracy	-10.8302
ivity	-10.8302
▁heating	-10.8306
▁tradition	-10.8309
▁compensate	-10.8311
▁reviewed	-10.8312
▁wound	-10.8312
▁Tu	-10.8314
▁tall	-10.8315
▁pace	-10.8317
▁objection	-10.8317
▁42	-10.8318
▁London	-10.8331
▁119	-10.8332
31	-10.8333
▁revise	-10.8336
▁mag	-10.8338
Un	-10.834
▁Great	-10.8341
▁intense	-10.8341
▁flat	-10.8344
ically	-10.8344
▁destroy	-10.8349
▁Yeosu	-10.835
▁furniture	-10.8351
77	-10.8352
▁speculation	-10.8353
▁Prosecutor	-10.8365
▁revitalization	-10.8371
▁commit	-10.838
▁relocation	-10.8381
50,000	-10.8387
▁childbirth	-10.8392
▁disrupt	-10.8392
▁pending	-10.8392
▁Property	-10.8402
commerce	-10.8402
▁terminal	-10.8402
empt	-10.8409
▁wood	-10.841
▁dispatch	-10.841
▁Private	-10.8412
j	-10.8417
▁Football	-10.8422
▁England	-10.8422
▁affiliates	-10.8431
▁dealing	-10.8445
▁contained	-10.8448
▁Doo	-10.8449
▁55	-10.8449
▁Establishment	-10.8453
▁Persons	-10.8453
▁Iranian	-10.8456
ez	-10.8461
Japan	-10.8461
▁Jeonbuk	-10.8464
▁Drug	-10.8464
▁CJ	-10.8467
▁titled	-10.8467
ura	-10.8469
▁entity	-10.8474
▁2,000	-10.8476
▁overlap	-10.848
▁software	-10.8484
▁shortly	-10.8488
▁solving	-10.8504
▁supplier	-10.8504
▁booked	-10.8504
▁44	-10.8506
▁Heo	-10.8508
▁attractive	-10.8513
DA	-10.8514
▁frame	-10.8514
▁Brexit	-10.8514
▁equity	-10.8514
▁psychological	-10.8514
▁restructuring	-10.8514
▁crew	-10.8515
high	-10.8516
89	-10.8519
▁equality	-10.8522
▁spoke	-10.8526
shirt	-10.8529
▁alley	-10.8532
▁resource	-10.8533
▁Media	-10.8533
▁promotional	-10.8534
▁monetary	-10.8535
▁nursing	-10.8535
▁opposite	-10.8535
▁lover	-10.8537
fra	-10.8538
▁notification	-10.8541
76	-10.8545
self	-10.8547
▁incentives	-10.855
▁2005	-10.8553
month	-10.8556
▁Lawmaker	-10.8556
▁scenery	-10.8562
Japanese	-10.8565
▁desk	-10.8569
▁characterized	-10.8572
▁marked	-10.8572
▁metal	-10.8582
▁brief	-10.8586
▁Plaza	-10.8587
▁cute	-10.8588
▁emphasize	-10.8593
▁greeting	-10.8593
▁Men	-10.8595
management	-10.8596
▁churches	-10.8596
finding	-10.8597
▁colleague	-10.8597
▁load	-10.8598
▁dividend	-10.8599
phy	-10.8602
▁coal	-10.8602
▁talented	-10.8603
▁harm	-10.8617
▁Championship	-10.8628
▁fault	-10.8629
▁Gumi	-10.8631
▁dismissal	-10.8635
▁shoot	-10.8638
die	-10.8638
▁hub	-10.8639
▁crowded	-10.8641
▁illness	-10.8641
mission	-10.8642
▁supporters	-10.8648
37	-10.865
▁Expressway	-10.866
▁Prevention	-10.867
▁confusion	-10.867
▁utilization	-10.867
▁logic	-10.8672
▁sponsored	-10.8673
▁Dongdaemun	-10.8681
▁reference	-10.8683
cker	-10.8688
▁Win	-10.8689
▁claiming	-10.8691
▁cigarette	-10.8691
▁corresponding	-10.8694
▁everyday	-10.8695
78	-10.8695
▁stu	-10.8696
▁firefighter	-10.8702
Since	-10.8702
▁pregnant	-10.8712
▁patrol	-10.8712
▁helpful	-10.8712
▁43	-10.8722
general	-10.8723
▁Pan	-10.8724
▁Thai	-10.8725
▁extraordinary	-10.8733
▁stomach	-10.8733
▁valid	-10.8733
▁publication	-10.8735
oma	-10.8738
▁hired	-10.874
▁Officer	-10.8742
▁Spanish	-10.8744
▁conglomerate	-10.8744
▁stabilize	-10.8744
chairperson	-10.8744
burg	-10.8744
▁distinguish	-10.8754
▁nervous	-10.8754
▁FSS	-10.8754
▁FC	-10.8761
zi	-10.8762
▁Ambassador	-10.8765
▁Panmunjom	-10.8786
▁grandmother	-10.8786
▁DM	-10.8792
▁curiosity	-10.8797
▁belief	-10.8797
▁trail	-10.8797
▁homepage	-10.8807
▁unemployment	-10.8809
▁confrontation	-10.8809
▁complain	-10.8812
▁makeup	-10.8815
▁worship	-10.8818
▁attorney	-10.8818
▁jump	-10.8818
▁ignore	-10.8829
▁Authority	-10.8829
▁sensor	-10.8839
▁3,000	-10.884
▁Chungcheongnam	-10.8841
▁41	-10.8847
▁sat	-10.8847
▁acquired	-10.8847
▁charging	-10.885
▁Above	-10.885
▁apology	-10.885
▁fever	-10.885
▁Camp	-10.8853
▁Game	-10.8853
▁Instead	-10.886
▁Ru	-10.8861
Although	-10.8861
▁120	-10.8862
▁Bible	-10.8865
▁excited	-10.8871
▁spark	-10.8872
69	-10.8885
▁distribute	-10.8888
▁legislative	-10.8892
▁constructed	-10.89
▁Democracy	-10.8903
▁renewable	-10.8903
cover	-10.8906
▁Reform	-10.891
▁fabric	-10.8914
▁reconstruction	-10.8917
▁speaking	-10.8922
▁SBS	-10.8925
▁pride	-10.8925
iness	-10.8926
▁math	-10.8928
▁wooden	-10.8939
▁Official	-10.8944
▁merit	-10.8947
▁nor	-10.8951
▁organic	-10.8956
32	-10.8967
▁prayer	-10.8968
Act	-10.897
62	-10.8973
71	-10.8981
Je	-10.8988
▁button	-10.899
▁partnership	-10.8992
▁classroom	-10.9004
▁smaller	-10.9005
▁virtual	-10.9006
▁rear	-10.9006
▁equivalent	-10.9011
▁rehabilitation	-10.9011
▁resort	-10.9011
▁(6	-10.902
TV	-10.902
▁reject	-10.9025
EC	-10.9025
▁clinic	-10.9046
ranking	-10.9049
▁phrase	-10.9054
active	-10.9065
band	-10.9066
▁existence	-10.9067
ular	-10.9072
▁Techno	-10.9072
▁bone	-10.9078
▁moral	-10.9082
▁advisory	-10.9087
▁graduation	-10.9087
▁Actress	-10.9087
48	-10.909
moon	-10.9103
▁circle	-10.9111
minute	-10.9116
▁warned	-10.9124
▁hitting	-10.9125
▁pharmaceutical	-10.9128
▁Yeongdeungpo	-10.9131
▁departure	-10.9131
▁native	-10.9142
▁Anyang	-10.9146
▁Agreement	-10.9153
▁Farm	-10.9153
box	-10.9154
▁installing	-10.9156
▁succession	-10.9157
▁critic	-10.9158
▁suggestion	-10.9161
▁sweat	-10.9164
view	-10.9167
story	-10.9168
▁detention	-10.9175
▁realistic	-10.918
▁Dal	-10.918
▁friendship	-10.9181
▁sleeping	-10.9186
▁chain	-10.9186
▁guaranteed	-10.9195
plication	-10.9196
▁Budget	-10.9197
▁attempted	-10.9203
▁Confederation	-10.9208
▁basketball	-10.9208
▁Ge	-10.9209
▁unknown	-10.921
▁Cheol	-10.9214
▁adjusted	-10.9221
▁passport	-10.9221
▁startup	-10.9226
▁cheering	-10.923
▁Daily	-10.923
hong	-10.9234
▁specialist	-10.9235
▁judiciary	-10.9241
▁swing	-10.9245
▁elect	-10.9246
ella	-10.9256
▁bathroom	-10.9263
▁complicated	-10.9263
▁survival	-10.9263
▁Inspection	-10.9274
▁breakfast	-10.9274
▁stepped	-10.9276
79	-10.9277
▁activate	-10.9278
wol	-10.9283
▁propose	-10.9285
▁BMW	-10.9285
governing	-10.9285
▁Hanjin	-10.9287
▁Gen	-10.9291
Pro	-10.9293
▁Meanwhile	-10.9296
▁immediate	-10.9303
▁iPhone	-10.9308
▁poem	-10.9312
▁Pal	-10.9315
▁Celsius	-10.9319
▁aggressive	-10.9319
▁anywhere	-10.9322
gae	-10.9322
▁Mongolia	-10.9341
▁Right	-10.9342
▁depart	-10.935
▁Christ	-10.9351
▁Network	-10.9352
▁removal	-10.9352
▁Review	-10.9355
▁Sweden	-10.9364
▁generally	-10.9365
▁700	-10.9373
▁celebrities	-10.9375
▁5,000	-10.9376
▁harvest	-10.9386
▁Gov	-10.9398
▁Mart	-10.9406
▁honest	-10.9409
▁desperate	-10.942
▁portal	-10.9424
▁Ce	-10.9425
ette	-10.9428
▁Cheon	-10.9435
▁Seodaemun	-10.9442
▁Studies	-10.9442
▁chronic	-10.9442
▁convergence	-10.9442
▁translation	-10.9442
▁supervise	-10.9443
hang	-10.9443
▁Arabia	-10.9448
▁exceeding	-10.9453
▁trace	-10.9455
▁(4)	-10.9466
▁moon	-10.9475
▁recipient	-10.9476
TE	-10.9481
▁virtually	-10.9482
▁Convention	-10.9488
▁Dam	-10.9488
▁destroyed	-10.949
▁pad	-10.9498
93	-10.9501
▁Tower	-10.9503
▁experiencing	-10.951
▁transparent	-10.951
▁Compar	-10.9512
▁sheet	-10.9513
▁pure	-10.9514
▁Both	-10.952
▁Federal	-10.9533
▁species	-10.9533
ography	-10.9536
▁straw	-10.9545
▁dump	-10.9549
▁mat	-10.9558
▁connecting	-10.9566
▁(20	-10.9571
▁Instagram	-10.9579
▁Memorial	-10.9579
▁seller	-10.9583
▁defendant	-10.9586
member	-10.959
▁stir	-10.9602
▁quota	-10.9625
▁correspondent	-10.9626
▁reign	-10.9631
▁observed	-10.9632
▁integration	-10.9636
▁rough	-10.9637
wear	-10.964
▁finishing	-10.9644
▁pedestrian	-10.9648
▁syn	-10.9651
▁progressive	-10.9653
▁Israel	-10.966
▁20,000	-10.9664
▁UK	-10.9668
▁primary	-10.9671
▁sacrifice	-10.9671
▁clerk	-10.9671
▁Australian	-10.9673
▁offline	-10.9674
▁telephone	-10.9683
▁Credit	-10.9683
▁revoke	-10.9683
mitt	-10.9683
▁monk	-10.9686
74	-10.9691
▁libraries	-10.9694
▁Rather	-10.9694
▁Gender	-10.97
▁distinct	-10.9706
▁Basic	-10.9706
▁terror	-10.9717
known	-10.9722
▁Asset	-10.9723
▁100%	-10.9731
▁Catholic	-10.9741
▁demonstrate	-10.9741
▁interpret	-10.9751
▁Candidate	-10.9752
▁ancient	-10.9752
▁Hope	-10.9758
▁diagnosed	-10.9763
▁numerous	-10.9764
33	-10.9773
34	-10.9774
▁finalized	-10.9801
▁reside	-10.9801
▁constitutional	-10.9808
▁governance	-10.9811
▁knee	-10.9811
▁loud	-10.9812
▁playground	-10.9812
▁translate	-10.9812
▁Fo	-10.9814
gyeong	-10.9817
ER	-10.9817
▁resistance	-10.9823
▁shelter	-10.9823
▁restrict	-10.9834
▁unlikely	-10.9837
▁construct	-10.9839
▁saved	-10.984
▁Kyu	-10.9845
▁slump	-10.9846
▁visa	-10.9854
6,000	-10.9862
▁highway	-10.9863
▁label	-10.9871
▁branches	-10.9875
▁cheaper	-10.9875
▁ledger	-10.9875
ON	-10.9881
▁heatwave	-10.9881
▁afford	-10.9881
▁analysts	-10.9881
▁Trans	-10.9882
▁normally	-10.9882
▁800	-10.9886
hyung	-10.9889
▁passes	-10.9892
▁Ocean	-10.9893
▁seekers	-10.9894
▁Talk	-10.9894
8,000	-10.9896
▁Pyeong	-10.9904
▁philosophy	-10.9905
▁poison	-10.9905
▁assume	-10.9909
▁Cheongdo	-10.991
▁invitation	-10.9917
stitution	-10.992
55	-10.9925
▁feed	-10.9925
geum	-10.9929
▁50,000	-10.9929
▁greet	-10.9934
▁shut	-10.9935
▁affection	-10.9938
▁ritual	-10.9941
▁FTC	-10.9953
▁adopt	-10.9953
▁repayment	-10.9958
▁seizure	-10.9965
firm	-10.9967
▁Jinping	-10.997
▁quit	-10.997
▁praised	-10.9972
stone	-10.9976
▁rainy	-10.9977
▁transition	-10.9977
▁CSAT	-11
▁extremely	-11.0004
▁leaked	-11.0005
dding	-11.0009
▁identification	-11.0012
▁useful	-11.0019
▁edge	-11.0021
▁200,000	-11.0033
▁casualties	-11.0036
▁sum	-11.0037
▁Chungbuk	-11.0038
▁irr	-11.0041
▁silver	-11.0048
▁urgently	-11.0053
▁Confucian	-11.006
▁inevitably	-11.006
▁Republican	-11.006
▁organ	-11.0071
▁reorganization	-11.0072
ounce	-11.0075
▁pursued	-11.0085
▁Emergency	-11.0096
▁coupon	-11.0096
▁visible	-11.0096
▁Hyeon	-11.0105
▁Capital	-11.0108
▁explore	-11.0108
▁separation	-11.0108
▁advised	-11.011
▁tied	-11.011
Friend	-11.0121
▁autonomy	-11.0133
▁worsening	-11.0136
▁functional	-11.014
▁slowly	-11.0144
▁indicted	-11.0145
▁repeat	-11.015
▁inspector	-11.0155
▁Gwanghwamun	-11.0157
patriot	-11.0157
▁stole	-11.0157
▁Earth	-11.0157
▁rot	-11.0161
▁regularly	-11.0176
▁proportional	-11.0178
▁mentor	-11.0191
▁wrap	-11.0196
▁refugee	-11.02
▁destruction	-11.0206
▁inappropriate	-11.0206
▁Chamber	-11.0206
▁amazing	-11.0206
▁poster	-11.0209
▁Wall	-11.0214
▁violent	-11.0218
▁sugar	-11.0218
▁scientific	-11.023
▁Mokpo	-11.023
▁Silla	-11.023
▁investing	-11.0232
▁ownership	-11.0234
▁Kindergarten	-11.0242
▁arrival	-11.0242
▁commemorate	-11.0242
▁essay	-11.0242
▁boxes	-11.0242
▁merger	-11.0254
priced	-11.0257
▁differ	-11.0263
▁impeachment	-11.0267
▁Cla	-11.0269
▁Indonesian	-11.027
▁concentrate	-11.0278
▁democratic	-11.0279
▁Buddha	-11.0279
▁banned	-11.028
hyang	-11.0285
star	-11.029
▁steady	-11.0291
38	-11.0293
▁GM	-11.0301
▁bowl	-11.0307
▁Wol	-11.0316
▁Namyangju	-11.0316
▁Prince	-11.0316
▁completing	-11.0316
▁riding	-11.0316
▁shipbuilding	-11.0329
▁invite	-11.0329
▁wire	-11.0331
mart	-11.0331
▁USD	-11.0335
▁conclude	-11.034
▁Palace	-11.0341
quarter	-11.0341
seop	-11.0343
▁%	-11.0344
▁healing	-11.0345
▁terminate	-11.0348
▁insist	-11.0353
▁contrary	-11.0353
▁Siheung	-11.0355
▁fairness	-11.0363
▁jumped	-11.0366
▁handled	-11.0373
heon	-11.0375
▁substitute	-11.0378
300	-11.0393
▁encouraged	-11.0397
ancy	-11.0398
▁constant	-11.0399
▁Pangyo	-11.0403
▁declined	-11.0407
▁Along	-11.041
osis	-11.0413
▁initiative	-11.0415
▁bidding	-11.0416
▁processes	-11.0428
lecommunications	-11.0437
▁outlook	-11.044
Chairperson	-11.0442
▁Constitution	-11.0442
▁Coach	-11.0445
▁elder	-11.0449
▁Embassy	-11.0453
▁Gimhae	-11.0453
▁feared	-11.0455
▁neighbor	-11.0456
36	-11.0461
▁broad	-11.0468
▁tip	-11.0469
▁personally	-11.0469
▁Suk	-11.0472
▁sought	-11.0478
Mi	-11.0479
▁injuries	-11.049
▁auction	-11.0491
yoon	-11.0503
▁closure	-11.0503
▁celebration	-11.0506
▁Joong	-11.0507
▁outbreak	-11.0515
▁suppress	-11.0515
▁30,000	-11.0529
▁Manager	-11.0541
▁Concert	-11.0541
▁nut	-11.0545
▁laughter	-11.0545
bon	-11.0553
▁encouraging	-11.0553
▁liberal	-11.0553
▁entertain	-11.0554
▁counsel	-11.0554
▁submission	-11.0554
▁Taekwondo	-11.0566
▁unclear	-11.0566
▁Nuclear	-11.0579
▁bulletin	-11.0579
▁Program	-11.058
▁Yeah	-11.0581
▁lecturer	-11.0586
▁Pacific	-11.0588
▁immigration	-11.0591
▁underway	-11.0593
▁decreasing	-11.0604
bae	-11.0607
▁clinical	-11.0613
▁unified	-11.0614
▁Lord	-11.0616
▁Experience	-11.0617
▁Everyone	-11.0619
▁buried	-11.0629
▁Sorry	-11.0634
ibility	-11.0641
▁abolition	-11.0642
▁reputation	-11.0642
▁infection	-11.0642
▁Jeollabuk	-11.0643
▁Press	-11.0644
▁measurement	-11.0646
▁encounter	-11.0655
▁lifted	-11.0655
▁defined	-11.0655
▁hip	-11.0656
cheong	-11.0678
▁sculpture	-11.068
▁fisheries	-11.068
▁beverage	-11.0681
▁History	-11.0681
▁threatened	-11.0681
cycle	-11.0684
▁finger	-11.0684
▁Such	-11.0691
▁investigator	-11.0693
investigative	-11.0693
col	-11.0695
▁Equality	-11.07
▁Electric	-11.0706
▁divorce	-11.0706
▁slogan	-11.0706
▁peaceful	-11.0725
▁religion	-11.0732
▁structural	-11.0732
▁scoring	-11.0732
▁systematically	-11.0733
▁Take	-11.0735
▁Dongjak	-11.0745
▁Kingdom	-11.0745
▁Southern	-11.0745
taek	-11.0749
▁discharged	-11.0752
▁investor	-11.0752
▁stating	-11.0766
▁Reuters	-11.077
▁vocal	-11.077
▁split	-11.0774
▁Gunsan	-11.0776
▁exciting	-11.0783
▁grateful	-11.0783
▁dawn	-11.0784
▁profitability	-11.0786
vision	-11.0788
▁issuing	-11.0789
▁Turkish	-11.0796
▁powder	-11.0809
▁51	-11.0811
verse	-11.0813
▁captured	-11.0821
prosperity	-11.0822
▁wheel	-11.0822
▁distort	-11.0823
▁Kaesong	-11.0835
▁"2018	-11.0835
▁prolonged	-11.0835
attached	-11.084
▁Fan	-11.084
▁300,000	-11.0843
▁Interior	-11.0848
▁regeneration	-11.0849
Con	-11.0853
▁compromise	-11.0861
▁Burning	-11.0861
▁shipped	-11.0864
▁Kumho	-11.0874
▁automatic	-11.0887
▁accelerate	-11.0887
▁bloom	-11.0887
▁Britain	-11.0887
▁advisor	-11.0887
▁KB	-11.0895
▁determination	-11.09
▁replied	-11.09
▁treasury	-11.09
▁Sure	-11.0903
▁250	-11.0904
▁2004	-11.0911
▁overwhelming	-11.0913
▁punished	-11.0917
print	-11.0918
▁Suncheon	-11.0922
cade	-11.0925
▁desirable	-11.0927
▁clause	-11.0927
▁drill	-11.0927
▁chef	-11.0927
▁engineer	-11.0929
NE	-11.0937
▁involvement	-11.0943
Lee	-11.0946
▁runner	-11.0962
▁featuring	-11.0966
▁complained	-11.0966
pass	-11.0974
▁contrast	-11.0979
▁Teacher	-11.0979
▁Sky	-11.0979
▁Canadian	-11.0992
▁taxation	-11.0994
▁Gapyeong	-11.0995
▁productivity	-11.1009
▁Noh	-11.1015
standing	-11.1018
▁conservation	-11.1019
Tech	-11.1022
▁Chul	-11.103
▁intervention	-11.1032
▁Tottenham	-11.1032
▁Kwak	-11.1032
▁Bay	-11.1047
▁greenhouse	-11.1047
▁mediation	-11.105
▁contractor	-11.105
▁capture	-11.1061
▁disability	-11.1064
regular	-11.1065
▁acid	-11.1079
claim	-11.108
▁Pocheon	-11.1084
▁Should	-11.1085
▁remote	-11.1085
▁breed	-11.1085
▁thin	-11.1086
PA	-11.109
ryeong	-11.109
▁delegated	-11.1092
▁abortion	-11.1099
▁instant	-11.11
▁footage	-11.1104
▁conditioner	-11.1105
▁hurry	-11.1112
▁Anti	-11.1113
▁2002	-11.1114
▁Plant	-11.1118
For	-11.1125
▁chip	-11.1125
▁oppose	-11.1127
▁washing	-11.1129
▁defeated	-11.1137
▁ecological	-11.1139
▁warehouse	-11.1139
def	-11.1153
▁competitor	-11.1165
▁coordination	-11.1165
▁quote	-11.1165
▁understood	-11.1179
▁2.5	-11.1181
▁evil	-11.1193
▁Live	-11.1201
▁parliament	-11.1203
▁Municipal	-11.1206
▁Shinsegae	-11.1206
▁technological	-11.1206
▁lane	-11.1216
lease	-11.1226
▁Huh	-11.123
▁Hollywood	-11.1233
▁explosion	-11.1233
▁opposing	-11.1233
▁confidential	-11.1235
▁1980	-11.124
fish	-11.124
▁railroad	-11.1247
▁therapy	-11.1248
approximately	-11.126
▁Seungri	-11.1261
▁fighter	-11.1267
▁classical	-11.1271
▁dancing	-11.1273
▁virus	-11.1274
▁commitment	-11.1279
▁decorated	-11.1287
▁potato	-11.1287
moo	-11.1288
suming	-11.1289
40,000	-11.1293
▁effectiveness	-11.1294
▁Cabinet	-11.1301
▁maximize	-11.1301
▁unilateral	-11.1301
▁faction	-11.1303
▁Content	-11.1303
third	-11.1323
▁imprisonment	-11.1328
▁unfamiliar	-11.1328
▁Anseong	-11.1343
▁preferred	-11.1343
▁featured	-11.1347
▁1990	-11.1348
▁businessmen	-11.1352
▁negligence	-11.1355
7,000	-11.1362
▁authentic	-11.1369
▁cope	-11.1376
▁coverage	-11.1377
national	-11.1382
▁obstacle	-11.1383
▁Disabled	-11.1383
▁Eastern	-11.1383
▁Dance	-11.1387
▁chocolate	-11.1396
▁filter	-11.1396
▁harsh	-11.1396
▁costume	-11.1397
chairman	-11.1405
▁lending	-11.1408
▁commendation	-11.141
▁luggage	-11.141
▁coexist	-11.141
▁postpone	-11.1412
▁restriction	-11.1412
cular	-11.1413
▁tools	-11.1417
39	-11.1417
▁taught	-11.1424
▁simultaneously	-11.1432
▁steal	-11.1438
▁Previously	-11.1452
▁sport	-11.1458
▁Autonomy	-11.1465
▁mobilize	-11.1465
▁competing	-11.1465
▁download	-11.1468
each	-11.1474
▁Volunteer	-11.1479
▁childhood	-11.1482
▁Chuncheon	-11.1492
▁grass	-11.1493
▁missionary	-11.15
▁quarantine	-11.1507
▁unavoidable	-11.1507
05	-11.1512
▁Dobong	-11.1517
▁intend	-11.1523
▁characteristic	-11.1524
▁Time	-11.1531
▁newsletter	-11.1535
▁employer	-11.1535
▁refuse	-11.1537
▁punish	-11.1541
▁painful	-11.1544
▁Notwithstanding	-11.1549
▁Bundang	-11.1549
Pa	-11.1557
▁Venezuela	-11.1563
▁Site	-11.1566
▁interfere	-11.1569
▁consultati	-11.1576
▁Traditional	-11.1577
▁rival	-11.1577
▁approve	-11.158
▁prospective	-11.1582
ridge	-11.1583
phe	-11.1585
▁weakness	-11.1585
▁disturb	-11.1591
▁surprising	-11.1591
▁hide	-11.1591
▁blame	-11.1593
▁pine	-11.1596
▁consume	-11.1599
▁celebrat	-11.1602
▁cyber	-11.1605
▁Night	-11.1609
▁wallet	-11.1614
Mayor	-11.1615
▁enthusiastic	-11.1616
▁threw	-11.1619
▁calligraph	-11.1619
▁fellow	-11.1622
▁exempted	-11.1632
lac	-11.1633
▁Superintendent	-11.1633
▁synergy	-11.1633
▁Golden	-11.1633
▁Nexen	-11.1633
▁midst	-11.1633
▁audition	-11.1634
81	-11.1637
▁commemorative	-11.1647
▁exposure	-11.1647
▁bonus	-11.1647
▁chest	-11.1648
▁congress	-11.1648
▁provisional	-11.1651
▁500,000	-11.1657
2,000	-11.1661
▁financing	-11.1661
▁bookstore	-11.1661
▁sight	-11.1668
▁NC	-11.167
▁incorporat	-11.167
▁burst	-11.1675
▁rid	-11.1676
▁Yangcheon	-11.1679
▁Boo	-11.1686
▁absorb	-11.1689
itude	-11.1696
▁Broadcasting	-11.17
▁cultivate	-11.1704
gwan	-11.1711
▁Photo	-11.1712
▁nomination	-11.1718
▁Room	-11.1726
▁facilitate	-11.1728
track	-11.1729
TA	-11.174
With	-11.1744
▁categories	-11.1746
▁persuade	-11.1746
arian	-11.1754
▁Argentina	-11.176
▁Companies	-11.176
▁explosive	-11.176
▁Master	-11.1762
Even	-11.1764
▁lifestyle	-11.177
▁shorten	-11.1772
▁Evaluation	-11.1775
▁maritime	-11.1775
▁prompt	-11.1802
▁disagree	-11.1803
▁purifier	-11.1803
▁dismiss	-11.1805
▁dispose	-11.1806
▁KOSDA	-11.1818
▁Light	-11.1822
Integrated	-11.1832
▁vivid	-11.1832
▁contributing	-11.1846
▁dismantle	-11.1846
▁obvious	-11.1846
▁Premier	-11.1846
▁Though	-11.1847
▁Chu	-11.1847
▁acquire	-11.185
▁Gae	-11.1859
▁yield	-11.1861
▁KOSPI	-11.1861
▁architecture	-11.1861
▁campus	-11.1863
gol	-11.1867
▁imagine	-11.1875
▁breast	-11.1875
▁Druking	-11.1875
▁Taiwanese	-11.1875
▁grace	-11.1875
▁ceramic	-11.1889
▁layer	-11.189
▁poured	-11.189
plain	-11.1892
▁Yeoncheon	-11.1894
▁Political	-11.1904
▁Nations	-11.1905
▁African	-11.1906
▁generate	-11.1908
Jo	-11.1915
▁installment	-11.193
support	-11.1932
▁herself	-11.194
▁Beach	-11.1941
▁Angeles	-11.1947
▁Living	-11.195
▁wishes	-11.1951
▁intensify	-11.1962
▁Critics	-11.1962
▁electoral	-11.1962
▁plunge	-11.1962
▁stem	-11.1963
▁Goseong	-11.1969
▁controlled	-11.1973
private	-11.1976
▁cluster	-11.1977
▁excavation	-11.1977
▁worldwide	-11.1977
▁Psy	-11.1982
resident	-11.1982
baek	-11.199
▁Pung	-11.199
▁Statistics	-11.1991
▁postponed	-11.2003
▁associate	-11.2006
▁depression	-11.2006
▁scenario	-11.2006
▁stuff	-11.2007
▁2021	-11.2012
▁retired	-11.2012
ducing	-11.2018
▁hill	-11.2021
▁melt	-11.2032
▁conversion	-11.2035
▁diesel	-11.2035
▁alert	-11.2038
▁custom	-11.2046
▁judging	-11.205
▁sewage	-11.205
▁ocean	-11.205
▁Bento	-11.205
chae	-11.2053
▁described	-11.2054
▁precede	-11.2056
hui	-11.2057
▁regulate	-11.2064
▁faithfully	-11.2079
▁lifting	-11.2079
▁wireless	-11.2081
▁flock	-11.2086
condition	-11.2094
▁monument	-11.2094
▁frozen	-11.2094
▁wholesale	-11.2094
ueen	-11.2096
▁negotiating	-11.2108
▁40%	-11.2109
▁irregularities	-11.2109
▁historic	-11.2123
▁bribery	-11.2123
▁Yangju	-11.2123
mouth	-11.2124
▁blog	-11.2127
ground	-11.2133
▁definitely	-11.2138
▁stroke	-11.2138
▁imposition	-11.2139
▁organizing	-11.2139
▁Kwan	-11.214
▁caf	-11.2149
▁70%	-11.2149
▁deduction	-11.2153
▁Treasury	-11.2153
▁indictment	-11.2153
▁stretch	-11.2153
▁counselor	-11.2161
▁laid	-11.2166
▁Champions	-11.2168
▁teeth	-11.2168
▁Brazilian	-11.2171
▁wonderful	-11.2172
▁massage	-11.2177
▁lend	-11.2178
▁musicians	-11.2183
▁Hill	-11.2195
▁Dokdo	-11.2198
▁Extension	-11.2212
▁confessed	-11.2212
▁Garden	-11.2212
▁goalkeeper	-11.2213
▁romance	-11.2227
▁speculat	-11.2239
▁golden	-11.2241
▁nutrition	-11.2242
▁testimony	-11.2242
▁Multi	-11.2242
▁zero	-11.2242
bank	-11.225
Ex	-11.2253
▁dominated	-11.2257
▁framework	-11.2258
▁Call	-11.2268
▁Facilities	-11.2272
▁Mexican	-11.2272
▁signboard	-11.2273
▁Arab	-11.2279
▁extract	-11.2279
▁80%	-11.2282
▁machinery	-11.2283
▁enforce	-11.2283
▁noteworthy	-11.2287
▁bold	-11.2289
▁everywhere	-11.2305
▁prestigious	-11.2317
▁vocational	-11.2317
▁valley	-11.2317
▁capable	-11.2323
▁California	-11.2332
▁blossom	-11.2332
▁passionate	-11.2336
▁Osaka	-11.2347
▁eastern	-11.2347
▁grave	-11.2348
▁cheese	-11.2363
▁leap	-11.2363
▁lodging	-11.2378
▁courage	-11.2378
▁offense	-11.2378
▁recycling	-11.2381
▁transparency	-11.2393
▁persist	-11.2395
▁dating	-11.2408
▁Furthermore	-11.2408
▁Creative	-11.2408
▁FTA	-11.241
Director	-11.2411
▁context	-11.2423
▁mushroom	-11.2423
80,000	-11.2427
▁praise	-11.2428
▁clip	-11.2429
produce	-11.2441
▁economies	-11.2454
▁Space	-11.2454
▁Baseball	-11.2454
▁pair	-11.2456
plan	-11.2463
▁2003	-11.2466
▁Democrat	-11.248
▁Orchestra	-11.2484
▁Shopping	-11.2484
▁Syria	-11.2485
▁basement	-11.2485
cultural	-11.2487
▁MERS	-11.25
gress	-11.251
load	-11.2513
▁Natural	-11.2515
▁steering	-11.2515
▁voters	-11.2525
▁Traffic	-11.2531
▁promptly	-11.2532
▁Fortress	-11.2535
▁Advisory	-11.2536
▁exclude	-11.2536
▁Bloomberg	-11.2546
▁satisfy	-11.2546
▁assignment	-11.2546
▁alter	-11.2548
▁Seven	-11.256
▁Sydney	-11.2561
▁treasure	-11.2561
▁drove	-11.2561
▁ongoing	-11.2564
▁KBO	-11.2564
▁Steel	-11.2566
▁fence	-11.2578
▁batter	-11.2581
▁accomplish	-11.2592
▁Journal	-11.2592
▁ginseng	-11.2592
▁honey	-11.2592
▁shutdown	-11.2593
▁NH	-11.2594
▁unfold	-11.2597
▁cultivation	-11.2608
▁liquor	-11.2608
▁worn	-11.2608
▁Italian	-11.2608
▁Yonsei	-11.2623
▁grandfather	-11.2623
▁Stock	-11.2623
▁coalition	-11.2624
60,000	-11.2625
gwang	-11.2634
▁defender	-11.2636
▁Learning	-11.2639
▁therefore	-11.2639
▁Expo	-11.2646
▁trigger	-11.2654
▁attributed	-11.2654
▁gym	-11.2655
▁insect	-11.2656
▁dignity	-11.267
▁format	-11.2682
uality	-11.2683
▁informatization	-11.2686
▁worries	-11.2686
▁Criminal	-11.2717
▁Stream	-11.2717
▁Robert	-11.2717
▁Sharing	-11.2721
▁Ilsan	-11.2726
▁stew	-11.2727
cla	-11.2728
▁ceiling	-11.2733
▁releasing	-11.2733
▁applies	-11.2733
position	-11.274
▁bike	-11.274
▁180	-11.2747
▁congratulatory	-11.2748
▁pregnancy	-11.2748
▁Staff	-11.2748
▁piano	-11.2748
▁abilities	-11.2764
▁evacuate	-11.2764
▁gratitude	-11.2764
▁educate	-11.2764
▁alarm	-11.2766
▁inflation	-11.278
▁drastically	-11.2781
▁striker	-11.2783
▁Navy	-11.2796
▁thrill	-11.2796
▁Sometimes	-11.2796
,000,000	-11.281
▁coordinate	-11.2812
▁perpetrator	-11.2812
▁pizza	-11.2812
▁Gochang	-11.2815
trust	-11.2825
▁nominee	-11.2827
▁acceptance	-11.2836
▁Gwacheon	-11.2843
▁cautious	-11.2843
▁silent	-11.2843
▁intervene	-11.2851
400	-11.2857
▁indicating	-11.2859
▁Dai	-11.286
▁lens	-11.2876
▁disappointed	-11.2891
special	-11.2897
▁Venture	-11.2907
▁heavily	-11.2907
▁refrain	-11.2907
▁inquiry	-11.2907
▁aftermath	-11.2908
combining	-11.2908
▁Count	-11.2912
▁slip	-11.2918
Corruption	-11.2923
▁congestion	-11.2923
▁creativity	-11.2923
▁floating	-11.2923
▁redevelopment	-11.2926
▁Seongdong	-11.2927
▁lobby	-11.2939
▁unprecedented	-11.2939
▁absent	-11.2939
▁regain	-11.2939
▁animation	-11.2939
▁Mongolian	-11.2939
▁texture	-11.2942
▁representation	-11.2943
▁steam	-11.2955
▁infringe	-11.2955
▁packaging	-11.2956
▁mathematics	-11.2971
▁necessity	-11.2971
▁nerve	-11.2971
▁captain	-11.2973
▁textile	-11.2974
▁adoption	-11.2976
LO	-11.2983
clusive	-11.2986
▁offensive	-11.2987
▁portrait	-11.2987
▁documentary	-11.2989
▁midterm	-11.2995
▁truly	-11.3003
▁Geumcheon	-11.3006
count	-11.3009
▁twin	-11.3012
▁pump	-11.3013
▁Jamsil	-11.302
▁journey	-11.302
▁prominent	-11.302
▁tendency	-11.302
▁weakened	-11.3021
▁grab	-11.3035
▁Oct	-11.3039
digit	-11.3041
▁neutral	-11.3052
▁width	-11.3052
▁James	-11.3052
▁portray	-11.3053
Mart	-11.3055
▁palace	-11.3068
▁yuan	-11.3068
speed	-11.307
▁batteries	-11.307
▁prediction	-11.3083
▁dessert	-11.3084
▁cartoon	-11.3085
▁somewhere	-11.3089
child	-11.3093
▁greatest	-11.3099
▁spouse	-11.3101
▁Jecheon	-11.3108
▁Data	-11.3117
▁Later	-11.3119
▁Chungju	-11.3119
▁Girl	-11.3129
▁satellite	-11.3133
▁Kazakhstan	-11.315
▁occurrence	-11.315
▁differentiated	-11.315
▁Countermeasure	-11.3166
▁stimulate	-11.3166
▁magic	-11.3181
▁excitement	-11.3183
▁Liberal	-11.3183
▁subscribe	-11.3197
responsibilities	-11.3199
▁excellence	-11.3199
▁subcontractor	-11.3199
▁Tak	-11.3208
▁television	-11.3216
▁literary	-11.3216
▁march	-11.3217
Presidential	-11.3219
▁rational	-11.3224
South	-11.3225
▁romantic	-11.3232
▁stepping	-11.3236
▁delegate	-11.324
New	-11.3241
▁Language	-11.3249
▁Make	-11.3251
▁announcing	-11.3265
▁column	-11.3265
▁shaking	-11.3265
▁Cross	-11.3265
▁uncertainty	-11.3266
▁cave	-11.3267
▁Netflix	-11.3282
▁spray	-11.3285
▁Northeast	-11.3297
▁Veterans	-11.3298
▁nominated	-11.3298
▁Putin	-11.3298
▁lung	-11.3299
▁Manchester	-11.3315
▁hobby	-11.3315
▁negotiate	-11.3315
▁diagnos	-11.3331
▁Sokcho	-11.3332
▁renewed	-11.3332
▁sink	-11.3333
▁stuck	-11.3335
▁downward	-11.3348
▁integrity	-11.3348
▁Prior	-11.3348
▁sincerely	-11.3349
▁cruise	-11.3365
▁diplomacy	-11.3365
▁adviser	-11.3367
▁advantageous	-11.3373
▁Gye	-11.3379
▁Madrid	-11.3382
▁occupied	-11.3382
▁relocate	-11.3382
▁2001	-11.3392
smoking	-11.3392
▁consolidat	-11.3399
▁pocket	-11.3399
▁tunnel	-11.3399
▁inquiries	-11.3399
▁exempt	-11.3399
▁fought	-11.3415
▁impressed	-11.3415
▁unstable	-11.3415
▁reunion	-11.3415
▁Seongbuk	-11.3417
▁Mark	-11.3421
▁Participants	-11.3432
▁vitality	-11.3432
▁Paulo	-11.3432
▁sincerity	-11.3432
▁aviation	-11.3433
▁legend	-11.3436
▁accusation	-11.3436
▁involve	-11.3437
▁weigh	-11.3446
▁reorganize	-11.3447
▁frequency	-11.3449
3.5	-11.3454
q	-11.3459
▁Fish	-11.3464
▁comfortably	-11.3467
▁Baekje	-11.3469
driving	-11.3477
minister	-11.3477
▁renewal	-11.3483
▁shame	-11.3483
▁Old	-11.3485
▁vary	-11.3495
▁elevator	-11.35
▁Telecom	-11.35
▁Chungcheongbuk	-11.3501
▁Spring	-11.3503
mount	-11.3505
Palembang	-11.3517
▁criticizing	-11.3518
▁ruin	-11.3518
▁Campus	-11.352
▁Yeoju	-11.3533
▁Nonghyup	-11.3534
▁Toronto	-11.3534
▁requiring	-11.3534
▁fishery	-11.3536
▁Vision	-11.354
▁compare	-11.3543
▁comparison	-11.3551
▁Berlin	-11.3551
▁disposable	-11.3568
▁shrink	-11.3568
▁juice	-11.3568
▁mock	-11.357
▁deteriorate	-11.3585
▁discipline	-11.3585
▁substantial	-11.3585
0.0	-11.3592
▁Haeundae	-11.3602
▁choosing	-11.3602
▁surplus	-11.3602
▁batting	-11.3602
season	-11.3615
▁unnecessary	-11.3619
▁asleep	-11.3619
▁flagship	-11.3622
▁Ssangyong	-11.3636
▁exemplary	-11.3636
▁pleasure	-11.3636
▁Mission	-11.3637
▁coat	-11.3647
where	-11.3649
▁Bupyeong	-11.3656
▁leakage	-11.3658
▁KEPCO	-11.3671
▁suspicious	-11.3671
▁commencement	-11.3688
▁seafood	-11.3688
▁arrangement	-11.3692
sharing	-11.3702
▁distributing	-11.3705
▁bow	-11.3706
600	-11.371
centered	-11.3719
▁Improvement	-11.3723
▁underprivileged	-11.3723
Star	-11.3728
chol	-11.3733
▁Excuse	-11.374
What	-11.3754
▁Steering	-11.3758
▁relics	-11.3759
ough	-11.3774
▁pursuing	-11.3775
▁hint	-11.3775
▁diversity	-11.3792
▁editor	-11.3792
▁hygiene	-11.3792
▁reception	-11.3792
▁Lab	-11.3802
▁insert	-11.3805
▁revitalizing	-11.3827
▁dozens	-11.3827
▁trainees	-11.3828
▁900	-11.3834
▁genetic	-11.3849
▁predecessor	-11.3863
▁envoy	-11.3863
▁Golf	-11.3883
▁intersection	-11.3898
▁tennis	-11.3898
▁scent	-11.3909
ealand	-11.3911
▁measuring	-11.3915
▁Generation	-11.3915
▁verified	-11.3916
▁Gyo	-11.3927
chief	-11.393
▁embezzlement	-11.3933
▁moisture	-11.3933
▁rooftop	-11.3934
▁enhancing	-11.3951
▁explode	-11.3951
▁unfortunate	-11.3951
▁colon	-11.3956
▁Fortunately	-11.3969
▁retire	-11.3975
▁Relations	-11.3978
▁champion	-11.3986
▁Judicial	-11.3986
▁consciousness	-11.3986
▁ethics	-11.3986
▁Philip	-11.3986
▁lonely	-11.3986
▁rail	-11.4004
▁Guarantee	-11.4004
▁rhythm	-11.4004
▁vitamin	-11.4004
▁cherry	-11.4004
▁Junior	-11.4022
▁innocent	-11.4022
zhou	-11.4022
▁clash	-11.4023
▁Domestic	-11.404
▁universal	-11.404
▁David	-11.404
▁soared	-11.4041
▁qualified	-11.4058
▁mature	-11.4065
▁Solidarity	-11.4076
▁removing	-11.4076
▁territory	-11.4076
▁storm	-11.4076
▁rape	-11.4092
misunderstanding	-11.4094
▁Francis	-11.4094
▁Gwangmyeong	-11.4094
▁unreasonable	-11.4094
70,000	-11.4095
▁emotion	-11.4099
▁refine	-11.4101
▁ears	-11.4107
▁slave	-11.413
▁raid	-11.4131
▁Travel	-11.4148
▁Reserve	-11.4156
▁60%	-11.4163
KRW	-11.4165
▁federal	-11.4166
▁surveillance	-11.4166
▁vacancy	-11.4166
Governing	-11.4166
▁transmission	-11.4167
3,000	-11.4178
After	-11.4183
▁Mount	-11.4184
▁scrap	-11.4196
▁Opera	-11.4199
▁poverty	-11.4202
▁trash	-11.4203
▁spotlight	-11.4206
▁trick	-11.4209
▁Shipbuilding	-11.4221
▁freeze	-11.4238
▁grasp	-11.4239
▁edition	-11.424
▁Executive	-11.4257
▁JTBC	-11.4257
▁Starbucks	-11.4257
▁distributor	-11.4257
▁laundry	-11.4257
▁LED	-11.4257
▁liberation	-11.4257
▁infectious	-11.4276
▁Lawyer	-11.4276
▁Yangpyeong	-11.428
American	-11.4294
▁subcontract	-11.4294
▁Renault	-11.4294
▁facial	-11.4294
▁solidarity	-11.4294
▁vaccination	-11.4294
▁allocation	-11.4294
▁invasion	-11.4294
▁criticize	-11.4307
▁adjacent	-11.4312
▁Creation	-11.4312
▁detection	-11.4321
▁dynamic	-11.4331
▁Morning	-11.4331
▁wore	-11.4331
▁1970	-11.4341
▁tire	-11.4343
▁believing	-11.4349
▁circulation	-11.4349
▁brush	-11.4349
▁Disease	-11.4368
▁accompany	-11.4368
▁benchmark	-11.4368
▁advertise	-11.4382
▁pepper	-11.4405
▁Eunpyeong	-11.4407
▁vest	-11.4411
▁bilateral	-11.4423
▁caution	-11.4423
▁protein	-11.4423
▁Pyeongchang	-11.4424
▁accus	-11.443
▁specifically	-11.4432
▁breakthrough	-11.4442
▁jacket	-11.4442
▁reluctant	-11.4442
▁copies	-11.4442
▁prince	-11.4442
▁grill	-11.4442
▁auditorium	-11.4443
employment	-11.4443
▁mainstream	-11.4443
design	-11.4455
specializing	-11.4458
▁resolving	-11.4461
▁Short	-11.4461
▁examining	-11.4461
▁alien	-11.4464
▁emit	-11.4467
▁exploration	-11.4479
▁Electro	-11.4479
▁Plus	-11.448
Governor	-11.448
▁comeback	-11.4487
▁shrine	-11.4498
space	-11.4503
▁arrange	-11.4507
▁excess	-11.4514
▁Animal	-11.4517
▁admit	-11.4525
▁decisive	-11.4536
▁tissue	-11.4536
▁vaccine	-11.4536
▁enemy	-11.4536
▁heaven	-11.4536
▁Particularly	-11.4554
▁welcoming	-11.4554
▁Crime	-11.4555
▁downturn	-11.456
▁achieving	-11.4573
▁scattered	-11.4573
▁feedback	-11.4574
▁mound	-11.4574
▁villa	-11.4581
▁ASEAN	-11.4592
▁Expenses	-11.4592
▁uncertain	-11.4609
▁dried	-11.4611
▁shuttle	-11.4612
▁capability	-11.4613
▁Concern	-11.463
▁journal	-11.4636
▁parade	-11.4646
▁Convergence	-11.4649
▁celebrity	-11.4649
▁diabetes	-11.4649
▁pottery	-11.4649
▁symboliz	-11.4665
▁oxygen	-11.4668
▁stairs	-11.4668
▁grain	-11.4669
▁bacteria	-11.4675
▁divide	-11.4678
▁calculating	-11.4687
▁fatigue	-11.4687
▁statute	-11.4705
▁deterioration	-11.4706
▁evasion	-11.4706
▁confused	-11.4706
▁pink	-11.4707
▁guitar	-11.4725
▁mirror	-11.4725
▁steep	-11.4725
▁Artist	-11.4734
utonomous	-11.4736
▁enthusiasm	-11.4745
▁humid	-11.4745
▁mortgage	-11.4745
▁sympathy	-11.4745
▁babies	-11.4745
▁Index	-11.4746
▁commentator	-11.4748
▁soldier	-11.4749
▁Holdings	-11.4764
▁unmanned	-11.4764
▁verbal	-11.4764
▁declare	-11.4777
▁grammar	-11.4783
▁injection	-11.4783
▁Gwanggyo	-11.4784
largest	-11.4787
▁describe	-11.4796
▁residing	-11.4802
▁commute	-11.4803
▁laptop	-11.4822
▁1.3	-11.4827
▁supermarket	-11.4841
▁properties	-11.4842
▁Certifi	-11.4843
▁spiritual	-11.4844
charge	-11.4844
▁Mirae	-11.4845
hosted	-11.4845
▁imagination	-11.4861
▁irregular	-11.4879
▁Personnel	-11.488
▁bronze	-11.488
▁parcel	-11.488
▁supreme	-11.488
▁angle	-11.4888
▁mobility	-11.49
▁Muslim	-11.49
▁Export	-11.4904
▁Belgium	-11.4919
▁collusion	-11.4919
▁Senate	-11.4919
▁inequality	-11.492
Pacific	-11.4924
▁posture	-11.4926
▁DSC	-11.4959
▁accessibility	-11.4959
▁Indeed	-11.496
▁hunt	-11.4967
▁prescribing	-11.4978
friend	-11.4987
0.5	-11.4987
▁emphasizing	-11.4998
▁specify	-11.4998
▁Survey	-11.5017
▁emphasis	-11.5017
▁banner	-11.5022
▁appreciation	-11.5037
▁practicing	-11.5037
▁Floor	-11.5037
▁Apartment	-11.5037
▁jail	-11.5037
▁yen	-11.5041
Gyeonggi	-11.5043
▁squad	-11.5057
▁crude	-11.5057
▁infected	-11.5058
▁excuse	-11.5077
▁backlash	-11.5097
▁Latin	-11.5097
▁distrust	-11.5099
▁lady	-11.5104
▁dye	-11.5108
▁determining	-11.5117
▁prejudice	-11.5117
▁significance	-11.5117
▁troupe	-11.5117
▁credibility	-11.5137
▁NIS	-11.5137
▁boiler	-11.5137
▁midnight	-11.514
avor	-11.5147
▁Dongducheon	-11.5156
▁compulsory	-11.5156
▁omitted	-11.5156
▁recipe	-11.5157
▁flash	-11.5157
▁Sept	-11.5162
▁Performance	-11.5177
▁recurrence	-11.5177
▁unauthorized	-11.5177
▁Bolton	-11.5177
▁weekdays	-11.5177
▁soaring	-11.5179
▁funny	-11.5181
from	-11.5182
9,000	-11.5184
raising	-11.5184
assembl	-11.5186
▁Gymnasium	-11.5197
▁embarrassed	-11.5197
▁replacing	-11.5197
▁immune	-11.5197
▁pillar	-11.5197
▁ramen	-11.5217
▁copyright	-11.5218
▁Professional	-11.5237
▁nurture	-11.5237
▁refrigerator	-11.5237
▁Eulji	-11.5237
▁Summer	-11.5237
▁struck	-11.5239
▁referee	-11.5241
▁messenger	-11.5257
▁occupancy	-11.5257
▁Nexon	-11.5257
4.5	-11.5273
▁Chemical	-11.5277
▁Tomorrow	-11.5298
▁bankrupt	-11.5298
▁deregulation	-11.5298
▁extenuati	-11.5298
neighboring	-11.5314
▁obstruct	-11.5318
▁sensation	-11.5318
▁Geumgang	-11.5319
▁abandon	-11.5327
▁Digital	-11.5338
▁brokerage	-11.5338
▁dormitory	-11.5338
▁exercising	-11.5338
▁creator	-11.5338
▁instability	-11.5339
▁defectors	-11.5341
▁undermine	-11.5344
▁ingredient	-11.5354
▁defensive	-11.5359
reliance	-11.5359
▁Gwangyang	-11.5362
▁Auto	-11.5362
▁arose	-11.5363
▁password	-11.5379
▁allocated	-11.5379
owner	-11.538
▁hoping	-11.5384
▁Barcelona	-11.54
▁FIFA	-11.54
▁pioneer	-11.54
▁hiding	-11.54
▁essence	-11.54
▁Ronaldo	-11.542
▁Whether	-11.542
▁chemistry	-11.542
▁fortunate	-11.542
▁inheritance	-11.542
▁pavilion	-11.542
▁plaintiff	-11.542
OECD	-11.542
▁overcoming	-11.5421
▁Walk	-11.5425
ologist	-11.5437
▁Islamic	-11.5441
▁gambling	-11.5441
▁Alliance	-11.5441
▁teaser	-11.5443
▁Compensation	-11.5461
▁Patriot	-11.5461
▁plenty	-11.5461
▁surrounded	-11.5461
▁vacant	-11.5461
▁Battle	-11.5461
▁extensive	-11.5482
▁intangible	-11.5482
▁reconciliation	-11.5503
▁SUV	-11.5503
▁reliable	-11.5503
▁cabinet	-11.5524
▁description	-11.5524
▁reservoir	-11.5524
▁umbrella	-11.5524
▁problematic	-11.5524
▁bubble	-11.5544
▁inconvenient	-11.5544
▁utility	-11.5544
▁mysterious	-11.5544
▁dense	-11.5546
▁commuting	-11.5565
▁scientist	-11.5565
▁prostitution	-11.5568
▁architectural	-11.5586
▁reshuffle	-11.5586
▁subsidiaries	-11.5586
▁Finally	-11.5586
▁sustain	-11.5604
▁Bitcoin	-11.5607
▁Hynix	-11.5607
▁manipulate	-11.5607
▁presumed	-11.5607
▁brilliant	-11.5607
▁transplant	-11.5607
▁constitution	-11.5615
decentralization	-11.5628
▁absurd	-11.5628
▁cumulative	-11.5628
▁descendants	-11.5628
▁Parents	-11.5649
▁Biegun	-11.5649
▁precise	-11.5649
committee	-11.5659
▁Advanced	-11.567
▁Expectations	-11.567
▁prescription	-11.567
▁grape	-11.567
▁sail	-11.5671
▁righteous	-11.5691
▁twist	-11.5691
▁calculate	-11.5708
▁cuisine	-11.5712
▁drought	-11.5712
▁Pursu	-11.5712
▁loose	-11.5712
▁urge	-11.5726
20,000	-11.5732
▁collaborate	-11.5733
▁tropical	-11.5733
▁giant	-11.5735
economic	-11.5745
▁Terminal	-11.5755
▁gasoline	-11.5755
▁glance	-11.5755
▁marry	-11.5757
▁Perhaps	-11.5776
▁evaluating	-11.5776
▁syndrome	-11.5776
▁invention	-11.5776
▁1,500	-11.5779
▁mill	-11.5797
▁enormous	-11.5797
▁hacking	-11.5797
▁Moscow	-11.5819
▁artifacts	-11.5819
▁Usually	-11.5819
▁companion	-11.584
▁preemptive	-11.584
▁sophisticated	-11.584
▁wise	-11.5844
▁allegation	-11.5848
▁terrible	-11.5861
▁slope	-11.5861
,800	-11.5862
Dragon	-11.5862
▁merge	-11.587
▁neat	-11.5883
▁Paldang	-11.5884
written	-11.5896
▁repay	-11.5901
▁imposing	-11.5905
▁obesity	-11.5905
▁Actually	-11.5905
▁motorcycle	-11.5905
▁Besides	-11.5905
▁wrapped	-11.5905
▁Assessment	-11.5926
▁UNESCO	-11.5926
▁penalties	-11.5926
PGA	-11.5937
▁architect	-11.5947
▁Graduate	-11.5948
▁stabilization	-11.5948
▁CNN	-11.5948
▁Switzerland	-11.5969
▁vendor	-11.5969
▁Third	-11.5969
▁leaf	-11.597
▁Heroes	-11.597
▁BioLogics	-11.5991
▁Customs	-11.5991
▁entitled	-11.5991
▁reappointed	-11.5991
▁ankle	-11.6004
▁belatedly	-11.6013
▁pagoda	-11.6013
▁resumption	-11.6013
▁soybean	-11.6013
▁crush	-11.6013
▁fingerprint	-11.6013
employ	-11.602
▁Railroad	-11.6035
▁delicate	-11.6035
▁hyper	-11.6036
▁compliance	-11.6057
▁consignment	-11.6057
▁influential	-11.6057
▁reversal	-11.6057
▁ninth	-11.6057
▁Spokesman	-11.6079
▁awkward	-11.6079
▁pesticide	-11.6079
▁rookie	-11.6079
▁Studio	-11.6079
▁Senator	-11.6079
▁KakaoTalk	-11.6101
▁humanitarian	-11.6101
▁radiation	-11.6101
▁airplane	-11.6101
▁choir	-11.6101
▁shook	-11.6104
▁Dodgers	-11.6123
▁Happiness	-11.6123
▁1.8	-11.6131
▁Spirit	-11.6145
▁Statistical	-11.6145
▁Michael	-11.6145
▁Study	-11.6145
▁anxious	-11.6145
purpose	-11.616
▁occupy	-11.6167
▁disbursement	-11.6167
▁embassy	-11.6167
▁sympathize	-11.6167
▁"2019	-11.6167
▁salad	-11.6167
▁restrain	-11.6167
▁joke	-11.6169
▁tale	-11.6181
▁merchant	-11.6183
Scholastic	-11.6189
▁Commercial	-11.6189
▁arriving	-11.6189
▁Hyuk	-11.6189
▁module	-11.6189
▁uncertainties	-11.6189
▁servant	-11.6206
▁default	-11.6211
▁eldest	-11.6211
▁remodeling	-11.6211
▁swept	-11.6211
▁odor	-11.6212
3.3	-11.6217
Ordinance	-11.6227
▁ethnic	-11.6233
▁vertical	-11.6234
▁flame	-11.6234
▁blanket	-11.6235
▁Subsidies	-11.6256
▁applause	-11.6256
▁surname	-11.6256
▁Royal	-11.6256
▁Gyeyang	-11.6257
▁opera	-11.6269
League	-11.6272
Samsung	-11.6272
▁Ability	-11.6278
INTE	-11.6301
▁Attorney	-11.6323
▁clarify	-11.6323
▁dependent	-11.6323
▁Soviet	-11.6323
▁spectators	-11.6323
▁gentle	-11.6323
National	-11.634
▁intensified	-11.6346
▁dramatically	-11.6346
▁medication	-11.6346
▁digest	-11.6346
Because	-11.6362
▁repatriat	-11.6368
▁PyeongChang	-11.6368
▁Hangeul	-11.6368
▁modified	-11.6368
▁regrettable	-11.6368
▁foldable	-11.6368
▁unjust	-11.6368
catching	-11.6386
connect	-11.639
▁challenging	-11.6391
▁grievance	-11.6391
▁wisdom	-11.6391
▁Resort	-11.6391
▁Price	-11.6391
1,000	-11.6398
▁Challenge	-11.6413
▁Dubai	-11.6413
▁accommodate	-11.6413
▁nickname	-11.6413
▁overdue	-11.6414
▁Gangbuk	-11.6414
▁administrator	-11.6436
▁commodity	-11.6436
▁ourselves	-11.6436
▁brown	-11.6436
▁Pharmaceutical	-11.6459
▁delinquent	-11.6459
▁procurement	-11.6459
▁beneficiaries	-11.6482
▁protocol	-11.6482
ogue	-11.6492
▁Customer	-11.6505
▁fishermen	-11.6505
▁hanbok	-11.6505
▁ideology	-11.6505
▁affair	-11.6507
▁toxic	-11.6516
▁drank	-11.6528
▁comparing	-11.6528
▁affiliate	-11.6528
▁mourn	-11.6528
▁flee	-11.6531
▁unfavorable	-11.6551
▁enactment	-11.6551
▁forgot	-11.6553
▁athlete	-11.6554
▁teenage	-11.6572
dimensional	-11.6574
▁headache	-11.6574
▁confront	-11.6592
▁knife	-11.6597
▁malicious	-11.6597
▁paradigm	-11.6597
▁gospel	-11.6597
▁chew	-11.6598
ltitude	-11.661
▁Juvenile	-11.662
▁auxiliary	-11.662
▁amusement	-11.662
▁minus	-11.662
▁dental	-11.662
▁interrupt	-11.6643
▁reimburse	-11.6643
▁Ceremony	-11.6643
▁Employee	-11.6643
▁ancestors	-11.6643
▁Flower	-11.6643
▁pretend	-11.6643
▁urging	-11.6643
▁Resident	-11.6649
course	-11.6666
▁OLED	-11.6666
▁souvenir	-11.6666
▁trauma	-11.6666
▁wander	-11.6666
▁zoo	-11.6682
▁Cambodia	-11.669
▁Newspaper	-11.669
▁gallery	-11.669
▁decoration	-11.669
▁Growth	-11.669
▁probation	-11.669
▁advise	-11.6708
▁diploma	-11.6711
▁faculty	-11.6713
▁complement	-11.6713
▁fusion	-11.6713
▁contemporary	-11.6736
▁nowadays	-11.6736
▁orchestra	-11.6736
▁Ethics	-11.6736
aved	-11.6742
▁calendar	-11.676
▁keyword	-11.676
0.3	-11.6761
▁Railway	-11.6783
▁exploit	-11.6807
▁declining	-11.6831
▁volatility	-11.6831
▁COE	-11.6831
▁geographical	-11.6854
▁waist	-11.6855
▁commemoration	-11.6878
▁subtitle	-11.6878
▁Mobile	-11.6878
▁smiling	-11.6878
▁incentive	-11.6891
complete	-11.69
▁Controversy	-11.6902
▁Fashion	-11.6902
▁ROK	-11.6902
▁revelation	-11.6902
▁reckless	-11.6902
▁deepening	-11.6902
▁sanction	-11.6915
▁Medicine	-11.6926
▁polarization	-11.6926
▁luncheon	-11.6926
▁hug	-11.6933
▁routine	-11.695
▁intensity	-11.6974
▁unconscious	-11.6974
▁mounting	-11.6974
▁eradicate	-11.6998
▁forgotten	-11.6998
30,000	-11.702
▁motivation	-11.7022
▁webtoon	-11.7022
▁burdensome	-11.7022
▁widespread	-11.7046
▁addiction	-11.7046
▁occupant	-11.707
▁privacy	-11.707
▁vacuum	-11.707
▁Folk	-11.7071
▁Architect	-11.7094
▁sanitary	-11.7094
▁Consultati	-11.7095
▁kiln	-11.7095
▁random	-11.7095
▁lottery	-11.7095
▁Honor	-11.7095
▁vegetable	-11.7113
▁appraisal	-11.7119
▁custody	-11.7119
▁lunar	-11.7119
▁keynote	-11.7119
▁Asked	-11.712
colored	-11.7136
▁countermeasure	-11.7138
▁constitute	-11.7143
▁flew	-11.7143
▁kingdom	-11.7143
▁comedian	-11.7143
Provisional	-11.7143
▁chill	-11.7145
▁Gallery	-11.7168
▁Judiciary	-11.7168
▁collision	-11.7168
▁diversify	-11.7168
▁oriental	-11.7168
▁cliff	-11.7192
▁termination	-11.7192
▁chamber	-11.7217
▁adverse	-11.7218
▁Standing	-11.7241
▁inaugura	-11.7265
▁chaebol	-11.7266
▁collateral	-11.7266
▁commodities	-11.7266
floor	-11.7267
payment	-11.7285
▁optimiz	-11.7291
▁mechanical	-11.7291
▁Personal	-11.7291
▁demolition	-11.7316
▁virtuous	-11.7316
▁eager	-11.7316
▁Seogwipo	-11.734
▁fantastic	-11.734
▁hinder	-11.734
▁luxurious	-11.734
▁remittance	-11.734
▁aptitude	-11.7341
▁workforce	-11.7341
▁VIP	-11.7341
▁Collection	-11.7365
▁Specific	-11.7365
▁fraudulent	-11.7365
▁hazard	-11.7365
▁optimal	-11.7365
▁woke	-11.7366
▁specifications	-11.7367
▁communicating	-11.739
▁eligibility	-11.739
▁ratification	-11.739
▁sidewalk	-11.739
▁Material	-11.739
▁Kiwoom	-11.739
▁barely	-11.7391
▁hesitate	-11.7391
▁hundred	-11.7391
Council	-11.7392
▁Livestock	-11.7415
▁Parliament	-11.7415
▁Presbyterian	-11.7415
▁crucial	-11.7415
▁happily	-11.7415
▁cotton	-11.7416
▁crown	-11.7436
coastal	-11.7438
▁Distribution	-11.7441
▁fintech	-11.7441
▁overlook	-11.7441
▁harmonize	-11.7441
▁Father	-11.7441
▁swim	-11.7466
▁exterior	-11.7466
▁modify	-11.7466
▁Unfortunately	-11.7491
▁beneficial	-11.7491
▁concession	-11.7491
▁measles	-11.7491
▁Overseas	-11.7516
▁Pavilion	-11.7516
▁Saemaul	-11.7516
▁Together	-11.7516
▁ambulance	-11.7516
▁immunity	-11.7516
▁privilege	-11.7542
▁spatial	-11.7542
10,000	-11.7544
▁unveil	-11.7561
▁Coordination	-11.7567
▁dominate	-11.7567
▁desert	-11.7568
▁conjunction	-11.7593
▁miracle	-11.7593
▁ripple	-11.7593
▁compiled	-11.7593
▁quiz	-11.7593
▁kiss	-11.7594
▁backdrop	-11.7618
▁chapter	-11.7618
▁burial	-11.7618
▁arguing	-11.7618
▁verge	-11.7619
Russia	-11.7622
▁cloth	-11.7622
▁fluctuation	-11.7644
▁attendees	-11.7644
▁northwest	-11.7646
▁taekwondo	-11.767
▁tragedy	-11.767
▁dragon	-11.767
▁Michuhol	-11.767
▁Billboard	-11.7695
▁athletic	-11.7695
▁qualify	-11.7695
▁refreshing	-11.7695
▁chaos	-11.7695
▁craze	-11.7695
▁Daniel	-11.7695
served	-11.7708
▁recogniz	-11.7711
▁LPG	-11.7736
▁Obama	-11.7747
▁entities	-11.7747
▁noodle	-11.7757
▁salaries	-11.7773
▁hiking	-11.7773
▁Disabilities	-11.7799
▁Knowledge	-11.7799
▁generous	-11.7799
▁prevail	-11.7799
▁steak	-11.7799
▁cinema	-11.78
nuclear	-11.7804
llegedly	-11.7806
▁sibling	-11.7825
▁exchanging	-11.7825
▁cease	-11.7826
▁idle	-11.7828
▁indicator	-11.7837
▁audio	-11.7841
▁Nowadays	-11.7851
▁resemble	-11.7851
▁survivor	-11.7851
▁reinstate	-11.7851
▁Style	-11.7852
▁Waste	-11.7855
▁Netherlands	-11.7878
▁carpool	-11.7878
▁penetrate	-11.7878
▁retaliation	-11.7878
▁subsequent	-11.7878
▁wrinkle	-11.7878
▁freight	-11.7878
ranked	-11.7883
▁erupted	-11.7904
▁skating	-11.7904
▁Modern	-11.7904
▁cried	-11.7905
cancer	-11.791
unconstitutional	-11.793
▁cabbage	-11.793
▁evacuation	-11.793
▁shadow	-11.793
▁spectacular	-11.793
▁Depend	-11.793
Gangnam	-11.7936
▁continent	-11.7941
▁arrears	-11.7957
▁memorable	-11.7957
▁freezing	-11.7957
▁ghost	-11.796
▁scratch	-11.7983
▁Early	-11.7984
▁Everything	-11.7984
▁plot	-11.7984
first	-11.799
IMF	-11.7998
▁Stephen	-11.801
▁intelligent	-11.801
▁rainfall	-11.801
▁CBS	-11.801
▁Ulleung	-11.8037
▁conceal	-11.8037
▁barrel	-11.8037
▁abusing	-11.8037
▁accumulate	-11.8038
excluding	-11.8043
▁forefront	-11.8063
▁priest	-11.8064
▁Cinema	-11.8064
ncluding	-11.8085
▁coincide	-11.809
▁lump	-11.809
While	-11.8097
Benz	-11.8112
▁Corporate	-11.8117
▁recreation	-11.8117
▁tube	-11.812
▁Liberation	-11.8144
▁spokesperson	-11.8144
▁isolated	-11.8145
▁insult	-11.8149
▁Literature	-11.8171
▁modification	-11.8171
▁Cyber	-11.8171
▁enabl	-11.8182
▁liaison	-11.8198
▁stagnant	-11.8198
▁foul	-11.8198
▁martyr	-11.8225
▁maturity	-11.8225
▁revival	-11.8225
▁dominant	-11.8225
▁Think	-11.8226
▁landslide	-11.8253
▁tuberculosis	-11.8253
▁anchor	-11.8254
▁Typhoon	-11.828
▁elastic	-11.828
▁varieties	-11.828
▁probability	-11.828
▁shrimp	-11.828
▁Infinite	-11.828
people	-11.8288
▁devise	-11.8292
▁deciding	-11.8307
▁frustrated	-11.8307
▁withdrew	-11.8307
technology	-11.8316
▁Chicken	-11.8335
▁detached	-11.8335
▁knock	-11.8335
▁voucher	-11.8335
▁flour	-11.8335
▁Chicago	-11.8362
▁Empire	-11.8362
▁Texas	-11.8362
▁leather	-11.8362
▁migrant	-11.8362
▁threshold	-11.8362
▁tasting	-11.8362
▁editing	-11.8362
kilometer	-11.8388
▁inflammation	-11.839
▁marathon	-11.839
▁twenty	-11.839
▁volleyball	-11.839
▁wheelchair	-11.839
▁Merchant	-11.839
▁refuted	-11.839
▁Clean	-11.839
▁Trust	-11.839
▁Participation	-11.8418
▁denuclearize	-11.8418
▁plaque	-11.8418
▁Namdaemun	-11.8445
▁Intellectual	-11.8473
▁Vehicle	-11.8473
▁legitimate	-11.8473
▁Frank	-11.8473
▁deserve	-11.8479
▁Deliberati	-11.8497
▁Colombia	-11.8501
▁nephew	-11.8501
▁refusal	-11.8501
▁evolve	-11.8501
▁Sexual	-11.8501
▁Large	-11.8501
second	-11.8512
credit	-11.8518
▁Treatment	-11.8529
▁defamation	-11.8529
▁tailored	-11.8529
▁tobacco	-11.8529
▁Front	-11.8537
▁Examination	-11.8557
▁dividing	-11.8557
▁plaza	-11.8557
▁reliability	-11.8557
▁Hydro	-11.8557
▁Iraq	-11.8557
▁casual	-11.8585
Academic	-11.8585
▁democratization	-11.8585
▁imperial	-11.8585
▁intermediate	-11.8585
▁baggage	-11.8586
▁Castle	-11.8586
▁blessing	-11.8586
▁integrate	-11.8588
▁dioxide	-11.8614
▁monopoly	-11.8614
▁retreat	-11.8614
▁drum	-11.8614
▁cosmetic	-11.8619
▁mild	-11.8642
investigation	-11.8654
(1)	-11.8654
▁reconstruct	-11.8667
▁Buddhism	-11.867
esteem	-11.8671
▁fortune	-11.8671
▁Liverpool	-11.8699
▁Hankyoreh	-11.8699
▁Sookmyung	-11.8699
▁memorandum	-11.8699
▁accessories	-11.8699
▁landlord	-11.8699
▁Prosecution	-11.8728
▁briquette	-11.8728
▁consortium	-11.8728
▁LNG	-11.8728
▁midfielder	-11.8728
▁elite	-11.8728
▁Direct	-11.8758
▁simultaneous	-11.8769
▁pursuit	-11.8785
▁silence	-11.8785
▁composer	-11.8785
▁discomfort	-11.8814
▁neither	-11.8814
▁tremendous	-11.8814
▁parallel	-11.8814
▁radar	-11.8814
▁gross	-11.8814
keeper	-11.8826
examination	-11.8827
▁candlelight	-11.8843
▁vague	-11.8843
Special	-11.8856
patient	-11.8858
▁licensing	-11.8872
▁Biennale	-11.8901
▁hormone	-11.8901
▁humor	-11.8901
▁discretion	-11.8901
▁autopsy	-11.893
▁exclusion	-11.893
▁mosquito	-11.893
▁premise	-11.893
▁bargaining	-11.8959
▁crazy	-11.8959
▁euros	-11.8959
Secret	-11.8963
performance	-11.8973
▁advocate	-11.8988
▁bamboo	-11.8988
▁bracket	-11.8988
▁housewives	-11.8988
▁translator	-11.8988
▁melody	-11.8988
▁Grade	-11.8988
▁blend	-11.8989
business	-11.9003
▁phishing	-11.9018
▁quantities	-11.9018
▁mechanism	-11.9018
▁Bangkok	-11.9047
%	-12.793
