<unk>	0
<s>	0
</s>	0
▁이	-0
▁있	-1
으로	-2
▁수	-3
▁대	-4
에서	-5
▁사	-6
▁지	-7
▁한	-8
▁것	-9
▁가	-10
▁기	-11
▁1	-12
▁전	-13
니다	-14
▁그	-15
하는	-16
▁경	-17
▁시	-18
했다	-19
▁제	-20
▁있다	-21
▁등	-22
▁2	-23
▁보	-24
▁위	-25
▁정	-26
▁주	-27
하고	-28
▁아	-29
▁나	-30
▁공	-31
▁다	-32
▁중	-33
▁자	-34
▁관	-35
▁인	-36
▁일	-37
▁부	-38
▁‘	-39
이다	-40
▁하	-41
▁내	-42
▁조	-43
▁상	-44
▁“	-45
▁구	-46
습니다	-47
▁국	-48
▁해	-49
▁있는	-50
들이	-51
▁의	-52
▁소	-53
▁오	-54
▁도	-55
▁모	-56
▁비	-57
▁어	-58
▁여	-59
▁고	-60
▁우	-61
▁서	-62
▁유	-63
▁않	-64
▁미	-65
▁개	-66
▁때	-67
▁연	-68
▁3	-69
▁발	-70
▁선	-71
▁없	-72
하여	-73
▁당	-74
▁신	-75
에는	-76
▁만	-77
한다	-78
▁예	-79
▁한다	-80
▁마	-81
▁문	-82
▁따	-83
▁최	-84
▁방	-85
▁통	-86
에게	-87
▁안	-88
▁말	-89
▁생	-90
▁영	-91
▁거	-92
지만	-93
이라	-94
▁교	-95
▁한국	-96
▁강	-97
▁실	-98
▁20	-99
▁동	-100
▁김	-101
▁진	-102
▁저	-103
▁바	-104
▁현	-105
▁장	-106
▁많	-107
▁성	-108
까지	-109
▁경기	-110
▁세	-111
▁무	-112
▁받	-113
었다	-114
▁결	-115
▁확	-116
▁및	-117
▁지난	-118
▁것으로	-119
▁불	-120
▁추	-121
▁대한	-122
▁분	-123
▁재	-124
▁노	-125
부터	-126
▁5	-127
면서	-128
적으로	-129
▁더	-130
▁계	-131
적인	-132
▁같	-133
▁필	-134
▁특	-135
▁원	-136
▁경우	-137
▁감	-138
▁설	-139
▁참	-140
▁4	-141
▁스	-142
▁남	-143
▁위해	-144
▁우리	-145
다는	-146
▁차	-147
하기	-148
▁회	-149
▁알	-150
▁되	-151
▁건	-152
▁적	-153
▁매	-154
어요	-155
▁반	-156
하게	-157
▁운	-158
▁학	-159
▁행	-160
된다	-161
▁입	-162
▁배	-163
▁필요	-164
▁후	-165
▁올	-166
00	-167
▁직	-168
▁열	-169
장은	-170
▁할	-171
▁출	-172
▁과	-173
▁단	-174
들의	-175
▁사람	-176
▁좋	-177
다고	-178
▁요	-179
▁서울	-180
▁들	-181
▁밝	-182
장이	-183
▁각	-184
▁포	-185
▁평	-186
▁당신	-187
▁청	-188
도록	-189
▁작	-190
▁또	-191
▁경기도	-192
입니다	-193
▁활	-194
위원	-195
됐다	-196
▁때문	-197
▁함	-198
▁따라	-199
▁지원	-200
▁6	-201
▁금	-202
▁높	-203
들은	-204
▁가능	-205
▁점	-206
▁지역	-207
합니다	-208
▁두	-209
▁규	-210
▁달	-211
▁집	-212
▁물	-213
▁이번	-214
▁북	-215
▁것이	-216
하지	-217
▁하는	-218
▁미국	-219
▁사업	-220
▁10	-221
▁통해	-222
▁외	-223
▁심	-224
▁호	-225
▁법	-226
▁판	-227
▁201	-228
▁피	-229
▁못	-230
▁게	-231
▁관련	-232
▁함께	-233
▁역	-234
▁검	-235
▁앞	-236
▁증	-237
▁나는	-238
▁목	-239
▁대해	-240
되는	-241
▁명	-242
혔다	-243
▁위원	-244
▁7	-245
▁사용	-246
에서는	-247
▁처	-248
▁산	-249
▁프	-250
▁화	-251
는데	-252
▁투	-253
▁아니	-254
▁업	-255
▁새	-256
▁파	-257
▁밝혔다	-258
▁임	-259
자가	-260
사를	-261
▁문제	-262
▁협	-263
이라고	-264
▁민	-265
▁간	-266
기를	-267
▁양	-268
사가	-269
▁진행	-270
▁맞	-271
통령	-272
▁드	-273
으며	-274
▁대통령	-275
▁취	-276
▁초	-277
▁박	-278
장을	-279
▁변	-280
▁8	-281
▁총	-282
▁생각	-283
▁환	-284
▁정부	-285
▁잘	-286
▁너	-287
▁있습니다	-288
▁있어	-289
▁체	-290
▁운영	-291
▁이상	-292
▁중국	-293
▁많은	-294
에도	-295
▁종	-296
▁본	-297
원이	-298
▁했다	-299
▁관계	-300
들을	-301
▁위한	-302
▁등을	-303
▁대표	-304
하다	-305
▁기업	-306
자는	-307
▁다음	-308
▁음	-309
성이	-310
▁교육	-311
▁가장	-312
았다	-313
▁이어	-314
▁9	-315
하여야	-316
▁저는	-317
보다	-318
▁다른	-319
▁데	-320
▁담	-321
▁말했다	-322
세요	-323
▁구청	-324
▁시간	-325
하며	-326
▁시작	-327
▁것이다	-328
▁들어	-329
였다	-330
▁살	-331
▁같은	-332
▁근	-333
지는	-334
▁광	-335
졌다	-336
▁뒤	-337
리는	-338
회의	-339
사는	-340
▁하나	-341
▁것은	-342
▁찾	-343
▁손	-344
▁싶	-345
▁확인	-346
▁것을	-347
▁약	-348
기업	-349
이나	-350
▁치	-351
▁크	-352
리를	-353
지고	-354
거나	-355
하면	-356
해야	-357
▁참여	-358
▁경찰	-359
▁번	-360
시간	-361
기가	-362
▁친	-363
▁이용	-364
▁발생	-365
▁큰	-366
▁타	-367
대로	-368
▁줄	-369
운데	-370
라고	-371
▁준	-372
▁상황	-373
▁언	-374
▁걸	-375
센터	-376
▁19	-377
▁또는	-378
▁국내	-379
명이	-380
리가	-381
▁결과	-382
리고	-383
지를	-384
▁합	-385
▁가운데	-386
▁만들	-387
사업	-388
▁필요한	-389
▁세계	-390
▁네	-391
▁아이	-392
▁문화	-393
▁프로	-394
▁하고	-395
▁편	-396
▁그는	-397
▁창	-398
▁이후	-399
위원회	-400
라는	-401
▁카	-402
▁채	-403
▁따른	-404
▁표	-405
▁자신	-406
되고	-407
▁경제	-408
▁속	-409
▁돌	-410
▁다양	-411
▁농	-412
▁해당	-413
▁충	-414
▁날	-415
▁지금	-416
▁사회	-417
▁복	-418
▁최근	-419
▁넘	-420
▁트	-421
▁올해	-422
이라는	-423
▁논	-424
비스	-425
▁때문에	-426
성을	-427
▁곳	-428
기관	-429
▁예정	-430
▁전문	-431
▁보고	-432
▁될	-433
▁현재	-434
▁알려	-435
▁했	-436
▁독	-437
▁완	-438
▁등이	-439
▁추진	-440
▁제품	-441
시아	-442
▁메	-443
서는	-444
▁지난해	-445
나요	-446
▁일본	-447
▁사실	-448
▁있도록	-449
▁삼	-450
정을	-451
▁식	-452
▁있을	-453
▁대상	-454
기에	-455
▁모두	-456
▁승	-457
▁설명	-458
▁많이	-459
화를	-460
▁특히	-461
▁11	-462
▁북한	-463
▁학생	-464
하면서	-465
▁12	-466
력을	-467
▁온	-468
▁늘	-469
▁A	-470
▁이날	-471
▁접	-472
들에게	-473
▁토	-474
▁기대	-475
으면	-476
▁폭	-477
학교	-478
원을	-479
▁먹	-480
▁국가	-481
▁다양한	-482
▁축	-483
▁다시	-484
▁있다는	-485
▁계획	-486
▁정도	-487
▁없는	-488
▁리	-489
▁별	-490
스트	-491
▁효	-492
▁이유	-493
▁누	-494
▁향	-495
▁제가	-496
▁커	-497
▁관심	-498
▁시장	-499
▁책	-500
에요	-501
▁오늘	-502
▁30	-503
인이	-504
▁설치	-505
▁항	-506
▁태	-507
▁직접	-508
상을	-509
▁내가	-510
▁절	-511
▁눈	-512
▁내용	-513
000	-514
▁포함	-515
로운	-516
원은	-517
▁홍	-518
▁에	-519
▁형	-520
자의	-521
▁관리	-522
이고	-523
▁순	-524
▁제공	-525
▁조사	-526
니까	-527
▁평가	-528
르면	-529
▁주민	-530
▁힘	-531
▁코	-532
해서	-533
▁사항	-534
교육	-535
▁구청장은	-536
▁연구	-537
시설	-538
되어	-539
원의	-540
▁활동	-541
▁권	-542
▁공개	-543
▁모든	-544
▁범	-545
▁등의	-546
▁난	-547
▁200	-548
▁갖	-549
▁위하여	-550
들과	-551
▁모습	-552
▁있었	-553
▁기술	-554
기도	-555
▁방문	-556
자를	-557
▁피해	-558
▁어려	-559
▁끝	-560
▁국민	-561
레이	-562
▁갈	-563
겠습니다	-564
▁얼	-565
▁참석	-566
▁개발	-567
▁마련	-568
그램	-569
▁군	-570
▁이를	-571
▁안전	-572
▁버	-573
▁영화	-574
▁디	-575
의를	-576
▁좋은	-577
이하	-578
▁정보	-579
▁벌	-580
력이	-581
▁사이	-582
▁없다	-583
▁나타	-584
관리	-585
장의	-586
▁된다	-587
▁처음	-588
▁질	-589
▁학교	-590
식을	-591
도가	-592
▁정책	-593
▁않는	-594
기는	-595
▁따르면	-596
▁첫	-597
에서도	-598
처럼	-599
▁글	-600
▁발표	-601
▁베	-602
▁중요	-603
부가	-604
▁조례	-605
▁15	-606
왔다	-607
▁느	-608
20	-609
▁브	-610
▁서비스	-611
▁허	-612
▁오후	-613
▁아니라	-614
▁용	-615
▁사건	-616
지가	-617
사의	-618
▁빠	-619
수가	-620
▁결정	-621
▁너무	-622
▁좋아	-623
▁증가	-624
▁전망	-625
▁우리는	-626
▁사진	-627
문화	-628
해요	-629
▁당시	-630
▁시행	-631
▁분석	-632
▁기록	-633
▁여러	-634
▁투자	-635
▁「	-636
▁규정	-637
▁측	-638
▁급	-639
▁금융	-640
단체	-641
지역	-642
▁볼	-643
은행	-644
▁K	-645
▁있다고	-646
회를	-647
▁산업	-648
이는	-649
▁부산	-650
▁다만	-651
▁면	-652
▁병	-653
▁예산	-654
▁판매	-655
▁여성	-656
▁준비	-657
했다고	-658
▁업무	-659
▁경우에는	-660
▁있었다	-661
▁동안	-662
▁신청	-663
▁보내	-664
했던	-665
▁추가	-666
▁로	-667
금을	-668
▁때문이다	-669
▁S	-670
회가	-671
인다	-672
▁일부	-673
▁정상	-674
▁관한	-675
▁개최	-676
▁열린	-677
주시	-678
▁구성	-679
▁실시	-680
▁어떤	-681
▁친구	-682
▁기준	-683
씨가	-684
▁않은	-685
겠다	-686
▁높은	-687
▁만큼	-688
▁새로운	-689
▁특별	-690
▁요구	-691
▁된	-692
▁환경	-693
▁확대	-694
▁공동	-695
▁지적	-696
인을	-697
▁등에	-698
▁받아	-699
가는	-700
서를	-701
특별	-702
▁영향	-703
▁공연	-704
▁전국	-705
났다	-706
페이	-707
▁이런	-708
▁길	-709
▁이미	-710
▁합니다	-711
▁쓰	-712
▁잡	-713
치를	-714
▁가격	-715
▁지방	-716
관이	-717
▁라	-718
▁중심	-719
▁프로그램	-720
▁막	-721
도를	-722
▁당신은	-723
▁검찰	-724
▁가족	-725
▁과정	-726
▁예상	-727
항에	-728
▁국제	-729
▁지급	-730
▁애	-731
▁도시	-732
제로	-733
료를	-734
기로	-735
▁최대	-736
으나	-737
럼프	-738
▁철	-739
▁시민	-740
▁대학	-741
▁행정	-742
▁삼성	-743
▁낮	-744
▁사고	-745
산업	-746
▁어떻	-747
▁행사	-748
▁당신이	-749
자들이	-750
▁백	-751
지원	-752
어나	-753
▁보여	-754
▁배우	-755
▁감사	-756
▁기존	-757
▁개선	-758
▁월	-759
▁활용	-760
▁선정	-761
▁야	-762
했습니다	-763
▁않았	-764
가요	-765
▁어떻게	-766
▁송	-767
▁패	-768
장에서	-769
▁골	-770
▁않고	-771
대표	-772
▁폐	-773
▁관계자는	-774
▁제출	-775
▁트럼프	-776
안을	-777
상이	-778
▁감독	-779
▁시설	-780
▁선수	-781
▁혐	-782
위를	-783
▁마음	-784
▁있어요	-785
▁오전	-786
랜드	-787
▁인정	-788
계획	-789
장에	-790
▁고객	-791
▁의견	-792
▁응	-793
▁계속	-794
▁수도	-795
제를	-796
▁최고	-797
▁오는	-798
▁휴	-799
▁즐	-800
▁그러	-801
▁생산	-802
▁않아	-803
▁자유	-804
▁극	-805
명의	-806
▁찾아	-807
▁지속	-808
▁규모	-809
었습니다	-810
▁소비	-811
기술	-812
▁기간	-813
▁100	-814
▁이야	-815
▁C	-816
▁주요	-817
인의	-818
▁있으며	-819
▁인터	-820
▁같아	-821
▁요청	-822
▁분야	-823
▁만들어	-824
▁잠	-825
▁있고	-826
▁적용	-827
명을	-828
▁좀	-829
부는	-830
▁이뤄	-831
▁보인다	-832
▁부분	-833
장과	-834
되지	-835
▁우려	-836
▁팀	-837
▁나온	-838
▁후보	-839
▁생활	-840
▁몰	-841
▁테	-842
렇게	-843
▁발전	-844
▁대통령이	-845
▁사랑	-846
까요	-847
동안	-848
▁나오	-849
▁건강	-850
▁그것	-851
▁떨	-852
어서	-853
▁경쟁	-854
소년	-855
▁전체	-856
▁18	-857
▁없이	-858
▁받은	-859
렸다	-860
특별시	-861
▁노동	-862
부를	-863
▁공공	-864
연구	-865
▁판단	-866
▁그녀	-867
▁외국	-868
▁비롯	-869
▁상태	-870
이에요	-871
▁참가	-872
▁아직	-873
도로	-874
▁어느	-875
▁적극	-876
▁의미	-877
▁강조	-878
▁해외	-879
▁인천	-880
스템	-881
▁방송	-882
회담	-883
▁콘	-884
한국	-885
▁공무	-886
▁노력	-887
▁고려	-888
▁관광	-889
▁예정이다	-890
▁수사	-891
마트	-892
▁귀	-893
대가	-894
하거나	-895
▁떠	-896
▁주장	-897
▁바로	-898
▁설명했다	-899
정이	-900
▁방법	-901
했고	-902
▁이해	-903
▁천	-904
▁13	-905
하려	-906
주의	-907
▁개인	-908
하다고	-909
원에	-910
▁팬	-911
스를	-912
▁효과	-913
▁사람이	-914
▁같이	-915
부분	-916
▁16	-917
▁먼	-918
▁그리고	-919
시는	-920
물을	-921
▁수준	-922
▁그런	-923
밖에	-924
환경	-925
▁일반	-926
▁더욱	-927
동차	-928
▁어린	-929
체가	-930
▁블	-931
▁가능성이	-932
▁14	-933
이터	-934
▁여행	-935
주는	-936
리에	-937
시에	-938
▁성공	-939
▁집중	-940
▁떨어	-941
라도	-942
개월	-943
▁소속	-944
▁정말	-945
▁아닌	-946
▁남북	-947
▁받고	-948
▁플	-949
▁돌아	-950
▁차량	-951
이었다	-952
됩니다	-953
▁몇	-954
▁지정	-955
▁핵	-956
▁국회	-957
하도록	-958
▁정부가	-959
▁쉽	-960
정보	-961
▁25	-962
▁호의	-963
▁답	-964
▁있지만	-965
▁악	-966
▁전문가	-967
진다	-968
▁상품	-969
▁강화	-970
▁무엇	-971
▁신고	-972
일까지	-973
케이	-974
▁만나	-975
▁해결	-976
▁일자	-977
▁대상으로	-978
제가	-979
▁맡	-980
▁문제가	-981
▁왜	-982
▁얻	-983
점을	-984
스가	-985
,000	-986
▁존	-987
▁육	-988
의회	-989
▁도지	-990
▁되는	-991
▁정치	-992
지에	-993
▁것입니다	-994
▁엄	-995
▁얼마	-996
▁조성	-997
수를	-998
사와	-999
▁경험	-1000
▁역할	-1001
동을	-1002
자인	-1003
이가	-1004
식이	-1005
일부터	-1006
억원	-1007
▁청와	-1008
▁긴	-1009
대를	-1010
▁매우	-1011
주세요	-1012
▁말한다	-1013
이트	-1014
자로	-1015
조에	-1016
화가	-1017
씨는	-1018
움을	-1019
업을	-1020
마다	-1021
▁50	-1022
주당	-1023
▁스타	-1024
▁부담	-1025
▁펼	-1026
조제	-1027
▁이에	-1028
▁머	-1029
▁B	-1030
▁때에는	-1031
▁회의	-1032
임을	-1033
▁성장	-1034
▁주문	-1035
적이	-1036
▁우리가	-1037
▁맛	-1038
▁의혹	-1039
▁구매	-1040
치는	-1041
▁돈	-1042
▁이것	-1043
▁작품	-1044
▁17	-1045
▁대부분	-1046
▁당신의	-1047
▁앞으로	-1048
▁희	-1049
▁유지	-1050
네요	-1051
▁확보	-1052
▁돼	-1053
▁놓	-1054
개발	-1055
▁풍	-1056
▁비용	-1057
구청	-1058
▁보도	-1059
▁드러	-1060
기간	-1061
경제	-1062
시장	-1063
▁그래	-1064
▁제기	-1065
사에	-1066
사회	-1067
▁현지	-1068
복지	-1069
▁뉴	-1070
▁등으로	-1071
▁계약	-1072
▁제작	-1073
시가	-1074
▁또한	-1075
▁내년	-1076
요일	-1077
▁이름	-1078
▁자신의	-1079
▁담당	-1080
▁기관	-1081
▁시간이	-1082
었던	-1083
로벌	-1084
▁터	-1085
▁먼저	-1086
리아	-1087
▁현대	-1088
선을	-1089
▁크게	-1090
비를	-1091
▁고용	-1092
만원	-1093
▁침	-1094
▁의원	-1095
▁됐다	-1096
▁중소	-1097
▁서울특별시	-1098
인데	-1099
▁클	-1100
▁수출	-1101
▁사무	-1102
했지만	-1103
전에	-1104
라인	-1105
전을	-1106
▁논란	-1107
▁풀	-1108
혁신	-1109
▁저희	-1110
▁키	-1111
▁둘	-1112
▁징	-1113
▁혐의	-1114
▁몸	-1115
되면	-1116
▁처리	-1117
▁캐	-1118
정책	-1119
▁탄	-1120
감을	-1121
▁황	-1122
소를	-1123
르는	-1124
▁거래	-1125
했어요	-1126
▁우선	-1127
▁교수	-1128
지로	-1129
▁보호	-1130
관은	-1131
▁선택	-1132
▁사항을	-1133
▁있나요	-1134
▁혼	-1135
▁음악	-1136
되었다	-1137
▁부족	-1138
▁장애	-1139
▁가능한	-1140
했다는	-1141
시키	-1142
이며	-1143
▁높아	-1144
계를	-1145
▁조금	-1146
▁전시	-1147
하다는	-1148
▁러	-1149
▁전했다	-1150
▁관심이	-1151
세를	-1152
▁품	-1153
재인	-1154
업체	-1155
▁업체	-1156
▁않을	-1157
▁여기	-1158
▁일이	-1159
▁와	-1160
▁그의	-1161
▁혹	-1162
▁압	-1163
▁음식	-1164
▁글로벌	-1165
▁도입	-1166
▁영어	-1167
▁윤	-1168
함을	-1169
▁24	-1170
▁스마트	-1171
▁재판	-1172
▁발견	-1173
▁활성	-1174
▁자리	-1175
다면	-1176
▁이루	-1177
치가	-1178
▁보면	-1179
▁상승	-1180
▁L	-1181
▁밀	-1182
▁이제	-1183
음을	-1184
▁물론	-1185
정부	-1186
▁놀	-1187
드는	-1188
트를	-1189
),	-1190
▁우수	-1191
▁공간	-1192
▁대비	-1193
▁검토	-1194
라마	-1195
▁있는데	-1196
▁탈	-1197
▁민간	-1198
201	-1199
▁소개	-1200
▁숨	-1201
▁과거	-1202
▁단체	-1203
움이	-1204
▁그동안	-1205
▁청와대	-1206
▁I	-1207
▁삶	-1208
회는	-1209
한다는	-1210
▁미래	-1211
겠다는	-1212
자에게	-1213
▁교통	-1214
보고	-1215
▁납	-1216
구가	-1217
▁공급	-1218
예요	-1219
▁역시	-1220
인지	-1221
▁하며	-1222
과의	-1223
▁뜻	-1224
▁하루	-1225
하기로	-1226
▁작성	-1227
▁중인	-1228
▁주변	-1229
가를	-1230
▁해요	-1231
가가	-1232
▁범위	-1233
▁사람들이	-1234
단이	-1235
▁경기도가	-1236
▁직원	-1237
▁레	-1238
▁하지만	-1239
▁각종	-1240
▁대하여	-1241
하였	-1242
▁구조	-1243
주택	-1244
▁제주	-1245
자와	-1246
▁인사	-1247
하지만	-1248
스로	-1249
▁주목	-1250
▁아파	-1251
한다고	-1252
▁그가	-1253
▁논의	-1254
원에서	-1255
▁해야	-1256
▁청년	-1257
는지	-1258
▁합의	-1259
점이	-1260
▁앞서	-1261
▁반영	-1262
▁수행	-1263
조사	-1264
하였다	-1265
▁어렵	-1266
되면서	-1267
▁기본	-1268
▁한다는	-1269
로부터	-1270
▁어린이	-1271
▁전통	-1272
는다	-1273
▁번째	-1274
▁23	-1275
▁나라	-1276
정은	-1277
전히	-1278
▁제외	-1279
▁40	-1280
▁언제	-1281
▁21	-1282
▁가지	-1283
권을	-1284
▁가지고	-1285
▁각각	-1286
▁인도	-1287
▁알고	-1288
▁문재인	-1289
그룹	-1290
▁국무	-1291
인은	-1292
▁전에	-1293
▁기능	-1294
▁것도	-1295
대에	-1296
(1	-1297
▁자연	-1298
▁실제	-1299
▁끌	-1300
▁한국의	-1301
▁과정에서	-1302
▁회사	-1303
년간	-1304
계가	-1305
▁지난달	-1306
▁빨	-1307
▁하지	-1308
▁경찰은	-1309
▁경영	-1310
▁나온다	-1311
▁착	-1312
▁연락	-1313
▁건설	-1314
▁변경	-1315
▁어디	-1316
▁협력	-1317
학생	-1318
▁울	-1319
▁위치	-1320
▁차지	-1321
나라	-1322
▁방식	-1323
▁선거	-1324
▁암	-1325
▁촉	-1326
▁만에	-1327
▁이는	-1328
▁M	-1329
안전	-1330
▁받을	-1331
▁자동차	-1332
자들의	-1333
▁인터넷	-1334
▁없어	-1335
▁전달	-1336
▁의료	-1337
▁홈	-1338
▁T	-1339
▁겪	-1340
▁나타났다	-1341
스타	-1342
▁언론	-1343
▁뛰	-1344
▁도지사는	-1345
일을	-1346
▁올라	-1347
대상	-1348
▁기획	-1349
▁27	-1350
▁러시아	-1351
▁22	-1352
▁이러	-1353
물이	-1354
▁이동	-1355
▁영향을	-1356
▁비판	-1357
▁위험	-1358
운영	-1359
게요	-1360
▁목표	-1361
▁않았다	-1362
원으로	-1363
도시	-1364
▁드라마	-1365
▁있게	-1366
서의	-1367
▁무역	-1368
문을	-1369
▁아무	-1370
▁상당	-1371
▁게임	-1372
▁구축	-1373
장으로	-1374
시면	-1375
▁행복	-1376
▁홍보	-1377
립니다	-1378
▁사례	-1379
▁시스템	-1380
▁근로	-1381
▁대법	-1382
▁석	-1383
▁최종	-1384
)’	-1385
들도	-1386
▁감소	-1387
성과	-1388
▁서로	-1389
▁유명	-1390
▁이내	-1391
▁계획이다	-1392
▁사회적	-1393
▁청소년	-1394
▁인해	-1395
▁팔	-1396
▁체험	-1397
▁목적으로	-1398
▁지나	-1399
▁중심으로	-1400
▁정확	-1401
냈다	-1402
▁심의	-1403
▁기다	-1404
있는	-1405
안이	-1406
▁되고	-1407
▁중앙	-1408
▁주택	-1409
도의	-1410
▁택	-1411
디어	-1412
▁성과	-1413
이란	-1414
▁위촉	-1415
▁불가	-1416
▁불법	-1417
▁이렇게	-1418
▁밤	-1419
너지	-1420
▁정상회담	-1421
▁해당하는	-1422
텐츠	-1423
▁공유	-1424
생활	-1425
▁도로	-1426
▁숙	-1427
촬영	-1428
▁봉	-1429
▁두고	-1430
▁나서	-1431
지방	-1432
▁강조했다	-1433
▁대응	-1434
지도	-1435
▁28	-1436
▁현장	-1437
량이	-1438
▁이러한	-1439
▁하여	-1440
건을	-1441
▁근무	-1442
▁위탁	-1443
▁되어	-1444
▁뿐	-1445
▁26	-1446
별로	-1447
▁시험	-1448
▁붙	-1449
하던	-1450
▁공정	-1451
지막	-1452
위가	-1453
르게	-1454
▁퇴	-1455
▁꾸	-1456
어난	-1457
▁유럽	-1458
▁기념	-1459
▁상대	-1460
▁마을	-1461
▁전해	-1462
▁보이	-1463
▁인상	-1464
▁수요	-1465
▁중소기업	-1466
업이	-1467
▁효율	-1468
▁중요한	-1469
스는	-1470
▁소방	-1471
▁자료	-1472
▁도내	-1473
▁강원	-1474
▁도착	-1475
▁분위	-1476
▁역할을	-1477
▁부모	-1478
▁것이라는	-1479
인들이	-1480
규모	-1481
금이	-1482
머니	-1483
▁꿈	-1484
▁(	-1485
▁있기	-1486
▁최초	-1487
▁이곳	-1488
소가	-1489
훈련	-1490
▁제시	-1491
국의	-1492
▁많아	-1493
▁본격	-1494
구를	-1495
회에	-1496
▁일자리	-1497
▁수립	-1498
통신	-1499
▁컨	-1500
▁마지막	-1501
▁견	-1502
▁찍	-1503
▁받았	-1504
▁거쳐	-1505
▁광주	-1506
약을	-1507
▁아파트	-1508
▁관심을	-1509
▁그룹	-1510
부에	-1511
▁현실	-1512
불어	-1513
▁겨	-1514
었고	-1515
습니까	-1516
▁사업을	-1517
▁조선	-1518
트남	-1519
구청장	-1520
교통	-1521
▁책임	-1522
▁능	-1523
▁핵심	-1524
▁알려졌다	-1525
▁개정	-1526
▁설립	-1527
동산	-1528
0%	-1529
지면서	-1530
▁등록	-1531
▁추천	-1532
▁예술	-1533
▁브랜드	-1534
▁호텔	-1535
▁가까	-1536
▁죽	-1537
당이	-1538
▁P	-1539
▁그렇	-1540
▁넘어	-1541
▁받는	-1542
▁최저	-1543
▁왔	-1544
▁깊	-1545
등학교	-1546
▁내려	-1547
▁수입	-1548
▁혁신	-1549
▁나왔다	-1550
무를	-1551
이어	-1552
리스	-1553
서비스	-1554
▁녹	-1555
▁운동	-1556
감이	-1557
▁얘	-1558
▁있어서	-1559
▁별지	-1560
▁격	-1561
▁어려운	-1562
▁조직	-1563
거래	-1564
드를	-1565
▁점을	-1566
▁매년	-1567
▁연결	-1568
이를	-1569
섰다	-1570
자치	-1571
▁갑	-1572
▁제대로	-1573
▁독일	-1574
▁지도	-1575
▁모습을	-1576
▁늦	-1577
▁한류	-1578
▁보유	-1579
려고	-1580
없이	-1581
▁선보	-1582
▁싶은	-1583
▁네가	-1584
▁강남	-1585
▁제한	-1586
▁2018	-1587
▁색	-1588
▁워	-1589
조의	-1590
▁관련해	-1591
율이	-1592
▁첨	-1593
부의	-1594
두고	-1595
▁궁	-1596
▁일을	-1597
증을	-1598
▁내일	-1599
▁노래	-1600
▁같다	-1601
▁더불어	-1602
▁인근	-1603
국이	-1604
관을	-1605
▁비핵	-1606
하자	-1607
▁제안	-1608
▁만든	-1609
▁정도로	-1610
▁진출	-1611
▁아래	-1612
▁베트남	-1613
▁대형	-1614
▁종합	-1615
활동	-1616
▁평균	-1617
▁대신	-1618
지지	-1619
행을	-1620
▁2016	-1621
▁부탁	-1622
다가	-1623
겠다고	-1624
분이	-1625
세먼	-1626
▁기반	-1627
랍니다	-1628
▁말씀	-1629
품을	-1630
.5	-1631
▁둔	-1632
위에	-1633
▁매출	-1634
▁믿	-1635
수의	-1636
식에	-1637
▁건물	-1638
▁됩니다	-1639
▁모델	-1640
▁얼마나	-1641
운동	-1642
회에서	-1643
▁즉	-1644
▁갖고	-1645
▁위반	-1646
▁은	-1647
▁안정	-1648
▁자체	-1649
▁은행	-1650
▁표현	-1651
▁왕	-1652
▁가는	-1653
하는데	-1654
사로	-1655
년부터	-1656
▁그럼	-1657
▁거예요	-1658
화에	-1659
▁쪽	-1660
▁넣	-1661
대의	-1662
차를	-1663
▁수가	-1664
장에게	-1665
▁사망	-1666
세가	-1667
▁기자	-1668
▁보험	-1669
▁하락	-1670
▁목소	-1671
▁아시아	-1672
▁소득	-1673
▁D	-1674
▁달리	-1675
▁외국인	-1676
▁바랍니다	-1677
▁누구	-1678
▁온라인	-1679
▁문제를	-1680
었어요	-1681
▁29	-1682
▁대구	-1683
▁이전	-1684
▁공무원	-1685
▁출신	-1686
나는	-1687
으니	-1688
▁대책	-1689
▁자유한국	-1690
더라도	-1691
▁예방	-1692
▁공식	-1693
▁있던	-1694
▁상황에서	-1695
광역	-1696
▁것이라고	-1697
▁31	-1698
▁충분	-1699
▁시간을	-1700
임금	-1701
▁대한민	-1702
개의	-1703
겠어요	-1704
▁힘들	-1705
(2	-1706
에선	-1707
▁죄	-1708
▁규제	-1709
사고	-1710
항의	-1711
▁가진	-1712
▁쇼	-1713
스터	-1714
▁됐	-1715
▁듣	-1716
하고자	-1717
▁대통령은	-1718
▁전략	-1719
▁출연	-1720
▁점검	-1721
▁대중	-1722
▁유치	-1723
년에	-1724
▁이상의	-1725
드리	-1726
▁일정	-1727
▁비교	-1728
▁우리나라	-1729
스크	-1730
▁전화	-1731
▁혹시	-1732
관계	-1733
롭게	-1734
으로써	-1735
▁깨	-1736
거리	-1737
▁자신이	-1738
▁영상	-1739
받은	-1740
▁방향	-1741
▁거야	-1742
전자	-1743
소득	-1744
적을	-1745
▁협의	-1746
기의	-1747
▁작은	-1748
달러	-1749
▁비해	-1750
▁케이	-1751
현지	-1752
▁취업	-1753
▁정신	-1754
▁구체	-1755
▁건축	-1756
▁중구	-1757
▁가져	-1758
▁촬영	-1759
▁항공	-1760
▁지하	-1761
사항	-1762
▁살아	-1763
▁의견을	-1764
▁방침	-1765
▁치료	-1766
▁시청	-1767
▁구속	-1768
경찰	-1769
▁부동산	-1770
▁상담	-1771
이기	-1772
르고	-1773
▁파악	-1774
▁취소	-1775
▁퍼	-1776
▁바람	-1777
치고	-1778
공무	-1779
▁흐	-1780
▁수익	-1781
▁희망	-1782
▁창업	-1783
▁정부의	-1784
30	-1785
▁흔	-1786
▁같아요	-1787
▁G	-1788
▁수상	-1789
량을	-1790
▁사실을	-1791
▁이야기	-1792
여명이	-1793
수록	-1794
▁받았다	-1795
▁하면	-1796
라이	-1797
▁씨	-1798
▁국토	-1799
▁필요가	-1800
▁제조	-1801
▁콘텐츠	-1802
▁확정	-1803
▁페	-1804
▁티	-1805
일에	-1806
단을	-1807
▁E	-1808
▁평화	-1809
▁내용을	-1810
▁통신	-1811
들에	-1812
▁싱	-1813
▁잔	-1814
▁빈	-1815
▁공격	-1816
▁불편	-1817
▁이하	-1818
도는	-1819
▁반대	-1820
▁대해서는	-1821
▁하는데	-1822
▁아름	-1823
하겠다	-1824
지의	-1825
▁경기도는	-1826
▁많다	-1827
▁지원을	-1828
▁젊	-1829
▁알아	-1830
▁소송	-1831
▁대해서	-1832
▁주관	-1833
▁읽	-1834
▁없습니다	-1835
▁가수	-1836
▁선발	-1837
▁못한	-1838
보험	-1839
▁전망이다	-1840
와의	-1841
차가	-1842
▁여자	-1843
했을	-1844
▁통합	-1845
▁결과를	-1846
▁움	-1847
▁필요하다고	-1848
▁꼭	-1849
▁낙	-1850
서에	-1851
만큼	-1852
전이	-1853
▁접수	-1854
평가	-1855
트가	-1856
▁좌	-1857
▁시즌	-1858
▁쉽게	-1859
호서	-1860
▁법률	-1861
▁형태	-1862
▁F	-1863
포츠	-1864
▁전환	-1865
▁한다고	-1866
▁주세요	-1867
노동	-1868
▁광고	-1869
스러	-1870
▁조정	-1871
성에	-1872
▁저녁	-1873
어야	-1874
▁대출	-1875
투자	-1876
▁2017	-1877
▁안에	-1878
▁흥	-1879
▁향후	-1880
▁과학	-1881
리그	-1882
관의	-1883
▁걱	-1884
▁화재	-1885
▁내부	-1886
▁비롯해	-1887
이오	-1888
▁사유	-1889
▁1,	-1890
.1	-1891
▁기억	-1892
어를	-1893
▁도는	-1894
▁가능하다	-1895
▁페이	-1896
행정	-1897
했는데	-1898
▁미세먼	-1899
가지	-1900
▁거주	-1901
▁여름	-1902
▁잇	-1903
관광	-1904
▁결혼	-1905
▁입장	-1906
▁정보를	-1907
▁모습이	-1908
▁이루어	-1909
▁찬	-1910
▁소재	-1911
▁맞아	-1912
한테	-1913
▁활동을	-1914
리지	-1915
▁확산	-1916
▁듯	-1917
▁아침	-1918
일이	-1919
▁복지	-1920
▁전기	-1921
상의	-1922
%)	-1923
▁역사	-1924
예술	-1925
했으며	-1926
▁빌	-1927
기준	-1928
▁규정에	-1929
▁존재	-1930
결과	-1931
▁발생한	-1932
▁프로젝	-1933
대한	-1934
▁예약	-1935
▁제품을	-1936
월부터	-1937
▁실제로	-1938
▁적이	-1939
▁0	-1940
▁대통령의	-1941
▁보도했다	-1942
비가	-1943
▁아동	-1944
구의	-1945
스의	-1946
▁최소	-1947
롯데	-1948
▁2015	-1949
반기	-1950
10	-1951
▁도움이	-1952
▁스스로	-1953
▁자유한국당	-1954
되며	-1955
▁것에	-1956
▁앞두고	-1957
▁북미	-1958
▁잘못	-1959
▁언급	-1960
▁보조	-1961
진이	-1962
▁미국의	-1963
▁나선	-1964
▁이유로	-1965
▁채용	-1966
님이	-1967
장애	-1968
▁변호	-1969
▁그녀는	-1970
▁혐의로	-1971
리의	-1972
▁발언	-1973
▁완료	-1974
▁움직	-1975
▁신규	-1976
보는	-1977
▁출시	-1978
건이	-1979
단의	-1980
▁봐	-1981
실을	-1982
상에	-1983
▁달러	-1984
▁기여	-1985
▁없었다	-1986
광역시	-1987
주민	-1988
▁금액	-1989
▁명이	-1990
▁줄어	-1991
▁199	-1992
▁가입	-1993
반도	-1994
▁항상	-1995
▁활성화	-1996
이크	-1997
민주당	-1998
▁공부	-1999
▁거의	-2000
▁데이터	-2001
▁구청장이	-2002
▁중에서	-2003
수는	-2004
▁경우가	-2005
스럽	-2006
▁원내	-2007
이라며	-2008
▁논란이	-2009
▁웃	-2010
▁필요하다	-2011
▁민주당	-2012
서울	-2013
▁어제	-2014
▁여전히	-2015
▁동시에	-2016
▁위해서는	-2017
▁부과	-2018
▁헌	-2019
▁갔	-2020
진흥	-2021
▁나의	-2022
구하고	-2023
▁독립	-2024
분을	-2025
▁괜	-2026
▁특징	-2027
▁남자	-2028
금융	-2029
▁서류	-2030
▁작업	-2031
▁젊은	-2032
▁도와	-2033
▁서울시	-2034
▁봤	-2035
▁체결	-2036
하기도	-2037
▁서비스를	-2038
▁화장	-2039
▁통한	-2040
해주	-2041
▁스마트폰	-2042
▁의원이	-2043
▁장애인	-2044
정에	-2045
▁고민	-2046
▁규칙	-2047
▁그림	-2048
▁비핵화	-2049
▁반응	-2050
자에	-2051
▁업계	-2052
▁경남	-2053
▁남아	-2054
▁보다	-2055
▁오래	-2056
50	-2057
▁등장	-2058
▁주차	-2059
▁변화	-2060
▁뜨	-2061
▁전반	-2062
▁갈등	-2063
하세요	-2064
▁위원장은	-2065
▁바라	-2066
▁롯데	-2067
인으로	-2068
발전	-2069
▁옷	-2070
km	-2071
본부	-2072
기와	-2073
▁그래서	-2074
자들은	-2075
▁딸	-2076
▁약속	-2077
▁프랑	-2078
선거	-2079
▁캠	-2080
▁오른	-2081
드립니다	-2082
▁전자	-2083
▁사전	-2084
▁비롯한	-2085
▁말을	-2086
▁유통	-2087
▁의원은	-2088
대학교	-2089
현지시간	-2090
▁이사	-2091
▁외교	-2092
▁곧	-2093
률이	-2094
▁영국	-2095
위는	-2096
▁민주	-2097
▁심사	-2098
구역	-2099
진을	-2100
▁해서	-2101
▁않다	-2102
▁운전	-2103
▁나와	-2104
▁펼쳐	-2105
멤버	-2106
▁장기	-2107
▁모르	-2108
▁인한	-2109
▁제도	-2110
▁요즘	-2111
▁괜찮	-2112
▁국방	-2113
경기	-2114
▁싶습니다	-2115
▁디자인	-2116
마을	-2117
▁예산의	-2118
▁없을	-2119
▁토론	-2120
▁이끌	-2121
▁한번	-2122
전문	-2123
▁원하는	-2124
▁사람은	-2125
▁결국	-2126
▁이것은	-2127
▁‘201	-2128
▁싸	-2129
가고	-2130
▁참석한	-2131
널드	-2132
▁꼽	-2133
▁제재	-2134
었는데	-2135
문이	-2136
공사	-2137
▁보는	-2138
▁지원할	-2139
린다	-2140
▁관객	-2141
▁밖	-2142
▁이들이	-2143
▁끊	-2144
▁센터	-2145
’(	-2146
청은	-2147
▁장소	-2148
▁넘는	-2149
▁관람	-2150
▁통과	-2151
디오	-2152
▁의한	-2153
▁나섰다	-2154
▁솔	-2155
▁60	-2156
▁자기	-2157
▁궁금	-2158
▁기업이	-2159
▁지지	-2160
겼다	-2161
▁타고	-2162
▁자녀	-2163
▁차례	-2164
원과	-2165
▁얼굴	-2166
었지만	-2167
격을	-2168
▁혜	-2169
.2	-2170
▁주는	-2171
로는	-2172
▁술	-2173
▁그렇게	-2174
▁특별한	-2175
체육	-2176
▁잃	-2177
▁달라	-2178
▁위해서	-2179
▁소통	-2180
▁없다는	-2181
단은	-2182
심을	-2183
▁명의	-2184
▁벌어	-2185
▁멤버	-2186
▁재정	-2187
▁사진을	-2188
대책	-2189
▁쉬	-2190
정한	-2191
▁열리는	-2192
▁대체	-2193
▁때는	-2194
년이	-2195
▁융	-2196
금의	-2197
▁헤	-2198
▁지적했다	-2199
▁덧	-2200
▁도널드	-2201
쳤다	-2202
▁해도	-2203
▁이유는	-2204
▁자주	-2205
▁대한민국	-2206
▁곳이	-2207
보다는	-2208
▁범죄	-2209
▁아마	-2210
▁내놓	-2211
협력	-2212
다운	-2213
▁아주	-2214
▁무료	-2215
▁조치	-2216
▁주로	-2217
▁있는지	-2218
▁배송	-2219
▁고양	-2220
▁김정은	-2221
▁상황이	-2222
프로	-2223
▁비슷	-2224
▁범위에서	-2225
▁위원장이	-2226
길을	-2227
▁수밖에	-2228
▁인간	-2229
서관	-2230
▁축구	-2231
▁빨리	-2232
▁창출	-2233
▁가정	-2234
▁중단	-2235
·1	-2236
대학	-2237
▁졸	-2238
식의	-2239
도에	-2240
인과	-2241
▁보건	-2242
▁중에	-2243
▁집에	-2244
으로는	-2245
▁<	-2246
▁학생들이	-2247
과학	-2248
안에	-2249
▁내용이	-2250
주가	-2251
▁메시	-2252
이자	-2253
▁우리의	-2254
셔서	-2255
보호	-2256
▁안내	-2257
▁우려가	-2258
▁더불어민주당	-2259
▁같습니다	-2260
▁긍	-2261
▁접근	-2262
▁주최	-2263
▁덕	-2264
▁입장을	-2265
▁도민	-2266
연합	-2267
부와	-2268
▁따로	-2269
선이	-2270
▁조례는	-2271
.3	-2272
만이	-2273
▁관련된	-2274
드가	-2275
▁학습	-2276
▁옮	-2277
▁남성	-2278
▁겁	-2279
▁돈을	-2280
▁출석	-2281
▁엔	-2282
▁홍콩	-2283
▁비중	-2284
op	-2285
▁마무	-2286
▁컴	-2287
▁덧붙	-2288
▁이들	-2289
▁경찰이	-2290
거운	-2291
물의	-2292
▁것과	-2293
▁청구	-2294
▁우승	-2295
년을	-2296
▁축제	-2297
▁주장했다	-2298
명으로	-2299
랫폼	-2300
지와	-2301
▁선고	-2302
▁넓	-2303
▁시절	-2304
▁대회	-2305
▁모여	-2306
▁투입	-2307
▁원내대표	-2308
문에	-2309
리기	-2310
▁좋아하는	-2311
▁맥	-2312
서가	-2313
씨의	-2314
지사	-2315
▁죄송	-2316
▁단계	-2317
▁경북	-2318
시스템	-2319
▁관광객	-2320
▁배경	-2321
▁처음으로	-2322
▁긍정	-2323
▁불구하고	-2324
▁벗	-2325
▁이번에	-2326
▁얘기	-2327
▁부정	-2328
▁주도	-2329
▁사실이	-2330
▁지켜	-2331
▁하기	-2332
세대	-2333
▁회원	-2334
만의	-2335
▁블록	-2336
부모	-2337
▁너는	-2338
▁둘러	-2339
▁염	-2340
내는	-2341
▁선생	-2342
▁국회의	-2343
▁늘어나	-2344
▁겨울	-2345
권이	-2346
▁버스	-2347
▁최저임금	-2348
▁섬	-2349
분의	-2350
▁판결	-2351
▁않도록	-2352
하겠습니다	-2353
사에서	-2354
▁하나에	-2355
▁공모	-2356
해도	-2357
▁옆	-2358
▁점에서	-2359
▁대화	-2360
▁추정	-2361
산을	-2362
▁에너지	-2363
정상	-2364
▁주말	-2365
▁영업	-2366
▁않습니다	-2367
▁아니다	-2368
오는	-2369
▁미리	-2370
▁한국에	-2371
▁되었다	-2372
▁배출	-2373
▁방안을	-2374
▁포함한	-2375
▁특정	-2376
가족	-2377
대회	-2378
▁이재	-2379
▁지역의	-2380
▁예상된다	-2381
▁통보	-2382
감독	-2383
▁엄마	-2384
▁외부	-2385
석이	-2386
에게는	-2387
▁그것은	-2388
▁효과가	-2389
므로	-2390
▁아버	-2391
▁이벤	-2392
▁재미	-2393
▁장면	-2394
▁마무리	-2395
시고	-2396
▁나가	-2397
▁못하고	-2398
▁스트	-2399
▁기회를	-2400
▁2014	-2401
▁대표가	-2402
▁그대로	-2403
NS	-2404
▁사는	-2405
항공	-2406
▁느끼	-2407
▁비행	-2408
▁되면	-2409
▁쏟	-2410
리와	-2411
일로	-2412
▁뉴욕	-2413
▁중이다	-2414
▁있으면	-2415
%,	-2416
▁쌓	-2417
▁카드	-2418
▁새로	-2419
▁회계	-2420
랐다	-2421
▁소유	-2422
▁의해	-2423
▁겸	-2424
▁단순	-2425
▁푸	-2426
▁상대로	-2427
(3	-2428
▁한국에서	-2429
▁장관	-2430
▁실무	-2431
▁북한이	-2432
▁망	-2433
▁탑	-2434
▁상황을	-2435
▁연장	-2436
▁않는다	-2437
개를	-2438
▁심각	-2439
▁교류	-2440
▁신뢰	-2441
▁만드는	-2442
▁강력	-2443
▁반도	-2444
▁그들은	-2445
▁발굴	-2446
사무	-2447
▁바탕	-2448
으로부터	-2449
TV	-2450
신청	-2451
어가	-2452
▁걱정	-2453
▁익	-2454
▁결제	-2455
▁2019	-2456
▁연기	-2457
er	-2458
▁대전	-2459
▁싶어	-2460
.4	-2461
중앙	-2462
▁시장은	-2463
스코	-2464
▁훈련	-2465
게임	-2466
▁등은	-2467
▁기초	-2468
▁수업	-2469
시를	-2470
▁밖에	-2471
▁이야기를	-2472
▁입주	-2473
▁대규모	-2474
대는	-2475
▁발표한	-2476
금은	-2477
위로	-2478
▁벤	-2479
제품	-2480
▁맞는	-2481
인가요	-2482
▁빼	-2483
담당	-2484
▁홈페이	-2485
BS	-2486
학과	-2487
▁대법원	-2488
었어	-2489
▁만족	-2490
▁프리	-2491
▁회복	-2492
▁덧붙였다	-2493
▁이란	-2494
▁수도권	-2495
되기	-2496
▁시도	-2497
이지만	-2498
▁끼	-2499
적이고	-2500
▁비상	-2501
▁높다	-2502
아가	-2503
▁보수	-2504
▁수탁	-2505
으면서	-2506
함으로써	-2507
화된	-2508
▁행동	-2509
▁슬	-2510
갔다	-2511
국제	-2512
▁들어가	-2513
▁분명	-2514
▁인터뷰	-2515
▁끝나	-2516
▁꽃	-2517
협회	-2518
▁검사	-2519
미래	-2520
▁대표는	-2521
▁N	-2522
히려	-2523
▁정부는	-2524
화폐	-2525
▁통일	-2526
였던	-2527
▁월드	-2528
▁한반도	-2529
▁업무를	-2530
구에	-2531
▁회담	-2532
역을	-2533
▁놓고	-2534
▁싶어요	-2535
▁보니	-2536
▁불가능	-2537
분기	-2538
▁사라	-2539
▁플랫폼	-2540
.8	-2541
.7	-2542
▁국립	-2543
▁있었던	-2544
▁셈	-2545
▁점이	-2546
심히	-2547
▁감독이	-2548
▁여론	-2549
▁수술	-2550
.6	-2551
▁낸	-2552
▁꾸준	-2553
▁힘을	-2554
▁슈	-2555
국은	-2556
고를	-2557
리로	-2558
워크	-2559
▁순간	-2560
▁소비자	-2561
▁낮은	-2562
▁묻	-2563
체인	-2564
▁혜택	-2565
▁맞춰	-2566
받고	-2567
▁조치를	-2568
▁운영하는	-2569
▁지금까지	-2570
▁프랑스	-2571
실에서	-2572
냐는	-2573
▁동물	-2574
▁공사	-2575
▁당연	-2576
▁프로젝트	-2577
림픽	-2578
▁출발	-2579
가의	-2580
▁사항은	-2581
사들이	-2582
▁것이에요	-2583
하신	-2584
▁재난	-2585
▁연속	-2586
관에서	-2587
▁보이는	-2588
in	-2589
식품	-2590
월에	-2591
상은	-2592
▁자치	-2593
▁반도체	-2594
되었	-2595
▁멀	-2596
의가	-2597
▁이른	-2598
격이	-2599
▁위원은	-2600
▁위치한	-2601
케팅	-2602
▁긴급	-2603
▁운영에	-2604
▁만약	-2605
▁빅	-2606
▁자원	-2607
▁국정	-2608
▁땅	-2609
로서	-2610
▁정확한	-2611
성장	-2612
점에서	-2613
▁되지	-2614
▁오히려	-2615
▁경찰에	-2616
▁임명	-2617
▁찾는	-2618
▁수원	-2619
법을	-2620
기관의	-2621
형을	-2622
처리	-2623
▁강한	-2624
포르	-2625
▁신용	-2626
▁인식	-2627
하려는	-2628
▁냉	-2629
’,	-2630
▁당신에게	-2631
▁이와	-2632
▁수수	-2633
▁인기를	-2634
▁했습니다	-2635
려면	-2636
겠지만	-2637
▁사용할	-2638
▁주고	-2639
▁문제는	-2640
▁사람을	-2641
상으로	-2642
▁임대	-2643
전쟁	-2644
▁가격이	-2645
▁사실상	-2646
▁지자	-2647
▁해소	-2648
.9	-2649
▁연계	-2650
성은	-2651
▁검찰은	-2652
▁크다	-2653
호를	-2654
▁농업	-2655
페인	-2656
상공	-2657
▁주거	-2658
▁나누	-2659
▁폐기	-2660
▁교체	-2661
▁노인	-2662
▁규모의	-2663
▁곡	-2664
▁밝혀	-2665
▁모집	-2666
▁편의	-2667
▁스포츠	-2668
▁뭐	-2669
주고	-2670
▁제일	-2671
▁원칙	-2672
병원	-2673
▁이상이	-2674
▁아시	-2675
▁정기	-2676
이야	-2677
년까지	-2678
▁하여야	-2679
BC	-2680
▁자율	-2681
하겠다는	-2682
지털	-2683
께서	-2684
▁참여하는	-2685
당한	-2686
▁옥	-2687
▁나도	-2688
▁500	-2689
드시	-2690
▁후에	-2691
▁브라	-2692
란다	-2693
▁증거	-2694
▁하나님	-2695
▁방침이다	-2696
▁뇌	-2697
on	-2698
자기	-2699
용을	-2700
▁보장	-2701
▁최초로	-2702
▁혼자	-2703
▁늘어	-2704
려는	-2705
▁전혀	-2706
▁성폭	-2707
중에	-2708
▁피해를	-2709
▁싱가	-2710
▁뒷	-2711
프라	-2712
▁전남	-2713
메라	-2714
호가	-2715
▁근거	-2716
▁여기에	-2717
▁강원도	-2718
▁매일	-2719
▁오랜	-2720
▁커피	-2721
▁중국의	-2722
▁위원회의	-2723
▁답변	-2724
▁흘	-2725
▁건가요	-2726
▁휴대	-2727
공항	-2728
▁대북	-2729
▁방식으로	-2730
▁뮤	-2731
시켜	-2732
우는	-2733
▁사법	-2734
해를	-2735
▁쏟아	-2736
▁시장이	-2737
드릴	-2738
▁돕	-2739
▁대변	-2740
만을	-2741
▁완성	-2742
▁열심히	-2743
▁전용	-2744
▁기회가	-2745
리카	-2746
회사	-2747
▁관측	-2748
▁여부를	-2749
이드	-2750
위원회의	-2751
▁앉	-2752
11	-2753
▁70	-2754
▁없다고	-2755
▁2013	-2756
네시아	-2757
에서의	-2758
▁미술	-2759
▁TV	-2760
▁부문	-2761
▁300	-2762
▁있으	-2763
▁중간	-2764
▁나에게	-2765
▁노조	-2766
구조	-2767
▁겁니다	-2768
분에	-2769
▁담긴	-2770
▁바른	-2771
▁사용하는	-2772
목을	-2773
행이	-2774
▁임시	-2775
▁선물	-2776
▁의결	-2777
▁빛	-2778
▁마음을	-2779
▁대기	-2780
▁측면	-2781
세계	-2782
한다면	-2783
▁나오는	-2784
▁바탕으로	-2785
조합	-2786
▁첨부	-2787
명과	-2788
▁이들은	-2789
운드	-2790
▁불과	-2791
▁적극적으로	-2792
▁구민	-2793
리한	-2794
▁정하는	-2795
▁주제로	-2796
▁살펴	-2797
자치단체	-2798
▁것처럼	-2799
▁반드시	-2800
▁있을까요	-2801
▁미국이	-2802
▁했어요	-2803
▁금지	-2804
▁액	-2805
내고	-2806
▁빠르게	-2807
▁지속적으로	-2808
▁도움을	-2809
▁의사	-2810
▁바뀌	-2811
심의	-2812
▁자료를	-2813
▁인증	-2814
▁받지	-2815
스에	-2816
▁못하는	-2817
위원장	-2818
▁일어나	-2819
▁반발	-2820
▁자리를	-2821
▁프로그램을	-2822
▁불안	-2823
유치	-2824
해보	-2825
▁한국어	-2826
건설	-2827
▁측은	-2828
▁인기	-2829
▁콘서	-2830
제는	-2831
청이	-2832
▁사태	-2833
▁경험이	-2834
년대	-2835
질이	-2836
▁앞에서	-2837
들로	-2838
이지	-2839
았던	-2840
▁유일	-2841
▁의무	-2842
스러운	-2843
▁조사를	-2844
방송	-2845
실이	-2846
▁최고의	-2847
▁눈에	-2848
같이	-2849
▁싱가포르	-2850
▁평양	-2851
구는	-2852
▁주인	-2853
▁루	-2854
됐다고	-2855
▁졸업	-2856
▁쇼핑	-2857
▁설계	-2858
▁전쟁	-2859
있다	-2860
▁평소	-2861
▁시각	-2862
어도	-2863
an	-2864
▁할인	-2865
나다	-2866
▁모양	-2867
니스	-2868
▁연간	-2869
▁인도네시아	-2870
건의	-2871
▁라이	-2872
차례	-2873
표를	-2874
기고	-2875
▁생각이	-2876
경을	-2877
▁군사	-2878
봉사	-2879
▁선언	-2880
▁관계자	-2881
▁균	-2882
▁쿠	-2883
자동차	-2884
▁무슨	-2885
공동	-2886
▁형성	-2887
산물	-2888
▁개혁	-2889
(4	-2890
▁종류	-2891
▁집행	-2892
▁차별	-2893
▁하다	-2894
수수	-2895
▁식품	-2896
▁가서	-2897
▁공항	-2898
▁나를	-2899
▁해석	-2900
분야	-2901
▁남편	-2902
▁다가	-2903
▁그러나	-2904
▁페이스	-2905
▁폭염	-2906
해주세요	-2907
▁체육	-2908
▁북한의	-2909
공간	-2910
퓨터	-2911
▁전날	-2912
▁진술	-2913
▁완화	-2914
▁때까지	-2915
▁이행	-2916
점으로	-2917
력과	-2918
▁수는	-2919
(5	-2920
카드	-2921
▁동일	-2922
▁신속	-2923
▁확실	-2924
로를	-2925
▁가득	-2926
▁보였다	-2927
군이	-2928
▁납부	-2929
단지	-2930
▁제출하여야	-2931
지자	-2932
▁당신을	-2933
팀이	-2934
▁자동	-2935
▁국무위원	-2936
▁사람의	-2937
▁초과	-2938
▁미세먼지	-2939
▁있다면	-2940
체를	-2941
▁처벌	-2942
▁R	-2943
▁불러	-2944
스와	-2945
▁택시	-2946
▁생태	-2947
▁일으	-2948
이션	-2949
방을	-2950
보가	-2951
업무	-2952
▁오늘은	-2953
▁분양	-2954
▁바란다	-2955
▁맺	-2956
씨를	-2957
율을	-2958
호의	-2959
▁셈이다	-2960
▁의심	-2961
상황	-2962
이에	-2963
▁교육을	-2964
▁않으면	-2965
▁비가	-2966
바일	-2967
함에	-2968
하려고	-2969
▁대통령과	-2970
▁기업의	-2971
▁불이	-2972
▁198	-2973
지면	-2974
▁쉽지	-2975
▁대기업	-2976
▁2012	-2977
▁육성	-2978
▁즐길	-2979
시코	-2980
▁없어요	-2981
▁그냥	-2982
▁밝힌	-2983
▁학부모	-2984
▁빠른	-2985
받는	-2986
이번	-2987
▁느낌	-2988
▁눈길을	-2989
▁202	-2990
년도	-2991
▁사고가	-2992
▁SK	-2993
산이	-2994
계획을	-2995
▁사람들은	-2996
▁짧	-2997
▁고위	-2998
정의	-2999
▁지원하는	-3000
▁왔다	-3001
점에	-3002
▁특수	-3003
았습니다	-3004
인들의	-3005
▁음식을	-3006
▁마케팅	-3007
제도	-3008
▁끝난	-3009
▁어머니	-3010
료가	-3011
적이다	-3012
▁디지털	-3013
▁탓	-3014
▁O	-3015
증이	-3016
▁수정	-3017
▁가야	-3018
단에	-3019
▁인권	-3020
했으나	-3021
▁자세	-3022
수로	-3023
▁정의	-3024
▁협조	-3025
사업을	-3026
▁관하여	-3027
▁본다	-3028
▁보안	-3029
▁곳곳	-3030
명에	-3031
▁베이	-3032
▁협상	-3033
▁객	-3034
트워크	-3035
▁못했다	-3036
간의	-3037
▁인공	-3038
▁추가로	-3039
▁잇따	-3040
▁차이가	-3041
▁다니	-3042
▁엘	-3043
▁이름을	-3044
▁있지	-3045
멕시코	-3046
회견	-3047
▁거부	-3048
▁성과를	-3049
▁없고	-3050
▁속에서	-3051
하되	-3052
▁제공하는	-3053
▁강제	-3054
▁무엇보다	-3055
▁탐	-3056
계의	-3057
▁결과가	-3058
카오	-3059
▁게시	-3060
법인	-3061
▁회장이	-3062
스토	-3063
웠다	-3064
▁먹고	-3065
▁SNS	-3066
▁취약	-3067
용이	-3068
▁교수는	-3069
▁이내에	-3070
준다	-3071
▁참여한	-3072
▁어려움을	-3073
당을	-3074
▁써	-3075
계약	-3076
▁부여	-3077
▁억	-3078
▁등에서	-3079
▁기준으로	-3080
▁전해졌다	-3081
▁기재	-3082
▁이달	-3083
▁아프	-3084
나무	-3085
▁U	-3086
▁보통	-3087
▁배치	-3088
▁실적	-3089
▁최대한	-3090
▁훨	-3091
▁응답	-3092
▁전부	-3093
▁이익	-3094
공무원	-3095
자원	-3096
▁공공기관	-3097
릭터	-3098
▁지역에	-3099
액이	-3100
민이	-3101
▁컴퓨터	-3102
절한	-3103
▁정리	-3104
▁활발	-3105
전거	-3106
▁욕	-3107
대에서	-3108
▁법인	-3109
▁했지만	-3110
▁세종	-3111
▁훨씬	-3112
생을	-3113
▁충분히	-3114
▁가치	-3115
▁메뉴	-3116
▁과정을	-3117
▁사과	-3118
▁삼성전	-3119
19	-3120
▁다소	-3121
▁앞에	-3122
이너	-3123
▁감안	-3124
시키는	-3125
▁지하철	-3126
▁페이스북	-3127
▁카페	-3128
▁행사를	-3129
▁혐의를	-3130
트는	-3131
▁콜	-3132
당의	-3133
▁동의	-3134
▁안에서	-3135
호에	-3136
실에	-3137
▁보이고	-3138
▁의미가	-3139
▁방안	-3140
▁향상	-3141
▁지금은	-3142
▁지적이	-3143
▁열고	-3144
▁캐나다	-3145
▁틀	-3146
▁이탈	-3147
▁빚	-3148
▁정비	-3149
▁의하여	-3150
▁시작한	-3151
뿐만	-3152
▁인기가	-3153
▁기술을	-3154
▁실질	-3155
▁기자회견	-3156
▁앨	-3157
▁기상	-3158
▁캐릭터	-3159
▁아름다운	-3160
▁반복	-3161
▁너의	-3162
▁대만	-3163
스탄	-3164
▁개편	-3165
▁느껴	-3166
▁LG	-3167
억원을	-3168
▁다르	-3169
▁멋	-3170
▁계획을	-3171
라며	-3172
▁절반	-3173
▁허용	-3174
▁일상	-3175
▁사이에	-3176
12	-3177
▁말고	-3178
▁그것을	-3179
▁뿌	-3180
▁보관	-3181
▁흡	-3182
다른	-3183
명은	-3184
웨이	-3185
함이	-3186
선언	-3187
해진	-3188
주를	-3189
▁수용	-3190
시험	-3191
재를	-3192
▁주시	-3193
▁직후	-3194
느냐	-3195
▁아시안	-3196
▁평가를	-3197
정상회담	-3198
스럽게	-3199
지에서	-3200
▁예비	-3201
책을	-3202
▁나타나	-3203
▁쏠	-3204
임이	-3205
라면	-3206
▁절차	-3207
▁지키	-3208
요일에	-3209
▁선호	-3210
▁실패	-3211
▁걷	-3212
하우	-3213
▁문을	-3214
▁속에	-3215
▁적발	-3216
질을	-3217
▁전면	-3218
▁모바일	-3219
▁김영	-3220
▁들고	-3221
▁발급	-3222
▁J	-3223
▁벽	-3224
버스	-3225
▁때마다	-3226
▁정책을	-3227
▁검찰이	-3228
▁생각합니다	-3229
▁암호	-3230
전한	-3231
지사가	-3232
조정	-3233
▁기대된다	-3234
목이	-3235
재단	-3236
▁구입	-3237
▁예측	-3238
▁꾸준히	-3239
▁앱	-3240
▁따뜻	-3241
만원을	-3242
훼손	-3243
레스	-3244
히는	-3245
▁즉시	-3246
▁쓴	-3247
공원	-3248
▁말이	-3249
▁위에	-3250
이라도	-3251
대문	-3252
영화	-3253
▁직무	-3254
▁장관이	-3255
보면	-3256
▁충남	-3257
▁멕시코	-3258
▁행사가	-3259
▁친환경	-3260
▁나머	-3261
▁나올	-3262
▁꺼	-3263
플레이	-3264
▁있었습니다	-3265
▁뽑	-3266
▁광역	-3267
▁그때	-3268
▁이용할	-3269
▁시작했다	-3270
▁이용해	-3271
생이	-3272
신을	-3273
▁내에	-3274
▁일단	-3275
▁갖추	-3276
▁했던	-3277
많은	-3278
▁가까운	-3279
위원회가	-3280
뮤니	-3281
같은	-3282
▁발행	-3283
▁상호	-3284
▁휘	-3285
▁위협	-3286
전에서	-3287
▁소요	-3288
▁원활	-3289
▁바다	-3290
▁병원	-3291
동이	-3292
▁상황이다	-3293
▁디자	-3294
▁울산	-3295
▁촉구	-3296
▁봄	-3297
▁모아	-3298
▁인수	-3299
▁비슷한	-3300
▁목적	-3301
프트	-3302
▁유명한	-3303
▁지자체	-3304
▁든	-3305
▁법무	-3306
▁실현	-3307
▁최선을	-3308
▁하면서	-3309
음이	-3310
▁가고	-3311
▁나왔	-3312
▁효과를	-3313
점은	-3314
시부터	-3315
▁명예	-3316
▁책을	-3317
식과	-3318
의료	-3319
▁규정함을	-3320
▁기금	-3321
▁표시	-3322
▁시행령	-3323
▁참석했다	-3324
▁기부	-3325
▁초청	-3326
▁바꾸	-3327
▁장은	-3328
▁방문해	-3329
하겠다고	-3330
기구	-3331
▁종료	-3332
으로서	-3333
군요	-3334
▁빠져	-3335
▁혈	-3336
과정	-3337
협의회	-3338
▁끌어	-3339
▁진입	-3340
▁밥	-3341
▁맞춤	-3342
▁평생	-3343
개가	-3344
어로	-3345
▁사업이	-3346
▁진행된	-3347
▁블록체인	-3348
▁피부	-3349
번째	-3350
▁반면	-3351
▁축하	-3352
▁회장	-3353
▁카메라	-3354
∼2	-3355
▁민원	-3356
▁흐름	-3357
▁여야	-3358
▁코스	-3359
트로	-3360
하시	-3361
▁때문입니다	-3362
▁히	-3363
해온	-3364
▁체계	-3365
▁확인할	-3366
성도	-3367
원들이	-3368
▁사건을	-3369
경영	-3370
시켰	-3371
▁당부	-3372
▁나오고	-3373
▁부인	-3374
▁징수	-3375
▁많았다	-3376
▁압박	-3377
▁개막	-3378
▁폴	-3379
▁그곳	-3380
▁모두가	-3381
까지는	-3382
리핀	-3383
▁동영	-3384
▁마음이	-3385
▁통화	-3386
▁그들의	-3387
▁기대하고	-3388
▁있습니까	-3389
됐고	-3390
소는	-3391
당은	-3392
.”	-3393
에만	-3394
▁수요가	-3395
군의	-3396
식으로	-3397
시행	-3398
▁재산	-3399
▁연출	-3400
▁일제	-3401
▁작가	-3402
만으로	-3403
▁H	-3404
주로	-3405
리며	-3406
어진	-3407
▁가게	-3408
▁등과	-3409
▁뛰어	-3410
이스	-3411
바이오	-3412
▁의혹을	-3413
▁법원	-3414
고가	-3415
소에	-3416
▁떠나	-3417
▁별표	-3418
▁구청장에게	-3419
▁V	-3420
▁자격	-3421
▁자체가	-3422
▁바른미래	-3423
▁35	-3424
▁근처	-3425
▁습	-3426
▁샘	-3427
▁풍부	-3428
관에	-3429
▁먹을	-3430
▁태풍	-3431
▁규모가	-3432
60	-3433
활동을	-3434
▁이들의	-3435
▁공감	-3436
보를	-3437
규직	-3438
▁그린	-3439
▁새벽	-3440
▁씨가	-3441
▁일부를	-3442
▁사업에	-3443
종합	-3444
부서의	-3445
미가	-3446
▁사건이	-3447
위원회는	-3448
▁권한	-3449
▁좋을	-3450
▁한편	-3451
▁건립	-3452
▁챙	-3453
▁직업	-3454
위의	-3455
지기	-3456
▁통계	-3457
ar	-3458
근로	-3459
시킨	-3460
우고	-3461
▁갑자기	-3462
▁계산	-3463
▁가르	-3464
▁만난	-3465
건강	-3466
트에	-3467
펀드	-3468
▁기소	-3469
▁헬	-3470
▁사상	-3471
등록	-3472
협의	-3473
▁해양	-3474
▁하겠습니다	-3475
▁참석해	-3476
▁손을	-3477
▁후반	-3478
▁자본	-3479
▁홀	-3480
▁걸쳐	-3481
▁시범	-3482
가에	-3483
상담	-3484
액을	-3485
받아	-3486
▁길을	-3487
▁크리스	-3488
▁운행	-3489
▁상대적으로	-3490
▁보기	-3491
▁폭행	-3492
▁세부	-3493
▁부분이	-3494
재가	-3495
▁삶의	-3496
▁먹는	-3497
▁그들이	-3498
▁폭발	-3499
▁처음이다	-3500
개혁	-3501
▁상징	-3502
▁초기	-3503
▁미국과	-3504
지원센터	-3505
▁작용	-3506
지게	-3507
▁인력	-3508
건축	-3509
했기	-3510
▁단지	-3511
▁교육감	-3512
▁내에서	-3513
▁곤	-3514
▁설명이다	-3515
▁직장	-3516
권의	-3517
부장	-3518
션을	-3519
▁운용	-3520
▁자금	-3521
관과	-3522
▁비밀	-3523
▁애플	-3524
비는	-3525
▁대로	-3526
▁물품	-3527
▁예고	-3528
시오	-3529
도와	-3530
▁여기서	-3531
▁미안	-3532
공단	-3533
▁열어	-3534
▁이슈	-3535
▁자전거	-3536
▁잊	-3537
▁남은	-3538
▁적은	-3539
스티	-3540
▁물어	-3541
▁공개된	-3542
▁수사를	-3543
▁듣고	-3544
or	-3545
▁커지고	-3546
률을	-3547
월까지	-3548
▁목소리가	-3549
▁광주시	-3550
▁인구	-3551
▁있어야	-3552
처가	-3553
▁저렴	-3554
▁발생하는	-3555
규칙	-3556
연을	-3557
▁영화를	-3558
▁부탁드립니다	-3559
▁가을	-3560
▁좋다	-3561
▁따른다	-3562
15	-3563
▁고령	-3564
▁수집	-3565
▁지시	-3566
▁한국인	-3567
▁개별	-3568
40	-3569
al	-3570
점검	-3571
▁던	-3572
심이	-3573
▁조건	-3574
▁월드컵	-3575
개선	-3576
▁카카오	-3577
▁부족한	-3578
연금	-3579
▁부회	-3580
일에는	-3581
▁살고	-3582
▁공연을	-3583
▁호주	-3584
▁어려워	-3585
▁중국이	-3586
▁덜	-3587
▁기온	-3588
▁앨범	-3589
▁의견이	-3590
회계	-3591
▁거듭	-3592
▁마이크	-3593
▁시장에	-3594
▁결론	-3595
▁짓	-3596
▁공장	-3597
▁악화	-3598
▁싫	-3599
학을	-3600
▁피해가	-3601
▁교환	-3602
▁취임	-3603
▁몽	-3604
▁달성	-3605
▁철저	-3606
▁알게	-3607
▁참여해	-3608
운용	-3609
▁주식	-3610
▁했는데	-3611
▁인천광역시	-3612
제에	-3613
▁80	-3614
▁유엔	-3615
아이	-3616
자리	-3617
▁커뮤니	-3618
▁류	-3619
▁웹	-3620
▁도전	-3621
▁절대	-3622
▁같은데	-3623
▁시작된	-3624
▁줄어들	-3625
▁구체적인	-3626
신이	-3627
▁신경	-3628
▁전년	-3629
조사를	-3630
체험	-3631
▁아이디어	-3632
▁조합	-3633
▁암호화폐	-3634
연이	-3635
▁않아요	-3636
▁이외	-3637
▁국토교통	-3638
겠어	-3639
셔야	-3640
예산	-3641
▁단속	-3642
국민	-3643
장애인	-3644
▁드리	-3645
지구	-3646
▁자랑	-3647
▁투표	-3648
업계	-3649
▁기타	-3650
▁협약	-3651
▁열린다	-3652
해가	-3653
▁임금	-3654
▁진행된다	-3655
▁뜻을	-3656
▁새롭게	-3657
▁나무	-3658
▁집에서	-3659
▁이어질	-3660
▁하나의	-3661
▁패션	-3662
학년	-3663
▁브라질	-3664
▁생각한다	-3665
▁완전히	-3666
사한	-3667
▁골프	-3668
▁포기	-3669
▁갖춘	-3670
▁참고	-3671
▁힘든	-3672
▁비용을	-3673
▁칼	-3674
교회	-3675
재산	-3676
▁유출	-3677
▁흔들	-3678
범죄	-3679
▁터키	-3680
자들을	-3681
▁고발	-3682
▁하나요	-3683
서울특별시	-3684
시설을	-3685
질환	-3686
▁잠시	-3687
▁시대	-3688
▁아내	-3689
▁2010	-3690
시민	-3691
▁노출	-3692
▁연습	-3693
▁스타트	-3694
로가	-3695
▁수많은	-3696
▁의뢰	-3697
▁주인공	-3698
면을	-3699
▁담은	-3700
▁기능을	-3701
▁묘	-3702
허가	-3703
▁정한	-3704
▁대표적인	-3705
드리겠습니다	-3706
끄는	-3707
▁타이	-3708
▁금리	-3709
▁생각을	-3710
법이	-3711
▁이메	-3712
▁관련한	-3713
니아	-3714
았고	-3715
재정	-3716
▁짐	-3717
▁삶을	-3718
▁담겨	-3719
▁보낸	-3720
시킬	-3721
▁케	-3722
여성	-3723
명한	-3724
▁구성된	-3725
평화	-3726
▁진단	-3727
▁드러났다	-3728
▁2011	-3729
▁쓸	-3730
자금	-3731
학습	-3732
▁위원회	-3733
국가	-3734
수사	-3735
▁요리	-3736
▁적합	-3737
▁후원	-3738
▁삼성전자	-3739
▁받아야	-3740
▁책임을	-3741
▁점점	-3742
되자	-3743
▁출범	-3744
▁우수한	-3745
▁필요하다는	-3746
▁하게	-3747
▁이유가	-3748
▁유튜	-3749
분쯤	-3750
테크	-3751
▁에어	-3752
▁소상공	-3753
▁지급할	-3754
▁한국과	-3755
▁여러분	-3756
▁폼	-3757
▁안타	-3758
▁이번이	-3759
▁완벽	-3760
▁입고	-3761
▁기대한다	-3762
제한	-3763
사진	-3764
▁개입	-3765
인에게	-3766
▁지역에서	-3767
치지	-3768
▁출입	-3769
▁풀이	-3770
▁김문	-3771
▁누구나	-3772
▁대표팀	-3773
▁되나요	-3774
▁필리핀	-3775
부서	-3776
우드	-3777
▁만한	-3778
받을	-3779
공개	-3780
농업	-3781
▁승인	-3782
▁어린이집	-3783
▁추진하는	-3784
▁득	-3785
▁삭	-3786
▁다녀	-3787
▁엄청	-3788
▁일찍	-3789
▁주민들이	-3790
▁말레이	-3791
▁참여할	-3792
▁공직	-3793
▁인물	-3794
▁국내외	-3795
자들에게	-3796
소로	-3797
파크	-3798
▁옛	-3799
▁저희가	-3800
▁개의	-3801
▁아르	-3802
▁가능성을	-3803
▁가구	-3804
▁고통	-3805
▁좋지	-3806
▁끈	-3807
▁싶은데	-3808
▁경기도와	-3809
▁현장에서	-3810
14	-3811
Pop	-3812
과는	-3813
▁그려	-3814
▁특징이다	-3815
▁품질	-3816
심사	-3817
▁검색	-3818
▁구분	-3819
▁음주	-3820
▁나머지	-3821
문은	-3822
잖아	-3823
▁그리	-3824
▁선임	-3825
▁실험	-3826
▁일어	-3827
▁재무	-3828
▁태국	-3829
▁미디어	-3830
▁전북	-3831
석을	-3832
▁점이다	-3833
나가	-3834
▁부서	-3835
▁종교	-3836
▁자신을	-3837
등급	-3838
제의	-3839
아시아	-3840
이라면	-3841
대와	-3842
▁2,	-3843
연구원	-3844
▁만들기	-3845
▁여행을	-3846
13	-3847
▁길이	-3848
▁밝히	-3849
▁당선	-3850
▁보상	-3851
▁활성화를	-3852
▁법령	-3853
▁향해	-3854
▁알려진	-3855
▁운영을	-3856
▁획	-3857
▁수강	-3858
경기도	-3859
▁누가	-3860
▁일주	-3861
▁그를	-3862
▁2000	-3863
향을	-3864
▁굴	-3865
▁신설	-3866
▁실천	-3867
었을	-3868
▁보완	-3869
▁환불	-3870
▁장관은	-3871
▁지출	-3872
▁필수	-3873
만에	-3874
시의	-3875
▁보급	-3876
▁제품이	-3877
▁선수들이	-3878
▁오픈	-3879
▁시장의	-3880
▁봉사	-3881
▁치열	-3882
▁여의	-3883
조차	-3884
▁만날	-3885
▁아쉬	-3886
음에도	-3887
▁대부분의	-3888
▁드릴	-3889
▁시군	-3890
▁자산	-3891
▁허가	-3892
개국	-3893
법에	-3894
▁비난	-3895
주시면	-3896
종의	-3897
안은	-3898
▁교회	-3899
▁노력하여야	-3900
▁저에게	-3901
기금	-3902
단계	-3903
▁지배	-3904
되었습니다	-3905
지며	-3906
▁북부	-3907
▁총괄	-3908
▁중요하다	-3909
영업	-3910
페이오	-3911
▁방법을	-3912
▁곳에	-3913
▁깊은	-3914
▁레이	-3915
▁의혹이	-3916
상품	-3917
▁위원장	-3918
▁제외한	-3919
▁그러면	-3920
▁혹은	-3921
▁이건	-3922
▁노원	-3923
▁촉진	-3924
처를	-3925
▁기울	-3926
▁변화가	-3927
졌습니다	-3928
▁만들고	-3929
▁지구	-3930
▁그녀의	-3931
▁검증	-3932
▁그래도	-3933
▁될까요	-3934
관련	-3935
됐던	-3936
▁사우	-3937
▁연예	-3938
었다고	-3939
▁발생할	-3940
년에는	-3941
▁춤	-3942
500	-3943
▁늘어난	-3944
▁갤	-3945
▁사장	-3946
▁말레이시아	-3947
▁훌	-3948
▁불거	-3949
▁자문	-3950
리즈	-3951
비용	-3952
▁부진	-3953
▁이틀	-3954
▁상반기	-3955
봤다	-3956
▁외에	-3957
유의	-3958
▁KT	-3959
▁강력한	-3960
▁핸	-3961
▁알려져	-3962
▁떨어진	-3963
▁인프라	-3964
▁출산	-3965
상에서	-3966
계층	-3967
70	-3968
▁굉	-3969
▁오르	-3970
▁정한다	-3971
▁프리미	-3972
졌고	-3973
▁높이	-3974
▁종사	-3975
en	-3976
▁간의	-3977
식은	-3978
▁행사는	-3979
줍니다	-3980
▁보유한	-3981
▁되었습니다	-3982
시다	-3983
▁겪고	-3984
▁식당	-3985
▁발표했다	-3986
▁널	-3987
인트	-3988
▁제거	-3989
속도로	-3990
▁아이돌	-3991
▁적극적인	-3992
▁데뷔	-3993
▁원래	-3994
▁지휘	-3995
▁클럽	-3996
피언	-3997
▁장비	-3998
▁심의를	-3999
황을	-4000
▁구간	-4001
▁한국을	-4002
▁시작으로	-4003
중한	-4004
▁김문수	-4005
▁어렵다	-4006
▁개설	-4007
▁부총	-4008
▁시장에서	-4009
▁샘플	-4010
▁역대	-4011
▁지연	-4012
▁제품은	-4013
쪽으로	-4014
▁왼	-4015
방이	-4016
▁끝에	-4017
▁시내	-4018
▁확인해	-4019
▁비중이	-4020
▁사전에	-4021
▁하반기	-4022
▁지방자치단체	-4023
효과	-4024
▁고등학교	-4025
재판	-4026
▁까	-4027
▁관세	-4028
▁상장	-4029
▁확장	-4030
▁‘2018	-4031
▁쌍	-4032
니터	-4033
▁사랑을	-4034
▁상영	-4035
▁열렸다	-4036
▁네트워크	-4037
▁반환	-4038
▁거리	-4039
▁부담이	-4040
댓글	-4041
든지	-4042
▁민족	-4043
▁나갈	-4044
선수	-4045
▁문화를	-4046
▁확인됐다	-4047
교류	-4048
▁연말	-4049
▁선생님	-4050
▁굉장	-4051
▁김성	-4052
▁일은	-4053
▁전력	-4054
▁강남구	-4055
▁느낄	-4056
▁포함된	-4057
▁쓰레	-4058
▁부위원	-4059
▁주의	-4060
정으로	-4061
▁올해는	-4062
▁폼페이오	-4063
▁구글	-4064
▁손흥	-4065
일은	-4066
▁단독	-4067
▁기록했다	-4068
▁아이들이	-4069
챔피언	-4070
독교	-4071
▁친구가	-4072
▁감사합니다	-4073
▁쌀	-4074
성의	-4075
없는	-4076
▁사업은	-4077
▁보존	-4078
▁어울	-4079
▁전까지	-4080
역이	-4081
▁특허	-4082
.0	-4083
▁평택	-4084
▁도서관	-4085
면에	-4086
▁상황에	-4087
▁방지	-4088
▁증권	-4089
▁공익	-4090
▁간담	-4091
▁글을	-4092
▁당사	-4093
▁발달	-4094
▁멈	-4095
화로	-4096
미를	-4097
보건	-4098
▁초대	-4099
유가	-4100
▁리더	-4101
▁들어서	-4102
▁있음을	-4103
▁훼손	-4104
스에서	-4105
▁심각한	-4106
참여	-4107
▁2009	-4108
16	-4109
소의	-4110
▁자는	-4111
▁스페인	-4112
증권	-4113
화와	-4114
▁경기를	-4115
▁면접	-4116
▁징역	-4117
▁경제적	-4118
▁아니냐는	-4119
▁명확	-4120
직원	-4121
▁옮겨	-4122
근혜	-4123
▁주목된다	-4124
mm	-4125
티브	-4126
▁대해서도	-4127
▁성남	-4128
▁수비	-4129
건에	-4130
책임	-4131
향이	-4132
▁블랙	-4133
▁채널	-4134
하이	-4135
▁가로	-4136
▁비즈	-4137
▁양성	-4138
▁체크	-4139
▁가까이	-4140
▁시민들이	-4141
▁문제로	-4142
▁포함해	-4143
▁컸	-4144
▁관할	-4145
▁받아들	-4146
사인	-4147
▁정착	-4148
▁인정하는	-4149
▁포장	-4150
동의	-4151
형이	-4152
▁와서	-4153
▁감독은	-4154
▁센	-4155
▁작년	-4156
▁똑	-4157
일간	-4158
▁부품	-4159
료는	-4160
▁밝혔	-4161
25	-4162
▁맨	-4163
십시오	-4164
▁벗어나	-4165
▁못해	-4166
소에서	-4167
▁환자	-4168
사항을	-4169
량의	-4170
▁낮아	-4171
▁경기가	-4172
(6	-4173
돼야	-4174
▁입학	-4175
▁극복	-4176
됨에	-4177
이면	-4178
▁충북	-4179
▁작업을	-4180
▁들어간	-4181
▁본격적인	-4182
▁수여	-4183
대출	-4184
▁누군	-4185
▁늘고	-4186
▁메이	-4187
▁상품을	-4188
at	-4189
▁부상	-4190
▁생긴	-4191
됐다는	-4192
됐지만	-4193
역에서	-4194
▁대학생	-4195
▁할머니	-4196
▁거론	-4197
▁내다	-4198
▁말해	-4199
▁연령	-4200
▁경험을	-4201
▁고객이	-4202
설팅	-4203
▁개방	-4204
▁댓글	-4205
▁맞춤형	-4206
▁사례가	-4207
▁현금	-4208
데이터	-4209
가능	-4210
▁전공	-4211
▁인하	-4212
▁뜨거운	-4213
▁제외하고	-4214
▁괴	-4215
▁공연이	-4216
▁내고	-4217
▁올려	-4218
▁시상	-4219
▁기업들이	-4220
▁모으	-4221
▁경기도의	-4222
▁분석했다	-4223
▁만남	-4224
▁노력을	-4225
▁천안	-4226
여명의	-4227
선의	-4228
항제	-4229
▁그간	-4230
▁저의	-4231
▁AI	-4232
이버	-4233
▁집단	-4234
▁최우	-4235
세기	-4236
▁선수가	-4237
시티	-4238
▁생각해	-4239
▁당부했다	-4240
▁금감	-4241
▁응원	-4242
▁그런데	-4243
▁급격	-4244
▁표준	-4245
▁화려	-4246
▁활용해	-4247
▁밑	-4248
▁샤	-4249
▁싶다	-4250
▁무엇을	-4251
▁못할	-4252
▁가치를	-4253
▁바이오	-4254
▁띄	-4255
▁재활	-4256
▁계기로	-4257
▁발생했다	-4258
▁영상을	-4259
▁텐	-4260
▁사로	-4261
지능	-4262
▁자원봉사	-4263
▁경고	-4264
▁바이	-4265
▁실시간	-4266
▁조기	-4267
▁태양	-4268
판매	-4269
▁진짜	-4270
▁커뮤니티	-4271
▁가맹	-4272
▁특성	-4273
▁보육	-4274
▁이웃	-4275
▁집계	-4276
▁불가피	-4277
객이	-4278
아야	-4279
▁곳은	-4280
▁바른미래당	-4281
이한	-4282
▁마치	-4283
▁스토	-4284
▁출전	-4285
하려면	-4286
▁메시지를	-4287
주에	-4288
추진	-4289
라스	-4290
▁당장	-4291
▁유도	-4292
▁이민	-4293
▁복합	-4294
▁질병	-4295
▁발송	-4296
프로그램	-4297
18	-4298
율은	-4299
▁대학교	-4300
▁33	-4301
▁가면	-4302
신고	-4303
▁플레이	-4304
▁효율적인	-4305
∼3	-4306
▁대행	-4307
▁매체	-4308
▁사립	-4309
▁수능	-4310
▁정치적	-4311
재생	-4312
▁질문	-4313
평등	-4314
▁매각	-4315
연맹	-4316
▁일정을	-4317
하나	-4318
▁하늘	-4319
▁이어지고	-4320
기기	-4321
▁차단	-4322
▁좁	-4323
수와	-4324
▁감염	-4325
▁설정	-4326
▁시기	-4327
▁한국은	-4328
▁이르	-4329
입니까	-4330
▁화장품	-4331
▁나눠	-4332
▁손님	-4333
져야	-4334
17	-4335
우가	-4336
▁노후	-4337
▁저희는	-4338
경이	-4339
▁뮤지	-4340
청소년	-4341
▁계열	-4342
▁계좌	-4343
▁손해	-4344
▁종전	-4345
▁과학기술	-4346
▁난민	-4347
▁확인하고	-4348
이사	-4349
▁점도	-4350
▁뚜	-4351
감사	-4352
▁철도	-4353
▁팀이	-4354
▁세월	-4355
▁여성이	-4356
▁컬	-4357
▁당초	-4358
▁유리	-4359
▁실시한	-4360
▁2008	-4361
▁2020	-4362
시키고	-4363
▁잡고	-4364
▁혜택을	-4365
▁부장	-4366
▁나선다	-4367
▁굉장히	-4368
▁이끌어	-4369
북부	-4370
▁동반	-4371
▁종목	-4372
▁폐지	-4373
▁니	-4374
트너	-4375
▁일본의	-4376
▁보냈	-4377
▁올린	-4378
▁수영	-4379
▁지원에	-4380
▁바꿔	-4381
▁성적	-4382
▁부모님	-4383
▁사로잡	-4384
▁감정	-4385
▁징계	-4386
▁방법으로	-4387
로구	-4388
▁단축	-4389
▁대폭	-4390
사용	-4391
▁긴장	-4392
▁돌파	-4393
▁상위	-4394
▁주어	-4395
▁꿈을	-4396
▁수시	-4397
▁기다려	-4398
▁치료를	-4399
▁가능합니다	-4400
▁시장을	-4401
기한	-4402
▁그만큼	-4403
▁있으나	-4404
수도	-4405
▁테스트	-4406
▁'	-4407
권에	-4408
▁150	-4409
▁가동	-4410
▁분위기	-4411
▁우리에게	-4412
▁피해자	-4413
▁채택	-4414
▁개념	-4415
▁바닥	-4416
▁실태	-4417
▁벨	-4418
▁짜	-4419
우리	-4420
▁급증	-4421
▁눈이	-4422
▁유튜브	-4423
▁사람들의	-4424
더니	-4425
번에	-4426
▁수석	-4427
▁권고	-4428
▁티켓	-4429
▁한국당	-4430
▁방탄	-4431
▁쓰는	-4432
▁그것이	-4433
▁W	-4434
▁끌고	-4435
▁기술이	-4436
▁무역전쟁	-4437
▁전문가들은	-4438
주도	-4439
▁합동	-4440
▁계약을	-4441
▁전부터	-4442
상과	-4443
▁복잡	-4444
▁수학	-4445
▁고려해	-4446
▁가슴	-4447
▁들여	-4448
▁슈퍼	-4449
▁있으니	-4450
바이	-4451
▁올림픽	-4452
▁실내	-4453
▁앉아	-4454
면서도	-4455
▁곳으로	-4456
▁합격	-4457
▁이제는	-4458
▁한국이	-4459
▁사회복지	-4460
▁보인	-4461
▁생명	-4462
▁지불	-4463
일과	-4464
▁활약	-4465
▁백악	-4466
▁취득	-4467
▁해주	-4468
▁결승	-4469
▁자극	-4470
▁위원회는	-4471
주차	-4472
▁취재	-4473
▁집을	-4474
시설의	-4475
▁변화를	-4476
기지	-4477
▁년	-4478
▁기계	-4479
력에	-4480
모델	-4481
▁반려	-4482
▁조작	-4483
▁이끄는	-4484
검사	-4485
비아	-4486
▁전개	-4487
▁간단	-4488
▁미치는	-4489
▁학교에	-4490
가스	-4491
▁계기가	-4492
▁문의	-4493
▁챔피언	-4494
▁우즈	-4495
▁그녀가	-4496
▁하나로	-4497
▁입은	-4498
▁초등학교	-4499
▁핸드	-4500
▁차원에서	-4501
드러	-4502
▁이유를	-4503
의원	-4504
시까지	-4505
▁시설을	-4506
▁요구하는	-4507
트의	-4508
▁김동	-4509
▁추세	-4510
.5%	-4511
▁32	-4512
▁뿐만	-4513
▁원인	-4514
▁CC	-4515
▁예산을	-4516
사랑	-4517
▁꼬	-4518
만한	-4519
판을	-4520
▁36	-4521
▁인지	-4522
▁증명	-4523
▁차를	-4524
등학생	-4525
▁들었다	-4526
선에	-4527
▁강릉	-4528
▁입을	-4529
▁호소	-4530
▁통해서	-4531
러스	-4532
▁통하여	-4533
▁팬들이	-4534
▁뒤에	-4535
▁분석이	-4536
▁경비	-4537
▁연주	-4538
▁정당	-4539
됐으며	-4540
호서식의	-4541
▁재개	-4542
▁지식	-4543
▁체포	-4544
가로	-4545
▁복귀	-4546
호서식에	-4547
▁예정입니다	-4548
▁굳	-4549
리오	-4550
▁농촌	-4551
▁아니면	-4552
류를	-4553
▁유입	-4554
자료	-4555
▁더해	-4556
▁박물	-4557
▁응급	-4558
▁사유가	-4559
▁있을지	-4560
▁마찬	-4561
▁모색	-4562
▁직원이	-4563
▁공개했다	-4564
▁신분	-4565
▁생각하는	-4566
진은	-4567
▁분리	-4568
▁위원장의	-4569
▁스타트업	-4570
▁진행되는	-4571
▁흉	-4572
▁로봇	-4573
▁점은	-4574
▁찾은	-4575
배를	-4576
▁않게	-4577
▁대리	-4578
▁가치가	-4579
▁벌써	-4580
▁점차	-4581
▁창의	-4582
▁힘이	-4583
▁했다고	-4584
▁높아지고	-4585
▁남녀	-4586
▁다행	-4587
▁머물	-4588
▁토대로	-4589
▁전망된다	-4590
▁융자	-4591
▁입법	-4592
▁하였다	-4593
▁형사	-4594
▁사업의	-4595
▁모니터	-4596
▁깔	-4597
리적	-4598
▁38	-4599
▁파견	-4600
▁현행	-4601
오염	-4602
▁인생	-4603
직을	-4604
▁의원의	-4605
조원	-4606
▁산불	-4607
▁상임	-4608
▁선진	-4609
였습니다	-4610
▁연휴	-4611
▁충돌	-4612
되도록	-4613
▁시간에	-4614
▁의미를	-4615
하시는	-4616
▁IT	-4617
▁왜냐	-4618
주기	-4619
체의	-4620
▁녹색	-4621
▁지속적인	-4622
이던	-4623
▁해제	-4624
▁없어서	-4625
▁주장이	-4626
▁내리	-4627
경쟁	-4628
▁45	-4629
▁배달	-4630
▁서초	-4631
▁연합	-4632
메달	-4633
폐기	-4634
▁실행	-4635
▁하되	-4636
▁건의	-4637
▁몽골	-4638
▁방탄소년	-4639
▁댄	-4640
▁양국	-4641
▁초반	-4642
▁아시안게임	-4643
▁경상	-4644
▁기회	-4645
이기도	-4646
▁관내	-4647
▁번역	-4648
▁1000	-4649
▁산림	-4650
▁승인을	-4651
위원회를	-4652
놀이	-4653
테인	-4654
▁앞둔	-4655
▁어떠	-4656
▁국회의원	-4657
아리	-4658
▁국민의	-4659
▁과태	-4660
스티벌	-4661
▁정부와	-4662
▁흑	-4663
하셨	-4664
▁용인	-4665
▁관계를	-4666
▁돋	-4667
교육청	-4668
▁숨진	-4669
력으로	-4670
월드	-4671
▁연방	-4672
▁풀이된다	-4673
▁분쟁	-4674
▁전망이	-4675
▁학생이	-4676
▁넥	-4677
승을	-4678
전략	-4679
▁후보가	-4680
줬다	-4681
▁저소득	-4682
▁편리	-4683
▁구속영	-4684
▁수업을	-4685
▁여의도	-4686
▁회의를	-4687
만명	-4688
IC	-4689
▁이탈리아	-4690
리트	-4691
수에	-4692
▁동료	-4693
하였습니다	-4694
물질	-4695
포구	-4696
▁나이	-4697
▁위로	-4698
▁서류를	-4699
▁상관	-4700
▁원을	-4701
▁청소	-4702
▁보여주는	-4703
▁1,000	-4704
생산	-4705
▁한인	-4706
▁교수가	-4707
st	-4708
▁업종	-4709
텔레	-4710
축구	-4711
▁김정	-4712
기관에	-4713
▁이른바	-4714
상태	-4715
▁한화	-4716
▁도심	-4717
▁무대	-4718
▁수십	-4719
▁찾을	-4720
▁한정	-4721
▁가능할	-4722
민의	-4723
회장	-4724
▁90	-4725
▁노사	-4726
▁생겨	-4727
▁토지	-4728
▁올랐다	-4729
씨와	-4730
▁밖의	-4731
▁샌	-4732
▁희생	-4733
안보	-4734
▁관련하여	-4735
▁경우에	-4736
▁세계적인	-4737
▁이용하는	-4738
▁헌법	-4739
▁절차를	-4740
분간	-4741
▁승리	-4742
▁기독교	-4743
천만	-4744
▁향한	-4745
▁안전한	-4746
▁놀라	-4747
에너지	-4748
▁부담을	-4749
피해	-4750
한데	-4751
▁달하는	-4752
▁유기	-4753
▁외에도	-4754
용차	-4755
▁34	-4756
▁안팎	-4757
▁10%	-4758
▁있었지만	-4759
▁다수	-4760
▁몰려	-4761
▁문제에	-4762
▁수준의	-4763
▁가능성도	-4764
▁분야에서	-4765
▁소식을	-4766
▁예능	-4767
▁유력	-4768
▁유해	-4769
해질	-4770
▁첨단	-4771
▁보이지	-4772
▁옷을	-4773
시와	-4774
▁세워	-4775
▁작품을	-4776
즈를	-4777
▁받게	-4778
▁질환	-4779
▁내용의	-4780
▁불리는	-4781
조를	-4782
▁맞추	-4783
▁이것이	-4784
▁결정을	-4785
▁목표로	-4786
▁활용한	-4787
▁묵	-4788
▁낼	-4789
기록	-4790
력은	-4791
▁그에	-4792
▁안보	-4793
▁당신과	-4794
▁시스템을	-4795
쪽에	-4796
▁떨어져	-4797
▁산하	-4798
리스트	-4799
▁신청을	-4800
▁연극	-4801
▁위기	-4802
▁남성이	-4803
▁때도	-4804
▁소화	-4805
▁통상	-4806
건으로	-4807
코리아	-4808
▁무료로	-4809
▁잡아	-4810
▁생존	-4811
역에	-4812
▁측정	-4813
▁따뜻한	-4814
되어야	-4815
▁둘러싼	-4816
▁날짜	-4817
▁대거	-4818
▁찾고	-4819
▁환경을	-4820
▁지역사회	-4821
물에	-4822
복을	-4823
피스	-4824
▁교사	-4825
티스트	-4826
▁그건	-4827
▁회장은	-4828
조선	-4829
▁거짓	-4830
▁비용이	-4831
▁설치된	-4832
▁유치원	-4833
▁분위기를	-4834
▁수소	-4835
▁이중	-4836
▁이용한	-4837
물로	-4838
▁떠오	-4839
▁마약	-4840
사일	-4841
▁법정	-4842
▁저도	-4843
▁강하게	-4844
▁생각해요	-4845
망을	-4846
하면서도	-4847
군은	-4848
소방	-4849
▁포상	-4850
▁경우는	-4851
웨어	-4852
▁출근	-4853
cm	-4854
류가	-4855
▁행복한	-4856
▁죄송합니다	-4857
터리	-4858
▁별로	-4859
▁발전을	-4860
▁풍부한	-4861
국에	-4862
▁측이	-4863
▁결과에	-4864
▁비율이	-4865
▁영향으로	-4866
▁기존의	-4867
▁지역은	-4868
금리	-4869
▁동남	-4870
노총	-4871
▁편성	-4872
▁공동으로	-4873
▁숲	-4874
▁탁	-4875
란히	-4876
벤처	-4877
서와	-4878
▁동원	-4879
▁이유다	-4880
무역	-4881
▁과도	-4882
▁없지만	-4883
▁긍정적인	-4884
▁그게	-4885
▁넘겨	-4886
사업에	-4887
하시면	-4888
면으로	-4889
▁소식	-4890
▁방법이	-4891
영이	-4892
▁포항	-4893
재난	-4894
24	-4895
▁당일	-4896
▁오염	-4897
▁곳에서	-4898
▁이같이	-4899
▁지원이	-4900
호텔	-4901
▁나아	-4902
보니	-4903
▁쓰고	-4904
시간이	-4905
▁트위	-4906
▁환영	-4907
▁물건을	-4908
국장	-4909
▁적지	-4910
▁문화예술	-4911
▁인공지능	-4912
자산	-4913
이용	-4914
▁결합	-4915
▁박근혜	-4916
받았다	-4917
▁국회에서	-4918
▁학생들의	-4919
▁알려주세요	-4920
주년	-4921
진의	-4922
▁내린	-4923
▁셀	-4924
▁가해	-4925
▁마감	-4926
▁바에	-4927
▁뛰어난	-4928
▁이뤄질	-4929
▁증가한	-4930
▁이어졌다	-4931
다시	-4932
▁준용	-4933
주년을	-4934
▁횡	-4935
혁명	-4936
▁식사	-4937
길이	-4938
▁통지	-4939
▁다문화	-4940
▁"	-4941
▁돌려	-4942
▁형태로	-4943
인가	-4944
전은	-4945
▁파티	-4946
해주는	-4947
▁여성의	-4948
실로	-4949
▁인재	-4950
▁구현	-4951
▁넘게	-4952
▁펜	-4953
▁주주	-4954
동에	-4955
▁수리	-4956
▁신체	-4957
▁도서	-4958
▁제출한	-4959
르신	-4960
▁자리에	-4961
▁지역을	-4962
기관이	-4963
▁제품의	-4964
▁런	-4965
▁개봉	-4966
▁조언	-4967
마저	-4968
▁선출	-4969
▁공무원이	-4970
▁공기	-4971
▁아는	-4972
봐야	-4973
사령	-4974
센터에서	-4975
▁대하여는	-4976
▁입증	-4977
▁작동	-4978
▁정체	-4979
▁부분을	-4980
인천	-4981
창업	-4982
▁고급	-4983
▁매장	-4984
▁방북	-4985
▁20%	-4986
▁투자를	-4987
▁필요합니다	-4988
년의	-4989
먼트	-4990
이즈	-4991
▁돈이	-4992
▁마치고	-4993
여서	-4994
▁나중에	-4995
▁마음에	-4996
▁줘	-4997
▁안산	-4998
▁이벤트	-4999
▁대변인은	-5000
▁가족이	-5001
▁이름이	-5002
음악	-5003
▁맛있	-5004
량은	-5005
리게	-5006
▁선박	-5007
▁것인지	-5008
안의	-5009
▁주력	-5010
▁추억	-5011
▁탑승	-5012
▁수급	-5013
▁질문에	-5014
세로	-5015
▁나아가	-5016
▁운영할	-5017
▁훌륭	-5018
▁프로그램이	-5019
개로	-5020
조치	-5021
었다는	-5022
▁목소리를	-5023
▁진행됐다	-5024
▁현재까지	-5025
소와	-5026
▁찬성	-5027
▁업체가	-5028
▁실종	-5029
▁아직도	-5030
▁일자리를	-5031
▁검찰에	-5032
▁분야의	-5033
닙니다	-5034
▁소녀	-5035
▁명절	-5036
▁용산	-5037
▁다음달	-5038
▁회사의	-5039
란드	-5040
▁통제	-5041
▁드러나	-5042
▁마친	-5043
▁폐쇄	-5044
기본	-5045
▁편안	-5046
졌다는	-5047
▁영어를	-5048
달라고	-5049
EO	-5050
▁낭	-5051
▁물을	-5052
▁창원	-5053
▁추진할	-5054
▁65	-5055
▁너희	-5056
▁호응	-5057
▁테이	-5058
해지고	-5059
▁칠	-5060
름이	-5061
시즌	-5062
▁착용	-5063
시켰다	-5064
▁개발한	-5065
▁섭	-5066
기능	-5067
▁많고	-5068
▁돌아가	-5069
▁고소	-5070
▁날이	-5071
▁달려	-5072
▁법적	-5073
▁추진하고	-5074
순환	-5075
▁자리에서	-5076
이의	-5077
▁출동	-5078
▁강서	-5079
▁배제	-5080
▁착수	-5081
체계	-5082
폭력	-5083
▁선사	-5084
▁흘러	-5085
▁덕분에	-5086
▁선정된	-5087
▁소식이	-5088
구나	-5089
니어	-5090
▁둔다	-5091
▁부적	-5092
▁혼란	-5093
▁않았습니다	-5094
타운	-5095
▁언어	-5096
과장은	-5097
it	-5098
▁낳	-5099
억원의	-5100
해양	-5101
단으로	-5102
▁정도의	-5103
하니	-5104
▁효율적으로	-5105
80	-5106
▁상생	-5107
▁CCTV	-5108
▁분위기가	-5109
▁않았지만	-5110
▁미만	-5111
▁하이	-5112
▁본격적으로	-5113
하실	-5114
▁분류	-5115
▁의지를	-5116
렸습니다	-5117
하라	-5118
▁기간이	-5119
▁제주도	-5120
민주	-5121
행위	-5122
▁무너	-5123
▁피의	-5124
▁관계가	-5125
▁회사가	-5126
」(	-5127
여행	-5128
인권	-5129
철도	-5130
▁화성	-5131
년으로	-5132
된다는	-5133
▁대화를	-5134
조건	-5135
▁50%	-5136
▁기대를	-5137
▁방문한	-5138
싱턴	-5139
▁떠올	-5140
▁소집	-5141
▁단일	-5142
▁진료	-5143
▁비서	-5144
▁어디서	-5145
▁위원의	-5146
▁전망했다	-5147
▁밴	-5148
해왔다	-5149
▁아티스트	-5150
▁“(	-5151
▁거기	-5152
▁맡은	-5153
▁이승	-5154
▁일대	-5155
사이트	-5156
▁상태다	-5157
▁따라서	-5158
리어	-5159
▁개성	-5160
▁차가	-5161
▁추석	-5162
바로	-5163
▁조절	-5164
▁호흡	-5165
▁퇴직	-5166
▁한글	-5167
▁도모	-5168
▁무게	-5169
집니다	-5170
조가	-5171
조례	-5172
▁대사	-5173
▁요금	-5174
▁예수	-5175
기업의	-5176
.9%	-5177
▁것이란	-5178
▁트위터	-5179
▁쾌	-5180
▁강의	-5181
▁활용할	-5182
▁거주하는	-5183
▁영양	-5184
▁평가했다	-5185
뷰티	-5186
령을	-5187
▁접촉	-5188
▁포착	-5189
보조	-5190
교육을	-5191
센터가	-5192
▁별도의	-5193
▁스트레	-5194
▁2007	-5195
동구	-5196
층이	-5197
▁고정	-5198
▁발휘	-5199
▁아빠	-5200
▁대선	-5201
▁문화재	-5202
▁자가	-5203
▁출장	-5204
▁운동을	-5205
다니	-5206
▁기사	-5207
부터는	-5208
약품	-5209
▁신한	-5210
▁뭔	-5211
▁관해	-5212
▁비교적	-5213
▁팬들의	-5214
▁왜냐하면	-5215
가락	-5216
▁아이가	-5217
▁최소화	-5218
▁공동주택	-5219
▁진행하고	-5220
나마	-5221
시대	-5222
황이	-5223
▁유니	-5224
▁말하는	-5225
미술	-5226
▁대책을	-5227
공연	-5228
화점	-5229
▁고마	-5230
▁시정	-5231
▁행사에	-5232
회의를	-5233
▁콘서트	-5234
어버	-5235
▁실시할	-5236
▁담아	-5237
▁가능해	-5238
▁며	-5239
▁노선	-5240
▁보낼	-5241
▁탓에	-5242
▁기도	-5243
▁변동	-5244
리티	-5245
북한	-5246
제와	-5247
▁동작	-5248
▁비즈니스	-5249
▁사람에게	-5250
▁곳이다	-5251
▁현대차	-5252
▁기반으로	-5253
.6%	-5254
▁세대	-5255
▁제조업	-5256
▁방향으로	-5257
수요	-5258
▁기준을	-5259
▁진행할	-5260
▁진행하는	-5261
▁감독의	-5262
▁거에요	-5263
▁임기는	-5264
고용	-5265
부문	-5266
.4%	-5267
▁52	-5268
▁보일	-5269
▁유발	-5270
▁탄생	-5271
▁저장	-5272
라운드	-5273
▁논의가	-5274
▁딱	-5275
일의	-5276
지법	-5277
▁교부	-5278
▁공간을	-5279
▁했다는	-5280
른다	-5281
호선	-5282
▁살해	-5283
수수색	-5284
▁얻고	-5285
스포츠	-5286
시장이	-5287
오고	-5288
▁경기에서	-5289
력의	-5290
▁맞이	-5291
▁잠재	-5292
▁없도록	-5293
스플레이	-5294
▁엑	-5295
▁동네	-5296
▁장르	-5297
▁건강한	-5298
kg	-5299
올림픽	-5300
▁상당히	-5301
드릴게요	-5302
예방	-5303
층의	-5304
.3%	-5305
▁시급	-5306
▁자살	-5307
▁교육감은	-5308
▁깜	-5309
단과	-5310
위원은	-5311
▁프리미엄	-5312
PO	-5313
▁들이	-5314
▁수수료	-5315
겁게	-5316
▁깨끗	-5317
았지만	-5318
▁된다는	-5319
▁않아도	-5320
▁적절한	-5321
▁현상이	-5322
▁여부	-5323
터테인	-5324
렀다	-5325
겠습니까	-5326
ED	-5327
▁진행될	-5328
진과	-5329
.7%	-5330
린이	-5331
우러	-5332
표가	-5333
확실	-5334
▁반응을	-5335
▁차지하는	-5336
설을	-5337
▁박람	-5338
▁노래를	-5339
.2%	-5340
지어	-5341
▁기각	-5342
▁의사를	-5343
▁저지	-5344
물은	-5345
소송	-5346
▁공개한	-5347
트랙	-5348
▁넣어	-5349
▁축소	-5350
▁갈수록	-5351
호는	-5352
▁건조	-5353
▁제약	-5354
▁짧은	-5355
▁흥미	-5356
▁신고를	-5357
▁자영업	-5358
기획	-5359
라서	-5360
기업이	-5361
▁압수수색	-5362
▁지역주민	-5363
▁감면	-5364
▁이재명	-5365
▁빗	-5366
▁일시	-5367
▁준공	-5368
▁400	-5369
▁기분이	-5370
▁잇따라	-5371
▁아닙니다	-5372
21	-5373
▁났	-5374
국을	-5375
▁파트너	-5376
·4	-5377
▁쟁	-5378
층에	-5379
▁스크	-5380
▁하던	-5381
▁변호사	-5382
익을	-5383
포를	-5384
▁정확히	-5385
▁털	-5386
▁전담	-5387
디자인	-5388
드로	-5389
▁일하는	-5390
▁대단	-5391
▁숫	-5392
힌다	-5393
▁부대	-5394
▁올리	-5395
▁노원구	-5396
▁대상이	-5397
▁이상을	-5398
▁재배	-5399
▁하노	-5400
사업의	-5401
억원이	-5402
치게	-5403
▁도쿄	-5404
▁컨설팅	-5405
폰을	-5406
▁조사됐다	-5407
▁삼성바이오	-5408
▁돼요	-5409
▁선교	-5410
▁예를	-5411
▁이어지는	-5412
전의	-5413
항을	-5414
▁구체적으로	-5415
.8%	-5416
▁점심	-5417
▁이전에	-5418
▁충분한	-5419
비의	-5420
▁조례에	-5421
▁행사에는	-5422
용품	-5423
전으로	-5424
▁수사에	-5425
▁어려울	-5426
▁음악을	-5427
▁옆에	-5428
▁이때	-5429
▁올렸다	-5430
▁썼	-5431
억달러	-5432
▁운영하고	-5433
▁데다	-5434
▁받으	-5435
▁정해	-5436
▁표창	-5437
월에는	-5438
▁친구들과	-5439
▁선도	-5440
▁가졌다	-5441
▁서비스가	-5442
▁리그	-5443
▁증가하고	-5444
로드	-5445
사례	-5446
▁생겼	-5447
▁케이팝	-5448
▁자아	-5449
▁풀어	-5450
▁근본	-5451
▁나설	-5452
▁했고	-5453
▁주민의	-5454
re	-5455
▁37	-5456
▁걸려	-5457
▁발의	-5458
키스탄	-5459
▁워싱턴	-5460
▁지체	-5461
▁수준으로	-5462
자유	-5463
▁매입	-5464
▁베이징	-5465
▁사우디	-5466
▁과연	-5467
시간을	-5468
▁차지했다	-5469
▁공고	-5470
▁늦게	-5471
▁명시	-5472
▁부당	-5473
관으로	-5474
▁재미있	-5475
27	-5476
가격	-5477
▁눈을	-5478
▁사람들	-5479
▁않지만	-5480
▁내세	-5481
▁세무	-5482
▁추구	-5483
▁있었고	-5484
▁지원한다	-5485
▁되었	-5486
▁일각	-5487
값이	-5488
클럽	-5489
▁모르는	-5490
▁척	-5491
▁물건	-5492
▁김경	-5493
▁야구	-5494
▁에이	-5495
▁인용	-5496
식에는	-5497
았어요	-5498
▁30%	-5499
▁비판했다	-5500
▁제공하고	-5501
▁채권	-5502
▁재판에	-5503
회의에서	-5504
▁때부터	-5505
▁사랑하는	-5506
쇼핑	-5507
적의	-5508
▁강경	-5509
▁관리를	-5510
▁앞으로도	-5511
▁이야기가	-5512
▁경기도지사가	-5513
▁북측	-5514
▁적정	-5515
▁제공할	-5516
졌다고	-5517
▁사이트	-5518
팀은	-5519
▁시는	-5520
▁가격을	-5521
▁지사는	-5522
결을	-5523
▁설득	-5524
▁스테	-5525
▁고려하여	-5526
▁대부분이	-5527
▁사람들에게	-5528
▁정상회담을	-5529
IS	-5530
.1%	-5531
▁독특	-5532
▁소셜	-5533
▁투명	-5534
릅니다	-5535
▁불확실	-5536
▁지방선거	-5537
능력	-5538
어져	-5539
차로	-5540
▁막기	-5541
▁기록한	-5542
▁어우러	-5543
▁대표하는	-5544
▁내는	-5545
▁부실	-5546
▁씨는	-5547
▁즐거	-5548
▁추락	-5549
된다고	-5550
듯이	-5551
전시	-5552
▁속도를	-5553
▁판단했다	-5554
액은	-5555
▁관람객	-5556
▁노력이	-5557
▁기다리고	-5558
중소	-5559
▁197	-5560
정과	-5561
조직	-5562
▁소관	-5563
하라고	-5564
▁요청할	-5565
▁개인정보	-5566
▁침해	-5567
자들	-5568
▁별도로	-5569
▁붕	-5570
천시	-5571
▁처분	-5572
▁분들이	-5573
▁만들었다	-5574
거든	-5575
▁휴대전	-5576
▁함께하는	-5577
보증	-5578
▁위임	-5579
▁사용한	-5580
▁경우도	-5581
▁사고로	-5582
▁직무를	-5583
▁직원들이	-5584
▁기자회견을	-5585
▁독서	-5586
▁스케	-5587
▁허위	-5588
▁갈등이	-5589
▁매출이	-5590
▁현장에	-5591
TA	-5592
▁핀	-5593
▁상상	-5594
▁트렌	-5595
▁자유롭게	-5596
▁뚜렷	-5597
▁맞은	-5598
실은	-5599
▁가끔	-5600
▁빠진	-5601
▁사이즈	-5602
이로	-5603
▁보증	-5604
▁설문	-5605
▁분야에	-5606
고에	-5607
직한	-5608
▁목숨	-5609
▁숙박	-5610
▁보여주	-5611
▁상당한	-5612
▁역사를	-5613
케이션	-5614
▁묶	-5615
각을	-5616
발을	-5617
▁세미	-5618
▁충전	-5619
▁이것을	-5620
▁밟	-5621
▁춘	-5622
▁서명	-5623
▁심화	-5624
센터를	-5625
▁원활한	-5626
서비스를	-5627
친구	-5628
▁생기	-5629
▁한층	-5630
▁실시한다	-5631
재로	-5632
카르	-5633
▁면세	-5634
▁철거	-5635
▁높이고	-5636
행사	-5637
▁세상을	-5638
▁경쟁력을	-5639
치료	-5640
▁성격	-5641
2)	-5642
ic	-5643
▁냄	-5644
합의	-5645
▁기후	-5646
▁능력을	-5647
▁고교	-5648
등을	-5649
치의	-5650
▁맞게	-5651
▁운송	-5652
▁바람이	-5653
(7	-5654
▁남부	-5655
▁네이버	-5656
▁미래를	-5657
▁사진이	-5658
▁서울대	-5659
가구	-5660
▁중심의	-5661
▁멜	-5662
럭시	-5663
▁공을	-5664
▁공부를	-5665
▁규정을	-5666
▁어르신	-5667
▁사람들을	-5668
▁좋습니다	-5669
였고	-5670
▁걸어	-5671
▁행위	-5672
연구소	-5673
▁사항이	-5674
▁테마	-5675
▁자연스럽게	-5676
판에	-5677
화의	-5678
▁의회	-5679
▁특검	-5680
되거나	-5681
인에	-5682
▁테니	-5683
▁하겠다	-5684
▁꽤	-5685
▁렌	-5686
기념	-5687
▁아이템	-5688
▁않다는	-5689
수산	-5690
▁벤처	-5691
▁준수	-5692
했어	-5693
▁이르는	-5694
▁인사를	-5695
소비	-5696
▁보건복지	-5697
▁말한	-5698
▁미국은	-5699
▁평가가	-5700
▁고용노동	-5701
원한	-5702
타임	-5703
▁멋진	-5704
▁신선	-5705
도서관	-5706
▁아무리	-5707
▁알려주	-5708
▁전화를	-5709
▁조사하고	-5710
▁그럴	-5711
▁클라	-5712
▁제품에	-5713
▁가시	-5714
▁스티	-5715
▁재능	-5716
▁주에	-5717
형의	-5718
▁때가	-5719
▁적응	-5720
관계가	-5721
▁열었다	-5722
론을	-5723
▁김태	-5724
았는데	-5725
▁관악	-5726
▁맛이	-5727
▁참여를	-5728
고기	-5729
▁상업	-5730
▁최창	-5731
사이	-5732
▁충족	-5733
▁영화가	-5734
▁현장을	-5735
▁보입니다	-5736
▁야외	-5737
▁제정	-5738
▁일이다	-5739
▁매주	-5740
▁병역	-5741
▁성인	-5742
▁간편	-5743
▁능력이	-5744
▁가계	-5745
▁돋보	-5746
유치원	-5747
▁진행되고	-5748
트리	-5749
▁되기	-5750
▁품목	-5751
▁내용은	-5752
▁사이에서	-5753
근무	-5754
동물	-5755
박물	-5756
포럼	-5757
▁장학	-5758
▁예상되는	-5759
▁동일한	-5760
▁하거나	-5761
▁얻을	-5762
▁자발	-5763
되었고	-5764
▁소프트	-5765
▁아이를	-5766
당과	-5767
▁즐거운	-5768
▁아프리카	-5769
사법	-5770
판이	-5771
▁머리	-5772
▁유관	-5773
▁위험이	-5774
▁청와대가	-5775
CC	-5776
▁사기	-5777
▁서해	-5778
당국은	-5779
▁모으고	-5780
적으로는	-5781
망이	-5782
차별	-5783
▁봤다	-5784
▁출마	-5785
▁투어	-5786
▁기능이	-5787
▁문학	-5788
▁가이드	-5789
▁중학교	-5790
▁KB	-5791
▁아닐	-5792
▁위안	-5793
▁내다봤다	-5794
▁충격	-5795
▁치매	-5796
▁북미정상회담	-5797
▁미중	-5798
심에서	-5799
▁분석이다	-5800
배가	-5801
▁39	-5802
▁미군	-5803
▁뮤지컬	-5804
▁차량을	-5805
▁서울중앙	-5806
▁존중	-5807
▁상태에서	-5808
▁어려움이	-5809
▁붙잡	-5810
당에서	-5811
▁게임을	-5812
▁계획이	-5813
▁일정이	-5814
▁이번에는	-5815
▁죄송하지만	-5816
세에	-5817
▁몸을	-5818
▁겹	-5819
▁공통	-5820
▁신흥	-5821
신가요	-5822
아버	-5823
▁보내주	-5824
진에	-5825
▁매니	-5826
▁모은	-5827
▁물류	-5828
▁수백	-5829
▁총리가	-5830
사건	-5831
집을	-5832
▁성능	-5833
▁진흥	-5834
▁확충	-5835
▁것보다	-5836
▁회사에	-5837
님의	-5838
▁검출	-5839
▁조사한	-5840
▁주관하는	-5841
▁닫	-5842
방에	-5843
▁지상	-5844
▁한미	-5845
공업	-5846
베이	-5847
서로	-5848
▁오랫	-5849
▁심사를	-5850
▁활동이	-5851
▁공포	-5852
▁스웨	-5853
▁텐데	-5854
▁경쟁력	-5855
▁쪽으로	-5856
▁마련됐다	-5857
▁홈페이지	-5858
23	-5859
▁동해	-5860
▁입력	-5861
▁잘못된	-5862
▁예전	-5863
▁점유	-5864
▁방향을	-5865
▁정책이	-5866
▁두려	-5867
▁송파	-5868
▁성폭력	-5869
▁이하의	-5870
▁미국에서	-5871
협약	-5872
▁균형	-5873
▁너에게	-5874
▁너를	-5875
▁부처	-5876
▁한강	-5877
▁사건의	-5878
▁시민단체	-5879
le	-5880
드려	-5881
청에	-5882
▁이뤄진	-5883
▁특별히	-5884
▁국방부	-5885
▁만나는	-5886
▁필요할	-5887
여개	-5888
주행	-5889
▁비판이	-5890
▁어디에	-5891
▁오랫동안	-5892
▁위원으로	-5893
비와	-5894
▁대여	-5895
▁이래	-5896
▁내렸다	-5897
워서	-5898
▁면제	-5899
▁날씨가	-5900
▁환자가	-5901
▁김현	-5902
▁육아	-5903
▁크고	-5904
하였고	-5905
▁상환	-5906
▁저를	-5907
▁그렇지	-5908
▁영업이	-5909
▁좋겠다	-5910
5%	-5911
원장	-5912
▁하자	-5913
▁작성하여	-5914
▁격려	-5915
▁상태로	-5916
통을	-5917
▁대처	-5918
▁다루	-5919
▁것이라	-5920
▁행위를	-5921
▁번째로	-5922
▁없으면	-5923
권은	-5924
유를	-5925
▁게재	-5926
▁겪는	-5927
▁이정	-5928
▁후속	-5929
▁기온이	-5930
▁좋아요	-5931
▁시행규칙	-5932
▁그중	-5933
▁호에	-5934
▁단순히	-5935
▁때문이에요	-5936
축제	-5937
▁단기	-5938
▁사항에	-5939
▁연구원은	-5940
설이	-5941
지인	-5942
▁술을	-5943
▁지분	-5944
일자리	-5945
▁KBS	-5946
▁서울의	-5947
▁전기차	-5948
들어	-5949
디션	-5950
식에서	-5951
▁활동에	-5952
중인	-5953
▁배려	-5954
▁의존	-5955
▁일환	-5956
▁최창식	-5957
과장	-5958
평양	-5959
▁맡아	-5960
▁스튜	-5961
인들은	-5962
▁김씨는	-5963
▁문화가	-5964
▁화려한	-5965
▁되며	-5966
▁물러	-5967
▁워크	-5968
사업이	-5969
▁뉴스	-5970
▁국가대표	-5971
일보	-5972
문제	-5973
재정부	-5974
▁국내에서	-5975
방법	-5976
함과	-5977
▁내내	-5978
매매	-5979
수한	-5980
▁극단	-5981
▁무더	-5982
▁코리아	-5983
익이	-5984
▁이내로	-5985
▁인터뷰에서	-5986
▁국무위원장이	-5987
▁부작	-5988
▁열릴	-5989
▁시선을	-5990
▁않는다는	-5991
▁Y	-5992
▁시점	-5993
▁지목	-5994
센터는	-5995
▁하나가	-5996
▁행정안전	-5997
처분	-5998
▁가스	-5999
▁둔화	-6000
▁매력	-6001
▁기업을	-6002
▁진행한	-6003
▁제기됐다	-6004
▁주민들의	-6005
200	-6006
▁않기	-6007
워요	-6008
▁사찰	-6009
▁조용	-6010
▁최신	-6011
▁호와	-6012
목으로	-6013
▁생활을	-6014
▁크리스마	-6015
▁들려	-6016
▁며칠	-6017
졌지만	-6018
주시기	-6019
▁IC	-6020
▁담겼다	-6021
비로	-6022
하길	-6023
▁성실	-6024
▁익숙	-6025
▁클래	-6026
▁간호	-6027
▁모임	-6028
▁정지	-6029
▁정보가	-6030
▁회장의	-6031
면이	-6032
▁걸릴	-6033
▁김포	-6034
▁합리	-6035
시설이	-6036
▁늘어날	-6037
▁답했다	-6038
공급	-6039
▁들을	-6040
▁교통사고	-6041
버그	-6042
▁그만	-6043
▁영향이	-6044
▁준비를	-6045
▁폐기물	-6046
EC	-6047
출산	-6048
▁교과	-6049
▁에스	-6050
▁장이	-6051
▁합류	-6052
▁노동자	-6053
▁시리즈	-6054
▁최초의	-6055
▁있었는데	-6056
▁세금	-6057
▁진로	-6058
되기도	-6059
▁데이터를	-6060
▁안정적인	-6061
▁제공한다	-6062
▁멘	-6063
중국	-6064
정부가	-6065
▁나타난	-6066
▁공정거래	-6067
▁준용한다	-6068
▁중국에서	-6069
▁마지막으로	-6070
감과	-6071
▁학생들은	-6072
▁십	-6073
공사가	-6074
▁교육과	-6075
▁100%	-6076
감한	-6077
마크	-6078
▁공인	-6079
▁김종	-6080
▁유족	-6081
미디어	-6082
▁포함하여	-6083
바른	-6084
▁동기	-6085
▁아들	-6086
▁아베	-6087
기까지	-6088
은행이	-6089
▁『	-6090
으로도	-6091
▁머리를	-6092
▁종로구	-6093
▁위원이	-6094
▁기획재정부	-6095
▁원의	-6096
▁기원	-6097
▁단위	-6098
▁검사를	-6099
▁기간을	-6100
▁토요일	-6101
고등학교	-6102
놨다	-6103
▁다이	-6104
▁동참	-6105
▁방치	-6106
▁쓰레기	-6107
▁진행한다	-6108
복합	-6109
액의	-6110
프가	-6111
▁샀	-6112
임대	-6113
▁명칭	-6114
▁부채	-6115
▁임원	-6116
▁관측이	-6117
▁원인을	-6118
공공	-6119
노조	-6120
▁찍은	-6121
▁충청	-6122
▁판문	-6123
▁튀	-6124
급여	-6125
대사	-6126
래요	-6127
말을	-6128
▁일주일	-6129
▁위촉한다	-6130
번호	-6131
수행	-6132
▁본인	-6133
▁조심	-6134
▁태권	-6135
▁경쟁이	-6136
▁그리스	-6137
▁근로자	-6138
▁세계에서	-6139
보장	-6140
가지로	-6141
▁기준에	-6142
산화	-6143
▁과제	-6144
▁이명	-6145
이어서	-6146
론이	-6147
▁화학	-6148
▁있다며	-6149
▁직전	-6150
▁이들을	-6151
억원으로	-6152
▁넷	-6153
▁펀드	-6154
▁덮	-6155
남도	-6156
할지	-6157
▁마련된	-6158
▁구청장의	-6159
▁입장이다	-6160
▁꺾	-6161
현이	-6162
회관	-6163
▁43	-6164
▁목격	-6165
▁출판	-6166
레이드	-6167
▁보조금	-6168
▁부분은	-6169
▁분명히	-6170
▁페스티벌	-6171
▁학교에서	-6172
▁마주	-6173
▁소리	-6174
▁수료	-6175
산업의	-6176
▁젊은이	-6177
▁떡	-6178
▁나섰	-6179
기간이	-6180
라가	-6181
위기	-6182
풍이	-6183
▁아마존	-6184
양이	-6185
유통	-6186
▁발주	-6187
▁포럼	-6188
겠네요	-6189
▁개선을	-6190
▁경제가	-6191
지수	-6192
해왔	-6193
▁검은	-6194
▁비치	-6195
▁시사	-6196
▁전투	-6197
생활을	-6198
▁보유하고	-6199
포먼	-6200
▁메르	-6201
▁간사는	-6202
늦게	-6203
▁발사	-6204
▁임신	-6205
▁없었던	-6206
▁정규직	-6207
▁이상으로	-6208
이니	-6209
▁높이는	-6210
▁곳을	-6211
▁양측	-6212
가와	-6213
모를	-6214
▁무시	-6215
▁미팅	-6216
▁분석한	-6217
▁콩	-6218
▁성별	-6219
▁안녕	-6220
▁발언을	-6221
▁줄어든	-6222
▁흰	-6223
▁신입	-6224
▁주변에	-6225
▁확인한	-6226
▁소상공인	-6227
▁좋겠어요	-6228
▁얻어	-6229
▁영수	-6230
▁사고를	-6231
▁성장을	-6232
▁받아들이	-6233
부담	-6234
토록	-6235
▁등급	-6236
정규직	-6237
▁어떠한	-6238
▁냄새	-6239
▁미칠	-6240
▁석유	-6241
▁않으	-6242
▁저렴한	-6243
종을	-6244
▁분노	-6245
▁신임	-6246
▁미국에	-6247
▁실적이	-6248
분쟁	-6249
▁느꼈	-6250
▁살인	-6251
▁어깨	-6252
▁보고서	-6253
▁유일한	-6254
▁휩	-6255
▁3,	-6256
▁부지	-6257
▁바이어	-6258
▁본인이	-6259
▁음주운	-6260
▁최근에는	-6261
▁원내대표는	-6262
렸던	-6263
르지	-6264
티즌	-6265
100	-6266
▁과반	-6267
▁삭제	-6268
연한	-6269
▁196	-6270
구로	-6271
받침	-6272
세의	-6273
인터	-6274
▁경계	-6275
하다가	-6276
▁아름다	-6277
▁경기북부	-6278
▁콘텐츠를	-6279
차는	-6280
▁지명	-6281
만원의	-6282
였지만	-6283
▁맛있는	-6284
이상	-6285
▁나눔	-6286
▁맞지	-6287
▁소외	-6288
▁많아서	-6289
▁쇼핑몰	-6290
회와	-6291
▁감시	-6292
▁계절	-6293
▁심리	-6294
▁입원	-6295
▁기관의	-6296
▁반응이	-6297
▁부분에	-6298
▁원칙으로	-6299
인력	-6300
▁갖춰	-6301
▁날씨	-6302
▁서민	-6303
▁다음과	-6304
▁주목을	-6305
▁차량이	-6306
▁참여했다	-6307
문학	-6308
▁보좌	-6309
▁일에	-6310
▁전파	-6311
▁정규	-6312
하기를	-6313
▁마세요	-6314
▁손해배	-6315
▁정도가	-6316
리핑	-6317
▁발령	-6318
▁제도를	-6319
▁지역경제	-6320
▁상용	-6321
▁금액을	-6322
▁듯한	-6323
▁방영	-6324
▁수사가	-6325
▁협상이	-6326
▁을	-6327
렉시	-6328
▁당직	-6329
▁대외	-6330
▁학술	-6331
▁맑	-6332
리면	-6333
▁건너	-6334
▁물이	-6335
▁추모	-6336
지역의	-6337
▁연락을	-6338
터가	-6339
터를	-6340
▁뒤를	-6341
▁만료	-6342
▁주지	-6343
▁창작	-6344
부로	-6345
었기	-6346
▁돌입	-6347
▁지닌	-6348
▁폭로	-6349
▁공약	-6350
▁과정에	-6351
골을	-6352
▁대한항공	-6353
주와	-6354
▁매월	-6355
▁과정이	-6356
▁국민이	-6357
▁부장판	-6358
▁자리가	-6359
▁섞	-6360
수석	-6361
위탁	-6362
▁오프	-6363
▁의장	-6364
▁재발	-6365
데이트	-6366
콘텐츠	-6367
▁하는지	-6368
▁그렇다면	-6369
▁두산	-6370
▁무상	-6371
▁보행	-6372
▁된다고	-6373
▁빅데이터	-6374
▁새해	-6375
▁공간이	-6376
▁기업에	-6377
▁스웨덴	-6378
▁패스트	-6379
▁한국문화	-6380
▁등도	-6381
관계를	-6382
국인	-6383
안과	-6384
치로	-6385
▁높게	-6386
▁신문	-6387
▁지내	-6388
▁진상	-6389
▁없는데	-6390
▁48	-6391
▁어때	-6392
▁전원	-6393
▁청약	-6394
결과를	-6395
▁상태가	-6396
▁영화는	-6397
▁집으로	-6398
▁테이블	-6399
▁널리	-6400
▁발효	-6401
▁시가	-6402
▁휴가	-6403
▁도지사	-6404
률은	-6405
질의	-6406
▁권리	-6407
▁냈다	-6408
▁이게	-6409
▁치러	-6410
▁지정된	-6411
료의	-6412
▁갤럭시	-6413
▁일어난	-6414
▁투자가	-6415
▁장식	-6416
카르타	-6417
견을	-6418
고는	-6419
▁매매	-6420
▁정식	-6421
▁얘기다	-6422
만여	-6423
▁노무	-6424
▁매달	-6425
▁키워	-6426
▁내놓은	-6427
∼201	-6428
▁급여	-6429
▁본격화	-6430
IT	-6431
▁위촉직	-6432
▁최우수	-6433
▁떨어지는	-6434
▁실시하고	-6435
▁만났	-6436
▁칭	-6437
와는	-6438
▁반박	-6439
▁받는다	-6440
▁증가했다	-6441
평균	-6442
▁부착	-6443
▁순위	-6444
▁그에게	-6445
▁소규모	-6446
▁생각하고	-6447
▁꼼	-6448
▁고향	-6449
▁맡고	-6450
▁문건	-6451
▁지사	-6452
▁무대에	-6453
▁시간은	-6454
통합	-6455
▁관여	-6456
▁항소	-6457
▁관리에	-6458
▁네티즌	-6459
▁아버지	-6460
인들에게	-6461
▁선정됐다	-6462
▁주기	-6463
▁않아서	-6464
▁퍼포먼	-6465
적한	-6466
▁무려	-6467
▁늘었다	-6468
▁당분간	-6469
▁증상이	-6470
▁포스코	-6471
▁재판부는	-6472
▁닭	-6473
하러	-6474
▁광진	-6475
▁남양	-6476
28	-6477
종이	-6478
▁화물	-6479
통상	-6480
▁천연	-6481
었으나	-6482
▁치열한	-6483
▁대중교통	-6484
▁세계적으로	-6485
1)	-6486
▁PC	-6487
▁개통	-6488
▁공원	-6489
▁현황	-6490
▁한계가	-6491
렸고	-6492
졌던	-6493
▁발생해	-6494
▁즐기는	-6495
▁자카르타	-6496
▁드리겠습니다	-6497
말로	-6498
▁싫어	-6499
▁목숨을	-6500
▁잦	-6501
공장	-6502
아동	-6503
짜리	-6504
▁대통령을	-6505
MW	-6506
▁붉	-6507
▁빌려	-6508
▁자금을	-6509
▁연구개발	-6510
마자	-6511
지난	-6512
▁스위	-6513
▁일방	-6514
▁닿	-6515
▁사유로	-6516
▁구직	-6517
▁독특한	-6518
▁사용자가	-6519
얀마	-6520
리면서	-6521
▁금메달	-6522
▁넘치는	-6523
▁뒷받침	-6524
▁하나님의	-6525
▁통보하여야	-6526
놓고	-6527
느라	-6528
▁시공	-6529
▁실질적인	-6530
유아	-6531
화는	-6532
▁강아	-6533
▁캠프	-6534
▁조례에서	-6535
FA	-6536
폐기물	-6537
▁되도록	-6538
▁가질	-6539
▁곧바로	-6540
▁동영상	-6541
▁않을까	-6542
▁훌륭한	-6543
▁만들어진	-6544
▁공시	-6545
▁선적	-6546
했는지	-6547
됐습니다	-6548
위원회에	-6549
▁업데이트	-6550
지검	-6551
▁골목	-6552
▁서구	-6553
▁찾기	-6554
동조합	-6555
▁무엇이	-6556
▁성폭행	-6557
▁의정부	-6558
▁법원행정	-6559
▁성공적으로	-6560
▁갖는	-6561
▁기대가	-6562
▁상무	-6563
▁세입	-6564
▁아울	-6565
▁연수	-6566
▁절감	-6567
▁화가	-6568
결정	-6569
▁위축	-6570
▁국무총	-6571
▁성적을	-6572
▁심지어	-6573
▁이같은	-6574
▁정책에	-6575
곳이	-6576
품이	-6577
pop	-6578
▁뮤직	-6579
▁색깔	-6580
▁없기	-6581
▁접속	-6582
문화재	-6583
▁세월호	-6584
로그	-6585
소한	-6586
▁당해	-6587
▁국가가	-6588
▁형태의	-6589
분석	-6590
야구	-6591
업에	-6592
전과	-6593
▁라인	-6594
도지사	-6595
심으로	-6596
루킹	-6597
▁기무	-6598
하기가	-6599
▁다르게	-6600
▁모니터링	-6601
90	-6602
▁내지	-6603
▁유사	-6604
▁기록을	-6605
▁달라고	-6606
▁작업이	-6607
▁협력을	-6608
▁펴	-6609
스토랑	-6610
▁당연직	-6611
▁되면서	-6612
▁주민이	-6613
▁깊이	-6614
▁당한	-6615
▁에너	-6616
▁이어진	-6617
▁회사는	-6618
영리	-6619
카이	-6620
ing	-6621
▁수행할	-6622
▁벌금	-6623
▁예외	-6624
▁획득	-6625
▁MBC	-6626
▁속도가	-6627
▁음식이	-6628
바지	-6629
▁융합	-6630
▁방안이	-6631
▁인정되는	-6632
26	-6633
▁힐	-6634
권과	-6635
▁몸이	-6636
▁중국과	-6637
▁담당하는	-6638
▁되길	-6639
▁받기	-6640
▁왼쪽	-6641
▁입찰	-6642
▁값	-6643
뱅크	-6644
요금	-6645
▁붕괴	-6646
▁승객	-6647
▁벌이고	-6648
▁보내는	-6649
▁훈	-6650
시키기	-6651
▁방식을	-6652
▁소송을	-6653
▁역량을	-6654
▁t	-6655
정비	-6656
해줄	-6657
▁김용	-6658
▁퇴근	-6659
▁종종	-6660
▁산정	-6661
▁다음에	-6662
▁수준을	-6663
▁언제나	-6664
▁예산이	-6665
▁원인이	-6666
▁이곳은	-6667
▁경기도내	-6668
▁국민연금	-6669
밀한	-6670
·18	-6671
▁아침에	-6672
나게	-6673
▁적절	-6674
▁체납	-6675
▁발견된	-6676
▁틈	-6677
▁놀이	-6678
▁회의에	-6679
ou	-6680
회로	-6681
▁나오지	-6682
치에	-6683
화학	-6684
▁댄스	-6685
▁올랐	-6686
▁한마	-6687
화하는	-6688
▁아니지만	-6689
장비	-6690
▁시에	-6691
▁무엇인지	-6692
▁어렵다는	-6693
▁44	-6694
▁불어	-6695
▁여겨	-6696
▁이주	-6697
방안을	-6698
▁쏠리고	-6699
▁음료	-6700
센터의	-6701
▁들어오	-6702
가정	-6703
파가	-6704
▁받았습니다	-6705
▁르	-6706
미는	-6707
▁방해	-6708
▁규모로	-6709
▁엄청난	-6710
▁2006	-6711
유산	-6712
▁할지	-6713
▁배우고	-6714
▁병원에	-6715
▁사건에	-6716
▁팝	-6717
색이	-6718
심한	-6719
편이	-6720
▁아쉽	-6721
▁오면	-6722
▁우울	-6723
이라서	-6724
▁위원회에	-6725
기반	-6726
사람	-6727
소통	-6728
▁강연	-6729
▁유행	-6730
▁가격은	-6731
▁많습니다	-6732
▁지원하고	-6733
▁몰랐	-6734
▁소설	-6735
▁아예	-6736
▁증언	-6737
자료를	-6738
▁이미지를	-6739
∼4	-6740
양의	-6741
준이	-6742
체에	-6743
▁대우	-6744
▁조달	-6745
▁주한	-6746
호서식	-6747
▁사용을	-6748
▁사업이다	-6749
▁넓은	-6750
▁영역	-6751
▁함은	-6752
▁마련한	-6753
▁올라가	-6754
▁협상을	-6755
▁레스토랑	-6756
▁촉구했다	-6757
▁빵	-6758
▁과목	-6759
▁구제	-6760
▁뷰티	-6761
▁손흥민	-6762
▁지사가	-6763
▁법안	-6764
▁앞장	-6765
▁창조	-6766
하기에	-6767
▁경우를	-6768
▁문화체육	-6769
차량	-6770
▁전수	-6771
▁진보	-6772
어린이	-6773
▁느끼는	-6774
▁다섯	-6775
▁스피	-6776
▁오지	-6777
▁우주	-6778
시장의	-6779
▁참가한	-6780
▁찾아가	-6781
▁지적이다	-6782
간다	-6783
▁근육	-6784
▁많지	-6785
▁120	-6786
▁기아	-6787
▁김지	-6788
▁대다	-6789
▁돌봄	-6790
하지는	-6791
▁안전관리	-6792
▁문자	-6793
▁실시하는	-6794
여야	-6795
▁성사	-6796
▁쉬운	-6797
▁보내고	-6798
▁인정할	-6799
▁제시한	-6800
▁하여금	-6801
확인	-6802
▁수렴	-6803
FC	-6804
연대	-6805
▁내게	-6806
▁유망	-6807
▁인명	-6808
기간을	-6809
▁차세대	-6810
▁범행	-6811
▁체감	-6812
▁오른쪽	-6813
9)	-6814
친다	-6815
▁막을	-6816
▁조각	-6817
▁국무장	-6818
▁입장이	-6819
준비	-6820
▁솔루	-6821
▁쓰러	-6822
▁피아	-6823
▁너무나	-6824
▁사례를	-6825
▁현재의	-6826
▁지원대상	-6827
▁부위원장은	-6828
et	-6829
낸다	-6830
▁생길	-6831
▁끌었다	-6832
편의	-6833
▁가요	-6834
▁유동	-6835
▁탑재	-6836
▁피곤	-6837
▁종전선언	-6838
마켓	-6839
세한	-6840
자문	-6841
▁55	-6842
▁탄력	-6843
▁끝나고	-6844
▁준비한	-6845
▁객관	-6846
▁그날	-6847
▁누적	-6848
▁둘째	-6849
▁최악	-6850
▁아니고	-6851
▁요청한	-6852
▁작품이	-6853
▁친구들이	-6854
▁얻은	-6855
▁유아	-6856
▁창립	-6857
보세요	-6858
회에는	-6859
▁사무를	-6860
▁늘어나고	-6861
▁마련했다	-6862
간에	-6863
배우	-6864
▁멀리	-6865
▁전직	-6866
었으며	-6867
▁높았다	-6868
▁발전에	-6869
계에	-6870
▁경력	-6871
▁입금	-6872
▁취급	-6873
▁한해	-6874
▁계속해서	-6875
▁주최하고	-6876
▁무죄	-6877
▁아무런	-6878
▁사업으로	-6879
▁성추	-6880
▁시중	-6881
▁진정	-6882
▁미얀마	-6883
▁적합한	-6884
되었으며	-6885
▁제외하고는	-6886
-1	-6887
▁김진	-6888
▁준다	-6889
▁프레	-6890
▁정보통신	-6891
▁원내대표가	-6892
천여	-6893
▁다수의	-6894
▁전략을	-6895
▁소비자가	-6896
장기	-6897
▁끊임	-6898
▁말할	-6899
관리를	-6900
▁강화를	-6901
크를	-6902
▁무기	-6903
▁기관이	-6904
▁무대를	-6905
▁개최한다	-6906
군에	-6907
▁외무	-6908
▁전후	-6909
사업은	-6910
▁켜	-6911
▁김해	-6912
▁조명	-6913
▁하노이	-6914
▁보여준다	-6915
▁왔습니다	-6916
케어	-6917
화한	-6918
▁완전	-6919
▁은퇴	-6920
▁주재	-6921
▁파괴	-6922
▁자료에	-6923
▁배정	-6924
라스틱	-6925
▁방법은	-6926
▁알리는	-6927
▁개최했다	-6928
▁들어가는	-6929
견이	-6930
았다고	-6931
정책을	-6932
하나요	-6933
▁당연히	-6934
▁현재는	-6935
▁후에는	-6936
▁요청했다	-6937
▁측면에서	-6938
he	-6939
▁능력	-6940
▁부르	-6941
▁이자	-6942
▁장난	-6943
▁치킨	-6944
▁대체로	-6945
▁이미지	-6946
▁2022	-6947
▁사용하고	-6948
구에서	-6949
▁600	-6950
▁위탁할	-6951
▁태양광	-6952
▁쥐	-6953
문의	-6954
▁고시	-6955
▁끈다	-6956
▁부천	-6957
▁생일	-6958
사회의	-6959
▁사용해	-6960
▁마찬가지로	-6961
22	-6962
부산	-6963
▁구미	-6964
▁김상	-6965
▁갖추고	-6966
▁우즈베	-6967
하더라도	-6968
청년	-6969
▁가상	-6970
▁달아	-6971
홀에서	-6972
▁금융감독	-6973
-0	-6974
파이	-6975
▁다운	-6976
▁메모	-6977
▁테러	-6978
▁확인했다	-6979
▁웨	-6980
▁고조	-6981
▁모범	-6982
▁아우	-6983
용으로	-6984
하자는	-6985
▁드립니다	-6986
▁한국어를	-6987
성한	-6988
▁무한	-6989
▁이수	-6990
▁컸다	-6991
▁파주	-6992
▁협업	-6993
▁보고서를	-6994
35	-6995
점과	-6996
▁비대	-6997
▁대표의	-6998
▁생각에	-6999
▁중국에	-7000
▁‘2019	-7001
미널	-7002
▁EU	-7003
▁팀을	-7004
체계를	-7005
▁근처에	-7006
▁추진을	-7007
▁추진한다	-7008
림을	-7009
전문가	-7010
▁말까지	-7011
▁중에는	-7012
석의	-7013
연도	-7014
점의	-7015
▁모인	-7016
▁무관	-7017
▁비싸	-7018
▁조현	-7019
▁기업과	-7020
▁기상청은	-7021
▁중입니다	-7022
▁노트	-7023
▁사퇴	-7024
▁애초	-7025
▁해수	-7026
▁다채	-7027
▁수거	-7028
▁역량	-7029
웠던	-7030
▁119	-7031
▁아니라는	-7032
▁맹	-7033
대행	-7034
▁공화	-7035
▁대피	-7036
▁마침	-7037
▁평창	-7038
▁가족과	-7039
▁밖으로	-7040
▁이익을	-7041
▁조치가	-7042
▁느낀	-7043
▁서식	-7044
▁영등	-7045
대문구	-7046
▁노하우	-7047
▁않았던	-7048
ion	-7049
▁가짜	-7050
▁고성	-7051
▁실업	-7052
▁압도	-7053
▁목표를	-7054
▁관찰	-7055
▁브렉시	-7056
▁이곳에서	-7057
PG	-7058
북도	-7059
절을	-7060
▁안심	-7061
지역에	-7062
▁지금도	-7063
셨다	-7064
져서	-7065
▁46	-7066
▁마시	-7067
▁탄핵	-7068
▁공시가	-7069
▁불편을	-7070
▁의지가	-7071
시장에서	-7072
탄을	-7073
항이	-7074
▁잠을	-7075
▁시기에	-7076
▁의장은	-7077
공정	-7078
히고	-7079
▁남한	-7080
▁떠난	-7081
▁심한	-7082
▁음성	-7083
자연	-7084
패를	-7085
▁가공	-7086
▁서버	-7087
▁선제	-7088
▁임기	-7089
▁영화의	-7090
▁조금씩	-7091
▁2005	-7092
▁이뤄지지	-7093
▁e	-7094
▁면역	-7095
▁중부	-7096
▁홈런	-7097
▁서울시가	-7098
체로	-7099
키로	-7100
▁몰아	-7101
▁신호	-7102
▁의식	-7103
▁헤어	-7104
▁회사에서	-7105
▁대량	-7106
▁몇몇	-7107
이었던	-7108
해지는	-7109
▁승리를	-7110
▁요구할	-7111
법은	-7112
▁국경	-7113
▁급등	-7114
▁금요일	-7115
▁사용자	-7116
▁요구가	-7117
▁이처럼	-7118
▁동생	-7119
▁일고	-7120
▁것이고	-7121
▁참여하고	-7122
재는	-7123
▁어른	-7124
▁이집	-7125
▁사건은	-7126
▁이곳에	-7127
▁진행했다	-7128
▁대목	-7129
▁밀집	-7130
▁적어	-7131
는데요	-7132
▁모았다	-7133
▁일환으로	-7134
▁층	-7135
▁내외	-7136
▁이거	-7137
중소기업	-7138
실과	-7139
위와	-7140
키는	-7141
퍼런	-7142
부에서	-7143
▁거리가	-7144
▁나한테	-7145
▁높이기	-7146
▁아름답	-7147
▁커질	-7148
▁휴대폰	-7149
아웃	-7150
▁끝내	-7151
▁배가	-7152
▁소형	-7153
사들의	-7154
▁하더라도	-7155
▁달에	-7156
▁인적	-7157
▁편집	-7158
▁작성한	-7159
양을	-7160
▁감축	-7161
▁도가	-7162
▁수시로	-7163
▁살펴보면	-7164
신의	-7165
평을	-7166
▁마이	-7167
▁재료	-7168
▁관련이	-7169
▁규칙은	-7170
▁리스트	-7171
▁시민들의	-7172
아요	-7173
협상	-7174
▁그걸	-7175
▁소환	-7176
그룹이	-7177
▁김씨가	-7178
▁비행기	-7179
▁인간의	-7180
▁인하여	-7181
▁카드를	-7182
AI	-7183
▁곁	-7184
.0%	-7185
국에서	-7186
시장을	-7187
▁그림을	-7188
▁나타났	-7189
▁법원이	-7190
▁서초구	-7191
▁이상인	-7192
▁디스플레이	-7193
국과	-7194
▁걸린	-7195
▁런던	-7196
▁무릎	-7197
▁연관	-7198
▁재직	-7199
▁폭력	-7200
▁해명	-7201
▁위기에	-7202
중이	-7203
씨에게	-7204
▁과도한	-7205
▁장면이	-7206
▁발생하지	-7207
▁유형	-7208
계약을	-7209
할게요	-7210
▁매력을	-7211
▁행동을	-7212
▁확실히	-7213
▁기업들의	-7214
▁시작됐다	-7215
▁있었어요	-7216
결이	-7217
학의	-7218
▁42	-7219
▁남겨	-7220
▁높고	-7221
▁비례	-7222
연합회	-7223
▁있었다고	-7224
▁증가하는	-7225
▁잉	-7226
헨티	-7227
▁담고	-7228
▁한때	-7229
해졌다	-7230
▁지역이	-7231
▁손해배상	-7232
▁카카오톡	-7233
세포	-7234
일본	-7235
▁부득	-7236
▁속도	-7237
▁선물을	-7238
▁전반에	-7239
45	-7240
달아	-7241
어는	-7242
▁사후	-7243
▁조별	-7244
들과의	-7245
▁버스를	-7246
▁사장이	-7247
▁협의를	-7248
▁디자이너	-7249
본다	-7250
악한	-7251
▁물리	-7252
▁전형	-7253
▁해상	-7254
▁비트	-7255
▁보면서	-7256
▁사회의	-7257
하였으며	-7258
▁가능하며	-7259
▁비정규직	-7260
사태	-7261
▁이내의	-7262
▁관리하는	-7263
▁돕는	-7264
▁용역	-7265
▁주가	-7266
▁70%	-7267
▁소중한	-7268
▁진정한	-7269
▁뚫	-7270
▁찍어	-7271
▁꼽힌다	-7272
▁사정이	-7273
경은	-7274
닝썬	-7275
▁배상	-7276
▁세탁	-7277
▁씨의	-7278
▁이스	-7279
▁곳곳에	-7280
▁차원의	-7281
▁내야	-7282
▁먹어	-7283
▁엘리	-7284
▁좌우	-7285
▁특유의	-7286
▁포인트	-7287
들로부터	-7288
(8	-7289
시쯤	-7290
▁가량	-7291
시장은	-7292
▁다이어	-7293
▁얼굴을	-7294
▁정의당	-7295
라의	-7296
았을	-7297
▁담배	-7298
▁영장	-7299
▁종이	-7300
▁한진	-7301
▁금융당	-7302
▁백악관	-7303
▁준비가	-7304
▁들어갔다	-7305
뒀다	-7306
▁된다면	-7307
대응	-7308
▁벌인	-7309
▁복구	-7310
▁미래에	-7311
▁반대로	-7312
▁주차장	-7313
▁우즈베키스탄	-7314
색을	-7315
▁데는	-7316
▁초래	-7317
▁세미나	-7318
들에게는	-7319
비전	-7320
▁농협	-7321
▁답변을	-7322
▁사용이	-7323
▁정부에	-7324
절차	-7325
▁무산	-7326
▁나라의	-7327
▁원장은	-7328
▁향상을	-7329
▁복원	-7330
▁송금	-7331
▁즉각	-7332
▁대해선	-7333
▁또다시	-7334
▁사이의	-7335
▁언급한	-7336
▁인구가	-7337
▁정상이	-7338
로의	-7339
▁그랬	-7340
▁부각	-7341
내용	-7342
▁강좌	-7343
▁결의	-7344
▁김민	-7345
▁김재	-7346
▁진화	-7347
▁컬러	-7348
▁태극	-7349
▁기여할	-7350
▁문제의	-7351
▁소리가	-7352
▁이후에	-7353
▁협의회	-7354
▁확대를	-7355
▁사실이다	-7356
▁봐야	-7357
▁리스크	-7358
▁판매가	-7359
MZ	-7360
∼5	-7361
받지	-7362
신문	-7363
청의	-7364
▁대답	-7365
▁시달	-7366
▁중기	-7367
된다면	-7368
▁북한에	-7369
▁인스타	-7370
▁사회적경제	-7371
7)	-7372
▁앓	-7373
분께	-7374
▁별도	-7375
▁전세	-7376
별로는	-7377
▁논란을	-7378
▁마스크	-7379
▁외교부	-7380
정보통신	-7381
▁삼성전자가	-7382
노인	-7383
라엘	-7384
▁보지	-7385
▁세운	-7386
▁제기한	-7387
▁특성을	-7388
슬람	-7389
영의	-7390
▁없애	-7391
▁중동	-7392
▁하천	-7393
만원이	-7394
선에서	-7395
진흥원	-7396
범위	-7397
▁거세	-7398
▁주제	-7399
▁개인의	-7400
▁연락이	-7401
ol	-7402
물류	-7403
▁김병	-7404
▁도움	-7405
▁장려	-7406
선으로	-7407
▁강서구	-7408
▁경찰의	-7409
▁상태를	-7410
▁수준이	-7411
스테	-7412
처는	-7413
▁부부	-7414
▁잡은	-7415
님께서	-7416
▁비영리	-7417
▁종류의	-7418
▁최소한	-7419
농단	-7420
지다	-7421
▁비싼	-7422
▁80%	-7423
▁조금만	-7424
▁지원하기	-7425
▁문화체육관광	-7426
생명	-7427
월말	-7428
▁김치	-7429
▁작곡	-7430
▁주문한	-7431
공유	-7432
데이	-7433
삼성	-7434
▁듣는	-7435
▁임용	-7436
▁통행	-7437
▁안타까	-7438
▁유사한	-7439
▁해마다	-7440
▁핸드폰	-7441
▁클라우드	-7442
▁냈	-7443
▁셔	-7444
두로	-7445
아의	-7446
음에	-7447
▁방사	-7448
▁설비	-7449
▁구청장	-7450
석은	-7451
▁명을	-7452
▁관리가	-7453
▁별다른	-7454
▁미니	-7455
▁배당	-7456
▁투수	-7457
▁프로그램은	-7458
▁떼	-7459
▁대안	-7460
▁번호	-7461
▁부활	-7462
▁신앙	-7463
▁양승	-7464
▁열려	-7465
▁하니	-7466
▁매니저	-7467
▁주장을	-7468
박람	-7469
▁깜짝	-7470
▁첫날	-7471
방에서	-7472
▁SBS	-7473
▁국가의	-7474
▁장점이	-7475
▁민주노총	-7476
화문	-7477
▁갖게	-7478
▁구의	-7479
▁농가	-7480
▁시설의	-7481
▁이름은	-7482
IA	-7483
미터	-7484
보자	-7485
수원	-7486
▁날부터	-7487
▁인상을	-7488
▁최근에	-7489
▁가능한가요	-7490
원도	-7491
▁합병	-7492
▁가져다	-7493
▁것들이	-7494
▁교육이	-7495
▁일본에서	-7496
션이	-7497
▁귀국	-7498
▁목사	-7499
기에는	-7500
▁뒤늦게	-7501
▁스케줄	-7502
▁고려하면	-7503
▁엇	-7504
술을	-7505
까지의	-7506
▁나가는	-7507
▁일본이	-7508
▁서울에서	-7509
▁섭취	-7510
▁이로	-7511
▁재생	-7512
▁중독	-7513
▁출국	-7514
▁규제를	-7515
▁기준이	-7516
▁병원으로	-7517
금지	-7518
▁이송	-7519
▁그나마	-7520
▁협약을	-7521
렸을	-7522
시각	-7523
▁간부	-7524
▁건강을	-7525
위원장이	-7526
▁자율주행	-7527
▁취약계층	-7528
▁가능하도록	-7529
el	-7530
▁보러	-7531
▁크로	-7532
기술을	-7533
▁급격히	-7534
▁보여준	-7535
▁아니한	-7536
▁역사적	-7537
▁정상회담이	-7538
리포	-7539
물과	-7540
법상	-7541
추가	-7542
▁고의	-7543
▁엄격	-7544
▁이렇	-7545
▁절실	-7546
▁지침	-7547
메이션	-7548
하기는	-7549
▁사실은	-7550
▁얘기를	-7551
▁아르헨티	-7552
3)	-7553
법원	-7554
▁선배	-7555
국으로	-7556
▁곳곳에서	-7557
▁공중	-7558
▁관심과	-7559
▁기업은	-7560
▁성과가	-7561
▁영어로	-7562
▁부위원장	-7563
인천광역시	-7564
▁앤	-7565
내가	-7566
▁잊지	-7567
▁즐겨	-7568
▁상품이	-7569
위원회에서	-7570
캠프	-7571
▁경과	-7572
▁드는	-7573
▁몸에	-7574
바이트	-7575
지원을	-7576
▁끝까지	-7577
▁아들이	-7578
▁여기는	-7579
▁임직원	-7580
한국시간	-7581
▁판매하는	-7582
드의	-7583
르기	-7584
백을	-7585
실적	-7586
▁조사에	-7587
▁펼쳐진다	-7588
면적	-7589
치며	-7590
▁국세	-7591
▁나쁜	-7592
▁메인	-7593
▁수면	-7594
▁이영	-7595
▁주실	-7596
▁상담을	-7597
▁친구와	-7598
모가	-7599
▁요소	-7600
▁시대에	-7601
▁부정적인	-7602
▁소득주도	-7603
▁아니한다	-7604
▁아시아나	-7605
▁관계자들이	-7606
▁낯	-7607
수입	-7608
재해	-7609
▁접어	-7610
▁진학	-7611
트에서	-7612
▁걸그룹	-7613
▁기존에	-7614
▁올바른	-7615
▁있거나	-7616
▁호응을	-7617
▁도중	-7618
▁믿고	-7619
▁보며	-7620
▁비율	-7621
▁위생	-7622
▁점포	-7623
▁갈등을	-7624
▁아울러	-7625
▁않았다는	-7626
▁짙	-7627
▁발간	-7628
▁택배	-7629
월드컵	-7630
ha	-7631
수당	-7632
팀을	-7633
▁도의	-7634
▁서서	-7635
▁추산	-7636
▁드러난	-7637
▁워크숍	-7638
▁하나인	-7639
▁요구했다	-7640
▁낫	-7641
끄러	-7642
누리	-7643
만간	-7644
▁면담	-7645
▁배터리	-7646
▁친구를	-7647
본을	-7648
실장	-7649
▁장을	-7650
▁이해할	-7651
▁판문점	-7652
▁엉	-7653
기자	-7654
정치	-7655
트넘	-7656
▁상가	-7657
▁스페	-7658
▁연봉	-7659
▁한데	-7660
관에게	-7661
▁논의를	-7662
▁이뤄졌다	-7663
연히	-7664
줘야	-7665
폭이	-7666
▁납품	-7667
▁들은	-7668
▁해체	-7669
▁스크린	-7670
▁시작해	-7671
▁의장이	-7672
▁일요일	-7673
▁신용카드	-7674
▁땀	-7675
보에	-7676
▁야간	-7677
▁전라	-7678
▁챙겨	-7679
▁청원	-7680
▁뼈	-7681
▁응시	-7682
▁조리	-7683
공동체	-7684
▁방식이	-7685
▁브리핑	-7686
▁감안하면	-7687
▁아니라고	-7688
급식	-7689
별지	-7690
선은	-7691
▁겨냥	-7692
▁빨간	-7693
▁연동	-7694
▁인쇄	-7695
▁총리	-7696
▁가능성은	-7697
▁건강보험	-7698
▁인스타그램	-7699
것도	-7700
방안	-7701
▁추적	-7702
▁패키	-7703
보수	-7704
▁유포	-7705
▁착공	-7706
정보를	-7707
▁고속도로	-7708
▁일자리가	-7709
부처	-7710
▁분이	-7711
▁제목	-7712
▁청주	-7713
▁코너	-7714
하였을	-7715
▁다행히	-7716
▁드러냈다	-7717
▁사용하지	-7718
▁빙	-7719
핑크	-7720
▁꼼꼼	-7721
▁장례	-7722
▁한반	-7723
▁들어갈	-7724
▁소리를	-7725
▁정보화	-7726
▁보여주고	-7727
매를	-7728
▁방어	-7729
▁인건	-7730
▁합의를	-7731
▁수행하는	-7732
가량	-7733
실의	-7734
▁연임	-7735
▁제게	-7736
▁조회	-7737
▁차이	-7738
▁털어	-7739
▁기금운용	-7740
▁모습으로	-7741
▁셰	-7742
아트	-7743
카데	-7744
▁거두	-7745
▁아까	-7746
▁워낙	-7747
▁맛을	-7748
▁점에	-7749
▁해운	-7750
했다가	-7751
▁위해선	-7752
▁특성상	-7753
▁데려	-7754
▁베네	-7755
▁실정	-7756
▁파리	-7757
▁이명박	-7758
▁교육부	-7759
▁끌어올	-7760
▁사이버	-7761
▁안전하게	-7762
▁주민등록	-7763
센트	-7764
았어	-7765
▁대립	-7766
▁신축	-7767
▁항의	-7768
십니다	-7769
▁느낌이	-7770
결제	-7771
스턴	-7772
▁번도	-7773
▁불을	-7774
▁장점	-7775
▁법무부	-7776
▁수익을	-7777
▁식으로	-7778
▁기대감이	-7779
▁발견됐다	-7780
▁수탁자는	-7781
▁좋겠습니다	-7782
계는	-7783
끼리	-7784
놓은	-7785
▁누리	-7786
▁명품	-7787
▁무리	-7788
온다	-7789
출을	-7790
▁차기	-7791
기관과	-7792
▁권리를	-7793
▁시험을	-7794
▁지역으로	-7795
▁보고하여야	-7796
8)	-7797
박스	-7798
▁타당	-7799
억원에	-7800
하라는	-7801
▁주가가	-7802
▁전국에서	-7803
▁팽	-7804
▁낮추	-7805
▁수의	-7806
▁여당	-7807
▁늘어나는	-7808
▁이스라엘	-7809
▁캘	-7810
장인	-7811
정신	-7812
진핑	-7813
▁비록	-7814
▁자립	-7815
▁패널	-7816
되는데	-7817
어지고	-7818
옵니다	-7819
▁감사를	-7820
37	-7821
▁47	-7822
▁기쁨	-7823
▁수질	-7824
▁위법	-7825
▁의도	-7826
▁공동체	-7827
▁오래된	-7828
과학기술	-7829
▁옹	-7830
장한	-7831
▁입국	-7832
▁책임이	-7833
36	-7834
규제	-7835
면의	-7836
파로	-7837
▁감상	-7838
▁강요	-7839
▁금강	-7840
▁남긴	-7841
▁이례	-7842
▁문화의	-7843
▁위주로	-7844
▁장에게	-7845
▁필요로	-7846
ac	-7847
▁기증	-7848
▁내릴	-7849
▁무용	-7850
▁신발	-7851
▁지진	-7852
▁시책을	-7853
▁유일하게	-7854
렬한	-7855
▁건데	-7856
▁없게	-7857
▁원이	-7858
▁유효	-7859
거든요	-7860
▁조사가	-7861
▁도시재생	-7862
▁전문가들이	-7863
∼6	-7864
어촌	-7865
▁250	-7866
▁경찰과	-7867
▁지적도	-7868
회에서는	-7869
▁경기도에	-7870
▁쫓	-7871
등이	-7872
▁수험	-7873
▁시위	-7874
▁유의	-7875
▁폭이	-7876
▁철저한	-7877
NG	-7878
▁쳐	-7879
접한	-7880
▁적립	-7881
▁사람과	-7882
▁의혹에	-7883
▁철저히	-7884
구속	-7885
리즘	-7886
▁구상	-7887
▁안양	-7888
▁이걸	-7889
▁이의	-7890
▁선호하는	-7891
▁2,000	-7892
니가	-7893
록을	-7894
비에	-7895
▁가격에	-7896
▁안전을	-7897
▁앙	-7898
서도	-7899
지대	-7900
▁블루	-7901
문화를	-7902
▁오피스	-7903
▁재활용	-7904
▁포함한다	-7905
봉투	-7906
▁개척	-7907
▁미흡	-7908
▁재밌	-7909
계획에	-7910
▁혐의가	-7911
통상자원	-7912
▁플라스틱	-7913
▁갔다	-7914
▁묻는	-7915
▁방문하는	-7916
▁소개했다	-7917
▁차지하고	-7918
es	-7919
▁납세	-7920
▁바뀐	-7921
▁실효	-7922
거리가	-7923
으니까	-7924
▁성적이	-7925
▁인식이	-7926
▁참가해	-7927
달라	-7928
르크	-7929
자도	-7930
▁김수	-7931
▁높여	-7932
▁선포	-7933
교육감	-7934
▁에어컨	-7935
벤처기업	-7936
▁자동으로	-7937
▁대통령에게	-7938
▁뒤로	-7939
▁미뤄	-7940
▁거라고	-7941
▁성범죄	-7942
▁화제를	-7943
▁유럽연합	-7944
매가	-7945
축산	-7946
▁축산	-7947
금으로	-7948
성으로	-7949
▁음식은	-7950
▁중국은	-7951
▁화웨이	-7952
AR	-7953
ed	-7954
년째	-7955
세는	-7956
300	-7957
▁뒤집	-7958
▁말에	-7959
▁비리	-7960
▁여유	-7961
▁원자	-7962
▁한식	-7963
▁경비를	-7964
▁역할이	-7965
▁일하고	-7966
▁자세한	-7967
▁조만간	-7968
▁중국을	-7969
▁협조를	-7970
▁쏘	-7971
▁칸	-7972
▁갑작	-7973
▁3·1	-7974
▁40%	-7975
▁거래가	-7976
▁이슬람	-7977
▁화재가	-7978
▁국민들이	-7979
▁스튜디오	-7980
터테인먼트	-7981
▁가속	-7982
▁어쩔	-7983
▁파손	-7984
▁개발을	-7985
▁경향이	-7986
▁기간에	-7987
▁메이저	-7988
▁검토하고	-7989
5)	-7990
군을	-7991
드에	-7992
방지	-7993
타를	-7994
▁가려	-7995
▁구단	-7996
▁드론	-7997
▁말은	-7998
▁손상	-7999
▁이룬	-8000
▁한창	-8001
▁간단한	-8002
▁지속가능	-8003
즈가	-8004
▁팀의	-8005
▁시진핑	-8006
▁아이폰	-8007
▁총리는	-8008
▁명령	-8009
▁문서	-8010
▁선보인	-8011
▁영상이	-8012
▁조성을	-8013
▁허가를	-8014
▁통지하여야	-8015
TS	-8016
위생	-8017
▁고맙	-8018
▁본부	-8019
▁연루	-8020
업체가	-8021
▁미사일	-8022
▁보도가	-8023
▁일반적으로	-8024
▁곽	-8025
방향	-8026
셔도	-8027
▁새겨	-8028
▁알리	-8029
하는지	-8030
▁기금의	-8031
▁전세계	-8032
▁운영한다	-8033
▁준비하고	-8034
▁Q	-8035
래도	-8036
인당	-8037
▁CJ	-8038
▁거로	-8039
▁집권	-8040
신청을	-8041
▁195	-8042
▁뛰어나	-8043
▁출연해	-8044
▁피의자	-8045
고의	-8046
투표	-8047
▁손에	-8048
▁전주	-8049
▁청도	-8050
▁텔레	-8051
만달러	-8052
시장에	-8053
위에서	-8054
▁회의는	-8055
▁햇	-8056
장치	-8057
▁많을	-8058
▁약간	-8059
▁입시	-8060
▁채워	-8061
4)	-8062
내기	-8063
더라	-8064
▁로드	-8065
▁붉은	-8066
▁질의	-8067
▁없나요	-8068
▁여론이	-8069
▁신청서를	-8070
▁평생교육	-8071
▁감동	-8072
▁방학	-8073
▁솔로	-8074
▁임상	-8075
만명이	-8076
▁개발에	-8077
▁메일을	-8078
▁환경이	-8079
▁배경으로	-8080
아파	-8081
천구	-8082
▁병행	-8083
▁유용	-8084
▁이기	-8085
▁제고	-8086
임에도	-8087
▁정확하게	-8088
▁구속영장을	-8089
▁경로	-8090
▁중순	-8091
▁식사를	-8092
▁흐름을	-8093
락을	-8094
▁49	-8095
▁가축	-8096
▁농민	-8097
▁영광	-8098
▁포인	-8099
운동을	-8100
▁끝나면	-8101
▁예정인	-8102
▁다채로운	-8103
▁호텔에서	-8104
▁펀	-8105
호와	-8106
▁가깝	-8107
▁분기	-8108
▁회수	-8109
▁소년	-8110
▁여수	-8111
▁주행	-8112
▁흥행	-8113
센터에	-8114
▁불가능한	-8115
▁주장하는	-8116
마를	-8117
소시	-8118
인도	-8119
▁앞선	-8120
▁열람	-8121
▁있을까	-8122
▁결정했다	-8123
▁위원장과	-8124
▁부사	-8125
시간에	-8126
▁대표와	-8127
▁소속사	-8128
▁위기를	-8129
▁점수를	-8130
▁지금의	-8131
내며	-8132
▁맞고	-8133
▁멘토	-8134
▁임직	-8135
▁측의	-8136
▁현상	-8137
자리에	-8138
▁경찰청	-8139
대화	-8140
박한	-8141
▁부딪	-8142
▁서면	-8143
▁정원	-8144
▁주소	-8145
▁합쳐	-8146
정부의	-8147
▁신뢰를	-8148
▁지난주	-8149
▁관광객이	-8150
▁않았다고	-8151
▁있었다는	-8152
▁파악하고	-8153
▁아르바이트	-8154
48	-8155
▁신중	-8156
▁건축물	-8157
▁기자가	-8158
▁그러하지	-8159
▁산업통상자원	-8160
영향	-8161
▁그저	-8162
▁데이	-8163
▁오를	-8164
▁고양시	-8165
▁규정이	-8166
▁어디로	-8167
▁우승을	-8168
과정에서	-8169
▁분석된다	-8170
▁초등학생	-8171
▁결코	-8172
▁계엄	-8173
▁고백	-8174
사회적	-8175
▁구매할	-8176
▁비디오	-8177
▁5·18	-8178
드린다	-8179
자들과	-8180
(201	-8181
▁실적을	-8182
▁즐겁게	-8183
▁질문을	-8184
▁자신들의	-8185
아서	-8186
예정	-8187
팀의	-8188
▁꿈꾸	-8189
▁몰라	-8190
▁마련해	-8191
▁셋	-8192
고한	-8193
▁가맹점	-8194
▁사장은	-8195
▁지원해	-8196
▁하나는	-8197
▁드릴게요	-8198
▁적용한다	-8199
▁남북정상회담	-8200
도서	-8201
림이	-8202
부지	-8203
▁배울	-8204
▁불량	-8205
▁소장	-8206
▁안성	-8207
▁잠깐	-8208
인터넷	-8209
▁내용에	-8210
▁본회의	-8211
▁산업의	-8212
▁포함돼	-8213
현장	-8214
▁스캔	-8215
듭니다	-8216
였다고	-8217
▁실력을	-8218
▁주문을	-8219
▁행사로	-8220
▁안전사고	-8221
▁오랜만에	-8222
▁원인으로	-8223
NA	-8224
am	-8225
보기	-8226
▁멈추	-8227
▁상시	-8228
▁섬유	-8229
▁신인	-8230
▁나서는	-8231
▁단순한	-8232
▁비교해	-8233
▁수출이	-8234
▁약속을	-8235
▁우려를	-8236
▁해결을	-8237
▁산업혁명	-8238
금과	-8239
▁고기	-8240
▁재해	-8241
▁정권	-8242
▁주신	-8243
▁로이터	-8244
▁성공을	-8245
▁전체가	-8246
▁위원장을	-8247
전기	-8248
▁나이가	-8249
▁높였다	-8250
▁동아리	-8251
▁안으로	-8252
▁경기도지사	-8253
▁박정	-8254
▁즐기	-8255
▁지표	-8256
▁경제의	-8257
▁빠져나	-8258
▁성장할	-8259
▁아무것도	-8260
▁연일	-8261
▁홀로	-8262
▁기사를	-8263
▁인용해	-8264
▁의원들이	-8265
DP	-8266
▁거친	-8267
냅니다	-8268
▁CEO	-8269
▁우리를	-8270
▁진출을	-8271
▁모습이다	-8272
취업	-8273
▁매수	-8274
▁줄이	-8275
▁구민의	-8276
▁국민연	-8277
▁다니는	-8278
▁당국이	-8279
▁주말에	-8280
▁화제가	-8281
29	-8282
구와	-8283
▁수주	-8284
▁현직	-8285
▁한다면	-8286
▁해결하기	-8287
▁활동하고	-8288
▁넌	-8289
▁봅	-8290
▁엿	-8291
▁줬	-8292
광고	-8293
▁늘려	-8294
▁전산	-8295
▁줄을	-8296
▁크지	-8297
▁탄탄	-8298
▁기다리	-8299
▁방송을	-8300
▁이해가	-8301
▁좋겠어	-8302
▁사람으로	-8303
▁로맨	-8304
▁맞서	-8305
▁민선	-8306
▁감정을	-8307
▁업무에	-8308
▁금호	-8309
▁한복	-8310
▁했을	-8311
▁높다는	-8312
▁말이다	-8313
▁어려움	-8314
38	-8315
인증	-8316
▁피고	-8317
▁여성들이	-8318
미국	-8319
▁그다	-8320
▁도출	-8321
▁동행	-8322
▁비용은	-8323
▁기대감을	-8324
고도	-8325
곳을	-8326
▁가방	-8327
▁수령	-8328
▁전임	-8329
음으로	-8330
▁비공개	-8331
▁하려고	-8332
▁밝은	-8333
▁솔직	-8334
▁확신	-8335
▁백화점	-8336
▁합의가	-8337
▁신속하게	-8338
▁준비하는	-8339
▁추정되는	-8340
▁물질	-8341
▁설명을	-8342
▁지급한다	-8343
▁강사	-8344
▁공략	-8345
▁높일	-8346
가들이	-8347
▁재판을	-8348
▁조사에서	-8349
위험	-8350
▁연금	-8351
▁결정이	-8352
▁오늘날	-8353
▁해결할	-8354
자에게는	-8355
▁독립운동	-8356
▁주민자치	-8357
▁추정된다	-8358
▁필요성이	-8359
살을	-8360
▁개선이	-8361
자본	-8362
▁밀어	-8363
▁실망	-8364
았다는	-8365
▁둘러싸	-8366
▁못했던	-8367
▁사업장	-8368
▁조건을	-8369
▁활발한	-8370
▁회사를	-8371
▁보조금을	-8372
트와	-8373
▁나은	-8374
▁1∼2	-8375
▁느낌을	-8376
▁판단이	-8377
수급	-8378
▁거절	-8379
▁뿌리	-8380
▁중증	-8381
▁지났	-8382
▁요구를	-8383
▁전체의	-8384
▁피해자가	-8385
▁우리나라의	-8386
▁개시	-8387
▁대장	-8388
▁붙여	-8389
▁접목	-8390
역으로	-8391
5000	-8392
▁거대한	-8393
▁다르다	-8394
▁스타일	-8395
▁연구를	-8396
왔습니다	-8397
▁필요해요	-8398
▁삽	-8399
전형	-8400
▁탈퇴	-8401
▁포토	-8402
▁광화문	-8403
▁모습은	-8404
▁자세히	-8405
▁아이들을	-8406
▁학생들을	-8407
▁홈페이지에	-8408
대교	-8409
더라고	-8410
들이다	-8411
▁결과는	-8412
▁기여한	-8413
▁보여줄	-8414
▁할아버	-8415
▁좋아합니다	-8416
▁프로젝트를	-8417
▁학생들에게	-8418
32	-8419
▁경유	-8420
▁목포	-8421
▁발매	-8422
▁방금	-8423
▁포털	-8424
▁화제	-8425
▁고위급	-8426
▁대상은	-8427
▁신제품	-8428
▁움직임	-8429
▁있기를	-8430
▁전시회	-8431
내에	-8432
어질	-8433
▁각자	-8434
▁이혼	-8435
▁패턴	-8436
▁2∼3	-8437
▁예정된	-8438
▁언급했다	-8439
▁움직임이	-8440
두에	-8441
청사	-8442
▁고스	-8443
▁든다	-8444
▁성향	-8445
▁수습	-8446
에서다	-8447
▁신청한	-8448
▁신청할	-8449
▁주시면	-8450
▁글이	-8451
▁자국	-8452
▁해안	-8453
되지만	-8454
▁BMW	-8455
▁권한을	-8456
▁대상을	-8457
▁모델을	-8458
▁부부가	-8459
▁시행에	-8460
▁정책의	-8461
▁최악의	-8462
자고	-8463
층을	-8464
▁감각	-8465
▁마리	-8466
▁중점	-8467
▁경위를	-8468
▁긍정적	-8469
▁노무현	-8470
▁바라는	-8471
▁위에서	-8472
▁편의점	-8473
▁수당	-8474
▁친절	-8475
▁벨기에	-8476
▁설치할	-8477
▁중소기업의	-8478
병을	-8479
스포	-8480
▁걸리	-8481
▁좋고	-8482
▁농산물	-8483
▁부정적	-8484
▁서식에	-8485
▁월요일	-8486
▁판결을	-8487
▁한국으로	-8488
▁안녕하세요	-8489
검토	-8490
자나	-8491
·13	-8492
▁국어	-8493
▁오직	-8494
미세먼	-8495
▁요청을	-8496
▁재건축	-8497
▁케이블	-8498
만은	-8499
왔던	-8500
음식	-8501
주인	-8502
▁가중	-8503
▁증시	-8504
만으로도	-8505
▁발생하고	-8506
▁벼	-8507
▁찌	-8508
님을	-8509
▁양산	-8510
▁영입	-8511
▁오고	-8512
▁인테	-8513
▁차관	-8514
드라마	-8515
운영할	-8516
▁두드러	-8517
▁때보다	-8518
▁많은데	-8519
▁배우는	-8520
▁근로시간	-8521
▁이벤트를	-8522
▁좋아해요	-8523
31	-8524
▁링	-8525
▁횟	-8526
▁견인	-8527
▁나면	-8528
▁세상	-8529
▁조속	-8530
개월간	-8531
경찰청	-8532
▁박물관	-8533
▁부드러	-8534
▁시대를	-8535
▁완벽한	-8536
▁제도가	-8537
▁간접	-8538
▁마크	-8539
▁프린	-8540
▁이용하여	-8541
34	-8542
il	-8543
부총	-8544
▁엇갈	-8545
▁여객	-8546
▁판교	-8547
▁당국은	-8548
▁신도시	-8549
요한	-8550
▁남경	-8551
▁바꿀	-8552
▁시흥	-8553
▁힘입	-8554
▁왔어요	-8555
▁웃음을	-8556
is	-8557
등의	-8558
수익	-8559
유공	-8560
▁시나	-8561
▁완공	-8562
▁파이	-8563
거리를	-8564
▁과태료	-8565
선과	-8566
▁애니	-8567
▁어떨	-8568
▁투쟁	-8569
▁결론을	-8570
▁정하여	-8571
▁학교를	-8572
만원으로	-8573
▁아이디어를	-8574
▁예정이라고	-8575
공헌	-8576
▁군산	-8577
▁번에	-8578
▁서양	-8579
▁수치	-8580
관리에	-8581
까지만	-8582
▁정황이	-8583
▁혜택이	-8584
▁경기도지	-8585
▁소프트웨어	-8586
▁났다	-8587
▁되돌	-8588
▁보전	-8589
▁국민청	-8590
▁뜻이다	-8591
▁의사가	-8592
▁편하게	-8593
간담	-8594
▁LA	-8595
▁첫째	-8596
▁거기에	-8597
▁근거로	-8598
▁맡았다	-8599
▁반영된	-8600
▁성공한	-8601
▁받아들여	-8602
▁현지에서	-8603
▁롤	-8604
러리	-8605
희롱	-8606
▁기분	-8607
▁다짐	-8608
▁메일	-8609
▁저기	-8610
환경을	-8611
▁반대하는	-8612
▁크리스마스	-8613
프를	-8614
▁밀려	-8615
▁아픈	-8616
기간은	-8617
▁금액이	-8618
▁충격을	-8619
▁현실을	-8620
아라	-8621
화될	-8622
▁41	-8623
▁산책	-8624
▁함유	-8625
▁기업인	-8626
▁소감을	-8627
▁아마도	-8628
▁이름으로	-8629
POP	-8630
▁56	-8631
▁가기	-8632
▁동아	-8633
▁싶지	-8634
▁아기	-8635
▁중고	-8636
생들이	-8637
효과가	-8638
▁고객의	-8639
▁다음날	-8640
▁세계의	-8641
▁신속한	-8642
▁희망을	-8643
▁내년부터	-8644
▁5,000	-8645
이와	-8646
친화	-8647
▁대부	-8648
▁사물	-8649
▁미국을	-8650
▁아니야	-8651
▁궁금증을	-8652
▁해주세요	-8653
▁중요하다고	-8654
학적	-8655
▁곤란	-8656
▁캠페	-8657
▁처분을	-8658
자흐	-8659
졌을	-8660
▁남해	-8661
▁목회	-8662
▁세트	-8663
▁신혼	-8664
▁책은	-8665
활동에	-8666
▁관세를	-8667
▁규제가	-8668
▁이목이	-8669
▁이용자	-8670
▁훈련을	-8671
위원장은	-8672
▁2004	-8673
▁유지하고	-8674
▁시청자들의	-8675
▁멸	-8676
쁘게	-8677
▁야당	-8678
▁출제	-8679
▁화면	-8680
였다는	-8681
행위를	-8682
▁마포구	-8683
▁부산시	-8684
▁상당의	-8685
▁열리고	-8686
▁활성화에	-8687
▁패스트트랙	-8688
매김	-8689
무가	-8690
번호를	-8691
▁끊임없이	-8692
▁드라마를	-8693
집이	-8694
▁감지	-8695
▁분과	-8696
▁원전	-8697
▁같아서	-8698
▁대비해	-8699
▁되는데	-8700
▁사진은	-8701
▁생태계	-8702
▁서울에	-8703
▁장기간	-8704
▁브렉시트	-8705
▁자리매김	-8706
줘서	-8707
▁득점	-8708
▁북쪽	-8709
▁검찰의	-8710
▁경쟁을	-8711
▁바람직	-8712
▁확보한	-8713
▁무역분쟁	-8714
▁이동통신	-8715
던데	-8716
됐을	-8717
잡고	-8718
▁54	-8719
▁교섭	-8720
▁국악	-8721
▁읽고	-8722
▁제재를	-8723
▁개관	-8724
▁물가	-8725
▁불편한	-8726
▁시민이	-8727
▁양승태	-8728
▁없다면	-8729
▁않았어요	-8730
▁헌법재판	-8731
ay	-8732
om	-8733
개소	-8734
▁공영	-8735
▁투기	-8736
센티브	-8737
주시는	-8738
▁사회가	-8739
에서부터	-8740
경에	-8741
정지	-8742
키퍼	-8743
▁것인	-8744
▁내비	-8745
▁정작	-8746
▁국회가	-8747
▁나란히	-8748
▁리더십	-8749
▁승용차	-8750
▁토트넘	-8751
▁고스란히	-8752
▁프로그램에	-8753
마가	-8754
운이	-8755
▁농림	-8756
▁소수	-8757
▁심장	-8758
▁최다	-8759
▁커버	-8760
렸어요	-8761
▁불만을	-8762
▁시설이	-8763
신한	-8764
▁바르	-8765
도에서	-8766
▁적어도	-8767
▁일반적인	-8768
▁대한민국의	-8769
▁짚	-8770
제재	-8771
집행	-8772
▁영세	-8773
▁오토	-8774
▁바람에	-8775
▁사업자	-8776
▁선택한	-8777
▁평가다	-8778
▁나타나는	-8779
▁이용자가	-8780
▁아르헨티나	-8781
▁갈아	-8782
▁신생	-8783
▁각각의	-8784
▁여름철	-8785
▁환자의	-8786
▁강화하고	-8787
안정	-8788
▁서부	-8789
비디오	-8790
화하고	-8791
▁경기에	-8792
▁돌아오	-8793
▁변화에	-8794
▁수차례	-8795
웠습니다	-8796
▁2002	-8797
▁겉	-8798
름을	-8799
리다	-8800
협정	-8801
▁경주	-8802
▁기한	-8803
▁남쪽	-8804
▁넥센	-8805
▁앞세	-8806
▁집값	-8807
▁터뜨	-8808
은행의	-8809
▁내리는	-8810
▁됐다고	-8811
▁잃어버	-8812
▁마이크로	-8813
▁국토교통부	-8814
▁국외	-8815
▁김기	-8816
▁독자	-8817
▁부근	-8818
국장은	-8819
▁신고가	-8820
▁장면을	-8821
▁합의한	-8822
▁다하겠다	-8823
▁닮	-8824
뉴스	-8825
▁금속	-8826
▁내수	-8827
▁머무	-8828
▁면허	-8829
▁보복	-8830
▁야생	-8831
어지는	-8832
였어요	-8833
▁인근에	-8834
▁선보인다	-8835
▁일각에서는	-8836
▁낚	-8837
▁뭉	-8838
▁뻔	-8839
▁옳	-8840
년과	-8841
▁맥주	-8842
▁싱글	-8843
▁하시	-8844
▁느끼고	-8845
▁절차가	-8846
▁제작한	-8847
▁주셔서	-8848
가며	-8849
방위	-8850
신용	-8851
퇴근	-8852
▁저하	-8853
▁이르면	-8854
▁오프라인	-8855
교사	-8856
반을	-8857
융합	-8858
▁대대	-8859
▁미용	-8860
▁벤투	-8861
▁생생	-8862
▁스탠	-8863
▁일할	-8864
▁침체	-8865
기준을	-8866
▁공사를	-8867
▁방문할	-8868
▁주소를	-8869
▁병원에서	-8870
▁제외한다	-8871
밸리	-8872
보로	-8873
풍을	-8874
▁그와	-8875
▁출생	-8876
▁사회에	-8877
▁않았고	-8878
▁타이틀	-8879
대체	-8880
환이	-8881
▁지갑	-8882
▁특화	-8883
사무소	-8884
하시고	-8885
▁90%	-8886
▁가르쳐	-8887
▁남경필	-8888
▁비중을	-8889
▁회의에서	-8890
(9	-8891
OU	-8892
▁쇠	-8893
▁가평	-8894
▁아끼	-8895
▁하셨	-8896
명에게	-8897
시설에	-8898
▁나누고	-8899
▁눈물을	-8900
▁선택할	-8901
▁설립한	-8902
▁부득이한	-8903
6)	-8904
∼8	-8905
투어	-8906
▁더는	-8907
▁자칫	-8908
▁청문	-8909
▁흡수	-8910
단체가	-8911
▁얻었다	-8912
▁올리는	-8913
▁이바지	-8914
▁공개됐다	-8915
▁선보였다	-8916
우기	-8917
▁무인	-8918
▁의류	-8919
▁전액	-8920
▁주된	-8921
▁중복	-8922
▁광진구	-8923
▁들어갔	-8924
▁잡았다	-8925
▁제기된다	-8926
나이	-8927
냐고	-8928
드와	-8929
차전	-8930
▁공론	-8931
▁노력하겠다	-8932
2,	-8933
사카	-8934
수엘	-8935
▁말로	-8936
▁미친	-8937
▁밤에	-8938
▁크기	-8939
▁기소된	-8940
▁복잡한	-8941
▁생기는	-8942
▁아니요	-8943
▁연기를	-8944
▁힘입어	-8945
다리	-8946
드니	-8947
보며	-8948
▁57	-8949
▁빨라	-8950
▁사령	-8951
▁수혜	-8952
▁직면	-8953
졌으며	-8954
조치를	-8955
▁말씀을	-8956
▁고장	-8957
▁사안	-8958
▁유연	-8959
기관을	-8960
차이즈	-8961
▁나서고	-8962
▁성추행	-8963
▁일본은	-8964
▁도지사가	-8965
▁때문으로	-8966
▁민주당이	-8967
▁예상했다	-8968
▁이후에도	-8969
▁전문가가	-8970
▁지나치게	-8971
군과	-8972
▁너와	-8973
▁버튼	-8974
▁붙어	-8975
▁안건	-8976
▁우편	-8977
▁모양새	-8978
▁보냈다	-8979
▁송파구	-8980
▁제안을	-8981
▁태권도	-8982
리케이션	-8983
▁경우에도	-8984
▁이해하고	-8985
▁웅	-8986
▁오리	-8987
▁전인	-8988
▁춤을	-8989
협회가	-8990
▁나라가	-8991
▁도입을	-8992
▁동의를	-8993
▁구성한다	-8994
▁성공적인	-8995
▁소비자들이	-8996
검찰	-8997
▁과세	-8998
▁기조	-8999
자로서	-9000
잖아요	-9001
▁되기를	-9002
▁이메일	-9003
▁일본에	-9004
▁판결이	-9005
주간	-9006
태를	-9007
▁당국	-9008
▁아트	-9009
▁인보	-9010
▁주류	-9011
▁항목	-9012
▁휴식	-9013
▁하루에	-9014
▁공간으로	-9015
▁상관없이	-9016
▁인센티브	-9017
▁제품으로	-9018
▁조별리그	-9019
▁필요성을	-9020
작을	-9021
▁전송	-9022
으세요	-9023
은행은	-9024
▁라이브	-9025
▁많다는	-9026
▁문화에	-9027
▁세금을	-9028
▁엄마가	-9029
▁예약을	-9030
▁없었습니다	-9031
▁식물	-9032
▁골키퍼	-9033
▁수술을	-9034
▁이사회	-9035
▁제공해	-9036
▁초점을	-9037
▁캠페인	-9038
대비	-9039
▁가벼	-9040
▁아랍	-9041
▁벌였다	-9042
▁정당한	-9043
▁후보는	-9044
농업기술	-9045
▁보고서는	-9046
▁아버지가	-9047
▁대륙	-9048
▁딸이	-9049
▁횡령	-9050
▁각호의	-9051
▁갑니다	-9052
▁국가안보	-9053
▁집계됐다	-9054
유럽	-9055
카페	-9056
▁간에	-9057
▁일치	-9058
본부는	-9059
▁건물이	-9060
▁라디오	-9061
▁사망한	-9062
▁선택을	-9063
시스템을	-9064
군수	-9065
방의	-9066
주지	-9067
퍼스	-9068
▁요양	-9069
▁장착	-9070
▁전당	-9071
▁공정한	-9072
▁성매매	-9073
▁않다고	-9074
▁영화제	-9075
▁편이다	-9076
교육청은	-9077
길에	-9078
온이	-9079
▁논쟁	-9080
▁바닷	-9081
▁상인	-9082
▁어쩌	-9083
▁저축	-9084
졌어요	-9085
테이너	-9086
▁180	-9087
▁끊이지	-9088
▁불거진	-9089
▁펼치고	-9090
있습니다	-9091
▁소요되는	-9092
▁제시했다	-9093
▁한국에서는	-9094
39	-9095
EU	-9096
스팅	-9097
지급	-9098
타워	-9099
▁가볍	-9100
▁가전	-9101
▁건지	-9102
▁근대	-9103
▁보편	-9104
▁걱정이	-9105
민원	-9106
최근	-9107
치기	-9108
▁꺼내	-9109
▁적혀	-9110
▁찾지	-9111
▁문화적	-9112
▁벌어진	-9113
▁오르는	-9114
▁카자흐	-9115
▁하도록	-9116
▁래	-9117
곳에	-9118
산의	-9119
▁4,	-9120
▁58	-9121
▁구멍	-9122
▁반납	-9123
▁발부	-9124
▁수색	-9125
▁체류	-9126
▁휩싸	-9127
▁60%	-9128
▁규모는	-9129
▁본인의	-9130
▁의미다	-9131
▁팬들은	-9132
▁5000	-9133
주시겠어요	-9134
역사	-9135
▁막아	-9136
▁민생	-9137
▁정밀	-9138
달라는	-9139
업무를	-9140
▁것이며	-9141
▁결정할	-9142
▁발표를	-9143
▁부모가	-9144
▁일부가	-9145
▁현대자동차	-9146
체는	-9147
▁도봉	-9148
▁법관	-9149
▁부의	-9150
▁어두	-9151
▁체제	-9152
▁규정한	-9153
▁세계적	-9154
▁업체들이	-9155
▁주장이다	-9156
▁권력	-9157
▁석탄	-9158
▁승무	-9159
▁국내에	-9160
▁넘어서	-9161
▁부상을	-9162
▁장소를	-9163
▁출신의	-9164
▁확인을	-9165
▁진심으로	-9166
▁희망하는	-9167
현재	-9168
▁거둔	-9169
▁지어	-9170
▁지향	-9171
▁프랜	-9172
▁내년도	-9173
▁서로의	-9174
고속도로	-9175
현대	-9176
▁각별	-9177
▁예배	-9178
▁충실	-9179
▁파일	-9180
▁설치한	-9181
▁코스피	-9182
▁예정이며	-9183
▁뭘	-9184
료로	-9185
▁75	-9186
▁고속	-9187
▁열차	-9188
▁일관	-9189
▁특례	-9190
화되고	-9191
▁거래소	-9192
▁게스트	-9193
▁기반을	-9194
▁들어와	-9195
▁버닝썬	-9196
우스	-9197
▁기숙	-9198
▁분담	-9199
▁임진	-9200
▁조율	-9201
▁타임	-9202
▁데이트	-9203
▁성희롱	-9204
▁안타깝	-9205
▁제안했다	-9206
▁미세먼지가	-9207
IP	-9208
▁눌	-9209
연의	-9210
으러	-9211
찬을	-9212
▁나빠	-9213
▁동북	-9214
▁유전	-9215
▁윤리	-9216
▁철회	-9217
▁탈락	-9218
▁올해도	-9219
ST	-9220
돌봄	-9221
둘러	-9222
영은	-9223
(19	-9224
▁내신	-9225
▁물에	-9226
▁재벌	-9227
▁중반	-9228
▁신세계	-9229
▁투자자	-9230
▁보내주세요	-9231
뉴얼	-9232
▁유권	-9233
▁줄일	-9234
▁해가	-9235
▁대출을	-9236
▁대표이	-9237
▁이루고	-9238
▁덩	-9239
리라	-9240
▁강행	-9241
▁거죠	-9242
▁무서	-9243
▁발을	-9244
▁평범	-9245
▁호기	-9246
사항이	-9247
협약을	-9248
▁DMZ	-9249
▁관악구	-9250
▁기후변	-9251
▁보호를	-9252
▁수업이	-9253
▁알리고	-9254
▁자회사	-9255
▁가족들이	-9256
▁방식이다	-9257
▁딜	-9258
▁김대	-9259
▁줄여	-9260
▁커플	-9261
법으로	-9262
▁장비를	-9263
▁진술을	-9264
▁정신건강	-9265
▁뽐	-9266
생태	-9267
수준	-9268
▁기뻐	-9269
▁상응	-9270
▁지은	-9271
▁해킹	-9272
합니까	-9273
▁공연은	-9274
▁내년에	-9275
▁제안한	-9276
▁유죄	-9277
▁사태가	-9278
▁지방세	-9279
▁편지를	-9280
▁결정한다	-9281
▁동맹	-9282
▁블라	-9283
▁파워	-9284
▁기대해	-9285
▁못하게	-9286
▁줍니다	-9287
▁포스터	-9288
▁확실한	-9289
▁것이었다	-9290
▁일상생활	-9291
화장	-9292
▁복무	-9293
▁시술	-9294
는데도	-9295
▁가까워	-9296
▁기억이	-9297
▁나누는	-9298
▁서울과	-9299
▁여성을	-9300
▁주시기	-9301
▁차량에	-9302
▁찾았다	-9303
▁효율적	-9304
▁들었습니다	-9305
▁법원행정처	-9306
▁옵	-9307
미디	-9308
희가	-9309
▁CN	-9310
▁분실	-9311
▁자꾸	-9312
▁추측	-9313
▁판사	-9314
운영에	-9315
▁유지할	-9316
▁적용해	-9317
▁학생의	-9318
초등학교	-9319
▁공무원의	-9320
▁포함됐다	-9321
역의	-9322
▁넣고	-9323
▁정할	-9324
색으로	-9325
중공업	-9326
▁개최한	-9327
▁김경수	-9328
▁젖	-9329
산에	-9330
▁59	-9331
▁도달	-9332
▁억제	-9333
▁현안	-9334
▁개발이	-9335
▁목사는	-9336
▁인사청	-9337
▁진행해	-9338
▁《	-9339
지요	-9340
총장	-9341
▁법을	-9342
▁사내	-9343
▁한일	-9344
▁호선	-9345
십니까	-9346
▁가족의	-9347
▁구체적	-9348
▁피아노	-9349
▁힘들어	-9350
▁1990	-9351
▁변호사는	-9352
겠고	-9353
▁급락	-9354
▁정무	-9355
▁사무실	-9356
▁입니다	-9357
▁작가가	-9358
▁참여가	-9359
▁선수들의	-9360
▁아무래도	-9361
▁해석된다	-9362
▁가난	-9363
▁류현	-9364
▁무단	-9365
▁와이	-9366
▁이성	-9367
에게도	-9368
▁비판을	-9369
▁장관의	-9370
▁이어가고	-9371
▁인터뷰를	-9372
▁참여한다	-9373
▁검거	-9374
▁잃은	-9375
▁증진	-9376
청에서	-9377
▁감소한	-9378
▁운전자	-9379
▁설치하고	-9380
▁지급하는	-9381
▁섹	-9382
도급	-9383
있어	-9384
▁끝날	-9385
▁철강	-9386
▁편입	-9387
▁마시고	-9388
▁아무도	-9389
▁올해로	-9390
▁코스닥	-9391
▁아이들의	-9392
감에	-9393
▁과장	-9394
▁소극	-9395
▁원유	-9396
▁특혜	-9397
▁현저	-9398
▁여부가	-9399
▁이어져	-9400
▁기본적인	-9401
▁민주평화	-9402
▁베네수엘	-9403
오프	-9404
▁사각	-9405
▁파는	-9406
▁헬스	-9407
▁흡연	-9408
▁190	-9409
▁농도가	-9410
▁목소리	-9411
▁시작할	-9412
사업으로	-9413
▁마음으로	-9414
▁올해부터	-9415
▁전국적으로	-9416
▁탔	-9417
명령	-9418
미의	-9419
보전	-9420
오늘	-9421
올해	-9422
▁김씨	-9423
▁당첨	-9424
▁이모	-9425
▁모른다	-9426
▁사회를	-9427
▁저소득층	-9428
동생	-9429
▁국비	-9430
▁냉장	-9431
▁배포	-9432
▁빼앗	-9433
▁업그	-9434
▁없던	-9435
▁유학	-9436
▁출자	-9437
렸다고	-9438
▁정해진	-9439
·2	-9440
▁고등	-9441
▁이종	-9442
▁총장	-9443
▁것들을	-9444
▁새마을	-9445
▁서로를	-9446
▁어렵게	-9447
▁컵	-9448
속에	-9449
작업	-9450
화할	-9451
▁노란	-9452
▁블룸	-9453
▁여가	-9454
▁가족을	-9455
▁줄이고	-9456
▁중심이	-9457
▁사업계획	-9458
▁생각보다	-9459
동과	-9460
▁매진	-9461
▁양도	-9462
▁엔진	-9463
▁여권	-9464
러스터	-9465
▁실정이다	-9466
가치	-9467
스키	-9468
유예	-9469
▁주축	-9470
▁청취	-9471
치면서	-9472
▁국회에	-9473
▁들어선	-9474
▁요리를	-9475
▁줄었다	-9476
▁3,000	-9477
▁다리	-9478
▁연설	-9479
▁읽어	-9480
▁소득이	-9481
▁하세요	-9482
▁시켜	-9483
▁공사가	-9484
▁비트코	-9485
▁수준에	-9486
▁완전한	-9487
▁확인된	-9488
▁사회공헌	-9489
개사	-9490
소리	-9491
장관	-9492
▁공적	-9493
▁관중	-9494
▁급식	-9495
▁부러	-9496
▁분산	-9497
▁받으며	-9498
▁시설물	-9499
▁저녁에	-9500
▁축제가	-9501
▁개최되는	-9502
▁이뤄지는	-9503
▁정준	-9504
▁해군	-9505
들었다	-9506
▁보세요	-9507
▁이해를	-9508
▁규칙으로	-9509
▁않는다면	-9510
▁확대하고	-9511
▁밝혔습니다	-9512
▁곰	-9513
경비	-9514
▁간사	-9515
▁공존	-9516
▁박스	-9517
▁밥을	-9518
▁분당	-9519
▁분식	-9520
▁신곡	-9521
▁아픔	-9522
▁중지	-9523
▁국토부	-9524
▁시대의	-9525
▁설치하는	-9526
▁않는다고	-9527
▁중에서도	-9528
▁아시아나항공	-9529
균형	-9530
설명	-9531
아는	-9532
여름	-9533
▁때에	-9534
▁봐도	-9535
▁수를	-9536
▁온실	-9537
점검을	-9538
▁업계의	-9539
데다	-9540
연수	-9541
▁상반	-9542
▁승진	-9543
▁왜곡	-9544
▁의거	-9545
▁일간	-9546
▁일회	-9547
▁자매	-9548
▁정류	-9549
▁주간	-9550
▁한쪽	-9551
▁노동당	-9552
▁사랑의	-9553
▁직원을	-9554
▁선두	-9555
▁800	-9556
▁끝나는	-9557
▁북한과	-9558
▁순으로	-9559
▁행위가	-9560
경찰서는	-9561
▁3000	-9562
디움	-9563
▁연천	-9564
력발전	-9565
에서만	-9566
하우스	-9567
▁감사의	-9568
▁단위로	-9569
▁무조건	-9570
▁폭염이	-9571
다란	-9572
▁박원	-9573
▁청렴	-9574
▁목적이	-9575
▁요구한	-9576
▁요인이	-9577
▁제기된	-9578
▁준비해	-9579
▁민주주의	-9580
▁선보이는	-9581
▁여론조사	-9582
레인	-9583
플루	-9584
▁리얼	-9585
▁장병	-9586
▁재고	-9587
했다면	-9588
▁개최된	-9589
▁남자가	-9590
▁취하고	-9591
▁판단을	-9592
네트워크	-9593
리포니아	-9594
▁바라보는	-9595
우의	-9596
조한	-9597
▁날아	-9598
▁모자	-9599
▁무선	-9600
포스트	-9601
▁대표적	-9602
▁디자인을	-9603
TO	-9604
▁쇄	-9605
콜릿	-9606
▁51	-9607
▁권장	-9608
▁무사	-9609
▁주무	-9610
▁학원	-9611
▁얼굴이	-9612
▁인원이	-9613
▁대회에서	-9614
▁수수료를	-9615
교를	-9616
석에	-9617
▁고대	-9618
▁반입	-9619
▁비타	-9620
▁성경	-9621
▁흔히	-9622
여부를	-9623
테크노	-9624
▁도착한	-9625
▁드라이	-9626
▁인력을	-9627
▁있어도	-9628
▁확정된	-9629
▁과학기술정보통신	-9630
통일	-9631
▁양육	-9632
로직	-9633
▁동시	-9634
▁신라	-9635
▁지붕	-9636
▁환승	-9637
드리고	-9638
▁규모를	-9639
▁주목받고	-9640
▁집중되고	-9641
BA	-9642
대전	-9643
독립	-9644
바다	-9645
▁고수	-9646
▁샌드	-9647
▁구조를	-9648
▁물품을	-9649
▁여지가	-9650
▁찾아가는	-9651
▁애니메이션	-9652
▁엠	-9653
▁팩	-9654
님께	-9655
사실	-9656
▁구는	-9657
▁사흘	-9658
▁영유아	-9659
▁위치해	-9660
▁커졌다	-9661
▁2021	-9662
목적	-9663
증진	-9664
니스트	-9665
재단이	-9666
했으면	-9667
▁방문객	-9668
▁북한은	-9669
▁이외에	-9670
▁했으나	-9671
▁평생학습	-9672
둥이	-9673
려서	-9674
▁68	-9675
▁김모	-9676
▁날을	-9677
▁알지	-9678
▁원천	-9679
▁진주	-9680
▁점검을	-9681
▁처음에는	-9682
▁소방당국은	-9683
▁윌	-9684
님은	-9685
복무	-9686
정원	-9687
▁귀여	-9688
▁대입	-9689
▁수천	-9690
▁식재	-9691
▁존경	-9692
▁직권	-9693
▁25%	-9694
면허	-9695
인구	-9696
토론	-9697
▁고충	-9698
▁시책	-9699
▁최적	-9700
▁높아질	-9701
▁사용료	-9702
▁오사카	-9703
▁지정한	-9704
▁기록하며	-9705
상승	-9706
취를	-9707
▁독점	-9708
▁민속	-9709
▁측에	-9710
▁동남아	-9711
▁드루킹	-9712
▁여부에	-9713
▁트레이	-9714
▁성공했다	-9715
▁시작하는	-9716
▁휴대전화	-9717
▁고도	-9718
▁다들	-9719
▁삶이	-9720
▁상속	-9721
▁진지	-9722
▁강조한	-9723
▁앞장서	-9724
▁중구는	-9725
▁후에도	-9726
▁서울시는	-9727
▁시행하는	-9728
▁땐	-9729
되던	-9730
청정	-9731
▁다큐	-9732
▁빅뱅	-9733
▁일도	-9734
▁개인이	-9735
▁건강에	-9736
▁국가주	-9737
▁산업이	-9738
▁유리한	-9739
▁변호사가	-9740
아무	-9741
▁당황	-9742
▁무렵	-9743
▁월급	-9744
▁가득한	-9745
▁열악한	-9746
▁클래식	-9747
▁닦	-9748
로도	-9749
여자	-9750
▁늦은	-9751
▁도약	-9752
▁무척	-9753
제품을	-9754
▁고통을	-9755
▁작가의	-9756
▁전통시장	-9757
▁뮤직비디오	-9758
▁훔	-9759
발생	-9760
▁돕기	-9761
▁돼서	-9762
▁부패	-9763
▁탁월	-9764
▁해줄	-9765
스리그	-9766
▁거래를	-9767
▁만나고	-9768
▁말씀해	-9769
▁불만이	-9770
▁세상에	-9771
▁일어났	-9772
▁태도를	-9773
▁추구하는	-9774
▁못했습니다	-9775
▁삼성전자는	-9776
변경	-9777
통제	-9778
▁쓰지	-9779
▁청탁	-9780
▁파란	-9781
▁플래	-9782
▁해설	-9783
경영자	-9784
상황을	-9785
았으며	-9786
▁남북이	-9787
▁증가할	-9788
▁확보를	-9789
▁이뤄지고	-9790
▁체계적인	-9791
UV	-9792
금액	-9793
켰다	-9794
▁고창	-9795
▁박성	-9796
▁상세	-9797
▁신년	-9798
기업을	-9799
▁광고를	-9800
▁논란에	-9801
▁태어나	-9802
▁안정적으로	-9803
류의	-9804
바람	-9805
셔널	-9806
▁굳이	-9807
▁그거	-9808
▁기성	-9809
▁날인	-9810
▁레드	-9811
▁분할	-9812
▁외신	-9813
▁입점	-9814
▁입지	-9815
▁집이	-9816
▁꼽히는	-9817
▁사건과	-9818
▁시리아	-9819
▁이용이	-9820
▁이들에게	-9821
▁경기도의회	-9822
▁멍	-9823
중독	-9824
▁개그	-9825
▁방위	-9826
▁생물	-9827
▁양쪽	-9828
자치법	-9829
▁신청이	-9830
▁쾌적한	-9831
-2	-9832
남북	-9833
영상	-9834
▁배운	-9835
▁수확	-9836
▁자를	-9837
▁경제에	-9838
▁펼쳤다	-9839
▁갱	-9840
▁깎	-9841
▁똑같은	-9842
▁부르는	-9843
▁부총리	-9844
▁시간과	-9845
▁언론에	-9846
▁지지를	-9847
▁근무하는	-9848
▁영향력을	-9849
▁프랜차이즈	-9850
희망	-9851
▁마사	-9852
라인을	-9853
▁건전한	-9854
▁들어온	-9855
▁방송된	-9856
▁유학생	-9857
▁일어날	-9858
▁연결하는	-9859
▁집중적으로	-9860
▁감당	-9861
▁뇌물	-9862
▁외환	-9863
▁용의	-9864
▁육군	-9865
지기도	-9866
▁블룸버그	-9867
▁둥	-9868
민족	-9869
▁본사	-9870
▁지낸	-9871
▁환율	-9872
실장은	-9873
▁김성태	-9874
▁등록된	-9875
▁노력하고	-9876
▁스트레스를	-9877
가리	-9878
동강	-9879
열이	-9880
전용	-9881
▁골을	-9882
▁무언	-9883
▁수록	-9884
▁스프	-9885
▁재단	-9886
분으로	-9887
▁손가락	-9888
▁아이의	-9889
▁공유하고	-9890
롭고	-9891
▁귀가	-9892
▁길게	-9893
▁매운	-9894
▁언젠	-9895
▁중재	-9896
됐으나	-9897
▁고개를	-9898
▁남편이	-9899
▁보도에	-9900
▁자격을	-9901
▁2003	-9902
▁고객에게	-9903
▁캘리포니아	-9904
▁몫	-9905
당에	-9906
800	-9907
▁부합	-9908
▁우호	-9909
었으면	-9910
지도록	-9911
▁대책이	-9912
▁도착할	-9913
▁커다란	-9914
▁안전하고	-9915
로로	-9916
막을	-9917
막이	-9918
분과	-9919
어의	-9920
촉진	-9921
▁금연	-9922
▁세포	-9923
▁허리	-9924
▁후배	-9925
대회를	-9926
산업이	-9927
태평양	-9928
▁대학에	-9929
▁시민의	-9930
▁연기가	-9931
▁확인이	-9932
축구연맹	-9933
▁나타나고	-9934
▁수상했다	-9935
원인	-9936
통이	-9937
▁금방	-9938
▁있니	-9939
렸지만	-9940
위원이	-9941
▁걸리는	-9942
▁경제를	-9943
▁공급이	-9944
▁농식품	-9945
▁단체가	-9946
▁이하로	-9947
▁인상이	-9948
▁저출산	-9949
▁접수된	-9950
▁1980	-9951
▁직접적인	-9952
▁카자흐스탄	-9953
▁국무위원장의	-9954
SD	-9955
방문	-9956
역은	-9957
▁순천	-9958
본부가	-9959
▁등에게	-9960
▁많았고	-9961
▁정도다	-9962
▁초콜릿	-9963
▁하나도	-9964
▁현황을	-9965
▁드라마가	-9966
▁이해관계	-9967
▁재미있는	-9968
▁중요성을	-9969
OC	-9970
게도	-9971
로워	-9972
산은	-9973
체제	-9974
▁유예	-9975
▁이론	-9976
느냐는	-9977
였는데	-9978
▁700	-9979
▁성격이	-9980
▁강화하는	-9981
▁고객들이	-9982
▁조사결과	-9983
기계	-9984
증은	-9985
▁타는	-9986
보조금	-9987
주시고	-9988
▁들여다	-9989
▁물건이	-9990
▁전체를	-9991
▁해석이	-9992
랭킹	-9993
로에	-9994
인재	-9995
졌기	-9996
▁가산	-9997
▁뭔가	-9998
▁유독	-9999
▁협박	-10000
▁괜찮은	-10001
▁기술과	-10002
▁세계를	-10003
▁크다는	-10004
▁가격으로	-10005
▁컨테이너	-10006
청을	-10007
▁골든	-10008
▁연내	-10009
▁추첨	-10010
▁대화가	-10011
▁손님이	-10012
▁최저임	-10013
▁개최된다	-10014
▁내용이다	-10015
▁요구하고	-10016
▁웹사이트	-10017
▁이뤄진다	-10018
▁전반적인	-10019
▁합리적인	-10020
채를	-10021
탄소	-10022
▁66	-10023
▁몰래	-10024
▁미루	-10025
▁채무	-10026
▁춘천	-10027
▁탈출	-10028
▁휴게	-10029
위원의	-10030
▁대회는	-10031
▁막대한	-10032
▁축구대표	-10033
▁자유한국당이	-10034
디아	-10035
호로	-10036
▁다해	-10037
▁마라	-10038
▁원장	-10039
▁장벽	-10040
▁짐을	-10041
발전을	-10042
▁내놨다	-10043
▁없으며	-10044
▁의무를	-10045
▁자녀가	-10046
▁지속될	-10047
▁추진해	-10048
▁태어난	-10049
▁핀테크	-10050
▁학교가	-10051
지표	-10052
천히	-10053
학기	-10054
▁64	-10055
▁교민	-10056
▁시원	-10057
▁연다	-10058
▁조세	-10059
▁트럭	-10060
▁의원을	-10061
▁줄이는	-10062
기관으로	-10063
▁주어진다	-10064
▁해외에서	-10065
ES	-10066
▁햄	-10067
고사	-10068
음의	-10069
인사	-10070
플릭	-10071
▁원산	-10072
▁진실	-10073
실장이	-10074
▁장관과	-10075
▁줄이기	-10076
▁환경에	-10077
▁동영상을	-10078
▁실시간으로	-10079
▁청소년들이	-10080
님과	-10081
▁고가	-10082
야말로	-10083
▁결정한	-10084
▁면에서	-10085
▁중국인	-10086
▁판매를	-10087
▁활용하는	-10088
▁때문이라고	-10089
▁헝	-10090
일으	-10091
학이	-10092
▁까다	-10093
▁동계	-10094
▁비준	-10095
▁실용	-10096
▁유료	-10097
▁입건	-10098
의약품	-10099
▁베스트	-10100
▁유가족	-10101
▁천천히	-10102
▁편의를	-10103
▁화장실	-10104
▁구성되어	-10105
심의위원회	-10106
▁짝	-10107
널티	-10108
발표	-10109
육성	-10110
청과	-10111
▁이천	-10112
까지도	-10113
▁고민이	-10114
▁근거가	-10115
▁세계에	-10116
▁우리나	-10117
▁위치를	-10118
▁적발됐다	-10119
차에	-10120
▁돼지	-10121
▁투약	-10122
▁학과	-10123
공사는	-10124
글랜드	-10125
▁그곳에	-10126
▁범위를	-10127
▁키우는	-10128
▁후보자	-10129
▁서면으로	-10130
계와	-10131
살이	-10132
▁고문	-10133
▁어릴	-10134
▁임차	-10135
허가를	-10136
▁개정안	-10137
▁범행을	-10138
▁성장이	-10139
▁전국의	-10140
▁인사청문	-10141
▁자신에게	-10142
▁편리하게	-10143
▁긍정적으로	-10144
밀히	-10145
법과	-10146
청구	-10147
▁동부	-10148
▁명백	-10149
▁소중	-10150
▁확립	-10151
▁고려할	-10152
▁높아진	-10153
▁대표를	-10154
▁시대가	-10155
▁효과적으로	-10156
보드	-10157
수지	-10158
업소	-10159
▁기내	-10160
▁맺은	-10161
▁불꽃	-10162
▁증폭	-10163
▁할리	-10164
본부장	-10165
했었다	-10166
▁싶다는	-10167
▁확대될	-10168
▁포함되어	-10169
MC	-10170
촛불	-10171
▁민관	-10172
▁바쁜	-10173
▁밴드	-10174
▁빛을	-10175
▁소지	-10176
▁심해	-10177
▁연도	-10178
▁강동구	-10179
▁상처를	-10180
▁의혹과	-10181
▁인식을	-10182
▁프로모	-10183
▁소개하는	-10184
▁주최하는	-10185
로나	-10186
심과	-10187
활성	-10188
▁강점	-10189
▁대가	-10190
▁대략	-10191
▁불교	-10192
▁속한	-10193
▁언니	-10194
▁인형	-10195
▁장악	-10196
▁과제를	-10197
▁부산의	-10198
▁용산구	-10199
▁투입해	-10200
▁항공기	-10201
▁환경부	-10202
▁아니에요	-10203
▁정기적으로	-10204
3%	-10205
▁맘	-10206
벤션	-10207
▁과일	-10208
▁비건	-10209
▁쌓아	-10210
▁재현	-10211
▁특강	-10212
▁합창	-10213
▁문화와	-10214
▁방침을	-10215
▁선정한	-10216
▁차이를	-10217
▁학교의	-10218
▁앞으로는	-10219
대리	-10220
미한	-10221
LED	-10222
▁5,	-10223
▁박사	-10224
▁입소	-10225
카데미	-10226
▁분석해	-10227
▁일으키	-10228
▁제도다	-10229
▁페널티	-10230
·3	-10231
▁듀	-10232
병이	-10233
비리	-10234
▁캠핑	-10235
▁반영한	-10236
▁분석을	-10237
▁주식을	-10238
지역에서	-10239
▁마찬가지	-10240
▁완벽하게	-10241
▁가능하다는	-10242
▁굿	-10243
홍보	-10244
▁맞물	-10245
▁상처	-10246
▁실력	-10247
▁요인	-10248
▁임종	-10249
▁정례	-10250
▁그들을	-10251
▁인증을	-10252
▁퓨	-10253
기사	-10254
동은	-10255
췄다	-10256
하의	-10257
▁내륙	-10258
▁안방	-10259
면에서	-10260
▁그녀를	-10261
▁대학이	-10262
▁말하고	-10263
▁않았을	-10264
▁추천해	-10265
▁불러일으	-10266
∼7	-10267
▁씻	-10268
▁얽	-10269
강남	-10270
출납	-10271
쾌한	-10272
▁동성	-10273
▁등재	-10274
▁생성	-10275
▁순환	-10276
▁겨울철	-10277
▁생겼다	-10278
▁이슈가	-10279
▁협력해	-10280
▁확인하는	-10281
실험	-10282
우를	-10283
조리	-10284
▁선을	-10285
▁해지	-10286
경찰서	-10287
되었던	-10288
▁먹으면	-10289
▁선보일	-10290
▁업체에	-10291
▁이목을	-10292
▁작품은	-10293
▁추진하기	-10294
▁활동하는	-10295
징수	-10296
피아	-10297
현실	-10298
▁AP	-10299
▁거대	-10300
▁마땅	-10301
▁발라	-10302
▁예쁜	-10303
▁자진	-10304
▁획기	-10305
부동산	-10306
현의	-10307
▁극장	-10308
▁끝났	-10309
▁앞당	-10310
▁여는	-10311
▁옛날	-10312
▁이겨	-10313
▁콜라	-10314
▁해산	-10315
▁130	-10316
▁문제와	-10317
▁사진과	-10318
▁시드니	-10319
▁지장이	-10320
사회복지	-10321
▁첨부하여	-10322
MS	-10323
지않	-10324
▁중견	-10325
기본법	-10326
는지를	-10327
사업자	-10328
원에게	-10329
▁누군가	-10330
▁사람들과	-10331
▁살아가는	-10332
▁시작되는	-10333
▁읍	-10334
구매	-10335
나고	-10336
이게	-10337
▁놓여	-10338
▁살려	-10339
▁인종	-10340
▁저감	-10341
▁출하	-10342
동에서	-10343
▁주변의	-10344
▁타격을	-10345
▁핫	-10346
▁상정	-10347
▁이뤘	-10348
▁중도	-10349
▁오후에	-10350
▁중장기	-10351
▁영업이익	-10352
OS	-10353
▁붐	-10354
▁찰	-10355
▁텍	-10356
음과	-10357
조작	-10358
학자	-10359
▁네덜	-10360
▁연료	-10361
▁저번	-10362
▁치솟	-10363
대책을	-10364
▁뚜렷한	-10365
▁메이크	-10366
▁자료가	-10367
▁지분을	-10368
▁원합니다	-10369
▁굽	-10370
비서	-10371
▁눈빛	-10372
▁상실	-10373
▁소매	-10374
▁자라	-10375
▁재적	-10376
▁정산	-10377
▁기사가	-10378
▁일으킨	-10379
▁지사의	-10380
▁종합적으로	-10381
▁깔끔	-10382
▁남측	-10383
▁다룬	-10384
▁성황	-10385
▁잇는	-10386
▁정수	-10387
심사를	-10388
작업을	-10389
▁노력할	-10390
▁코미디	-10391
일로부터	-10392
▁국방부는	-10393
▁유지하는	-10394
▁대법원장이	-10395
▁모르겠어요	-10396
▁입장에서는	-10397
재의	-10398
집에	-10399
치와	-10400
▁구급	-10401
▁급속	-10402
▁막판	-10403
▁만성	-10404
▁종일	-10405
미사일	-10406
▁실력이	-10407
▁싶어서	-10408
▁제기되고	-10409
▁효과적인	-10410
▁삼성바이오로직	-10411
나갈	-10412
수출	-10413
일인	-10414
▁결성	-10415
▁쉽고	-10416
▁책이	-10417
비용을	-10418
▁나라를	-10419
▁모은다	-10420
▁일종의	-10421
▁시나리오	-10422
▁관광객들이	-10423
나눔	-10424
영을	-10425
운반	-10426
피를	-10427
▁상습	-10428
▁처리를	-10429
PS	-10430
시한	-10431
작가	-10432
일랜드	-10433
▁우려도	-10434
▁자신들이	-10435
▁갚	-10436
지출	-10437
▁FA	-10438
▁김부	-10439
▁답답	-10440
▁법조	-10441
▁차로	-10442
▁토크	-10443
▁푸틴	-10444
▁계약이	-10445
▁상품은	-10446
▁취지로	-10447
ig	-10448
스피	-10449
여명	-10450
자격	-10451
▁실감	-10452
▁접할	-10453
▁중개	-10454
셨나요	-10455
▁결과로	-10456
▁명확히	-10457
▁왔는데	-10458
레일	-10459
진단	-10460
프리	-10461
▁수산	-10462
▁저질	-10463
▁했어	-10464
▁개선에	-10465
▁저한테	-10466
구청장이	-10467
▁언제든지	-10468
▁사회적기업	-10469
47	-10470
작품	-10471
편을	-10472
400	-10473
▁PD	-10474
▁걸고	-10475
▁나지	-10476
▁애로	-10477
▁유가	-10478
▁추후	-10479
▁취할	-10480
▁치고	-10481
▁황교	-10482
▁시기를	-10483
▁운동이	-10484
▁정신을	-10485
▁경쟁력이	-10486
▁비핵화를	-10487
▁어린이들이	-10488
례를	-10489
에스	-10490
제조	-10491
ent	-10492
▁구로	-10493
▁속속	-10494
▁양의	-10495
▁패러	-10496
카드를	-10497
▁구성해	-10498
▁봅니다	-10499
▁비타민	-10500
▁금감원은	-10501
▁대목이다	-10502
un	-10503
대구	-10504
평생	-10505
▁67	-10506
▁가리	-10507
▁만화	-10508
▁오신	-10509
▁지주	-10510
장에는	-10511
케스트	-10512
▁결정에	-10513
▁장소에	-10514
▁다양하게	-10515
▁스트레스	-10516
▁지자체가	-10517
루가	-10518
버트	-10519
석과	-10520
역과	-10521
탱크	-10522
▁그릇	-10523
▁달콤	-10524
▁성북	-10525
▁펼칠	-10526
▁하드	-10527
협의체	-10528
▁대회를	-10529
▁모델로	-10530
▁연임할	-10531
▁위험한	-10532
▁저지른	-10533
▁제공하기	-10534
▁제기했다	-10535
▁알겠습니다	-10536
▁전반적으로	-10537
▁페이스북에	-10538
부채	-10539
▁다를	-10540
▁당뇨	-10541
▁면적	-10542
▁반등	-10543
행사를	-10544
▁도민의	-10545
▁못하면	-10546
▁있었어	-10547
▁추세다	-10548
▁고등학생	-10549
▁자랑하는	-10550
곳의	-10551
나와	-10552
우며	-10553
TBC	-10554
▁결산	-10555
▁될지	-10556
▁민정	-10557
▁역전	-10558
▁전격	-10559
층에서	-10560
▁거뒀다	-10561
▁고양이	-10562
▁드디어	-10563
▁파일을	-10564
▁밝혀졌다	-10565
▁주장하고	-10566
▁직원들의	-10567
▁경기도에서	-10568
▁띠	-10569
▁밸	-10570
부대	-10571
지주	-10572
지침	-10573
▁강도	-10574
▁경연	-10575
▁구경	-10576
▁뭐가	-10577
▁원정	-10578
▁혐오	-10579
▁황금	-10580
으려고	-10581
▁김동연	-10582
▁센터의	-10583
▁아닌가	-10584
▁지정을	-10585
▁대기오염	-10586
▁생각하지	-10587
▁진행되며	-10588
49	-10589
렘방	-10590
히지	-10591
▁입어	-10592
▁토로	-10593
▁한가	-10594
▁같네요	-10595
▁받으면	-10596
▁방문을	-10597
▁자격이	-10598
▁기다리는	-10599
as	-10600
ch	-10601
▁쉴	-10602
들고	-10603
루를	-10604
보안	-10605
▁근데	-10606
▁비닐	-10607
▁송치	-10608
레이션	-10609
렸다는	-10610
사들은	-10611
정책에	-10612
▁정치권	-10613
▁조사할	-10614
▁홈페이지를	-10615
▁흙	-10616
▁상향	-10617
▁저작	-10618
▁각자의	-10619
▁교육은	-10620
▁바라요	-10621
▁재개발	-10622
▁처리할	-10623
▁휴식을	-10624
▁2001	-10625
▁경제협력	-10626
▁사용되는	-10627
▁국산	-10628
갑니다	-10629
안에서	-10630
평가를	-10631
했다며	-10632
▁할게요	-10633
▁가능하고	-10634
남부	-10635
더블	-10636
600	-10637
단체의	-10638
▁거리를	-10639
▁노조가	-10640
▁상하이	-10641
▁일본인	-10642
▁기본계획	-10643
MA	-10644
▁픽	-10645
쉽게	-10646
통화	-10647
편에	-10648
▁계신	-10649
▁누릴	-10650
▁로스	-10651
▁약을	-10652
▁양식	-10653
▁자사	-10654
▁총수	-10655
▁한꺼	-10656
자마자	-10657
▁내리고	-10658
▁보험료	-10659
▁블라디	-10660
▁프로그램이다	-10661
공립	-10662
훈이	-10663
▁멀티	-10664
▁상해	-10665
▁인민	-10666
▁포르	-10667
모델링	-10668
▁남자는	-10669
▁도시의	-10670
▁떨어질	-10671
▁메시지	-10672
▁부당한	-10673
▁사람도	-10674
▁올리고	-10675
▁위기가	-10676
▁입장에서	-10677
▁체계적으로	-10678
경원	-10679
됐기	-10680
책이	-10681
푸드	-10682
▁조짐	-10683
▁해고	-10684
였으며	-10685
▁나타날	-10686
▁돌아온	-10687
▁시원한	-10688
▁출연한	-10689
▁예상보다	-10690
▁의미한다	-10691
▁어렵습니다	-10692
▁슛	-10693
그래	-10694
를린	-10695
외교	-10696
중심	-10697
풀이	-10698
▁각급	-10699
▁복용	-10700
▁삼아	-10701
▁일괄	-10702
▁감동을	-10703
▁대학의	-10704
▁연계해	-10705
▁이외의	-10706
▁제공한	-10707
▁제공된다	-10708
▁알려지면서	-10709
▁주시겠어요	-10710
▁봉투	-10711
▁운항	-10712
▁잠실	-10713
▁해변	-10714
▁그러한	-10715
▁동대문	-10716
▁만든다	-10717
▁메르스	-10718
▁여자가	-10719
▁청년들이	-10720
▁청와대는	-10721
▁프로그램으로	-10722
저가	-10723
창출	-10724
▁사육	-10725
▁아웃	-10726
▁일산	-10727
▁신선한	-10728
▁의하면	-10729
▁중이던	-10730
▁토론토	-10731
▁국민들의	-10732
▁시스템이	-10733
▁무엇인가요	-10734
돌이	-10735
화해	-10736
▁고유	-10737
▁낙태	-10738
▁불투	-10739
▁상의	-10740
렸는데	-10741
▁목사가	-10742
▁북한을	-10743
▁상황은	-10744
▁판단해	-10745
국제공항	-10746
▁관계자가	-10747
▁부드러운	-10748
33	-10749
▁X	-10750
법의	-10751
셔츠	-10752
콘서	-10753
▁겪은	-10754
▁말도	-10755
▁바깥	-10756
▁여건	-10757
▁자택	-10758
▁재학	-10759
▁한달	-10760
메리카	-10761
신도시	-10762
인들을	-10763
텔레콤	-10764
▁구매한	-10765
▁아래와	-10766
▁커피를	-10767
연구원이	-10768
▁어렵다고	-10769
▁이후에는	-10770
▁인사들이	-10771
▁한꺼번에	-10772
ro	-10773
감은	-10774
규정	-10775
운송	-10776
제공	-10777
환자	-10778
▁개를	-10779
▁단어	-10780
▁당내	-10781
▁인턴	-10782
▁잠정	-10783
▁조종	-10784
▁마련할	-10785
▁솔루션	-10786
▁형식으로	-10787
ID	-10788
소재	-10789
▁공표	-10790
▁도덕	-10791
▁불고	-10792
▁안고	-10793
▁화합	-10794
조사에	-10795
▁공장을	-10796
▁못한다	-10797
▁영국의	-10798
▁정도는	-10799
▁취약한	-10800
46	-10801
oT	-10802
그러	-10803
법규	-10804
설계	-10805
제작	-10806
▁맞대	-10807
▁불참	-10808
▁산출	-10809
▁식약	-10810
▁입사	-10811
▁제임	-10812
▁지니	-10813
▁회신	-10814
기관은	-10815
밖에도	-10816
▁바꾸는	-10817
▁이밖에	-10818
▁이후로	-10819
▁자금이	-10820
▁전에는	-10821
▁좋다고	-10822
▁취업자	-10823
▁부회장이	-10824
▁비롯하여	-10825
숙한	-10826
시기	-10827
▁견적	-10828
▁리콜	-10829
▁진전	-10830
글로벌	-10831
▁고려한	-10832
▁교육의	-10833
▁남아있	-10834
▁먹거리	-10835
▁모델이	-10836
▁목적을	-10837
▁아이들	-10838
▁등장하는	-10839
▁받았다고	-10840
▁실시했다	-10841
▁일어나는	-10842
▁자발적으로	-10843
ad	-10844
▁끓	-10845
담을	-10846
자녀	-10847
형으로	-10848
▁가방을	-10849
▁보이며	-10850
▁부서의	-10851
▁사업비	-10852
▁설치해	-10853
▁양질의	-10854
▁택시를	-10855
▁대표이사	-10856
▁산업단지	-10857
▁소개하고	-10858
레나	-10859
령이	-10860
▁5%	-10861
▁영구	-10862
▁제로	-10863
▁KBO	-10864
▁너한테	-10865
▁역사가	-10866
▁처벌을	-10867
▁최대의	-10868
▁관점에서	-10869
▁선생님이	-10870
▁전체적으로	-10871
▁경기도농업기술	-10872
일지	-10873
▁대결	-10874
▁호남	-10875
질랜드	-10876
▁괜찮을	-10877
▁극대화	-10878
▁넷플릭	-10879
▁공부하는	-10880
▁지원사업	-10881
▁턱	-10882
시로	-10883
▁답을	-10884
▁박지	-10885
▁주방	-10886
▁중의	-10887
▁지능	-10888
▁교육에	-10889
▁노트북	-10890
▁대회가	-10891
▁손쉽게	-10892
▁중대한	-10893
▁생산하는	-10894
▁잉글랜드	-10895
▁참가자들이	-10896
▁광복	-10897
▁기름	-10898
▁길에	-10899
▁동양	-10900
▁보아	-10901
▁선별	-10902
▁짐작	-10903
퍼런스	-10904
플러스	-10905
▁FTA	-10906
▁뛰어넘	-10907
▁보건소	-10908
▁오늘도	-10909
적이었다	-10910
▁운영되고	-10911
습을	-10912
▁입양	-10913
관리법	-10914
▁어렵고	-10915
▁위험을	-10916
▁평화의	-10917
▁여러분이	-10918
▁전달했다	-10919
▁톱	-10920
당시	-10921
디가	-10922
반이	-10923
생물	-10924
이닝	-10925
현은	-10926
▁99	-10927
▁김의	-10928
▁나쁘	-10929
▁남용	-10930
▁액션	-10931
지역을	-10932
▁1.5	-10933
▁샘플을	-10934
▁축제를	-10935
▁폭으로	-10936
▁확대해	-10937
▁문제점을	-10938
▁벌어졌다	-10939
▁음주운전	-10940
▁참가하는	-10941
▁하나님이	-10942
▁불확실성이	-10943
▁애플리케이션	-10944
▁깃	-10945
▁벚	-10946
러가	-10947
브리	-10948
우지	-10949
▁누락	-10950
▁아세	-10951
▁악취	-10952
▁앱을	-10953
통신은	-10954
▁거리에	-10955
▁달한다	-10956
▁듯하다	-10957
▁블로그	-10958
▁자료의	-10959
▁학생과	-10960
강의	-10961
공학	-10962
징용	-10963
▁IP	-10964
▁잡을	-10965
▁집회	-10966
▁커진	-10967
문화의	-10968
베이터	-10969
시하는	-10970
이면서	-10971
해주고	-10972
▁사라진	-10973
▁적용할	-10974
▁출퇴근	-10975
▁친구는	-10976
▁공무원은	-10977
▁성황리에	-10978
▁전통적인	-10979
▁업그레이드	-10980
TF	-10981
성년	-10982
진한	-10983
팅을	-10984
학대	-10985
▁거라	-10986
▁결렬	-10987
▁깨닫	-10988
▁나름	-10989
▁양호	-10990
▁우린	-10991
▁잡는	-10992
시에서	-10993
앞으로	-10994
▁감안해	-10995
▁공격을	-10996
▁금액은	-10997
▁늘리는	-10998
▁오디션	-10999
▁차지한	-11000
▁하나를	-11001
▁해주는	-11002
▁간담회를	-11003
▁마련하고	-11004
▁이사장은	-11005
1,	-11006
▁닥	-11007
단위	-11008
찰을	-11009
▁맞춘	-11010
▁속초	-11011
▁스파	-11012
▁아나	-11013
▁지루	-11014
▁터져	-11015
백화점	-11016
▁속도로	-11017
▁이해찬	-11018
▁후보를	-11019
▁부상으로	-11020
▁손흥민이	-11021
▁아이들은	-11022
▁영등포구	-11023
▁이루어진	-11024
▁이어진다	-11025
▁주민참여	-11026
▁중이에요	-11027
순위	-11028
장려	-11029
▁강동	-11030
▁입맛	-11031
▁적게	-11032
▁전무	-11033
▁출간	-11034
▁늘면서	-11035
▁많아요	-11036
▁위안부	-11037
▁주최한	-11038
▁기술개발	-11039
▁참석하는	-11040
▁기차	-11041
▁김희	-11042
▁보게	-11043
▁소홀	-11044
▁시세	-11045
▁판로	-11046
문제를	-11047
▁꼽았다	-11048
▁박원순	-11049
▁수요일	-11050
▁스토리	-11051
▁신속히	-11052
▁이사장	-11053
▁판정을	-11054
▁공유하는	-11055
▁주민들은	-11056
iv	-11057
주식	-11058
▁살짝	-11059
▁성수	-11060
▁외면	-11061
▁유적	-11062
▁절약	-11063
▁청사	-11064
▁포천	-11065
▁만나서	-11066
▁무역협	-11067
▁업체의	-11068
▁유전자	-11069
▁지나면	-11070
▁한동안	-11071
▁기본적으로	-11072
▁갇	-11073
▁윗	-11074
변호	-11075
▁높을	-11076
▁법제	-11077
▁연애	-11078
▁총선	-11079
시킨다	-11080
▁단체에	-11081
▁손으로	-11082
▁언제쯤	-11083
▁예방을	-11084
▁떨어졌다	-11085
SA	-11086
개인	-11087
유지	-11088
▁버려	-11089
▁심판	-11090
▁파급	-11091
▁발언이	-11092
▁스티븐	-11093
▁요청이	-11094
▁다음으로	-11095
▁심사위원	-11096
▁참여하여	-11097
하에	-11098
▁되찾	-11099
▁얻는	-11100
▁원고	-11101
▁일로	-11102
▁자제	-11103
▁가지는	-11104
▁결정된	-11105
▁대법관	-11106
▁불평등	-11107
▁서둘러	-11108
▁인물이	-11109
▁추진한	-11110
▁내용으로	-11111
▁도시계획	-11112
▁사용하여	-11113
▁속에서도	-11114
▁기자회견에서	-11115
▁띈	-11116
▁톡	-11117
▁규명	-11118
▁제어	-11119
▁죽은	-11120
▁출품	-11121
▁콘셉	-11122
되기를	-11123
▁의원과	-11124
▁참석할	-11125
▁행정처	-11126
▁개성공단	-11127
▁나타냈다	-11128
▁어울리는	-11129
▁이외에도	-11130
▁감사하겠습니다	-11131
▁쉼	-11132
구민	-11133
보지	-11134
언이	-11135
▁85	-11136
▁집은	-11137
▁표지	-11138
▁귀추가	-11139
▁나오면	-11140
▁못해서	-11141
▁속에는	-11142
▁이집트	-11143
▁접수한	-11144
▁주한미	-11145
▁규정하고	-11146
▁남북관계	-11147
▁중소기업이	-11148
▁랩	-11149
리안	-11150
치면	-11151
▁순수	-11152
▁숨겨	-11153
▁열정	-11154
▁이태	-11155
▁임의	-11156
▁처방	-11157
▁파업	-11158
스러워	-11159
업체의	-11160
주차장	-11161
회사가	-11162
▁교회가	-11163
▁사유를	-11164
▁상태에	-11165
▁절차에	-11166
:1	-11167
계좌	-11168
들인	-11169
▁곳도	-11170
▁담보	-11171
▁모의	-11172
▁약한	-11173
▁짓고	-11174
박물관	-11175
브랜드	-11176
▁건물을	-11177
▁많지만	-11178
▁스타벅	-11179
▁의결을	-11180
▁금메달을	-11181
▁비례대표	-11182
▁사건으로	-11183
▁몬	-11184
」,	-11185
전환	-11186
▁간판	-11187
▁발병	-11188
▁소폭	-11189
▁올릴	-11190
거래가	-11191
과정을	-11192
되었을	-11193
▁내용과	-11194
▁노조는	-11195
▁마드리	-11196
▁메모리	-11197
▁반영해	-11198
▁전국에	-11199
▁차량의	-11200
▁프로세	-11201
2%	-11202
기정	-11203
▁개소	-11204
▁그들	-11205
▁적힌	-11206
▁계열사	-11207
▁급격한	-11208
▁농어촌	-11209
▁설립된	-11210
▁작년에	-11211
▁지내고	-11212
▁티켓을	-11213
▁서비스는	-11214
▁이메일을	-11215
▁협동조합	-11216
▁관리하여야	-11217
AE	-11218
보상	-11219
▁김명	-11220
▁단말	-11221
▁정황	-11222
▁침수	-11223
▁표를	-11224
▁기간은	-11225
▁선정해	-11226
▁시점에	-11227
▁들었어요	-11228
▁주도하는	-11229
▁너도	-11230
▁뜨거	-11231
▁르노	-11232
▁목록	-11233
▁불필	-11234
▁의지	-11235
▁포괄	-11236
주의를	-11237
페이스	-11238
▁미치지	-11239
▁번호를	-11240
▁뿐이다	-11241
▁선수의	-11242
▁육성을	-11243
▁이었다	-11244
▁개정안이	-11245
▁기록하고	-11246
▁오피스텔	-11247
▁자신감을	-11248
날레	-11249
▁공휴	-11250
▁관절	-11251
▁열쇠	-11252
▁환급	-11253
기준에	-11254
명에서	-11255
훈련을	-11256
▁이루는	-11257
▁추진에	-11258
▁홍보를	-11259
미세먼지	-11260
▁서대문구	-11261
▁처리하기	-11262
▁확산되고	-11263
)·	-11264
바닥	-11265
보육	-11266
의결	-11267
▁근절	-11268
▁맺고	-11269
▁예매	-11270
▁온도	-11271
▁유착	-11272
▁중대	-11273
▁화웨	-11274
감으로	-11275
▁금강산	-11276
▁놀라운	-11277
▁도입한	-11278
▁발표할	-11279
▁일정한	-11280
▁그곳에서	-11281
▁기자간담	-11282
▁부산광역시	-11283
주얼	-11284
▁나간	-11285
▁자고	-11286
▁허락	-11287
하셔야	-11288
▁마스터	-11289
▁생각할	-11290
▁네덜란드	-11291
▁시작한다	-11292
▁소비자들의	-11293
im	-11294
여건	-11295
주주	-11296
타르	-11297
▁공산	-11298
그룹의	-11299
셨어요	-11300
▁설치를	-11301
▁예전에	-11302
▁현상을	-11303
본부장은	-11304
▁아니하다	-11305
▁플랫폼을	-11306
▁환경에서	-11307
주실	-11308
▁모래	-11309
▁비자	-11310
▁빌딩	-11311
▁하위	-11312
스마트	-11313
▁가능성	-11314
▁받았던	-11315
▁손해를	-11316
▁이른다	-11317
▁자문을	-11318
▁전략이	-11319
▁확대할	-11320
▁휴가를	-11321
산업단지	-11322
▁어머니가	-11323
가입	-11324
캐피	-11325
▁감수	-11326
▁경매	-11327
▁괴롭	-11328
▁도주	-11329
▁방과	-11330
▁성도	-11331
▁제천	-11332
▁책정	-11333
검사를	-11334
▁기관에	-11335
▁냄새가	-11336
▁대회에	-11337
▁박람회	-11338
▁활약을	-11339
교육청이	-11340
▁줄어드는	-11341
▁회원들이	-11342
▁사립유치원	-11343
▁힙	-11344
기만	-11345
조로	-11346
▁계정	-11347
▁방한	-11348
▁시의	-11349
▁영하	-11350
▁한옥	-11351
▁해촉	-11352
대상은	-11353
▁교수의	-11354
▁메일로	-11355
▁시기가	-11356
▁어렸을	-11357
▁현장의	-11358
▁남자친구	-11359
▁감사드립니다	-11360
달을	-11361
레저	-11362
복구	-11363
약이	-11364
종일	-11365
▁김광	-11366
▁동향	-11367
▁영암	-11368
▁재차	-11369
▁축적	-11370
▁타결	-11371
▁테크	-11372
제도를	-11373
▁교사가	-11374
▁되어야	-11375
▁부족해	-11376
▁부회장	-11377
▁알아야	-11378
신청서를	-11379
▁리모델링	-11380
▁인테리어	-11381
념을	-11382
음은	-11383
▁고지	-11384
▁골드	-11385
▁미드	-11386
▁상한	-11387
▁있겠	-11388
▁제휴	-11389
개사가	-11390
만명을	-11391
▁강의를	-11392
▁미래의	-11393
▁생명을	-11394
▁작업에	-11395
▁크다고	-11396
▁피부에	-11397
▁학생은	-11398
문화예술	-11399
▁JTBC	-11400
▁기획예산	-11401
▁꽉	-11402
▁넉	-11403
▁퀴	-11404
소속	-11405
채널	-11406
▁강구	-11407
▁겨우	-11408
▁노숙	-11409
▁데에	-11410
개월이	-11411
원들의	-11412
▁꾸준한	-11413
▁염두에	-11414
▁인생을	-11415
▁정책과	-11416
▁호텔에	-11417
자로부터	-11418
▁교육부는	-11419
▁프리미어	-11420
(15	-11421
▁교도	-11422
▁남지	-11423
▁녹지	-11424
▁쉬는	-11425
▁저항	-11426
▁좋게	-11427
▁치유	-11428
▁표기	-11429
문으로	-11430
정책이	-11431
층으로	-11432
▁등이다	-11433
▁법원은	-11434
▁베를린	-11435
▁위주의	-11436
▁체계를	-11437
▁펼치는	-11438
▁평화를	-11439
▁계획이라고	-11440
량에	-11441
모임	-11442
무늬	-11443
생의	-11444
소유	-11445
울루	-11446
▁84	-11447
▁오빠	-11448
▁크루	-11449
▁결혼을	-11450
▁되는지	-11451
▁버스가	-11452
▁위원을	-11453
▁인천시	-11454
▁주의를	-11455
▁한국전	-11456
▁국토부는	-11457
▁이미지가	-11458
▁확대되고	-11459
드럽	-11460
분은	-11461
씨에	-11462
일리	-11463
평구	-11464
▁돼야	-11465
▁보강	-11466
▁유류	-11467
▁장치	-11468
대통령	-11469
▁깨끗한	-11470
▁인사가	-11471
▁촬영한	-11472
▁하고자	-11473
▁공급하는	-11474
▁농림축산	-11475
▁대법원장	-11476
▁상승세를	-11477
벌이	-11478
준의	-11479
▁고생	-11480
▁만만	-11481
▁번의	-11482
▁본선	-11483
▁봤을	-11484
▁의정	-11485
▁이병	-11486
▁조처	-11487
▁통학	-11488
기업에	-11489
▁나누어	-11490
▁대구시	-11491
▁법원의	-11492
▁병원을	-11493
▁평범한	-11494
구청장은	-11495
▁공기청정	-11496
▁이벤트가	-11497
▁중간선거	-11498
▁활발하게	-11499
미로	-11500
봐도	-11501
트라	-11502
후보	-11503
▁77	-11504
▁공청	-11505
▁우유	-11506
영화제	-11507
▁가벼운	-11508
▁금융권	-11509
▁언론이	-11510
▁일제히	-11511
▁황교안	-11512
▁흐름이	-11513
▁부총리는	-11514
▁탄력근로	-11515
▁환경오염	-11516
대장	-11517
움과	-11518
일반	-11519
페라	-11520
▁나노	-11521
▁배워	-11522
▁시티	-11523
▁외출	-11524
▁지혜	-11525
▁후회	-11526
팔렘방	-11527
▁다큐멘	-11528
▁분석도	-11529
▁이끌고	-11530
▁최적의	-11531
▁파주시	-11532
▁해수욕	-11533
▁회담을	-11534
▁돋보이는	-11535
▁벌어지는	-11536
▁붙잡혔다	-11537
세와	-11538
▁53	-11539
▁인원	-11540
▁합작	-11541
석으로	-11542
▁대상에	-11543
▁되었고	-11544
▁신흥국	-11545
▁지정할	-11546
지역으로	-11547
▁적용되는	-11548
▁체결했다	-11549
시행하여야	-11550
▁업계에서는	-11551
기소	-11552
즈는	-11553
▁단백	-11554
▁북핵	-11555
▁철수	-11556
▁촛불	-11557
내용을	-11558
▁가정의	-11559
▁국무부	-11560
▁발표된	-11561
▁부드럽	-11562
▁위반한	-11563
▁주장한	-11564
더라고요	-11565
▁개최하는	-11566
▁캄	-11567
▁거점	-11568
▁국군	-11569
▁나랑	-11570
▁봐요	-11571
▁환호	-11572
▁회피	-11573
스럽다	-11574
▁대응을	-11575
▁방식의	-11576
▁얘기가	-11577
▁자체를	-11578
위원회와	-11579
▁결정하는	-11580
▁근본적인	-11581
▁보고서에	-11582
▁큐	-11583
브를	-11584
색의	-11585
해지	-11586
▁개가	-11587
▁바가	-11588
▁신도	-11589
▁양평	-11590
▁참사	-11591
▁팀은	-11592
기관인	-11593
사고가	-11594
▁걸렸다	-11595
▁마련을	-11596
▁매뉴얼	-11597
▁선진국	-11598
▁체결한	-11599
▁학생을	-11600
▁뉴질랜드	-11601
▁지난해보다	-11602
종합지원센터	-11603
▁-	-11604
마의	-11605
크로	-11606
▁돕고	-11607
▁잡지	-11608
▁중계	-11609
▁지점	-11610
▁쪽에	-11611
▁쪽은	-11612
납니다	-11613
▁금감원	-11614
▁달러를	-11615
▁민주화	-11616
▁바람을	-11617
▁벌이는	-11618
▁여학생	-11619
▁정말로	-11620
▁혁신을	-11621
▁아직까지	-11622
▁주십시오	-11623
▁선고받았다	-11624
▁챔피언스리그	-11625
(0	-11626
버거	-11627
▁만세	-11628
▁매도	-11629
▁무장	-11630
▁화해	-11631
▁힐링	-11632
▁구축을	-11633
▁라이프	-11634
▁불공정	-11635
▁이상한	-11636
▁좋아서	-11637
▁사회에서	-11638
▁행복하게	-11639
▁정상회담에서	-11640
1%	-11641
PC	-11642
▁굵	-11643
골프	-11644
량과	-11645
표준	-11646
해져	-11647
▁노회	-11648
▁단행	-11649
▁선행	-11650
▁신조	-11651
트럼프	-11652
▁감독과	-11653
▁종사자	-11654
▁중심에	-11655
▁아이스크	-11656
▁스마트폰을	-11657
농가	-11658
르며	-11659
∼20	-11660
▁놀러	-11661
▁놓은	-11662
▁외모	-11663
▁의문	-11664
▁읽는	-11665
▁학업	-11666
▁LED	-11667
▁받았고	-11668
▁언제든	-11669
▁증가로	-11670
▁총리의	-11671
▁발생하면	-11672
▁수행하기	-11673
oo	-11674
공제	-11675
부품	-11676
▁공군	-11677
▁가족은	-11678
▁달했다	-11679
▁독일의	-11680
▁선수를	-11681
▁소통을	-11682
▁승리가	-11683
▁요구에	-11684
▁중이며	-11685
▁경제성장	-11686
▁기획재정	-11687
▁등장했다	-11688
▁무대에서	-11689
▁베네수엘라	-11690
▁서울중앙지법	-11691
데스	-11692
▁명동	-11693
▁몰입	-11694
▁빈번	-11695
▁시일	-11696
▁연대	-11697
▁전신	-11698
▁편이	-11699
▁합법	-11700
▁혈액	-11701
국장이	-11702
년마다	-11703
센터와	-11704
▁경력이	-11705
▁그쳤다	-11706
▁살아남	-11707
▁추억을	-11708
▁치료가	-11709
▁하도급	-11710
▁협상에	-11711
▁가족들과	-11712
▁분위기다	-11713
▁인터넷을	-11714
▁아이들에게	-11715
▁중소벤처기업	-11716
어업	-11717
전선	-11718
택시	-11719
▁김혜	-11720
▁카운	-11721
▁학대	-11722
▁극심한	-11723
▁여파로	-11724
▁지원한	-11725
▁특별법	-11726
▁혼자서	-11727
▁유관기관	-11728
▁킨	-11729
리자	-11730
산과	-11731
어에	-11732
열을	-11733
▁남는	-11734
▁빈곤	-11735
▁식민	-11736
▁억울	-11737
▁자부	-11738
▁처한	-11739
▁체력	-11740
단에서	-11741
사회가	-11742
시간은	-11743
▁내려가	-11744
▁마쳤다	-11745
▁성분이	-11746
▁수요를	-11747
▁체험할	-11748
▁포스트	-11749
▁조건으로	-11750
수술	-11751
▁광명	-11752
▁구정	-11753
▁단단	-11754
▁맑은	-11755
▁바퀴	-11756
▁벌여	-11757
▁코치	-11758
▁푸른	-11759
기간에	-11760
보고서	-11761
분부터	-11762
셨으면	-11763
정책의	-11764
▁사랑이	-11765
▁갔습니다	-11766
▁확보하고	-11767
설비	-11768
속을	-11769
(10	-11770
▁꾸려	-11771
▁열대	-11772
▁재임	-11773
▁주체	-11774
▁중이	-11775
▁동장은	-11776
▁목요일	-11777
▁보고를	-11778
▁블록체	-11779
▁시행할	-11780
▁인력이	-11781
▁잘하는	-11782
▁출동한	-11783
대회에서	-11784
호텔에서	-11785
▁감소했다	-11786
▁관련해서	-11787
▁높아지는	-11788
▁월요일에	-11789
▁콘서트를	-11790
(18	-11791
▁걸로	-11792
▁농구	-11793
▁샤워	-11794
▁양이	-11795
문재인	-11796
업체에	-11797
▁경찰관	-11798
▁배경을	-11799
▁영화에	-11800
▁요금을	-11801
▁인건비	-11802
▁장소로	-11803
▁중국산	-11804
▁중학생	-11805
▁직원의	-11806
▁개발하고	-11807
▁높아졌다	-11808
▁약속했다	-11809
▁전문적인	-11810
▁얇	-11811
스레	-11812
터는	-11813
▁가파	-11814
▁계곡	-11815
▁나뉘	-11816
▁디저	-11817
▁생계	-11818
▁써야	-11819
▁오해	-11820
▁유인	-11821
대학원	-11822
▁거쳐야	-11823
▁인정한	-11824
▁지키는	-11825
▁자유로운	-11826
▁말했습니다	-11827
52	-11828
▁룸	-11829
광주	-11830
상위	-11831
심은	-11832
▁MC	-11833
▁매번	-11834
▁환전	-11835
▁계획에	-11836
▁고객님	-11837
▁공정위	-11838
▁대다수	-11839
▁숨지고	-11840
▁여유가	-11841
▁자에게	-11842
▁장관을	-11843
▁제출을	-11844
터테인먼	-11845
▁비상대책	-11846
▁전문가들의	-11847
▁c	-11848
개에	-11849
개정	-11850
교가	-11851
엑스	-11852
혐의	-11853
▁도자	-11854
▁부스	-11855
▁용이	-11856
▁진압	-11857
▁차에	-11858
▁트리	-11859
공간을	-11860
▁160	-11861
▁기금을	-11862
▁바닥에	-11863
▁어때요	-11864
▁주목할	-11865
▁가능하게	-11866
▁계속되고	-11867
▁양성평등	-11868
▁요인으로	-11869
▁운전자가	-11870
눈에	-11871
리랑	-11872
연은	-11873
프레	-11874
▁경사	-11875
▁땅을	-11876
▁상주	-11877
▁예보	-11878
▁트로	-11879
▁포트	-11880
▁현역	-11881
▁넘겨진	-11882
▁모양의	-11883
▁쏠린다	-11884
▁알려줄	-11885
▁여건이	-11886
▁확대에	-11887
연구원은	-11888
투자증권	-11889
▁실시하여야	-11890
▁캡	-11891
▁것만	-11892
▁독려	-11893
▁자존	-11894
거리는	-11895
▁과거사	-11896
▁머리가	-11897
▁세우고	-11898
▁과반수의	-11899
▁이밖에도	-11900
..	-11901
▁족	-11902
▁때의	-11903
▁믿을	-11904
▁방이	-11905
▁슬픔	-11906
▁패배	-11907
▁폭넓	-11908
▁표명	-11909
석에서	-11910
▁결과다	-11911
▁달라진	-11912
▁수원시	-11913
▁스티커	-11914
▁알렸다	-11915
▁연구가	-11916
▁확산을	-11917
▁회의가	-11918
▁개최하고	-11919
▁관계없이	-11920
▁민주평화당	-11921
경북	-11922
무장	-11923
부족	-11924
세종	-11925
톨릭	-11926
합창	-11927
▁구역	-11928
▁송도	-11929
▁예선	-11930
▁이낙	-11931
▁정서	-11932
▁초등	-11933
▁분야별	-11934
▁인간이	-11935
▁촬영을	-11936
▁한류가	-11937
▁후보로	-11938
▁에너지를	-11939
▁행사에서	-11940
▁일방적으로	-11941
▁젊은이들이	-11942
라운	-11943
조는	-11944
크가	-11945
▁동호	-11946
▁됐고	-11947
▁불리	-11948
▁산학	-11949
▁스키	-11950
▁슬로	-11951
▁승차	-11952
▁이은	-11953
▁정성	-11954
▁갖는다	-11955
▁기록이	-11956
▁비용의	-11957
▁연예인	-11958
▁자녀를	-11959
▁하다가	-11960
▁한류의	-11961
▁합니까	-11962
▁힘들다	-11963
▁그녀에게	-11964
▁둘러싸고	-11965
▁차별화된	-11966
▁팬들에게	-11967
문과	-11968
▁건국	-11969
▁기피	-11970
▁변신	-11971
▁상고	-11972
▁취한	-11973
기에서	-11974
졌는데	-11975
중학교	-11976
행사가	-11977
▁미성년	-11978
▁방송인	-11979
▁의식을	-11980
▁의약품	-11981
▁1970	-11982
▁강제징용	-11983
▁공시가격	-11984
▁그렇군요	-11985
▁중이라고	-11986
▁윈	-11987
▁휠	-11988
계열	-11989
두가	-11990
리조	-11991
즈의	-11992
채용	-11993
회째	-11994
▁76	-11995
▁따져	-11996
▁멈춰	-11997
▁생애	-11998
▁실례	-11999
▁유로	-12000
▁잦은	-12001
▁공항에	-12002
▁구로구	-12003
▁떠나는	-12004
▁수상한	-12005
▁커지는	-12006
▁하나다	-12007
▁구성하고	-12008
▁떨어지고	-12009
▁모르겠다	-12010
▁정신질환	-12011
SK	-12012
▁싼	-12013
▁헐	-12014
▁결심	-12015
▁꿈이	-12016
▁수송	-12017
▁질을	-12018
▁해임	-12019
▁환수	-12020
나가는	-12021
주셔서	-12022
해진다	-12023
▁개최할	-12024
▁방법에	-12025
▁설명해	-12026
▁심의회	-12027
▁음식점	-12028
▁확보할	-12029
▁관객들이	-12030
▁생각했다	-12031
▁점검하고	-12032
나의	-12033
류에	-12034
코올	-12035
▁넣은	-12036
▁두는	-12037
▁뜨겁	-12038
▁민사	-12039
▁악용	-12040
▁외곽	-12041
▁방안도	-12042
▁오전에	-12043
▁요즘은	-12044
▁티셔츠	-12045
▁그들에게	-12046
▁심의하기	-12047
▁외국인이	-12048
▁움직이는	-12049
▁콘텐츠가	-12050
▁공무원들이	-12051
ir	-12052
▁궤	-12053
구성	-12054
년여	-12055
요구	-12056
철이	-12057
학원	-12058
▁계란	-12059
▁골라	-12060
▁방을	-12061
▁벚꽃	-12062
▁실수	-12063
▁영혼	-12064
▁외식	-12065
▁과거에	-12066
▁마이너	-12067
▁숨졌다	-12068
▁이낙연	-12069
▁조건이	-12070
▁주택을	-12071
▁협의가	-12072
▁멤버들이	-12073
▁소비자의	-12074
▁커지면서	-12075
▁꾸며	-12076
▁주유	-12077
성장을	-12078
포인트	-12079
▁것인데	-12080
▁꿈꾸는	-12081
▁모르고	-12082
▁변경할	-12083
▁아직은	-12084
▁역사와	-12085
▁전원이	-12086
▁증거가	-12087
▁측면이	-12088
▁흔적이	-12089
▁가능성에	-12090
▁민간위탁	-12091
▁추가적인	-12092
▁확인되지	-12093
등한	-12094
신저	-12095
행복	-12096
▁기쁘	-12097
▁단원	-12098
▁원격	-12099
▁적자	-12100
▁참모	-12101
▁침입	-12102
▁타입	-12103
▁갔어요	-12104
▁격차가	-12105
▁사무총	-12106
▁실질적	-12107
▁있었기	-12108
▁1998	-12109
지방자치단체	-12110
법률	-12111
플라	-12112
▁광교	-12113
▁난다	-12114
▁도망	-12115
▁사서	-12116
▁삶에	-12117
▁일일	-12118
▁조립	-12119
▁하향	-12120
능력을	-12121
▁고마워	-12122
▁우리도	-12123
▁일본을	-12124
▁정하고	-12125
▁주의가	-12126
해지면서	-12127
협동조합	-12128
▁확인해보	-12129
▁자체적으로	-12130
▁갓	-12131
업자	-12132
팀에	-12133
CEO	-12134
▁반가	-12135
▁인접	-12136
됐는데	-12137
스타일	-12138
▁거짓말	-12139
▁목표다	-12140
▁소개해	-12141
▁않았어	-12142
▁운영과	-12143
▁이어가	-12144
▁여성가족	-12145
▁처음부터	-12146
▁우리나라는	-12147
와이	-12148
인식	-12149
정당	-12150
▁깨달	-12151
▁리조	-12152
▁많기	-12153
▁알레	-12154
▁정유	-12155
▁집안	-12156
▁칭찬	-12157
여행을	-12158
증으로	-12159
▁크기가	-12160
▁탄탄한	-12161
▁항소심	-12162
▁확률이	-12163
▁나라에서	-12164
▁만들어야	-12165
▁사용료를	-12166
▁한국당이	-12167
▁합의했다	-12168
▁숭	-12169
렉스	-12170
플러	-12171
ECD	-12172
▁공예	-12173
▁교착	-12174
▁띈다	-12175
▁소멸	-12176
▁실리	-12177
▁우대	-12178
▁하러	-12179
하네요	-12180
▁강렬한	-12181
▁경험과	-12182
▁담당자	-12183
▁뜻으로	-12184
▁업체를	-12185
▁있었을	-12186
▁장소가	-12187
▁폴란드	-12188
▁들어오는	-12189
▁진단했다	-12190
지방자치법	-12191
▁궁금합니다	-12192
▁진행되었다	-12193
▁:	-12194
▁곱	-12195
농구	-12196
민간	-12197
비행	-12198
효율	-12199
▁간다	-12200
▁나눴	-12201
▁푸드	-12202
교육법	-12203
대회가	-12204
▁떨어뜨	-12205
▁법원에	-12206
▁조화를	-12207
▁지역구	-12208
▁행복을	-12209
5,000	-12210
▁공항에서	-12211
▁모양새다	-12212
▁중요합니다	-12213
41	-12214
TE	-12215
▁샐	-12216
두를	-12217
매체	-12218
부부	-12219
트롤	-12220
▁견제	-12221
▁맥락	-12222
▁입는	-12223
▁한계	-12224
▁후손	-12225
대표가	-12226
환경이	-12227
▁성공할	-12228
▁아래로	-12229
▁원인은	-12230
▁지원과	-12231
▁지위를	-12232
▁찾아볼	-12233
▁걱정하지	-12234
▁경고했다	-12235
▁카메라를	-12236
▁지속가능한	-12237
경의	-12238
발이	-12239
에겐	-12240
품질	-12241
하듯	-12242
▁가사	-12243
▁대치	-12244
▁모른	-12245
▁무늬	-12246
▁반해	-12247
▁볼턴	-12248
▁승부	-12249
▁파격	-12250
드려요	-12251
시리즈	-12252
▁기억에	-12253
▁문건을	-12254
▁솔직히	-12255
▁신기술	-12256
▁접근이	-12257
▁즐기고	-12258
▁체험을	-12259
▁추천한	-12260
▁교육부가	-12261
▁기업으로	-12262
▁기존에는	-12263
▁사람들도	-12264
▁어디에서	-12265
▁늘어나면서	-12266
▁방탄소년단	-12267
DA	-12268
▁꿀	-12269
공을	-12270
▁공백	-12271
▁명문	-12272
▁묘사	-12273
▁비춰	-12274
▁신약	-12275
▁썼다	-12276
▁영남	-12277
▁오산	-12278
었는지	-12279
지역은	-12280
▁고객을	-12281
▁이마트	-12282
▁전략적	-12283
▁회담이	-12284
▁회장을	-12285
ation	-12286
▁찔	-12287
모집	-12288
분양	-12289
오를	-12290
자다	-12291
▁세련	-12292
▁싸움	-12293
▁유산	-12294
테이션	-12295
▁감독을	-12296
▁금융위	-12297
▁내부에	-12298
▁수사권	-12299
▁조정할	-12300
▁통일부	-12301
▁마련된다	-12302
▁부문에서	-12303
▁후보자가	-12304
▁우선적으로	-12305
▁꽂	-12306
기인	-12307
비율	-12308
오스	-12309
추어	-12310
(20	-12311
▁88	-12312
▁NC	-12313
▁NH	-12314
▁공수	-12315
▁구독	-12316
▁납입	-12317
▁시인	-12318
▁일선	-12319
▁타격	-12320
지니어	-12321
▁KTX	-12322
▁뒤에는	-12323
▁소재로	-12324
▁잠시만	-12325
▁재학생	-12326
▁처리가	-12327
▁공무원을	-12328
▁만족도가	-12329
감시	-12330
량제	-12331
유총	-12332
▁로그	-12333
▁우체	-12334
▁위의	-12335
▁추출	-12336
과장이	-12337
라이나	-12338
▁교류가	-12339
▁축제는	-12340
▁화이트	-12341
셨습니다	-12342
▁물론이고	-12343
▁미국으로	-12344
▁사업시행	-12345
▁설문조사	-12346
▁주관부서의	-12347
∼9	-12348
이도	-12349
▁GS	-12350
▁본래	-12351
▁교육청	-12352
▁김의겸	-12353
▁담았다	-12354
▁맞나요	-12355
▁매력이	-12356
▁물량이	-12357
▁민원이	-12358
▁현실화	-12359
▁나옵니다	-12360
▁노하우를	-12361
▁발표하고	-12362
▁방송에서	-12363
▁언제까지	-12364
IM	-12365
병대	-12366
조달	-12367
▁드물	-12368
▁웹툰	-12369
▁이끈	-12370
▁모스크	-12371
▁밖에서	-12372
▁분야를	-12373
▁음악이	-12374
▁이어지	-12375
▁지시를	-12376
▁질문이	-12377
▁프로듀	-12378
▁협의하여	-12379
재생에너지	-12380
드린	-12381
차게	-12382
창조	-12383
▁마켓	-12384
로서는	-12385
▁110	-12386
▁ICT	-12387
▁귀사의	-12388
▁소방서	-12389
▁시위를	-12390
▁여야가	-12391
▁용도로	-12392
▁차질이	-12393
▁활력을	-12394
▁대부분은	-12395
▁못했어요	-12396
▁할리우드	-12397
▁지난해부터	-12398
▁m	-12399
스틱	-12400
줄이	-12401
첨단	-12402
▁극우	-12403
▁한은	-12404
기업과	-12405
부르크	-12406
조에서	-12407
학년도	-12408
▁문제다	-12409
▁선수는	-12410
▁시에는	-12411
▁재산을	-12412
▁팬들을	-12413
▁편안한	-12414
▁흐르는	-12415
차전에서	-12416
▁노동조합	-12417
▁이메일로	-12418
▁고용노동부	-12419
▁농림축산식품	-12420
남용	-12421
신은	-12422
에이	-12423
▁감추	-12424
▁동두	-12425
▁두되	-12426
▁먹은	-12427
▁수납	-12428
▁신기	-12429
▁우회	-12430
▁찍고	-12431
해야만	-12432
▁높다고	-12433
▁민간인	-12434
▁서울을	-12435
▁카드로	-12436
▁시점에서	-12437
▁완료되면	-12438
▁임대주택	-12439
▁촉구하는	-12440
▁행정부가	-12441
▁가라	-12442
▁공지	-12443
▁낯선	-12444
▁맛볼	-12445
▁증정	-12446
▁피로	-12447
자금을	-12448
주시길	-12449
▁나경원	-12450
▁눈으로	-12451
▁성명을	-12452
▁원장이	-12453
▁이유에	-12454
▁장시간	-12455
▁정황을	-12456
▁조기에	-12457
▁편리한	-12458
▁공장에서	-12459
▁공개적으로	-12460
▁뻗	-12461
설에	-12462
운전	-12463
위인	-12464
▁개회	-12465
▁논문	-12466
▁농산	-12467
▁먹지	-12468
▁방역	-12469
▁비전	-12470
▁서산	-12471
▁숙소	-12472
▁않자	-12473
▁양극	-12474
▁음원	-12475
▁토마	-12476
▁팀장	-12477
▁한양	-12478
▁각국의	-12479
▁관리할	-12480
▁아니었다	-12481
▁이르기까지	-12482
▁행정안전부	-12483
▁s	-12484
▁낡	-12485
주면	-12486
철을	-12487
하가	-12488
▁6,	-12489
▁VR	-12490
▁개장	-12491
▁씨를	-12492
아파트	-12493
▁더욱더	-12494
▁됐다는	-12495
▁설명이	-12496
▁연이어	-12497
▁적용된	-12498
▁2030	-12499
▁거주하고	-12500
▁경제부총	-12501
▁디자인이	-12502
▁메시지가	-12503
기부	-12504
이미	-12505
증과	-12506
▁강북	-12507
▁고무	-12508
▁대성	-12509
▁서예	-12510
▁신동	-12511
▁저와	-12512
▁학기	-12513
곳에서	-12514
▁남겼다	-12515
▁민감한	-12516
▁방안에	-12517
▁소식에	-12518
▁전하는	-12519
▁제품과	-12520
▁판단한	-12521
▁기대했다	-12522
▁일주일에	-12523
▁있었는지	-12524
▁해결하는	-12525
▁확대하는	-12526
▁사우디아라	-12527
전지	-12528
▁고난	-12529
▁공천	-12530
▁다저	-12531
▁바쁘	-12532
▁송부	-12533
▁공격수	-12534
▁광범위	-12535
▁등장한	-12536
▁보다는	-12537
▁비율은	-12538
▁이곳을	-12539
▁혐의에	-12540
▁부산에서	-12541
▁설명하고	-12542
▁스타디움	-12543
▁아시안컵	-12544
▁있으므로	-12545
▁전문성을	-12546
DC	-12547
건은	-12548
양성	-12549
처벌	-12550
▁규격	-12551
▁배후	-12552
▁셋째	-12553
▁연인	-12554
▁예멘	-12555
▁정교	-12556
▁진열	-12557
기준은	-12558
▁고민을	-12559
▁대표로	-12560
▁되어서	-12561
▁반발이	-12562
▁생기면	-12563
▁우연히	-12564
▁원해요	-12565
▁제출할	-12566
▁중으로	-12567
▁공정위는	-12568
▁분석됐다	-12569
▁의사소통	-12570
▁소셜미디어	-12571
of	-12572
▁끄	-12573
언을	-12574
워드	-12575
▁과징	-12576
▁김장	-12577
▁드려	-12578
▁바빠	-12579
▁시키	-12580
▁오더	-12581
▁출고	-12582
투자가	-12583
▁관계에	-12584
▁기반의	-12585
▁노래가	-12586
▁돌아와	-12587
▁서식의	-12588
▁국민청원	-12589
▁집행유예	-12590
▁최고경영자	-12591
함은	-12592
▁군수	-12593
▁막고	-12594
▁불합	-12595
▁세일	-12596
▁창고	-12597
▁특사	-12598
▁게시판	-12599
▁대가로	-12600
▁요건을	-12601
▁재판이	-12602
▁향상에	-12603
임대주택	-12604
▁매력적인	-12605
▁위해서다	-12606
▁인근에서	-12607
▁해명했다	-12608
▁공식적으로	-12609
67	-12610
강에	-12611
내지	-12612
닉스	-12613
언론	-12614
욕을	-12615
우주	-12616
증명	-12617
층은	-12618
▁가자	-12619
▁농기	-12620
▁놓인	-12621
▁말라	-12622
▁하얀	-12623
업체를	-12624
적이지	-12625
▁모습에	-12626
▁아내가	-12627
▁안정을	-12628
▁의미로	-12629
▁출신인	-12630
▁한계를	-12631
▁후보의	-12632
▁브랜드를	-12633
▁엘리베이터	-12634
▁있으신가요	-12635
라리	-12636
사자	-12637
티아	-12638
▁78	-12639
▁국채	-12640
▁금고	-12641
시나요	-12642
시설과	-12643
▁무대가	-12644
▁성실히	-12645
▁포즈를	-12646
▁행정적	-12647
▁대법원이	-12648
▁발생한다	-12649
▁시민사회	-12650
▁여자친구	-12651
▁온실가스	-12652
▁접근성이	-12653
▁한국전쟁	-12654
보관	-12655
였어	-12656
PGA	-12657
▁69	-12658
▁배터	-12659
▁연체	-12660
그룹은	-12661
아무개	-12662
▁가려고	-12663
▁가져가	-12664
▁전망도	-12665
▁한국교	-12666
▁대북제재	-12667
▁드라마의	-12668
▁보호하기	-12669
▁때문이라는	-12670
us	-12671
월과	-12672
▁교정	-12673
▁대관	-12674
▁박용	-12675
▁세제	-12676
▁좁은	-12677
내에서	-12678
▁금리인	-12679
▁다루는	-12680
▁발전할	-12681
▁법안을	-12682
▁법안이	-12683
▁세웠다	-12684
▁업계는	-12685
▁유니폼	-12686
▁표현을	-12687
▁같은데요	-12688
▁수립하여	-12689
▁시작된다	-12690
▁지정하는	-12691
▁개인적으로	-12692
▁대표적이다	-12693
▁이어지면서	-12694
-3	-12695
▁킹	-12696
구간	-12697
▁72	-12698
▁고구	-12699
▁김학	-12700
▁다툼	-12701
▁이듬	-12702
▁입상	-12703
▁주면	-12704
자리를	-12705
▁그룹의	-12706
▁대회의	-12707
▁로버트	-12708
▁수업에	-12709
▁여성은	-12710
▁올라온	-12711
▁이렇다	-12712
▁지방의	-12713
▁참가할	-12714
▁취업을	-12715
▁강조하는	-12716
TX	-12717
구니	-12718
동향	-12719
박이	-12720
보좌	-12721
브라	-12722
▁87	-12723
▁부를	-12724
▁쓰여	-12725
▁유물	-12726
▁초고	-12727
년보다	-12728
사항에	-12729
▁규정된	-12730
▁만이다	-12731
▁증거를	-12732
▁참가자	-12733
▁케이티	-12734
기관에서	-12735
▁정상적으로	-12736
EA	-12737
보훈	-12738
저우	-12739
측은	-12740
▁과시	-12741
▁무덤	-12742
▁수목	-12743
▁시연	-12744
▁실습	-12745
▁유대	-12746
▁진천	-12747
▁피할	-12748
만명의	-12749
항에서	-12750
▁도대체	-12751
▁면세점	-12752
▁산업혁	-12753
▁주문이	-12754
▁주인이	-12755
▁중간에	-12756
▁지키고	-12757
▁계속되는	-12758
▁보이지만	-12759
▁있었으나	-12760
▁확보하기	-12761
▁튼	-12762
불이	-12763
▁경협	-12764
▁공립	-12765
▁길어	-12766
▁끝이	-12767
▁넥슨	-12768
▁이가	-12769
▁접경	-12770
▁호날	-12771
엔날레	-12772
천만원	-12773
화되는	-12774
▁가볍게	-12775
▁대학을	-12776
▁발전과	-12777
▁아끼지	-12778
▁아니할	-12779
▁아닐까	-12780
▁않나요	-12781
▁중구가	-12782
▁개인적인	-12783
▁상징하는	-12784
▁인천공항	-12785
▁서울중앙지검	-12786
비한	-12787
▁‘1	-12788
▁객실	-12789
▁공제	-12790
▁깊게	-12791
▁나눈	-12792
▁내로	-12793
▁이룰	-12794
▁주를	-12795
▁증대	-12796
▁태어	-12797
마케팅	-12798
▁3∼4	-12799
▁개발해	-12800
▁사례는	-12801
▁예약이	-12802
▁전력이	-12803
▁직업을	-12804
▁평소에	-12805
▁평화와	-12806
▁서비스에	-12807
▁영향력이	-12808
▁정상적인	-12809
ra	-12810
경과	-12811
▁1%	-12812
▁덜어	-12813
▁등산	-12814
▁살피	-12815
▁역설	-12816
▁이적	-12817
▁잃고	-12818
▁포용	-12819
발전에	-12820
였으나	-12821
해서는	-12822
▁기술의	-12823
▁메신저	-12824
▁업체는	-12825
▁통증이	-12826
▁비핵화와	-12827
▁있겠습니다	-12828
▁볶	-12829
저감	-12830
팀과	-12831
해볼	-12832
▁김창	-12833
▁꼬집	-12834
▁성형	-12835
네스코	-12836
▁과정은	-12837
▁명확한	-12838
▁스위스	-12839
▁안팎의	-12840
▁이듬해	-12841
▁어우러진	-12842
▁움직임을	-12843
▁미안하지만	-12844
되게	-12845
상인	-12846
야만	-12847
퇴직	-12848
하긴	-12849
▁달린	-12850
▁떡볶	-12851
▁시한	-12852
▁앓고	-12853
▁양해	-12854
▁연초	-12855
▁와인	-12856
▁일원	-12857
▁티저	-12858
▁흰색	-12859
▁느끼게	-12860
▁도시를	-12861
▁시너지	-12862
▁예정돼	-12863
▁행정부	-12864
▁1999	-12865
▁감사담당	-12866
▁지식재산	-12867
▁판매량이	-12868
▁론	-12869
▁흩	-12870
머스	-12871
지금	-12872
차의	-12873
▁계승	-12874
▁과천	-12875
▁민감	-12876
▁하죠	-12877
근로자	-12878
시에는	-12879
유공자	-12880
▁감정이	-12881
▁공장이	-12882
▁매출을	-12883
▁배송이	-12884
▁요소가	-12885
▁취지의	-12886
▁국가정보	-12887
▁대형마트	-12888
▁자전거를	-12889
▁예정이에요	-12890
▁캔	-12891
두는	-12892
태프	-12893
항만	-12894
▁63	-12895
▁각국	-12896
▁갑질	-12897
▁되자	-12898
▁땅에	-12899
▁전도	-12900
▁한참	-12901
셧다운	-12902
▁검사가	-12903
▁마시는	-12904
▁색다른	-12905
▁실형을	-12906
▁아이스	-12907
▁안에는	-12908
▁예산안	-12909
▁지식을	-12910
▁타이어	-12911
▁한눈에	-12912
▁히어로	-12913
보고서를	-12914
▁경기도를	-12915
▁경기도청	-12916
▁예상하고	-12917
▁요청하는	-12918
▁금융당국이	-12919
▁지역에서는	-12920
더스	-12921
마리	-12922
방학	-12923
으려	-12924
▁만드	-12925
▁물량	-12926
▁새끼	-12927
▁이산	-12928
▁힙합	-12929
소프트	-12930
▁낙동강	-12931
▁남다른	-12932
▁아래의	-12933
▁역사상	-12934
▁일본과	-12935
▁제기돼	-12936
▁활발히	-12937
현지시각	-12938
▁대학에서	-12939
▁배우들이	-12940
▁분석하고	-12941
로지	-12942
재활	-12943
절이	-12944
▁구리	-12945
▁들면	-12946
▁마포	-12947
▁짓는	-12948
박람회	-12949
▁노회찬	-12950
▁상당수	-12951
▁올해의	-12952
▁잇달아	-12953
▁저번에	-12954
▁적용한	-12955
▁헝가리	-12956
▁내년에는	-12957
▁방문하여	-12958
▁있어서다	-12959
▁평가하는	-12960
▁공무원으로	-12961
▁알려주시면	-12962
ut	-12963
돈을	-12964
되길	-12965
배출	-12966
▁걸친	-12967
▁관행	-12968
▁넘지	-12969
▁문이	-12970
▁선전	-12971
▁적당	-12972
▁지리	-12973
▁불어넣	-12974
▁비중은	-12975
▁완성차	-12976
▁일정에	-12977
▁축제의	-12978
▁행동이	-12979
▁교육지원	-12980
▁근로자의	-12981
▁기간으로	-12982
▁모르겠어	-12983
▁판단하고	-12984
▁신청하여야	-12985
▁투자자들이	-12986
ER	-12987
겨울	-12988
공모	-12989
주관	-12990
혈압	-12991
▁더블	-12992
▁레알	-12993
▁영원	-12994
▁오브	-12995
▁입구	-12996
▁전술	-12997
▁침묵	-12998
건설이	-12999
▁신문은	-13000
▁아닌지	-13001
▁증시가	-13002
▁화제다	-13003
▁반려동물	-13004
▁생각하면	-13005
▁투자유치	-13006
상가	-13007
(30	-13008
▁달이	-13009
▁발걸	-13010
▁속의	-13011
▁이념	-13012
▁일과	-13013
▁좌석	-13014
▁개정을	-13015
▁과거의	-13016
▁김씨의	-13017
▁도로를	-13018
▁만남을	-13019
▁스피커	-13020
▁인상에	-13021
▁프라이	-13022
진흥원이	-13023
▁못하도록	-13024
▁보냅니다	-13025
▁확인하기	-13026
그린	-13027
안타	-13028
파를	-13029
회복	-13030
▁소액	-13031
▁손꼽	-13032
▁외의	-13033
▁차트	-13034
▁해방	-13035
지거나	-13036
컨설팅	-13037
▁거기서	-13038
▁계속될	-13039
▁사항과	-13040
▁신고한	-13041
▁예정이	-13042
▁의도가	-13043
▁재미를	-13044
▁정부를	-13045
▁나오면서	-13046
▁존재하는	-13047
▁갯	-13048
감도	-13049
강점	-13050
동맹	-13051
세이	-13052
소장	-13053
응답	-13054
종은	-13055
▁FC	-13056
▁김준	-13057
▁뜻이	-13058
▁번씩	-13059
▁보훈	-13060
금리를	-13061
만원에	-13062
▁귀여운	-13063
▁밝히고	-13064
▁분야는	-13065
▁삼성이	-13066
▁양국의	-13067
▁정신이	-13068
▁좀처럼	-13069
▁진행을	-13070
▁출시한	-13071
▁합의에	-13072
▁성장하고	-13073
련의	-13074
운을	-13075
저널	-13076
취약	-13077
토리	-13078
∼30	-13079
▁뒤따	-13080
▁배를	-13081
▁백화	-13082
▁빚어	-13083
▁스킨	-13084
▁종결	-13085
▁직속	-13086
▁창단	-13087
▁팔당	-13088
터미널	-13089
하므로	-13090
▁돌아갈	-13091
▁사람에	-13092
▁시간도	-13093
▁얼굴에	-13094
▁위대한	-13095
▁이익이	-13096
▁있다가	-13097
▁학교는	-13098
▁공부하고	-13099
▁기업들은	-13100
▁운영된다	-13101
▁현금으로	-13102
▁b	-13103
상환	-13104
신과	-13105
장벽	-13106
▁김연	-13107
▁내달	-13108
▁녹음	-13109
▁막는	-13110
▁물고	-13111
▁법이	-13112
▁변상	-13113
▁비하	-13114
▁셔틀	-13115
▁줄고	-13116
▁해보	-13117
▁휴양	-13118
전까지	-13119
▁SUV	-13120
▁강화할	-13121
▁강화해	-13122
▁나라에	-13123
▁요금이	-13124
▁모집한다	-13125
▁옴	-13126
면은	-13127
재와	-13128
▁게이	-13129
▁경호	-13130
▁김승	-13131
▁내보	-13132
▁모듈	-13133
▁사모	-13134
▁소음	-13135
▁연상	-13136
▁영웅	-13137
▁인문	-13138
▁펼친	-13139
산업을	-13140
원장은	-13141
▁3.1	-13142
▁방문이	-13143
▁아나운	-13144
▁전환을	-13145
▁특징을	-13146
▁팬클럽	-13147
▁국민일보	-13148
▁장소에서	-13149
▁재미있게	-13150
▁솜	-13151
▁첼	-13152
경남	-13153
들께	-13154
우와	-13155
전남	-13156
IST	-13157
▁공매	-13158
▁리버	-13159
▁석방	-13160
▁쌓여	-13161
▁자이	-13162
▁제보	-13163
▁협회	-13164
▁건물은	-13165
▁기대할	-13166
▁누구도	-13167
▁데리고	-13168
▁마련돼	-13169
▁이견이	-13170
드릴까요	-13171
▁이뤄져야	-13172
▁일대에서	-13173
▁캐릭터를	-13174
지정	-13175
최저	-13176
특위	-13177
▁감성	-13178
▁방에	-13179
▁에피	-13180
느냐에	-13181
물질이	-13182
운영을	-13183
▁겪었다	-13184
▁그룹이	-13185
▁대응이	-13186
▁발표가	-13187
▁할까요	-13188
▁회장과	-13189
▁반박했다	-13190
▁방문했다	-13191
▁비교하면	-13192
세트	-13193
셀러	-13194
심에	-13195
▁광양	-13196
▁년간	-13197
▁동화	-13198
▁키가	-13199
회사의	-13200
회의는	-13201
▁많다고	-13202
▁업무가	-13203
▁탁월한	-13204
▁흥미를	-13205
▁부작용이	-13206
▁사법농단	-13207
ot	-13208
분리	-13209
서부	-13210
승인	-13211
▁국적	-13212
▁김선	-13213
▁도박	-13214
▁무효	-13215
▁반품	-13216
▁브로	-13217
▁육박	-13218
▁하동	-13219
들보다	-13220
▁경기는	-13221
▁경기장	-13222
▁괜찮아	-13223
▁끝으로	-13224
▁말하며	-13225
▁아이디	-13226
▁조속히	-13227
▁필요해	-13228
▁해소를	-13229
▁방송되는	-13230
▁소송에서	-13231
▁신분으로	-13232
각이	-13233
고객	-13234
영어	-13235
▁나눌	-13236
▁너랑	-13237
▁상을	-13238
▁시골	-13239
▁촉발	-13240
대한민	-13241
수처리	-13242
활동이	-13243
▁궁금한	-13244
▁모이는	-13245
▁빠르고	-13246
▁사태를	-13247
▁시간당	-13248
▁일부는	-13249
▁전망을	-13250
▁죽음을	-13251
▁추천을	-13252
▁하시는	-13253
경찰서에	-13254
▁어우러져	-13255
▁유네스코	-13256
▁제조업체	-13257
▁준비되어	-13258
▁결과적으로	-13259
▁이해관계가	-13260
44	-13261
PA	-13262
단장	-13263
벨트	-13264
태가	-13265
텃밭	-13266
▁각계	-13267
▁건전	-13268
▁나고	-13269
▁녹아	-13270
▁휘발	-13271
동으로	-13272
퍼센트	-13273
▁당국의	-13274
▁대단히	-13275
▁돌아올	-13276
▁발언은	-13277
▁비율을	-13278
▁선발된	-13279
▁속하는	-13280
▁안전성	-13281
▁함께한	-13282
▁확보해	-13283
▁매장에서	-13284
▁원활하게	-13285
▁해양수산	-13286
▁흥미로운	-13287
▁시장에서는	-13288
WS	-13289
르트	-13290
형은	-13291
▁보자	-13292
▁얻기	-13293
▁이화	-13294
▁치즈	-13295
▁항만	-13296
소시엄	-13297
시장과	-13298
통신이	-13299
행위가	-13300
▁교류를	-13301
▁도의회	-13302
▁살해한	-13303
▁실시해	-13304
▁업무의	-13305
▁이번엔	-13306
▁들어서는	-13307
▁반발하고	-13308
▁앞으로의	-13309
▁있겠지만	-13310
ON	-13311
ea	-13312
광장	-13313
동원	-13314
혜택	-13315
▁고립	-13316
▁등판	-13317
▁맛과	-13318
▁이라	-13319
▁토큰	-13320
▁지역별	-13321
▁집중할	-13322
▁징계를	-13323
▁창출을	-13324
▁취소할	-13325
▁특성에	-13326
▁교통안전	-13327
▁부장판사	-13328
▁자신만의	-13329
GM	-13330
ow	-13331
▁웰	-13332
기초	-13333
정도	-13334
함께	-13335
▁발명	-13336
▁벗어	-13337
▁상금	-13338
▁성립	-13339
▁이력	-13340
▁후임	-13341
▁112	-13342
▁등록을	-13343
▁보내준	-13344
▁토론을	-13345
▁피부를	-13346
▁확보가	-13347
청사에서	-13348
▁수립하고	-13349
▁음식물류	-13350
▁정보공개	-13351
SC	-13352
▁꾀	-13353
겨레	-13354
면과	-13355
순이	-13356
제안	-13357
타가	-13358
학회	-13359
▁79	-13360
▁가뭄	-13361
▁기기	-13362
▁나갔	-13363
▁드림	-13364
▁비로	-13365
▁염려	-13366
▁이강	-13367
▁저가	-13368
▁플로	-13369
▁형제	-13370
밀하게	-13371
2000	-13372
▁개최를	-13373
▁국민적	-13374
▁기록해	-13375
▁김영철	-13376
▁대도시	-13377
▁받고자	-13378
▁연장할	-13379
▁원으로	-13380
▁6·13	-13381
▁개최되었다	-13382
▁부위원장이	-13383
▁불가능하다	-13384
보유	-13385
서류	-13386
양호	-13387
오가	-13388
▁건네	-13389
▁과다	-13390
▁살던	-13391
▁손실	-13392
▁승용	-13393
▁안다	-13394
▁웨이	-13395
▁이윤	-13396
일수록	-13397
▁논의할	-13398
▁돼지고	-13399
▁맡는다	-13400
▁여자친	-13401
▁제임스	-13402
▁최선의	-13403
▁돌아왔다	-13404
▁않겠다는	-13405
▁엄청나게	-13406
▁위탁하여	-13407
▁이어갔다	-13408
▁파악됐다	-13409
거부	-13410
곡을	-13411
말이	-13412
사장	-13413
스런	-13414
▁남을	-13415
▁살기	-13416
▁수월	-13417
▁시너	-13418
▁약물	-13419
▁임산	-13420
▁키우	-13421
▁퍼져	-13422
▁그랜드	-13423
▁동원해	-13424
▁로드맵	-13425
▁배제할	-13426
▁법령에	-13427
▁시급한	-13428
▁신경을	-13429
▁언론은	-13430
▁오가는	-13431
▁의견도	-13432
▁주제를	-13433
▁키우고	-13434
공무원의	-13435
▁모스크바	-13436
▁무엇입니까	-13437
▁실질적으로	-13438
▁엔터테인먼트	-13439
디언	-13440
란이	-13441
보존	-13442
있던	-13443
작은	-13444
▁뽑아	-13445
▁어긋	-13446
▁종로	-13447
▁차려	-13448
▁말이야	-13449
▁부가가	-13450
▁사실에	-13451
▁시각이	-13452
▁시설에	-13453
▁영업을	-13454
▁자격증	-13455
▁장점을	-13456
페스티벌	-13457
▁공공시설	-13458
▁조성하는	-13459
▁활용하여	-13460
▁메이저리그	-13461
공직	-13462
균이	-13463
수영	-13464
스카	-13465
아를	-13466
제약	-13467
∼10	-13468
▁공이	-13469
▁권역	-13470
▁상봉	-13471
▁생략	-13472
▁유래	-13473
▁이색	-13474
▁척추	-13475
▁최장	-13476
▁피드	-13477
제도가	-13478
지난해	-13479
협력을	-13480
▁1·2	-13481
▁두려워	-13482
▁발목을	-13483
▁심하게	-13484
▁원하지	-13485
▁진단을	-13486
▁표현한	-13487
▁그러면서	-13488
▁있는지를	-13489
▁전문가를	-13490
▁처리하는	-13491
▁덴	-13492
▁뜯	-13493
티스	-13494
▁광장	-13495
▁그해	-13496
▁맞을	-13497
▁믿는	-13498
▁양보	-13499
▁침대	-13500
▁하남	-13501
▁형식	-13502
기업인	-13503
▁같다고	-13504
▁공론화	-13505
▁균형을	-13506
▁바꾸고	-13507
▁버튼을	-13508
▁성남시	-13509
▁약속한	-13510
▁양천구	-13511
▁이용객	-13512
▁누구보다	-13513
▁일제강점	-13514
▁전달하는	-13515
락이	-13516
울이	-13517
지부	-13518
▁61	-13519
▁86	-13520
▁명에	-13521
▁위성	-13522
▁치명	-13523
▁킨텍	-13524
회의에	-13525
▁검토할	-13526
▁궁금해	-13527
▁연평균	-13528
▁요청에	-13529
▁제목의	-13530
▁주관한	-13531
▁중국어	-13532
▁이사장이	-13533
▁제출받은	-13534
▁펼쳐졌다	-13535
▁방탄소년단의	-13536
권익	-13537
았기	-13538
조와	-13539
▁계양	-13540
▁든든	-13541
▁맡게	-13542
▁보류	-13543
▁보컬	-13544
▁열광	-13545
▁쪽이	-13546
권으로	-13547
사항은	-13548
절차를	-13549
▁들었어	-13550
▁알리기	-13551
▁주어진	-13552
▁1997	-13553
▁관리하고	-13554
▁수단으로	-13555
▁p	-13556
·25	-13557
▁난방	-13558
▁복사	-13559
▁불만	-13560
▁참조	-13561
▁평일	-13562
▁경남도	-13563
▁나서야	-13564
▁도시로	-13565
▁박수를	-13566
▁행보를	-13567
▁구성하되	-13568
▁됐습니다	-13569
▁모두에게	-13570
77	-13571
교수	-13572
무용	-13573
미니	-13574
불을	-13575
▁간절	-13576
▁강정	-13577
▁구호	-13578
▁금품	-13579
▁매칭	-13580
▁바꾼	-13581
▁오렌	-13582
▁펜션	-13583
▁화폐	-13584
러시아	-13585
버스를	-13586
사업과	-13587
▁140	-13588
▁350	-13589
▁개선될	-13590
▁구매를	-13591
▁나와서	-13592
▁자유를	-13593
▁집회를	-13594
▁청주시	-13595
▁패키지	-13596
▁호평을	-13597
해달라고	-13598
회관에서	-13599
▁대상이다	-13600
▁불가피한	-13601
▁이루어져	-13602
▁최소한의	-13603
▁율	-13604
고와	-13605
등에	-13606
로스	-13607
미르	-13608
수리	-13609
시마	-13610
여대	-13611
였을	-13612
침해	-13613
▁가담	-13614
▁구금	-13615
▁다닐	-13616
▁부추	-13617
▁살이	-13618
▁치른	-13619
▁놀이터	-13620
▁분명한	-13621
▁빠졌다	-13622
▁상품의	-13623
▁조합원	-13624
▁케이크	-13625
▁화요일	-13626
▁공유재산	-13627
▁선거에서	-13628
▁수준이다	-13629
▁아버지의	-13630
▁여성들의	-13631
▁이산가족	-13632
▁밭	-13633
마당	-13634
코드	-13635
학규	-13636
▁과잉	-13637
▁무력	-13638
▁부가	-13639
▁스펙	-13640
▁승소	-13641
▁원가	-13642
▁위장	-13643
▁지는	-13644
▁채취	-13645
▁포도	-13646
우리가	-13647
▁가시면	-13648
▁부모의	-13649
▁실리콘	-13650
▁아쉬운	-13651
▁운영해	-13652
▁한하여	-13653
되었다고	-13654
▁관객들의	-13655
▁주문했다	-13656
▁추진된다	-13657
▁판단되는	-13658
지방경찰청	-13659
마이	-13660
만대	-13661
용역	-13662
주일	-13663
▁동굴	-13664
▁비극	-13665
▁수감	-13666
▁술에	-13667
▁정답	-13668
▁추격	-13669
오면서	-13670
▁그림은	-13671
▁불구속	-13672
▁비전을	-13673
▁않았기	-13674
▁좋아하지	-13675
▁회계연도	-13676
체육관에서	-13677
GB	-13678
발의	-13679
부즈	-13680
어드	-13681
인들	-13682
▁고쳐	-13683
▁구에	-13684
▁날카	-13685
▁다녔	-13686
▁카풀	-13687
▁국정감	-13688
▁안방극	-13689
▁않거나	-13690
▁정하지	-13691
▁지역과	-13692
▁쪽에서	-13693
▁가능한지	-13694
▁개정안은	-13695
▁단독주택	-13696
▁보내주신	-13697
▁비행기를	-13698
▁이해하기	-13699
▁피해자의	-13700
▁프리미어리그	-13701
▁사우디아라비아	-13702
id	-13703
중을	-13704
테랑	-13705
특례	-13706
프는	-13707
▁98	-13708
▁간주	-13709
▁구인	-13710
▁남동	-13711
▁넘은	-13712
▁눌러	-13713
▁신장	-13714
▁연중	-13715
▁위헌	-13716
▁추운	-13717
▁해를	-13718
라이언	-13719
조치가	-13720
▁기록할	-13721
▁대응할	-13722
▁서서히	-13723
▁셧다운	-13724
▁소방관	-13725
▁언론의	-13726
▁이어갈	-13727
▁일들이	-13728
▁정상화	-13729
▁제작된	-13730
▁증상을	-13731
▁진출한	-13732
▁탓이다	-13733
▁학생들	-13734
▁화재로	-13735
▁민간단체	-13736
▁사립유치	-13737
▁선거제도	-13738
▁인정하고	-13739
▁제시하는	-13740
▁높아지면서	-13741
43	-13742
맞은	-13743
▁내기	-13744
▁내정	-13745
▁맡겨	-13746
▁성취	-13747
▁자활	-13748
▁크림	-13749
적이며	-13750
조원을	-13751
하셔서	-13752
▁감염병	-13753
▁군사적	-13754
▁선정돼	-13755
▁시선이	-13756
▁이용을	-13757
▁정도를	-13758
▁조성에	-13759
▁준비할	-13760
▁행사의	-13761
적이라는	-13762
▁대대적인	-13763
▁청와대의	-13764
▁동남아시아	-13765
▁규정함으로써	-13766
55	-13767
국회	-13768
들여	-13769
법령	-13770
으시	-13771
해준	-13772
▁각기	-13773
▁구비	-13774
▁국영	-13775
▁버티	-13776
▁보충	-13777
▁사임	-13778
▁건물의	-13779
▁기온은	-13780
▁모두를	-13781
▁생활에	-13782
▁적발된	-13783
▁진전이	-13784
▁인식하고	-13785
▁자동차를	-13786
▁프로그램의	-13787
귀포	-13788
수탁	-13789
▁고전	-13790
▁고추	-13791
▁교실	-13792
▁납치	-13793
▁동구	-13794
▁띄는	-13795
▁모금	-13796
▁분포	-13797
▁황의	-13798
서에서	-13799
우리는	-13800
▁CNN	-13801
▁긴밀한	-13802
▁내일은	-13803
▁말하기	-13804
▁일일이	-13805
자유구역	-13806
해주셔서	-13807
▁들었는데	-13808
▁오케스트	-13809
▁한자리에	-13810
▁위원회에서	-13811
경험	-13812
유로	-13813
이랑	-13814
▁각광	-13815
▁권익	-13816
▁기지	-13817
▁날로	-13818
▁대두	-13819
▁옥외	-13820
서에는	-13821
▁관측도	-13822
▁똑같이	-13823
▁스페셜	-13824
▁자리잡	-13825
▁정권이	-13826
▁정신적	-13827
▁판단에	-13828
▁공직선거	-13829
▁기대되는	-13830
▁기준금리	-13831
▁불필요한	-13832
▁이해하는	-13833
▁클러스터	-13834
▁한반도의	-13835
▁국내에서는	-13836
빌딩	-13837
시피	-13838
▁다각	-13839
▁다할	-13840
▁마르	-13841
▁막혀	-13842
▁조지	-13843
▁주둔	-13844
공사의	-13845
▁기념해	-13846
▁다리를	-13847
▁성격을	-13848
▁찾아와	-13849
▁취지다	-13850
스트리트	-13851
▁보인다고	-13852
▁선보이고	-13853
▁이루어질	-13854
▁잎	-13855
▁칩	-13856
▁국장	-13857
▁날은	-13858
▁늦어	-13859
▁로마	-13860
▁음란	-13861
▁자로	-13862
▁전교	-13863
▁조카	-13864
▁초록	-13865
▁초에	-13866
▁취미	-13867
▁탐방	-13868
가에서	-13869
교육과	-13870
▁공급을	-13871
▁뜨겁게	-13872
▁마침내	-13873
▁보도를	-13874
▁앞세워	-13875
▁언젠가	-13876
▁패러다	-13877
차적으로	-13878
▁서비스로	-13879
▁성장하는	-13880
▁하나님께서	-13881
국내	-13882
기무	-13883
어스	-13884
우로	-13885
추홀	-13886
특구	-13887
▁7,	-13888
▁배분	-13889
▁역을	-13890
▁주저	-13891
▁증빙	-13892
▁팽팽	-13893
하느라	-13894
▁급하게	-13895
▁이어서	-13896
▁전국이	-13897
▁제출된	-13898
▁노력하는	-13899
▁방지하기	-13900
▁브랜드가	-13901
▁않으면서	-13902
▁있었으면	-13903
▁네트워크를	-13904
▁국무위원장과	-13905
▁흠	-13906
간접	-13907
현직	-13908
▁멜로	-13909
▁소독	-13910
▁적고	-13911
▁정통	-13912
▁터널	-13913
수수료	-13914
업계가	-13915
▁검은색	-13916
▁그것도	-13917
▁남성의	-13918
▁손실을	-13919
▁저녁을	-13920
▁조성된	-13921
▁폴더블	-13922
▁하기로	-13923
▁형태를	-13924
▁경쟁률을	-13925
▁과태료를	-13926
▁사업자가	-13927
▁어떨까요	-13928
▁이용하고	-13929
▁관련해서는	-13930
▁우리나라가	-13931
▁킬	-13932
▁푹	-13933
블록	-13934
지휘	-13935
SNS	-13936
▁나흘	-13937
▁모를	-13938
▁조재	-13939
▁최강	-13940
웠어요	-13941
▁가구가	-13942
▁가톨릭	-13943
▁겨냥한	-13944
▁결제가	-13945
▁그것에	-13946
▁꼼꼼히	-13947
▁만만치	-13948
▁수비수	-13949
▁유럽의	-13950
▁인재를	-13951
▁채널을	-13952
▁관람객이	-13953
▁모릅니다	-13954
▁서비스의	-13955
▁탄력근로제	-13956
공예	-13957
변을	-13958
윤리	-13959
제주	-13960
회원	-13961
▁내의	-13962
▁당당	-13963
▁딸을	-13964
▁바꿨	-13965
▁신형	-13966
▁애국	-13967
▁은혜	-13968
▁인계	-13969
▁자의	-13970
▁제발	-13971
▁지수	-13972
▁타협	-13973
▁형평	-13974
▁가지가	-13975
▁국제적	-13976
▁맞았다	-13977
▁삼성물	-13978
▁수험생	-13979
▁시즌을	-13980
▁실수로	-13981
▁외에는	-13982
▁진실을	-13983
▁한마디	-13984
▁그렇지만	-13985
▁메이크업	-13986
▁중요하게	-13987
▁토요일에	-13988
LA	-13989
▁릴	-13990
담보	-13991
700	-13992
▁박상	-13993
▁자에	-13994
▁취해	-13995
▁하반	-13996
▁학계	-13997
사회에	-13998
소비자	-13999
▁강아지	-14000
▁들어올	-14001
▁부진한	-14002
▁사망자	-14003
▁오스트	-14004
▁의한다	-14005
▁점유율	-14006
▁펼쳐질	-14007
▁발표하는	-14008
▁분식회계	-14009
▁이번에도	-14010
▁조성하고	-14011
▁때문이었다	-14012
pp	-14013
▁붓	-14014
▁대접	-14015
▁도청	-14016
▁미사	-14017
▁박종	-14018
▁알기	-14019
▁지고	-14020
▁확진	-14021
기정통	-14022
로서의	-14023
회의가	-14024
▁국정원	-14025
▁않기로	-14026
▁장소는	-14027
하기에는	-14028
▁기자들과	-14029
▁느껴지는	-14030
▁여기에서	-14031
▁이야기는	-14032
▁정부에서	-14033
▁하겠다는	-14034
▁대한민국이	-14035
▁수립하여야	-14036
▁펠	-14037
과도	-14038
무기	-14039
전국	-14040
전담	-14041
즈니	-14042
지엄	-14043
지하	-14044
▁결핵	-14045
▁구형	-14046
▁막걸	-14047
▁원에	-14048
▁은폐	-14049
▁천재	-14050
▁편지	-14051
▁폐업	-14052
▁표출	-14053
▁허브	-14054
셀로나	-14055
타임스	-14056
▁갤러리	-14057
▁무게를	-14058
▁중점을	-14059
▁통과한	-14060
공원에서	-14061
▁금요일에	-14062
▁떠올랐다	-14063
▁인프라를	-14064
▁주장한다	-14065
강화	-14066
답게	-14067
스틴	-14068
원전	-14069
▁62	-14070
▁귀를	-14071
▁안동	-14072
▁한시	-14073
함으로	-14074
▁KIA	-14075
▁날짜를	-14076
▁무거운	-14077
▁미스터	-14078
▁사과를	-14079
▁상관없	-14080
▁생활이	-14081
▁쇼케이	-14082
상공회의	-14083
▁부분에서	-14084
▁연말까지	-14085
▁조언했다	-14086
▁방탄소년단이	-14087
OT	-14088
▁첩	-14089
인인	-14090
▁간이	-14091
▁거지	-14092
▁넉넉	-14093
▁동결	-14094
▁악성	-14095
▁의병	-14096
▁장미	-14097
▁진영	-14098
▁콜롬	-14099
공단이	-14100
▁산업을	-14101
▁설치돼	-14102
▁어두운	-14103
▁어쩌면	-14104
▁연습을	-14105
하시나요	-14106
▁중앙정부	-14107
실태	-14108
주신	-14109
타이	-14110
▁기구	-14111
▁예금	-14112
▁잔디	-14113
▁조국	-14114
▁항암	-14115
작으로	-14116
▁개발과	-14117
▁검토를	-14118
▁세상이	-14119
▁영역을	-14120
▁위치에	-14121
▁입었다	-14122
▁지진이	-14123
▁친구의	-14124
▁펼친다	-14125
공무원이	-14126
▁러시아의	-14127
▁참석한다	-14128
▁찢	-14129
▁퀄	-14130
르몬	-14131
배에	-14132
▁들지	-14133
▁마실	-14134
▁메가	-14135
▁씨와	-14136
▁오바	-14137
▁장의	-14138
▁주춤	-14139
▁화상	-14140
▁희귀	-14141
효과를	-14142
▁국공립	-14143
▁단체의	-14144
▁맞아요	-14145
▁사업과	-14146
▁없으니	-14147
▁완료된	-14148
▁협력이	-14149
▁보여줬다	-14150
례가	-14151
목에	-14152
민과	-14153
왕이	-14154
인멸	-14155
지던	-14156
▁남산	-14157
▁플라	-14158
는지는	-14159
▁당대표	-14160
▁문서를	-14161
▁없었고	-14162
▁오늘의	-14163
▁자신과	-14164
▁적었다	-14165
▁축제로	-14166
▁남아있는	-14167
▁판매하고	-14168
▁구속영장이	-14169
▁솟	-14170
공화	-14171
그라	-14172
밥을	-14173
작물	-14174
차와	-14175
측이	-14176
▁73	-14177
▁누워	-14178
▁두루	-14179
▁마산	-14180
▁샐러	-14181
▁염색	-14182
▁우세	-14183
▁지각	-14184
▁착한	-14185
▁캄보	-14186
▁공부할	-14187
▁국회를	-14188
▁생산이	-14189
▁아세안	-14190
▁임금을	-14191
▁조직을	-14192
▁집값이	-14193
경기에서	-14194
되었는데	-14195
▁시스템에	-14196
▁재난안전	-14197
▁테스트를	-14198
ce	-14199
vN	-14200
주거	-14201
▁걸림	-14202
▁곤충	-14203
▁공판	-14204
▁까닭	-14205
▁독거	-14206
▁시속	-14207
▁지냈	-14208
으려는	-14209
종으로	-14210
하니까	-14211
▁가져올	-14212
▁국가를	-14213
▁대상자	-14214
▁두번째	-14215
▁마이클	-14216
▁보상을	-14217
▁생산을	-14218
▁약간의	-14219
▁엄격한	-14220
▁열기가	-14221
▁익숙한	-14222
▁국가인권	-14223
▁되었어요	-14224
▁살펴보고	-14225
▁주변에서	-14226
▁지속되고	-14227
▁추천하는	-14228
드림	-14229
범이	-14230
▁걷는	-14231
▁무형	-14232
▁미쳤	-14233
▁성분	-14234
▁인류	-14235
▁점수	-14236
▁코드	-14237
▁탈북	-14238
도까지	-14239
됩니까	-14240
▁것임을	-14241
▁공감을	-14242
▁공화당	-14243
▁구조가	-14244
▁당했다	-14245
▁방송에	-14246
▁베테랑	-14247
▁서귀포	-14248
▁여름에	-14249
▁영수증	-14250
▁작가는	-14251
▁주민과	-14252
▁최우선	-14253
▁파악할	-14254
▁콘서트가	-14255
59	-14256
모닝	-14257
오픈	-14258
으신	-14259
▁“‘	-14260
▁군인	-14261
▁버섯	-14262
▁응모	-14263
▁전과	-14264
▁채로	-14265
능력이	-14266
다시피	-14267
프리카	-14268
▁기준은	-14269
▁수당을	-14270
▁연구에	-14271
▁탄력을	-14272
▁폭행을	-14273
▁회원이	-14274
▁국무총리	-14275
▁작성하고	-14276
▁해상에서	-14277
4%	-14278
값을	-14279
야가	-14280
출연	-14281
▁도매	-14282
▁세우	-14283
▁송영	-14284
▁안의	-14285
▁어젯	-14286
▁주전	-14287
▁그러니	-14288
▁만나게	-14289
▁말아야	-14290
▁방식은	-14291
▁않으며	-14292
▁종류가	-14293
▁직원은	-14294
▁환자를	-14295
▁“201	-14296
▁관하여는	-14297
▁나타난다	-14298
▁다릅니다	-14299
▁부족하다	-14300
▁영업이익이	-14301
▁싣	-14302
게는	-14303
과거	-14304
들기	-14305
타당	-14306
트쇼	-14307
and	-14308
▁감자	-14309
▁구할	-14310
▁반성	-14311
▁선착	-14312
▁정전	-14313
강원도	-14314
르면서	-14315
으므로	-14316
해주실	-14317
▁아이콘	-14318
▁친구들	-14319
▁학생부	-14320
▁교육과정	-14321
▁논의했다	-14322
▁문화관광	-14323
▁일어났다	-14324
▁자치법규	-14325
▁중요하다는	-14326
▁현실적으로	-14327
민을	-14328
실천	-14329
장소	-14330
▁거다	-14331
▁걷기	-14332
▁교차	-14333
▁바뀔	-14334
▁빠질	-14335
▁사단	-14336
▁소아	-14337
▁수신	-14338
▁읽을	-14339
▁치과	-14340
▁합산	-14341
▁혼합	-14342
답니다	-14343
민들이	-14344
▁다니고	-14345
▁동작구	-14346
▁무죄를	-14347
▁미소를	-14348
▁소문이	-14349
▁예방접	-14350
▁이상은	-14351
▁입주민	-14352
▁증진을	-14353
기업으로	-14354
▁과기정통	-14355
▁줄어들고	-14356
▁지정하여	-14357
▁판단이다	-14358
관리하여야	-14359
▁다문화가족	-14360
드라	-14361
체와	-14362
하늘	-14363
▁갈라	-14364
▁때와	-14365
▁양념	-14366
▁고객은	-14367
▁당시의	-14368
▁대신해	-14369
▁매장을	-14370
▁미추홀	-14371
▁세계가	-14372
▁손학규	-14373
▁숫자가	-14374
▁자원을	-14375
▁재고가	-14376
▁다이어트	-14377
▁동아시아	-14378
▁의심되는	-14379
▁할머니가	-14380
▁보건복지부	-14381
공이	-14382
란시	-14383
추천	-14384
하진	-14385
▁97	-14386
▁길고	-14387
▁둘이	-14388
▁소진	-14389
▁스틸	-14390
▁총무	-14391
▁코인	-14392
계획이	-14393
문화가	-14394
▁기술은	-14395
▁단체를	-14396
▁대학원	-14397
▁명령을	-14398
▁사랑에	-14399
▁상용화	-14400
▁스트리	-14401
▁연세대	-14402
▁호흡을	-14403
▁확보에	-14404
현장에서	-14405
▁금융위기	-14406
▁동물보호	-14407
▁우려했다	-14408
▁전망하고	-14409
▁학생들과	-14410
▁한국영화	-14411
디스플레이	-14412
▁무역전쟁이	-14413
▁업무협약을	-14414
▁지난해에는	-14415
OP	-14416
▁험	-14417
개는	-14418
개와	-14419
마는	-14420
티드	-14421
▁가늠	-14422
▁감리	-14423
▁눈높	-14424
▁다름	-14425
▁도정	-14426
▁배부	-14427
▁소모	-14428
▁역동	-14429
▁청춘	-14430
▁계정을	-14431
▁더해져	-14432
▁미드필	-14433
▁변경이	-14434
▁분야가	-14435
▁시행을	-14436
▁의무가	-14437
▁회사와	-14438
▁농업기술	-14439
▁상당수가	-14440
▁없었어요	-14441
▁영수증을	-14442
▁지배구조	-14443
▁참가했다	-14444
▁친구들은	-14445
▁노동자들이	-14446
▁린	-14447
급을	-14448
들만	-14449
중의	-14450
현황	-14451
▁박탈	-14452
▁사격	-14453
▁상설	-14454
▁영토	-14455
▁왕복	-14456
▁이순	-14457
▁지문	-14458
▁출력	-14459
▁홍영	-14460
결과가	-14461
▁검토한	-14462
▁공간에	-14463
▁그런지	-14464
▁금리를	-14465
▁때로는	-14466
▁소비가	-14467
▁수준인	-14468
▁아래에	-14469
▁엄마는	-14470
▁여행객	-14471
▁연구소	-14472
▁유력한	-14473
▁제조사	-14474
▁공개된다	-14475
▁못했다는	-14476
▁받아들일	-14477
▁선정했다	-14478
▁적용하는	-14479
▁주관으로	-14480
▁편안하게	-14481
건물	-14482
교실	-14483
면접	-14484
번의	-14485
철수	-14486
▁교원	-14487
▁군은	-14488
▁밀착	-14489
▁부른	-14490
▁상권	-14491
▁여섯	-14492
▁유공	-14493
▁유익	-14494
▁잡기	-14495
▁중화	-14496
▁책의	-14497
병원이	-14498
▁권한이	-14499
▁금리가	-14500
▁메뉴를	-14501
▁방송이	-14502
▁수입이	-14503
▁임대료	-14504
▁전달할	-14505
▁지급을	-14506
▁진상규	-14507
▁1994	-14508
▁가능해요	-14509
▁돌아오는	-14510
▁위원회를	-14511
▁장점이다	-14512
▁가능하다고	-14513
▁감사드린다	-14514
▁〈	-14515
대원	-14516
모든	-14517
▁8,	-14518
▁김제	-14519
▁끄는	-14520
▁당의	-14521
▁동서	-14522
▁득표	-14523
▁떠났	-14524
▁보궐	-14525
▁잡혀	-14526
▁형이	-14527
군에서	-14528
비용이	-14529
▁대안을	-14530
▁뒤에도	-14531
▁범위가	-14532
▁시청률	-14533
▁시험이	-14534
▁아레나	-14535
▁양국이	-14536
▁이재용	-14537
▁돌아가는	-14538
▁부모님이	-14539
▁선수들은	-14540
▁일정으로	-14541
▁지금부터	-14542
▁지시했다	-14543
▁컨소시엄	-14544
▁투자하는	-14545
백만	-14546
여년	-14547
총회	-14548
하죠	-14549
▁김관	-14550
▁부유	-14551
▁오류	-14552
▁인삼	-14553
▁조화	-14554
교육이	-14555
당국이	-14556
사령부	-14557
시험을	-14558
여개의	-14559
인구가	-14560
인지를	-14561
정책과	-14562
피해가	-14563
▁광주형	-14564
▁기술로	-14565
▁소지가	-14566
▁손잡고	-14567
▁연결해	-14568
▁위촉된	-14569
▁전하고	-14570
▁주변을	-14571
▁화성시	-14572
▁구축하고	-14573
▁예고했다	-14574
▁우려된다	-14575
▁작품이다	-14576
▁재적위원	-14577
FI	-14578
반의	-14579
부진	-14580
요양	-14581
우수	-14582
토지	-14583
▁개원	-14584
▁박영	-14585
▁보람	-14586
▁본질	-14587
▁증상	-14588
▁청산	-14589
▁통역	-14590
▁횡단	-14591
량으로	-14592
부장관	-14593
협회는	-14594
▁남북한	-14595
▁실장은	-14596
▁전년도	-14597
▁전쟁이	-14598
▁지적을	-14599
앞으로도	-14600
▁건강하게	-14601
▁공간에서	-14602
▁대행한다	-14603
▁도민들이	-14604
▁신고했다	-14605
▁우려되는	-14606
▁우수사례	-14607
▁있었으며	-14608
민은	-14609
실질	-14610
준표	-14611
지노	-14612
∼19	-14613
▁것일	-14614
▁그로	-14615
▁낮게	-14616
▁빼고	-14617
▁얼음	-14618
노동자	-14619
상거래	-14620
주의가	-14621
▁각별한	-14622
▁납세자	-14623
▁내놓고	-14624
▁내놓을	-14625
▁도봉구	-14626
▁미래가	-14627
▁	-14628
이	-14629
다	-14630
.	-14631
는	-14632
에	-14633
을	-14634
가	-14635
의	-14636
하	-14637
지	-14638
한	-14639
고	-14640
로	-14641
기	-14642
사	-14643
서	-14644
은	-14645
를	-14646
도	-14647
시	-14648
대	-14649
해	-14650
인	-14651
수	-14652
,	-14653
있	-14654
자	-14655
정	-14656
어	-14657
으	-14658
장	-14659
제	-14660
원	-14661
리	-14662
부	-14663
전	-14664
1	-14665
나	-14666
과	-14667
일	-14668
아	-14669
들	-14670
주	-14671
상	-14672
요	-14673
국	-14674
보	-14675
니	-14676
0	-14677
위	-14678
경	-14679
라	-14680
했	-14681
구	-14682
여	-14683
2	-14684
관	-14685
게	-14686
만	-14687
적	-14688
공	-14689
스	-14690
그	-14691
성	-14692
것	-14693
회	-14694
면	-14695
업	-14696
조	-14697
소	-14698
문	-14699
동	-14700
신	-14701
화	-14702
등	-14703
비	-14704
우	-14705
중	-14706
할	-14707
내	-14708
진	-14709
계	-14710
당	-14711
개	-14712
용	-14713
선	-14714
와	-14715
무	-14716
행	-14717
유	-14718
안	-14719
되	-14720
미	-14721
연	-14722
영	-14723
생	-14724
세	-14725
명	-14726
교	-14727
통	-14728
거	-14729
간	-14730
산	-14731
3	-14732
마	-14733
재	-14734
오	-14735
방	-14736
모	-14737
발	-14738
야	-14739
실	-14740
치	-14741
년	-14742
금	-14743
습	-14744
된	-14745
운	-14746
(	-14747
)	-14748
체	-14749
단	-14750
분	-14751
청	-14752
트	-14753
입	-14754
터	-14755
드	-14756
학	-14757
‘	-14758
5	-14759
역	-14760
데	-14761
었	-14762
민	-14763
차	-14764
’	-14765
려	-14766
며	-14767
식	-14768
·	-14769
“	-14770
건	-14771
출	-14772
4	-14773
예	-14774
설	-14775
물	-14776
강	-14777
호	-14778
까	-14779
난	-14780
심	-14781
결	-14782
현	-14783
”	-14784
반	-14785
법	-14786
저	-14787
감	-14788
음	-14789
각	-14790
최	-14791
직	-14792
후	-14793
말	-14794
때	-14795
러	-14796
없	-14797
합	-14798
않	-14799
표	-14800
바	-14801
력	-14802
작	-14803
6	-14804
점	-14805
월	-14806
매	-14807
남	-14808
9	-14809
양	-14810
임	-14811
8	-14812
따	-14813
7	-14814
속	-14815
받	-14816
노	-14817
히	-14818
포	-14819
?	-14820
불	-14821
번	-14822
록	-14823
품	-14824
더	-14825
항	-14826
추	-14827
달	-14828
김	-14829
르	-14830
함	-14831
프	-14832
두	-14833
던	-14834
확	-14835
특	-14836
급	-14837
처	-14838
본	-14839
타	-14840
배	-14841
울	-14842
약	-14843
많	-14844
활	-14845
북	-14846
종	-14847
준	-14848
외	-14849
른	-14850
근	-14851
증	-14852
능	-14853
담	-14854
료	-14855
권	-14856
판	-14857
별	-14858
석	-14859
환	-14860
래	-14861
목	-14862
육	-14863
평	-14864
및	-14865
파	-14866
필	-14867
집	-14868
람	-14869
같	-14870
됐	-14871
참	-14872
크	-14873
피	-14874
규	-14875
열	-14876
련	-14877
았	-14878
올	-14879
질	-14880
천	-14881
형	-14882
협	-14883
태	-14884
복	-14885
책	-14886
날	-14887
격	-14888
술	-14889
알	-14890
겠	-14891
광	-14892
령	-14893
변	-14894
초	-14895
투	-14896
검	-14897
박	-14898
토	-14899
린	-14900
디	-14901
향	-14902
너	-14903
승	-14904
군	-14905
찰	-14906
될	-14907
축	-14908
좋	-14909
온	-14910
송	-14911
%	-14912
험	-14913
레	-14914
독	-14915
였	-14916
카	-14917
버	-14918
편	-14919
밝	-14920
언	-14921
네	-14922
접	-14923
총	-14924
께	-14925
립	-14926
씨	-14927
또	-14928
절	-14929
황	-14930
란	-14931
류	-14932
높	-14933
못	-14934
취	-14935
량	-14936
늘	-14937
A	-14938
졌	-14939
새	-14940
획	-14941
례	-14942
망	-14943
창	-14944
S	-14945
든	-14946
택	-14947
억	-14948
곳	-14949
혔	-14950
C	-14951
루	-14952
앞	-14953
론	-14954
길	-14955
친	-14956
병	-14957
살	-14958
족	-14959
럼	-14960
견	-14961
코	-14962
티	-14963
범	-14964
악	-14965
메	-14966
맞	-14967
키	-14968
워	-14969
손	-14970
돼	-14971
농	-14972
채	-14973
줄	-14974
벌	-14975
극	-14976
순	-14977
돌	-14978
애	-14979
존	-14980
객	-14981
잘	-14982
폭	-14983
런	-14984
브	-14985
느	-14986
T	-14987
랑	-14988
희	-14989
센	-14990
져	-14991
페	-14992
테	-14993
충	-14994
름	-14995
걸	-14996
왔	-14997
응	-14998
율	-14999
움	-15000
철	-15001
갈	-15002
효	-15003
측	-15004
완	-15005
막	-15006
찾	-15007
뒤	-15008
침	-15009
락	-15010
글	-15011
팀	-15012
B	-15013
싶	-15014
색	-15015
쟁	-15016
I	-15017
삼	-15018
커	-15019
e	-15020
플	-15021
큰	-15022
-	-15023
누	-15024
P	-15025
백	-15026
베	-15027
겨	-15028
착	-15029
득	-15030
녀	-15031
넘	-15032
융	-15033
허	-15034
K	-15035
탁	-15036
액	-15037
m	-15038
님	-15039
익	-15040
논	-15041
즈	-15042
림	-15043
탄	-15044
머	-15045
볼	-15046
긴	-15047
잡	-15048
폐	-15049
o	-15050
패	-15051
홍	-15052
M	-15053
먹	-15054
a	-15055
났	-15056
케	-15057
렸	-15058
먼	-15059
D	-15060
징	-15061
쳐	-15062
골	-15063
층	-15064
션	-15065
얼	-15066
눈	-15067
G	-15068
E	-15069
블	-15070
봉	-15071
엔	-15072
혹	-15073
혁	-15074
빠	-15075
큼	-15076
핵	-15077
쪽	-15078
O	-15079
답	-15080
촉	-15081
릴	-15082
랜	-15083
렇	-15084
힘	-15085
풍	-15086
∼	-15087
휴	-15088
률	-15089
혼	-15090
"	-15091
흥	-15092
밀	-15093
N	-15094
램	-15095
i	-15096
갖	-15097
놓	-15098
럽	-15099
끝	-15100
퍼	-15101
」	-15102
「	-15103
츠	-15104
L	-15105
째	-15106
n	-15107
롯	-15108
귀	-15109
염	-15110
죄	-15111
t	-15112
첫	-15113
몰	-15114
탈	-15115
널	-15116
밖	-15117
쓰	-15118
뉴	-15119
균	-15120
r	-15121
F	-15122
콘	-15123
숙	-15124
엄	-15125
훈	-15126
찬	-15127
클	-15128
납	-15129
V	-15130
떤	-15131
혜	-15132
'	-15133
암	-15134
룹	-15135
앙	-15136
압	-15137
욱	-15138
R	-15139
낮	-15140
뿐	-15141
곡	-15142
념	-15143
윤	-15144
혐	-15145
뤄	-15146
템	-15147
떻	-15148
잠	-15149
떠	-15150
퇴	-15151
떨	-15152
돈	-15153
굴	-15154
낸	-15155
즐	-15156
칙	-15157
팅	-15158
혀	-15159
닌	-15160
붙	-15161
좌	-15162
텔	-15163
풀	-15164
쉽	-15165
폰	-15166
꾸	-15167
팬	-15168
냐	-15169
끌	-15170
냈	-15171
갔	-15172
l	-15173
써	-15174
좀	-15175
놀	-15176
셔	-15177
끼	-15178
벤	-15179
엇	-15180
몇	-15181
맛	-15182
왕	-15183
둘	-15184
뜻	-15185
벽	-15186
캐	-15187
십	-15188
갑	-15189
s	-15190
넷	-15191
됩	-15192
왜	-15193
둔	-15194
덕	-15195
켜	-15196
략	-15197
p	-15198
핑	-15199
숨	-15200
듯	-15201
욕	-15202
맡	-15203
쇼	-15204
k	-15205
U	-15206
헌	-15207
얻	-15208
몸	-15209
컨	-15210
텐	-15211
싱	-15212
빈	-15213
펼	-15214
궁	-15215
찍	-15216
팔	-15217
짜	-15218
틀	-15219
웃	-15220
봐	-15221
c	-15222
슬	-15223
웨	-15224
봤	-15225
셨	-15226
렵	-15227
싸	-15228
델	-15229
링	-15230
슈	-15231
롭	-15232
홈	-15233
첨	-15234
섰	-15235
칠	-15236
힌	-15237
겼	-15238
밤	-15239
즌	-15240
죽	-15241
쳤	-15242
삶	-15243
빨	-15244
웠	-15245
쉬	-15246
옥	-15247
W	-15248
H	-15249
랐	-15250
휘	-15251
촌	-15252
잔	-15253
낙	-15254
g	-15255
랍	-15256
뜨	-15257
늦	-15258
척	-15259
춘	-15260
깨	-15261
꿈	-15262
킨	-15263
곤	-15264
뛰	-15265
맹	-15266
폼	-15267
뢰	-15268
겁	-15269
겪	-15270
녹	-15271
흐	-15272
춰	-15273
슨	-15274
h	-15275
u	-15276
씩	-15277
털	-15278
턴	-15279
홀	-15280
캠	-15281
빌	-15282
뮤	-15283
릭	-15284
죠	-15285
엘	-15286
깊	-15287
넣	-15288
촬	-15289
꽃	-15290
렌	-15291
탕	-15292
킹	-15293
푸	-15294
솔	-15295
d	-15296
칭	-15297
춤	-15298
쯤	-15299
뷰	-15300
혈	-15301
맥	-15302
즘	-15303
쿠	-15304
콩	-15305
컵	-15306
얘	-15307
흡	-15308
J	-15309
콜	-15310
줘	-15311
빛	-15312
즉	-15313
씀	-15314
탑	-15315
낼	-15316
믿	-15317
흔	-15318
랫	-15319
섬	-15320
듣	-15321
픽	-15322
컬	-15323
컴	-15324
섭	-15325
헤	-15326
짐	-15327
짓	-15328
잇	-15329
젝	-15330
닥	-15331
렴	-15332
젊	-15333
옷	-15334
읽	-15335
값	-15336
꼭	-15337
녁	-15338
맨	-15339
괴	-15340
걱	-15341
찮	-15342
밥	-15343
졸	-15344
벨	-15345
봄	-15346
닝	-15347
흘	-15348
겸	-15349
꼽	-15350
딸	-15351
냥	-15352
쇄	-15353
딩	-15354
곧	-15355
끄	-15356
켓	-15357
킬	-15358
y	-15359
핀	-15360
괜	-15361
긍	-15362
넓	-15363
폴	-15364
X	-15365
줬	-15366
펴	-15367
땅	-15368
튜	-15369
멤	-15370
덧	-15371
랙	-15372
빙	-15373
끊	-15374
뇌	-15375
잃	-15376
꺼	-15377
펀	-15378
괄	-15379
슷	-15380
셀	-15381
픈	-15382
앉	-15383
>	-15384
<	-15385
빅	-15386
켰	-15387
벗	-15388
므	-15389
퓨	-15390
냉	-15391
묘	-15392
옮	-15393
칼	-15394
멘	-15395
옆	-15396
렉	-15397
짝	-15398
탐	-15399
멀	-15400
빼	-15401
쌓	-15402
쏟	-15403
셈	-15404
&	-15405
싼	-15406
묻	-15407
몽	-15408
듭	-15409
륙	-15410
닐	-15411
끈	-15412
렀	-15413
럭	-15414
Y	-15415
헬	-15416
렬	-15417
앱	-15418
쁘	-15419
뭐	-15420
돕	-15421
삭	-15422
뒷	-15423
릉	-15424
쓸	-15425
:	-15426
톡	-15427
앤	-15428
덜	-15429
깔	-15430
팝	-15431
묵	-15432
톤	-15433
씬	-15434
샤	-15435
쾌	-15436
뀌	-15437
둥	-15438
롱	-15439
낌	-15440
껴	-15441
앨	-15442
샘	-15443
b	-15444
v	-15445
릿	-15446
/	-15447
룸	-15448
훼	-15449
쓴	-15450
펜	-15451
힐	-15452
틱	-15453
끔	-15454
럴	-15455
튼	-15456
맺	-15457
뿌	-15458
웅	-15459
멕	-15460
짧	-15461
젠	-15462
엑	-15463
탓	-15464
쁜	-15465
f	-15466
훨	-15467
찌	-15468
빚	-15469
멋	-15470
쌀	-15471
큐	-15472
쏠	-15473
걷	-15474
텍	-15475
읍	-15476
잉	-15477
멸	-15478
됨	-15479
뽑	-15480
꼬	-15481
셜	-15482
봇	-15483
틴	-15484
웹	-15485
잖	-15486
갤	-15487
쌍	-15488
섯	-15489
챙	-15490
붕	-15491
닉	-15492
밑	-15493
뷔	-15494
낭	-15495
댄	-15496
옛	-15497
뱅	-15498
잊	-15499
숲	-15500
넥	-15501
몬	-15502
줍	-15503
똑	-15504
핸	-15505
싫	-15506
왼	-15507
밴	-15508
w	-15509
뚜	-15510
닫	-15511
칸	-15512
덴	-15513
슴	-15514
콤	-15515
곽	-15516
댓	-15517
롤	-15518
밸	-15519
낄	-15520
꼼	-15521
챔	-15522
듀	-15523
돋	-15524
떡	-15525
훌	-15526
룬	-15527
겐	-15528
옵	-15529
굉	-15530
딜	-15531
꿔	-15532
멈	-15533
얀	-15534
겹	-15535
횡	-15536
흑	-15537
톱	-15538
딱	-15539
!	-15540
룡	-15541
벼	-15542
녕	-15543
컸	-15544
좁	-15545
팩	-15546
눔	-15547
쇠	-15548
띄	-15549
Z	-15550
놨	-15551
닭	-15552
샌	-15553
흉	-15554
눠	-15555
셋	-15556
듬	-15557
랩	-15558
빗	-15559
꾼	-15560
엠	-15561
닷	-15562
멜	-15563
깝	-15564
뒀	-15565
굳	-15566
Q	-15567
윈	-15568
젤	-15569
멍	-15570
밍	-15571
빵	-15572
닙	-15573
퀴	-15574
밭	-15575
팎	-15576
팽	-15577
첩	-15578
엽	-15579
륭	-15580
릅	-15581
뇨	-15582
쥐	-15583
헨	-15584
깜	-15585
덤	-15586
썼	-15587
캔	-15588
꿀	-15589
튀	-15590
깃	-15591
끗	-15592
쿄	-15593
냄	-15594
븐	-15595
낳	-15596
숫	-15597
랄	-15598
덮	-15599
랭	-15600
숍	-15601
껏	-15602
밟	-15603
덩	-15604
뭔	-15605
깐	-15606
렷	-15607
ᆞ	-15608
틈	-15609
닿	-15610
x	-15611
쿨	-15612
뼈	-15613
옹	-15614
눌	-15615
~	-15616
셉	-15617
섞	-15618
룰	-15619
꼈	-15620
『	-15621
』	-15622
묶	-15623
픔	-15624
넌	-15625
[	-15626
]	-15627
렘	-15628
떼	-15629
볶	-15630
꽤	-15631
룩	-15632
췄	-15633
엉	-15634
봅	-15635
앗	-15636
낀	-15637
셰	-15638
틸	-15639
맑	-15640
숭	-15641
붉	-15642
턱	-15643
쁨	-15644
롬	-15645
흰	-15646
벅	-15647
탱	-15648
샀	-15649
꺾	-15650
릇	-15651
믹	-15652
썬	-15653
곱	-15654
휩	-15655
맘	-15656
곰	-15657
띠	-15658
궐	-15659
뻐	-15660
늬	-15661
솟	-15662
랬	-15663
슛	-15664
땀	-15665
잦	-15666
쏘	-15667
칫	-15668
칩	-15669
윗	-15670
낯	-15671
킴	-15672
펠	-15673
뚝	-15674
렛	-15675
넉	-15676
잎	-15677
뚫	-15678
냅	-15679
딘	-15680
쫓	-15681
갱	-15682
굿	-15683
횟	-15684
릎	-15685
앓	-15686
렁	-15687
곁	-15688
맵	-15689
탠	-15690
맙	-15691
긋	-15692
햇	-15693
짚	-15694
캘	-15695
킥	-15696
뀐	-15697
낫	-15698
쩔	-15699
쩍	-15700
故	-15701
컷	-15702
짙	-15703
윌	-15704
낚	-15705
뤘	-15706
섹	-15707
몫	-15708
엿	-15709
뻔	-15710
밌	-15711
딪	-15712
삽	-15713
텀	-15714
닛	-15715
z	-15716
뭉	-15717
쩌	-15718
펌	-15719
뉘	-15720
툼	-15721
햄	-15722
톨	-15723
륜	-15724
흙	-15725
굽	-15726
툰	-15727
샷	-15728
쿼	-15729
켈	-15730
붐	-15731
궤	-15732
겉	-15733
닮	-15734
쉼	-15735
젖	-15736
옳	-15737
캡	-15738
끓	-15739
둑	-15740
탔	-15741
볍	-15742
땐	-15743
벡	-15744
》	-15745
《	-15746
뭘	-15747
녔	-15748
옴	-15749
붓	-15750
웰	-15751
핫	-15752
힙	-15753
펙	-15754
둬	-15755
뽐	-15756
닦	-15757
뭇	-15758
훔	-15759
팡	-15760
킷	-15761
깎	-15762
헝	-15763
댐	-15764
찔	-15765
뜩	-15766
갯	-15767
샵	-15768
첼	-15769
꼴	-15770
촛	-15771
솜	-15772
벚	-15773
썩	-15774
캄	-15775
씻	-15776
헐	-15777
얽	-15778
갓	-15779
삐	-15780
갚	-15781
휠	-15782
쉴	-15783
넬	-15784
켄	-15785
쉐	-15786
뭄	-15787
찜	-15788
깥	-15789
싹	-15790
윙	-15791
쭉	-15792
샐	-15793
콕	-15794
꽂	-15795
빔	-15796
촘	-15797
퀘	-15798
갇	-15799
늄	-15800
흠	-15801
띈	-15802
럿	-15803
팜	-15804
꽉	-15805
굵	-15806
꿨	-15807
놔	-15808
뮬	-15809
띤	-15810
‧	-15811
젓	-15812
듈	-15813
콧	-15814
젯	-15815
얇	-15816
돔	-15817
눴	-15818
앵	-15819
퉁	-15820
쪼	-15821
펫	-15822
뚱	-15823
톰	-15824
뜯	-15825
낡	-15826
뻗	-15827
푹	-15828
륨	-15829
셧	-15830
슐	-15831
뜰	-15832
뜬	-15833
텃	-15834
핏	-15835
흩	-15836
넨	-15837
둠	-15838
툴	-15839
잭	-15840
퀄	-15841
푼	-15842
뽀	-15843
꾀	-15844
$	-15845
껑	-15846
펄	-15847
껍	-15848
뱃	-15849
딴	-15850
퀸	-15851
뿜	-15852
늠	-15853
썸	-15854
뀔	-15855
얹	-15856
찢	-15857
빡	-15858
팟	-15859
〉	-15860
°	-15861
〈	-15862
벳	-15863
싣	-15864
잣	-15865
썰	-15866
깁	-15867
숯	-15868
풋	-15869
겔	-15870
볕	-15871
쁩	-15872
헛	-15873
펑	-15874
줌	-15875
웬	-15876
돗	-15877
렐	-15878
늑	-15879
챌	-15880
뱀	-15881
쑤	-15882
찼	-15883
팁	-15884
j	-15885
궈	-15886
삿	-15887
탬	-15888
쌈	-15889
멧	-15890
뵙	-15891
꽁	-15892
뤼	-15893
쑥	-15894
딛	-15895
엎	-15896
잤	-15897
덥	-15898
밋	-15899
엣	-15900
쥬	-15901
놈	-15902
핍	-15903
랴	-15904
춥	-15905
홋	-15906
엮	-15907
똥	-15908
킵	-15909
씁	-15910
쭤	-15911
슘	-15912
튬	-15913
+	-15914
덱	-15915
샴	-15916
폈	-15917
낱	-15918
즙	-15919
끽	-15920
쨌	-15921
짠	-15922
팥	-15923
엌	-15924
솥	-15925
팠	-15926
쫄	-15927
걀	-15928
큽	-15929
똘	-15930
몹	-15931
씹	-15932
귤	-15933
뎌	-15934
홉	-15935
뜸	-15936
뺀	-15937
팍	-15938
큘	-15939
벙	-15940
칵	-15941
씌	-15942
둡	-15943
륵	-15944
맷	-15945
쁠	-15946
썹	-15947
콰	-15948
팸	-15949
넸	-15950
뿔	-15951
빴	-15952
챗	-15953
넛	-15954
룻	-15955
샹	-15956
땠	-15957
딧	-15958
뺏	-15959
댁	-15960
딤	-15961
콥	-15962
_	-15963
뮌	-15964
댔	-15965
딥	-15966
쥔	-15967
굶	-15968
뻤	-15969
쎄	-15970
긁	-15971
옌	-15972
쏜	-15973
웍	-15974
꿰	-15975
튿	-15976
짱	-15977
귄	-15978
왓	-15979
탭	-15980
앰	-15981
뱉	-15982
늙	-15983
짖	-15984
퉈	-15985
퓰	-15986
꿇	-15987
섣	-15988
쿤	-15989
헷	-15990
뛴	-15991
챈	-15992
곶	-15993
얄	-15994
뽕	-15995
짬	-15996
