<unk>	0
<s>	0
</s>	0
.	-3.22665
▁the	-3.38296
,	-3.48014
▁of	-4.10605
▁and	-4.32202
▁to	-4.3573
▁a	-4.63351
▁in	-4.71089
을	-4.82912
-	-4.84538
▁is	-5.02239
의	-5.06945
▁	-5.19391
s	-5.23337
를	-5.2367
▁that	-5.25849
'	-5.26286
▁for	-5.3571
가	-5.38704
는	-5.46209
▁on	-5.57471
▁The	-5.5898
▁I	-5.61719
▁as	-5.70527
은	-5.73711
▁it	-5.74729
▁be	-5.75652
▁with	-5.78003
이	-5.82984
▁was	-5.83456
▁by	-5.85068
에	-5.85999
▁are	-5.96545
▁수	-5.98026
)	-5.98133
▁will	-5.98406
▁"	-6.02825
▁있다	-6.13254
▁at	-6.15802
?	-6.16062
▁from	-6.24831
▁you	-6.25356
▁have	-6.28849
▁has	-6.33588
도	-6.34221
▁“	-6.35347
’	-6.36186
▁which	-6.37439
▁‘	-6.37835
▁not	-6.44339
고	-6.44389
▁who	-6.45081
”	-6.47979
과	-6.47991
일	-6.48762
▁an	-6.49149
(	-6.49527
·	-6.54098
▁this	-6.56224
▁Korea	-6.59279
▁but	-6.63267
▁있는	-6.64644
▁1	-6.64782
로	-6.67853
▁can	-6.69053
▁이	-6.6907
▁or	-6.71877
▁등	-6.71909
▁(	-6.73312
"	-6.73328
와	-6.74582
▁In	-6.75148
th	-6.76271
▁said	-6.79026
▁It	-6.81651
에서	-6.82011
▁2	-6.82251
으로	-6.83236
▁shall	-6.83493
▁year	-6.87541
▁been	-6.87706
▁time	-6.90724
▁were	-6.91049
▁3	-6.94562
▁he	-6.94762
▁한다	-6.95224
▁there	-6.95633
▁Korean	-6.98685
년	-6.99227
t	-7.00026
▁Kim	-7.03206
▁his	-7.04599
▁such	-7.05431
▁also	-7.0688
."	-7.07327
인	-7.08039
▁people	-7.08492
▁so	-7.09017
▁after	-7.09298
▁한	-7.09754
▁제	-7.10318
▁when	-7.11315
다	-7.11494
▁more	-7.12188
▁및	-7.1235
▁they	-7.12379
▁their	-7.12486
▁것으로	-7.13462
한	-7.15033
▁A	-7.15813
▁if	-7.16983
▁than	-7.18223
▁first	-7.18695
▁그	-7.18874
▁about	-7.1985
▁5	-7.22585
월	-7.23337
▁10	-7.25956
▁head	-7.27904
▁4	-7.28119
▁out	-7.28258
▁대한	-7.29041
m	-7.30571
▁Gyeonggi	-7.3298
▁we	-7.33808
▁because	-7.34307
▁one	-7.3807
만	-7.38868
▁its	-7.39059
▁Seoul	-7.39157
▁my	-7.41443
ing	-7.44016
▁위해	-7.44168
▁government	-7.46461
▁where	-7.47952
▁all	-7.48881
▁had	-7.49092
▁may	-7.49233
▁up	-7.51846
▁through	-7.52248
▁전	-7.5248
▁public	-7.53191
▁won	-7.54097
▁last	-7.56338
▁including	-7.57016
▁other	-7.5919
▁This	-7.59453
▁two	-7.60384
▁6	-7.60885
▁only	-7.60935
▁due	-7.61852
▁me	-7.62057
▁것	-7.63262
▁under	-7.63835
▁North	-7.63955
▁new	-7.64096
▁더	-7.64781
▁할	-7.65106
▁따라	-7.65206
▁경우	-7.65264
▁like	-7.65474
S	-7.66436
,"	-7.66511
▁your	-7.67098
▁do	-7.68111
할	-7.6865
▁held	-7.68902
do	-7.69777
▁Province	-7.69795
▁Gu	-7.70104
▁day	-7.70403
▁지난	-7.71352
/	-7.71448
gu	-7.71786
▁7	-7.71801
▁Lee	-7.72439
▁companies	-7.73236
▁high	-7.73305
▁통해	-7.73747
▁나는	-7.75545
▁National	-7.7671
▁would	-7.78177
▁U	-7.78182
▁should	-7.78589
▁중	-7.79117
▁over	-7.80248
▁If	-7.80471
▁them	-7.80619
▁years	-7.80706
▁밝혔다	-7.80975
▁no	-7.81081
▁20	-7.81262
▁함께	-7.81504
▁made	-7.8157
▁8	-7.82784
▁As	-7.83413
▁many	-7.84088
▁into	-7.84231
▁support	-7.85659
▁number	-7.8613
▁하는	-7.86169
▁local	-7.86778
▁work	-7.86898
▁company	-7.87675
▁between	-7.88197
▁market	-7.89259
▁이번	-7.89283
▁business	-7.89346
▁system	-7.91426
▁9	-7.91712
▁있습니다	-7.91728
▁make	-7.91937
2	-7.92867
▁30	-7.93932
▁take	-7.94059
▁school	-7.9444
▁때	-7.94638
▁even	-7.94681
▁There	-7.94969
▁위한	-7.95379
▁것이	-7.954
▁많은	-7.95651
▁We	-7.96255
개	-7.96844
▁since	-7.96891
▁members	-7.96945
하게	-7.97613
▁while	-7.97852
▁use	-7.97876
1	-7.98267
▁한국	-7.9827
하는	-7.98595
▁등을	-7.99067
▁well	-7.99269
지	-7.99607
▁가장	-7.99832
▁President	-8.00339
▁저는	-8.01499
▁Park	-8.02267
▁다른	-8.02549
▁each	-8.02584
나	-8.0273
▁12	-8.04552
▁good	-8.04602
▁말했다	-8.04663
▁내	-8.05297
▁order	-8.05461
▁go	-8.06154
▁것이다	-8.06186
▁11	-8.06473
▁했다	-8.065
며	-8.06711
▁team	-8.06898
▁being	-8.07496
하고	-8.094
▁management	-8.09415
까지	-8.0951
▁next	-8.09961
▁get	-8.10019
▁want	-8.10135
▁think	-8.10201
▁expected	-8.10225
▁her	-8.10237
에는	-8.10325
▁대해	-8.10605
▁during	-8.10748
▁three	-8.10814
▁것은	-8.10856
들이	-8.11814
▁것을	-8.1272
▁When	-8.13014
▁place	-8.13156
),	-8.13472
▁안	-8.13874
▁our	-8.14073
▁City	-8.14646
▁etc	-8.14994
▁김	-8.15029
▁Party	-8.15073
▁Ministry	-8.15302
▁some	-8.15414
▁같은	-8.16255
시	-8.16267
▁meeting	-8.16283
▁before	-8.16315
▁project	-8.16369
▁students	-8.16601
▁official	-8.16643
이라고	-8.16714
▁any	-8.16765
▁various	-8.16868
▁각	-8.17902
▁Article	-8.17999
▁million	-8.18254
게	-8.18676
▁could	-8.1873
▁두	-8.18911
▁person	-8.18918
▁잘	-8.19227
▁He	-8.19277
▁큰	-8.19289
▁necessary	-8.20097
▁또는	-8.20164
▁area	-8.20176
▁게	-8.20556
▁need	-8.2153
▁office	-8.2163
▁미국	-8.21676
대	-8.22032
:	-8.2237
▁China	-8.22713
▁Committee	-8.22862
▁후	-8.22895
▁가운데	-8.22937
▁police	-8.23254
▁same	-8.23631
▁second	-8.2384
▁다음	-8.24151
▁case	-8.24387
▁month	-8.24409
▁know	-8.24742
해	-8.24745
▁15	-8.25146
▁what	-8.25193
▁most	-8.25266
▁필요한	-8.25313
입니다	-8.25328
▁그는	-8.25945
▁Act	-8.26275
▁우리	-8.26341
▁now	-8.26912
▁education	-8.27079
▁residents	-8.27153
▁하고	-8.27297
▁있어	-8.27672
▁used	-8.27844
▁days	-8.2785
▁plan	-8.27889
▁때문에	-8.27966
▁Metropolitan	-8.28397
▁without	-8.29027
d	-8.29254
▁world	-8.29431
▁South	-8.29773
이다	-8.29844
▁service	-8.30217
▁서울	-8.30766
▁Government	-8.31216
▁products	-8.31257
▁등이	-8.32126
▁있도록	-8.32194
▁long	-8.32869
▁Do	-8.33138
▁around	-8.33276
▁former	-8.33597
▁information	-8.33787
▁how	-8.34183
기	-8.34195
▁industry	-8.34216
▁related	-8.35006
▁많이	-8.35102
▁관련	-8.35139
The	-8.35348
▁right	-8.35561
▁Center	-8.35731
▁You	-8.35822
▁don	-8.36093
▁life	-8.36252
▁city	-8.36387
▁따른	-8.36439
▁small	-8.36696
▁특히	-8.37471
▁special	-8.3789
▁event	-8.3813
▁According	-8.38761
▁just	-8.38765
▁최근	-8.39212
▁facilities	-8.39253
▁saying	-8.40214
▁investigation	-8.40743
▁100	-8.40821
에게	-8.40966
▁am	-8.40979
▁children	-8.41073
▁다양한	-8.41075
▁development	-8.41335
▁이날	-8.41427
▁이후	-8.41723
▁following	-8.41808
명	-8.41953
이나	-8.41972
▁lot	-8.42524
▁within	-8.4266
▁much	-8.42789
▁increase	-8.43044
▁country	-8.43437
▁지난해	-8.43536
▁다시	-8.43669
ed	-8.45193
▁billion	-8.45204
▁center	-8.45248
▁없는	-8.45273
▁Moon	-8.45513
▁현재	-8.45561
▁see	-8.45602
▁있다는	-8.45974
▁될	-8.46081
▁제가	-8.46399
▁large	-8.47044
▁food	-8.47081
▁among	-8.47169
▁announced	-8.47181
▁performance	-8.47537
▁did	-8.47645
▁University	-8.47847
▁내가	-8.47982
서	-8.48296
▁period	-8.48638
▁against	-8.48651
she	-8.48934
▁국내	-8.49281
던	-8.49358
▁rate	-8.4948
▁group	-8.49703
▁'	-8.49811
▁party	-8.49837
in	-8.5034
▁price	-8.50446
▁very	-8.50585
▁end	-8.50612
▁On	-8.50703
▁K	-8.5071
▁경기도	-8.509
▁시	-8.51607
▁referred	-8.51626
자	-8.52227
▁구청장은	-8.52505
ll	-8.52936
▁process	-8.53126
▁18	-8.53296
▁social	-8.5365
라	-8.53957
▁올해	-8.54121
▁이상	-8.54306
▁total	-8.54441
▁뒤	-8.54619
▁모두	-8.54648
라는	-8.54739
▁모든	-8.54786
▁직접	-8.54894
▁national	-8.55114
▁him	-8.55667
▁13	-8.5568
히	-8.55788
▁operation	-8.55842
▁whether	-8.56019
▁economic	-8.5603
▁16	-8.56092
▁위하여	-8.56263
▁way	-8.5644
▁중국	-8.56465
▁financial	-8.56716
▁fact	-8.56794
I	-8.56847
▁Jae	-8.57231
▁home	-8.57765
▁report	-8.5797
3	-8.58503
▁come	-8.58772
▁become	-8.58773
▁attention	-8.59081
▁going	-8.59185
▁14	-8.59593
▁Jung	-8.59599
▁등의	-8.59647
▁family	-8.59993
▁found	-8.60318
▁help	-8.60825
▁cases	-8.6084
면	-8.60841
st	-8.61133
▁officials	-8.61373
▁charge	-8.61428
▁At	-8.6143
▁difficult	-8.61582
▁policy	-8.61791
라고	-8.61822
이하	-8.61958
▁future	-8.62078
▁Governor	-8.62355
▁those	-8.62463
▁working	-8.62741
▁change	-8.63029
▁좋은	-8.63175
▁product	-8.63178
▁construction	-8.63389
▁따르면	-8.63405
▁이를	-8.6383
▁again	-8.64511
▁means	-8.64915
▁budget	-8.64956
에서는	-8.65339
▁back	-8.6548
차	-8.65823
▁every	-8.6642
▁situation	-8.66693
▁water	-8.66782
▁she	-8.66905
dong	-8.66994
」	-8.67143
▁together	-8.67281
된	-8.67384
▁Minister	-8.67412
▁Office	-8.67589
▁measures	-8.67927
▁17	-8.6801
▁보고	-8.68156
▁지역	-8.68222
▁있을	-8.68323
▁member	-8.68722
▁part	-8.68786
적인	-8.68857
▁「	-8.69013
▁없다	-8.6905
명이	-8.69164
▁committee	-8.69518
▁우리는	-8.69541
했다	-8.69623
▁아니라	-8.6978
▁activities	-8.6989
▁25	-8.69893
▁power	-8.7007
▁particular	-8.70351
▁amount	-8.7085
▁provide	-8.71021
▁interest	-8.7106
▁reported	-8.71221
▁received	-8.7126
▁19	-8.71471
▁problem	-8.71495
▁possible	-8.7154
▁50	-8.7155
▁Busan	-8.71618
▁countries	-8.7167
hereinafter	-8.71802
▁다만	-8.72406
▁down	-8.72751
▁best	-8.7286
▁fire	-8.73009
▁Ordinance	-8.73153
▁경우에는	-8.7341
▁sales	-8.73531
▁있다고	-8.73551
▁term	-8.73722
▁Please	-8.73752
▁Japan	-8.73802
▁visit	-8.73805
▁총	-8.74012
▁That	-8.74511
▁때문이다	-8.74549
▁set	-8.74606
▁해당	-8.74629
▁percent	-8.7476
▁당시	-8.74837
▁matters	-8.74846
▁오후	-8.74911
▁관한	-8.74917
보다	-8.74949
▁say	-8.75054
nt	-8.75075
▁culture	-8.75197
▁different	-8.75471
▁areas	-8.75731
▁private	-8.75822
▁Assembly	-8.75855
▁24	-8.75905
▁women	-8.76027
▁너무	-8.76099
▁room	-8.76105
▁main	-8.77254
▁된다	-8.77263
▁job	-8.77302
▁director	-8.7741
▁give	-8.77445
▁Samsung	-8.77468
▁만큼	-8.77688
▁새로운	-8.7775
▁today	-8.77874
▁until	-8.7795
▁based	-8.78089
▁using	-8.78117
▁높은	-8.78117
▁해	-8.78132
▁experience	-8.78239
▁major	-8.78517
▁four	-8.7853
▁동안	-8.78543
▁money	-8.7855
We	-8.78785
▁game	-8.79132
▁too	-8.79171
▁important	-8.79408
▁어떤	-8.79602
▁here	-8.79603
▁technology	-8.79825
▁등에	-8.79876
▁these	-8.79889
▁able	-8.80039
▁growth	-8.80118
▁increased	-8.80185
▁Chinese	-8.80303
▁reason	-8.80614
▁않은	-8.80649
조	-8.80828
▁department	-8.80845
▁five	-8.80965
▁general	-8.81065
▁합니다	-8.81086
▁이런	-8.8117
▁foreign	-8.81219
▁지금	-8.81414
▁why	-8.81483
▁Japanese	-8.81766
▁workers	-8.81889
▁Education	-8.8201
▁still	-8.82047
▁decided	-8.8206
▁약	-8.82133
▁data	-8.82135
ve	-8.82156
▁half	-8.82194
억	-8.82269
▁오늘	-8.82396
▁당신은	-8.83009
▁safety	-8.83054
▁데	-8.8314
▁hard	-8.83204
▁21	-8.83304
이라는	-8.8333
▁US	-8.83364
▁real	-8.83554
▁came	-8.83754
회	-8.84406
하지	-8.84495
▁level	-8.84539
▁making	-8.84657
▁province	-8.8471
▁president	-8.84831
▁첫	-8.85026
▁low	-8.85142
▁다	-8.85169
▁left	-8.8532
▁projects	-8.85457
▁early	-8.85973
▁B	-8.861
▁then	-8.86123
▁hope	-8.86317
▁building	-8.86374
▁pay	-8.86434
▁past	-8.86435
▁당신이	-8.86591
▁took	-8.86647
▁이어	-8.86667
▁경찰	-8.86713
▁Trump	-8.86732
▁us	-8.87
▁results	-8.87255
▁New	-8.87295
▁times	-8.87464
▁pursua	-8.8759
▁또	-8.8782
▁주	-8.87856
▁tax	-8.88164
주	-8.88258
▁27	-8.88326
▁Council	-8.88532
▁media	-8.88832
▁military	-8.88968
▁released	-8.89049
▁off	-8.89096
▁After	-8.89192
▁관계자는	-8.89415
부터	-8.89737
▁트럼프	-8.89839
제	-8.90008
▁세계	-8.90072
▁일본	-8.90079
▁23	-8.90296
▁어떻게	-8.90334
▁있었다	-8.90415
▁있어요	-8.90549
▁house	-8.90625
▁시장	-8.90712
이라	-8.9101
▁KRW	-8.91102
▁show	-8.91138
▁Incheon	-8.91178
▁22	-8.91197
▁40	-8.9124
▁않고	-8.91268
▁find	-8.91295
▁car	-8.91533
▁What	-8.91707
▁site	-8.91776
하여야	-8.92029
▁된	-8.92104
▁issue	-8.92141
▁relevant	-8.92142
▁week	-8.92204
▁affairs	-8.92419
▁시간	-8.92764
▁check	-8.92804
▁오는	-8.92943
▁domestic	-8.92982
합니다	-8.93044
야	-8.93137
하여	-8.93246
▁However	-8.93401
▁economy	-8.93559
▁name	-8.93701
여	-8.93829
▁start	-8.93881
▁문	-8.93911
▁result	-8.93912
▁own	-8.94031
▁investment	-8.94428
▁볼	-8.94664
▁있으며	-8.94734
항에	-8.94812
▁labor	-8.94815
하며	-8.95303
▁health	-8.95311
▁열린	-8.95316
▁called	-8.95641
▁cultural	-8.95732
▁plans	-8.95763
▁보인다	-8.95777
▁결과	-8.95808
▁28	-8.95943
▁있고	-8.96421
▁research	-8.965
the	-8.96534
nd	-8.96749
▁26	-8.96806
re	-8.96874
분	-8.97021
▁does	-8.9704
▁Dong	-8.97159
▁대통령이	-8.97183
▁Chairman	-8.97188
▁law	-8.97201
▁agreement	-8.9732
▁Although	-8.97489
▁paragraph	-8.97588
▁attached	-8.97863
▁건	-8.97883
▁must	-8.97889
▁great	-8.98152
▁citizens	-8.98189
▁front	-8.98298
▁addition	-8.98395
▁Choi	-8.98531
▁Court	-8.98587
▁간	-8.98766
▁받은	-8.99131
4	-8.99164
▁current	-8.99305
했던	-8.99451
▁오전	-8.99596
her	-8.99627
▁여러	-8.99648
▁feel	-8.99719
▁young	-8.99802
요	-8.99843
▁global	-8.99972
▁좀	-9.00085
▁chairman	-9.00251
")	-9.00286
▁medical	-9.00879
▁2018	-9.00902
▁went	-9.01049
▁prosecution	-9.01051
▁없이	-9.01062
▁strong	-9.01221
▁already	-9.01235
▁environment	-9.01334
▁once	-9.01614
▁Institute	-9.01667
▁care	-9.01702
▁provincial	-9.01947
▁hours	-9.01976
▁established	-9.01992
▁기존	-9.0217
ho	-9.02273
▁services	-9.02281
▁put	-9.02425
▁My	-9.02675
▁full	-9.02677
▁look	-9.02727
▁예정이다	-9.02751
▁body	-9.02934
▁For	-9.0294
습니다	-9.0303
▁설명했다	-9.0323
▁receive	-9.03323
▁경기	-9.03372
들은	-9.03577
▁request	-9.03599
▁paid	-9.03719
▁Jong	-9.03866
▁주요	-9.03912
▁지원	-9.03923
▁music	-9.03998
▁expenses	-9.0408
▁top	-9.04394
ly	-9.04418
▁어느	-9.04518
호	-9.04536
처럼	-9.04587
▁purpose	-9.04611
▁months	-9.04724
▁북한	-9.04752
하기	-9.04787
▁They	-9.04818
▁employees	-9.05648
▁cooperation	-9.05674
▁네	-9.05778
▁조사	-9.05845
▁그리고	-9.0619
▁Hong	-9.06213
▁같이	-9.06241
▁seems	-9.06489
▁side	-9.06535
▁An	-9.07041
▁state	-9.07226
▁according	-9.07273
▁apply	-9.07284
▁가능성이	-9.07387
될	-9.07579
▁participate	-9.07603
▁conducted	-9.07618
▁please	-9.07658
▁explained	-9.07776
▁big	-9.07807
▁사람이	-9.07887
▁Association	-9.07899
▁create	-9.07917
▁living	-9.07924
▁바로	-9.08099
미	-9.08388
▁cannot	-9.08493
▁Young	-9.08564
▁일부	-9.08701
▁selected	-9.08706
▁free	-9.08821
▁District	-9.0904
▁open	-9.09139
▁per	-9.09336
▁court	-9.09342
▁recently	-9.0938
▁May	-9.09435
▁production	-9.09458
▁play	-9.09542
▁program	-9.09903
▁self	-9.09991
▁바	-9.10091
▁training	-9.10216
▁ceremony	-9.10269
▁정부가	-9.10422
▁호의	-9.10485
▁point	-9.10498
▁29	-9.10642
▁prices	-9.10735
▁있지만	-9.10781
▁send	-9.10862
하면서	-9.10894
▁both	-9.10932
▁meet	-9.10962
▁morning	-9.11001
rd	-9.11062
▁organizations	-9.11158
▁application	-9.11452
▁United	-9.11726
▁줄	-9.11909
▁No	-9.12055
▁Service	-9.12075
▁대상으로	-9.12286
▁미	-9.12293
▁live	-9.12382
▁Democratic	-9.12492
▁문제가	-9.12646
▁Since	-9.1268
▁난	-9.12848
▁floor	-9.13099
▁더욱	-9.13323
했습니다	-9.13433
▁English	-9.1356
▁영화	-9.13577
▁것입니다	-9.13628
▁away	-9.13649
▁payment	-9.13715
▁agency	-9.13723
▁love	-9.1377
▁less	-9.13961
▁31	-9.14145
▁got	-9.1419
에도	-9.14382
▁나	-9.14422
▁못	-9.14433
▁started	-9.14563
▁정말	-9.14631
▁trade	-9.14726
▁Cho	-9.148
▁competition	-9.14854
들의	-9.14894
어	-9.15017
▁So	-9.15029
a	-9.1506
▁old	-9.1513
▁매우	-9.15138
▁말한다	-9.15194
▁became	-9.15319
▁representative	-9.15335
▁continue	-9.15404
▁최대	-9.15452
▁받고	-9.15491
▁taking	-9.15711
▁date	-9.1575
▁visited	-9.15753
조제	-9.15776
▁이미	-9.15798
A	-9.15831
▁hold	-9.16041
▁along	-9.16091
▁community	-9.1616
▁field	-9.16195
▁summit	-9.16351
▁better	-9.16635
▁likely	-9.16741
▁administration	-9.16755
▁cost	-9.16817
▁때에는	-9.16901
▁administrative	-9.1691
▁welfare	-9.17142
▁않는	-9.17174
▁opening	-9.17373
▁prevent	-9.17614
▁late	-9.17656
▁test	-9.17697
▁Gwangju	-9.1791
▁popular	-9.1799
▁Mayor	-9.18012
▁Where	-9.18063
G	-9.18247
▁사업	-9.18413
▁led	-9.18541
▁당신의	-9.18586
▁asked	-9.18693
▁another	-9.18775
▁우리가	-9.18816
▁하나	-9.18913
▁income	-9.19103
soo	-9.1953
▁leader	-9.19615
▁2016	-9.199
▁정도	-9.19982
▁World	-9.20265
▁improve	-9.20397
▁rights	-9.20403
세	-9.20407
일부터	-9.20463
5	-9.20525
▁demand	-9.20525
▁video	-9.20578
▁이에	-9.20652
▁contract	-9.20936
▁말	-9.20954
▁international	-9.20971
▁도지사	-9.21008
▁soon	-9.21026
▁또한	-9.21042
▁지	-9.2124
▁organization	-9.2125
▁election	-9.21391
▁things	-9.21417
▁located	-9.21453
진	-9.21584
.”	-9.21629
▁third	-9.21677
▁human	-9.21691
▁자신의	-9.21709
하도록	-9.21784
▁history	-9.21811
▁child	-9.21844
▁되는	-9.21875
원	-9.21911
▁non	-9.21937
▁accident	-9.22013
사	-9.22075
▁line	-9.22154
▁School	-9.22158
▁먼저	-9.22182
▁damage	-9.22279
▁크게	-9.22476
▁known	-9.22594
▁man	-9.22818
▁시간이	-9.22934
▁showed	-9.22994
▁Group	-9.23124
▁stage	-9.23167
▁problems	-9.23182
▁security	-9.23255
▁confirmed	-9.2327
적	-9.23275
▁season	-9.23279
▁March	-9.2329
▁establish	-9.23365
▁됐다	-9.23643
억원	-9.23731
▁학교	-9.23789
▁몇	-9.23851
▁달	-9.23862
일까지	-9.24123
조에	-9.24144
▁parents	-9.24445
▁Commission	-9.24514
▁International	-9.24777
▁설치	-9.24793
▁아직	-9.24924
▁사람	-9.2515
▁caused	-9.25152
▁treatment	-9.25164
▁등으로	-9.25191
▁Kang	-9.25228
해야	-9.25245
▁Jeju	-9.25264
▁began	-9.25281
▁persons	-9.25437
▁provided	-9.25444
▁promote	-9.25463
▁space	-9.25501
▁attended	-9.25572
▁기업	-9.25741
들을	-9.25808
▁lead	-9.25846
▁&	-9.25853
▁fine	-9.25956
▁book	-9.26066
▁원	-9.26186
▁didn	-9.26282
▁교육	-9.2639
▁전국	-9.26397
▁추가	-9.26467
ri	-9.26603
▁air	-9.26613
▁added	-9.26626
",	-9.2666
▁60	-9.26701
▁Police	-9.2674
▁With	-9.26992
▁있나요	-9.27034
▁사항을	-9.27136
▁employment	-9.27272
▁관심이	-9.275
▁전했다	-9.27521
▁운영	-9.27592
▁institutions	-9.27761
▁사용	-9.27878
면서	-9.27952
young	-9.27957
▁조례	-9.27975
▁decision	-9.27991
▁class	-9.28199
▁How	-9.28306
▁middle	-9.28352
▁번	-9.28414
▁박	-9.28539
▁inspection	-9.28644
▁previous	-9.28689
▁p	-9.28752
▁청와대	-9.28769
▁schools	-9.28901
▁policies	-9.29248
▁players	-9.29253
▁region	-9.2927
▁필요	-9.29368
D	-9.29455
성	-9.29529
하면	-9.29697
▁position	-9.29709
▁society	-9.2976
▁(1)	-9.29774
It	-9.29776
▁날	-9.29878
▁Even	-9.29889
▁fans	-9.29947
▁design	-9.30068
▁housing	-9.30099
▁관심	-9.30117
▁quality	-9.30222
▁subject	-9.30351
▁let	-9.30356
▁정부	-9.30464
한다	-9.30496
▁sent	-9.30574
▁관리	-9.30629
▁having	-9.30639
▁보면	-9.3077
▁movie	-9.30874
▁participated	-9.30877
▁overseas	-9.31088
▁minutes	-9.31131
year	-9.31254
▁ruling	-9.31387
▁아닌	-9.31529
▁글로벌	-9.31776
▁changed	-9.31949
▁TV	-9.31965
▁actively	-9.31982
시간	-9.32109
▁district	-9.32229
▁directly	-9.32248
▁experts	-9.3228
▁night	-9.32328
▁short	-9.32417
▁pointed	-9.32479
▁Shin	-9.32609
▁little	-9.32754
e	-9.32768
▁opposition	-9.32855
▁role	-9.32894
▁far	-9.33124
▁Dae	-9.33153
▁그동안	-9.3325
▁trial	-9.33349
▁value	-9.33421
▁서울특별시	-9.33471
▁200	-9.33539
▁CEO	-9.33579
▁political	-9.33654
▁land	-9.3392
Korean	-9.33967
▁cause	-9.34035
▁move	-9.34129
▁House	-9.34186
형	-9.34192
▁insurance	-9.34194
▁April	-9.34318
▁exchange	-9.34534
▁그의	-9.34672
▁States	-9.3478
▁그런	-9.34997
▁일이	-9.35069
won	-9.35187
▁study	-9.35263
▁facility	-9.35355
▁store	-9.35406
▁funds	-9.35671
▁thought	-9.35676
▁중인	-9.35697
▁하며	-9.35703
▁역시	-9.35739
▁해요	-9.35803
▁effect	-9.35823
▁Han	-9.35831
▁2017	-9.3586
▁prepare	-9.35885
지만	-9.35926
하거나	-9.35933
▁age	-9.35976
▁completed	-9.36025
▁각종	-9.36045
▁사람들이	-9.36052
▁conditions	-9.36195
▁하지만	-9.36195
up	-9.3621
수	-9.36332
▁card	-9.36437
▁return	-9.36458
▁others	-9.36551
▁applied	-9.36621
▁control	-9.36673
▁additional	-9.36739
7	-9.3678
▁joint	-9.36867
▁six	-9.37182
▁raised	-9.37217
▁existing	-9.37317
▁really	-9.37323
▁later	-9.37381
▁call	-9.37432
▁news	-9.37485
▁June	-9.37606
▁jobs	-9.37616
▁always	-9.37721
▁given	-9.37749
▁온	-9.37756
장	-9.3782
▁경기도가	-9.37831
▁bus	-9.37855
▁customers	-9.3786
jin	-9.37927
▁알	-9.37992
상	-9.38054
▁세	-9.38143
▁계속	-9.3819
▁Liberty	-9.38195
▁trillion	-9.38219
▁re	-9.38247
▁Station	-9.38429
명의	-9.38499
▁경제	-9.38519
▁road	-9.3866
er	-9.38666
▁revealed	-9.38673
▁Provincial	-9.38806
▁Ji	-9.38818
▁chief	-9.38844
▁run	-9.38859
▁businesses	-9.38915
▁과정에서	-9.38937
▁face	-9.38995
▁수도	-9.39
▁final	-9.39119
▁July	-9.39295
▁traditional	-9.3938
▁promotion	-9.39411
선	-9.3942
▁나타났다	-9.39906
▁tell	-9.39964
▁often	-9.39975
▁near	-9.40017
min	-9.40075
▁Public	-9.40136
▁war	-9.40222
▁supply	-9.40249
▁각각	-9.40262
▁materials	-9.40283
▁가지고	-9.40385
▁D	-9.40455
▁투자	-9.40485
▁대표	-9.40504
▁2015	-9.40523
▁senior	-9.4064
▁events	-9.40845
▁나온다	-9.40898
되는	-9.40939
▁실제	-9.40972
6	-9.41128
▁survey	-9.41194
▁일	-9.41233
▁문화	-9.41282
▁stock	-9.41289
al	-9.4138
▁법	-9.41389
▁works	-9.41458
▁taken	-9.41471
▁response	-9.4148
▁국회	-9.4149
▁앞서	-9.41568
▁그가	-9.41572
▁sector	-9.41606
▁새	-9.41695
▁least	-9.41727
▁seen	-9.41741
▁Sung	-9.41898
중	-9.41946
▁civil	-9.42011
▁것도	-9.42045
▁전에	-9.42123
▁rather	-9.42196
▁But	-9.42208
▁하지	-9.42286
▁emergency	-9.42471
▁keep	-9.42645
개월	-9.42646
▁물론	-9.42661
▁higher	-9.42682
▁buy	-9.43082
▁Can	-9.43207
▁Supreme	-9.43224
▁exhibition	-9.43227
▁있는데	-9.43342
만원	-9.43343
▁본	-9.43362
▁industrial	-9.43445
▁회사	-9.43552
▁medium	-9.43571
▁만에	-9.43647
▁share	-9.43671
▁largest	-9.43695
▁student	-9.43712
▁Yoon	-9.43815
▁올	-9.43852
▁한다는	-9.44037
▁recent	-9.44115
▁basic	-9.44116
엔	-9.44173
▁거	-9.44231
hyun	-9.44258
▁enjoy	-9.44281
▁Affairs	-9.44293
동	-9.44326
▁increasing	-9.44392
y	-9.44405
▁앞으로	-9.44525
▁한국의	-9.44583
▁배우	-9.44672
▁match	-9.44701
▁though	-9.44741
▁compared	-9.44756
▁planning	-9.44805
▁받을	-9.44904
▁전체	-9.44987
▁제품	-9.45039
▁possibility	-9.45074
용	-9.45111
▁evaluation	-9.4527
▁hospital	-9.45362
명을	-9.45365
&	-9.45508
▁easy	-9.45545
▁영향을	-9.4559
▁wage	-9.45661
위	-9.45721
▁operating	-9.45875
▁Financial	-9.46137
▁issues	-9.4616
▁art	-9.46174
▁알고	-9.46542
란	-9.46576
si	-9.46924
▁지난달	-9.47001
▁never	-9.47113
▁여성	-9.47117
▁account	-9.47322
▁들어	-9.47448
▁looking	-9.47653
▁story	-9.4785
천	-9.47884
▁fees	-9.47941
▁가격	-9.47995
▁introduced	-9.4802
▁있게	-9.48024
▁왜	-9.48047
▁review	-9.4807
▁average	-9.48184
▁해야	-9.48194
▁form	-9.48269
▁festival	-9.4829
이란	-9.48364
▁2019	-9.48409
▁인기	-9.48435
▁규모	-9.48457
▁phone	-9.48522
▁Seung	-9.48566
▁September	-9.48623
▁기간	-9.487
▁costs	-9.48733
▁Then	-9.48776
▁계획이다	-9.48887
▁해외	-9.48906
▁인해	-9.48907
▁시설	-9.48978
▁ago	-9.49056
▁energy	-9.49081
▁처음	-9.49223
▁목적으로	-9.49246
▁Jin	-9.49259
▁Festival	-9.4926
▁중심으로	-9.49306
▁C	-9.49368
▁Yang	-9.4978
▁regular	-9.49917
▁To	-9.4998
▁Seo	-9.50053
▁되고	-9.50165
▁진행	-9.50166
▁Hyundai	-9.50214
▁leave	-9.50458
▁something	-9.50567
▁문재인	-9.50568
▁있기	-9.50608
▁이는	-9.50627
▁friends	-9.50714
▁groups	-9.50724
▁Bank	-9.50778
▁families	-9.50817
▁enough	-9.50851
▁강조했다	-9.50925
▁advance	-9.50994
▁가능한	-9.50996
▁Hyun	-9.51058
▁Jang	-9.51167
▁course	-9.51253
▁dust	-9.51282
▁created	-9.51338
km	-9.51357
▁우선	-9.51366
▁points	-9.51444
▁goal	-9.51696
▁officer	-9.51747
▁opinions	-9.51806
▁차량	-9.51863
▁Asian	-9.51979
▁cities	-9.5202
▁Management	-9.52065
▁conduct	-9.52067
▁controversy	-9.52108
▁Form	-9.52115
▁않았다	-9.52231
▁이러한	-9.52237
▁가지	-9.52263
▁저	-9.52299
부	-9.52413
▁Department	-9.5244
▁않아	-9.52456
▁active	-9.52506
▁해당하는	-9.52536
▁부산	-9.5255
▁차	-9.52603
▁이렇게	-9.52727
▁Gangwon	-9.52789
▁Provided	-9.52804
▁outside	-9.5282
▁accordance	-9.5308
▁While	-9.53151
▁film	-9.53226
▁key	-9.53262
스	-9.53283
▁developed	-9.53309
▁met	-9.53312
▁두고	-9.53316
▁currently	-9.5342
▁words	-9.53465
▁establishment	-9.53468
▁도	-9.53562
▁size	-9.53581
▁press	-9.53715
돼	-9.5377
▁않을	-9.53787
▁makes	-9.53789
▁growing	-9.538
▁illegal	-9.53848
▁Agency	-9.53852
▁death	-9.53856
▁conference	-9.53902
▁complex	-9.53919
▁eat	-9.54015
▁Jeong	-9.54066
했고	-9.5416
▁Sang	-9.54195
▁expand	-9.54232
▁yet	-9.54293
▁close	-9.54355
▁friend	-9.54625
▁documents	-9.54753
▁확인	-9.54754
▁Kyung	-9.54804
▁afternoon	-9.54807
▁것이라는	-9.54856
▁역할을	-9.54885
▁북	-9.54902
▁operate	-9.54914
▁needed	-9.55012
▁500	-9.55085
▁items	-9.55086
해서	-9.55229
▁status	-9.55307
▁leading	-9.55339
▁try	-9.55493
▁S	-9.55505
▁opened	-9.55665
▁equipment	-9.55756
▁opinion	-9.55888
▁travel	-9.55891
▁Some	-9.56004
▁prepared	-9.56004
▁집	-9.56008
▁October	-9.56022
term	-9.56028
▁vehicle	-9.56185
▁talk	-9.56199
▁일자리	-9.56273
▁친구	-9.56315
▁300	-9.56347
)’	-9.56426
▁ask	-9.56516
▁vice	-9.56521
▁expressed	-9.56557
▁online	-9.56635
▁대부분	-9.56704
▁Trade	-9.56751
▁알려졌다	-9.56769
▁efforts	-9.56775
▁rise	-9.56842
▁기술	-9.56875
▁present	-9.56895
▁programs	-9.56913
▁hit	-9.57062
▁Administration	-9.57276
▁Yes	-9.5747
▁understand	-9.57507
▁조	-9.57536
데	-9.57565
▁sports	-9.57588
▁continued	-9.57878
▁도내	-9.57885
▁tomorrow	-9.57895
▁regulations	-9.57936
▁getting	-9.57976
▁parties	-9.57989
sized	-9.58019
▁사업을	-9.58064
▁starting	-9.58067
▁develop	-9.58156
▁method	-9.58171
▁LG	-9.58185
아	-9.58208
woo	-9.58254
▁중요한	-9.58279
▁고	-9.58377
▁photo	-9.58428
▁나왔다	-9.58435
C	-9.58501
▁passed	-9.58534
▁content	-9.58562
▁음식	-9.586
리	-9.58671
▁70	-9.58721
▁sold	-9.58729
▁하루	-9.58732
▁Internet	-9.58864
▁spread	-9.59065
▁inter	-9.59095
▁written	-9.59116
▁secretary	-9.59229
▁personnel	-9.59339
▁어려운	-9.59381
▁shows	-9.59551
당	-9.59553
▁record	-9.59601
▁대하여	-9.59669
년간	-9.5972
▁designated	-9.59834
▁Min	-9.59904
▁국가	-9.59997
▁men	-9.60011
▁female	-9.60012
▁매년	-9.60022
▁서로	-9.60191
▁Gangnam	-9.60291
▁제대로	-9.60332
▁별지	-9.60337
▁Song	-9.60396
▁happy	-9.60406
▁받아	-9.60436
▁점을	-9.60467
씨가	-9.60495
▁lives	-9.60675
▁모습을	-9.6076
도록	-9.60803
▁manager	-9.60935
▁Electronics	-9.60999
▁서비스	-9.61113
hee	-9.61201
▁Justice	-9.61235
▁university	-9.61259
▁구	-9.61308
비	-9.61332
▁sorry	-9.61348
▁considered	-9.61451
▁contents	-9.61457
▁purchase	-9.61475
▁submit	-9.61515
이에요	-9.61545
▁minimum	-9.61578
▁needs	-9.61582
▁authorities	-9.61746
▁Land	-9.61787
▁같다	-9.6183
▁네가	-9.61916
▁improvement	-9.61972
▁told	-9.61996
▁SK	-9.62138
▁Yoo	-9.6215
▁lower	-9.62171
▁소속	-9.62223
▁transportation	-9.62303
▁Daegu	-9.62338
▁nuclear	-9.62386
▁신	-9.62559
▁gave	-9.62607
▁single	-9.62642
▁lost	-9.6269
▁2014	-9.62747
▁few	-9.62792
▁채	-9.62872
▁reduce	-9.62876
▁village	-9.62894
▁August	-9.62933
▁believe	-9.62951
▁갈	-9.62953
▁걸	-9.62995
▁ahead	-9.62998
▁너	-9.63018
▁일을	-9.63117
▁January	-9.63177
▁included	-9.63247
▁정도로	-9.63253
화	-9.63271
로부터	-9.63296
▁estate	-9.63344
▁받는	-9.63452
▁daily	-9.63537
▁mobile	-9.63562
▁있어서	-9.63597
▁similar	-9.63698
▁mother	-9.63809
▁Prime	-9.6387
▁traffic	-9.63908
▁charges	-9.64041
gun	-9.64066
▁several	-9.64079
▁수사	-9.64209
▁crisis	-9.64218
하던	-9.64246
▁language	-9.64276
▁Research	-9.64326
▁governments	-9.64373
▁built	-9.64418
▁changes	-9.64467
▁참여	-9.64474
▁further	-9.64547
ary	-9.64547
time	-9.64584
▁heard	-9.64863
▁clear	-9.64864
▁sexual	-9.64866
▁appointed	-9.64937
▁audit	-9.64973
▁Corporation	-9.6502
▁얼마나	-9.65034
▁조금	-9.65043
▁natural	-9.65109
▁Tae	-9.65182
▁She	-9.65192
▁과거	-9.65207
▁됩니다	-9.65301
구	-9.6533
▁갖고	-9.65483
▁One	-9.65522
▁가	-9.65535
▁model	-9.65584
▁list	-9.65601
▁vehicles	-9.65602
▁문제	-9.6568
▁저희	-9.65734
전	-9.65778
▁enter	-9.65807
▁State	-9.65836
▁legal	-9.6584
▁비	-9.65852
▁governor	-9.65882
▁대학	-9.65966
▁scene	-9.66015
▁현지	-9.66114
▁판매	-9.66228
▁trip	-9.66333
▁oil	-9.66372
▁alone	-9.66422
▁거예요	-9.66441
▁users	-9.66449
▁December	-9.66599
▁가는	-9.66765
▁환경	-9.66779
▁schedule	-9.66812
▁G	-9.66822
▁staff	-9.6684
8	-9.66961
▁정	-9.66982
▁Mr	-9.66991
▁fall	-9.67003
▁거쳐	-9.67081
에서도	-9.67109
했어요	-9.67144
▁활성화	-9.67189
▁대비	-9.6728
9	-9.67286
▁council	-9.67648
▁바랍니다	-9.67696
▁personal	-9.6774
▁First	-9.67802
▁번째	-9.67896
▁Chung	-9.67946
▁자동차	-9.67972
▁Is	-9.68134
▁song	-9.68149
▁rice	-9.68171
▁Vice	-9.68183
▁round	-9.68206
▁interested	-9.68215
▁regional	-9.68231
▁station	-9.68338
▁parking	-9.68361
▁개인	-9.68402
▁candidate	-9.68445
▁November	-9.68461
▁문제를	-9.6852
▁상황에서	-9.68526
▁사고	-9.68586
▁lack	-9.68657
니	-9.68664
▁”	-9.68706
▁inside	-9.6873
▁개발	-9.68746
▁Health	-9.68812
▁Hwang	-9.68832
▁seven	-9.68872
▁include	-9.69022
▁famous	-9.69055
▁kind	-9.69073
▁국제	-9.69159
▁양	-9.69234
un	-9.69288
에선	-9.69483
▁내년	-9.69487
▁terms	-9.69499
▁operated	-9.69545
▁것이라고	-9.69584
▁같아	-9.6961
▁easily	-9.69633
▁action	-9.69641
▁Nam	-9.69723
▁Culture	-9.69751
denuclearization	-9.69863
▁summer	-9.69901
;	-9.70025
▁최종	-9.70041
▁Yong	-9.7006
▁E	-9.70068
▁agencies	-9.70109
▁가진	-9.7029
▁regarding	-9.70336
▁대통령은	-9.7043
▁played	-9.70543
▁individual	-9.7063
▁이용	-9.70646
▁이제	-9.7072
▁receiving	-9.70734
되고	-9.70743
▁capital	-9.70765
▁woman	-9.70789
▁immediately	-9.70818
▁questions	-9.70824
▁만들어	-9.70897
▁cars	-9.70921
▁자신이	-9.71074
▁없어	-9.71093
▁있던	-9.71164
▁Development	-9.71336
▁light	-9.71444
▁opportunity	-9.71591
▁거야	-9.71675
거나	-9.71779
법	-9.71779
▁carried	-9.7178
▁places	-9.71786
▁institution	-9.72213
▁highest	-9.72352
▁communication	-9.72357
▁heat	-9.72384
▁approval	-9.72402
▁issued	-9.72456
▁apartment	-9.7248
▁division	-9.72551
▁participation	-9.7261
▁drama	-9.72617
▁이상의	-9.72707
▁Labor	-9.72738
▁property	-9.72754
▁Because	-9.72763
▁driving	-9.72781
▁Hall	-9.72849
적으로	-9.72985
▁관련해	-9.73012
▁games	-9.73154
▁standard	-9.73255
▁의견을	-9.73261
▁그럼	-9.73267
▁deliberation	-9.73368
▁picture	-9.7343
▁professional	-9.73439
▁relationship	-9.73531
▁details	-9.73585
▁win	-9.7365
▁bill	-9.73687
▁fund	-9.73717
▁restaurant	-9.73723
▁patients	-9.73728
▁비해	-9.73736
▁excellent	-9.73744
▁available	-9.73846
▁negotiations	-9.7388
▁달리	-9.73893
▁central	-9.74002
▁prescribed	-9.74012
▁professor	-9.74014
▁parts	-9.74054
▁장	-9.74215
▁같아요	-9.74311
▁youth	-9.74395
▁union	-9.74407
▁done	-9.7454
▁relations	-9.74561
▁concerning	-9.74611
▁trying	-9.74628
▁original	-9.74681
▁Among	-9.74912
▁정부의	-9.74929
▁러시아	-9.74988
▁standards	-9.74989
▁공동	-9.75041
▁회의	-9.75046
▁implement	-9.75067
▁duties	-9.751
▁Welfare	-9.75104
▁disaster	-9.75124
▁consumers	-9.75204
▁사실을	-9.75227
▁Chang	-9.75371
▁받았다	-9.75452
▁transfer	-9.75515
년부터	-9.75517
to	-9.75585
▁일반	-9.7565
▁submitted	-9.75691
▁hand	-9.75695
▁contact	-9.75719
▁신청	-9.75804
▁considering	-9.75831
▁takes	-9.75846
▁wanted	-9.75869
▁하면	-9.7587
▁fee	-9.75944
▁Cheong	-9.76007
▁urban	-9.76077
▁업무	-9.76087
▁February	-9.76165
▁High	-9.76222
▁혹시	-9.76247
▁내용을	-9.7625
▁많다	-9.76299
▁Security	-9.7633
▁대해서는	-9.76331
▁대회	-9.76442
▁talks	-9.76452
▁평균	-9.76605
건	-9.76623
▁performances	-9.76624
▁hot	-9.76658
▁Director	-9.76739
▁없습니다	-9.76793
▁못한	-9.76911
▁poor	-9.76915
▁Island	-9.76951
▁coming	-9.76961
▁전망이다	-9.76993
▁cold	-9.77053
▁목소리	-9.77138
▁college	-9.77198
▁forward	-9.77227
▁quickly	-9.77261
▁burden	-9.77268
▁대통령	-9.77315
▁executive	-9.77392
▁Support	-9.77475
했지만	-9.77504
▁연구	-9.7754
▁필요하다고	-9.77551
▁learning	-9.776
하였다	-9.77703
▁전문	-9.77727
배	-9.7775
▁정책	-9.77787
▁사진	-9.7781
▁추진	-9.77819
▁Foundation	-9.77864
▁session	-9.77894
▁경기도는	-9.77903
▁determined	-9.77926
▁goods	-9.77979
on	-9.78108
▁father	-9.78127
▁지원을	-9.78164
▁bad	-9.78169
▁쉽게	-9.78176
▁서	-9.78177
▁reform	-9.7819
되지	-9.78209
▁analysis	-9.78226
▁type	-9.78249
▁teams	-9.7836
▁actual	-9.78386
▁Co	-9.7848
▁결과를	-9.78501
▁bank	-9.78525
▁Local	-9.78545
▁2013	-9.78548
▁우리나라	-9.7855
▁모습이	-9.78661
related	-9.78698
▁활동	-9.78757
▁presidential	-9.78789
▁credit	-9.78825
▁showing	-9.78856
▁God	-9.78923
▁내일	-9.78968
▁주세요	-9.78971
▁오	-9.78986
▁doing	-9.78996
▁concert	-9.79161
▁corporate	-9.79294
▁Wa	-9.79334
되어	-9.79343
▁e	-9.79427
n	-9.79494
▁Russia	-9.79514
▁만든	-9.79529
▁certain	-9.79566
▁기준	-9.79606
▁되어	-9.79622
▁risk	-9.79744
▁향후	-9.79766
▁일정	-9.79826
식	-9.79865
▁mind	-9.79884
▁비롯해	-9.79923
▁crime	-9.79991
▁Let	-9.80008
▁reduced	-9.80017
▁안에	-9.80159
인데	-9.80194
▁초	-9.80199
▁SNS	-9.80441
조의	-9.80524
여명이	-9.80526
▁남북	-9.80605
▁도는	-9.80696
▁중에서	-9.80823
▁disease	-9.80838
▁nation	-9.80921
▁업체	-9.80925
하기로	-9.81022
▁Sun	-9.81057
▁규정에	-9.81073
▁작은	-9.81076
▁정보를	-9.81162
▁implementation	-9.81199
▁pressure	-9.81231
▁<	-9.81375
▁chairperson	-9.81384
▁households	-9.81388
▁heart	-9.81399
▁발생한	-9.814
▁stores	-9.81404
▁distribution	-9.81424
▁fell	-9.81532
▁적이	-9.81541
▁Special	-9.81548
▁holding	-9.81605
▁metropolitan	-9.81654
월부터	-9.81658
▁drawing	-9.81663
▁base	-9.81672
▁centers	-9.81685
▁한다고	-9.81721
▁계약	-9.8174
▁보도했다	-9.81775
됐다	-9.81817
▁활동을	-9.81835
▁doesn	-9.8191
▁그룹	-9.81933
▁아파트	-9.82171
▁organized	-9.82201
▁stop	-9.82244
▁hall	-9.82248
항	-9.82254
▁것에	-9.82284
▁industries	-9.82324
▁matter	-9.82335
▁attend	-9.82413
▁꼭	-9.82415
▁trend	-9.82479
▁도움이	-9.82543
▁saw	-9.82635
▁앞두고	-9.82747
▁속	-9.82761
▁brand	-9.82763
항의	-9.82794
▁대통령의	-9.82831
▁제품을	-9.82861
▁Technology	-9.82872
▁비핵화	-9.82981
pop	-9.82993
▁impact	-9.82999
▁true	-9.83176
▁당	-9.83188
해요	-9.83207
▁produced	-9.83261
▁followed	-9.83306
▁적극	-9.83431
▁felt	-9.83443
▁하는데	-9.83478
군	-9.83504
▁leaders	-9.83567
▁스스로	-9.83635
▁series	-9.83701
▁sanctions	-9.83755
▁혐의로	-9.8378
▁현장	-9.83788
▁Cup	-9.83806
▁church	-9.83881
▁statement	-9.83904
▁최고	-9.8395
▁그녀는	-9.83958
▁might	-9.83992
▁movement	-9.83995
▁eyes	-9.84016
▁structure	-9.84022
▁sense	-9.8412
▁required	-9.84133
▁agricultural	-9.84225
▁Day	-9.84226
▁concerns	-9.8423
level	-9.84282
▁외국인	-9.84333
▁thing	-9.84356
▁인터넷	-9.84367
신	-9.84387
▁worth	-9.84598
마다	-9.84627
▁전문가	-9.84684
길	-9.8472
▁불법	-9.84851
▁waste	-9.84972
이었다	-9.85049
▁논란이	-9.8505
▁beautiful	-9.85069
▁delivery	-9.85113
▁항상	-9.8518
▁사회적	-9.85182
▁failed	-9.85251
U	-9.85266
▁raise	-9.85304
>	-9.85427
▁caught	-9.85439
▁만나	-9.85462
▁peace	-9.85479
▁구청장이	-9.8548
▁강	-9.85497
▁Oh	-9.85511
▁생산	-9.85524
▁manage	-9.8553
▁평가	-9.85543
▁명이	-9.85603
▁Transport	-9.85751
▁ordered	-9.8591
▁sites	-9.85979
▁계획	-9.8608
▁Defense	-9.86126
▁message	-9.86195
▁wife	-9.86303
▁post	-9.86339
▁거의	-9.86369
▁여전히	-9.86389
▁And	-9.86407
씨는	-9.86418
▁브랜드	-9.86454
▁동시에	-9.86478
▁Industrial	-9.86566
▁2012	-9.86569
▁markets	-9.86593
▁피해	-9.86609
▁victims	-9.86744
실	-9.8681
▁위해서는	-9.86817
▁수가	-9.86831
▁launched	-9.86848
▁direction	-9.86959
▁interview	-9.8704
▁loan	-9.87044
▁population	-9.87108
▁installed	-9.87108
▁scheduled	-9.87114
▁atmosphere	-9.87144
▁Secretary	-9.8715
▁부동산	-9.87201
▁이유로	-9.87219
▁difficulties	-9.87245
▁나섰다	-9.8728
▁books	-9.87298
▁주민	-9.87361
▁resources	-9.87391
▁Cultural	-9.87452
▁미국의	-9.87464
▁통한	-9.87467
▁주변	-9.87558
▁T	-9.87617
▁educational	-9.87621
층	-9.8769
▁People	-9.877
▁enterprises	-9.87747
▁80	-9.8776
▁benefits	-9.87915
개의	-9.8793
old	-9.8793
▁behind	-9.87945
▁나의	-9.87952
▁베트남	-9.88093
▁중구	-9.88176
▁learn	-9.88183
▁question	-9.88219
If	-9.8823
▁Lotte	-9.88241
▁examination	-9.88258
▁whole	-9.88279
▁서비스를	-9.88289
▁행사	-9.88312
▁가능하다	-9.88329
▁Fund	-9.8843
▁R	-9.88435
▁의원이	-9.88459
▁실제로	-9.88661
▁대신	-9.88672
▁보다	-9.88683
▁위원	-9.88739
▁핵심	-9.88819
▁temperature	-9.88872
Pop	-9.8892
정	-9.89054
yeon	-9.8908
▁club	-9.89101
▁reality	-9.8916
▁below	-9.89192
▁대형	-9.89369
▁fourth	-9.89412
▁tried	-9.89431
▁독일	-9.89508
▁Asia	-9.89596
deemed	-9.89612
▁위원장은	-9.89685
▁Safety	-9.89791
▁온라인	-9.89934
▁entrance	-9.89935
▁Science	-9.89994
▁un	-9.90004
현지시간	-9.90038
▁commercial	-9.90053
▁규제	-9.90089
▁공연	-9.9013
▁돼	-9.90176
▁elderly	-9.90191
▁participating	-9.90245
▁incident	-9.90264
▁anniversary	-9.90271
▁비롯한	-9.90303
▁시즌	-9.9041
▁Won	-9.9046
▁falling	-9.9049
▁document	-9.90492
local	-9.9065
▁않다	-9.90692
온	-9.90695
▁instead	-9.90703
▁minister	-9.90734
▁게임	-9.90738
▁common	-9.90761
▁도시	-9.90762
▁grow	-9.90821
▁그래서	-9.9083
▁의원은	-9.90839
▁direct	-9.9084
▁board	-9.90896
▁수출	-9.90938
▁weather	-9.90956
▁skin	-9.91093
▁발생	-9.91159
▁headquarters	-9.91206
▁방문	-9.91271
▁Promotion	-9.91289
▁shopping	-9.91291
▁positive	-9.91305
▁itself	-9.91336
▁인한	-9.91345
▁accounting	-9.91351
r	-9.91422
▁마지막	-9.91508
▁strengthen	-9.91521
▁watch	-9.91523
였다	-9.91601
▁싶습니다	-9.91698
▁evidence	-9.91732
▁해서	-9.91771
▁사실	-9.91796
▁학생	-9.9183
▁annual	-9.91848
▁Vietnam	-9.91863
▁reduction	-9.91864
▁commissioned	-9.91898
▁raising	-9.91926
▁사	-9.91987
▁보는	-9.92052
▁protection	-9.92085
▁entered	-9.92085
▁died	-9.92087
▁작업	-9.92093
▁참석한	-9.92107
▁말을	-9.92134
▁Many	-9.92237
▁이것은	-9.92296
▁co	-9.9231
▁예산의	-9.92314
▁filed	-9.92332
▁requested	-9.92337
▁deal	-9.92472
▁earlier	-9.92493
위원회	-9.92501
▁entire	-9.92532
▁appeared	-9.92532
▁accidents	-9.92533
▁사람은	-9.92607
▁introduce	-9.92636
▁hands	-9.9266
▁participants	-9.92664
▁bring	-9.92733
▁occurred	-9.92779
▁기업이	-9.92789
▁지원할	-9.92805
▁유	-9.92812
▁focus	-9.92935
▁Ahn	-9.92949
▁사건	-9.92998
▁skills	-9.93022
▁color	-9.93037
▁hearing	-9.93046
▁highly	-9.93066
▁winter	-9.93099
▁duty	-9.93112
▁sure	-9.93174
▁Business	-9.93207
▁build	-9.9325
▁성과	-9.93282
▁군	-9.9333
▁의한	-9.93378
▁release	-9.93404
▁image	-9.93455
▁있는지	-9.93478
▁cut	-9.93497
▁공식	-9.93505
▁view	-9.93621
▁Son	-9.93658
▁필요하다	-9.93695
▁houses	-9.93723
▁삼성전자	-9.9382
▁Ha	-9.93821
▁rest	-9.93892
▁comes	-9.94045
▁결국	-9.94095
▁원하는	-9.94138
▁user	-9.94141
▁son	-9.9417
▁universities	-9.94193
▁sea	-9.94284
▁character	-9.9435
▁이들이	-9.94369
▁beginning	-9.94377
▁연	-9.94377
▁여기	-9.94489
▁Central	-9.94545
▁사회	-9.94548
▁player	-9.94641
▁Donald	-9.94642
▁AI	-9.947
▁network	-9.94771
▁Germany	-9.94785
▁그렇게	-9.94788
▁특별한	-9.94845
▁yesterday	-9.94906
▁rates	-9.94926
질	-9.94992
▁가수	-9.95009
▁가족	-9.95013
▁Industry	-9.95018
▁stressed	-9.95181
▁Economic	-9.95211
▁Kong	-9.9522
▁처리	-9.95255
▁넘는	-9.95359
▁involved	-9.95361
▁열리는	-9.95402
K	-9.95553
▁제도	-9.95561
▁기록	-9.95588
▁지적했다	-9.9561
▁버스	-9.95659
▁신규	-9.95678
▁plant	-9.95699
▁대	-9.95741
seok	-9.95767
▁ways	-9.95799
scale	-9.95849
산	-9.95871
▁눈	-9.9589
▁주는	-9.95949
▁집에	-9.95995
▁generation	-9.96045
▁도널드	-9.96116
▁자체	-9.96124
▁Blue	-9.96128
▁secure	-9.96155
▁anything	-9.96324
▁사진을	-9.9633
▁ground	-9.96361
▁만	-9.96362
▁degrees	-9.96487
▁owner	-9.96497
▁산업	-9.96566
▁이유는	-9.96597
▁across	-9.96615
▁unique	-9.96717
▁건물	-9.96773
급	-9.96868
▁없다는	-9.96879
▁맞아	-9.96962
▁해도	-9.96966
▁loans	-9.97044
▁eight	-9.97086
▁visitors	-9.97108
▁Infrastructure	-9.97161
▁agreed	-9.972
▁writing	-9.97214
▁타고	-9.97241
▁moment	-9.97281
▁hotel	-9.97342
▁intends	-9.97358
▁worked	-9.97362
▁어제	-9.97371
보	-9.97434
▁검찰	-9.97446
▁이번에	-9.97454
▁chance	-9.97583
▁quarter	-9.97586
▁reasons	-9.97619
▁자주	-9.97621
▁김정은	-9.97624
▁example	-9.97639
▁주로	-9.97656
▁Si	-9.97658
▁수밖에	-9.97663
▁범위에서	-9.97681
▁visiting	-9.97752
▁creating	-9.97781
▁직원	-9.97827
▁살	-9.97866
▁위원장이	-9.97894
▁variety	-9.9798
▁노력	-9.98059
▁내용이	-9.98082
▁에너지	-9.98088
▁빨리	-9.98088
▁미세먼지	-9.98153
▁wrong	-9.98154
▁holiday	-9.98219
▁영어	-9.98229
점	-9.98263
▁그것	-9.98265
▁tourism	-9.98272
번	-9.98292
▁지정	-9.98334
▁분석	-9.98352
▁violence	-9.98371
▁internal	-9.98498
▁찾아	-9.98543
▁단	-9.98551
▁크다	-9.98684
▁Koreans	-9.98694
▁Finance	-9.9878
▁expansion	-9.98856
▁usually	-9.98921
▁때는	-9.98932
▁프로그램	-9.99037
▁최	-9.99109
▁단체	-9.99124
▁학생들이	-9.99135
이라며	-9.99139
▁environmental	-9.99181
▁posted	-9.99188
il	-9.99195
▁sale	-9.99321
▁정보	-9.99324
▁theme	-9.99332
▁Foreign	-9.9942
▁taste	-9.99425
▁reading	-9.99459
▁heavy	-9.99502
▁basis	-9.9958
▁specific	-9.99593
▁개	-9.99636
hwan	-9.99681
▁같습니다	-9.99775
▁우려가	-9.99787
▁ability	-9.99823
▁solve	-9.99893
▁implemented	-10.0011
▁investigating	-10.0012
▁All	-10.0014
▁자유한국당	-10.0015
sung	-10.0024
▁stay	-10.0024
▁difference	-10.0025
▁authority	-10.0028
▁defense	-10.0031
는데	-10.0039
▁입장을	-10.005
▁read	-10.0053
▁중에	-10.0054
관	-10.0054
▁1,000	-10.0055
myeon	-10.0056
▁popularity	-10.0065
▁teachers	-10.0067
▁collection	-10.0074
▁delivered	-10.0074
▁turned	-10.0077
▁teacher	-10.0083
▁launch	-10.0083
▁properly	-10.0099
▁American	-10.0101
▁step	-10.0104
▁주장했다	-10.0104
년에	-10.0107
▁관련된	-10.0112
▁rain	-10.0116
▁tourists	-10.0119
▁공무원	-10.0124
▁proposed	-10.0133
▁Professor	-10.0136
▁Chief	-10.0137
▁여자	-10.0139
▁Year	-10.0148
▁act	-10.0148
▁disabled	-10.0152
▁green	-10.0155
▁발표	-10.0157
▁조례는	-10.0159
이며	-10.0169
▁돈을	-10.0173
금	-10.0174
▁coach	-10.0174
▁follow	-10.0181
▁하기	-10.0182
▁Suwon	-10.0185
▁branch	-10.0186
▁couldn	-10.0202
▁따로	-10.0205
▁limited	-10.0207
▁serious	-10.0211
▁한국에서	-10.0218
▁남자	-10.0218
▁변화	-10.0225
▁convenience	-10.0226
▁prevention	-10.0227
▁아	-10.0228
▁여행	-10.0233
▁없을	-10.0236
▁협력	-10.024
▁보내	-10.0241
o	-10.0254
▁경찰이	-10.0255
▁perform	-10.0258
▁Ki	-10.026
▁인근	-10.0265
▁profit	-10.0271
▁ensure	-10.0272
In	-10.0273
▁During	-10.0276
▁progress	-10.0285
▁의원	-10.0285
▁toward	-10.0287
별	-10.0289
▁Decree	-10.0293
▁우리의	-10.0293
▁부분	-10.0295
▁creation	-10.0299
▁이들	-10.0302
▁처음으로	-10.0305
▁확대	-10.0307
▁분야	-10.031
▁설명	-10.0311
▁General	-10.0313
▁compensation	-10.0315
▁한류	-10.032
▁hour	-10.0322
▁곳이	-10.0322
▁불구하고	-10.0329
▁elementary	-10.033
▁corporation	-10.0331
▁대화	-10.0334
▁effects	-10.0336
▁이하	-10.0337
▁gas	-10.0352
▁것과	-10.0357
▁한번	-10.0362
▁선	-10.0368
▁condition	-10.037
▁2009	-10.0371
▁speed	-10.0371
▁콘텐츠	-10.0373
▁점에서	-10.0387
▁daughter	-10.039
▁하나에	-10.0409
▁street	-10.041
▁export	-10.0425
▁website	-10.0427
▁customer	-10.0434
위를	-10.0438
▁mid	-10.0439
▁force	-10.0439
▁거래	-10.0443
▁reports	-10.0448
▁candidates	-10.0457
▁좋아하는	-10.0462
▁너는	-10.0468
▁criticized	-10.0469
▁Lim	-10.0472
▁Air	-10.0477
되면서	-10.0479
구청장	-10.0484
▁Life	-10.0489
▁광주	-10.0496
▁분	-10.0496
▁드라마	-10.0497
▁않도록	-10.0498
▁comprehensive	-10.0502
▁Eun	-10.0511
i	-10.0517
▁배	-10.0517
▁red	-10.0518
▁predicted	-10.052
▁예상된다	-10.052
▁conflict	-10.0525
▁arrested	-10.0533
▁Peninsula	-10.0533
mi	-10.0548
▁중소기업	-10.0549
▁giving	-10.0553
▁명의	-10.0556
▁York	-10.0557
▁pass	-10.056
▁나온	-10.056
간	-10.0564
▁아주	-10.0567
▁someone	-10.0571
▁safe	-10.0573
▁도움	-10.0573
▁arrest	-10.0573
▁nature	-10.0576
▁한반도	-10.0577
▁보호	-10.0577
g	-10.0582
▁않습니다	-10.0599
▁미리	-10.0611
▁아니다	-10.0612
hoon	-10.0613
했다고	-10.0617
▁banks	-10.0621
P	-10.0632
▁법률	-10.0632
▁Food	-10.0634
▁moved	-10.0636
▁responsibility	-10.0637
▁심사	-10.064
▁포함한	-10.0643
내	-10.0645
▁Sports	-10.0647
▁discuss	-10.0648
▁관계	-10.0653
▁손	-10.0654
▁section	-10.0661
▁주문	-10.0661
▁사실이	-10.0675
▁인천	-10.0676
▁providing	-10.0676
▁proposal	-10.0678
▁dance	-10.068
B	-10.0681
▁지적이	-10.0682
▁loss	-10.0683
▁audience	-10.0692
▁announcement	-10.0692
▁방안을	-10.0697
▁국민	-10.0697
▁signed	-10.07
▁King	-10.0702
▁East	-10.0705
석	-10.0706
▁expect	-10.0723
▁complete	-10.0724
▁35	-10.0726
▁reached	-10.0729
▁효과가	-10.0736
▁IT	-10.0738
▁physical	-10.0742
▁Why	-10.0744
소	-10.0744
▁sell	-10.0746
▁그것은	-10.075
▁한국에	-10.0755
10	-10.0757
▁상황이	-10.0759
▁returned	-10.0761
▁못하고	-10.0774
▁개선	-10.0777
▁allow	-10.0782
▁논의	-10.0784
▁기회를	-10.0792
▁그대로	-10.0796
▁수업	-10.0799
▁recognized	-10.0804
san	-10.0807
오	-10.0808
!	-10.0808
▁mentioned	-10.0809
▁says	-10.0813
▁있으면	-10.0818
▁address	-10.0821
▁Chairperson	-10.0822
▁gathered	-10.0828
▁especially	-10.083
friendly	-10.0831
▁overall	-10.0835
▁material	-10.0838
으로부터	-10.0843
▁중이다	-10.0846
▁되면	-10.0846
▁simple	-10.0848
▁의해	-10.0849
▁manufacturing	-10.0852
▁buildings	-10.0855
▁대상	-10.0857
▁Kwon	-10.0859
▁사는	-10.086
▁어	-10.0863
▁검토	-10.0865
▁대표가	-10.0866
들	-10.0867
▁공개	-10.0879
▁blood	-10.0879
▁상대로	-10.0883
▁당신	-10.0884
▁sound	-10.0896
▁actually	-10.0901
▁밖에	-10.0904
▁innovation	-10.0906
▁becoming	-10.091
ro	-10.0921
▁unit	-10.0928
무	-10.0929
▁search	-10.0932
▁Enforcement	-10.0936
▁owners	-10.0944
▁건강	-10.0944
▁Hee	-10.0944
▁recommended	-10.0945
▁train	-10.0946
▁만드는	-10.0953
▁P	-10.0958
▁지역의	-10.0958
’(	-10.0962
based	-10.0964
▁paper	-10.0968
▁carry	-10.0968
▁success	-10.0969
▁themselves	-10.097
▁classes	-10.0971
▁상황을	-10.0972
관리	-10.0972
▁지급	-10.0976
강	-10.0982
▁기관	-10.0985
▁선수	-10.0988
▁responsible	-10.0989
▁디자인	-10.0993
▁fair	-10.0999
▁preparing	-10.1007
▁그들은	-10.101
▁2010	-10.101
▁driver	-10.1019
▁consideration	-10.1022
▁shown	-10.1028
▁사람들	-10.1036
▁Women	-10.104
▁park	-10.1048
▁발표한	-10.1052
▁forest	-10.1053
▁나라	-10.1054
▁award	-10.1058
▁deputy	-10.1063
▁Na	-10.1064
▁자	-10.1064
▁practice	-10.1067
▁Daejeon	-10.1067
▁동	-10.1073
▁높다	-10.1074
▁voice	-10.1076
▁집중	-10.1076
▁except	-10.1076
▁Federation	-10.1082
▁relatively	-10.1088
▁anti	-10.1091
▁clothes	-10.1092
▁덧붙였다	-10.1097
▁음악	-10.1099
▁이야기를	-10.1103
▁싶은	-10.1103
▁answer	-10.111
▁airport	-10.1113
▁KT	-10.1116
▁idea	-10.1118
▁significant	-10.1122
▁내용	-10.1124
▁2011	-10.1125
▁예산	-10.1127
▁저녁	-10.1136
▁biggest	-10.1138
▁없었다	-10.1143
▁장애인	-10.1149
sik	-10.1154
▁consultation	-10.1155
▁fun	-10.1157
▁abroad	-10.1158
▁file	-10.1161
▁pain	-10.1162
▁records	-10.1164
less	-10.1172
▁These	-10.1173
치	-10.1175
▁제재	-10.1187
현	-10.1191
▁Complex	-10.1191
▁foundation	-10.1196
▁nearby	-10.121
▁suspected	-10.1211
▁점이	-10.1212
▁artists	-10.1212
▁prize	-10.1214
▁아시아	-10.1216
es	-10.1219
▁By	-10.1222
▁ever	-10.1225
▁자신	-10.1229
▁(2)	-10.1232
▁회장	-10.1235
▁wait	-10.1236
▁않는다	-10.1238
▁Union	-10.1242
▁household	-10.1243
▁registration	-10.1254
▁River	-10.1259
▁pm	-10.1259
▁감독이	-10.1261
▁구매	-10.1269
▁protect	-10.127
▁taxi	-10.1279
▁hair	-10.1279
▁pre	-10.1287
▁electric	-10.129
우	-10.129
▁registered	-10.1292
단	-10.1293
▁letter	-10.1297
▁investors	-10.1299
whose	-10.13
▁공사	-10.131
▁150	-10.1313
▁Se	-10.1316
▁sign	-10.1317
▁화재	-10.1318
▁himself	-10.1318
▁fast	-10.1321
▁career	-10.1322
▁location	-10.133
▁최저임금	-10.1332
씨	-10.1332
▁running	-10.1333
▁turn	-10.1335
▁separate	-10.1347
▁아래	-10.1347
▁인구	-10.1352
▁내부	-10.1352
▁스마트폰	-10.1354
▁싶어요	-10.1358
▁협상	-10.1358
▁criticism	-10.1361
yong	-10.1364
▁expectations	-10.1367
▁대표는	-10.1371
▁dream	-10.1379
▁되지	-10.138
▁모	-10.1386
▁있었던	-10.1392
▁target	-10.1392
▁밤	-10.1393
▁타	-10.1393
▁function	-10.1396
▁정부는	-10.1396
재	-10.14
▁광고	-10.1401
▁구성	-10.1405
랑	-10.141
There	-10.1411
▁여기에	-10.1411
▁allowed	-10.1419
▁수립	-10.142
▁strategy	-10.1424
▁업무를	-10.1425
tae	-10.1426
▁Joseon	-10.143
▁white	-10.143
▁반	-10.1431
▁검사	-10.1441
▁점	-10.1446
▁힘을	-10.1447
▁adding	-10.1447
▁보니	-10.1455
▁경험	-10.1457
▁더불어민주당	-10.1458
▁사실상	-10.1459
▁생활	-10.1464
▁everyone	-10.147
▁준비	-10.1476
▁Are	-10.1482
▁유럽	-10.1485
▁science	-10.1485
▁낮은	-10.1486
▁includes	-10.1491
▁intention	-10.1492
▁홍보	-10.1494
▁selling	-10.1496
▁나와	-10.1497
▁운영하는	-10.1503
▁successful	-10.1514
▁청소년	-10.1514
▁지금까지	-10.1517
▁조치를	-10.1521
▁싶어	-10.1528
▁bit	-10.1529
▁프랑스	-10.153
▁안전	-10.1532
▁closed	-10.1535
▁당신에게	-10.1538
▁sharing	-10.1541
▁(1),	-10.1541
▁남	-10.1542
an	-10.1545
▁사항은	-10.1549
▁것이에요	-10.155
▁era	-10.1563
▁보이는	-10.1563
▁analyzed	-10.1567
▁respectively	-10.157
▁90	-10.1571
▁ratio	-10.1575
▁entrusted	-10.1577
▁Deputy	-10.1584
▁놓고	-10.1587
▁위치한	-10.1589
▁선정	-10.1595
▁appointment	-10.1596
▁맞는	-10.1597
▁prescribe	-10.16
▁언제	-10.16
▁huge	-10.1601
▁expanding	-10.1604
▁From	-10.1606
▁nothing	-10.1607
▁운영에	-10.1618
▁V	-10.1619
이자	-10.1624
▁명	-10.1627
▁정확한	-10.163
▁위원은	-10.1641
▁jurisdiction	-10.1642
▁goes	-10.1642
▁entertainment	-10.1642
▁오히려	-10.1646
▁fully	-10.1648
▁planned	-10.165
▁Gyeongsang	-10.1654
영	-10.166
▁반도체	-10.1662
▁characteristics	-10.1664
▁zone	-10.167
▁elections	-10.167
▁영국	-10.1673
▁European	-10.1673
▁새로	-10.1679
▁Art	-10.1684
▁black	-10.1685
▁아무	-10.169
▁인사	-10.1694
▁broadcast	-10.1698
▁newly	-10.1699
▁강한	-10.1701
▁farmers	-10.1701
▁경찰에	-10.1703
월에	-10.1706
▁가격이	-10.1712
권	-10.1713
▁hosted	-10.1718
▁platform	-10.1725
l	-10.1732
▁influence	-10.1735
▁마을	-10.1737
마	-10.1741
▁waiting	-10.1744
▁특정	-10.1747
▁방송	-10.1758
▁reach	-10.1771
▁joined	-10.1773
▁머리	-10.1775
▁성	-10.1778
▁coffee	-10.1778
▁tour	-10.178
▁playing	-10.179
▁행정	-10.179
▁팀	-10.1797
연	-10.18
▁becomes	-10.1801
▁카드	-10.1804
▁notify	-10.1806
▁Airport	-10.1808
▁winning	-10.181
▁Woo	-10.181
▁사용할	-10.1813
▁이야기	-10.1828
▁대규모	-10.183
▁청년	-10.1831
▁recorded	-10.1832
▁Europe	-10.1835
▁요즘	-10.1839
man	-10.184
▁watching	-10.1843
▁결정	-10.1845
▁introduction	-10.1852
▁최선	-10.1853
▁문제는	-10.1858
러	-10.1866
▁임	-10.1867
▁supporting	-10.1867
▁reportedly	-10.187
▁검찰은	-10.1871
▁published	-10.1873
▁northern	-10.1875
▁moving	-10.1876
이고	-10.1883
▁older	-10.1884
▁했습니다	-10.1889
▁bought	-10.1895
▁break	-10.1895
▁lawmakers	-10.1897
▁사이	-10.1902
▁maintain	-10.1909
▁자기	-10.1913
▁2000	-10.1914
▁actor	-10.1918
▁presented	-10.1919
▁어려움	-10.193
문	-10.1931
▁circumstances	-10.1938
▁참여하는	-10.1941
니다	-10.1944
▁상품	-10.1954
▁designed	-10.1959
▁certificate	-10.1961
▁determine	-10.1962
종	-10.1967
▁발	-10.1971
▁regions	-10.1975
▁rising	-10.1977
▁killed	-10.198
박	-10.1981
▁나도	-10.1985
▁도입	-10.1986
▁사람을	-10.1988
▁불	-10.1989
▁인상	-10.1993
▁규모의	-10.1994
▁성공	-10.1998
▁songs	-10.2
▁이전	-10.2004
▁Currently	-10.2005
▁warrant	-10.2008
▁방침이다	-10.2012
▁방식으로	-10.2017
▁팬들	-10.202
모	-10.2022
▁공장	-10.203
▁separately	-10.2032
▁최초로	-10.2035
▁연속	-10.2036
▁출신	-10.2038
▁expanded	-10.2039
운	-10.204
▁provides	-10.2042
▁관광	-10.2043
▁Wave	-10.2045
▁등은	-10.2045
▁Market	-10.2046
▁대구	-10.2051
▁resident	-10.2055
▁selection	-10.2056
jung	-10.2058
▁broke	-10.2059
▁축제	-10.2059
▁성장	-10.206
▁exports	-10.207
▁rental	-10.207
▁전혀	-10.2071
▁resolution	-10.2076
▁improved	-10.2079
▁앞에서	-10.2079
▁대한민국	-10.208
▁heads	-10.2083
하	-10.2085
▁vacation	-10.2088
▁Byung	-10.2091
▁전화	-10.2091
▁wave	-10.2095
▁찾는	-10.2097
▁dollars	-10.2098
▁healthy	-10.2107
▁스	-10.2117
▁Hospital	-10.2124
▁하여야	-10.2126
▁clean	-10.2132
▁북한이	-10.2135
▁exercise	-10.2138
▁유지	-10.2142
▁limit	-10.2166
▁promoting	-10.2167
▁hear	-10.2167
▁claimed	-10.2168
▁피해를	-10.217
▁고용	-10.217
▁meaning	-10.2178
▁viewers	-10.2183
▁노	-10.2184
▁받지	-10.2184
▁건가요	-10.2185
▁trust	-10.2187
M	-10.2187
▁보였다	-10.219
▁협의	-10.2197
▁제주	-10.2203
▁eligible	-10.2204
▁thinking	-10.2204
▁competitiveness	-10.2207
▁everything	-10.2208
▁사전	-10.2212
▁Project	-10.2215
▁cancer	-10.2215
들과	-10.2216
▁investigate	-10.2222
▁구조	-10.2223
▁Social	-10.223
▁위원회의	-10.2231
▁부	-10.2235
▁above	-10.2235
▁counseling	-10.2237
▁Village	-10.2239
▁열심히	-10.2246
▁나서	-10.2251
▁기대	-10.2256
▁눈에	-10.2257
주년	-10.2261
▁looks	-10.2261
▁재	-10.2261
▁longer	-10.2262
▁formed	-10.2262
▁revision	-10.2262
▁기회가	-10.2271
▁advanced	-10.2272
▁모여	-10.2273
▁provisions	-10.2273
사업	-10.2275
하다	-10.2279
▁나에게	-10.2279
▁F	-10.228
▁호텔	-10.2282
▁improving	-10.2285
▁meetings	-10.2293
▁현	-10.2296
▁measure	-10.2299
▁suffering	-10.2301
▁여부를	-10.2304
▁supported	-10.2312
▁connection	-10.2313
▁access	-10.2315
▁join	-10.2318
ha	-10.2321
▁fields	-10.2323
▁almost	-10.2324
▁전통	-10.2327
▁겁니다	-10.2328
▁wish	-10.2333
년까지	-10.2335
▁Thank	-10.2335
▁대통령과	-10.2342
▁소재	-10.2342
▁Tourism	-10.2345
▁위반	-10.2348
▁assets	-10.2358
▁depending	-10.2359
▁multi	-10.2362
▁없다고	-10.2362
▁차례	-10.2363
▁focused	-10.2364
▁served	-10.2366
▁산	-10.2366
▁되었다	-10.2369
▁appearance	-10.2369
▁ball	-10.237
▁elected	-10.2376
▁열	-10.2376
트	-10.2377
▁collected	-10.2378
▁정하는	-10.238
mm	-10.2382
▁바탕으로	-10.2384
▁maintenance	-10.2384
▁Hye	-10.2385
▁마음을	-10.2385
▁나오는	-10.2392
▁range	-10.2393
▁agenda	-10.2398
▁brother	-10.2398
▁대출	-10.2401
▁적극적으로	-10.241
▁detailed	-10.2423
▁한국어	-10.2424
했으며	-10.2428
▁눈길	-10.2428
▁Yu	-10.2429
초	-10.2432
▁War	-10.2435
▁주제로	-10.244
▁employee	-10.2441
▁이와	-10.2443
▁marketing	-10.2444
▁반드시	-10.2455
▁gap	-10.2455
▁있을까요	-10.2455
▁delayed	-10.2456
▁technologies	-10.2458
▁조선	-10.2462
▁although	-10.2463
▁Environment	-10.2463
경	-10.2466
▁것처럼	-10.2467
▁Singapore	-10.2473
▁제작	-10.2473
▁continues	-10.2473
▁송	-10.2473
▁빠르게	-10.2474
▁지속적으로	-10.2474
▁이들은	-10.2475
▁beauty	-10.2482
▁후에	-10.2484
▁방	-10.2484
▁negative	-10.249
▁campaign	-10.249
▁M	-10.2493
▁singer	-10.2495
▁중국의	-10.2502
▁매일	-10.2504
▁위해서	-10.2508
▁types	-10.2513
▁Also	-10.2515
▁Church	-10.2518
▁시장이	-10.2521
▁못하는	-10.2521
▁factory	-10.2524
▁사용하는	-10.2524
▁쉽지	-10.2527
▁지역에	-10.2527
▁경험이	-10.2536
▁consumer	-10.2542
▁곧	-10.2544
▁pension	-10.2544
▁변경	-10.2546
▁담긴	-10.2547
▁2020	-10.2551
▁자료를	-10.2551
▁contribute	-10.2556
▁serve	-10.2557
▁completely	-10.256
▁했어요	-10.256
▁word	-10.2562
▁knowledge	-10.2566
▁League	-10.2571
su	-10.2576
▁external	-10.2579
됩니다	-10.2584
▁자리를	-10.2587
어요	-10.2587
로서	-10.2592
▁Sejong	-10.2592
▁stocks	-10.2595
▁앞에	-10.2596
▁측은	-10.2602
▁effective	-10.2602
▁forced	-10.2605
국	-10.2605
▁Regard	-10.2606
▁10%	-10.2607
▁도로	-10.2609
▁principle	-10.2614
▁금융	-10.2615
▁soccer	-10.2616
▁미래	-10.2617
▁victim	-10.2621
▁gender	-10.2622
▁Jeon	-10.2624
▁규정	-10.2627
▁changing	-10.2633
▁seats	-10.2634
▁프로그램을	-10.2642
▁상태	-10.2642
▁item	-10.2644
▁infrastructure	-10.2647
▁remarks	-10.2652
▁box	-10.2654
▁lawmaker	-10.2658
▁despite	-10.266
▁procedures	-10.2666
▁lecture	-10.2666
이지만	-10.2666
▁screen	-10.2671
▁County	-10.2671
▁언론	-10.2673
▁셈이	-10.2679
▁미국이	-10.268
▁mainly	-10.2683
▁민주당	-10.2693
▁Most	-10.2699
▁ship	-10.2701
▁allows	-10.2702
▁emphasized	-10.2711
▁meal	-10.2718
▁Movement	-10.2718
▁wind	-10.2724
▁gift	-10.2725
▁broadcasting	-10.2725
▁시험	-10.2731
▁사이에	-10.2731
▁주택	-10.2732
장은	-10.2738
▁민간	-10.2739
▁studying	-10.2744
▁우수	-10.2746
▁생각이	-10.2747
▁기본	-10.2747
유	-10.2748
약	-10.2751
▁자금	-10.2752
N	-10.2753
▁Fair	-10.276
▁superintendent	-10.276
▁article	-10.2761
▁연간	-10.2764
▁discussion	-10.2765
▁원인	-10.2767
▁specialized	-10.2768
▁가서	-10.277
▁그들	-10.2773
▁husband	-10.2777
▁caus	-10.2781
▁최고의	-10.2785
▁바란다	-10.2787
▁시절	-10.2787
▁developing	-10.2789
하자	-10.2802
▁Myung	-10.2805
▁methods	-10.2806
▁wide	-10.2807
▁자리	-10.281
▁meters	-10.281
▁screening	-10.2811
▁결제	-10.2815
▁units	-10.2823
▁통합	-10.2823
▁병원	-10.2829
▁무슨	-10.283
▁consecutive	-10.2835
▁의미	-10.2835
▁젊은	-10.2839
T	-10.2843
▁greatly	-10.2844
▁consumption	-10.2845
지역	-10.2856
∼	-10.2858
▁생각	-10.2861
▁disabilities	-10.2862
▁주장	-10.2864
살	-10.2867
▁보	-10.2872
▁요청	-10.2877
▁만약	-10.2879
▁independence	-10.2885
▁table	-10.2891
China	-10.2896
▁discount	-10.2897
▁그러나	-10.2898
▁Employment	-10.2904
▁contest	-10.2908
▁photos	-10.291
▁warm	-10.2912
▁달러	-10.2912
▁합의	-10.2912
▁ordinary	-10.2919
▁이상이	-10.2921
▁birth	-10.2941
▁fishing	-10.2954
▁신고	-10.2964
▁2008	-10.2964
▁기	-10.2965
▁제일	-10.2966
▁performed	-10.2971
▁제출하여야	-10.2972
▁select	-10.2984
▁promoted	-10.2989
▁surgery	-10.299
자가	-10.2992
▁leaving	-10.2993
▁공급	-10.2996
▁Representative	-10.2998
▁50%	-10.3003
▁Pyongyang	-10.3006
▁weeks	-10.3008
▁하	-10.301
▁지도	-10.3011
▁경쟁력	-10.3012
▁시행	-10.3016
▁Soo	-10.3017
▁scope	-10.3021
▁20%	-10.3023
▁외	-10.3023
ju	-10.303
▁rapidly	-10.3032
▁어린이	-10.3032
sun	-10.3039
▁suffered	-10.304
▁standing	-10.3042
▁entering	-10.3042
▁설립	-10.3046
▁장소	-10.3046
▁감독	-10.3051
▁나를	-10.3056
대로	-10.307
▁drink	-10.3071
▁창업	-10.3071
▁library	-10.3073
▁있지	-10.3075
▁notice	-10.3075
▁등록	-10.3078
▁divided	-10.3085
되었다	-10.3088
▁당신을	-10.3089
▁마	-10.3089
▁위원회	-10.3089
▁attract	-10.3095
▁수입	-10.3098
▁사용자	-10.3103
보다는	-10.3103
▁throughout	-10.3105
▁girl	-10.3105
hye	-10.3111
▁reflect	-10.3112
▁않으면	-10.3112
▁smart	-10.3116
드	-10.312
▁비용	-10.3123
▁representatives	-10.3124
▁단지	-10.3125
▁flight	-10.3127
▁있다면	-10.3127
▁sleep	-10.3128
▁choice	-10.3137
▁Roh	-10.314
▁dramas	-10.3142
▁claim	-10.3142
▁시민	-10.3143
▁북한의	-10.3143
out	-10.3143
▁finished	-10.3147
▁spring	-10.3149
▁하다	-10.3156
▁prison	-10.3156
▁정치	-10.3161
▁profits	-10.3163
▁안에서	-10.3164
하는데	-10.3174
▁judge	-10.3175
▁focusing	-10.3177
ji	-10.3177
▁score	-10.3177
▁brought	-10.318
▁체험	-10.3188
▁consist	-10.3198
▁worried	-10.3199
▁Rules	-10.3199
▁remaining	-10.3199
▁촬영	-10.3201
▁nine	-10.3201
▁seem	-10.3204
▁오늘은	-10.3205
▁때까지	-10.3209
분기	-10.321
▁속에서	-10.3211
▁없어요	-10.3213
▁그냥	-10.3216
▁grade	-10.3216
▁taxes	-10.322
▁빠른	-10.322
▁왔다	-10.3228
▁물	-10.3233
▁감사	-10.3238
▁activity	-10.3238
▁채용	-10.324
▁cash	-10.3246
▁Ulsan	-10.3247
▁arts	-10.3248
▁Mi	-10.3256
▁Mountain	-10.3258
▁stable	-10.3261
▁eating	-10.3261
▁speech	-10.3261
▁exam	-10.3262
▁significantly	-10.3262
▁비가	-10.3265
명으로	-10.3272
▁choose	-10.3281
▁door	-10.3282
▁지원하는	-10.3291
▁기준으로	-10.3293
▁등에서	-10.3294
▁accounts	-10.33
▁인간	-10.3302
▁movies	-10.3307
▁사람들은	-10.3313
▁반대	-10.3315
▁installation	-10.3317
파	-10.3318
▁적용	-10.3319
▁기업의	-10.3321
▁restaurants	-10.3322
30	-10.3325
▁petition	-10.3325
▁paying	-10.3326
▁강원도	-10.3328
▁concern	-10.3328
였던	-10.3332
▁아침	-10.3334
▁eye	-10.3336
▁본다	-10.3339
뿐만	-10.3346
▁교육을	-10.3348
▁사고가	-10.3348
▁busy	-10.3348
▁장관	-10.3351
▁produce	-10.3354
계	-10.3359
▁cooperate	-10.3359
▁preparation	-10.336
▁오래	-10.3376
▁수도권	-10.3379
▁Games	-10.3382
▁Of	-10.3382
▁Last	-10.3384
▁opportunities	-10.3385
지원	-10.3385
▁push	-10.3386
▁블록체인	-10.339
한다는	-10.3392
▁이내에	-10.3394
▁estimated	-10.3396
▁Small	-10.3396
▁advantage	-10.3399
▁receipt	-10.3399
▁settlement	-10.3407
▁county	-10.3411
▁Division	-10.3413
했을	-10.3413
▁피부	-10.3418
▁permission	-10.3421
▁severe	-10.3426
교육	-10.3426
센터	-10.3433
▁강화	-10.3437
▁subsidies	-10.3441
▁없고	-10.3445
▁차이가	-10.3447
▁조정	-10.3448
▁Seong	-10.345
▁walk	-10.3451
▁경쟁	-10.3452
▁심의	-10.3454
▁제공하는	-10.3454
▁추가로	-10.3458
▁하여	-10.346
▁Our	-10.346
▁식사	-10.3464
▁Hotel	-10.3464
▁modern	-10.3468
▁보여	-10.3471
▁이름을	-10.3472
▁제공	-10.3472
▁절차	-10.3474
▁rose	-10.3478
▁preliminary	-10.3489
▁특별	-10.3494
▁400	-10.3495
▁남성	-10.3507
▁대해서	-10.3509
▁CCTV	-10.3514
▁meaningful	-10.3519
▁윤	-10.3519
▁전해졌다	-10.3521
▁영	-10.3527
▁뿐	-10.353
ra	-10.3532
▁은행	-10.3532
▁참여한	-10.3534
▁관계자	-10.3537
▁담당	-10.3542
▁arrived	-10.3549
▁선거	-10.3551
▁예방	-10.3554
▁Facebook	-10.356
▁즐길	-10.3561
분의	-10.3562
▁monthly	-10.3578
▁교수는	-10.3579
▁Services	-10.3579
▁해결	-10.3583
▁회장이	-10.3589
▁pictures	-10.359
▁understanding	-10.3597
▁criminal	-10.3602
▁밝힌	-10.3604
▁연기	-10.3605
▁weekend	-10.3607
▁의사	-10.361
▁More	-10.3619
▁둘	-10.362
▁Policy	-10.362
▁최대한	-10.3626
▁Motor	-10.3626
▁32	-10.3629
▁Don	-10.3633
▁attending	-10.3634
▁recruitment	-10.364
▁shared	-10.3643
▁dinner	-10.3644
▁맞춰	-10.3645
▁achieve	-10.3649
▁autonomous	-10.3654
▁전시	-10.3655
▁source	-10.3657
▁시장에서	-10.3659
▁스포츠	-10.3662
▁위에	-10.3673
▁훨씬	-10.3676
▁조성	-10.3676
▁결과가	-10.3679
▁충분히	-10.3688
▁Table	-10.3691
▁Sea	-10.3695
▁appropriate	-10.3701
▁fan	-10.3706
▁managed	-10.3706
▁데이터	-10.3707
▁낸	-10.3707
▁venue	-10.3724
▁먹고	-10.3727
곳	-10.373
▁express	-10.3734
▁consider	-10.3736
site	-10.3736
▁twice	-10.3741
▁못했다	-10.3742
▁ticket	-10.3743
었다	-10.3743
▁자료	-10.3745
▁acting	-10.3746
▁factors	-10.3746
▁weight	-10.3747
▁thereof	-10.3747
▁다소	-10.3749
▁유명	-10.3758
▁끝난	-10.3764
▁Peace	-10.3765
▁drop	-10.3766
▁과정을	-10.3768
▁했지만	-10.3772
▁시작한	-10.3777
▁리	-10.3778
▁전망	-10.3779
▁America	-10.3779
▁보이고	-10.3783
▁deep	-10.3784
▁혐의를	-10.3785
▁accept	-10.3789
▁미국과	-10.379
▁respond	-10.379
▁시작	-10.3792
▁우려	-10.3795
▁vote	-10.3799
▁금리	-10.38
▁nationwide	-10.3801
▁electronic	-10.3803
▁의하여	-10.3804
▁건설	-10.381
▁appear	-10.3814
▁wants	-10.3818
▁열고	-10.382
▁분석이	-10.3821
p	-10.3823
▁의미가	-10.3832
▁행사를	-10.3837
▁apartments	-10.3839
▁Line	-10.384
▁취업	-10.3842
▁devices	-10.3845
▁인도	-10.3848
▁소	-10.3849
▁아름다운	-10.3849
김	-10.3852
▁교류	-10.3852
년이	-10.3853
했는데	-10.3854
▁forces	-10.3855
▁academic	-10.3856
▁remains	-10.386
네	-10.3863
▁write	-10.3863
▁보수	-10.3871
▁subway	-10.388
▁Information	-10.3886
▁efficient	-10.3888
▁취소	-10.3893
jae	-10.3894
▁65	-10.3894
▁exchanges	-10.3894
지는	-10.3896
▁follows	-10.3899
▁속에	-10.3899
▁홍콩	-10.3905
▁contains	-10.3905
▁directors	-10.3916
▁impossible	-10.3916
▁Agricultural	-10.3917
cm	-10.3918
sa	-10.3922
▁ended	-10.3928
▁revenue	-10.393
▁경남	-10.3931
▁fish	-10.3932
▁전문가들	-10.3934
▁abuse	-10.3943
▁films	-10.3943
▁reporters	-10.3951
▁지금은	-10.3951
▁발전	-10.3954
▁recommend	-10.3959
민	-10.3965
▁majority	-10.3976
▁잘못	-10.3981
▁피해자	-10.3987
안	-10.3994
▁고객	-10.3996
▁그녀	-10.3998
head	-10.3999
방	-10.4007
▁매	-10.4007
▁decide	-10.4015
하기도	-10.4018
▁Human	-10.4019
▁style	-10.4021
▁stories	-10.4021
▁진출	-10.4024
▁작성	-10.4024
▁gold	-10.4025
▁decline	-10.4031
되면	-10.4033
▁computer	-10.4034
▁기술을	-10.4037
▁앞	-10.4039
▁계획을	-10.4045
gi	-10.4046
▁주민들	-10.4055
준	-10.4055
▁내에	-10.4057
▁leadership	-10.4058
▁시스템	-10.4059
▁Recently	-10.4059
▁wrote	-10.4063
▁album	-10.4066
▁mountain	-10.4072
▁Now	-10.4074
▁executives	-10.4078
▁suggested	-10.408
▁avoid	-10.408
▁이용해	-10.4083
▁decrease	-10.4083
▁limits	-10.4085
▁질	-10.4085
▁때마다	-10.4099
▁believed	-10.4101
▁들고	-10.4103
▁생각합니다	-10.4106
▁blockchain	-10.4109
▁평가를	-10.411
▁45	-10.4117
▁많아	-10.4121
▁정상회담	-10.4121
▁male	-10.4125
▁방문해	-10.4126
cheon	-10.4128
▁검찰이	-10.413
▁background	-10.4131
▁30%	-10.4135
▁허가	-10.4136
▁참석했다	-10.4138
▁Museum	-10.4143
▁difficulty	-10.4143
▁Go	-10.4144
▁assault	-10.4145
▁꾸준히	-10.4146
뿐	-10.4148
▁장관이	-10.4155
▁상	-10.4157
기도	-10.4159
▁디지털	-10.4165
▁영상	-10.4165
▁술	-10.4165
▁택시	-10.4167
▁화제	-10.4171
▁filled	-10.4171
하겠습니다	-10.4173
▁소비	-10.4173
▁refund	-10.4177
▁가까운	-10.4181
청	-10.4181
▁increases	-10.4182
▁업계	-10.4182
▁spend	-10.4185
▁제출	-10.4186
▁넘	-10.4188
심	-10.4193
▁Fire	-10.4195
▁33	-10.4201
▁collect	-10.4204
▁expects	-10.4209
▁거리	-10.4212
▁assessment	-10.4213
▁strength	-10.4213
▁시작했다	-10.4214
▁unable	-10.4215
▁Baek	-10.4219
▁weak	-10.4223
▁digital	-10.4224
▁delay	-10.4226
▁concerned	-10.4229
▁judges	-10.4231
▁변호사	-10.4239
▁별	-10.424
▁모바일	-10.4241
▁많았다	-10.4242
물	-10.4242
▁anyone	-10.4246
▁인기가	-10.4247
▁있었습니다	-10.4254
▁나머지	-10.4257
▁기대된다	-10.4258
▁volume	-10.4261
▁tourist	-10.4261
▁정책을	-10.4262
▁마음이	-10.4264
▁sentenced	-10.4268
North	-10.4274
▁shot	-10.4276
▁mayor	-10.4276
▁Could	-10.4278
▁shop	-10.4282
▁Construction	-10.4283
▁myself	-10.4284
▁이용할	-10.4288
ki	-10.4288
▁긴급	-10.4288
▁얘기	-10.4293
▁Ho	-10.4297
▁소비자	-10.4304
두	-10.4306
▁혼자	-10.4308
▁선발	-10.4317
▁말이	-10.4321
기를	-10.4325
▁Hae	-10.4327
▁beyond	-10.433
▁치료	-10.4331
▁사업에	-10.4333
▁행사가	-10.4333
▁삼성	-10.4334
▁황	-10.4336
▁missing	-10.4346
▁calls	-10.435
▁나선	-10.435
▁potential	-10.4356
시부터	-10.4357
▁장비	-10.4357
▁훈련	-10.436
▁전날	-10.4361
▁만들	-10.4361
▁상황이다	-10.4363
▁allegations	-10.4366
▁비슷한	-10.4367
▁damaged	-10.4369
▁plants	-10.4373
▁endeavor	-10.4373
▁roads	-10.4375
▁경영	-10.4376
▁happened	-10.4383
▁교수	-10.4386
▁mean	-10.4388
▁Republic	-10.4391
▁occur	-10.4391
ers	-10.4391
▁prior	-10.4395
▁KBS	-10.4397
타	-10.4399
▁월	-10.44
▁규정함을	-10.4404
▁이동	-10.4405
▁점검	-10.4406
▁diseases	-10.4408
▁wearing	-10.4409
▁born	-10.4412
▁Former	-10.4412
▁얼마	-10.4412
▁효과를	-10.4414
▁상승	-10.4414
day	-10.4414
▁feeling	-10.4424
▁drug	-10.4425
▁punishment	-10.4429
▁calling	-10.4429
▁accused	-10.443
▁solution	-10.4434
▁expensive	-10.4434
▁목표	-10.4435
ic	-10.4438
들에게	-10.4438
역	-10.4444
▁이달	-10.4445
▁사업이	-10.4451
▁Taiwan	-10.4452
▁revised	-10.4453
▁figure	-10.4453
▁길이	-10.4467
▁email	-10.4468
▁cover	-10.4471
▁double	-10.4472
라며	-10.4473
▁retirement	-10.4474
▁운동	-10.4475
▁smartphone	-10.4477
▁책을	-10.4478
별로	-10.4486
▁Insurance	-10.4487
▁날씨	-10.449
▁require	-10.4492
하고자	-10.4498
▁asking	-10.45
▁His	-10.4501
▁reservation	-10.4504
▁explain	-10.4504
▁이해	-10.4507
▁겸	-10.4508
▁유명한	-10.4513
▁named	-10.4513
억원을	-10.452
▁association	-10.4521
▁했던	-10.4522
▁플랫폼	-10.4522
▁교회	-10.4524
▁때문입니다	-10.4527
▁decreased	-10.4528
▁medicine	-10.454
▁processing	-10.4541
▁Iran	-10.4544
▁나오고	-10.4552
▁farming	-10.4553
이번	-10.4554
▁Seok	-10.4555
▁장은	-10.4556
eun	-10.4557
▁quite	-10.4563
it	-10.4564
▁북미	-10.4565
▁About	-10.4568
▁proceed	-10.457
▁Youth	-10.4571
▁BTS	-10.4572
▁사건이	-10.4578
▁활용	-10.458
▁여	-10.4582
▁증가	-10.4586
▁복지	-10.4586
▁volunteer	-10.4593
▁shares	-10.4594
▁victory	-10.4596
▁확인할	-10.46
▁fashion	-10.46
▁들	-10.4601
▁worker	-10.4601
하려는	-10.4606
▁Goyang	-10.4606
▁국방부	-10.461
▁홍	-10.461
▁진행된	-10.4614
▁있습니까	-10.4614
▁O	-10.4614
▁물건	-10.4617
▁부분이	-10.4618
▁lawsuit	-10.4618
▁기대하고	-10.4618
▁title	-10.4621
▁finally	-10.4622
▁열린다	-10.4625
▁인식	-10.4626
▁준	-10.4628
▁temporary	-10.463
▁직무	-10.4637
▁성적	-10.464
▁참석해	-10.4645
든	-10.4646
▁경북	-10.4647
년대	-10.4653
▁conducting	-10.4656
na	-10.4658
▁수요가	-10.4658
▁task	-10.4669
▁Port	-10.4671
▁가고	-10.4671
▁affected	-10.4675
▁Su	-10.4675
시설	-10.4681
▁사건을	-10.4682
▁wear	-10.4689
반	-10.4691
▁즉시	-10.4691
▁intelligence	-10.4695
▁구청장에게	-10.4697
월까지	-10.4698
시에	-10.4698
▁좋아	-10.4702
▁residential	-10.4706
▁근무	-10.4708
▁대만	-10.4714
▁rooms	-10.4715
노	-10.472
▁계기	-10.4724
As	-10.4724
▁Joon	-10.4734
▁seat	-10.4736
▁인도네시아	-10.4738
▁의혹을	-10.4747
▁guarantee	-10.475
▁전부	-10.4754
▁independent	-10.4754
▁결혼	-10.4761
▁counties	-10.4762
▁주고	-10.4763
▁지역에서	-10.4767
▁무엇보다	-10.4772
▁spent	-10.4775
▁자체가	-10.4777
▁attracting	-10.4777
▁커피	-10.4778
▁축구	-10.478
▁capacity	-10.4788
▁Economy	-10.4789
씨의	-10.4791
▁trees	-10.4794
▁crimes	-10.4794
▁semiconductor	-10.4794
▁관세	-10.4795
▁couple	-10.4797
▁사장	-10.4797
승	-10.4804
된다	-10.4809
▁Russian	-10.4811
▁device	-10.4821
▁갑자기	-10.4825
▁foreigners	-10.4837
일에	-10.4843
▁등과	-10.4846
11	-10.4846
▁권	-10.4848
▁complaints	-10.485
▁시행령	-10.4859
chan	-10.4859
▁sex	-10.486
▁fixed	-10.4863
▁혁신	-10.4863
▁Organization	-10.4866
▁작품	-10.4867
▁여름	-10.4867
▁이들의	-10.4871
▁상대	-10.4877
▁이용자	-10.4881
▁violation	-10.4882
만명	-10.4885
▁위	-10.4886
▁모두가	-10.4893
▁상대적으로	-10.4898
able	-10.4908
▁dog	-10.4909
▁Ko	-10.4911
으며	-10.4912
▁discussions	-10.4913
▁soldiers	-10.4914
▁하겠습니다	-10.4916
▁아니냐	-10.4921
▁여기서	-10.4929
income	-10.4934
▁H	-10.4934
▁엄마	-10.4934
▁Therefore	-10.4934
▁Through	-10.4936
▁씨가	-10.4936
▁kept	-10.4939
기업	-10.4944
▁34	-10.4944
▁theater	-10.4945
▁삶의	-10.4946
▁ranked	-10.4948
▁discussed	-10.4951
▁개최	-10.4953
▁현장에서	-10.4955
▁처음이다	-10.4955
▁offer	-10.4956
▁Due	-10.4958
▁nice	-10.4959
▁넘어	-10.4961
▁자녀	-10.4963
▁길을	-10.4965
▁부위원장	-10.4966
▁내에서	-10.4967
▁일단	-10.4969
▁심	-10.4971
▁normal	-10.4976
▁한국당	-10.4979
▁학습	-10.4979
▁일부를	-10.4982
▁dead	-10.4985
▁보통	-10.4988
▁손을	-10.4993
▁Prosecutors	-10.4994
▁patient	-10.4995
▁effort	-10.4995
▁attack	-10.4996
▁stopped	-10.4998
▁그들이	-10.4999
or	-10.4999
다는	-10.5
▁resolve	-10.5
▁가구	-10.5001
▁지방	-10.5002
▁admission	-10.501
▁나올	-10.5011
▁confirm	-10.5015
▁제한	-10.5016
▁officers	-10.5017
▁Energy	-10.5018
▁Securities	-10.5021
▁법인	-10.5021
▁부담	-10.5022
▁actors	-10.5024
▁researcher	-10.5027
▁시장에	-10.5029
▁speak	-10.503
▁좋다	-10.503
▁lived	-10.5033
▁baseball	-10.5035
▁learned	-10.5039
▁관하여	-10.5039
▁France	-10.5041
▁따른다	-10.5041
▁외부	-10.5043
▁만들기	-10.5043
▁백	-10.5049
▁eco	-10.5051
▁Headquarters	-10.5055
20	-10.5058
▁exact	-10.5071
나요	-10.5073
으로서	-10.5073
문화	-10.5074
▁drinking	-10.508
▁추천	-10.508
▁firm	-10.5085
▁mental	-10.5091
▁공개된	-10.5094
불	-10.5098
▁듣고	-10.5101
▁begin	-10.5104
▁completion	-10.5109
▁Yi	-10.511
▁전기	-10.5115
▁생각한다	-10.5117
▁남아	-10.5118
▁livestock	-10.5118
▁적은	-10.5119
▁커지고	-10.5119
▁ex	-10.5122
▁features	-10.5123
▁characters	-10.5124
남	-10.5125
▁의견이	-10.5125
인지	-10.5128
▁reducing	-10.5129
▁functions	-10.513
▁가야	-10.5133
▁talking	-10.5134
▁index	-10.5134
▁집에서	-10.5136
레	-10.5138
▁runs	-10.5142
▁부탁드립니다	-10.5142
▁briefing	-10.5145
free	-10.5147
등	-10.5149
▁Under	-10.5149
▁속도	-10.515
hwa	-10.5158
▁prosecutor	-10.5159
함으로써	-10.5161
▁이란	-10.5163
▁무	-10.5166
▁core	-10.5167
▁reflected	-10.5168
산업	-10.5168
▁favorite	-10.517
▁urgent	-10.517
▁declaration	-10.5171
type	-10.5171
피	-10.5179
▁남은	-10.518
▁걸쳐	-10.5181
학	-10.5182
▁보기	-10.5185
▁수수료	-10.5186
▁아버지	-10.5192
▁적	-10.5194
▁checked	-10.5194
▁배송	-10.5195
이었던	-10.5197
▁enhance	-10.5198
토	-10.5199
▁하면서	-10.5205
▁baby	-10.5208
kg	-10.5208
▁kinds	-10.5216
▁MBC	-10.5217
라도	-10.5218
▁deliver	-10.523
▁수사를	-10.5236
▁pushed	-10.5248
대가	-10.5248
▁자연	-10.525
▁Geun	-10.5253
임을	-10.5253
▁alleged	-10.5254
다고	-10.5255
▁말고	-10.5258
▁참여해	-10.526
호에	-10.5266
▁deposit	-10.5267
▁육성	-10.5268
▁먹는	-10.5274
▁camera	-10.5275
▁handle	-10.5275
▁suspicion	-10.5278
▁parliamentary	-10.5278
▁유통	-10.5282
▁listen	-10.5287
▁excessive	-10.5288
▁mark	-10.5288
▁피해가	-10.5291
단체	-10.5292
▁설	-10.5296
▁대로	-10.5298
▁scored	-10.53
▁alternative	-10.5306
지도	-10.5307
▁concept	-10.5309
▁발생하는	-10.5315
▁기록했다	-10.532
경기	-10.5321
▁책	-10.5321
▁systems	-10.5326
▁아동	-10.5326
▁순간	-10.5329
▁accepted	-10.5333
▁반면	-10.5338
▁license	-10.5338
▁bag	-10.5339
▁looked	-10.534
▁대법원	-10.5341
▁발생했다	-10.5347
▁younger	-10.5349
▁구체적인	-10.5349
▁sending	-10.535
▁아이들	-10.5351
▁establishing	-10.5352
▁stand	-10.5354
▁Today	-10.5354
▁살고	-10.5356
▁Middle	-10.536
▁integrated	-10.5361
▁중국이	-10.5364
▁Investment	-10.5365
▁secured	-10.5368
▁정상	-10.5369
▁judicial	-10.5372
▁suddenly	-10.5374
▁2007	-10.5377
▁extra	-10.5379
▁않아요	-10.5381
▁프로젝트	-10.5388
조원	-10.5389
▁animal	-10.5393
▁공연을	-10.5393
▁square	-10.5397
▁offices	-10.5403
▁저에게	-10.5406
▁camp	-10.5406
▁interpreted	-10.5407
▁currency	-10.5408
▁상황	-10.5409
▁German	-10.5412
▁Medical	-10.5412
▁종합	-10.5415
▁예술	-10.5415
▁상담	-10.5416
▁minute	-10.5419
▁kindergartens	-10.5424
▁예약	-10.5425
▁suspended	-10.5432
▁remember	-10.5437
▁applying	-10.5437
▁injured	-10.544
▁새롭게	-10.5441
▁연장	-10.5442
and	-10.5443
▁display	-10.5447
▁부족한	-10.5448
▁seemed	-10.5448
양	-10.5451
▁출시	-10.5453
바	-10.5455
▁interests	-10.5455
▁ten	-10.5457
▁Rights	-10.546
▁한국과	-10.5461
▁animals	-10.5465
▁painting	-10.5472
▁excluded	-10.5475
▁comments	-10.5477
▁시작된	-10.5479
▁뜻을	-10.5479
▁진행된다	-10.548
▁politics	-10.5481
▁완전히	-10.5485
▁원내대표	-10.5493
▁갖춘	-10.5494
▁Team	-10.5497
백	-10.5498
▁lots	-10.5503
와의	-10.5503
▁manner	-10.5503
▁공유	-10.5506
▁ICT	-10.5507
▁별표	-10.5511
▁experienced	-10.5513
▁동의	-10.5513
▁judgment	-10.5514
▁사무	-10.5516
▁드러났다	-10.5517
▁subparagraph	-10.5518
▁Unlike	-10.5521
▁star	-10.5521
▁부과	-10.5521
▁Heung	-10.5524
▁알게	-10.5527
▁suspect	-10.5535
▁듯	-10.5537
▁walking	-10.554
▁proper	-10.5542
▁처벌	-10.5543
▁cell	-10.5552
▁사상	-10.5552
▁임금	-10.5556
▁technical	-10.5557
▁electricity	-10.5562
▁rules	-10.5565
▁하나요	-10.5566
▁presentation	-10.5567
▁vulnerable	-10.5568
▁수많은	-10.557
▁아니	-10.5571
▁jointly	-10.5575
▁가능성	-10.5578
▁reporter	-10.5578
▁experiences	-10.5583
▁정한	-10.5585
▁담은	-10.5585
▁debt	-10.5587
포	-10.5593
▁대표적인	-10.5594
▁입고	-10.5597
▁spirit	-10.5599
▁historical	-10.5605
디	-10.5606
▁trading	-10.5606
ization	-10.5606
하지만	-10.561
▁orders	-10.5618
▁비용을	-10.5619
ness	-10.5622
▁operator	-10.5623
▁물품	-10.5623
▁기대한다	-10.5624
▁삶을	-10.5626
▁있어야	-10.5634
▁artificial	-10.5635
▁싱가포르	-10.564
▁기능을	-10.5643
▁구성된	-10.5648
▁outstanding	-10.5651
▁practical	-10.5654
▁surrounding	-10.5656
▁India	-10.5656
▁확인됐다	-10.5656
wook	-10.566
▁designation	-10.5662
▁관련한	-10.5667
▁주장이	-10.5667
▁clearly	-10.5672
▁debate	-10.5673
▁서울시	-10.5673
▁guidance	-10.5674
▁EU	-10.5676
▁wall	-10.5679
▁센터	-10.5686
▁100%	-10.5689
▁소통	-10.5692
▁생각을	-10.5696
▁점점	-10.57
▁주가	-10.57
ja	-10.5704
▁38	-10.5705
▁했는데	-10.5706
▁좋지	-10.5708
▁Nowon	-10.571
▁구축	-10.5718
▁접수	-10.5722
한국	-10.5723
▁받아야	-10.5726
▁lawyer	-10.5726
jeong	-10.5728
▁갈등	-10.5728
서울특별시	-10.5728
▁gradually	-10.5729
▁우수한	-10.573
▁foods	-10.5735
▁entry	-10.5736
분쯤	-10.5739
공	-10.574
▁overcome	-10.5749
▁sides	-10.5753
▁여야	-10.5755
▁책임을	-10.5757
코	-10.5761
▁이유가	-10.5763
▁Indonesia	-10.5764
▁36	-10.5764
▁truth	-10.5764
▁지급할	-10.5768
▁Joo	-10.5769
루	-10.5789
▁총리	-10.5792
▁symptoms	-10.5795
▁누구나	-10.5796
▁else	-10.5798
▁되나요	-10.5801
▁requires	-10.5804
▁교체	-10.5808
▁힘든	-10.5808
▁trustee	-10.5814
▁스마트	-10.5815
▁오랜	-10.5817
▁아이	-10.5818
▁town	-10.5822
▁Hak	-10.5831
▁알려진	-10.5831
▁교통	-10.5838
▁rent	-10.5844
▁전남	-10.5845
▁추진하는	-10.5845
▁Your	-10.5845
▁만한	-10.5846
▁text	-10.5848
▁일찍	-10.5848
▁White	-10.5851
▁영업	-10.5858
▁balance	-10.5859
▁기반	-10.5862
▁기타	-10.5862
chul	-10.5864
▁southern	-10.5868
했다는	-10.5869
▁commission	-10.5878
▁stated	-10.588
▁strengthening	-10.5881
▁늘	-10.5884
▁innovative	-10.5885
▁주민들이	-10.5887
▁무역	-10.5887
▁의지	-10.5894
▁참여할	-10.5897
▁호주	-10.59
더	-10.59
▁답변	-10.5901
▁invest	-10.5903
▁realize	-10.5912
▁제품이	-10.5915
▁역사	-10.5917
▁한국인	-10.5925
▁위탁	-10.5926
▁수요	-10.5928
▁falls	-10.5931
▁continuously	-10.5935
▁sister	-10.5938
▁600	-10.594
▁특징이다	-10.5942
▁civic	-10.5944
▁양국	-10.5945
▁노조	-10.5952
▁marriage	-10.5957
▁draw	-10.5959
▁논란	-10.5963
▁컴퓨터	-10.5969
▁strongly	-10.597
▁참	-10.5973
▁경기도와	-10.5974
만원을	-10.5978
▁필요하다는	-10.598
▁Sohn	-10.5985
▁점이다	-10.5986
▁당장	-10.5992
▁gather	-10.5994
▁regardless	-10.5995
▁track	-10.5996
▁가능성을	-10.5997
▁초기	-10.5998
▁correct	-10.6005
R	-10.6008
▁recommendation	-10.6009
▁곳에	-10.6009
▁via	-10.6012
▁상당	-10.6012
▁Did	-10.6013
▁향해	-10.6015
▁저희가	-10.6016
순	-10.6021
▁대변인	-10.6025
▁현대	-10.6025
▁교육감	-10.6026
▁바른미래당	-10.6031
▁criteria	-10.604
▁dispute	-10.6041
▁respect	-10.6042
▁memory	-10.6044
▁조직	-10.6053
▁의혹이	-10.6054
CEO	-10.6062
c	-10.6068
▁누가	-10.6069
▁발표했다	-10.6069
▁강남구	-10.607
▁Bareunmirae	-10.6072
한다고	-10.6072
▁sentence	-10.6072
▁의료	-10.6072
▁applicants	-10.6074
▁laws	-10.6076
▁직후	-10.6081
▁동영상	-10.6082
▁Chungcheong	-10.6082
▁stone	-10.6083
▁이것	-10.6084
▁committed	-10.6087
▁만난	-10.6091
▁중요하다	-10.6092
봉	-10.6096
▁incurred	-10.6097
▁tickets	-10.6097
▁포함	-10.6099
▁PC	-10.6103
▁Monday	-10.6104
12	-10.6106
▁멤버	-10.6109
▁선수들이	-10.611
▁장관은	-10.612
▁ideas	-10.6123
▁한편	-10.6126
▁recovery	-10.6134
▁Pyeongtaek	-10.6134
▁ice	-10.6135
▁이어질	-10.6136
▁lunch	-10.6137
▁spot	-10.614
▁repair	-10.6145
▁salary	-10.6148
▁여행을	-10.615
▁signs	-10.6152
▁net	-10.6152
▁gets	-10.6154
▁suspension	-10.6154
▁Film	-10.6159
▁Children	-10.6163
▁노력하여야	-10.6166
▁machine	-10.6168
▁0	-10.6168
15	-10.6169
▁우	-10.6172
▁전용	-10.6174
▁Cha	-10.6174
▁upon	-10.6178
▁감소	-10.6184
사가	-10.6185
joon	-10.6194
▁approved	-10.6197
▁범죄	-10.6198
▁encourage	-10.6201
▁사항	-10.6203
▁제외한	-10.6204
▁Jun	-10.6204
▁regulation	-10.6205
▁Consider	-10.6207
▁이번이	-10.6212
▁occurs	-10.6212
▁깊은	-10.6214
▁이벤트	-10.6215
▁okay	-10.6216
▁그간	-10.6216
▁119	-10.6219
▁aimed	-10.6222
TV	-10.6234
one	-10.6234
▁chicken	-10.6237
▁그러면	-10.624
▁알려	-10.6245
▁Arts	-10.6248
▁failure	-10.6252
▁Not	-10.6252
▁열렸다	-10.6253
▁혹은	-10.6255
▁scale	-10.6257
called	-10.6259
▁대전	-10.626
▁Friday	-10.6261
▁conversation	-10.6262
카	-10.6263
발	-10.6264
▁remain	-10.6264
▁conservative	-10.6268
▁방법을	-10.6268
▁만날	-10.6274
▁환자	-10.6274
▁tree	-10.628
▁질문	-10.6281
▁끝에	-10.6284
▁Canada	-10.6285
▁120	-10.6286
▁meat	-10.6287
▁evening	-10.6291
으면	-10.6292
▁참가	-10.6293
▁certification	-10.6295
E	-10.6297
▁될까요	-10.6302
▁만들고	-10.6305
▁최소	-10.6307
▁route	-10.631
▁그래도	-10.6311
▁쓴	-10.6312
▁subsidize	-10.6313
▁ingredients	-10.6313
▁subparagraphs	-10.6315
▁transactions	-10.6315
▁정한다	-10.6315
▁김씨	-10.6317
▁외에	-10.6317
▁shape	-10.6319
해온	-10.6323
▁reporting	-10.6326
했으나	-10.6329
▁Man	-10.6333
▁stars	-10.6335
▁발생할	-10.6335
겠습니다	-10.6337
▁Civil	-10.6337
▁departments	-10.634
▁creative	-10.6341
▁지지	-10.6341
▁보도	-10.6344
▁상황에	-10.6345
▁매장	-10.6349
▁app	-10.6349
kyung	-10.635
▁실적	-10.6351
▁consulting	-10.6356
▁강력한	-10.6357
▁Australia	-10.6358
▁알려져	-10.6359
▁변화가	-10.6359
▁운영을	-10.6359
▁소득	-10.636
▁뉴욕	-10.6363
교	-10.6365
긴	-10.6372
▁grounds	-10.6377
▁homes	-10.6378
▁보유한	-10.6379
▁lose	-10.6383
▁요구	-10.6389
▁corruption	-10.639
▁drawn	-10.639
▁협조	-10.6394
▁false	-10.6395
학년	-10.6395
▁고려	-10.6396
▁일제	-10.6397
▁10,000	-10.6402
▁무료	-10.6404
▁interesting	-10.6407
▁유치원	-10.641
▁guide	-10.6412
▁김문수	-10.6416
▁thanks	-10.6418
▁save	-10.642
se	-10.6421
▁Google	-10.6423
▁나선다	-10.6425
▁snow	-10.6427
▁Jo	-10.643
▁transaction	-10.6431
▁겪고	-10.6431
▁소리	-10.6435
까	-10.6435
▁tasks	-10.6436
▁enforcement	-10.6437
▁connected	-10.6441
▁cryptocurrency	-10.6442
▁국내외	-10.6443
하겠다는	-10.6443
▁적극적인	-10.6443
▁창출	-10.6444
과의	-10.6446
▁부담이	-10.6449
▁attracted	-10.6456
run	-10.6456
▁시장의	-10.6464
▁checking	-10.6466
▁되었습니다	-10.6477
▁finance	-10.6478
▁혐의	-10.648
▁안내	-10.6484
▁원활	-10.6485
▁damages	-10.6487
▁시작으로	-10.6488
▁fresh	-10.649
▁distributed	-10.6492
▁plastic	-10.6493
▁Just	-10.6497
▁Olympics	-10.6501
▁Soon	-10.6504
티	-10.6506
▁인프라	-10.6506
▁composed	-10.6507
▁행사는	-10.6509
▁포함해	-10.651
함에	-10.6511
운영	-10.6511
시장	-10.6511
▁연락	-10.6514
▁amid	-10.6515
▁Ryu	-10.6515
▁$	-10.6516
▁attitude	-10.6517
▁buses	-10.6518
▁비중이	-10.6519
▁rural	-10.6523
▁작가	-10.6527
▁frequently	-10.6528
▁System	-10.6531
▁사전에	-10.6533
▁corporations	-10.6535
▁심의를	-10.6538
Gu	-10.6546
▁childcare	-10.6549
▁efficiency	-10.6553
▁피	-10.6554
▁홈페이지	-10.6555
▁하게	-10.6555
▁expert	-10.6556
▁긴	-10.6558
▁평화	-10.6564
▁drunk	-10.6565
▁가정	-10.6566
▁concluded	-10.6566
▁‘2018	-10.6566
ah	-10.6572
▁pro	-10.6572
▁regime	-10.6574
▁Jeolla	-10.6576
▁unfair	-10.6581
▁goals	-10.6582
▁후보	-10.6586
▁importance	-10.6587
▁bottom	-10.6588
▁비판	-10.6591
▁videos	-10.6593
▁Award	-10.6594
▁master	-10.6595
▁eventually	-10.6598
하였습니다	-10.6602
▁걱정	-10.6609
▁gives	-10.6613
▁제품은	-10.6616
▁설명이	-10.6619
▁느낄	-10.6619
▁사랑을	-10.6628
▁정치적	-10.6629
▁보낸	-10.6631
▁먹을	-10.6632
▁menu	-10.6632
▁폼페이오	-10.6633
▁신뢰	-10.6634
▁fight	-10.6637
▁Road	-10.6638
었습니다	-10.6653
▁justice	-10.6654
▁believes	-10.6655
▁맛	-10.6657
▁finish	-10.6663
▁Cheonan	-10.6664
▁재정	-10.6668
▁포함된	-10.6669
▁maximum	-10.6669
▁putting	-10.6671
▁latest	-10.6671
▁foot	-10.6672
▁loved	-10.6675
▁회담	-10.6675
▁감사합니다	-10.6675
▁못해	-10.6676
▁매출	-10.6676
▁불이	-10.6677
▁seeing	-10.6678
▁열어	-10.668
▁소개	-10.6684
▁의장	-10.6687
▁distance	-10.6689
▁outdoor	-10.6692
▁와서	-10.6694
▁선수들	-10.6696
▁argued	-10.6702
일에는	-10.6703
▁노래	-10.6705
▁전까지	-10.6705
▁rule	-10.6707
▁rescue	-10.6712
▁신경	-10.6712
▁obtain	-10.6715
▁announce	-10.6716
▁1000	-10.6716
▁listed	-10.6717
▁마케팅	-10.6723
하세요	-10.6727
이기	-10.673
▁길	-10.6733
▁일은	-10.6738
▁중단	-10.6741
▁경제적	-10.6745
▁institute	-10.6746
▁위원장	-10.6747
▁아이들이	-10.6748
후	-10.6749
▁SBS	-10.6749
▁warning	-10.6754
▁밥	-10.6759
▁watched	-10.676
▁cancel	-10.6762
▁rich	-10.6762
▁간의	-10.6765
▁크기	-10.6765
▁models	-10.6766
되기	-10.6768
▁어렵다	-10.6773
되며	-10.6775
▁이건	-10.6778
▁일대	-10.6781
▁있음을	-10.6786
▁achieved	-10.6786
▁심각한	-10.6791
▁premium	-10.6791
철	-10.6792
▁실시	-10.6795
▁문화를	-10.68
▁글을	-10.6803
▁진	-10.6804
▁disclosure	-10.6806
▁2,000	-10.6807
▁Mexico	-10.6807
▁seek	-10.681
▁helped	-10.6811
▁범위	-10.6812
▁lines	-10.6813
집	-10.6813
▁Power	-10.6816
태	-10.6819
▁수는	-10.6821
▁exceed	-10.6821
▁appeal	-10.6822
즈	-10.6826
▁주목된다	-10.6827
▁Rule	-10.683
▁있을지	-10.6837
▁사업은	-10.6838
▁개의	-10.684
▁모델	-10.6844
▁징계	-10.6847
▁52	-10.6848
▁haven	-10.6853
▁causes	-10.6854
▁Ju	-10.6863
▁대해서도	-10.6864
▁문제로	-10.6865
▁Supervisory	-10.6866
▁sometimes	-10.6868
▁자는	-10.6872
class	-10.6872
▁placed	-10.6872
▁나갈	-10.6873
▁방안	-10.6874
▁스페인	-10.6879
▁대응	-10.6879
▁officially	-10.6881
▁인정하는	-10.6882
long	-10.6883
▁French	-10.6883
▁complaint	-10.6898
nam	-10.6898
▁golf	-10.6899
▁donation	-10.6899
▁시민들이	-10.6904
▁자전거	-10.6909
▁인터뷰	-10.6909
▁wages	-10.6915
▁Stadium	-10.6916
▁고객이	-10.6917
▁선택	-10.6917
▁awareness	-10.6917
▁의견	-10.6917
▁century	-10.6931
▁ran	-10.6934
▁emerged	-10.6935
▁노인	-10.6936
▁할인	-10.694
▁perfect	-10.6944
▁장기	-10.6944
▁kindergarten	-10.6947
▁감독은	-10.6958
▁보안	-10.6959
▁Seongnam	-10.6963
▁island	-10.6966
▁가까이	-10.6967
▁1.5	-10.6979
▁Gyeongnam	-10.698
▁공연이	-10.6981
▁flow	-10.6981
▁Family	-10.6983
▁공간	-10.6985
▁musical	-10.6987
▁earnest	-10.6988
▁venture	-10.6988
▁CJ	-10.699
그	-10.6993
▁예정	-10.6993
▁tired	-10.6995
팀	-10.7001
▁딸	-10.7001
▁de	-10.7006
▁drive	-10.7007
직	-10.7011
▁도서관	-10.7012
▁올해는	-10.7013
▁그것이	-10.7013
▁add	-10.7014
환경	-10.7017
▁birthday	-10.7017
▁priority	-10.7025
▁affiliated	-10.7029
▁married	-10.703
▁씨	-10.7037
▁Hallyu	-10.7037
▁출장	-10.7039
▁절대	-10.7042
▁cosmetics	-10.7044
▁doctor	-10.7048
▁scandal	-10.7048
▁essential	-10.705
▁Yeon	-10.705
▁늘고	-10.7052
▁부문	-10.7053
▁purchased	-10.7053
▁뜨거운	-10.7058
▁Saturday	-10.7063
▁cooperative	-10.7067
명과	-10.7067
▁지하철	-10.7074
▁Bo	-10.7076
▁News	-10.7076
▁어린	-10.7089
▁위기	-10.7089
▁분석했다	-10.709
▁league	-10.7091
▁경기를	-10.7091
▁교사	-10.7092
네요	-10.7097
▁승리	-10.7101
▁port	-10.7102
▁중앙	-10.7102
▁가면	-10.7102
▁talent	-10.7104
▁37	-10.7105
▁names	-10.7107
▁당부했다	-10.7114
▁유치	-10.7114
▁N	-10.7115
▁upper	-10.7117
ups	-10.7119
▁courses	-10.7119
▁팀이	-10.7119
▁참석	-10.7123
▁사례가	-10.7125
▁(3)	-10.7127
▁confidence	-10.7129
▁부서	-10.713
▁subjects	-10.7131
했기	-10.7133
▁주의	-10.7134
▁Law	-10.7135
▁기업들이	-10.7137
▁Kakao	-10.7138
▁values	-10.7142
▁확산	-10.7149
▁평소	-10.7151
US	-10.7161
▁install	-10.7163
▁세대	-10.7164
▁고민	-10.7171
▁활용해	-10.7171
됐고	-10.7174
▁emerging	-10.7176
▁몸	-10.7178
▁상품을	-10.7178
▁debut	-10.718
▁levels	-10.7185
▁Speaker	-10.7185
▁path	-10.7185
line	-10.719
▁맞춤형	-10.7191
경제	-10.7192
▁전면	-10.7192
▁주말	-10.7192
▁advice	-10.7193
▁멕시코	-10.7194
▁기금	-10.7196
▁Paju	-10.72
▁Rep	-10.72
▁무엇을	-10.7202
▁coast	-10.7203
▁기획	-10.7204
하려고	-10.7204
경기도	-10.7208
▁strike	-10.7209
▁오른	-10.7215
년에는	-10.7218
▁happen	-10.7222
▁39	-10.7224
▁sectors	-10.7228
▁inconvenience	-10.7231
▁예상	-10.7234
▁extended	-10.7236
▁계기로	-10.7236
▁둔	-10.724
▁enjoyed	-10.7241
▁firms	-10.7242
▁Meteorological	-10.7245
▁suitable	-10.7245
of	-10.7246
▁저의	-10.7246
▁브라질	-10.7247
▁차원에서	-10.7248
▁완화	-10.7249
날	-10.7249
▁가치를	-10.7252
▁cool	-10.7254
▁newspaper	-10.7255
▁선수가	-10.7256
▁Dynasty	-10.7256
되었습니다	-10.7258
▁disciplinary	-10.7258
▁의혹	-10.7259
▁메일	-10.7264
▁appears	-10.7268
▁hurt	-10.7272
▁passing	-10.7275
▁shipping	-10.728
▁여부	-10.7282
▁방법으로	-10.7283
정보	-10.7283
▁외국	-10.7285
▁후반	-10.7286
▁spreading	-10.7286
▁drugs	-10.7287
▁benefit	-10.729
▁암호화폐	-10.7291
mo	-10.7293
▁경기가	-10.7294
▁인증	-10.7294
근	-10.7296
▁fifth	-10.7305
▁confirmation	-10.7309
▁figures	-10.731
▁broken	-10.731
▁인력	-10.7317
▁passengers	-10.7317
▁비행기	-10.7317
▁setting	-10.7317
▁싶다	-10.7321
▁operations	-10.7323
▁grades	-10.7325
복	-10.7326
▁diplomatic	-10.7327
▁곳은	-10.7327
▁equipped	-10.7329
▁individuals	-10.7329
프	-10.733
▁취지	-10.7332
▁영상을	-10.7333
▁메시지를	-10.734
▁네트워크	-10.7341
▁register	-10.7348
▁공공기관	-10.7349
▁판단	-10.7352
▁foster	-10.7352
▁lectures	-10.7353
▁judged	-10.7353
항제	-10.7355
▁extent	-10.7355
▁확인하고	-10.736
▁분야에서	-10.7361
▁Pohang	-10.7362
▁시도	-10.7364
▁ready	-10.7364
대표	-10.7366
▁효율적인	-10.7366
▁Un	-10.7367
▁내고	-10.7367
▁transferred	-10.7373
▁execution	-10.7373
▁곳에서	-10.7382
일간	-10.7383
▁aware	-10.7385
환	-10.7387
▁stations	-10.7391
▁예	-10.7394
▁comfortable	-10.7397
▁이어지고	-10.7399
▁storage	-10.7402
▁holidays	-10.741
▁concentration	-10.741
▁목	-10.742
▁친환경	-10.7425
▁그린	-10.7426
▁종료	-10.7431
▁mostly	-10.7434
▁suit	-10.7434
▁hospitals	-10.7436
▁강원	-10.7437
▁colors	-10.7439
▁못할	-10.7442
▁explanation	-10.7443
▁연결	-10.7443
▁British	-10.7444
▁인천광역시	-10.745
▁feature	-10.7452
▁applications	-10.7455
▁가득	-10.746
▁pollution	-10.7462
▁다수	-10.7464
▁국회의원	-10.7465
▁sample	-10.7466
▁Xi	-10.7467
▁combined	-10.7468
▁districts	-10.7475
▁캐나다	-10.7478
위에	-10.748
▁West	-10.748
▁unification	-10.748
▁treated	-10.748
▁demanded	-10.7482
▁평양	-10.7483
린	-10.7487
▁Society	-10.749
▁역량	-10.7492
▁실시한	-10.7492
▁점도	-10.7493
▁2016,	-10.7495
▁invited	-10.7497
▁사망	-10.7501
가지	-10.7502
▁국내에서	-10.7502
▁band	-10.7502
▁deadline	-10.7502
▁complexes	-10.7503
▁notified	-10.7509
암	-10.751
▁blue	-10.751
F	-10.7513
인가요	-10.7513
희	-10.7514
▁Christian	-10.7516
▁당초	-10.7517
▁stance	-10.752
▁좋을	-10.7527
▁태풍	-10.7528
▁사과	-10.7534
▁finding	-10.7535
▁잡고	-10.7537
개국	-10.7538
▁suicide	-10.7538
▁Pompeo	-10.7538
▁ones	-10.7539
▁expression	-10.7542
▁굉장히	-10.7544
soon	-10.7544
▁이유	-10.7546
▁강남	-10.7546
ation	-10.7556
▁그때	-10.7557
▁위치	-10.7559
▁혜택을	-10.756
▁주소	-10.7565
▁contribution	-10.7568
▁challenge	-10.7569
espite	-10.7573
▁comprised	-10.7573
▁uses	-10.7578
▁recognition	-10.758
▁48	-10.7583
▁drew	-10.7585
▁carrying	-10.7586
▁지원에	-10.759
▁구속	-10.7591
▁worry	-10.7591
▁Jesus	-10.7592
▁arrive	-10.7595
▁shooting	-10.7599
▁topic	-10.76
▁대폭	-10.76
▁곳으로	-10.7605
▁SMEs	-10.7608
▁actions	-10.7608
▁Grand	-10.7609
▁학교에	-10.761
▁injury	-10.761
▁높이	-10.7611
▁상반기	-10.7611
▁meals	-10.7618
▁쓰는	-10.7619
▁낮	-10.7621
▁designate	-10.7626
▁언어	-10.763
▁있으나	-10.7633
▁대북	-10.7634
▁BMW	-10.7636
▁Il	-10.7642
▁겨울	-10.7643
▁Base	-10.7646
판	-10.7646
▁shops	-10.7647
▁눈이	-10.7649
▁그만큼	-10.765
▁대책	-10.7656
▁Company	-10.7658
▁화장품	-10.7658
▁역대	-10.766
▁운행	-10.7663
▁우리에게	-10.7664
▁상호	-10.7667
▁이곳	-10.7667
▁꿈을	-10.7667
여명의	-10.7668
▁자리에	-10.767
▁offered	-10.7672
▁표	-10.7673
▁allowing	-10.7675
▁고려해	-10.7675
▁sharp	-10.7676
seong	-10.768
24	-10.7693
▁한국을	-10.7694
▁Hanwha	-10.7694
▁치료를	-10.7694
▁formulate	-10.7697
장이	-10.77
▁끌고	-10.7703
▁claims	-10.7704
▁contracts	-10.7705
▁lowest	-10.7707
▁개정	-10.7708
▁performing	-10.7708
▁힘이	-10.7708
▁museum	-10.7712
▁잠	-10.7717
▁뭐	-10.7718
▁maintained	-10.7721
▁flowers	-10.7724
▁더불어	-10.7725
그룹	-10.7726
13	-10.7735
▁비중	-10.7735
▁조치	-10.7735
▁뿐만	-10.7737
▁feelings	-10.7737
▁재판부	-10.7739
▁임명	-10.7739
▁지속	-10.774
▁mixed	-10.7745
▁수원	-10.7755
▁Shim	-10.7762
▁수행	-10.7765
▁아내	-10.7769
▁host	-10.7775
▁5,000	-10.7784
▁그런데	-10.7784
▁여성이	-10.7789
▁farm	-10.7791
▁전부터	-10.7792
개를	-10.7792
▁Changwon	-10.7793
▁올랐다	-10.7795
▁이끄는	-10.7796
▁Seocho	-10.7797
▁지적	-10.7798
▁behavior	-10.78
▁코	-10.7802
▁수술	-10.7808
14	-10.781
end	-10.781
led	-10.7813
▁statutes	-10.7819
▁비즈니스	-10.7819
▁가치	-10.782
▁보상	-10.7821
▁공개했다	-10.7822
ity	-10.7823
▁obtained	-10.7823
▁Green	-10.7826
▁suspicions	-10.7828
북	-10.7831
▁procedure	-10.7835
▁그를	-10.7835
▁articles	-10.7835
▁부품	-10.7836
▁conflicts	-10.7839
▁55	-10.7839
같은	-10.7841
▁cooking	-10.7843
하려면	-10.7844
▁X	-10.7848
▁노동자	-10.785
▁요구하는	-10.7852
▁gain	-10.7854
됐던	-10.7854
▁border	-10.7856
▁가입	-10.7859
▁contributed	-10.7861
▁현실	-10.7869
▁guidelines	-10.7869
▁artist	-10.7869
▁customized	-10.7871
myung	-10.7873
▁건축	-10.7875
▁앨범	-10.7876
▁가능합니다	-10.7876
▁청소	-10.788
세기	-10.7882
▁부인	-10.7882
▁hydrogen	-10.7883
▁미만	-10.7883
평	-10.7884
▁진짜	-10.7885
▁naturally	-10.7885
▁battle	-10.7888
▁같은데	-10.7888
▁공공	-10.789
▁태국	-10.7896
▁위원회는	-10.7897
▁nearly	-10.7899
▁사이에서	-10.7901
▁중심	-10.7904
▁proportion	-10.7906
거	-10.791
▁보이지	-10.791
조차	-10.7914
▁diverse	-10.7919
▁YouTube	-10.7919
▁이제는	-10.7921
▁bonds	-10.7923
▁입은	-10.7927
▁negotiation	-10.7929
▁한국은	-10.794
▁대기	-10.7942
▁efficiently	-10.7945
▁있으니	-10.7949
▁phenomenon	-10.7949
▁signing	-10.795
▁identified	-10.795
▁들었다	-10.7951
기술	-10.7953
▁slightly	-10.7956
▁Have	-10.7959
▁그녀가	-10.7962
▁노동	-10.7966
▁이유를	-10.7968
▁일본의	-10.7971
▁아니면	-10.7975
▁터키	-10.7977
▁agree	-10.7979
생	-10.798
▁하였다	-10.7982
▁3,000	-10.7986
▁올린	-10.7986
▁원래	-10.7986
▁근거	-10.7987
▁통하여	-10.7988
▁팔	-10.7988
▁학생이	-10.7993
▁금지	-10.7993
▁통일	-10.7994
jun	-10.7994
▁Wednesday	-10.7995
▁exclusive	-10.7995
▁Yeouido	-10.8
▁마치	-10.8004
Korea	-10.8005
▁represent	-10.8006
▁기자회견	-10.8012
▁careful	-10.8015
▁block	-10.8016
▁delicious	-10.8017
▁예정입니다	-10.8021
am	-10.8024
▁Western	-10.8025
▁concentrated	-10.8026
▁자세	-10.8026
▁canceled	-10.8026
라면	-10.8028
런	-10.8029
▁돈	-10.803
▁Academy	-10.8031
호서식에	-10.8031
▁Gangneung	-10.8032
▁하나로	-10.8037
감	-10.8037
▁당신과	-10.804
▁Philippines	-10.8044
▁입을	-10.8044
▁편	-10.8045
▁promised	-10.8045
호서식의	-10.8045
▁ruled	-10.8046
▁회원	-10.8046
▁pushing	-10.8046
▁원장	-10.8048
gil	-10.805
▁호	-10.8055
▁공부	-10.8056
▁aged	-10.8058
▁정부와	-10.806
▁희망	-10.8061
▁penalty	-10.8061
표	-10.8062
▁전망된다	-10.8062
sang	-10.8063
다면	-10.8064
병	-10.8066
▁확보	-10.8066
▁smooth	-10.8077
▁70%	-10.808
▁않게	-10.808
▁찾은	-10.8081
▁사유가	-10.8082
▁forum	-10.8085
▁rapid	-10.8086
▁싶은데	-10.8087
▁설계	-10.8087
▁communicate	-10.8087
▁전환	-10.8088
▁팬	-10.809
▁벌써	-10.8093
▁meantime	-10.8094
▁plays	-10.8094
▁높아지고	-10.8094
▁author	-10.8097
▁전망이	-10.8098
▁Motors	-10.8101
▁Apple	-10.8101
만이	-10.8101
▁마련	-10.8103
▁예산을	-10.8105
▁ministry	-10.8105
창	-10.8108
▁기업들	-10.8108
▁점차	-10.8108
▁토대로	-10.811
▁핵	-10.8112
▁mouth	-10.8112
▁마무리	-10.8119
▁isn	-10.8121
▁awarded	-10.8122
만큼	-10.8123
▁involving	-10.8124
▁Sunday	-10.8125
▁팬들이	-10.8128
▁enterprise	-10.8129
▁ease	-10.8131
▁sentiment	-10.8131
▁declared	-10.8132
래	-10.8132
열	-10.8132
▁위원장의	-10.8134
▁convenient	-10.8136
▁가치가	-10.8139
▁이어졌다	-10.814
▁점은	-10.8144
려	-10.8146
▁250	-10.8146
▁teenagers	-10.8149
▁typhoon	-10.8153
▁either	-10.8156
▁판결	-10.8158
▁시장을	-10.8158
함을	-10.8158
림	-10.8161
X	-10.8166
▁bed	-10.8167
16	-10.8169
▁athletes	-10.817
▁국토교통부	-10.8175
▁subsidy	-10.8175
▁stress	-10.8177
시까지	-10.8178
▁Workers	-10.8179
터	-10.8181
▁wake	-10.8181
▁대기업	-10.8187
▁successfully	-10.819
▁Chuseok	-10.8195
▁Community	-10.8195
▁미치는	-10.8196
▁시간에	-10.8199
▁이름이	-10.8203
세대	-10.8204
▁지속적인	-10.8204
▁secret	-10.8205
▁inevitable	-10.8207
▁Kwang	-10.8209
▁떨어진	-10.8209
▁수정	-10.8211
▁캐릭터	-10.8212
▁Ja	-10.8212
사진	-10.8216
▁개별	-10.8219
▁Global	-10.822
▁증시	-10.8221
▁토지	-10.8223
▁사랑	-10.8224
▁tea	-10.8228
▁메뉴	-10.8228
명은	-10.823
▁지자체	-10.8237
▁기능	-10.8238
▁Yongin	-10.8239
▁shareholders	-10.8241
▁closely	-10.8242
▁factor	-10.8244
관련	-10.8248
▁prime	-10.8248
▁supplement	-10.825
볼	-10.825
▁offering	-10.825
▁Ansan	-10.8254
▁국회에서	-10.8256
▁문제에	-10.8257
▁방법이	-10.8262
▁하되	-10.8262
▁operators	-10.8263
▁한국이	-10.8264
▁exposed	-10.8264
▁의미를	-10.8266
▁앞둔	-10.827
▁80%	-10.8274
▁2006	-10.8277
▁보여주는	-10.8281
▁losing	-10.8283
▁숨진	-10.8283
▁Medium	-10.8283
▁spending	-10.8285
▁요금	-10.8286
▁위촉	-10.8288
니까	-10.8289
▁managing	-10.829
dae	-10.8294
▁의원의	-10.8295
▁가게	-10.8295
▁Yongsan	-10.8296
▁Free	-10.8298
▁진술	-10.8299
▁fuel	-10.83
▁작년	-10.8301
▁studies	-10.8302
▁새벽	-10.8302
▁풀이된다	-10.8302
▁slow	-10.8303
▁Forest	-10.8304
▁40%	-10.8305
▁deliberate	-10.8306
▁사람에게	-10.8307
▁fiscal	-10.8308
▁engaged	-10.831
▁plane	-10.8311
▁rating	-10.8311
되도록	-10.8314
하겠다고	-10.8314
여개	-10.8314
▁alcohol	-10.8321
▁없어서	-10.8327
▁쓸	-10.8327
▁Agriculture	-10.8328
▁buying	-10.8333
▁늘어난	-10.8334
▁교육부	-10.8334
▁허	-10.8335
▁제조	-10.8336
▁승인을	-10.8342
▁나중에	-10.8343
▁직원이	-10.8344
jo	-10.8346
▁파	-10.8347
▁dropped	-10.8347
▁전력	-10.8348
성이	-10.8349
▁Love	-10.8349
▁football	-10.8349
류	-10.835
18	-10.8351
이라도	-10.8354
▁competitive	-10.8355
▁조건	-10.8363
체	-10.8365
▁Marine	-10.8367
▁statistics	-10.8368
▁imposed	-10.837
▁DMZ	-10.8371
▁상처	-10.8373
▁후보가	-10.8376
▁sluggish	-10.8379
▁tariffs	-10.8381
19	-10.8382
▁weapons	-10.8382
▁품질	-10.8382
▁최초	-10.8384
▁여의도	-10.8388
▁과정	-10.8391
▁폭행	-10.8391
▁Would	-10.8393
▁handed	-10.8394
▁grown	-10.8397
없이	-10.84
▁어린이집	-10.8403
▁단계	-10.8403
▁Bae	-10.8403
▁이른바	-10.8405
▁2022	-10.8406
▁기술이	-10.8408
joo	-10.841
▁관계를	-10.841
▁reply	-10.8412
▁stability	-10.8418
▁재판	-10.8419
학교	-10.8422
▁서류를	-10.8425
O	-10.843
해주세요	-10.8437
▁hiring	-10.8437
▁찾을	-10.8438
▁gained	-10.844
▁Brazil	-10.8446
예요	-10.8449
▁covered	-10.845
▁밖의	-10.8451
▁이것이	-10.8454
▁farms	-10.8455
▁교수가	-10.8457
▁losses	-10.8458
▁Unification	-10.8459
▁관련하여	-10.8463
▁규칙	-10.8463
▁했다고	-10.8463
▁Bureau	-10.8464
▁tests	-10.8466
▁극	-10.8466
▁세계적인	-10.8466
▁이용하는	-10.8468
▁Zone	-10.8469
▁사업의	-10.8473
▁향한	-10.8473
▁Temple	-10.8477
▁religious	-10.8478
▁flower	-10.848
▁안전한	-10.8481
▁army	-10.8483
▁resolved	-10.8487
▁bio	-10.8489
▁funeral	-10.849
▁pick	-10.8493
▁begun	-10.8498
▁Operation	-10.8498
▁달하는	-10.8501
▁cards	-10.8503
▁100,000	-10.8504
▁비용이	-10.8505
난	-10.8507
▁테스트	-10.8507
▁containing	-10.8508
▁있었지만	-10.851
▁voices	-10.851
▁disposal	-10.851
▁J	-10.8511
▁활용한	-10.8512
▁hike	-10.8515
▁Thailand	-10.8517
▁Tokyo	-10.8517
]	-10.8519
▁monitoring	-10.852
▁version	-10.8524
▁외에도	-10.8527
▁본격	-10.8527
▁mutual	-10.8528
▁murder	-10.8528
▁직원들	-10.8529
▁발굴	-10.8531
▁철도	-10.8533
▁Music	-10.8534
▁initial	-10.8535
▁beer	-10.8539
▁Yun	-10.8543
▁mass	-10.855
▁evaluated	-10.8552
▁bills	-10.8554
▁파일	-10.8558
▁소식을	-10.8561
▁불리는	-10.8566
▁목표로	-10.8567
주의	-10.8567
▁통해서	-10.8569
▁수준의	-10.857
▁degree	-10.857
▁월드컵	-10.8571
▁aid	-10.8573
▁sweet	-10.8575
▁조기	-10.8575
▁받게	-10.8577
▁전년	-10.8577
죠	-10.858
▁supervision	-10.8582
▁Beijing	-10.8582
▁Innovation	-10.8584
▁생각하는	-10.8586
▁당일	-10.8587
지를	-10.8587
▁Army	-10.8589
style	-10.8595
▁보조	-10.8595
▁Gyeongsangnam	-10.8596
▁engine	-10.8599
▁Board	-10.8601
▁부담을	-10.8606
▁대체	-10.8608
▁하락	-10.8612
▁옷을	-10.8612
▁대거	-10.8614
▁cleaning	-10.8615
▁키	-10.8622
▁Engineering	-10.8628
▁따뜻한	-10.863
▁무료로	-10.863
▁Amid	-10.8637
▁본격적	-10.8638
▁둘러싼	-10.8641
▁dishes	-10.8641
▁자리에서	-10.8644
▁이용한	-10.8647
▁extension	-10.8648
▁잠시	-10.8649
▁비율이	-10.8651
▁소식이	-10.8653
▁sudden	-10.8653
▁sad	-10.8654
no	-10.8654
▁운용	-10.8655
▁sharply	-10.8655
▁Koreas	-10.8658
▁desire	-10.8658
▁시대	-10.8659
▁sky	-10.8661
▁easier	-10.8661
▁Vietnamese	-10.8662
▁정비	-10.8665
▁voting	-10.8666
po	-10.8666
▁Planning	-10.8668
▁건립	-10.8668
▁작품을	-10.8674
▁blocked	-10.8676
에게는	-10.868
▁인	-10.8681
지구	-10.8684
서비스	-10.8687
▁College	-10.8689
업체	-10.8691
▁그건	-10.8692
▁pop	-10.8693
▁미디어	-10.8693
▁설치된	-10.8694
▁것인지	-10.8695
▁cross	-10.8695
▁진행되는	-10.8695
▁Urban	-10.8697
자는	-10.8698
▁들어가	-10.8698
▁돈이	-10.8699
bo	-10.87
▁ecosystem	-10.8701
▁풍부한	-10.8702
17	-10.8703
▁실시한다	-10.8708
▁carefully	-10.8709
▁미술	-10.871
▁mail	-10.8711
▁powerful	-10.8712
▁각자	-10.8714
▁satisfaction	-10.8716
▁competent	-10.8716
▁생각해요	-10.8716
▁질문에	-10.8717
협의회	-10.8718
▁강하게	-10.8724
▁advertising	-10.8727
▁시스템을	-10.8733
▁이전에	-10.8734
▁wedding	-10.8736
▁drivers	-10.8736
▁영향으로	-10.8736
▁회장은	-10.8736
▁결정을	-10.8736
▁결과에	-10.8736
▁요소	-10.8738
▁증가한	-10.8739
▁남성이	-10.8742
▁litigation	-10.8742
▁분위기를	-10.8746
▁행복한	-10.8746
▁identity	-10.8748
장을	-10.8749
▁전달	-10.8751
▁수상	-10.8752
▁Actor	-10.8753
▁체결	-10.8753
시킬	-10.8754
▁저도	-10.8755
▁Two	-10.8758
본	-10.876
▁remove	-10.8761
「	-10.8765
찬	-10.8765
▁brands	-10.8765
▁acts	-10.8766
▁Gangseo	-10.8767
▁continuing	-10.8768
25	-10.877
jong	-10.8771
▁측이	-10.8771
▁villages	-10.8772
▁자신들	-10.8772
▁suffer	-10.8774
▁regard	-10.878
▁현재까지	-10.878
▁gaining	-10.8781
▁진행됐다	-10.8781
▁catch	-10.8781
▁42	-10.8785
▁적지	-10.8788
▁식품	-10.8789
▁Senior	-10.8793
▁이유다	-10.8797
▁investigated	-10.8799
▁Administrative	-10.8802
▁단속	-10.8802
▁없지만	-10.8803
줄	-10.8805
▁detail	-10.8807
▁원을	-10.8807
▁43	-10.8808
▁긍정적인	-10.8808
▁pretty	-10.8809
ism	-10.8809
▁channel	-10.8811
▁honor	-10.8812
들도	-10.8813
h	-10.8814
▁공동으로	-10.8815
▁생각해	-10.8815
▁rejected	-10.8815
21	-10.8821
▁Declaration	-10.8823
▁경기도의	-10.8825
▁제안	-10.8827
▁아마	-10.8828
▁금	-10.8828
▁고등학교	-10.8828
▁aging	-10.8829
▁Da	-10.883
▁asset	-10.883
▁publicly	-10.8835
▁아이디어	-10.884
▁dark	-10.8842
▁법적	-10.8843
저	-10.8844
▁통화	-10.8848
▁charged	-10.8854
▁이행	-10.8855
▁프로그램이	-10.8856
▁페이스북	-10.8856
▁dispatched	-10.8856
▁옆에	-10.8862
▁이같이	-10.8862
▁receives	-10.8869
업	-10.887
▁쓰고	-10.8875
▁Cheongju	-10.8876
▁smartphones	-10.8877
ion	-10.8879
었던	-10.888
▁Bang	-10.8881
▁발전을	-10.8885
▁마음에	-10.8888
▁fraud	-10.8891
▁Until	-10.8892
▁helps	-10.8893
▁응	-10.8895
▁invested	-10.8896
▁반환	-10.8898
ok	-10.8902
▁Citizens	-10.8903
▁알려주세요	-10.8903
▁Strategy	-10.8903
han	-10.8905
▁문건	-10.8914
▁realized	-10.8914
▁선물	-10.8915
▁개혁	-10.8915
▁differences	-10.8916
▁introducing	-10.8916
▁뛰어난	-10.8917
▁downtown	-10.8917
▁refers	-10.892
▁responded	-10.892
▁그게	-10.8921
▁가족이	-10.8922
▁임기	-10.8923
▁승인	-10.8923
▁predict	-10.8924
▁분위기	-10.8924
▁지원이	-10.8927
▁말레이시아	-10.8927
▁extreme	-10.8931
▁facing	-10.8932
▁현황	-10.8932
▁곳	-10.8933
▁comply	-10.8937
▁찾고	-10.8939
▁supports	-10.8944
▁quantity	-10.8944
▁bags	-10.8945
▁유엔	-10.8945
▁때도	-10.8945
▁카	-10.8947
▁전략	-10.8948
▁범행	-10.895
▁Hwaseong	-10.8951
▁bigger	-10.8951
▁법안	-10.8953
u	-10.8954
▁징역	-10.8954
▁전북	-10.8954
▁touch	-10.8955
▁fear	-10.8956
▁요리	-10.8958
▁학생들의	-10.8959
▁amendment	-10.8966
▁가을	-10.8966
▁exceeded	-10.8967
▁낼	-10.8967
▁entrustment	-10.8968
▁절반	-10.8969
▁통신	-10.8969
▁dialogue	-10.8973
▁expenditure	-10.8973
▁연휴	-10.8973
▁민	-10.8974
▁바에	-10.8975
▁Attention	-10.8979
▁제출한	-10.8979
▁2017,	-10.8981
▁securing	-10.8985
▁Town	-10.8986
▁payments	-10.8993
▁purchasing	-10.8993
▁별로	-10.8994
▁아이돌	-10.8995
▁추진하고	-10.8998
▁오픈	-10.8999
▁Housing	-10.9
▁images	-10.9001
▁기상청	-10.9004
▁continuous	-10.9005
▁독립	-10.9006
▁Washington	-10.9006
▁mistake	-10.9007
▁connect	-10.901
대학	-10.9014
크	-10.9015
▁자문	-10.9018
▁현상이	-10.9018
▁capabilities	-10.9019
▁아는	-10.9025
르	-10.9025
▁Bridge	-10.9027
대를	-10.9033
▁legislation	-10.9034
▁귀	-10.9036
▁스타	-10.9037
▁adjust	-10.9039
▁turning	-10.9039
▁포장	-10.904
▁따라서	-10.9041
▁detected	-10.9041
▁Especially	-10.9041
▁replace	-10.9046
▁collapse	-10.9046
▁surface	-10.9047
▁aircraft	-10.9048
▁편지	-10.9049
▁Independence	-10.9055
▁semester	-10.9056
▁지역은	-10.9057
▁originally	-10.9057
▁둔다	-10.9059
▁Street	-10.9062
▁entrust	-10.9064
▁필요합니다	-10.9067
▁requirements	-10.9068
▁Matters	-10.9069
▁deem	-10.9071
▁실험	-10.9071
▁vision	-10.9074
▁제주도	-10.9074
▁imported	-10.9076
▁콘서트	-10.9077
▁경우에	-10.9077
▁singing	-10.9084
▁Gyeongbuk	-10.9085
▁마치고	-10.9086
▁여러분	-10.9086
▁prosecutors	-10.9091
▁whenever	-10.9091
▁형태로	-10.9092
갈수록	-10.9096
▁investments	-10.91
▁보장	-10.91
▁demands	-10.9103
kyu	-10.9108
▁memorial	-10.9109
▁Pension	-10.9116
▁마약	-10.9117
▁Christmas	-10.9117
▁위험	-10.9119
▁troops	-10.912
▁확인해	-10.9123
▁사례	-10.9132
각	-10.9138
▁Other	-10.9139
▁recognize	-10.914
▁취임	-10.9141
▁utilize	-10.9141
▁집행	-10.9144
▁combination	-10.9147
▁gone	-10.9148
▁winner	-10.9149
▁talked	-10.9152
▁multiple	-10.9153
▁인정	-10.9155
▁centered	-10.9156
▁singers	-10.9157
▁검찰에	-10.9158
cheol	-10.9158
▁자산	-10.916
개소	-10.9161
▁시선	-10.9163
▁충북	-10.9165
▁선고	-10.9169
▁자격	-10.9172
▁t	-10.9176
▁협약	-10.9177
▁plenary	-10.9179
다른	-10.9179
▁organize	-10.9179
▁청구	-10.918
▁page	-10.9182
▁운영할	-10.9186
▁여성의	-10.9186
(1	-10.9195
▁filming	-10.9195
Kim	-10.9196
▁earthquake	-10.9196
▁agriculture	-10.92
▁마친	-10.92
▁wasn	-10.9201
▁daycare	-10.9201
▁medal	-10.9202
▁운전	-10.9202
▁merchants	-10.9202
▁서류	-10.9202
▁대하여는	-10.9206
▁returning	-10.9207
▁category	-10.9207
▁Tax	-10.9213
eup	-10.9214
▁dangerous	-10.9214
▁장면	-10.9216
▁직장	-10.9219
▁marine	-10.9222
증	-10.9222
▁Sam	-10.9224
▁reasonable	-10.9225
▁Show	-10.9226
▁올라	-10.9226
tech	-10.9232
▁문서	-10.9235
▁개발한	-10.9236
▁추진할	-10.9236
▁지시	-10.9238
▁tournament	-10.9245
go	-10.9247
기가	-10.9248
▁Regional	-10.9252
▁2005	-10.9252
▁아직도	-10.9253
▁많고	-10.9254
▁Industries	-10.9256
▁protest	-10.9258
▁기계	-10.9259
▁생태계	-10.9259
▁집단	-10.9261
▁수집	-10.9262
▁바다	-10.9271
▁replaced	-10.9273
▁세부	-10.9278
년도	-10.9284
▁consent	-10.9284
▁선정된	-10.9286
▁입주	-10.9287
▁researchers	-10.929
▁greater	-10.929
▁찾기	-10.9292
▁암	-10.9293
▁뒤에	-10.9295
▁산하	-10.9301
▁덕분에	-10.9301
임	-10.9302
▁평가했다	-10.9304
됐지만	-10.9305
▁이중	-10.9307
▁partner	-10.9308
▁하반기	-10.931
▁citizen	-10.9311
덕	-10.9311
▁내린	-10.9311
▁44	-10.9312
▁않았습니다	-10.9313
업무	-10.9313
▁raw	-10.9316
▁표현	-10.9326
▁분야의	-10.9327
▁linked	-10.9327
광	-10.9327
▁외교부	-10.9331
▁applicant	-10.9332
▁leisure	-10.9334
▁window	-10.9339
▁영어를	-10.9344
▁공항	-10.9344
▁trends	-10.9346
AI	-10.9347
▁효율적으로	-10.9347
▁spokesman	-10.9348
▁Malaysia	-10.9349
▁2015,	-10.935
sook	-10.9351
▁연계	-10.9351
▁thank	-10.9351
▁회복	-10.9353
▁bureau	-10.9353
▁allowances	-10.9355
▁simply	-10.9355
▁race	-10.9361
▁않았지만	-10.9363
▁provinces	-10.9364
분야	-10.9365
▁일자리를	-10.9366
협회	-10.9369
▁모양	-10.937
▁helping	-10.9373
▁전반	-10.9374
▁시위	-10.9375
▁전망했다	-10.9375
en	-10.9375
▁본격적으로	-10.9382
▁Jeollanam	-10.9384
Do	-10.9385
▁공모	-10.9385
▁물을	-10.939
▁composition	-10.9391
▁방문한	-10.9392
k	-10.9394
▁충남	-10.9396
▁fierce	-10.9396
▁happiness	-10.9399
채	-10.9399
▁이사장	-10.94
▁떨어져	-10.94
▁bright	-10.9401
▁discrimination	-10.9401
▁behalf	-10.9404
▁Chun	-10.9404
▁가방	-10.9404
▁지원한다	-10.9407
▁straight	-10.9407
▁행사에	-10.9409
▁pilot	-10.941
▁분위기가	-10.941
세요	-10.9411
▁dismissed	-10.9413
▁passenger	-10.9417
▁knew	-10.942
▁공무원이	-10.9423
▁idol	-10.9424
송	-10.9424
▁affect	-10.9427
▁공정위	-10.9433
V	-10.9433
▁requests	-10.9433
▁부모	-10.9441
▁San	-10.9445
▁revitalize	-10.9446
점을	-10.9448
▁맡은	-10.9448
▁municipal	-10.9448
이기도	-10.9451
▁handling	-10.9458
▁상태다	-10.9464
▁railway	-10.9467
▁패션	-10.9468
▁현금	-10.9469
▁leads	-10.9469
▁교환	-10.9471
▁shoes	-10.9475
키	-10.9475
▁cafe	-10.9476
▁spaces	-10.9478
▁방법	-10.9479
▁이메일	-10.9487
▁입	-10.9487
▁positions	-10.9487
▁Big	-10.9488
▁안건	-10.949
▁relief	-10.9493
▁기간이	-10.9495
▁높아	-10.9497
▁specified	-10.9499
▁진행하고	-10.9499
건의	-10.95
▁경기에서	-10.95
▁거주하는	-10.9501
▁friendly	-10.9505
▁adults	-10.9506
▁차지했다	-10.9506
▁trouble	-10.9509
▁사용료	-10.9513
▁직업	-10.9514
▁관계가	-10.9515
▁favor	-10.9517
목	-10.9519
▁worse	-10.952
▁freely	-10.9521
▁Huawei	-10.9522
▁listening	-10.9522
도시	-10.9523
▁뉴스	-10.9524
▁ordinance	-10.9526
▁것이란	-10.9528
▁visits	-10.9529
▁탈	-10.9529
▁empty	-10.953
▁unlike	-10.9534
▁활용할	-10.9538
」(	-10.954
▁rally	-10.9543
▁wins	-10.9547
▁글	-10.9553
▁후보자	-10.9553
▁이뤄질	-10.9554
▁gathering	-10.9557
▁widely	-10.9566
▁package	-10.9568
employed	-10.9574
oriented	-10.9574
▁제조업	-10.9574
▁Only	-10.9577
▁curriculum	-10.9579
▁현장에	-10.9583
▁approach	-10.9585
▁disappeared	-10.9587
▁tons	-10.9592
▁code	-10.9593
▁annually	-10.9598
▁grand	-10.9602
H	-10.9604
▁별도의	-10.9606
▁urged	-10.9608
▁비교적	-10.9609
▁학부모	-10.9611
way	-10.9613
매	-10.9614
▁농업	-10.9614
▁Jongno	-10.9616
▁Military	-10.9617
▁회사가	-10.962
▁투표	-10.962
▁왜냐하면	-10.9622
▁ranking	-10.9624
절	-10.9626
▁초등학교	-10.9628
▁pleasant	-10.9636
▁유튜브	-10.9636
▁추석	-10.9636
▁Store	-10.9637
▁familiar	-10.9646
▁Experts	-10.9647
▁lease	-10.9649
▁조사됐다	-10.9652
▁however	-10.9652
▁특성	-10.9654
▁wonder	-10.9656
▁1980	-10.9656
▁카메라	-10.9659
▁말하는	-10.9662
▁포	-10.9668
시켜	-10.9669
▁실시할	-10.9673
달	-10.9676
▁노원구	-10.9678
▁대표팀	-10.9681
▁증거	-10.9687
▁수리	-10.9688
▁탓에	-10.9688
▁방향으로	-10.969
▁약속	-10.9694
▁mood	-10.9696
밖에	-10.9697
▁boost	-10.9699
▁아이가	-10.9701
▁회계	-10.9704
pyo	-10.9705
개발	-10.9711
▁정확히	-10.9711
▁Moo	-10.9712
▁시민들	-10.9717
▁memories	-10.9718
▁꽃	-10.9718
▁기반으로	-10.9719
▁이사	-10.972
▁usage	-10.9721
▁부부	-10.9722
▁인공지능	-10.9725
▁starts	-10.9725
▁담겨	-10.9727
including	-10.9729
▁boat	-10.9734
▁smile	-10.9736
가구	-10.9737
▁운동을	-10.9738
▁진행하는	-10.974
▁쇼핑	-10.9741
▁거에요	-10.9742
호선	-10.9744
▁선정됐다	-10.9747
▁곳이다	-10.9748
▁대책을	-10.9751
▁순위	-10.9751
▁whom	-10.9752
하겠다	-10.9754
▁residence	-10.9754
▁chose	-10.9754
▁관내	-10.9755
조사	-10.9757
▁결론	-10.9757
▁Before	-10.9758
▁이목	-10.9759
▁Ilbo	-10.9768
▁relation	-10.9768
▁replacement	-10.9769
▁올렸다	-10.9769
▁차지하는	-10.977
▁succeeded	-10.9771
▁river	-10.9773
geun	-10.9775
▁기분이	-10.9775
▁reward	-10.9775
▁얻고	-10.9777
▁임기는	-10.9779
▁지역을	-10.9779
▁고려하여	-10.978
▁국토부	-10.9781
▁dogs	-10.9782
▁inform	-10.9783
▁분양	-10.9787
▁아시안게임	-10.9792
▁없도록	-10.9792
▁이재명	-10.9796
▁가졌다	-10.9797
▁정리	-10.9799
서를	-10.98
▁Each	-10.9801
▁ride	-10.9803
▁800	-10.9811
▁Saudi	-10.9823
▁steel	-10.9823
▁Northern	-10.9824
▁건강한	-10.9827
b	-10.9827
▁펀드	-10.9827
▁respondents	-10.9831
▁attendance	-10.9832
▁몽골	-10.9833
▁brain	-10.9839
▁측	-10.9841
▁주식	-10.9844
▁grew	-10.9844
▁automatically	-10.9844
▁기획재정부	-10.9844
▁실현	-10.9851
▁판단했다	-10.9852
▁배터리	-10.9855
▁와	-10.9856
▁감독의	-10.9856
▁징수	-10.9858
▁경우는	-10.986
▁Myeong	-10.9861
▁Koo	-10.9862
▁FC	-10.9862
론	-10.9864
▁unusual	-10.9866
▁securities	-10.9867
▁소송	-10.9867
씩	-10.987
▁의결	-10.9872
▁폐지	-10.9873
▁완료	-10.9874
▁Earlier	-10.9874
▁Hyo	-10.9876
▁공간을	-10.9876
▁나이	-10.9878
▁discovered	-10.9883
▁투어	-10.9883
▁king	-10.9894
운동	-10.9894
▁Elementary	-10.9897
▁전자	-10.9903
▁awards	-10.9905
▁공개한	-10.9907
▁분야에	-10.9908
▁communities	-10.9912
▁Fisheries	-10.9913
▁withdrawal	-10.9914
▁1990	-10.9914
▁지하	-10.9916
▁국민의	-10.9916
▁금감원	-10.9917
▁buyers	-10.9917
▁blind	-10.9917
").	-10.9919
▁kimchi	-10.9919
▁internet	-10.9919
▁upcoming	-10.992
▁수당	-10.992
▁않아도	-10.992
▁샘플	-10.992
평가	-10.992
quality	-10.9924
▁기부	-10.9925
▁사업비	-10.9925
▁Control	-10.9927
▁dedicated	-10.9927
▁situations	-10.9928
▁Shinhan	-10.9929
씨를	-10.993
▁개최한다	-10.9931
▁seeking	-10.9933
▁faith	-10.9934
▁봐	-10.9936
▁반응을	-10.9937
▁롯데	-10.9939
▁애	-10.9941
▁Heritage	-10.9942
▁짧은	-10.9942
▁열었다	-10.9952
▁facts	-10.9954
▁keen	-10.9956
▁잇따라	-10.9957
▁Cooperation	-10.9957
▁다음달	-10.9957
▁examine	-10.9963
▁특수	-10.9964
▁아닙니다	-10.9964
▁Those	-10.9968
▁재판에	-10.9968
▁노래를	-10.997
▁채널	-10.997
▁구글	-10.997
▁일하는	-10.9972
▁식당	-10.9974
▁출석	-10.9975
▁revolution	-10.9982
▁yourself	-10.9988
▁초청	-10.999
▁증가했다	-10.9992
▁수사에	-10.9993
▁그에	-10.9994
▁Yeong	-10.9995
▁Spain	-10.9997
▁faster	-10.9997
▁views	-10.9997
▁Self	-10.9999
▁votes	-11.0003
▁기준을	-11.0003
▁충분한	-11.0006
▁Re	-11.0009
▁쪽	-11.0009
▁acquisition	-11.0011
▁Disaster	-11.0011
▁grant	-11.0012
▁Thanks	-11.0013
▁인수	-11.0015
한다면	-11.0015
▁이탈리아	-11.0016
▁miss	-11.0016
▁Residents	-11.0017
▁의사를	-11.0019
▁수능	-11.0019
▁thoughts	-11.0019
▁traveling	-11.002
범	-11.002
hour	-11.002
bin	-11.0026
▁verification	-11.0026
▁상태에서	-11.0034
▁Starting	-11.0036
▁이어지는	-11.0041
▁우승	-11.0042
골	-11.0043
설	-11.0046
▁garden	-11.005
▁스타트업	-11.0051
성을	-11.0053
▁Sa	-11.0055
▁신고를	-11.0056
▁돼요	-11.0058
▁모아	-11.0059
▁환불	-11.0061
L	-11.0064
▁noise	-11.0065
▁appreciate	-11.0068
▁과학	-11.0069
▁진료	-11.0071
▁Intelligence	-11.0071
▁flexible	-11.0072
▁mall	-11.0074
▁기록한	-11.0076
정책	-11.0076
▁재난	-11.0078
▁비판했다	-11.0078
▁어려울	-11.0079
▁Gyeongsangbuk	-11.008
▁위로	-11.0081
▁마이크	-11.0083
▁달라	-11.0086
▁실	-11.0087
▁Hanoi	-11.0088
▁법무부	-11.0091
▁대상이	-11.0091
▁통	-11.0098
▁형태	-11.0101
ng	-11.0101
▁180	-11.0101
▁발급	-11.0105
▁담당자	-11.0106
▁steps	-11.0109
▁exemption	-11.011
▁장치	-11.011
▁towards	-11.0113
▁수준으로	-11.0114
▁인권	-11.0115
▁Real	-11.0116
▁예를	-11.0117
▁진행할	-11.0119
▁수학	-11.0119
▁운영하고	-11.0119
▁disclosed	-11.0119
단계	-11.0121
▁친구들과	-11.0122
통	-11.0124
▁증가하고	-11.0125
▁underground	-11.0126
▁행사에는	-11.0126
▁regulatory	-11.0128
▁writer	-11.0128
▁adopted	-11.0135
▁사이즈	-11.0137
▁institutes	-11.0138
▁제품에	-11.0138
▁sick	-11.0139
▁조례에	-11.014
▁Head	-11.0141
▁관측이	-11.0141
▁leaves	-11.0142
▁면접	-11.0142
▁professors	-11.0143
▁통계	-11.0145
▁민원	-11.0147
▁demonstration	-11.0149
▁사항이	-11.0153
주세요	-11.0163
▁consensus	-11.0163
▁막기	-11.0164
망	-11.0166
▁신문	-11.0167
하신	-11.0167
▁날이	-11.017
마을	-11.0174
▁어디에	-11.0174
▁owned	-11.0174
▁데다	-11.0175
▁Care	-11.0178
▁donated	-11.0181
▁노사	-11.0182
▁mission	-11.0186
▁과연	-11.0186
▁표시	-11.0187
▁diagnosis	-11.0189
▁사업장	-11.0189
▁필리핀	-11.019
』	-11.0194
▁staying	-11.0195
기간	-11.0195
곡	-11.0196
▁Command	-11.0196
▁옛	-11.02
▁Singer	-11.0203
▁700	-11.0203
▁비밀	-11.0207
▁과제	-11.0208
▁않지만	-11.021
▁corner	-11.0211
▁boy	-11.0212
▁보험	-11.0214
▁의회	-11.0217
▁비리	-11.0218
▁발견	-11.0218
상당히	-11.0219
▁있었고	-11.0221
년으로	-11.0221
▁sit	-11.0222
▁단축	-11.0225
▁Ye	-11.0228
▁도심	-11.023
▁맥주	-11.0231
making	-11.0232
달러	-11.0232
▁bereaved	-11.0233
▁Valley	-11.0234
▁episode	-11.0235
▁agent	-11.0235
▁느낌	-11.0236
▁모르는	-11.0236
하려	-11.0242
▁actress	-11.0243
▁공	-11.0247
▁유출	-11.0248
hyeon	-11.0248
▁때부터	-11.0252
▁strengthened	-11.0255
▁제공하고	-11.026
▁사랑하는	-11.0262
Committee	-11.0263
▁사진이	-11.0264
▁audiences	-11.027
▁fill	-11.0271
▁favorable	-11.0272
40	-11.0273
▁음악을	-11.0276
▁집회	-11.0277
▁zones	-11.028
▁rare	-11.0286
▁데뷔	-11.0286
▁확정	-11.0286
▁편의	-11.0289
▁전시회	-11.0292
차례	-11.0294
▁유일	-11.0296
▁진행될	-11.0297
처리	-11.0298
▁unveiled	-11.0304
▁중국과	-11.0304
안전	-11.0305
▁적절한	-11.0306
곤	-11.0308
▁collecting	-11.0308
▁thus	-11.0311
▁Turkey	-11.0312
▁서비스가	-11.0314
▁Look	-11.0315
▁어디	-11.0317
▁경기도지사가	-11.0319
▁된다는	-11.0322
▁제공할	-11.0326
▁Kia	-11.0327
▁그림	-11.0333
▁paintings	-11.0335
▁넣어	-11.0335
Gun	-11.034
mail	-11.0342
▁recover	-11.0345
▁지사는	-11.0345
▁purposes	-11.0345
시키는	-11.0347
bong	-11.0349
el	-11.0351
▁promise	-11.0351
▁stadium	-11.0352
월에는	-11.0353
▁도와	-11.0355
▁managers	-11.0359
▁founded	-11.0361
▁발행	-11.0364
▁만들었다	-11.0366
▁stood	-11.0366
▁resignation	-11.0366
▁patent	-11.0366
▁삼	-11.0366
▁대표하는	-11.0367
▁gate	-11.0368
▁illegally	-11.0371
▁Three	-11.0373
▁풀	-11.0373
▁Exchange	-11.0374
외	-11.0376
▁기다리고	-11.0376
▁lifelong	-11.0379
▁앞으로도	-11.0383
▁41	-11.0386
▁이야기가	-11.0387
개사	-11.0389
▁personality	-11.0391
▁갈등이	-11.0393
▁전기차	-11.04
▁했고	-11.0401
▁맛이	-11.0409
▁보낼	-11.0413
▁expertise	-11.0413
▁졸업	-11.0416
▁dry	-11.0417
▁경비	-11.0417
▁불러	-11.0418
▁teaching	-11.0421
▁logistics	-11.0423
▁매출이	-11.0423
▁별도로	-11.0423
▁부족	-11.0425
▁luxury	-11.043
▁destination	-11.0431
▁사고로	-11.0434
▁inspections	-11.0436
▁바람이	-11.0436
▁yellow	-11.0439
▁노력이	-11.0439
▁초과	-11.0439
기관	-11.044
▁civilian	-11.0442
▁지구	-11.0442
▁분들이	-11.0442
▁closing	-11.0446
▁사태	-11.0448
ton	-11.0448
▁Joint	-11.0448
▁나설	-11.0449
▁feels	-11.0452
▁conclusion	-11.0455
▁냈다	-11.0455
하실	-11.0458
▁60%	-11.0459
▁요청할	-11.0461
▁관할	-11.0462
▁Rural	-11.0462
us	-11.0462
▁solid	-11.0464
▁사용한	-11.0464
▁사기	-11.0466
▁커뮤니티	-11.0467
▁정상회담을	-11.0469
▁자유롭게	-11.0469
▁voluntary	-11.0471
▁channels	-11.0476
This	-11.0477
▁strategic	-11.0478
▁Songpa	-11.0478
▁map	-11.048
▁상당한	-11.0482
▁빈	-11.0484
▁mutati	-11.0484
▁투자자	-11.0489
▁공격	-11.0491
▁기능이	-11.0494
▁클럽	-11.0498
▁부회장	-11.0498
▁받기	-11.05
▁목숨	-11.0501
▁입장	-11.0502
투	-11.0502
▁되기	-11.0504
▁성폭력	-11.0507
▁tears	-11.0508
▁시책	-11.0508
▁이르는	-11.0509
▁accompanied	-11.051
▁clubs	-11.0511
▁납부	-11.0512
됨에	-11.0514
▁violations	-11.0514
▁소상공인	-11.0517
▁milk	-11.0518
▁recording	-11.052
▁임시	-11.0521
대상	-11.0521
▁함께하는	-11.0522
▁이틀	-11.0523
▁Forum	-11.0526
▁수준	-11.0528
▁직원들이	-11.0528
▁쌀	-11.053
▁mutandis	-11.0533
▁무대	-11.0533
▁이름	-11.0534
law	-11.0534
▁supplied	-11.0534
▁도민	-11.0535
규	-11.0535
▁울산	-11.0537
▁봤다	-11.0538
▁시군	-11.054
▁forget	-11.0545
▁박근혜	-11.0548
▁hundreds	-11.0549
▁serving	-11.0551
▁현대차	-11.0552
▁강의	-11.0554
?"	-11.0556
▁법원	-11.0556
▁Analysts	-11.0557
▁한층	-11.056
▁건축물	-11.0561
▁자유	-11.0564
▁학생들	-11.0564
기에	-11.0566
▁배출	-11.0566
▁외교	-11.0567
▁높이고	-11.0567
▁안정	-11.057
▁fake	-11.057
▁usual	-11.0572
▁Home	-11.0573
▁climate	-11.0573
▁cancellation	-11.0574
▁massive	-11.0575
▁landscape	-11.0576
▁빠진	-11.0579
▁smoothly	-11.0582
▁Following	-11.0583
▁fallen	-11.0584
▁역사를	-11.0585
▁solo	-11.0586
▁백악관	-11.0588
▁preventing	-11.0595
▁previously	-11.0596
▁Officials	-11.0596
▁fit	-11.0597
▁씨는	-11.0598
▁관리를	-11.0598
져	-11.0599
▁종로구	-11.0599
▁제공한다	-11.0601
▁90%	-11.0603
▁반응이	-11.0604
개가	-11.0604
▁afraid	-11.0605
▁Another	-11.0606
▁국민연금	-11.0608
▁bar	-11.061
▁disclose	-11.0611
▁난민	-11.0611
마저	-11.0612
▁대부분이	-11.0613
▁좋습니다	-11.0613
▁가능	-11.0613
▁경위	-11.0614
도로	-11.0614
▁시기	-11.0615
▁smoking	-11.0615
원이	-11.0616
▁height	-11.0616
▁KB	-11.0616
▁주차	-11.0616
▁세상을	-11.0621
▁말해	-11.0623
▁remained	-11.0624
▁맞게	-11.0625
▁자연스럽게	-11.0629
▁방지	-11.0633
▁능력이	-11.0634
▁Girls	-11.0638
▁Gwanak	-11.0639
▁깊이	-11.064
▁능력을	-11.0645
▁Design	-11.0645
▁Bucheon	-11.0646
▁나무	-11.0646
▁통과	-11.0647
▁Me	-11.0647
▁surprised	-11.0647
▁내렸다	-11.0648
▁49	-11.0649
▁영향이	-11.0651
행	-11.0654
▁mom	-11.0656
▁perspective	-11.0657
▁구체적으로	-11.0657
했는지	-11.0659
▁했다는	-11.066
▁governed	-11.0662
▁Mapo	-11.0664
▁accumulated	-11.0664
▁주에	-11.0666
▁카페	-11.0667
▁장애	-11.0669
▁repeatedly	-11.0671
▁classified	-11.0671
▁flag	-11.0678
▁chosen	-11.0678
▁도착	-11.068
▁heritage	-11.0682
▁사유	-11.0682
▁Ltd	-11.0683
▁공부를	-11.0684
▁얼굴	-11.0689
▁46	-11.0691
▁덜	-11.0691
▁Thursday	-11.0692
generation	-11.0694
▁Naver	-11.0695
▁harassment	-11.0695
▁중심의	-11.0695
▁장점이	-11.0695
▁safely	-11.0697
▁soft	-11.0699
▁출산	-11.07
▁공을	-11.07
▁마련됐다	-11.0704
▁hidden	-11.0705
▁지역사회	-11.0705
권을	-11.0705
▁말한	-11.0706
▁중간	-11.0709
▁멋진	-11.0711
▁아무리	-11.0715
▁미래를	-11.0716
▁해석	-11.0716
▁조사하고	-11.0718
▁않기	-11.0719
▁Twitter	-11.0719
le	-11.072
W	-11.0721
▁병	-11.0722
▁formation	-11.0722
▁프리미엄	-11.0725
▁begins	-11.073
▁permanent	-11.0731
▁선언	-11.0734
▁steadily	-11.0735
▁보유	-11.0735
▁Entertainment	-11.0736
▁주차장	-11.0738
▁법령	-11.074
▁dollar	-11.0742
▁Bong	-11.0746
▁removed	-11.0746
금융	-11.0747
▁peak	-11.0748
한테	-11.0748
▁refer	-11.0749
▁restrictions	-11.075
▁voluntarily	-11.0751
▁uncomfortable	-11.0751
▁deeply	-11.0754
▁매주	-11.0755
▁동일한	-11.0759
▁streets	-11.0759
▁L	-11.0763
▁shareholder	-11.0764
▁comment	-11.0765
▁belonging	-11.0766
▁막	-11.0768
▁Which	-11.0769
▁쪽으로	-11.0769
▁Deliberation	-11.0771
▁행복	-11.0772
▁위험이	-11.0773
▁보관	-11.0773
▁implementing	-11.0773
▁보입니다	-11.0773
▁studied	-11.0776
▁auto	-11.0777
▁FTA	-11.0777
▁guests	-11.0778
▁도전	-11.0783
26	-11.0788
▁forecast	-11.0789
▁festivals	-11.0792
▁anxiety	-11.0793
▁회사에	-11.0793
▁하겠다	-11.0794
▁들어간	-11.0795
▁recruit	-11.0796
▁시청자들	-11.0797
▁autumn	-11.0801
▁martial	-11.0802
▁interior	-11.0803
▁이미지	-11.0804
▁진행되고	-11.0804
▁중국에서	-11.0806
▁certified	-11.0807
▁25%	-11.0808
▁왕	-11.0809
▁restoration	-11.0809
▁성공적	-11.0809
호의	-11.0811
▁인사를	-11.0812
커	-11.0812
▁“(	-11.0816
▁추진한다	-11.0819
▁missile	-11.0822
▁무엇인지	-11.0825
POP	-11.0826
▁않다는	-11.0826
at	-11.0826
▁사람들을	-11.083
▁KBO	-11.083
▁frequent	-11.0831
▁emotional	-11.0834
▁manipulation	-11.0834
▁dish	-11.0835
▁일이다	-11.0837
▁비판이	-11.0838
▁Once	-11.0838
▁dreams	-11.0839
▁고급	-11.0839
▁얻을	-11.0842
▁내다봤다	-11.0842
▁전화를	-11.0843
상을	-11.0846
다가	-11.0846
▁opponent	-11.0846
▁나아가	-11.0847
▁Hyung	-11.085
▁compete	-11.085
▁Square	-11.0851
▁즐거운	-11.0851
▁enable	-11.0856
▁항공	-11.0857
▁선박	-11.0858
▁Plan	-11.0859
▁seal	-11.086
▁활동에	-11.0861
서는	-11.0863
▁그렇지	-11.0864
▁fruit	-11.0865
▁phones	-11.0865
▁messages	-11.0865
▁모으고	-11.0868
▁죄송합니다	-11.0869
▁답했다	-11.087
▁soup	-11.087
자의	-11.0872
▁escape	-11.0872
▁관해	-11.0873
▁내년에	-11.0876
▁바람	-11.0877
▁활동이	-11.088
▁음료	-11.0883
▁feet	-11.0884
▁자동	-11.0885
▁화	-11.0886
▁너에게	-11.0887
▁employed	-11.0889
▁평가가	-11.089
▁시는	-11.0892
▁servants	-11.0892
▁aims	-11.0896
▁공동체	-11.0897
▁내용은	-11.0897
▁급격	-11.09
▁포인트	-11.0901
만의	-11.0904
▁extend	-11.0905
▁생긴	-11.0908
리그	-11.0909
▁공원	-11.0909
▁현행	-11.091
▁Doosan	-11.0911
▁출범	-11.0914
▁freedom	-11.0918
▁담겼다	-11.0918
▁현상	-11.0921
▁순	-11.0921
윤	-11.0923
▁Maritime	-11.0925
▁미국에서	-11.0925
age	-11.0926
▁메시지	-11.0928
▁아이를	-11.0931
▁간담회	-11.0932
▁죄송하지만	-11.0933
▁기존에	-11.0937
▁어려움이	-11.0938
▁graduate	-11.0938
▁expense	-11.0938
▁남편	-11.0939
▁고양이	-11.0944
50	-11.0947
▁supplies	-11.095
옥	-11.0951
▁routes	-11.0951
▁achievements	-11.0952
▁Red	-11.0955
▁bicycle	-11.0956
▁W	-11.0958
▁presence	-11.0958
▁배달	-11.0959
▁주관하는	-11.096
▁이곳에	-11.096
우리	-11.0962
▁narrow	-11.0965
▁adjustment	-11.0965
▁관광객	-11.0965
▁폐기물	-11.0966
▁cells	-11.0966
▁principal	-11.0967
▁잔	-11.0969
▁issuance	-11.097
▁문의	-11.0972
▁진행한다	-11.0972
▁다리	-11.0978
▁o	-11.0979
▁Ma	-11.0979
▁cup	-11.098
▁불만	-11.0985
▁quick	-11.0991
▁것보다	-11.0991
▁근로자	-11.0995
▁2002	-11.0996
▁조사한	-11.0999
▁체제	-11.1
▁battery	-11.1
▁경우도	-11.1
▁keeping	-11.1003
▁정책이	-11.1004
▁이상을	-11.101
▁Water	-11.1013
▁초대	-11.1013
들에	-11.102
▁상태로	-11.1021
회의	-11.1022
▁합동	-11.1023
▁효과	-11.1023
▁동기	-11.1024
▁인터뷰에서	-11.1024
▁resulting	-11.1026
▁심리	-11.1028
▁잘못된	-11.1032
▁momentum	-11.1034
▁치	-11.1034
▁multicultural	-11.1035
▁일정이	-11.1036
▁Galaxy	-11.1038
▁transport	-11.1042
▁Southeast	-11.1043
▁기도	-11.1043
▁refused	-11.1044
▁총리가	-11.1044
▁강제	-11.1046
pil	-11.1046
▁위원으로	-11.1048
▁guest	-11.1049
how	-11.105
seo	-11.1052
▁현장을	-11.1053
▁이곳에서	-11.1055
▁존재	-11.1056
▁약간	-11.1056
▁몸을	-11.1059
▁Branch	-11.106
yeol	-11.1061
▁disasters	-11.1062
ae	-11.1067
▁참여했다	-11.1069
▁좋겠다	-11.107
▁상위	-11.107
▁쓰레기	-11.1075
▁repeated	-11.1075
▁cited	-11.1076
▁제기됐다	-11.1078
▁신설	-11.1079
▁Competition	-11.1084
▁골프	-11.1085
▁feasibility	-11.1085
있는	-11.1085
▁올림픽	-11.1088
▁특별히	-11.1088
▁찬성	-11.109
▁maintaining	-11.1091
▁absence	-11.1093
▁Paris	-11.1096
▁matches	-11.1097
▁역	-11.1097
▁『	-11.1098
▁받는다	-11.1098
▁violating	-11.1101
▁pork	-11.1101
▁방향을	-11.1102
▁오랫동안	-11.1102
▁영화가	-11.1103
▁cake	-11.1103
▁본인	-11.1104
profit	-11.1105
▁selecting	-11.1106
▁동물	-11.1108
▁축소	-11.111
▁정당	-11.1111
▁collapsed	-11.1113
▁흐름	-11.1114
자를	-11.1115
▁Post	-11.1118
▁기념	-11.1118
▁학교에서	-11.1119
명에	-11.1121
ment	-11.1122
▁차이	-11.1127
▁sources	-11.1128
▁Amazon	-11.1129
▁settled	-11.1129
▁2001	-11.113
▁크고	-11.1133
▁Jeonju	-11.1137
▁연극	-11.1139
었어요	-11.1139
▁이번에는	-11.1142
▁작성하여	-11.1145
▁Good	-11.1147
스러운	-11.1147
▁화웨이	-11.1148
▁하거나	-11.1149
▁import	-11.115
▁장이	-11.1151
▁Times	-11.1151
▁thoroughly	-11.1153
▁opposed	-11.1154
▁너희	-11.1155
When	-11.1157
▁곡	-11.116
▁성인	-11.1163
▁예상되는	-11.1164
▁displayed	-11.1164
▁smoke	-11.1165
▁없으면	-11.1169
▁peninsula	-11.1169
▁anymore	-11.117
▁개최했다	-11.1173
▁Next	-11.1174
▁Buddhist	-11.1176
▁만나는	-11.1177
▁명절	-11.1178
▁factories	-11.1178
▁holds	-11.1178
▁실수	-11.1179
▁기온이	-11.1179
▁꽤	-11.1183
▁Corp	-11.1187
▁inspect	-11.1187
▁solar	-11.1188
▁대학생	-11.1188
▁시행규칙	-11.1192
▁좋아요	-11.1192
▁소방	-11.1193
▁출발	-11.1195
▁하자	-11.1195
▁때문이에요	-11.1195
▁customs	-11.1197
갈	-11.1198
너	-11.1198
▁단순히	-11.1199
▁번째로	-11.12
▁옷	-11.1201
▁generations	-11.1202
▁willingness	-11.1204
▁목사	-11.1207
▁게임을	-11.1207
▁내는	-11.1207
▁인원	-11.1209
▁theory	-11.1214
▁사항에	-11.1214
▁신임	-11.1221
▁Future	-11.1222
▁Pastor	-11.1226
▁임원	-11.1228
▁최창식	-11.1229
▁환자가	-11.1231
▁화려한	-11.1231
▁행위를	-11.1233
▁부분에	-11.1235
▁뮤지컬	-11.1236
▁눈물	-11.1237
▁closer	-11.124
▁세계에서	-11.1244
▁필요할	-11.1251
▁workplace	-11.1255
suk	-11.1258
▁의무	-11.126
▁가량	-11.1262
▁입학	-11.1265
▁책임	-11.1268
수가	-11.1269
▁기초	-11.1271
▁strategies	-11.1272
▁내내	-11.1273
▁주말에	-11.1276
에요	-11.1279
▁번역	-11.1281
▁enjoying	-11.1287
▁사건의	-11.1287
▁이내로	-11.1288
▁Awards	-11.1288
▁사람들에게	-11.129
▁휴식	-11.1291
▁호에	-11.1294
▁exhibitions	-11.1294
▁자가	-11.1295
▁댄스	-11.1297
▁solved	-11.1297
▁기업에	-11.1299
ga	-11.1301
▁겪는	-11.1304
▁미중	-11.1305
번째	-11.1307
▁마지막으로	-11.1309
▁진행한	-11.1309
▁양성	-11.1309
▁너를	-11.1312
▁Asiana	-11.1313
▁대선	-11.1313
▁portion	-11.1314
▁보존	-11.1315
▁국무위원장이	-11.1315
▁향	-11.1318
▁Olympic	-11.1324
▁모집	-11.1324
▁앱	-11.1325
함	-11.1325
▁과정에	-11.1327
▁총장	-11.1327
▁예능	-11.1327
▁Gwangjin	-11.1335
▁되며	-11.1335
▁glass	-11.1335
▁매각	-11.1341
▁bridge	-11.1343
▁Mike	-11.1345
▁LA	-11.1346
▁제정	-11.1347
▁공간이	-11.1348
▁아기	-11.135
▁celebrate	-11.1355
Park	-11.1356
▁지식	-11.1357
▁Sewol	-11.1358
▁guess	-11.1359
▁identify	-11.1362
▁떠나	-11.1362
▁pieces	-11.1366
▁Prize	-11.1368
▁번호	-11.1368
▁호와	-11.1371
▁aired	-11.1373
▁wine	-11.1375
▁과정이	-11.1376
▁kilometers	-11.1381
▁일주일	-11.1382
▁Job	-11.1383
▁사업자	-11.1383
▁거래소	-11.1384
▁회의에	-11.1384
▁단위	-11.1385
▁subsidiary	-11.1385
▁countermeasures	-11.1386
as	-11.1392
▁spicy	-11.1394
▁지역경제	-11.1395
▁refugees	-11.1396
▁강력	-11.1396
▁특허	-11.1402
▁harmony	-11.1402
▁earnings	-11.1403
▁구속영장	-11.141
합	-11.1412
▁행동	-11.1413
▁honorary	-11.1414
이어서	-11.1415
만을	-11.1417
▁충격	-11.1418
▁자원	-11.1418
▁supposed	-11.1419
▁관객들	-11.142
▁준용한다	-11.142
off	-11.1421
▁phase	-11.1422
▁processed	-11.1422
▁인하	-11.1424
▁파티	-11.1427
▁strange	-11.1427
▁Force	-11.1429
▁안정적인	-11.143
▁테니	-11.143
▁comfort	-11.1432
▁선임	-11.1433
▁대상자	-11.1433
▁beat	-11.1436
▁garbage	-11.1437
▁Summit	-11.1438
▁말씀	-11.1442
▁startups	-11.1446
ar	-11.1449
삼	-11.1449
▁전쟁	-11.1451
▁않는다는	-11.1454
▁새해	-11.1455
▁포함하여	-11.1456
▁fires	-11.1458
▁이때	-11.1459
▁아베	-11.1459
IT	-11.1463
연구	-11.1464
▁outcome	-11.1465
▁연주	-11.1468
▁impose	-11.147
ist	-11.1472
▁서울대	-11.1473
▁학생들은	-11.1477
▁점심	-11.1481
▁관측	-11.1482
▁담배	-11.1483
▁regarded	-11.1484
▁섬	-11.1487
▁온도	-11.1491
▁incumbent	-11.1491
je	-11.1493
▁호응	-11.1493
▁engineering	-11.1494
▁방북	-11.1497
▁최초의	-11.1497
▁보급	-11.1499
▁하는지	-11.1501
▁경쟁이	-11.1502
▁기준에	-11.1505
▁주거	-11.1507
▁행위	-11.151
win	-11.151
층에	-11.1511
▁변	-11.1512
▁charm	-11.1514
▁assembly	-11.1514
▁문화가	-11.1516
▁admitted	-11.1517
▁천	-11.1517
▁worst	-11.1518
▁adult	-11.1518
▁의식	-11.1518
이면	-11.1524
▁보조금	-11.1524
▁mandatory	-11.1525
▁struggling	-11.1525
▁올려	-11.1526
▁answers	-11.1526
겠다	-11.1533
▁소속사	-11.1535
▁prefer	-11.1537
▁위촉한다	-11.1537
▁데이터를	-11.1538
▁찍은	-11.1539
▁정보가	-11.154
▁error	-11.1543
▁draft	-11.1546
▁assaulted	-11.1548
▁Abe	-11.1548
▁위원이	-11.1549
▁준비를	-11.155
“	-11.1551
▁crackdown	-11.1552
▁Exhibition	-11.1552
▁측면에서	-11.1554
yang	-11.1558
▁계획이	-11.1558
▁화가	-11.1558
▁주민의	-11.156
▁시각	-11.1561
▁47	-11.1561
▁neighbors	-11.1561
▁Training	-11.1562
▁존	-11.1563
▁risks	-11.1564
▁ships	-11.1566
▁sun	-11.1566
▁발송	-11.1566
▁analyze	-11.1568
▁생활을	-11.157
▁75	-11.1574
▁열릴	-11.1576
▁2004	-11.1576
▁Conference	-11.1579
▁practices	-11.158
▁south	-11.1581
▁마련된	-11.1586
▁만족도	-11.1587
▁지방자치단체	-11.159
▁north	-11.1591
▁arranged	-11.1591
▁consult	-11.1594
▁producing	-11.1597
co	-11.1598
▁winners	-11.1602
▁저렴한	-11.1605
▁satisfied	-11.1606
▁Resources	-11.1609
▁seriously	-11.1609
▁해제	-11.1609
▁없기	-11.1612
▁royal	-11.1614
▁해소	-11.1616
▁주변에	-11.1618
▁입장이다	-11.1622
▁Goryeo	-11.1624
▁Framework	-11.1625
▁분명히	-11.1625
▁subordinate	-11.163
▁dementia	-11.1633
▁Articles	-11.1634
▁벗어나	-11.1636
▁듯한	-11.164
▁하나가	-11.164
▁controversial	-11.1641
▁swimming	-11.1641
▁timing	-11.1641
▁Club	-11.1642
▁neighborhood	-11.1642
왕	-11.1645
▁본인이	-11.1647
억원이	-11.1649
▁보유하고	-11.1649
▁lowered	-11.1651
▁imports	-11.1652
홍	-11.1654
▁세월호	-11.1655
인이	-11.1656
▁130	-11.1658
▁informed	-11.1658
스타	-11.1658
▁개편	-11.1659
▁검사를	-11.1659
▁Election	-11.166
▁POSCO	-11.166
▁세상	-11.1661
▁John	-11.1662
▁실적이	-11.1664
▁Tuesday	-11.1666
팀이	-11.1666
▁accurate	-11.1667
대학교	-11.1669
Constitutional	-11.1671
▁fails	-11.1672
서울	-11.1674
▁늦게	-11.1674
▁구청장의	-11.1675
▁물이	-11.1678
▁granted	-11.1679
▁disputes	-11.1681
▁즉	-11.1681
▁출연	-11.1682
▁케이팝	-11.1682
▁fighting	-11.1683
▁roof	-11.1685
▁네이버	-11.1685
▁없었던	-11.1686
▁예측	-11.169
ᆞ	-11.1691
▁guard	-11.1693
▁있었는데	-11.1694
▁provision	-11.1696
▁매체	-11.1696
▁clothing	-11.1697
▁최신	-11.17
▁선생님	-11.1701
▁Ga	-11.1703
▁석	-11.1703
▁첨단	-11.1704
▁somewhat	-11.1704
▁balanced	-11.1711
▁UN	-11.1713
▁실시간	-11.1713
▁간사는	-11.1713
▁attempt	-11.1715
▁개방	-11.1719
▁institutional	-11.172
▁차관	-11.1723
▁allowance	-11.1723
▁부분은	-11.1724
년을	-11.1724
▁분석한	-11.1726
▁양측	-11.1726
▁보고서	-11.1727
▁확인한	-11.1729
까요	-11.1731
▁좋겠어요	-11.1732
▁맞지	-11.1734
▁cream	-11.1734
▁무대에	-11.1735
▁방탄소년단	-11.1738
▁확장	-11.1741
▁자국	-11.1742
▁passion	-11.1742
▁유일한	-11.1743
▁Who	-11.1749
▁Theater	-11.1749
▁Commerce	-11.1751
▁어떠한	-11.1751
▁맛있는	-11.1751
▁이뤄진	-11.1752
▁생일	-11.1753
▁limitations	-11.1753
▁많지	-11.1756
▁한식	-11.1758
▁노선	-11.1759
▁높이는	-11.1759
▁이내	-11.1759
▁연구원	-11.176
▁냄새	-11.1761
▁광주시	-11.1764
▁걸릴	-11.1767
▁wild	-11.1769
▁Chosun	-11.177
▁expiration	-11.1776
▁이상으로	-11.1777
▁waves	-11.178
▁보여준다	-11.1781
▁발언을	-11.1781
▁분리	-11.1782
▁공동주택	-11.1783
▁Gun	-11.1783
▁larger	-11.1784
▁늘어날	-11.1785
▁inauguration	-11.1785
▁numbers	-11.1786
▁Uzbekistan	-11.1787
▁힘들	-11.1788
▁Here	-11.179
▁국민이	-11.1793
family	-11.1794
▁invoice	-11.1798
▁Chae	-11.1799
더라도	-11.1802
Chairman	-11.1803
▁Hana	-11.1806
▁일에	-11.181
▁probably	-11.1813
▁Chungnam	-11.1815
▁요청했다	-11.1821
▁신호	-11.1821
▁때가	-11.1821
투자	-11.1822
시스템	-11.1824
▁boyfriend	-11.1829
▁Kookmin	-11.1831
▁많아서	-11.1831
▁차량이	-11.1832
▁지정된	-11.1834
▁risen	-11.1834
▁thorough	-11.1839
▁예비	-11.1839
▁Okay	-11.184
▁perception	-11.1841
▁원칙으로	-11.1842
▁missed	-11.1843
▁라	-11.1845
▁침해	-11.1846
▁미사일	-11.1848
▁곳을	-11.1849
▁promising	-11.185
▁경기도지사	-11.185
▁법정	-11.1851
▁노후	-11.1852
▁복구	-11.1853
▁rock	-11.1854
▁응원	-11.1854
▁마세요	-11.1859
하길	-11.1861
▁종류	-11.1865
▁기업을	-11.1866
활동	-11.1867
▁구간	-11.1868
▁diet	-11.1868
▁서구	-11.187
▁최근에는	-11.187
▁증상이	-11.1872
▁circles	-11.1874
▁abundant	-11.1877
▁angry	-11.1877
▁Jakarta	-11.1877
▁Eui	-11.1877
▁단순	-11.188
▁investigations	-11.1881
▁나가	-11.1894
▁기회	-11.1894
▁의심	-11.1894
▁percentage	-11.1897
주는	-11.1898
▁정의당	-11.1898
▁주목을	-11.1899
▁강도	-11.1899
▁Unions	-11.1902
▁개선을	-11.1903
▁generated	-11.1907
▁압박	-11.1908
▁단독	-11.1909
▁particularly	-11.1909
제도	-11.1909
▁bodies	-11.1913
▁utilizing	-11.1913
▁Protection	-11.1913
▁insufficient	-11.1913
▁농도	-11.1914
코리아	-11.1915
량	-11.1916
▁나눠	-11.1916
▁것이라	-11.1919
▁humans	-11.1919
▁Dream	-11.192
ran	-11.1922
▁appoint	-11.1925
▁미국에	-11.1926
▁김치	-11.1927
▁실무	-11.1927
▁regret	-11.1931
▁insisted	-11.1932
▁이들을	-11.1933
▁방안이	-11.1933
▁Every	-11.1935
▁ID	-11.1936
▁수치	-11.1937
▁Guro	-11.1938
▁리그	-11.1938
▁여유	-11.1939
▁꿈	-11.194
▁piece	-11.1942
▁금액을	-11.1943
▁아들	-11.1946
▁실시하고	-11.1947
▁경제가	-11.1949
▁들을	-11.1949
de	-11.1952
▁성장을	-11.1952
▁당국	-11.1952
▁FA	-11.1953
▁minimize	-11.1959
▁그렇다면	-11.196
▁Any	-11.1963
▁copy	-11.1965
▁서초구	-11.1965
▁개인정보	-11.197
▁고양시	-11.1972
▁operates	-11.1977
▁states	-11.1979
▁sauce	-11.198
▁그에게	-11.1982
▁JTBC	-11.1982
▁사고를	-11.1983
▁tend	-11.1991
행정	-11.1993
▁협상이	-11.1994
▁curious	-11.1996
▁joining	-11.2003
▁박물관	-11.2003
▁sitting	-11.2007
▁vegetables	-11.2007
▁높게	-11.2007
▁코스	-11.2007
등급	-11.2009
▁note	-11.201
27	-11.2011
▁매월	-11.2015
▁slowdown	-11.2024
▁널리	-11.2025
▁미군	-11.2025
▁partially	-11.2025
▁killing	-11.2028
위로	-11.2028
▁철거	-11.2029
▁부처	-11.2033
▁뿌리	-11.2037
▁관리에	-11.2038
▁봄	-11.2039
▁연락을	-11.2042
▁link	-11.2043
▁집으로	-11.2044
하였고	-11.2045
▁earth	-11.2046
▁truck	-11.2047
▁시리즈	-11.205
▁54	-11.2052
▁officio	-11.2053
▁temple	-11.2055
▁기관의	-11.2056
▁bond	-11.2056
▁세계적으로	-11.2056
▁Environmental	-11.2059
▁Sin	-11.206
▁여론	-11.2061
[	-11.2061
▁indicators	-11.2061
▁그럴	-11.2063
▁의도	-11.2063
▁자리가	-11.2065
▁시설물	-11.2065
▁나오지	-11.2069
▁파견	-11.2071
▁exactly	-11.2073
▁내놓은	-11.2075
▁성폭행	-11.2075
▁제도를	-11.2075
▁토요일	-11.2075
▁die	-11.2075
▁정책에	-11.2077
스포츠	-11.2077
▁있다며	-11.2079
▁할지	-11.208
되거나	-11.2081
▁2.5	-11.2084
kyun	-11.2085
▁맡아	-11.2086
▁내지	-11.2088
▁떨어지는	-11.2088
▁stages	-11.209
▁folk	-11.2091
▁Star	-11.2093
▁어머니	-11.2097
▁환경부	-11.2098
▁funding	-11.2098
▁harmful	-11.2099
▁협업	-11.2099
▁Jeonnam	-11.2102
▁statements	-11.2102
▁경고	-11.2103
▁advertisement	-11.2103
▁군사	-11.2104
▁하던	-11.2107
bak	-11.2107
▁Does	-11.2107
▁늘었다	-11.2108
▁manpower	-11.2108
▁effectively	-11.2111
▁앉아	-11.2112
▁sexually	-11.2114
▁preservation	-11.2119
▁literature	-11.2119
▁신체	-11.212
▁즐기는	-11.2124
적이고	-11.2125
액	-11.2126
▁계산	-11.2126
▁맡고	-11.2127
▁생각하고	-11.2135
▁2014,	-11.2135
▁다음과	-11.2135
▁reviews	-11.2146
Presidential	-11.2149
▁earned	-11.215
▁공정	-11.2151
▁구청장	-11.2152
▁Chan	-11.2155
▁offers	-11.2155
▁denied	-11.2155
▁당분간	-11.2157
▁프로	-11.2158
▁내려	-11.2158
▁franchise	-11.2159
▁stayed	-11.2162
▁대학교	-11.2164
▁무려	-11.2165
▁높았다	-11.2166
▁폐기	-11.217
ant	-11.2173
▁consultations	-11.2174
▁collaboration	-11.2174
▁constantly	-11.2175
gyu	-11.2175
국가	-11.2175
▁작품이	-11.2176
▁ban	-11.2177
▁여권	-11.2178
▁된다고	-11.2178
▁동네	-11.2179
▁통보	-11.218
▁북측	-11.2182
▁membership	-11.2185
▁치열한	-11.2185
▁temperatures	-11.2186
▁소규모	-11.2187
▁reviewing	-11.2189
▁배경	-11.2189
여명	-11.219
▁excluding	-11.2194
▁태권도	-11.2195
▁당사자	-11.2195
▁Tour	-11.2195
▁불과	-11.2196
▁seniors	-11.2197
▁정도가	-11.2198
▁소장	-11.22
▁한인	-11.2203
▁Italy	-11.2204
▁발생해	-11.2205
▁농산물	-11.2205
버	-11.2206
▁지수	-11.2207
▁근처에	-11.2207
려고	-11.2213
▁Uijeongbu	-11.2213
▁bread	-11.2213
▁사유로	-11.2213
▁위협	-11.2214
읍	-11.2215
▁무리	-11.2215
▁scholarship	-11.2216
편	-11.2217
억원으로	-11.2217
▁girlfriend	-11.2218
▁sensitive	-11.2226
▁beach	-11.2227
▁애플	-11.223
▁넘치는	-11.223
by	-11.2231
▁assistance	-11.2231
▁독특한	-11.2231
▁tuition	-11.2233
▁Gimpo	-11.2233
▁드리겠습니다	-11.2235
▁Airlines	-11.2235
▁촉진	-11.2236
체험	-11.2237
▁격차	-11.2242
▁Members	-11.2244
▁KTX	-11.2245
츠	-11.2248
▁한계가	-11.2248
▁Hwa	-11.2249
▁디	-11.225
대의	-11.225
▁fundamental	-11.2253
▁비율	-11.2254
▁Dr	-11.2258
▁Lunar	-11.226
▁subscription	-11.2264
▁studio	-11.2264
▁기독교	-11.2264
▁활약	-11.2265
▁폐쇄	-11.2268
▁unexpected	-11.2268
시킨	-11.2268
▁시정	-11.2268
person	-11.2269
▁실내	-11.227
▁훌륭한	-11.2272
▁당한	-11.2278
▁intended	-11.2278
▁통보하여야	-11.228
▁형사	-11.2282
▁진단	-11.2284
▁야구	-11.2286
▁진행했다	-11.2288
▁급여	-11.2289
President	-11.229
▁실패	-11.2291
습니까	-11.2291
▁바꿔	-11.2291
▁실질적인	-11.2292
▁지원사업	-11.2295
(5	-11.2296
▁기대감	-11.2298
▁시작됐다	-11.2299
▁critical	-11.2299
▁citing	-11.23
▁첨부	-11.23
▁teach	-11.23
▁client	-11.2302
▁expressing	-11.2302
▁허용	-11.2302
▁Revolution	-11.2303
▁answered	-11.2304
▁GS	-11.2307
▁volunteers	-11.2307
▁temporarily	-11.2308
▁이게	-11.2309
▁51	-11.2315
▁subscribers	-11.2316
▁Yeo	-11.2316
▁곧바로	-11.2317
▁assigned	-11.2319
▁서울의	-11.2319
▁가질	-11.232
▁판	-11.2322
▁문화재	-11.2322
▁않을까	-11.2324
▁length	-11.2326
▁systematic	-11.2327
▁살아	-11.2327
▁계정	-11.2327
My	-11.233
▁아프리카	-11.233
▁하나님의	-11.2332
▁주민이	-11.2333
▁조례에서	-11.2333
▁한해	-11.2335
▁hearts	-11.2335
▁west	-11.2337
▁열기	-11.2337
▁Winter	-11.234
▁선적	-11.2344
풍	-11.2346
▁Chi	-11.235
▁separated	-11.2353
▁부상	-11.2353
하되	-11.2353
지가	-11.2354
과장	-11.2355
▁artistic	-11.2356
▁pursue	-11.2357
▁영화는	-11.2357
▁위원회에	-11.2358
▁부정	-11.2358
▁가능할	-11.2359
▁Given	-11.236
▁5%	-11.2361
검사	-11.2363
▁precious	-11.2364
▁ministries	-11.2365
▁심지어	-11.2365
제를	-11.2369
▁reflecting	-11.237
▁faced	-11.2374
계획	-11.2378
▁능력	-11.2381
▁며칠	-11.2382
▁fostering	-11.2385
▁Coast	-11.2389
arious	-11.2389
▁설정	-11.239
손	-11.239
▁되도록	-11.239
▁scores	-11.2392
▁ferry	-11.2394
▁Contest	-11.2394
▁이래	-11.2397
▁위촉직	-11.2399
▁donations	-11.2399
▁정식	-11.2401
▁stronger	-11.2401
fledged	-11.2403
▁다르게	-11.2404
▁considerable	-11.2404
토록	-11.2404
hun	-11.2404
▁천안	-11.2409
▁VR	-11.241
▁sixth	-11.2411
▁treat	-11.2411
여성	-11.2412
▁경계	-11.2413
▁곳곳에	-11.2415
▁반영	-11.2416
▁reveal	-11.2419
▁고발	-11.242
▁colonial	-11.2423
▁휴대전화	-11.2425
▁struggle	-11.2425
▁pitcher	-11.2428
▁아침에	-11.2429
▁advertisements	-11.2429
브	-11.2431
▁몸이	-11.2433
▁withdraw	-11.2436
▁보내는	-11.244
▁종	-11.244
▁개봉	-11.2442
주택	-11.2443
되어야	-11.2444
▁둔화	-11.2444
▁항공기	-11.2447
▁맞은	-11.2448
▁담당하는	-11.2448
▁가끔	-11.2448
▁수행할	-11.245
▁emotions	-11.245
▁만들어진	-11.2452
▁작업이	-11.2454
▁secondary	-11.2457
▁답	-11.2458
▁Investigation	-11.2459
▁aim	-11.2461
▁영향력	-11.2463
▁형태의	-11.2463
▁촉구했다	-11.2464
▁컸다	-11.2465
▁빅데이터	-11.2465
▁intensive	-11.2466
▁tension	-11.247
▁marks	-11.2472
▁시간은	-11.2472
▁인정되는	-11.2473
▁예산이	-11.2473
about	-11.2473
28	-11.2475
▁안보	-11.2475
▁shipment	-11.2477
▁상장	-11.2477
(2	-11.2478
▁기업과	-11.2481
▁달라고	-11.2481
기준	-11.2481
▁academy	-11.2481
사회	-11.2482
여서	-11.2482
▁typical	-11.2483
▁Card	-11.2484
▁기대가	-11.2484
▁cutting	-11.2486
▁1970	-11.2488
▁letters	-11.2488
▁reserve	-11.2491
▁사건에	-11.2491
hyuk	-11.2492
▁Gi	-11.2492
▁consultati	-11.2497
▁breaking	-11.2498
▁발견됐다	-11.2501
▁상가	-11.2502
이라면	-11.2503
▁중학교	-11.2503
▁자료에	-11.2504
걸	-11.2504
▁beef	-11.2505
▁발견된	-11.2505
▁벌이고	-11.2505
▁사용해	-11.2507
▁판정	-11.2509
으나	-11.2509
천만	-11.251
▁otherwise	-11.2511
▁cat	-11.2512
▁구단	-11.2513
▁heating	-11.2514
▁피의자	-11.2515
▁발전에	-11.2516
▁필수	-11.2516
▁써	-11.2516
▁개설	-11.2517
▁시범	-11.2519
▁되길	-11.2519
▁병원에	-11.252
▁소관	-11.252
▁Gangdong	-11.2521
▁보인	-11.2522
▁세금	-11.2522
▁측정	-11.2522
거리	-11.2523
▁품목	-11.2525
▁정지	-11.2525
▁종종	-11.253
▁통제	-11.2535
▁Will	-11.2537
▁주지	-11.2538
▁Africa	-11.254
령	-11.254
▁산업혁명	-11.2542
곳이	-11.2543
▁규모로	-11.2543
▁(1	-11.2545
▁역사적	-11.2549
▁경기도내	-11.2549
▁면제	-11.2551
▁Hello	-11.2553
▁easing	-11.2554
▁settle	-11.2557
com	-11.2557
하면서도	-11.2561
겠다는	-11.2562
▁속도가	-11.2565
▁되면서	-11.2565
▁cloud	-11.2566
▁sustainable	-11.257
▁Major	-11.257
▁입지	-11.2571
▁감시	-11.2571
General	-11.2572
락	-11.2573
▁대통령을	-11.2578
▁대법원장	-11.2578
패	-11.2579
▁Heavy	-11.2579
▁타격	-11.2581
▁solutions	-11.2581
▁방식을	-11.2581
▁검증	-11.2581
▁minor	-11.2584
x	-11.2585
▁chat	-11.2588
▁noodles	-11.2589
▁사업으로	-11.2589
▁이곳은	-11.2595
공사	-11.2596
▁입법	-11.2597
▁1998	-11.26
▁아니지만	-11.26
▁Like	-11.2605
▁벌	-11.2608
▁Gyeong	-11.2608
▁소유	-11.2609
▁허위	-11.2609
톤	-11.261
가요	-11.2611
▁서명	-11.2611
됐으며	-11.2612
▁초반	-11.2612
▁사이트	-11.2614
▁손흥민	-11.2616
▁proud	-11.2617
▁소송을	-11.2618
▁쏠리고	-11.2619
▁scenes	-11.2619
▁알아	-11.262
▁인생	-11.2621
▁돌	-11.2622
▁anger	-11.2623
▁stake	-11.2624
도지사	-11.2624
빈	-11.2625
▁succeed	-11.2626
▁국가가	-11.2626
▁concrete	-11.2628
▁reviewed	-11.2631
▁주기	-11.2632
▁않아서	-11.2634
▁과목	-11.2635
▁pastor	-11.2637
▁deceased	-11.2638
▁analyzing	-11.2641
▁높이기	-11.2642
▁수준을	-11.2643
▁wastes	-11.2643
▁받았습니다	-11.2645
▁restricted	-11.2646
▁collective	-11.2648
▁엄청난	-11.2649
▁회사에서	-11.2651
▁본사	-11.2651
▁LED	-11.2652
▁수준이	-11.2655
억달러	-11.2656
▁impressive	-11.2658
▁조명	-11.2658
▁Gyeongju	-11.266
te	-11.266
▁violated	-11.266
▁attractions	-11.2661
▁interviews	-11.2664
▁weapon	-11.2665
▁운영한다	-11.2665
▁개정안	-11.2666
▁기관이	-11.2669
▁fail	-11.2674
▁east	-11.2675
▁오면	-11.2676
▁말까지	-11.2676
향	-11.2677
돼야	-11.2677
▁투자가	-11.2678
▁많습니다	-11.2678
▁recession	-11.2678
▁Transportation	-11.2679
▁western	-11.268
▁joy	-11.2681
▁지사	-11.2681
z	-11.2684
▁음식이	-11.2685
▁다음에	-11.2686
▁아예	-11.2688
▁counter	-11.269
▁과일	-11.2691
▁뜻	-11.2693
▁expectation	-11.2695
▁마련한	-11.2695
호서식	-11.2697
▁Library	-11.2699
▁어렵다는	-11.2701
해왔다	-11.2701
▁abandoned	-11.2702
▁확인했다	-11.2702
▁지원하고	-11.2703
▁드론	-11.2704
▁restore	-11.2705
▁회사는	-11.2706
▁실시하는	-11.2707
▁넓은	-11.2707
▁화장실	-11.2711
사업을	-11.2713
▁certificates	-11.2714
▁참가한	-11.2714
▁상승세	-11.2715
졌습니다	-11.2715
▁colorful	-11.2717
▁Super	-11.2719
▁Woori	-11.2723
▁결정했다	-11.2724
▁정기	-11.2727
so	-11.2728
음	-11.273
▁물량	-11.2731
▁각국	-11.2731
▁거주	-11.2732
▁kitchen	-11.2734
▁manufacturers	-11.2734
▁신발	-11.2736
▁제시한	-11.2738
▁끌었다	-11.2738
▁용인	-11.274
▁함은	-11.274
▁인정할	-11.2741
▁사업이다	-11.2742
사의	-11.2743
▁attraction	-11.2744
성과	-11.2746
▁달에	-11.2746
▁fines	-11.2747
▁민족	-11.275
dang	-11.2751
극	-11.2753
▁이미지를	-11.2753
에만	-11.2755
▁surprise	-11.2756
▁느끼는	-11.2756
▁Period	-11.2757
▁Brexit	-11.2761
예	-11.2762
▁carbon	-11.2765
▁지사가	-11.2765
▁일상	-11.2766
▁교통사고	-11.2766
▁preferential	-11.2767
▁dealing	-11.277
▁subcommittee	-11.2775
▁마리	-11.2779
5,000	-11.278
▁쉬운	-11.2783
▁booked	-11.2783
ma	-11.2785
▁아니고	-11.2786
말	-11.2786
▁지체	-11.2788
▁판사	-11.2788
▁guilty	-11.2788
▁Shanghai	-11.2789
▁부정적	-11.2791
▁Myanmar	-11.2798
▁London	-11.2798
▁graduates	-11.2801
▁장면이	-11.2802
기로	-11.2807
▁Audit	-11.2808
▁smell	-11.2811
▁요청한	-11.2815
▁qualification	-11.2816
▁갤럭시	-11.2816
▁지닌	-11.2816
▁explains	-11.2819
▁calculated	-11.2819
▁딱	-11.282
▁Jinju	-11.2821
▁democracy	-11.2826
▁준비한	-11.2827
▁준다	-11.2829
▁정황	-11.2831
▁Bio	-11.2834
▁자카르타	-11.2835
▁복귀	-11.2835
축제	-11.2838
▁마련했다	-11.2841
보험	-11.2842
▁보내고	-11.2845
▁53	-11.2851
▁끝나고	-11.2854
▁violate	-11.2855
▁달성	-11.2855
▁contain	-11.2856
▁bear	-11.2857
▁59	-11.2858
하라고	-11.2861
▁증상	-11.2865
▁Open	-11.2867
▁pace	-11.2869
▁관람	-11.2869
▁통상	-11.2873
▁텐데	-11.2873
▁delegation	-11.2875
▁Property	-11.2878
▁affiliates	-11.2881
▁최악	-11.2881
▁hometown	-11.2886
▁내게	-11.2888
▁furniture	-11.2888
▁얻은	-11.2888
▁revise	-11.2896
▁shortly	-11.2896
▁늘어나고	-11.2898
▁kids	-11.2899
▁tariff	-11.2899
▁국	-11.2899
▁전문성	-11.2901
▁너무나	-11.2902
▁주최하고	-11.2902
경영	-11.2906
▁revitalization	-11.2908
▁폭염	-11.2909
▁pending	-11.2912
병원	-11.2913
▁계속해서	-11.2913
▁시청	-11.2915
▁클라우드	-11.2915
▁Private	-11.2915
▁achievement	-11.2917
세계	-11.2918
▁relocation	-11.2919
▁indoor	-11.2919
▁주력	-11.2921
▁사례를	-11.2922
▁childbirth	-11.2929
▁막을	-11.2933
▁이뤄지지	-11.2933
▁무역전쟁	-11.2937
▁검색	-11.2938
▁Students	-11.2939
집니다	-11.2939
▁들어갔다	-11.2939
▁England	-11.2941
▁원인이	-11.2941
▁Except	-11.2943
▁cycle	-11.2944
▁titled	-11.2945
▁alliance	-11.2947
▁walls	-11.2947
돌	-11.2947
▁rumors	-11.2947
▁동료	-11.2948
▁cargo	-11.2951
▁기분	-11.2952
▁장점	-11.2953
▁contained	-11.2953
▁convention	-11.2955
Japan	-11.2955
▁출전	-11.2958
▁시기에	-11.2958
▁Football	-11.2959
▁Plaza	-11.296
▁강연	-11.2961
▁완전	-11.2962
▁제외하고는	-11.2963
▁가족과	-11.2963
▁크리스마스	-11.2964
▁Yeosu	-11.2965
▁시에	-11.2965
▁종이	-11.2965
▁seminar	-11.2966
감독	-11.2974
▁누군가	-11.2974
▁끈다	-11.2974
해도	-11.2976
▁밴드	-11.2976
▁Persons	-11.2977
▁커	-11.2979
▁언제나	-11.2981
▁Drug	-11.2981
▁Establishment	-11.2981
▁모았다	-11.2984
▁Mun	-11.2984
대회	-11.2985
▁세트	-11.2987
▁지연	-11.2988
▁72	-11.2992
▁친	-11.2993
▁밖으로	-11.2997
▁재료	-11.2999
▁박람회	-11.2999
▁곳곳에서	-11.2999
▁incentives	-11.3002
▁왔습니다	-11.3004
▁Jeonbuk	-11.3004
▁생각에	-11.3005
▁uniform	-11.3005
교회	-11.3007
like	-11.3007
▁로봇	-11.3008
▁turns	-11.3008
▁promotional	-11.3009
▁행보	-11.301
▁entity	-11.301
해주는	-11.3013
▁Doo	-11.3014
▁기소	-11.3018
▁누구	-11.3018
▁지분	-11.302
▁software	-11.3021
▁당연히	-11.3021
▁super	-11.3022
▁망	-11.3023
▁GM	-11.3027
▁알리는	-11.3028
▁evaluate	-11.3028
▁equality	-11.3032
▁국민들	-11.3033
▁화면	-11.3034
▁coal	-11.3035
▁lights	-11.3035
▁원내대표가	-11.3036
조례	-11.3037
▁무대를	-11.3038
▁대체로	-11.304
▁설비	-11.3041
자로	-11.3041
▁상생	-11.3041
▁폭력	-11.3043
▁절감	-11.3048
▁demanding	-11.3048
▁supporters	-11.3049
ive	-11.305
▁위탁할	-11.3051
▁Heo	-11.3051
▁reflects	-11.3051
▁solving	-11.3051
▁restructuring	-11.3052
▁soil	-11.3052
▁사용하고	-11.3052
▁equity	-11.3054
▁기사	-11.3054
▁마찬가지로	-11.3055
▁talented	-11.3055
▁sufficient	-11.3057
guk	-11.3057
▁갖추고	-11.3057
▁finals	-11.3058
▁실행	-11.3062
▁고기	-11.3062
J	-11.3063
▁방법은	-11.3064
▁감	-11.3064
23	-11.3064
▁종목	-11.3066
언	-11.3069
▁실천	-11.307
shin	-11.307
29	-11.3071
▁nursing	-11.3072
▁opposite	-11.3072
▁monetary	-11.3074
▁들어가는	-11.3075
▁이뤄졌다	-11.3077
▁미칠	-11.3078
▁전략을	-11.3078
▁engage	-11.3078
▁signal	-11.3079
▁놀이	-11.3081
▁대다수	-11.3081
▁workshop	-11.3082
22	-11.3082
▁scenery	-11.3083
▁포상	-11.3085
▁노하우	-11.3085
▁Gumi	-11.3087
▁cast	-11.3088
▁63	-11.3088
▁2003	-11.3091
▁바이오	-11.3093
▁shock	-11.3096
▁강화를	-11.3098
Japanese	-11.31
▁봉사	-11.3102
▁Prosecutor	-11.3104
▁characterized	-11.3104
▁churches	-11.3105
▁진입	-11.3106
▁체육	-11.3112
▁Congress	-11.3114
▁대중교통	-11.3115
▁고양	-11.3116
▁claiming	-11.3119
da	-11.3121
▁glad	-11.3123
법인	-11.3123
▁정착	-11.3124
▁Black	-11.3125
▁‘2019	-11.3126
▁성능	-11.3127
애	-11.3128
▁농촌	-11.3128
▁targets	-11.313
▁confident	-11.3135
▁parks	-11.3136
▁Judge	-11.3136
▁중국에	-11.3137
▁칼	-11.3138
▁68	-11.314
▁happens	-11.314
보호	-11.3142
▁crowded	-11.3146
알	-11.3149
▁투입	-11.3151
▁드립니다	-11.3152
▁강서구	-11.3152
▁용	-11.3152
finding	-11.3152
▁moves	-11.3153
▁hire	-11.3155
▁비전	-11.3155
▁모임	-11.3155
▁종사자	-11.3159
▁마음	-11.3159
▁제거	-11.3163
▁dismissal	-11.3167
▁말할	-11.3174
▁점포	-11.3181
▁부진	-11.3183
▁하노이	-11.3184
▁무죄	-11.3184
▁후원	-11.3185
▁Prevention	-11.3186
▁탄	-11.3187
▁sponsored	-11.3187
되었고	-11.3188
▁보면서	-11.3189
▁보고서를	-11.319
였습니다	-11.3191
▁exist	-11.3192
▁Regulations	-11.3192
▁pledge	-11.3195
▁Expressway	-11.3197
▁Leader	-11.3198
▁1999	-11.32
▁고교	-11.3202
▁차가	-11.3203
▁참여하고	-11.3205
▁보지	-11.3207
▁confusion	-11.3207
▁일환으로	-11.3207
▁Lake	-11.3207
▁않았던	-11.3208
▁utilization	-11.3208
▁후에는	-11.3212
▁경기도에	-11.3214
▁가동	-11.3215
▁intellectual	-11.3217
▁열차	-11.3217
▁Smart	-11.3217
▁corresponding	-11.3219
▁Dongdaemun	-11.3219
▁전반에	-11.3221
▁everyday	-11.3222
▁갖는	-11.3228
▁브렉시트	-11.3231
▁ratings	-11.3231
복지	-11.3235
▁20,000	-11.3236
▁helpful	-11.3237
▁수용	-11.3245
Since	-11.3246
▁중입니다	-11.3247
▁assistant	-11.3249
▁pregnant	-11.325
▁시민단체	-11.3251
▁어깨	-11.3251
▁끊임없	-11.3251
▁지나	-11.3251
▁hired	-11.3252
탄	-11.3253
▁심한	-11.3253
▁주최	-11.3254
bok	-11.3255
▁조처	-11.3259
▁정원	-11.326
▁Ambassador	-11.326
▁이익을	-11.3263
청소년	-11.3265
▁Great	-11.3265
▁extraordinary	-11.327
▁지위	-11.3271
▁resource	-11.3271
general	-11.3278
숙	-11.328
▁Spanish	-11.3281
▁살펴보면	-11.3282
▁조금씩	-11.3282
▁명예	-11.3282
▁조치가	-11.3283
▁문제점	-11.3283
▁FSS	-11.3285
▁당해	-11.3285
▁inning	-11.3289
체계	-11.329
▁accommodation	-11.3291
▁요구할	-11.3294
▁makeup	-11.3296
▁상영	-11.3298
▁smaller	-11.3298
▁발생하지	-11.3302
▁핸드폰	-11.3304
▁주제	-11.3304
▁모인	-11.3305
▁구입	-11.3307
▁이어진	-11.3308
▁다수의	-11.3309
▁투수	-11.331
▁불편을	-11.331
▁Daewoo	-11.3312
▁트위터	-11.3312
▁홈	-11.3312
▁몇몇	-11.3313
jeon	-11.3315
▁exit	-11.3316
촌	-11.3318
he	-11.3318
▁특징	-11.332
▁부탁	-11.3321
있다	-11.3323
▁64	-11.3323
▁Bu	-11.3323
▁Panmunjom	-11.3324
▁faces	-11.3324
▁베이징	-11.3325
▁연임	-11.3326
▁instructors	-11.3326
shaped	-11.3327
▁고정	-11.333
▁curiosity	-11.3334
▁Authority	-11.3334
▁Bible	-11.3334
▁권리	-11.3334
▁robot	-11.3335
EU	-11.3337
▁speaking	-11.3337
▁정상이	-11.3337
▁임직원	-11.3337
▁correction	-11.3338
원으로	-11.3339
▁De	-11.3341
▁unemployment	-11.3344
▁구민	-11.3345
▁의지가	-11.3347
▁원칙	-11.3351
듯	-11.3351
▁Be	-11.3352
rs	-11.3355
▁독서	-11.3355
▁fever	-11.3355
▁점수	-11.3363
▁acquired	-11.3367
▁charging	-11.3368
▁radio	-11.3368
▁연수	-11.3369
분석	-11.337
▁welcome	-11.3375
ul	-11.3375
▁증가하는	-11.3376
▁Chungcheongnam	-11.3377
▁movements	-11.338
▁나한테	-11.338
▁디스플레이	-11.3381
▁배우고	-11.3384
▁savings	-11.3386
▁Above	-11.3387
▁apology	-11.3387
▁정의	-11.3388
▁iron	-11.3389
▁서울시가	-11.3392
▁창원	-11.3393
▁소비자가	-11.3393
▁가기	-11.3395
▁전직	-11.3398
▁Instead	-11.3399
▁hate	-11.3399
▁그리	-11.34
▁입원	-11.34
▁영수증	-11.3401
▁Building	-11.3401
▁unions	-11.3404
▁행사로	-11.3405
▁56	-11.3408
▁championship	-11.3408
력	-11.3408
▁어디서	-11.3409
▁Democracy	-11.3409
▁constructed	-11.341
▁중에는	-11.3412
▁승리를	-11.3412
▁팀을	-11.3413
▁기억	-11.3413
▁요구가	-11.3415
Although	-11.3417
▁문자	-11.3418
▁확실히	-11.342
▁위기에	-11.3421
차량	-11.3422
▁2021	-11.3423
▁작성한	-11.3424
▁진실	-11.3428
▁다섯	-11.3428
▁대표이사	-11.3431
▁legislative	-11.3431
deok	-11.3431
▁조작	-11.3434
▁중소	-11.344
▁renewable	-11.344
▁Thai	-11.3442
▁일고	-11.3443
▁defeat	-11.3444
ui	-11.3445
▁이처럼	-11.3448
▁일본에서	-11.345
▁reconstruction	-11.3451
자에게	-11.3453
▁서울에서	-11.3454
▁차세대	-11.3456
▁하더라도	-11.3457
▁제목	-11.3458
▁인하여	-11.3458
▁옆	-11.3459
management	-11.346
▁선호	-11.346
▁지금도	-11.346
▁pride	-11.3462
▁deficit	-11.3462
▁보완	-11.3463
▁사정이	-11.3464
elecommunication	-11.3467
▁apologize	-11.347
▁폭로	-11.347
▁wooden	-11.3473
▁사건은	-11.3481
52	-11.3481
연구소	-11.3485
▁thousands	-11.3485
나무	-11.3487
um	-11.3487
율	-11.3487
▁소프트웨어	-11.3488
▁과도한	-11.3489
▁marked	-11.349
▁휴대폰	-11.3491
▁용역	-11.3491
건으로	-11.3492
▁규칙은	-11.3494
▁(2),	-11.3494
▁novel	-11.3494
▁있었어요	-11.3495
▁monitor	-11.3497
▁화성	-11.35
▁Q	-11.35
▁제시	-11.3502
seon	-11.3505
▁거듭	-11.3508
▁재산	-11.3509
▁축하	-11.3509
▁liked	-11.3509
▁추진을	-11.351
▁숨	-11.3512
▁법원이	-11.3513
▁차별	-11.3514
▁높고	-11.3515
▁danger	-11.3515
▁국립	-11.3517
▁남녀	-11.352
에너지	-11.3523
▁든	-11.3523
▁매력을	-11.3523
▁row	-11.3526
▁담고	-11.3526
▁꼽힌다	-11.3527
▁84	-11.3529
▁semi	-11.3532
▁비행	-11.3532
▁160	-11.3538
▁한때	-11.354
▁winds	-11.3543
▁정규직	-11.3544
▁파주	-11.3544
▁입시	-11.3544
▁조언	-11.3545
jang	-11.3548
ry	-11.3548
▁유해	-11.3548
▁rehabilitation	-11.3549
▁equivalent	-11.3549
▁개입	-11.355
▁청	-11.3553
▁명령	-11.3553
쇼	-11.3554
▁직전	-11.3554
▁접근	-11.3555
▁50,000	-11.3557
▁gifts	-11.3557
▁농가	-11.3558
▁경력	-11.356
▁가능하며	-11.356
이랑	-11.3561
▁김씨가	-11.3566
▁관리하는	-11.3566
▁pool	-11.3567
관광	-11.3571
▁calculation	-11.3571
▁이상인	-11.3571
▁그림을	-11.3571
▁류	-11.3573
▁차질	-11.3576
Act	-11.3577
▁witness	-11.3578
▁소중한	-11.3583
▁북한에	-11.3585
▁mine	-11.3587
▁언급한	-11.3587
▁진정한	-11.359
▁이거	-11.3591
▁행동을	-11.3593
▁연출	-11.3598
일로	-11.3598
be	-11.3599
▁바라	-11.3602
▁hole	-11.3602
▁advisory	-11.3603
▁existence	-11.3608
▁지방선거	-11.3609
▁요구했다	-11.3609
▁sleeping	-11.361
공원	-11.3612
▁특유의	-11.3613
▁installing	-11.3613
▁몸에	-11.3616
▁생길	-11.3621
▁소비자들	-11.3623
▁재개	-11.3624
▁graduation	-11.3624
beom	-11.3624
ranking	-11.3624
▁차원의	-11.3626
국제	-11.3627
데다	-11.3629
▁자회사	-11.3633
gang	-11.3635
▁복합	-11.3635
▁pray	-11.3637
▁지원하기	-11.3642
▁운전자	-11.3642
▁업데이트	-11.3645
분에	-11.3645
▁hitting	-11.3647
▁disposition	-11.3647
▁이내의	-11.3647
▁여지	-11.365
▁친구와	-11.3651
▁선물을	-11.3654
▁guaranteed	-11.3654
▁warned	-11.3657
▁Yeongdeungpo	-11.3657
▁Official	-11.366
지방	-11.3661
▁origin	-11.3664
▁임신	-11.3665
▁학원	-11.3667
▁departure	-11.3668
▁Agreement	-11.3669
▁boss	-11.3669
▁기온	-11.3669
▁간사	-11.3671
▁attempted	-11.3671
담	-11.3671
▁Daily	-11.3671
훈	-11.3673
▁걸그룹	-11.3674
▁강조	-11.3674
▁있었다고	-11.3675
▁주문한	-11.3676
bi	-11.3677
▁사찰	-11.3678
▁succession	-11.3679
▁politicians	-11.368
▁북한과	-11.3681
▁cute	-11.3682
▁cheering	-11.3682
▁된다면	-11.3684
▁정부에	-11.3685
▁인재	-11.3687
▁girls	-11.3689
지에	-11.369
▁noted	-11.369
▁또다시	-11.369
▁samples	-11.369
▁automobile	-11.3691
▁Indian	-11.3692
▁감축	-11.3693
▁반대로	-11.3693
기금	-11.3694
▁기여할	-11.3694
▁adjusted	-11.3696
▁등도	-11.3697
▁intense	-11.37
▁악화	-11.37
추	-11.3702
▁livelihood	-11.3702
▁거부	-11.3703
▁방식이	-11.3703
▁Actress	-11.3703
▁impression	-11.3703
▁generally	-11.3705
▁복원	-11.3711
▁대해선	-11.3711
▁nervous	-11.3711
▁detention	-11.3712
▁2013,	-11.3713
▁지출	-11.3714
▁줄어들	-11.3717
보고	-11.3718
▁사장이	-11.3722
▁Budget	-11.3723
▁제기한	-11.3727
▁가입자	-11.3729
▁얼굴을	-11.3732
총	-11.3734
▁unknown	-11.3734
버스	-11.3735
▁드러냈다	-11.3735
▁proposals	-11.3743
▁적합한	-11.3743
▁Confederation	-11.3745
▁basketball	-11.3745
▁문학	-11.3747
▁지도자	-11.3747
▁형성	-11.3748
▁건의	-11.3749
▁친구들	-11.3753
▁시대에	-11.3757
▁talents	-11.376
▁Game	-11.376
▁command	-11.3761
▁사실이다	-11.3764
▁St	-11.3765
일이	-11.3765
▁excited	-11.3766
▁참사	-11.3768
▁야	-11.3769
▁해양	-11.377
▁이끌어	-11.3771
단지	-11.3771
사를	-11.3772
▁향상을	-11.3773
▁부장판사	-11.3777
yeong	-11.3777
▁아이템	-11.3778
▁judiciary	-11.3778
▁별도	-11.3779
▁상품이	-11.3781
▁편의점	-11.3782
개로	-11.3783
개월간	-11.3785
▁동아리	-11.3785
는지	-11.3786
▁현재는	-11.3786
분께	-11.3786
벌	-11.3787
▁종교	-11.3788
▁ultra	-11.379
▁아니라는	-11.3791
▁준비가	-11.3791
▁valuable	-11.3791
lecommunications	-11.3793
▁한복	-11.3794
부문	-11.3795
▁시내	-11.3795
▁누적	-11.3796
▁complicated	-11.38
▁갔다	-11.3801
▁survival	-11.3801
▁기준이	-11.3802
▁responses	-11.3802
▁Review	-11.3803
▁사람과	-11.3804
▁Hanjin	-11.3807
▁notification	-11.3807
▁breakfast	-11.3811
▁stepped	-11.3811
▁Inspection	-11.3812
▁생	-11.3813
▁stands	-11.3813
▁accounted	-11.3814
▁것들이	-11.3815
▁연락이	-11.3815
건이	-11.3818
▁찬	-11.3821
▁Meanwhile	-11.3822
▁1997	-11.3823
▁문화예술	-11.3824
(3	-11.3825
▁commander	-11.3826
▁소리가	-11.3827
house	-11.3829
▁최소한	-11.383
▁한계	-11.3831
▁잡은	-11.3832
▁송파구	-11.3832
▁Officer	-11.3832
▁일각에서	-11.3835
▁드는	-11.3836
▁저소득층	-11.3837
▁청주	-11.3837
▁circle	-11.3837
▁ate	-11.3838
▁오지	-11.3839
▁것이고	-11.384
색	-11.3843
▁magazine	-11.3848
▁dress	-11.385
▁유사한	-11.3851
▁채권	-11.3853
▁willing	-11.3854
▁사회의	-11.3855
시간이	-11.3856
▁Celsius	-11.3856
▁anywhere	-11.3856
▁immediate	-11.3857
▁earn	-11.3858
▁비교해	-11.3859
▁조금만	-11.3863
aged	-11.3863
▁일어난	-11.3863
▁캠프	-11.3866
▁현지에서	-11.3866
▁psychological	-11.3867
▁Mongolia	-11.3869
▁아이폰	-11.387
예술	-11.3872
제가	-11.3872
▁폐	-11.3873
씨와	-11.3874
필	-11.3878
▁대표의	-11.3878
시간을	-11.3879
▁exceeding	-11.3879
▁removal	-11.3879
원을	-11.388
bu	-11.3883
학과	-11.3886
하러	-11.3887
율이	-11.3887
▁ministers	-11.3888
▁종류의	-11.3888
▁전통시장	-11.3889
▁날부터	-11.389
clock	-11.389
▁코리아	-11.3891
rae	-11.3891
▁Both	-11.3892
▁prove	-11.3893
He	-11.3896
▁고려하면	-11.3896
▁Sweden	-11.3902
▁질병	-11.3902
▁참가자	-11.3902
▁깜짝	-11.3903
▁소감	-11.3908
▁사이의	-11.3908
▁전공	-11.3909
▁사용이	-11.3911
▁총괄	-11.3912
▁virtual	-11.3912
▁celebrities	-11.3912
▁갖게	-11.3913
▁배치	-11.3917
▁빠져	-11.3918
▁시작해	-11.3918
▁posting	-11.3919
작	-11.3921
▁posts	-11.3921
▁가능한가요	-11.3924
▁knowing	-11.3924
▁정상회담이	-11.3925
▁강아지	-11.3926
▁homepage	-11.3926
▁지역이	-11.3927
사는	-11.3928
▁점유율	-11.3928
▁건수	-11.3928
▁확대를	-11.3934
▁showcase	-11.3935
▁힘	-11.3935
▁그날	-11.3935
▁책임이	-11.394
▁startup	-11.3941
▁Nak	-11.3943
▁밤에	-11.3944
▁cheap	-11.3945
▁뒤늦게	-11.3946
▁솔루션	-11.3948
로는	-11.3949
▁argument	-11.3949
▁펼쳐진다	-11.395
▁당연직	-11.395
▁neck	-11.3951
▁북부	-11.3952
▁Studies	-11.3957
▁이름은	-11.3957
▁Im	-11.396
▁정권	-11.3964
rim	-11.3966
생활	-11.3972
친	-11.3972
▁상태를	-11.3973
▁연구개발	-11.3975
▁잡아	-11.3977
▁resume	-11.398
▁잊지	-11.398
▁Seodaemun	-11.398
▁convergence	-11.3981
▁그나마	-11.3982
▁chronic	-11.3983
▁CNN	-11.3984
▁비정규직	-11.3987
▁Byeong	-11.3989
▁교육이	-11.399
▁elements	-11.399
▁영어로	-11.3992
▁destroyed	-11.3992
▁가능하도록	-11.3992
▁Tower	-11.3992
▁티켓	-11.3993
▁hub	-11.3994
▁Reform	-11.3995
▁동반	-11.3997
▁Wang	-11.3999
▁한화	-11.4
▁중요	-11.4001
▁돕는	-11.4001
▁사용하지	-11.4002
▁얻어	-11.4002
▁virtually	-11.4003
▁보러	-11.4003
▁아니한다	-11.4005
군이	-11.4005
▁소방당국	-11.4005
한국시간	-11.4005
슨	-11.4006
▁취득	-11.4006
▁컨설팅	-11.4009
▁프로그램은	-11.401
▁아니한	-11.4011
▁점에	-11.4011
▁마포구	-11.4013
▁향상	-11.4016
▁내년부터	-11.4016
▁조사에	-11.4016
▁아빠	-11.4017
▁도서	-11.4021
▁관련이	-11.4023
▁모습	-11.4025
▁나가는	-11.4026
▁headed	-11.4026
▁Bar	-11.4026
▁equal	-11.4027
▁거리가	-11.4032
▁(4)	-11.4032
▁판매하는	-11.4033
▁충전	-11.4033
▁UK	-11.4034
▁connecting	-11.4034
▁손해배상	-11.4034
▁움직임	-11.4039
▁doctors	-11.4041
▁targeting	-11.4046
▁85	-11.4046
줍니다	-11.4047
▁experiencing	-11.4048
▁손실	-11.4048
▁30,000	-11.4051
▁fat	-11.4052
▁끝까지	-11.4052
▁여건	-11.4055
▁couples	-11.4056
▁Federal	-11.4059
▁산불	-11.4059
▁지나치	-11.4064
▁quarters	-11.4065
▁경기북부	-11.4067
▁semiconductors	-11.4068
▁차단	-11.4068
▁species	-11.407
구조	-11.4073
▁임대	-11.4074
▁genre	-11.4074
▁병원으로	-11.4077
ized	-11.4077
▁오른쪽	-11.4079
month	-11.408
▁뷰티	-11.4081
▁왼쪽	-11.4082
은행	-11.4082
▁믿고	-11.4086
▁편성	-11.4087
▁수행하는	-11.4087
▁나쁜	-11.4087
▁자살	-11.409
▁도민들	-11.4092
▁국무부	-11.4094
▁finishing	-11.4094
▁cook	-11.4095
회사	-11.4096
▁이후에	-11.4097
▁Instagram	-11.4105
▁있거나	-11.4105
▁부지	-11.4106
▁올바른	-11.4106
▁소설	-11.4108
▁exchanged	-11.4113
▁나타나	-11.4114
▁하니	-11.4114
▁아울러	-11.4116
년째	-11.4116
▁Memorial	-11.4117
록	-11.4118
▁담아	-11.4119
▁Anyang	-11.412
▁손에	-11.412
▁조화	-11.4123
▁chemical	-11.4123
▁보며	-11.4126
▁벌인	-11.4129
탈	-11.413
▁유형	-11.4131
▁suspend	-11.4132
▁chart	-11.4133
ni	-11.4135
▁라인	-11.4138
▁관심과	-11.4139
▁Credit	-11.414
▁Asset	-11.414
▁observed	-11.4141
▁관계자들이	-11.4141
▁역할이	-11.4141
▁느낌이	-11.4143
▁shortage	-11.4144
되	-11.4145
▁제외	-11.4146
▁bid	-11.4149
▁지역으로	-11.415
we	-11.4151
▁option	-11.4151
▁연말	-11.4154
▁지휘	-11.4155
▁얘기를	-11.4155
▁땅	-11.4155
▁버	-11.4156
▁chances	-11.4156
▁사실은	-11.4157
▁최근에	-11.4157
ting	-11.4158
▁예정인	-11.4159
▁사망자	-11.4159
▁correspondent	-11.4162
▁총선	-11.4164
▁root	-11.4167
▁단기	-11.4169
▁뇌	-11.4171
▁기간에	-11.4173
▁pattern	-11.4173
▁개인의	-11.4174
▁integration	-11.4175
▁parent	-11.4176
▁영화의	-11.4178
▁듣는	-11.4179
▁감안하면	-11.418
▁이해할	-11.4182
▁하나인	-11.4183
▁formal	-11.4185
▁strict	-11.4186
중국	-11.4186
▁offline	-11.4188
▁인상을	-11.4189
31	-11.419
▁도가	-11.419
▁추정된다	-11.4198
▁estimate	-11.4199
▁도중	-11.42
▁영향	-11.42
▁진정	-11.4203
▁목적	-11.4206
▁장르	-11.4206
인당	-11.4207
▁관계자들	-11.4208
▁분이	-11.4208
▁커질	-11.4209
▁primary	-11.421
▁경찰과	-11.4217
▁거기에	-11.4219
▁배가	-11.422
▁libraries	-11.422
▁telephone	-11.4221
▁Gender	-11.4221
▁Rather	-11.4222
▁처분	-11.4222
▁데는	-11.4223
f	-11.4224
▁sets	-11.4225
▁Lawmaker	-11.4226
▁Her	-11.4226
▁locals	-11.4231
▁근처	-11.4235
▁성과가	-11.4238
▁부산시	-11.4239
▁궁금증	-11.4239
▁출마	-11.424
하라	-11.4241
▁어려워	-11.4243
▁자신감	-11.4243
▁launching	-11.4244
훈련	-11.4244
▁여기는	-11.4245
▁신용카드	-11.4248
▁speculation	-11.4249
▁retail	-11.4254
껏	-11.4254
▁음주	-11.4255
협력	-11.4256
심에서	-11.4256
▁집계됐다	-11.426
별지	-11.426
▁관리가	-11.4261
▁모습으로	-11.4264
▁110	-11.4264
▁꼼꼼	-11.4266
▁세운	-11.4269
▁hopes	-11.4269
▁보여주고	-11.427
▁구상	-11.4273
링	-11.4274
▁이웃	-11.4278
▁diagnosed	-11.4279
▁상담을	-11.4281
▁가스	-11.4282
려면	-11.4285
▁USD	-11.4285
▁가격에	-11.4285
▁났다	-11.4288
▁Test	-11.4288
수록	-11.4288
▁200,000	-11.4288
▁57	-11.4289
▁국가의	-11.4292
하자는	-11.4294
▁leg	-11.4294
▁112	-11.4295
까지는	-11.4295
▁가능성은	-11.4297
▁전국에서	-11.4299
하시면	-11.4299
▁기기	-11.4299
▁numerous	-11.4301
▁워낙	-11.4301
▁ancient	-11.4305
▁cable	-11.4307
▁리스크	-11.4308
▁Ban	-11.431
▁과태료	-11.431
▁추	-11.4311
▁MC	-11.4312
만한	-11.4313
▁일본이	-11.4313
▁특성상	-11.4314
chun	-11.4316
때	-11.4317
▁saved	-11.4318
▁기업은	-11.432
▁math	-11.4321
▁finalized	-11.4326
▁competitions	-11.4331
▁lawyers	-11.4333
밥	-11.4334
자들이	-11.4334
▁금요일	-11.4334
▁소개했다	-11.4335
▁의혹에	-11.4336
새	-11.4339
▁카카오톡	-11.4339
▁forms	-11.4339
판매	-11.4342
▁Seon	-11.4344
▁ends	-11.4344
▁의장이	-11.4346
▁토론	-11.4347
▁기대감이	-11.4348
▁안전하게	-11.4349
활동을	-11.4349
▁resistance	-11.4349
▁unlikely	-11.435
▁두산	-11.4351
▁governance	-11.4351
▁분쟁	-11.4351
▁중점	-11.4352
chi	-11.4353
▁container	-11.4354
▁constitutional	-11.4355
▁성적이	-11.4356
▁올해부터	-11.4357
▁위해선	-11.4358
▁좋겠습니다	-11.436
▁pharmaceutical	-11.436
▁한데	-11.4361
▁tough	-11.4362
▁야당	-11.4362
▁normally	-11.4363
▁전주	-11.4366
▁되	-11.4368
▁Meeting	-11.437
▁휴가	-11.437
▁Area	-11.437
▁discussing	-11.4371
▁trials	-11.4372
기구	-11.4372
▁attractive	-11.4373
시쯤	-11.4374
겸	-11.4375
▁2016.	-11.4375
▁진로	-11.4378
▁interpretation	-11.4378
▁댓글	-11.4378
▁논의를	-11.4379
▁Communication	-11.4379
▁premiums	-11.4379
▁원이	-11.438
▁branches	-11.4385
▁Convention	-11.4385
▁bringing	-11.4386
▁들어갈	-11.4388
▁confrontation	-11.4388
▁비싼	-11.4389
▁면적	-11.4391
▁panel	-11.4391
처	-11.4392
▁찾아가	-11.4393
▁싶지	-11.4393
▁강사	-11.4394
▁cheaper	-11.4396
hyung	-11.4398
▁passes	-11.4399
▁수탁자는	-11.44
▁수십	-11.4401
38	-11.4403
▁mountains	-11.4403
▁보고하여야	-11.4404
minute	-11.4404
▁discharge	-11.4405
▁지적도	-11.4405
▁폭이	-11.4405
▁대통령에게	-11.4408
▁늘어나는	-11.4409
▁과거에	-11.441
▁참가해	-11.4412
▁태양광	-11.4412
게임	-11.4413
▁모니터링	-11.4414
neighboring	-11.4415
▁아들이	-11.4416
▁reaching	-11.4418
▁형	-11.442
▁organic	-11.4422
▁비록	-11.4423
▁partners	-11.4425
▁seekers	-11.4425
di	-11.4425
▁analysts	-11.4431
▁높였다	-11.4431
▁붕괴	-11.4432
▁rainy	-11.4434
45	-11.4434
▁캠페인	-11.4435
▁한글	-11.4435
▁오래된	-11.4436
▁판매가	-11.4437
▁수익을	-11.4437
▁않았다는	-11.4441
▁강릉	-11.4442
▁philosophy	-11.4442
▁권리를	-11.4443
me	-11.4444
▁보일	-11.4444
▁불안	-11.4446
▁호텔에서	-11.4447
▁적어	-11.4447
▁적용한다	-11.4448
▁superior	-11.4448
▁취재	-11.4449
▁개발에	-11.4456
▁포함한다	-11.4458
▁인식이	-11.4459
▁아니라고	-11.446
▁긍정적	-11.446
▁booth	-11.446
▁Iranian	-11.4461
▁금액이	-11.4462
▁선호하는	-11.4462
▁heated	-11.4464
▁크지	-11.4464
▁오류	-11.4464
▁영장	-11.4467
▁Mu	-11.4467
▁NC	-11.4469
▁줄어든	-11.447
ur	-11.447
▁2012,	-11.4471
울	-11.4471
▁일반적으로	-11.4472
▁명품	-11.4473
▁위주로	-11.4476
▁Jinping	-11.4478
▁소녀	-11.4478
▁홈페이지에	-11.4479
▁철저한	-11.4481
▁calm	-11.4481
▁종합적	-11.4484
▁장에게	-11.4485
▁물류	-11.4488
▁들어서	-11.4488
독	-11.4489
▁repayment	-11.449
▁leaked	-11.4491
▁praised	-11.4491
원장	-11.4492
▁조만간	-11.4492
▁FTC	-11.4493
▁infants	-11.4494
드립니다	-11.4495
▁내용에	-11.4495
▁passage	-11.4496
택	-11.4499
▁seizure	-11.4502
▁제게	-11.4503
▁매입	-11.4503
▁제고	-11.4503
▁Capital	-11.4503
▁IP	-11.451
▁보건복지부	-11.4513
▁reign	-11.4514
▁철저히	-11.4514
▁extremely	-11.4516
▁그래	-11.4516
▁founder	-11.452
▁friendship	-11.452
하였으며	-11.4521
5000	-11.4522
▁치킨	-11.4527
▁골	-11.4528
▁협의회	-11.4529
▁배경으로	-11.4531
▁탄핵	-11.4531
▁손님	-11.4532
▁국가대표	-11.4535
▁성남	-11.4537
▁다채로	-11.4538
▁identification	-11.4539
▁mothers	-11.4541
▁자격증	-11.4542
▁CSAT	-11.4544
▁ambassador	-11.4544
▁crew	-11.4545
▁열려	-11.4546
▁지급한다	-11.4549
▁listing	-11.4549
▁Chungbuk	-11.455
▁표준	-11.4551
됐습니다	-11.4552
▁세미나	-11.4552
▁urgently	-11.4552
known	-11.4553
▁물질	-11.4554
▁native	-11.4556
▁경향이	-11.4556
▁대표와	-11.4556
▁적정	-11.4557
막	-11.4558
▁주인공	-11.4558
▁없게	-11.456
▁필요로	-11.456
되자	-11.4561
겠지만	-11.4562
케	-11.4563
▁대량	-11.4564
▁방문하는	-11.4566
▁knows	-11.4568
▁swing	-11.4568
▁지상	-11.4569
공장	-11.4572
▁casualties	-11.4573
▁불가능한	-11.4574
다운	-11.4575
▁threat	-11.4576
▁뒤로	-11.4578
▁horse	-11.4582
▁없는데	-11.4582
▁설명회	-11.4582
미국	-11.4582
▁부여	-11.4584
▁걸려	-11.4584
▁코드	-11.4585
▁banking	-11.4585
▁노출	-11.4586
▁의뢰	-11.4586
▁silver	-11.4587
▁감사를	-11.4587
▁차지하고	-11.4588
▁pursued	-11.4588
▁적자	-11.4589
▁moon	-11.4592
▁2017.	-11.4593
▁이슈	-11.4594
▁유력	-11.4594
▁인근에	-11.4594
▁산업단지	-11.4594
▁친구들이	-11.4595
chang	-11.4597
건설	-11.4597
▁inevitably	-11.4597
▁배정	-11.4599
▁비교	-11.46
▁말에	-11.4601
▁sounds	-11.4602
▁광	-11.4603
▁regularly	-11.4606
▁전문가들이	-11.4606
ta	-11.4607
▁경찰의	-11.4608
▁신도시	-11.4608
70	-11.4609
▁reorganization	-11.4609
▁tied	-11.4611
▁상환	-11.4612
▁61	-11.4614
회장	-11.4615
립	-11.4615
▁시너지	-11.4616
▁기여	-11.4618
▁plate	-11.462
▁slowly	-11.4624
▁resulted	-11.4624
▁Emergency	-11.4624
조정	-11.4624
▁1%	-11.4624
▁자동으로	-11.4625
▁유럽연합	-11.4626
▁멀리	-11.4626
▁하나님	-11.4627
▁송금	-11.4628
▁출연해	-11.463
▁separation	-11.4634
▁advised	-11.4635
▁visible	-11.4636
public	-11.4637
▁걸어	-11.4641
▁reaction	-11.4641
▁그걸	-11.4641
▁계좌	-11.4642
▁일하고	-11.4645
▁봐야	-11.4645
▁weekends	-11.4649
▁Je	-11.4649
▁시공	-11.465
▁거라고	-11.4651
▁manual	-11.4652
▁시험을	-11.4652
▁계열사	-11.4654
▁와인	-11.4654
▁대행	-11.4654
48	-11.4658
chairperson	-11.4658
▁Standards	-11.4658
▁SUV	-11.4659
▁검토하고	-11.4659
▁간단한	-11.4659
▁investing	-11.466
▁성향	-11.4661
▁ordinances	-11.4662
비용	-11.4663
▁bathroom	-11.4665
▁principles	-11.4666
▁quiet	-11.4668
▁producer	-11.4669
▁purchases	-11.467
▁autonomy	-11.467
▁어쩔	-11.467
▁실태	-11.4672
▁worsening	-11.4672
자금	-11.4676
▁혐의가	-11.4677
▁경주	-11.4679
▁먹거리	-11.4679
▁stomach	-11.4682
▁indicted	-11.4682
▁북미정상회담	-11.4684
▁Gang	-11.4684
▁입금	-11.4685
▁고용노동부	-11.4686
▁공단	-11.4688
▁단어	-11.4692
▁언급했다	-11.4693
▁suggest	-11.4693
▁성경	-11.4693
▁Gwanghwamun	-11.4695
▁시진핑	-11.4695
▁장을	-11.4697
▁PD	-11.4698
▁제기	-11.4698
▁해결하기	-11.4698
▁마련해	-11.4701
▁verify	-11.4701
▁inner	-11.4702
▁보이	-11.4704
▁공기	-11.4705
▁금융위	-11.4706
▁통지하여야	-11.4707
▁Consumer	-11.4707
▁성공했다	-11.4708
▁58	-11.4712
▁web	-11.4712
▁Four	-11.4713
▁reference	-11.4713
방송	-11.4713
▁개통	-11.4713
발전	-11.4714
▁성장세	-11.4717
▁특화	-11.4718
▁raises	-11.4719
▁destruction	-11.472
▁140	-11.4721
▁meets	-11.4723
▁motor	-11.4725
▁평택	-11.4726
▁Media	-11.4727
▁규정이	-11.4729
▁Chamber	-11.4731
▁경비를	-11.4731
▁전원	-11.4731
▁국민들이	-11.4732
▁준비하고	-11.4733
▁스타일	-11.4733
▁재고	-11.4734
▁묻는	-11.4734
▁62	-11.4735
▁글이	-11.4736
▁iPhone	-11.4738
▁내야	-11.4741
▁환경이	-11.4742
▁행정안전부	-11.4742
▁은퇴	-11.4745
▁고가	-11.4746
지원센터	-11.4746
▁코치	-11.4746
▁국경	-11.4748
상의	-11.4748
계약	-11.4749
▁회	-11.4749
▁signature	-11.475
▁여당	-11.4751
▁Gwang	-11.4751
▁여론이	-11.4752
▁신제품	-11.4754
▁후속	-11.4755
▁sugar	-11.4755
천여	-11.4755
▁손해	-11.4756
키로	-11.4756
▁boxes	-11.4758
story	-11.4759
기는	-11.476
▁fruits	-11.476
▁주류	-11.4763
▁trips	-11.4763
▁이른	-11.4763
▁enters	-11.4765
▁접촉	-11.4766
▁Silla	-11.4767
▁communications	-11.4768
▁Cheongdo	-11.4768
▁Mokpo	-11.4769
▁ownership	-11.4769
▁안전관리	-11.4772
▁sub	-11.4773
▁파악하고	-11.4776
▁slump	-11.4777
축	-11.4778
▁arrival	-11.4779
▁drinks	-11.4779
▁없나요	-11.478
▁압수수색	-11.4781
▁방향	-11.4781
▁button	-11.4783
▁영상이	-11.4784
▁immigrants	-11.4785
▁관광객이	-11.4785
▁조사에서	-11.4787
▁해체	-11.4787
거래	-11.4788
▁치매	-11.4789
▁symbol	-11.4792
▁거로	-11.4792
▁networks	-11.4792
▁decisions	-11.4793
▁포항	-11.4793
올	-11.4795
▁Communications	-11.4798
▁patrol	-11.48
정부	-11.48
▁발언	-11.4801
▁1,500	-11.4805
▁정확하게	-11.4805
▁impeachment	-11.4806
▁주장하는	-11.4806
▁73	-11.4809
▁대사	-11.4813
▁영화제	-11.4816
▁Buddha	-11.4816
▁banned	-11.4816
▁합격	-11.4818
▁둘째	-11.4818
▁hits	-11.4819
만으로	-11.4823
seop	-11.4824
▁locations	-11.4824
▁riding	-11.4826
▁맞	-11.4827
▁노력하겠다	-11.4827
▁끝나면	-11.4827
ryong	-11.4828
▁steady	-11.4828
▁Palace	-11.4828
▁arms	-11.483
▁신청서를	-11.4832
▁과장	-11.4833
▁handled	-11.4836
▁processes	-11.4836
▁안팎	-11.4837
▁안전을	-11.4837
▁concentrate	-11.4838
▁보도가	-11.484
▁largely	-11.484
▁원전	-11.4841
land	-11.4843
▁성격	-11.4845
▁combines	-11.4846
▁음식은	-11.4847
▁grandmother	-11.4849
▁preference	-11.4849
▁저녁에	-11.4851
▁선보인다	-11.4852
▁completing	-11.4853
▁Namyangju	-11.4854
▁Camp	-11.4854
▁encouraged	-11.4859
▁lyrics	-11.4859
군요	-11.486
하다가	-11.4861
▁boom	-11.4861
▁statue	-11.4862
▁클	-11.4863
▁Network	-11.4864
▁개막	-11.4865
▁shipbuilding	-11.4866
▁jumped	-11.4867
일과	-11.4867
▁분석된다	-11.4867
▁Gov	-11.4871
시는	-11.4872
▁얻었다	-11.4872
▁declined	-11.4873
▁personally	-11.4875
▁반응	-11.4876
▁베	-11.4878
▁토	-11.4878
테	-11.4878
▁옮겨	-11.4878
▁대한항공	-11.4879
▁호흡	-11.4881
완	-11.4882
▁구매할	-11.4884
▁출근	-11.4884
▁healing	-11.4884
▁들은	-11.4885
▁경	-11.4885
족	-11.4887
▁부득이	-11.4887
▁식으로	-11.4887
▁프로그램에	-11.4887
▁Al	-11.4887
▁invite	-11.4888
일본	-11.4888
▁인물	-11.4889
전문	-11.4889
▁contrary	-11.489
▁있을까	-11.4891
▁그러하지	-11.4891
▁Siheung	-11.4892
▁5·18	-11.4892
▁fairness	-11.4893
▁350	-11.4894
▁dispatch	-11.4894
▁숙소	-11.4894
마리	-11.4895
▁distribute	-11.4896
▁홈런	-11.4896
▁값	-11.4898
▁junior	-11.49
▁든다	-11.4902
▁애초	-11.4902
▁급	-11.4903
▁성추행	-11.4904
▁거래가	-11.4908
▁위원장과	-11.4911
더니	-11.4912
▁추세	-11.4912
▁bottle	-11.4913
▁주도	-11.4916
▁Along	-11.4916
▁Forces	-11.4916
료	-11.4917
▁파리	-11.4918
▁feared	-11.4919
▁무엇이	-11.4919
▁Mo	-11.492
▁차기	-11.4922
▁응답자	-11.4923
▁tight	-11.4927
▁refugee	-11.4928
▁어디로	-11.4928
(4	-11.4931
시켰다	-11.4931
▁진화	-11.4932
▁행사에서	-11.4932
▁3·1	-11.4934
▁내릴	-11.4934
익	-11.4938
▁결코	-11.494
▁tastes	-11.4942
▁Coach	-11.4943
▁음주운전	-11.4943
▁Pangyo	-11.4943
▁점수를	-11.4944
▁directed	-11.4946
▁잡았다	-11.4946
▁900	-11.4946
100	-11.4947
▁다르다	-11.4947
▁팀의	-11.4948
▁instructor	-11.495
▁조성을	-11.4951
▁constant	-11.4951
▁경우를	-11.4951
▁즐겁게	-11.4952
school	-11.4954
▁bidding	-11.4954
▁변수	-11.4957
▁융자	-11.4957
▁권력	-11.4958
▁producers	-11.4958
▁활성화에	-11.496
▁기자가	-11.4962
▁sessions	-11.4962
▁다니는	-11.4965
▁고장	-11.4965
▁안으로	-11.4967
▁deaths	-11.4967
임에도	-11.4969
▁legs	-11.4972
▁인용해	-11.4974
▁contacted	-11.4977
했어	-11.4977
▁outlook	-11.4978
▁수탁자	-11.4978
▁근로시간	-11.498
▁위임	-11.4981
표를	-11.4984
▁하락세	-11.4985
▁단순한	-11.499
▁Embassy	-11.499
▁아무것	-11.499
▁배울	-11.499
▁관	-11.4991
▁번에	-11.4991
▁Gimhae	-11.4991
비를	-11.4991
▁Manager	-11.4992
▁드릴게요	-11.4994
▁탄생	-11.4994
회에	-11.4994
▁Pacific	-11.4996
Chairperson	-11.4997
▁쾌적	-11.4997
▁찾았다	-11.4998
▁Wall	-11.4998
▁측의	-11.5001
▁남부	-11.5002
▁감면	-11.5003
▁야간	-11.5003
▁수상했다	-11.5003
▁회의는	-11.5004
▁Second	-11.5004
▁오랜만에	-11.5005
▁벌였다	-11.5007
▁조사가	-11.5012
▁hoped	-11.5013
▁sought	-11.5015
▁protecting	-11.5015
▁않았다고	-11.502
충	-11.502
▁부천	-11.5021
시키고	-11.5021
▁amazing	-11.5023
▁tradition	-11.5023
▁위에서	-11.5024
▁passport	-11.5024
▁이명박	-11.5027
▁injuries	-11.5027
▁회수	-11.5028
▁Pay	-11.5029
▁움직임이	-11.5029
▁rank	-11.503
▁질환	-11.5031
w	-11.5031
▁하천	-11.5033
▁말은	-11.5033
is	-11.5033
▁translation	-11.5037
▁objection	-11.5037
▁harder	-11.5039
▁기자	-11.504
률	-11.5044
▁수영	-11.5046
▁성장할	-11.5046
▁마스크	-11.5049
▁승용차	-11.5049
▁고개	-11.5049
▁소형	-11.5049
ian	-11.5052
▁생존	-11.5055
▁백화점	-11.5056
▁실력을	-11.5056
▁재단	-11.5058
▁우승을	-11.5058
▁확충	-11.5059
▁Experience	-11.506
▁활동하고	-11.5064
▁transition	-11.5065
▁netizens	-11.5067
지수	-11.5067
▁밝혀	-11.5071
▁중요성	-11.5071
▁업무에	-11.5073
▁underway	-11.5073
▁워싱턴	-11.5074
▁국어	-11.5077
쳐	-11.5077
yoon	-11.5078
▁submission	-11.5078
▁laughter	-11.5078
▁현직	-11.5079
▁democratic	-11.508
▁shoulder	-11.5081
use	-11.5081
▁주체	-11.5081
▁때문	-11.5082
▁해외에서	-11.5082
▁한미	-11.5083
▁shift	-11.5085
장치	-11.5088
▁사립유치원	-11.5089
▁thousand	-11.5089
▁illness	-11.509
▁encouraging	-11.509
▁뭔가	-11.5091
칠	-11.5092
▁useful	-11.5094
▁고위	-11.5097
▁파악	-11.5097
▁쇼	-11.5098
▁clerk	-11.51
▁결정이	-11.51
▁틀	-11.5101
▁의원들이	-11.5101
▁unclear	-11.5103
▁bulletin	-11.5103
▁Taekwondo	-11.5104
게요	-11.5104
▁Lord	-11.5104
▁Nuclear	-11.5105
▁speaker	-11.5105
▁ending	-11.5105
▁66	-11.5106
▁당국이	-11.5106
▁관악구	-11.5107
▁제시했다	-11.5109
▁관리자	-11.511
▁운항	-11.5112
▁좋겠어	-11.5114
▁Yeah	-11.5116
▁미얀마	-11.5117
▁나이가	-11.5118
▁자세히	-11.512
▁도쿄	-11.512
▁나눔	-11.5122
▁동일	-11.5123
억원에	-11.5124
량이	-11.5126
▁모습이다	-11.5126
었는데	-11.513
▁Sorry	-11.513
▁물가	-11.5131
▁picked	-11.5132
▁clinical	-11.5133
▁immigration	-11.5134
▁기사를	-11.5135
▁민선	-11.5136
▁seventh	-11.5137
▁업종	-11.5138
▁연일	-11.5138
▁포스코	-11.5138
▁attorney	-11.5138
▁나서는	-11.5139
▁면	-11.514
▁portal	-11.514
▁unified	-11.5141
▁decreasing	-11.5142
▁cameras	-11.5144
▁Everyone	-11.5146
만명이	-11.5147
속	-11.5148
▁대여	-11.5148
▁우즈베키스탄	-11.5148
▁수출이	-11.5151
▁실적을	-11.5151
▁약속을	-11.5151
▁떠난	-11.5153
▁substances	-11.5153
▁준비하는	-11.5154
▁신청한	-11.5154
▁roles	-11.5157
균	-11.5158
▁클래식	-11.5158
▁techniques	-11.5158
▁개발을	-11.5161
▁mask	-11.5162
▁거친	-11.5163
▁레	-11.5164
냐	-11.5165
전자	-11.5165
▁조합	-11.5166
▁야외	-11.5166
▁buried	-11.5166
▁reputation	-11.5166
▁History	-11.5172
치료	-11.5173
▁object	-11.5176
▁준공	-11.5176
▁juvenile	-11.5179
▁abolition	-11.5179
▁Jeollabuk	-11.5179
▁판단이	-11.5182
▁cultures	-11.5182
▁tonight	-11.5183
ter	-11.5183
▁사무실	-11.5184
▁inappropriate	-11.5186
▁말이다	-11.519
▁추정되는	-11.5192
▁신속하게	-11.5193
▁desk	-11.5193
▁lifted	-11.5194
▁defined	-11.5196
▁floors	-11.5196
▁요건	-11.5197
▁여성들이	-11.5199
▁지방세	-11.5199
▁Over	-11.52
priced	-11.5201
▁blocking	-11.5207
▁감정을	-11.5207
▁realistic	-11.5208
▁구민의	-11.5212
▁활발한	-11.5213
▁rains	-11.5215
▁chain	-11.5215
▁인천시	-11.5216
입니까	-11.5217
▁fisheries	-11.5217
▁5000	-11.5218
▁threatened	-11.5219
▁Such	-11.5219
▁남긴	-11.5219
▁1996	-11.5219
▁해결할	-11.5222
▁위원장을	-11.5222
▁자본	-11.5222
▁오를	-11.5223
▁부당	-11.5224
▁기무사	-11.5224
▁compensate	-11.5228
▁중국은	-11.5228
▁Techno	-11.5228
▁평생	-11.5229
▁쇼핑몰	-11.5229
▁높일	-11.523
investigative	-11.5231
▁Well	-11.5231
▁Equality	-11.5231
주기	-11.5235
▁Child	-11.5236
▁플라스틱	-11.5236
▁hasn	-11.5237
▁Inter	-11.5238
▁Dance	-11.5238
▁Buk	-11.5238
▁맡았다	-11.5238
▁이해가	-11.5239
▁progressive	-11.524
▁메인	-11.5242
▁주실	-11.5242
▁제외하고	-11.5243
▁사람으로	-11.5243
▁거짓말	-11.5246
화를	-11.5246
▁발효	-11.5247
▁색	-11.525
▁유행	-11.525
▁scholars	-11.525
▁개선이	-11.5253
▁commemorate	-11.5253
▁permit	-11.5254
▁금액	-11.5256
▁discharged	-11.5259
▁경과	-11.526
▁잡지	-11.5261
▁필요성이	-11.5262
▁300,000	-11.5262
작업	-11.5265
governing	-11.5265
▁partnership	-11.5267
▁Cooperative	-11.5267
ty	-11.5267
▁마감	-11.5268
회를	-11.5269
▁systematically	-11.5269
▁기여한	-11.5269
▁못했던	-11.5269
▁걸린	-11.5271
▁scoring	-11.5271
▁가족들	-11.5273
하시는	-11.5274
왔다	-11.5274
▁문화의	-11.528
▁resort	-11.528
졌다	-11.5283
▁Dongjak	-11.5283
▁Southern	-11.5283
▁비용은	-11.5285
▁학생들에게	-11.5286
60	-11.5287
▁대회에서	-11.5292
▁리스트	-11.5292
▁병원에서	-11.5294
▁stating	-11.5295
▁vessels	-11.5295
37	-11.5295
하더라도	-11.5295
▁먼	-11.5296
헌	-11.5297
▁진보	-11.53
▁필요해요	-11.53
▁거대한	-11.5301
▁인류	-11.5301
▁SW	-11.5303
▁1∼2	-11.5306
▁pet	-11.5306
▁Gunsan	-11.5308
▁안산	-11.5309
출	-11.5309
▁Reuters	-11.531
▁designs	-11.5311
▁산업의	-11.5312
▁보냈다	-11.5313
▁하루에	-11.5313
izing	-11.5313
▁넌	-11.5316
▁dawn	-11.532
▁grateful	-11.532
▁exciting	-11.532
▁profitability	-11.5321
▁중동	-11.5322
▁issuing	-11.5322
▁혜택이	-11.5324
▁papers	-11.5324
▁좋아합니다	-11.5324
▁높다는	-11.5326
▁그곳에	-11.5327
▁바닥	-11.5329
▁survive	-11.5331
▁Car	-11.5331
▁Acts	-11.5332
▁준수	-11.5333
책	-11.5334
▁Turkish	-11.5334
▁방금	-11.5335
▁captured	-11.5335
▁감정	-11.5335
▁맞고	-11.5338
▁정상화	-11.5342
상품	-11.5342
▁belt	-11.5342
▁2∼3	-11.5344
▁때보다	-11.5344
▁모습은	-11.5344
▁신청할	-11.5344
▁visual	-11.5347
▁거기	-11.5348
▁합의가	-11.535
▁미소	-11.535
▁예정된	-11.535
▁ordering	-11.5355
장비	-11.5356
▁권고	-11.5356
▁paragraphs	-11.5359
▁초점	-11.5363
▁날짜	-11.5365
▁Tong	-11.5367
▁주시면	-11.5367
▁patterns	-11.5367
▁argue	-11.5368
▁정황이	-11.5368
하니	-11.5371
▁prolonged	-11.5372
▁Kaesong	-11.5373
▁보조금을	-11.5373
▁Interior	-11.5373
▁regeneration	-11.5374
▁성공한	-11.5374
▁지원해	-11.5374
▁"2018	-11.5375
▁재판을	-11.5377
▁한다면	-11.5379
▁승부	-11.5379
▁appliances	-11.5381
▁시행에	-11.5382
같이	-11.5382
▁entrepreneurs	-11.5384
▁광진구	-11.5385
Lee	-11.5385
la	-11.5388
▁전체가	-11.5388
▁무릎	-11.539
▁suggests	-11.539
▁부채	-11.539
▁좋고	-11.5391
▁시가	-11.5392
주간	-11.5394
attached	-11.5396
▁다하겠다	-11.5398
▁shipped	-11.5398
▁tower	-11.54
▁정하여	-11.5402
▁te	-11.5402
▁포함돼	-11.5404
▁Li	-11.5406
▁완벽한	-11.5408
▁attacks	-11.541
대는	-11.541
▁개성	-11.541
▁blow	-11.541
중인	-11.5411
▁성명	-11.5413
▁Kumho	-11.5413
▁Burning	-11.5413
▁안녕하세요	-11.5413
▁부위	-11.5414
▁1960	-11.5415
▁요구를	-11.5415
▁spots	-11.5415
▁참가자들	-11.5416
▁하나는	-11.5417
▁비상	-11.5419
▁국비	-11.542
ial	-11.5422
▁Ri	-11.5423
▁Concert	-11.5424
▁punished	-11.5426
▁선보였다	-11.5427
▁Britain	-11.5428
▁automatic	-11.5428
▁오직	-11.5429
▁wouldn	-11.543
▁피해자가	-11.543
▁권한을	-11.5431
▁방송을	-11.5431
▁동장	-11.5431
▁재건축	-11.5432
▁가능해	-11.5434
▁determination	-11.5435
▁replied	-11.5437
▁treasury	-11.5437
▁서식에	-11.5439
▁바라는	-11.5439
ful	-11.5439
▁민주주의	-11.5441
비가	-11.5441
▁fulfill	-11.5442
▁반복	-11.5444
▁relatives	-11.5446
▁체결했다	-11.5447
▁상상	-11.5447
▁creates	-11.5448
▁pure	-11.545
▁변화에	-11.5451
▁불편한	-11.5452
▁유리	-11.5452
▁좋아해요	-11.5453
▁발생하고	-11.5453
▁proportional	-11.5454
▁표창	-11.5456
▁설치할	-11.5457
▁이용하여	-11.5457
▁창	-11.5458
▁petitions	-11.5459
제품	-11.546
▁involvement	-11.5464
▁부부가	-11.5464
▁desirable	-11.5464
▁complained	-11.5465
▁프로젝트를	-11.5465
▁효율적	-11.5467
▁taxation	-11.5467
▁구분	-11.5467
▁근거로	-11.5468
▁사퇴	-11.5469
▁examples	-11.547
분이	-11.5472
men	-11.5472
▁감염	-11.5473
▁청원	-11.5476
▁lighting	-11.5477
▁investor	-11.5477
가격	-11.5479
▁Los	-11.5482
▁나면	-11.5482
들로	-11.5483
▁있었다는	-11.5483
No	-11.5485
face	-11.5485
▁mistakes	-11.5486
▁진학	-11.5487
▁Arabia	-11.5489
▁오고	-11.5491
▁대상은	-11.5492
만여	-11.5493
35	-11.5499
▁끝	-11.5501
▁worship	-11.5502
▁featuring	-11.5503
▁바꿀	-11.5503
입	-11.5505
▁동향	-11.5505
)"	-11.5506
▁반영된	-11.5506
▁수익	-11.5511
▁강화하고	-11.5511
▁왔어요	-11.5512
▁Wi	-11.5513
▁판문점	-11.5517
▁이름으로	-11.5517
▁server	-11.5519
▁방식	-11.5519
▁무기	-11.5524
▁건지	-11.5525
▁protected	-11.5525
▁부모님	-11.5526
▁건데	-11.5526
▁포함됐다	-11.5527
사랑	-11.5527
▁컬러	-11.5527
▁fried	-11.5528
▁Gapyeong	-11.553
▁고속도로	-11.5531
▁시민이	-11.5535
▁반대하는	-11.5536
▁thick	-11.5536
▁탑승	-11.5537
▁예정이라고	-11.554
▁보여준	-11.5542
▁productivity	-11.5543
▁연습	-11.5543
mun	-11.5545
▁Deok	-11.5546
▁웃음을	-11.5546
▁가맹점	-11.5547
▁frame	-11.5548
▁배려	-11.555
▁2030	-11.5551
▁67	-11.5552
hae	-11.5552
▁다행히	-11.5553
▁Chul	-11.5553
▁mini	-11.5553
▁conservation	-11.5556
~	-11.5556
▁막대	-11.5559
▁nights	-11.5561
▁tens	-11.5561
▁찍어	-11.5563
▁뜻이다	-11.5565
▁장기간	-11.5566
▁여자친구	-11.5566
meter	-11.5566
▁disability	-11.5569
▁Kwak	-11.5569
▁모델을	-11.5569
▁intervention	-11.557
▁편하게	-11.5571
▁chair	-11.5571
▁mediation	-11.5571
▁Australian	-11.5572
Q	-11.5574
▁Tottenham	-11.5575
▁아까	-11.5576
▁기업인	-11.5577
▁인지도	-11.5577
▁수석	-11.558
▁경기에	-11.5582
▁시대를	-11.5583
▁이벤트를	-11.5586
▁Gong	-11.5588
▁유지하고	-11.5589
▁줄었다	-11.5589
▁드릴	-11.559
▁대구시	-11.559
▁laugh	-11.559
곳을	-11.5591
▁돌봄	-11.5591
▁directions	-11.5592
갑	-11.5592
▁stabilize	-11.5593
▁산림	-11.5594
운영할	-11.5594
▁flavor	-11.5595
▁이르면	-11.5597
▁참여한다	-11.5598
▁복	-11.56
▁연다	-11.5601
겠다고	-11.5601
▁Noh	-11.5602
▁유도	-11.5603
▁제안했다	-11.5604
▁preserve	-11.5606
▁경제의	-11.5609
▁delegated	-11.561
▁그저	-11.561
▁주시기	-11.5611
▁헬기	-11.5613
▁Pocheon	-11.5614
▁절	-11.5615
▁퇴근	-11.5618
▁작동	-11.562
구나	-11.5621
▁티	-11.5622
▁aspects	-11.5622
▁확보한	-11.5623
▁amounts	-11.5623
혁신	-11.5624
▁defeated	-11.5625
▁Cheol	-11.5628
▁나은	-11.5631
▁footage	-11.5636
▁좌석	-11.5636
차전	-11.5637
▁Right	-11.5639
▁교육청	-11.5639
▁logic	-11.5639
▁아니야	-11.5639
▁대법관	-11.5641
▁아마도	-11.5644
▁바람에	-11.5644
▁박스	-11.5645
▁hurry	-11.5649
▁firefighters	-11.565
▁Indonesian	-11.565
▁케이크	-11.5653
▁배상	-11.5654
▁fewer	-11.5655
▁지진	-11.5655
▁guys	-11.5657
▁이익	-11.5659
▁인건비	-11.566
▁선생	-11.5661
▁전액	-11.5661
▁단원	-11.5661
▁제외한다	-11.5662
▁terminal	-11.5663
▁여비	-11.5664
▁설립한	-11.5665
.“	-11.5666
▁stored	-11.5672
▁washing	-11.5673
▁대가	-11.5674
존	-11.5674
▁stream	-11.5675
▁만화	-11.5675
▁ecological	-11.5676
▁사회에	-11.5676
▁3000	-11.5677
▁Hope	-11.5677
▁중요하다고	-11.5678
▁선보인	-11.5678
▁Kindergarten	-11.5678
▁용산구	-11.5679
▁열리고	-11.568
▁밝은	-11.568
▁이스라엘	-11.5683
▁포함되어	-11.5691
▁metal	-11.5691
▁수비	-11.5692
아이	-11.5694
▁찾지	-11.5695
베	-11.5696
▁checks	-11.5696
▁위주	-11.5697
▁회의에서	-11.5702
▁농	-11.5702
▁내리는	-11.5702
▁비디오	-11.5703
▁coordination	-11.5704
장애인	-11.5707
▁나타나는	-11.5708
ling	-11.5709
▁조각	-11.5709
▁올리는	-11.571
▁없다면	-11.5713
▁읽고	-11.5713
▁벽	-11.5714
▁writers	-11.5715
▁understood	-11.5716
▁선택할	-11.5717
▁국내에	-11.5717
▁침체	-11.5719
▁선택한	-11.5724
▁Huh	-11.5726
▁공인	-11.5728
▁대상을	-11.5729
▁Program	-11.573
▁Municipal	-11.573
▁숫자	-11.5733
▁살인	-11.5734
▁대비해	-11.5734
▁성범죄	-11.5735
84	-11.5737
▁Sure	-11.5737
▁신고가	-11.5739
▁recruiting	-11.5739
▁대중	-11.5742
▁technological	-11.5743
▁않았어요	-11.5744
▁Shinsegae	-11.5744
▁Press	-11.5744
▁제품으로	-11.5745
되었으며	-11.5745
▁%	-11.5745
▁있기를	-11.5747
▁즉각	-11.5747
▁전달했다	-11.5748
▁처분을	-11.5749
▁양승태	-11.575
▁되는데	-11.5751
▁배우는	-11.5751
v	-11.5751
▁saving	-11.5752
▁정책의	-11.5752
▁해주세요	-11.5753
▁Seungri	-11.5753
▁책은	-11.5753
▁딸이	-11.5755
엘	-11.5756
▁OLED	-11.5757
나란히	-11.5757
▁배당	-11.5757
▁La	-11.576
▁분명	-11.5762
▁재배	-11.5764
▁다음날	-11.5765
▁리더	-11.5766
▁(1).	-11.5766
made	-11.5768
▁testing	-11.5769
▁opposing	-11.577
▁고스란히	-11.577
▁포상금	-11.577
▁heatwave	-11.5771
▁정작	-11.5771
▁Hollywood	-11.5771
되기도	-11.5771
▁트렌드	-11.5771
▁burned	-11.5771
▁가슴	-11.5771
▁과학기술	-11.5771
36	-11.5773
▁노동당	-11.5773
▁therapy	-11.5775
▁벨기에	-11.5777
▁YG	-11.5781
▁합의한	-11.5781
▁경기장	-11.5782
▁양산	-11.5782
▁문화적	-11.5783
▁expressions	-11.5783
▁감성	-11.5783
▁dancing	-11.5785
▁저장	-11.5785
▁출입	-11.5791
▁간에	-11.5791
▁결정한다	-11.5792
▁희망을	-11.5793
32	-11.5794
▁millions	-11.5794
▁classical	-11.5798
▁많은데	-11.5807
▁전체의	-11.5807
▁너와	-11.5807
▁조절	-11.5807
▁wealth	-11.581
▁telling	-11.5813
▁공감대	-11.5816
▁교육과정	-11.5816
▁featured	-11.5816
▁fare	-11.5817
▁지난주	-11.5818
▁적어도	-11.5819
▁Anti	-11.582
▁완성	-11.5822
▁agreements	-11.5826
ru	-11.5827
▁decorated	-11.5828
▁인테리어	-11.5828
▁활발	-11.5828
▁공개됐다	-11.5829
▁고객의	-11.583
▁기조	-11.5832
▁exceeds	-11.5833
▁스웨덴	-11.5833
▁effectiveness	-11.5834
▁다문화	-11.5834
▁Ok	-11.5834
▁원유	-11.5835
▁Cabinet	-11.5838
▁통증	-11.5838
▁지금의	-11.5841
▁집값	-11.5841
▁Candidate	-11.5842
▁훼손	-11.5845
▁느끼고	-11.5846
▁nor	-11.5846
▁일반적인	-11.585
▁edge	-11.5852
▁자사	-11.5853
▁15%	-11.5853
▁machines	-11.5855
▁businessmen	-11.5855
▁페스티벌	-11.5856
본부	-11.5857
▁counsel	-11.5858
▁언급	-11.5858
▁재활용	-11.586
▁하려고	-11.5864
▁unfamiliar	-11.5865
▁imprisonment	-11.5866
▁체계	-11.5866
▁기준금리	-11.5866
▁예산안	-11.5867
▁엔진	-11.5868
▁복잡한	-11.5871
▁판결이	-11.5872
▁연봉	-11.5872
라서	-11.5874
39	-11.5874
▁grows	-11.5877
▁cope	-11.5878
▁negligence	-11.5879
▁특검	-11.5879
▁preferred	-11.588
▁weekly	-11.5882
청년	-11.5883
▁Night	-11.5884
▁기쁨	-11.5884
▁융합	-11.5886
▁flood	-11.5886
▁명칭	-11.5886
▁상용화	-11.5886
▁제작한	-11.5888
▁빵	-11.5889
▁비자	-11.5889
▁형식	-11.5891
▁이사회	-11.5892
▁구성한다	-11.5893
▁observation	-11.5895
▁prayer	-11.5895
▁emissions	-11.5896
80	-11.5896
hong	-11.5896
▁결과는	-11.5897
▁사진은	-11.5898
원의	-11.5899
▁시술	-11.59
▁방문할	-11.59
▁서식	-11.5902
▁우주	-11.5902
▁테러	-11.5904
▁coverage	-11.5907
▁4,000	-11.5908
▁Eastern	-11.5908
▁driven	-11.5908
카드	-11.5909
▁lending	-11.5912
▁규제가	-11.5912
▁76	-11.5913
영화	-11.5913
▁quit	-11.5913
신속한	-11.5916
▁제약	-11.5916
▁예상했다	-11.5916
▁손상	-11.5916
위원장	-11.5916
▁귀사	-11.5918
▁returns	-11.5919
▁Disabled	-11.592
▁앞선	-11.592
▁defendant	-11.5921
▁나누고	-11.5925
▁역할	-11.5925
▁Suncheon	-11.5925
▁기다려	-11.5926
▁nose	-11.5927
▁수거	-11.5928
▁구체적	-11.5928
▁tools	-11.5928
▁연구소	-11.5929
▁논문	-11.5933
▁structural	-11.5934
사와	-11.5935
▁Representatives	-11.5935
▁ledger	-11.5936
▁드라마를	-11.5936
▁일본에	-11.5936
만원이	-11.5936
▁이걸	-11.5937
▁발사	-11.5938
▁영양	-11.5938
▁서울에	-11.5938
▁않았고	-11.5939
▁한국으로	-11.5939
▁돼지	-11.594
▁이해하고	-11.5941
▁제기된다	-11.5942
▁통일부	-11.5943
▁주셔서	-11.5944
이었고	-11.5945
▁luggage	-11.5947
▁남경필	-11.5947
▁힘입어	-11.5947
▁scientific	-11.5949
▁Talk	-11.595
▁일할	-11.595
하나	-11.5951
▁지불	-11.5951
▁취업자	-11.5951
▁개시	-11.5952
▁봉사활동	-11.5953
▁500,000	-11.5954
▁임대료	-11.5954
계획을	-11.5955
0	-11.5956
li	-11.5958
▁스토리	-11.5959
▁행	-11.596
▁중심이	-11.596
regular	-11.5961
chairman	-11.5961
▁taught	-11.5961
▁simultaneously	-11.5962
▁반발	-11.5964
▁Anseong	-11.5964
이야	-11.5964
공무원	-11.5967
▁kick	-11.5969
▁중국인	-11.5969
명에게	-11.5969
▁Time	-11.5972
▁매달	-11.5974
▁학대	-11.5975
▁자칫	-11.5975
▁publication	-11.5975
▁nations	-11.5975
bae	-11.5977
▁전해	-11.5977
▁Book	-11.5979
▁수시	-11.598
▁불편	-11.5982
래도	-11.5982
▁철수	-11.5986
▁Previously	-11.5989
▁환자의	-11.5989
▁택배	-11.5992
꽃	-11.5993
▁이들에게	-11.5994
▁일본인	-11.5996
▁disappear	-11.5996
▁시설이	-11.5996
▁기소된	-11.5998
▁KIA	-11.6002
▁Autonomy	-11.6002
▁competing	-11.6002
▁closure	-11.6004
▁violent	-11.6005
▁고객에게	-11.6006
▁explaining	-11.6007
▁Guard	-11.6008
▁eggs	-11.6008
주가	-11.6008
위가	-11.6008
▁적용해	-11.6009
▁했을	-11.6009
▁requesting	-11.6009
▁소요되는	-11.601
▁사이버	-11.6012
려는	-11.6013
▁sing	-11.6013
▁경기도에서	-11.6014
▁주된	-11.6015
▁진주	-11.6016
▁childhood	-11.6016
▁흉기	-11.6017
▁부스	-11.6018
▁reverse	-11.6018
▁gun	-11.6019
▁조회	-11.6019
▁aren	-11.602
▁아니요	-11.602
자료	-11.6022
▁시점	-11.6025
▁폭	-11.6028
▁heading	-11.6028
▁transparent	-11.603
▁missionary	-11.6031
▁Chuncheon	-11.6036
▁생기는	-11.6036
▁상당수	-11.6039
▁창작	-11.604
▁때문으로	-11.6043
▁files	-11.6043
▁unavoidable	-11.6044
▁경기도의회	-11.6045
▁rises	-11.6048
▁양식	-11.605
▁가요	-11.6051
국민	-11.6051
▁예전	-11.6051
▁대한민국의	-11.6052
▁나서고	-11.6052
▁편집	-11.6052
현재	-11.6053
신청	-11.6054
▁throw	-11.6054
▁돕기	-11.6054
▁snacks	-11.6055
만원으로	-11.6058
허가	-11.6058
▁모양새	-11.6058
▁sand	-11.6061
▁daytime	-11.6062
▁절차가	-11.6064
앤	-11.6064
▁됐다고	-11.6065
▁수차례	-11.6065
식을	-11.6066
릴	-11.6067
▁LH	-11.6067
▁이민	-11.6067
▁tells	-11.6068
관계	-11.607
▁발달	-11.6072
▁newsletter	-11.6073
▁absolute	-11.6073
▁식물	-11.6076
변	-11.6076
oh	-11.6078
▁시인	-11.6081
▁searching	-11.6085
▁민주당이	-11.6086
Y	-11.6086
▁Notwithstanding	-11.6086
▁Bundang	-11.6087
▁혼란	-11.609
▁이후에도	-11.6093
▁성공적인	-11.6093
▁Happy	-11.6094
▁linking	-11.6095
시험	-11.6095
▁increasingly	-11.6096
▁녹색	-11.6096
▁아마존	-11.6097
▁디자이너	-11.6097
▁agents	-11.6098
▁우유	-11.6099
▁취급	-11.61
▁끊이지	-11.61
▁objects	-11.6102
▁사망한	-11.6104
▁상관없이	-11.6104
▁publishing	-11.6105
▁rescued	-11.6106
시즌	-11.6108
hak	-11.6108
▁outlets	-11.6111
내가	-11.6114
▁없었습니다	-11.6114
인천광역시	-11.6114
▁prospective	-11.6115
▁Room	-11.6115
▁Ra	-11.6115
▁visa	-11.6116
▁문화에	-11.6121
son	-11.6121
▁사회가	-11.6121
▁것이었다	-11.6123
▁긴밀	-11.6125
▁소비자들이	-11.6126
▁malls	-11.6127
▁국회에	-11.613
▁인형	-11.6131
per	-11.6132
▁기재부	-11.6133
▁Golden	-11.6136
▁춤을	-11.6136
▁부실	-11.6139
▁진전	-11.614
▁필요성을	-11.614
▁midst	-11.614
300	-11.6142
▁hide	-11.6142
▁exempted	-11.6144
▁공간으로	-11.6144
▁Confucian	-11.6145
▁inland	-11.6146
▁제공해	-11.6146
▁restriction	-11.6147
▁카카오	-11.6148
▁사우디	-11.615
▁경우에도	-11.6152
▁threw	-11.6156
▁말씀을	-11.6158
▁차량에	-11.6158
▁marking	-11.6159
▁depends	-11.616
▁hosting	-11.616
▁정당한	-11.616
▁financing	-11.616
▁Constitution	-11.6165
▁연예인	-11.6166
▁세계적	-11.6166
▁보험료	-11.6168
▁각호의	-11.6168
▁synergy	-11.617
▁불거진	-11.617
최근	-11.6171
Mayor	-11.6171
▁provisional	-11.6171
▁Nexen	-11.6171
▁문제의	-11.6172
▁창립	-11.6172
▁Superintendent	-11.6173
▁부대	-11.6176
44	-11.6177
▁건전	-11.6178
펀드	-11.6179
▁책이	-11.6179
▁갑니다	-11.6179
▁신축	-11.6181
▁kill	-11.6181
▁기차	-11.6182
▁국회가	-11.6182
▁국적	-11.6182
▁이집트	-11.6183
▁아르헨티나	-11.6183
▁commemorative	-11.6184
▁exposure	-11.6185
▁즐겨	-11.619
로서의	-11.619
시가	-11.6191
▁failing	-11.6192
▁salt	-11.6193
pped	-11.6193
du	-11.6195
▁허리	-11.6195
▁전개	-11.6195
▁성별	-11.6196
▁happening	-11.6198
▁공정한	-11.6199
견	-11.6199
단이	-11.6199
▁공포	-11.6201
▁되기를	-11.6202
▁펼치고	-11.6203
▁시신	-11.6203
ies	-11.6204
▁편이다	-11.6204
▁부총리	-11.6205
▁Geum	-11.6206
력이	-11.6207
▁보고서는	-11.6212
▁소스	-11.6212
▁Broadcasting	-11.6213
Even	-11.6214
With	-11.6215
▁Yangcheon	-11.6216
▁3.1	-11.6217
▁할아버지	-11.6217
▁중국을	-11.6217
▁booths	-11.6219
▁유망	-11.6221
pon	-11.6221
▁자율	-11.6224
▁publicity	-11.6225
시설을	-11.6228
▁objective	-11.6229
섭	-11.6229
▁내년도	-11.6229
▁세금을	-11.623
▁제안을	-11.6231
▁주석	-11.6233
▁Ham	-11.6233
결	-11.6233
don	-11.6234
▁원인으로	-11.6235
▁오르는	-11.6237
lo	-11.6239
▁항공사	-11.6242
▁결정할	-11.6243
년의	-11.6244
섬	-11.6248
▁메르스	-11.6249
▁parliament	-11.6254
▁체포	-11.6256
2)	-11.6258
▁characteristic	-11.6259
▁rankings	-11.6259
▁건강에	-11.6259
▁invitation	-11.6261
▁Hyeon	-11.6262
▁열람	-11.6263
"),	-11.6264
specializing	-11.6265
▁시작한다	-11.6265
하나요	-11.6266
▁일요일	-11.6267
장과	-11.6269
▁후보는	-11.6269
▁희망하는	-11.627
▁김경수	-11.6272
▁나누는	-11.6273
▁규정한	-11.6273
▁않다고	-11.6274
▁진심으로	-11.6274
▁산업통상자원부	-11.6275
▁균형	-11.628
▁나라가	-11.6281
▁업체들이	-11.6283
Integrated	-11.6283
▁categories	-11.6283
▁Argentina	-11.6284
▁belongs	-11.6285
Re	-11.6285
면서도	-11.6285
▁uniforms	-11.6286
▁Companies	-11.6286
퍼	-11.6288
▁해석이	-11.6288
능력	-11.6288
▁연합	-11.6292
taek	-11.6293
▁birds	-11.6293
▁선출	-11.6293
ak	-11.6295
▁spoke	-11.6297
▁거둔	-11.6298
부정적인	-11.63
▁간호사	-11.6301
▁manufacturer	-11.6302
▁concerts	-11.6304
▁명단	-11.6305
▁최씨	-11.6306
▁서면	-11.6306
▁forming	-11.6307
대에	-11.6307
▁mention	-11.6308
▁enthusiastic	-11.6312
▁maritime	-11.6312
▁KOSPI	-11.6312
▁예수	-11.6313
▁예정이며	-11.6314
▁Evaluation	-11.6315
IC	-11.6316
▁Du	-11.6319
▁keeps	-11.6323
▁기억이	-11.6323
▁부모가	-11.6323
▁직	-11.6325
▁인쇄	-11.6327
▁수술을	-11.6327
▁functional	-11.6328
▁확실한	-11.6329
▁ties	-11.6329
▁Catholic	-11.633
▁IoT	-11.6331
▁guardian	-11.6332
▁업무협약	-11.6333
▁간부	-11.6335
▁77	-11.6336
wan	-11.6336
▁exams	-11.6337
▁응답	-11.6339
▁없	-11.6339
▁TF	-11.6341
선을	-11.6341
33	-11.6342
▁phrase	-11.6344
▁성희롱	-11.6344
▁greenhouse	-11.6345
▁지표	-11.6347
▁본인의	-11.6347
▁예약을	-11.6349
▁알지	-11.635
▁오프라인	-11.6351
▁KOSDAQ	-11.6355
▁참고	-11.6355
▁수원시	-11.6357
▁개최된다	-11.6358
▁일어나	-11.6358
▁recovered	-11.6359
▁설치한	-11.6359
악	-11.6359
황	-11.6361
▁바이어	-11.6363
▁journalists	-11.6366
▁전형	-11.6367
▁아픈	-11.6369
▁보내주세요	-11.637
장으로	-11.6372
▁들여	-11.6372
▁선택을	-11.6373
▁Though	-11.6373
조선	-11.6373
▁벌어진	-11.6375
▁전국적으로	-11.6377
▁challenges	-11.6382
▁flights	-11.6382
▁contributing	-11.6383
▁Beach	-11.6384
▁Best	-11.6384
▁Premier	-11.6385
▁강동구	-11.6387
▁조리	-11.6388
▁감소한	-11.6388
▁flat	-11.639
34	-11.6391
▁관광지	-11.6391
war	-11.6393
▁소식	-11.6394
▁architecture	-11.6398
▁음성	-11.64
▁African	-11.64
▁거죠	-11.6402
▁부상을	-11.6403
▁것이며	-11.6404
▁제안한	-11.6405
▁revealing	-11.6406
▁파트너	-11.6407
▁보육	-11.6407
공급	-11.6408
▁쓰지	-11.6409
▁acquire	-11.641
▁물에	-11.6411
▁방식이다	-11.6411
▁알리고	-11.6411
▁많다는	-11.6412
▁Taiwanese	-11.6412
▁세포	-11.6413
▁맨	-11.6413
▁USA	-11.6414
▁prohibited	-11.6415
▁방해	-11.6415
▁건물이	-11.6416
▁넣고	-11.6417
▁수급	-11.642
▁유지할	-11.6421
▁Druking	-11.6426
▁Yeoncheon	-11.6427
▁fired	-11.6427
▁poured	-11.6427
▁그와	-11.6428
▁건조	-11.6429
▁presenting	-11.643
▁components	-11.6431
▁산정	-11.6431
▁Political	-11.6431
▁Living	-11.6432
구역	-11.6435
▁Nations	-11.644
▁2011,	-11.644
▁Angeles	-11.6441
▁해석된다	-11.6442
▁끝나는	-11.6444
▁거뒀다	-11.6445
▁숙박	-11.6447
연구원은	-11.6449
▁안전사고	-11.6449
▁71	-11.6451
▁2015.	-11.6455
▁wishes	-11.6457
▁languages	-11.6459
con	-11.6459
▁helicopter	-11.646
▁입찰	-11.6461
▁끝내	-11.6463
▁파는	-11.6464
▁차로	-11.6467
▁흥행	-11.6469
▁탈퇴	-11.647
▁개최한	-11.647
▁들었습니다	-11.6471
▁모른다	-11.6471
자동차	-11.6472
government	-11.6472
▁wood	-11.6476
▁seconds	-11.6477
▁남북관계	-11.6477
▁한국에서는	-11.6481
▁자꾸	-11.6485
▁동생	-11.6485
▁지급하는	-11.6485
▁deployed	-11.6486
▁shoot	-11.6488
▁커졌다	-11.6488
▁Take	-11.6489
▁수면	-11.6489
▁취미	-11.6489
▁펼쳤다	-11.6489
▁줄이기	-11.649
▁auditor	-11.6491
이상	-11.6491
▁신인	-11.6491
▁신흥국	-11.6491
전에서	-11.6492
▁Icheon	-11.6493
▁이어져	-11.6494
▁입장이	-11.6494
▁대회에	-11.6495
▁수준에	-11.6495
▁Live	-11.6496
▁민주노총	-11.6497
▁세종	-11.6498
▁herself	-11.6499
▁electoral	-11.6499
▁일종	-11.6499
▁Goseong	-11.65
▁Critics	-11.65
▁끼	-11.6501
▁연금	-11.6501
▁convey	-11.6501
▁decade	-11.6504
▁veterans	-11.6505
▁본회의	-11.6506
▁구청	-11.6509
▁controlled	-11.651
▁peaceful	-11.651
sin	-11.651
▁생각보다	-11.6511
▁군수	-11.6514
▁excavation	-11.6515
▁worldwide	-11.6515
▁postponed	-11.6515
▁proved	-11.6517
▁정할	-11.6517
▁남자친구	-11.6518
▁논리	-11.652
디자인	-11.6521
▁draws	-11.6521
▁마음으로	-11.6522
▁고객님	-11.6523
▁Basic	-11.6523
▁못하게	-11.6523
과정에서	-11.6524
▁stops	-11.6525
▁얼굴이	-11.6525
▁줍니다	-11.6526
▁Their	-11.6526
▁개최되는	-11.6528
▁Statistics	-11.6529
▁시작할	-11.6529
쿠	-11.653
▁painful	-11.653
▁retired	-11.6531
▁사태가	-11.6531
private	-11.6531
▁삶이	-11.6531
▁Suk	-11.6532
▁추적	-11.6533
▁제공하기	-11.6533
▁적응	-11.6534
▁출신의	-11.6534
▁수업이	-11.6535
의료	-11.6536
▁일본은	-11.6537
가족	-11.6538
▁influenced	-11.6539
▁km	-11.654
▁투	-11.6543
▁depression	-11.6543
▁상시	-11.6545
▁만족	-11.6545
point	-11.6546
의회	-11.6547
▁오늘날	-11.6548
▁youths	-11.655
▁88	-11.6553
▁발목	-11.6553
▁지역주민	-11.6554
▁outbreak	-11.6554
▁가사	-11.6556
▁designer	-11.6557
▁conversion	-11.6557
▁고대	-11.6558
탑	-11.6559
▁74	-11.6561
▁기반을	-11.6562
▁이어가고	-11.6563
▁belief	-11.6564
▁취약계층	-11.6565
▁생태	-11.6565
▁세계의	-11.6566
▁seasons	-11.6572
▁잃은	-11.6572
▁diesel	-11.6572
▁없던	-11.6572
▁described	-11.6573
▁overtime	-11.6573
▁split	-11.6575
▁Pro	-11.6576
▁Earth	-11.6576
▁공시	-11.6577
▁구미	-11.6577
▁merger	-11.6579
▁연대	-11.6581
▁Plant	-11.6581
▁options	-11.6581
▁relationships	-11.6584
▁오후에	-11.6584
▁judging	-11.6587
▁소득이	-11.6587
▁sewage	-11.6587
▁목사는	-11.6587
▁Bento	-11.6589
▁airline	-11.659
▁활력	-11.6591
▁celebration	-11.6592
▁통지	-11.6592
생산	-11.6592
▁정체	-11.6593
▁가족들이	-11.6593
▁상금	-11.6595
▁마시고	-11.6596
▁69	-11.6596
▁c	-11.6602
▁설치하고	-11.6604
▁confirming	-11.6605
▁이주	-11.6607
▁essay	-11.6607
▁몰려	-11.6607
▁relieve	-11.6608
▁줄일	-11.6609
▁철	-11.6612
▁방영	-11.6612
▁공연은	-11.6612
▁recall	-11.6614
▁rebound	-11.6614
▁자영업자	-11.6615
▁SM	-11.6616
▁faithfully	-11.6617
심사	-11.6618
▁micro	-11.662
ted	-11.662
▁lifting	-11.6624
시티	-11.6625
▁잠깐	-11.6627
°	-11.6628
▁facilitate	-11.6629
▁MOU	-11.663
▁최적	-11.663
▁frozen	-11.6632
메	-11.6632
▁업계에서	-11.6633
▁affection	-11.6633
▁신라	-11.6634
▁deposits	-11.6634
▁유전자	-11.6635
▁측에	-11.6635
SNS	-11.6635
▁탄력	-11.6636
▁정해진	-11.6636
▁screened	-11.6639
▁논란에	-11.6643
▁negotiating	-11.6646
▁irregularities	-11.6646
▁순수	-11.6646
▁영유아	-11.6649
▁graduated	-11.665
▁printing	-11.6651
▁Yangju	-11.6657
▁불량	-11.6658
▁powder	-11.6658
▁채소	-11.6659
▁정면	-11.666
귀	-11.6661
▁어렵게	-11.6661
▁재능	-11.6661
▁bribery	-11.6662
▁그중	-11.6665
▁아무도	-11.6665
ous	-11.6666
▁주목	-11.6667
▁작가가	-11.6669
▁확인된	-11.6669
49	-11.6669
▁지명	-11.6671
▁월요일	-11.6673
▁waters	-11.6673
점이	-11.6675
▁Councilor	-11.6675
▁imposition	-11.6675
▁organizing	-11.6675
▁definitely	-11.6675
▁1994	-11.6676
▁Garden	-11.6677
▁많을	-11.6678
▁만료	-11.668
▁Dobong	-11.6682
est	-11.6682
했으면	-11.6684
▁한강	-11.6688
▁Treasury	-11.669
▁줄이고	-11.669
▁등급	-11.669
▁실정이다	-11.6691
▁(2	-11.6693
▁conclude	-11.6693
▁laid	-11.6693
▁indictment	-11.6694
▁protested	-11.6694
▁확대하고	-11.6695
▁Champions	-11.6696
등록	-11.6698
▁compromise	-11.6702
▁massage	-11.6704
자와	-11.6704
▁단위로	-11.6705
▁historic	-11.6706
▁teeth	-11.6706
▁선보이는	-11.6711
▁merit	-11.6711
▁문장	-11.6712
위는	-11.6712
▁금융당국	-11.6715
▁Ui	-11.6716
▁삭제	-11.6718
sil	-11.6718
▁wonderful	-11.6718
▁대표적	-11.6718
▁과감	-11.672
해줄	-11.6722
▁동남아	-11.6723
if	-11.6723
▁여부가	-11.6723
▁explore	-11.6724
▁성분	-11.6727
▁자극	-11.6727
▁강좌	-11.6728
시키기	-11.6731
▁quarantine	-11.6732
68	-11.6733
▁Extension	-11.6734
▁exists	-11.6736
(6	-11.6736
▁remind	-11.6737
▁목적이	-11.6738
▁Dokdo	-11.6739
▁sport	-11.674
▁않는다면	-11.6742
▁것들을	-11.6743
▁musicians	-11.6743
법을	-11.6745
▁나타난	-11.6745
▁사정	-11.6746
▁해군	-11.6748
▁요	-11.6748
▁goalkeeper	-11.6749
▁confessed	-11.675
▁받으며	-11.675
▁이뤄지는	-11.675
공간	-11.6751
▁workplaces	-11.6752
보수	-11.6753
▁올해도	-11.6753
사용	-11.6754
▁시스템이	-11.6755
▁운송	-11.6755
지고	-11.6755
▁golden	-11.6755
▁증가세	-11.6757
ik	-11.6758
back	-11.6759
▁zero	-11.676
▁Christ	-11.676
▁일시	-11.6761
▁전인	-11.6762
▁여부에	-11.6763
▁buyer	-11.6764
▁볼거리	-11.6764
▁밝혔습니다	-11.6765
▁uploaded	-11.6766
▁romance	-11.6767
▁ages	-11.677
(7	-11.677
▁심화	-11.677
▁규칙으로	-11.6774
▁높여	-11.6775
▁요구한	-11.6776
▁골키퍼	-11.6779
▁testimony	-11.6779
ch	-11.6783
▁dominated	-11.6784
▁설치하는	-11.6784
라운드	-11.6785
률이	-11.6785
▁playground	-11.6786
▁숲	-11.6787
▁fix	-11.6788
▁theaters	-11.6789
▁tank	-11.6789
▁이자	-11.6791
▁바라보는	-11.6792
▁원고	-11.6792
▁공모전	-11.6793
장에	-11.6794
▁framework	-11.6794
▁transformed	-11.6795
체제	-11.6796
▁Creative	-11.6797
▁충돌	-11.6799
pyeong	-11.6801
▁occupation	-11.6801
하다는	-11.6801
장의	-11.6802
▁tool	-11.6802
▁안전성	-11.6805
▁폭염이	-11.6806
▁임무	-11.6806
▁돼서	-11.6807
▁Kyu	-11.6808
▁채택	-11.6809
▁machinery	-11.681
▁Facilities	-11.681
▁California	-11.681
시면	-11.6811
▁시작하는	-11.6811
머	-11.6812
▁toilet	-11.6816
▁보세요	-11.6818
▁공무원의	-11.6819
▁될지	-11.6823
▁광역	-11.6824
▁학기	-11.6824
▁noteworthy	-11.6824
▁무조건	-11.6824
▁robots	-11.6825
▁요리를	-11.6825
규제	-11.683
술	-11.6832
▁hotels	-11.6833
▁CBS	-11.6835
▁guards	-11.6835
▁auction	-11.6837
▁확정된	-11.6838
▁everywhere	-11.684
▁공고	-11.684
▁홀로	-11.6841
▁런던	-11.6842
▁받	-11.6843
▁개최된	-11.6843
▁cuts	-11.6844
▁취하고	-11.6845
밤	-11.6845
▁다이어트	-11.6846
▁제기된	-11.6848
▁실시했다	-11.6849
▁sells	-11.6849
▁석유	-11.685
▁봐도	-11.685
▁정규	-11.6851
▁음	-11.6853
▁supervise	-11.6853
▁순으로	-11.6853
▁학생의	-11.6854
▁stir	-11.6854
▁prestigious	-11.6854
▁capable	-11.6855
▁vocational	-11.6855
▁하도록	-11.6861
▁일부가	-11.6862
▁않는다고	-11.6862
▁주행	-11.6864
▁Kimchi	-11.6864
간의	-11.6864
▁rush	-11.6865
▁육군	-11.6865
▁멤버들	-11.6867
▁횡령	-11.6868
▁성격이	-11.6868
▁생명	-11.6869
▁용기	-11.687
▁Joong	-11.687
▁도착한	-11.687
▁하세요	-11.6872
주셔서	-11.6873
▁fly	-11.6874
▁비치	-11.6874
▁의자	-11.6876
▁독자	-11.6876
▁참여가	-11.6876
▁고민이	-11.6876
▁가족의	-11.6876
▁Isn	-11.6877
for	-11.6877
▁operational	-11.6882
▁Osaka	-11.6885
▁lie	-11.6886
고등학교	-11.6886
▁적발됐다	-11.6889
▁eastern	-11.689
본부장	-11.6891
▁explosion	-11.6892
im	-11.6893
▁protests	-11.6893
▁sheet	-11.6896
▁더해	-11.6897
▁내외	-11.6899
▁leap	-11.69
▁Expo	-11.69
▁심장	-11.6901
▁복무	-11.6901
▁shut	-11.6902
인들이	-11.6904
▁대단	-11.6904
▁올해로	-11.6905
▁인원이	-11.6906
▁대리	-11.6908
▁대대적	-11.691
▁행위가	-11.6912
웅	-11.6913
변경	-11.6914
▁lodging	-11.6915
▁서울과	-11.6915
67	-11.6916
▁recycling	-11.6916
완전한	-11.6917
▁프랜차이즈	-11.6918
이었지만	-11.6921
천만원	-11.6922
▁산업이	-11.6924
▁이른다	-11.6926
▁중에서도	-11.6927
55	-11.6927
▁패키지	-11.6928
▁뉴	-11.6929
▁transparency	-11.693
▁dating	-11.693
▁LNG	-11.693
▁꼽히는	-11.693
▁내놨다	-11.6933
▁rear	-11.6934
▁이외에	-11.6934
워	-11.6935
▁시대의	-11.6935
▁전담	-11.6936
▁의류	-11.6937
▁feed	-11.6938
▁colleagues	-11.6939
▁조사결과	-11.694
▁사회를	-11.6941
▁확인을	-11.6942
▁요인이	-11.6943
혀	-11.6943
▁영등포구	-11.6943
▁Furthermore	-11.6945
FC	-11.6946
▁차트	-11.6947
▁highway	-11.6947
정치	-11.6948
▁집중되고	-11.6948
▁주목받고	-11.6948
▁경제에	-11.695
▁실효성	-11.695
To	-11.6951
해질	-11.6953
▁context	-11.6954
▁불만이	-11.6955
▁주인	-11.6955
▁instructions	-11.6957
▁요인	-11.6959
▁Orchestra	-11.696
▁discover	-11.6961
▁사건과	-11.6962
▁심판	-11.6962
▁surpassed	-11.6962
▁borrowed	-11.6962
▁취	-11.6963
▁화물	-11.6963
▁Hi	-11.6965
군의	-11.6965
Director	-11.6966
▁애니메이션	-11.6966
▁축제가	-11.6967
▁찾아가는	-11.6971
chon	-11.6973
▁근로	-11.6975
▁오염	-11.6976
▁대책이	-11.6978
▁걱정이	-11.6979
gok	-11.698
▁170	-11.6981
ne	-11.6981
▁공사가	-11.6981
▁시행하는	-11.6982
▁언니	-11.6982
▁1950	-11.6983
업계	-11.6984
▁conglomerates	-11.6984
▁소유자	-11.6986
▁우즈	-11.6986
▁Electric	-11.6986
▁워크숍	-11.6988
▁언론에	-11.6989
▁비난	-11.6989
▁Le	-11.699
▁주관	-11.699
▁economies	-11.6991
▁미래에	-11.6991
▁Baseball	-11.6991
▁Sydney	-11.6992
▁Traditional	-11.6992
▁시나리오	-11.6993
▁공연장	-11.6994
▁Corps	-11.6994
▁남편이	-11.6994
▁basement	-11.6995
중소기업	-11.6998
▁반려동물	-11.6998
▁하늘	-11.6999
▁땀	-11.6999
▁advantages	-11.6999
▁고객들	-11.7
▁긴장	-11.7001
▁subsidized	-11.7003
▁shouldn	-11.7003
▁지정한	-11.7004
▁wireless	-11.7005
함이	-11.7006
▁대외	-11.7007
▁시계	-11.7009
▁말로	-11.7013
받은	-11.7013
▁부문에서	-11.7014
▁chocolate	-11.7014
밭	-11.7016
▁liberal	-11.7017
▁종전선언	-11.7018
▁보여줄	-11.7018
▁가득한	-11.7021
심의위원회	-11.7021
▁Egypt	-11.7022
▁Shopping	-11.7023
▁강조한	-11.7028
▁pine	-11.7029
▁MERS	-11.7031
▁업계의	-11.7032
어서	-11.7033
▁Bay	-11.7036
sam	-11.7036
▁aggressive	-11.7037
▁assist	-11.7039
▁qualifications	-11.7041
▁장관과	-11.7043
mouth	-11.7043
▁기록하며	-11.7044
▁walked	-11.7045
고용	-11.7045
▁classroom	-11.7046
64	-11.7046
▁textbooks	-11.7046
08	-11.7046
▁패스트트랙	-11.7048
▁greeting	-11.7048
▁세상에	-11.7049
▁재발	-11.7049
▁목포	-11.7051
▁slowing	-11.7051
▁선전	-11.7051
▁최저	-11.7052
▁Bloomberg	-11.7052
▁fellow	-11.7052
▁솔로	-11.7052
▁promptly	-11.7053
▁과학기술정보통신부	-11.7053
▁steering	-11.7053
▁열악한	-11.7054
▁rewards	-11.7055
▁Advisory	-11.7056
▁borrow	-11.7058
▁처음에는	-11.706
▁해킹	-11.7062
▁실형	-11.7063
▁UAE	-11.7064
▁적발	-11.7064
▁경찰청	-11.7064
▁의원들	-11.7065
▁voters	-11.7066
▁Fortress	-11.7068
▁착용	-11.7068
▁Traffic	-11.707
▁유학	-11.707
맨	-11.707
▁날인	-11.7071
▁보도에	-11.7072
▁Learning	-11.7072
에서부터	-11.7073
▁작년에	-11.7074
▁pack	-11.7075
▁다들	-11.7075
▁전파	-11.7078
▁판단을	-11.7078
과학	-11.7079
▁broadcaster	-11.708
▁패	-11.708
▁touching	-11.7081
▁attach	-11.7083
▁95	-11.7084
▁focuses	-11.7085
▁강렬	-11.7086
▁증대	-11.7086
▁sang	-11.7087
▁restored	-11.7087
moon	-11.7089
▁색상	-11.7089
▁m	-11.709
▁내역	-11.7093
▁계약서	-11.7093
▁hip	-11.7093
▁추구하는	-11.7093
▁부활	-11.7093
▁유리한	-11.7094
▁induce	-11.7096
대출	-11.7097
▁어르신	-11.7097
값	-11.7097
▁청사	-11.7098
▁afford	-11.7098
▁drove	-11.7098
문제	-11.7099
▁이해관계	-11.7099
▁forests	-11.7101
▁opens	-11.7101
▁파괴	-11.7103
▁폭발	-11.7103
▁데이트	-11.7103
▁꺼내	-11.7104
▁등록된	-11.7105
▁ongoing	-11.7106
▁노동계	-11.7108
▁금융권	-11.7108
▁스케줄	-11.7109
▁혁신성장	-11.711
▁해가	-11.7112
▁늘어나	-11.7112
▁shutdown	-11.7115
▁저하	-11.7118
▁진행해	-11.7119
depth	-11.712
▁성매매	-11.7121
▁청약	-11.7122
▁occasion	-11.7122
ia	-11.7122
▁늦은	-11.7125
▁공유하고	-11.7125
▁색깔	-11.7126
▁Or	-11.7129
▁Italian	-11.7129
▁ginseng	-11.7129
gon	-11.713
▁법원행정처	-11.713
▁가족을	-11.713
▁사람들과	-11.7131
▁남자가	-11.7131
▁단일	-11.7131
▁인력을	-11.7136
▁남쪽	-11.7138
▁에어	-11.7139
▁극장	-11.7142
▁attempts	-11.7143
▁못했습니다	-11.7143
▁1.2	-11.7145
▁liquor	-11.7145
▁worn	-11.7145
ka	-11.7146
▁cultivation	-11.7146
▁manufactured	-11.7146
▁분노	-11.7146
하라는	-11.7147
▁2010,	-11.7147
▁체계적인	-11.7149
▁이뤄지고	-11.715
▁했으나	-11.7153
▁supervisor	-11.7154
▁가로	-11.7154
▁abortion	-11.7157
▁remote	-11.7159
▁coalition	-11.716
▁뇌물	-11.7161
▁회신	-11.7161
▁Yonsei	-11.7161
▁창조	-11.7161
▁만나고	-11.7162
▁acknowledged	-11.7162
▁grandfather	-11.7162
▁풍경	-11.7162
▁바뀐	-11.7162
▁presents	-11.7165
▁근육	-11.7165
▁critics	-11.7166
▁특별법	-11.7166
▁Five	-11.7167
▁안정적으로	-11.7169
▁고통을	-11.717
▁대처	-11.717
▁주신	-11.717
▁굳이	-11.7171
▁스트레스	-11.7172
▁Republican	-11.7173
▁alive	-11.7173
▁태도를	-11.7174
▁위치해	-11.7176
▁therefore	-11.7178
right	-11.7179
▁surveys	-11.718
▁후에도	-11.718
▁도착할	-11.718
▁믿음	-11.718
▁제기했다	-11.7181
▁퇴직	-11.7183
칸	-11.7183
▁근무하는	-11.7183
▁lay	-11.7184
▁이루고	-11.7185
ke	-11.7185
▁누	-11.7186
▁contributions	-11.7191
▁attributed	-11.7192
▁Site	-11.7194
▁recruited	-11.7196
▁Sharing	-11.7196
▁내수	-11.7198
▁회의록	-11.7198
▁플레이	-11.7198
▁가공	-11.72
▁접수된	-11.7201
▁Should	-11.7201
▁객실	-11.7201
▁여성을	-11.7202
▁자원봉사	-11.7202
▁홀	-11.7203
▁서울시는	-11.7205
신고	-11.7206
▁NH	-11.7207
▁Stream	-11.7207
▁dignity	-11.7207
▁구조를	-11.7208
▁싸이	-11.7208
▁등에게	-11.7209
▁케이블	-11.7213
bang	-11.7213
했었다	-11.7215
▁추진해	-11.7217
였어요	-11.7221
▁worries	-11.7223
▁무척	-11.7223
▁informatization	-11.7224
▁월드	-11.7224
품	-11.7225
▁연결하는	-11.7225
▁라면	-11.7226
▁camping	-11.7226
▁미니	-11.7227
ol	-11.7227
▁doubt	-11.7227
▁똑같은	-11.7227
▁저기	-11.7227
보세요	-11.7229
▁시청자	-11.7232
▁serves	-11.7234
▁방송된	-11.7235
▁중복	-11.7235
▁집이	-11.7235
▁guarantees	-11.7236
▁additionally	-11.7236
▁보증	-11.7236
▁재미있는	-11.7238
▁나오기	-11.7239
▁시세	-11.724
▁rarely	-11.7241
▁print	-11.7241
대책	-11.7242
나는	-11.7246
▁부르는	-11.7247
▁대학에	-11.7247
▁변호사가	-11.725
▁노력하고	-11.7253
▁Criminal	-11.7256
▁액션	-11.7256
▁한국교회	-11.7256
You	-11.7257
▁내신	-11.726
▁슈퍼	-11.726
▁무대에서	-11.726
▁responding	-11.7261
▁납품	-11.7262
▁모자	-11.7262
이라서	-11.7263
▁저출산	-11.7263
▁축	-11.7264
▁commitment	-11.7264
▁직원을	-11.7264
high	-11.7264
노동	-11.7266
빛	-11.7266
▁간편	-11.7269
▁ceiling	-11.727
▁piano	-11.727
▁releasing	-11.727
▁Staff	-11.727
▁applies	-11.727
▁김성태	-11.727
▁음식점	-11.7271
▁tall	-11.7273
▁campus	-11.7273
놀이	-11.7273
▁일도	-11.7277
▁확보를	-11.7277
▁homeless	-11.728
▁널	-11.7281
합니까	-11.7283
경찰서	-11.7284
▁디자인을	-11.7285
▁congratulatory	-11.7285
▁이하로	-11.7286
▁pregnancy	-11.7287
▁증가할	-11.7287
▁베네수엘라	-11.7289
▁금방	-11.729
님	-11.7291
▁민간인	-11.7292
▁대결	-11.7292
▁고령화	-11.7295
▁장소에	-11.7296
▁화학	-11.7296
▁아티스트	-11.7298
▁armed	-11.7299
▁문재인정부	-11.7301
▁스튜디오	-11.7301
▁gratitude	-11.7301
wing	-11.7302
▁deleted	-11.7303
였지만	-11.7303
▁abilities	-11.7304
해진	-11.7305
▁Sky	-11.7308
▁활용하는	-11.7308
▁길게	-11.7309
▁끝날	-11.731
▁infant	-11.7313
▁(5	-11.7313
▁bound	-11.7315
▁보건	-11.7315
ance	-11.7316
▁커다란	-11.7317
▁Navy	-11.7317
▁drastically	-11.7317
▁Fed	-11.7317
▁inflation	-11.7319
▁accurately	-11.7319
스트	-11.732
농	-11.7321
ad	-11.7321
▁스트레스를	-11.7324
▁자신에게	-11.7325
▁시간과	-11.7327
bum	-11.7327
▁nomination	-11.7327
▁조별리그	-11.7327
전략	-11.7328
▁고향	-11.7329
▁안전하고	-11.7332
▁포스터	-11.7332
▁Sometimes	-11.7335
▁나라에서	-11.7335
▁James	-11.7335
▁발의	-11.7337
▁영역	-11.7337
만대	-11.7337
▁나타나고	-11.7339
▁생겼다	-11.734
▁구는	-11.734
▁감소했다	-11.7343
건을	-11.7345
▁구로구	-11.7346
kwon	-11.7347
▁pizza	-11.7349
▁요구하고	-11.7349
▁있니	-11.7349
▁물건이	-11.7349
▁투기	-11.735
▁acceptance	-11.7351
▁Gochang	-11.7351
▁카자흐스탄	-11.7352
▁도구	-11.7353
▁technique	-11.7359
76	-11.7359
▁experiment	-11.736
▁협회	-11.736
▁skill	-11.7361
▁유입	-11.7363
▁ill	-11.7363
▁quota	-11.7364
▁개념	-11.7365
▁인상이	-11.7366
▁많았고	-11.7367
평화	-11.7367
▁침대	-11.7369
▁법을	-11.7369
▁같아서	-11.7371
▁switch	-11.7372
▁covering	-11.7373
coastal	-11.7373
▁평소에	-11.7373
▁양쪽	-11.7374
▁항의	-11.7376
▁방침	-11.7376
▁강화하는	-11.7377
▁evil	-11.7378
▁발령	-11.7379
▁비건	-11.738
원은	-11.7381
▁신청이	-11.7381
▁수습	-11.7383
▁Gwacheon	-11.7383
▁싱글	-11.7384
▁스위스	-11.7384
▁개인이	-11.7386
▁국무위원장의	-11.7387
▁장식	-11.7388
▁지점	-11.7388
▁연설	-11.739
▁의미한다	-11.7391
▁드러난	-11.7391
▁직접적인	-11.7391
상담	-11.7392
▁alley	-11.7393
▁버전	-11.7394
▁measurement	-11.7394
▁indicating	-11.7396
moo	-11.74
▁이용이	-11.74
▁대금	-11.7402
▁apart	-11.7407
소득	-11.7411
으로써	-11.7411
▁환경에	-11.7411
▁금융위기	-11.7411
▁Kwan	-11.7412
▁Hoe	-11.7413
sing	-11.7413
▁살아가는	-11.7415
▁shower	-11.7419
▁함	-11.7419
▁환율	-11.7423
▁타는	-11.7424
▁고객들이	-11.7424
▁손님이	-11.7425
▁의거	-11.7426
▁예매	-11.7428
▁disappointed	-11.7428
▁분류	-11.7429
▁골을	-11.7429
▁initially	-11.7431
ya	-11.7433
▁남북이	-11.7433
월말	-11.7435
▁(3	-11.7435
▁가격으로	-11.7437
▁crowd	-11.744
▁결정한	-11.7441
▁밀	-11.7442
▁인적	-11.7442
▁연내	-11.7443
▁expecting	-11.7443
▁heavily	-11.7444
▁inquiry	-11.7444
▁aftermath	-11.7444
combining	-11.7444
▁축구대표팀	-11.7444
▁되는지	-11.7445
▁abolished	-11.7446
▁specialty	-11.7447
▁기술과	-11.7447
▁면에서	-11.7448
▁고소	-11.7448
gye	-11.7449
▁구성되어	-11.7449
녀	-11.7449
▁숨졌다	-11.745
▁Seongdong	-11.7451
▁차장	-11.7452
▁adopt	-11.7452
▁ocean	-11.7456
▁투입해	-11.7457
▁전투	-11.7459
▁발언이	-11.7459
페	-11.746
▁congestion	-11.746
▁creativity	-11.746
▁redevelopment	-11.746
▁없으며	-11.746
▁floating	-11.7461
▁공급이	-11.7462
▁차지	-11.7463
▁발매	-11.7464
▁핀테크	-11.7465
▁합리적인	-11.7466
▁있어도	-11.7467
▁말하고	-11.7468
▁소지	-11.7469
▁정도다	-11.7469
▁decades	-11.7471
▁키우는	-11.7472
▁audition	-11.7472
▁계절	-11.7473
▁그곳	-11.7474
▁incidents	-11.7476
▁platforms	-11.7477
장애	-11.7477
▁texture	-11.7478
퍼센트	-11.7481
▁소음	-11.7481
ally	-11.7481
▁지속될	-11.7483
▁represents	-11.7485
▁도시재생	-11.7486
▁tvN	-11.7486
▁아이의	-11.7487
▁추진하기	-11.7488
▁내용이다	-11.7489
▁저감	-11.7489
▁instruments	-11.7491
▁packaging	-11.7492
seung	-11.7493
▁captain	-11.7494
▁추모	-11.7495
▁실시간으로	-11.7496
▁개선에	-11.7496
▁줄이는	-11.7498
▁clause	-11.7503
유통	-11.7504
▁photographs	-11.7504
▁육아	-11.7505
▁자재	-11.7507
▁mathematics	-11.7508
▁necessity	-11.7508
▁흔히	-11.7508
▁사회에서	-11.751
▁adoption	-11.7511
▁콩	-11.7512
▁newspapers	-11.7512
▁documentary	-11.7512
▁때문이라고	-11.7514
▁desired	-11.7514
▁Ilsan	-11.7515
▁연기가	-11.7516
▁방학	-11.7517
▁schedules	-11.7517
▁initiative	-11.7519
▁Championship	-11.7519
투어	-11.752
▁환경에서	-11.7522
2,000	-11.7523
▁천천히	-11.7524
▁offensive	-11.7526
▁합의했다	-11.7526
▁포기	-11.7526
▁midterm	-11.7528
대와	-11.7528
염	-11.7529
56	-11.753
▁벌어졌다	-11.753
▁flying	-11.7536
▁법관	-11.7537
▁감동	-11.7538
▁철강	-11.7538
▁짐을	-11.7538
Mart	-11.7538
▁truly	-11.754
▁Geumcheon	-11.7541
▁프로그램으로	-11.7544
▁청소년들이	-11.7549
▁clinic	-11.7549
▁소개하는	-11.7549
관이	-11.7552
▁fault	-11.7553
▁religion	-11.7553
에겐	-11.7554
▁연구팀	-11.7555
▁harsh	-11.7555
▁총재	-11.7556
▁journey	-11.7557
▁prominent	-11.7557
▁tendency	-11.7557
▁weakened	-11.7558
▁Jamsil	-11.7558
▁lies	-11.7558
▁문화와	-11.7559
육	-11.756
▁추정	-11.7562
▁벤투	-11.7564
돈	-11.7565
곳에	-11.7566
▁disorder	-11.7567
힌	-11.7568
▁ritual	-11.7568
▁의무를	-11.7569
▁서면으로	-11.7569
▁입구	-11.7569
▁긍정적으로	-11.7572
▁이혼	-11.7573
호가	-11.7573
▁어릴	-11.7573
▁개발이	-11.7574
▁편리하게	-11.7574
▁확인이	-11.7577
dan	-11.7578
▁승진	-11.7578
▁수주	-11.758
▁그거	-11.7582
▁자를	-11.7584
▁했어	-11.7584
▁trucks	-11.7584
▁conducts	-11.7585
▁자유한국당이	-11.7585
▁Volunteer	-11.7585
▁shelter	-11.7585
▁observe	-11.7586
▁본부장	-11.7587
▁width	-11.7589
▁Accounting	-11.759
▁페이스북에	-11.7591
라인	-11.7591
▁곽	-11.7592
▁승객	-11.7593
▁virus	-11.7593
▁효과적으로	-11.7594
▁떨어졌다	-11.7594
▁선정한	-11.7596
▁비공개	-11.7597
▁의혹과	-11.76
▁아닐	-11.76
이니	-11.7601
▁exception	-11.7601
▁representation	-11.7601
▁대북제재	-11.7603
▁고려할	-11.7603
▁맺은	-11.7605
▁batteries	-11.7605
59	-11.7605
00	-11.7606
▁토트넘	-11.7606
▁greatest	-11.7607
▁lowering	-11.7607
▁주최하는	-11.7608
▁금고	-11.7608
▁rough	-11.7608
▁leak	-11.7609
▁견해	-11.7609
▁severely	-11.761
▁yuan	-11.7611
▁면담	-11.7612
가리	-11.7612
heon	-11.7612
95	-11.7613
▁기각	-11.7613
▁지침	-11.7614
▁전세계	-11.7614
speed	-11.7615
▁드라마가	-11.7615
▁분석해	-11.7616
▁Mexican	-11.7617
▁준비해	-11.7619
개선	-11.762
▁변동	-11.762
▁업체에	-11.7621
▁somewhere	-11.7622
▁자녀가	-11.7625
▁운동이	-11.7625
위원	-11.7625
▁반영한	-11.7626
▁grace	-11.7628
범죄	-11.7628
CC	-11.7631
▁말하기	-11.7631
력을	-11.7633
▁수익률	-11.7634
▁거리에	-11.7634
▁지낸	-11.7634
▁carriers	-11.7636
▁harm	-11.7636
▁정보화	-11.7637
▁대략	-11.7638
▁Jecheon	-11.7638
▁아니에요	-11.7638
▁Later	-11.7639
▁정기적으로	-11.764
range	-11.7642
▁면세점	-11.7643
故	-11.7648
track	-11.7648
▁중지	-11.7649
▁emission	-11.765
▁lacking	-11.7652
▁반전	-11.7653
▁줘	-11.7654
▁1991	-11.7656
▁sweat	-11.7656
▁모은다	-11.7656
▁resign	-11.7658
▁재원	-11.7658
▁협의체	-11.7659
▁지갑	-11.766
▁확대될	-11.7661
▁교부	-11.7661
▁나누어	-11.7662
▁관객	-11.7662
,“	-11.7662
▁lying	-11.7665
▁위안부	-11.7666
음을	-11.7666
종합	-11.7667
▁Chungju	-11.7667
▁다해	-11.7667
▁surge	-11.7667
▁운	-11.7667
▁drone	-11.7668
▁속한	-11.767
▁commit	-11.767
▁붙	-11.767
▁Kazakhstan	-11.767
▁확인하는	-11.7671
▁치고	-11.7672
▁달려	-11.7673
▁sight	-11.7674
▁wash	-11.7674
부산	-11.7675
tic	-11.7677
세가	-11.7677
▁매니저	-11.7679
춘	-11.768
▁정신	-11.7682
▁Brazilian	-11.7683
▁대화가	-11.7685
▁교원	-11.7686
▁differentiated	-11.7688
▁서대문구	-11.7688
▁cyber	-11.7688
▁대학이	-11.7689
▁occurrence	-11.7689
▁생각하지	-11.769
▁완벽하게	-11.769
▁특혜	-11.7691
▁여수	-11.7691
▁관점에서	-11.7691
▁해상	-11.7692
▁갖는다	-11.7693
식품	-11.7694
▁단체가	-11.7695
▁활동하는	-11.7696
▁접속	-11.7697
▁여름철	-11.7697
▁넥센	-11.7698
▁warehouse	-11.7699
▁빛을	-11.77
▁revive	-11.7701
▁overwhelming	-11.7703
▁극단	-11.7703
프로그램	-11.7705
▁있었어	-11.7706
▁PM	-11.7706
스가	-11.7706
연합	-11.7707
▁부작용	-11.7708
▁시대가	-11.7709
▁Asan	-11.771
▁searched	-11.7715
▁맞서	-11.7715
▁doors	-11.7716
▁할머니	-11.7717
▁Gil	-11.7717
▁revenues	-11.7717
▁후기	-11.7717
▁Liberal	-11.772
▁패스	-11.772
▁excitement	-11.772
▁assessed	-11.7721
▁범위를	-11.7722
▁반입	-11.7722
▁높	-11.7725
▁readers	-11.7725
▁환수	-11.7726
▁Songdo	-11.7726
▁sum	-11.7726
▁medals	-11.7729
75	-11.7735
responsibilities	-11.7736
▁excellence	-11.7736
▁1:1	-11.7737
▁소집	-11.7737
▁neglected	-11.7737
▁Language	-11.7738
▁먹	-11.7739
▁GDP	-11.774
▁방침을	-11.7741
▁북쪽	-11.7746
▁obligation	-11.7749
▁먹으면	-11.775
▁sections	-11.775
▁professionals	-11.775
혜	-11.7752
학회	-11.7753
▁television	-11.7753
▁literary	-11.7753
▁처리하기	-11.7754
▁업체들	-11.7756
누	-11.7756
▁유아	-11.7757
PM	-11.7758
▁과제를	-11.7758
연대	-11.7758
순위	-11.7758
▁Ik	-11.7759
▁층	-11.7759
▁suggesting	-11.7761
▁여는	-11.7764
▁위생	-11.7766
▁국악	-11.7766
▁honest	-11.7767
▁romantic	-11.7769
▁stepping	-11.7769
▁출판	-11.777
▁Netflix	-11.7773
▁고인	-11.7773
▁테마	-11.7776
▁테이블	-11.7776
▁평생교육	-11.7778
party	-11.7778
▁영세	-11.7779
▁집권	-11.7779
▁중독	-11.778
▁crops	-11.7781
▁결정에	-11.7786
▁첨부하여	-11.7787
▁engines	-11.7787
▁세계에	-11.7787
▁VIP	-11.7788
▁tracking	-11.7788
▁발주	-11.7789
▁임상	-11.7789
▁발생한다	-11.7789
▁동시	-11.7789
▁beating	-11.779
▁절약	-11.7793
▁구역	-11.7793
)."	-11.7793
▁habits	-11.7796
▁싶다는	-11.7798
▁이슈가	-11.7799
이던	-11.7799
▁방어	-11.7801
▁나지	-11.7802
▁shaking	-11.7802
▁uncertainty	-11.7802
▁Steel	-11.7804
▁시작되는	-11.7805
▁실력이	-11.7805
▁announcing	-11.7807
▁문제와	-11.7807
▁뚜렷한	-11.7808
▁피자	-11.7808
▁노무현	-11.7808
▁clouds	-11.7809
▁남북정상회담	-11.781
65	-11.7811
▁Tell	-11.7811
▁pan	-11.7813
▁lift	-11.7813
▁gains	-11.7814
▁전반적으로	-11.7815
지부	-11.7817
▁주간	-11.7817
▁협력해	-11.7818
▁혼자서	-11.7818
-1	-11.7818
▁wholesale	-11.7819
▁Putin	-11.782
▁ICO	-11.782
▁Data	-11.7821
▁밝혀졌다	-11.7821
▁Manchester	-11.7822
▁주어진다	-11.7824
▁IC	-11.7826
▁김포	-11.7828
욱	-11.7829
▁Class	-11.783
▁평	-11.7832
▁이송	-11.7833
▁appearing	-11.7834
▁상의	-11.7834
▁abnormal	-11.7834
▁nominated	-11.7838
▁당했다	-11.784
▁Veterans	-11.784
▁임용	-11.7841
▁52-	-11.7841
행사	-11.7845
▁극복	-11.7846
▁공감	-11.7846
▁아트	-11.7847
께	-11.7849
▁사진과	-11.785
▁hobby	-11.7852
▁과세	-11.7853
▁muscles	-11.7853
▁성장이	-11.7854
통신	-11.7854
▁네덜란드	-11.7854
▁취할	-11.7855
▁행사장	-11.7856
▁최다	-11.7856
▁전체적으로	-11.7858
▁살기	-11.7858
▁공정성	-11.7859
73	-11.786
▁outer	-11.786
AR	-11.7862
▁abused	-11.7862
▁성실	-11.7862
ie	-11.7863
냈다	-11.7863
▁왔는데	-11.7863
▁운영위원회	-11.7864
▁주식을	-11.7866
▁prizes	-11.7866
▁원합니다	-11.7869
▁stuck	-11.7869
▁chest	-11.7869
▁downward	-11.7869
▁integrity	-11.7869
▁renewed	-11.787
▁Jan	-11.787
▁작품은	-11.787
▁Sokcho	-11.787
▁금융위원회	-11.7877
▁가이드	-11.7878
▁ring	-11.7878
▁Bok	-11.788
▁alert	-11.7882
▁Dan	-11.7882
▁taxis	-11.7883
▁Canadian	-11.7884
교통	-11.7885
받아	-11.7885
▁모르겠어요	-11.7886
▁sincerely	-11.7887
gyeong	-11.789
▁남측	-11.7893
▁defects	-11.7893
▁라이브	-11.7894
▁sincere	-11.7896
▁때에	-11.7898
▁풀어	-11.7898
▁유지하는	-11.7899
▁흡연	-11.7901
▁diplomacy	-11.7902
▁제기되고	-11.7903
▁advantageous	-11.7903
회가	-11.7903
하다고	-11.7904
▁종일	-11.7905
▁사회적경제	-11.7906
▁라디오	-11.7907
▁서버	-11.7909
▁빛	-11.7909
▁pen	-11.7909
▁잇는	-11.791
▁죽	-11.7912
▁들어온	-11.7912
▁82	-11.7914
▁Prince	-11.7919
▁Madrid	-11.7919
▁저지른	-11.7919
▁비타민	-11.7919
▁thereby	-11.7919
▁있었는지	-11.7919
혁	-11.792
▁자원봉사자	-11.792
▁occupied	-11.792
▁경제를	-11.7922
▁exclusively	-11.7922
▁executed	-11.7923
▁모델이	-11.7924
▁쉽고	-11.7926
▁효과적인	-11.7928
▁항목	-11.7928
▁길에	-11.7928
▁공시가격	-11.7929
▁오디션	-11.7929
▁입장에서는	-11.7931
인의	-11.7931
▁그녀를	-11.7932
▁운명	-11.7932
▁날을	-11.7932
만달러	-11.7934
▁의원을	-11.7934
▁inquiries	-11.7936
자원	-11.7936
▁consistently	-11.7937
▁미친	-11.7937
▁의문	-11.7937
▁삼성바이오로직스	-11.7938
▁전체를	-11.7939
▁3%	-11.7939
▁Vision	-11.794
▁인증을	-11.7942
▁마련하고	-11.7942
됐으나	-11.7942
▁추첨	-11.7943
▁기사가	-11.7944
▁Paulo	-11.7944
▁노력할	-11.7945
▁수사권	-11.7946
▁단가	-11.7947
▁첫째	-11.7947
smoking	-11.7948
▁당선	-11.795
io	-11.795
▁기구	-11.7951
▁aviation	-11.7952
▁unstable	-11.7952
▁fought	-11.7952
▁Seongbuk	-11.7953
▁impressed	-11.7953
▁명동	-11.7953
▁Toronto	-11.7954
▁챙겨	-11.7956
▁폭우	-11.7956
등을	-11.7956
▁바이러스	-11.7956
▁결과로	-11.7958
▁관광객들이	-11.7959
▁undergo	-11.796
▁shorter	-11.7962
▁emerge	-11.7964
life	-11.7965
아파트	-11.7965
방법	-11.7966
▁Use	-11.7968
▁삼아	-11.7968
▁코스피	-11.7968
member	-11.7969
▁칠	-11.7969
▁vitality	-11.7969
▁푸틴	-11.7969
▁국제사회	-11.797
▁sincerity	-11.797
▁Participants	-11.797
▁resigned	-11.7972
▁exempt	-11.7972
She	-11.7973
53	-11.7973
▁frequency	-11.7974
야말로	-11.7976
▁광장	-11.7976
▁지사의	-11.7977
사고	-11.7978
▁activists	-11.798
▁경쟁력이	-11.7981
▁지분을	-11.7984
의원	-11.7984
동의	-11.7985
▁명확히	-11.7986
▁Sim	-11.7989
학습	-11.7992
▁감안해	-11.7992
▁위험한	-11.7993
▁접할	-11.7994
안을	-11.7995
▁arm	-11.7996
▁득점	-11.7999
▁Y	-11.8
▁Paul	-11.8
▁referring	-11.8001
74	-11.8003
▁comfortably	-11.8003
▁높아질	-11.8004
설비	-11.8005
▁연계해	-11.8006
▁처리할	-11.8006
▁언제든지	-11.8006
▁취지로	-11.8006
▁관람객들	-11.8008
▁저한테	-11.8008
▁거점	-11.8008
▁기다리는	-11.8008
▁EXO	-11.8009
▁자랑하는	-11.801
시행	-11.8012
▁가능하다는	-11.8013
▁Spring	-11.8014
driving	-11.8015
▁모델로	-11.8015
▁제공된다	-11.8017
▁examined	-11.8017
▁지켜	-11.8018
▁간판	-11.8018
▁갑질	-11.8018
▁학교가	-11.802
▁Telecom	-11.802
▁errors	-11.802
▁놀	-11.8021
▁renewal	-11.8022
문을	-11.8022
학생	-11.8022
▁Baekje	-11.8024
▁우려도	-11.8025
▁민주평화당	-11.8027
ck	-11.803
▁전수	-11.8031
▁FIFA	-11.8032
원에	-11.8033
▁대법원장이	-11.8035
▁unprecedented	-11.8037
▁Chungcheongbuk	-11.8037
▁Campus	-11.8037
▁Up	-11.8038
mu	-11.8038
▁교육에	-11.8038
▁속속	-11.8039
Let	-11.804
▁대목이다	-11.804
▁thin	-11.8041
▁사법부	-11.8041
▁maximize	-11.8042
경찰	-11.8043
액이	-11.8044
▁엔터테인먼트	-11.8046
▁구성해	-11.8046
▁버닝썬	-11.8046
▁소년	-11.8046
▁shocking	-11.8047
▁벌금	-11.8049
South	-11.8049
▁이슬람	-11.8053
▁봅니다	-11.8053
▁criticizing	-11.8055
▁obtaining	-11.8055
▁다양하게	-11.8055
▁Berlin	-11.8056
▁완공	-11.8057
▁고령	-11.8057
▁본선	-11.8059
▁hang	-11.806
▁거라	-11.8062
pa	-11.8063
▁예상보다	-11.8064
▁자료가	-11.8065
▁울	-11.8065
▁Enterprises	-11.8066
What	-11.8067
▁어린이들이	-11.8067
ranging	-11.8068
▁맥	-11.807
▁의약품	-11.807
▁구정	-11.8071
▁cheese	-11.8071
▁requiring	-11.8071
▁fishery	-11.8071
▁Nonghyup	-11.8072
▁알겠습니다	-11.8074
▁고위급	-11.8074
▁2%	-11.8074
글	-11.8074
▁입력	-11.8074
▁Yeoju	-11.8075
▁기재	-11.8077
지로	-11.8079
▁Israel	-11.8088
▁2018,	-11.8089
▁쪽에	-11.8091
▁Space	-11.8093
▁Oct	-11.8094
▁사용되는	-11.8095
▁투쟁	-11.8096
▁숙제	-11.8097
▁못하면	-11.8098
63	-11.8099
▁바쁜	-11.8099
▁추세다	-11.8099
▁앞으로는	-11.8099
▁praise	-11.81
▁1995	-11.81
▁그쳤다	-11.8101
▁compare	-11.8103
인력	-11.8103
▁기후변화	-11.8103
▁taxpayer	-11.8103
▁드디어	-11.8105
▁Stock	-11.8105
▁시점에	-11.8105
▁disposable	-11.8106
흥	-11.8107
▁anticipated	-11.8109
▁주장하고	-11.8109
▁welcomed	-11.8109
▁전격	-11.8109
▁자격이	-11.8111
▁DNA	-11.8114
▁정산	-11.8115
▁근절	-11.8116
▁Bus	-11.8117
▁정신을	-11.8117
▁approve	-11.8117
▁중국어	-11.8119
▁미치지	-11.8121
▁김동연	-11.8122
▁본청	-11.8123
▁태어난	-11.8123
▁빼	-11.8124
쯤	-11.8124
▁KEPCO	-11.8124
▁진행되며	-11.8125
▁자립	-11.8127
▁수상자	-11.8128
90	-11.8128
▁경로	-11.8128
▁infection	-11.8129
▁걸고	-11.8129
▁accepting	-11.813
▁상품은	-11.8131
▁보복	-11.8133
▁받으면	-11.8135
▁제보	-11.8138
▁en	-11.8139
▁choosing	-11.8139
▁surplus	-11.8139
▁batting	-11.8139
▁variable	-11.8139
▁같네요	-11.8139
▁flagship	-11.8139
▁급속	-11.814
▁초콜릿	-11.814
▁범	-11.814
▁suppliers	-11.814
▁Haeundae	-11.8141
▁수색	-11.8142
▁진흥	-11.8143
▁타당성	-11.8143
▁남용	-11.8144
▁donate	-11.8146
▁일어날	-11.8147
교육감	-11.8149
결과	-11.8153
▁시기를	-11.8154
ba	-11.8155
▁unnecessary	-11.8156
▁근데	-11.8157
▁CGV	-11.8158
▁lifestyle	-11.8161
▁asleep	-11.8161
▁걸리는	-11.8163
▁메이	-11.8163
▁windows	-11.8164
▁대표를	-11.8164
At	-11.8164
▁cats	-11.8166
됐을	-11.8169
▁신기술	-11.8169
▁Non	-11.817
▁주주	-11.8171
▁계약이	-11.8172
▁pleasure	-11.8174
▁Ssangyong	-11.8174
▁수백	-11.8175
▁exemplary	-11.8175
▁바라요	-11.8175
▁빅뱅	-11.8176
▁지자체가	-11.8177
▁delivering	-11.8178
▁마쳤다	-11.8179
▁고시	-11.818
▁78	-11.8184
▁여름에	-11.8184
▁입점	-11.8184
▁관심사	-11.8184
▁Maybe	-11.8185
▁아니하다	-11.8187
ICT	-11.819
▁상해	-11.8191
▁leakage	-11.8191
▁Bupyeong	-11.8193
▁pointing	-11.8193
▁보전	-11.8195
서비스를	-11.8195
▁painted	-11.8195
▁가능하고	-11.8197
담당	-11.8198
창업	-11.8199
궁	-11.82
▁입국	-11.82
▁신곡	-11.8201
▁사랑의	-11.8205
▁liver	-11.8205
▁absent	-11.8207
재단	-11.8207
▁입장에서	-11.8207
▁센터장	-11.8208
▁suspicious	-11.8208
▁suits	-11.8209
▁traveled	-11.8211
▁자치구	-11.8211
[...]
