<unk>	0
<s>	0
</s>	0
.	-3.38353
▁the	-3.55836
,	-3.64923
▁of	-4.28443
▁	-4.28945
s	-4.40483
▁and	-4.50086
▁to	-4.52655
▁a	-4.77565
▁in	-4.85316
을	-4.87273
이	-4.97213
-	-5.00343
의	-5.04807
에	-5.12525
▁is	-5.19938
가	-5.24086
를	-5.39749
'	-5.43347
▁that	-5.43697
는	-5.49639
▁for	-5.5226
은	-5.63363
▁I	-5.74629
▁on	-5.74785
▁The	-5.7628
▁as	-5.89024
▁be	-5.90614
▁it	-5.91898
한	-5.94818
▁with	-5.95713
고	-5.96046
과	-5.97605
▁수	-5.9816
▁was	-6.00406
로	-6.02709
▁by	-6.0284
도	-6.06796
)	-6.08359
▁are	-6.14131
▁will	-6.1574
ing	-6.16157
에서	-6.16963
▁"	-6.20214
으로	-6.29282
▁있다	-6.30261
?	-6.33143
▁at	-6.33365
일	-6.37139
ed	-6.3718
인	-6.39932
와	-6.41968
▁from	-6.42698
▁you	-6.43148
▁have	-6.4667
지	-6.46688
▁이	-6.48879
▁“	-6.50508
▁has	-6.50591
(	-6.52937
▁‘	-6.53209
하는	-6.53304
’	-6.53592
해	-6.53794
t	-6.54177
▁which	-6.55302
할	-6.58266
하고	-6.58657
▁who	-6.59275
▁not	-6.60185
▁1	-6.6194
다	-6.64234
▁an	-6.64449
”	-6.65444
d	-6.65551
·	-6.66677
th	-6.72162
▁this	-6.74087
기	-6.74555
▁Korea	-6.7567
▁(	-6.77344
▁but	-6.8041
▁있는	-6.82113
▁등	-6.82551
▁2	-6.85058
▁In	-6.85214
▁can	-6.85616
▁or	-6.88125
"	-6.89034
m	-6.94044
▁said	-6.96889
▁3	-6.97491
년	-6.98967
▁It	-6.98985
▁A	-7.00886
▁shall	-7.01217
ly	-7.02139
▁한	-7.0409
▁year	-7.04519
▁been	-7.05616
▁he	-7.06453
▁time	-7.07139
했다	-7.0767
▁제	-7.08508
▁were	-7.08559
▁그	-7.106
▁there	-7.11771
▁한다	-7.12877
시	-7.12913
자	-7.12954
만	-7.1356
▁Korean	-7.16034
▁so	-7.16114
▁전	-7.18623
대	-7.19432
▁Kim	-7.19805
▁his	-7.21162
수	-7.22408
서	-7.23036
▁such	-7.23293
."	-7.23522
▁also	-7.24743
어	-7.25792
▁after	-7.26067
▁people	-7.2636
된	-7.28902
▁when	-7.29174
▁5	-7.29965
▁more	-7.29969
▁및	-7.30218
S	-7.30467
▁their	-7.30695
월	-7.31085
▁것으로	-7.31381
▁4	-7.31728
사	-7.32057
리	-7.32108
▁they	-7.32511
▁if	-7.34887
주	-7.35559
▁10	-7.35899
▁than	-7.36052
▁first	-7.36263
▁about	-7.37736
y	-7.39047
▁out	-7.39187
▁중	-7.39247
들이	-7.3931
▁head	-7.40183
er	-7.41472
적	-7.43038
▁대한	-7.44033
e	-7.44604
면	-7.46329
▁we	-7.46911
성	-7.49249
상	-7.49865
▁Gyeonggi	-7.49982
스	-7.50504
▁because	-7.52169
in	-7.52487
▁one	-7.53114
에는	-7.54572
정	-7.54898
부	-7.55992
게	-7.56213
▁Seoul	-7.57017
▁my	-7.57478
▁내	-7.57975
진	-7.5805
▁김	-7.58315
n	-7.59022
화	-7.59286
▁up	-7.5944
al	-7.59501
▁6	-7.60024
라	-7.60133
▁위해	-7.60198
▁its	-7.60528
나	-7.60781
하게	-7.61039
전	-7.61489
▁것	-7.62104
▁government	-7.63247
do	-7.63629
▁한국	-7.63675
▁where	-7.64017
▁all	-7.64023
장	-7.64258
2	-7.65029
▁may	-7.66104
동	-7.66121
▁had	-7.66615
▁더	-7.66938
▁me	-7.66984
이다	-7.67024
산	-7.67116
gu	-7.67394
제	-7.6748
▁public	-7.67715
st	-7.67771
원	-7.69025
며	-7.69937
▁through	-7.70038
에게	-7.70256
▁경우	-7.71283
개	-7.71758
하기	-7.7214
▁won	-7.7222
re	-7.72423
구	-7.72561
▁last	-7.72806
▁안	-7.73123
한다	-7.73397
▁7	-7.73932
▁시	-7.74533
▁including	-7.74906
es	-7.76355
▁other	-7.76409
▁under	-7.76427
보	-7.76905
▁Gu	-7.77025
아	-7.7714
까지	-7.77255
▁This	-7.77341
▁do	-7.77876
1	-7.77946
▁할	-7.78019
세	-7.78191
▁two	-7.78243
소	-7.78512
▁like	-7.78984
▁only	-7.7939
▁new	-7.79469
▁due	-7.7972
▁North	-7.80107
▁따라	-7.80229
▁U	-7.82327
,"	-7.82484
/	-7.82595
명	-7.82989
▁over	-7.83763
▁8	-7.84454
▁your	-7.85035
r	-7.85453
▁day	-7.85566
▁주	-7.85695
야	-7.85732
▁정	-7.86408
▁지난	-7.8673
▁held	-7.86764
적인	-7.87451
▁20	-7.87601
ri	-7.87657
▁Province	-7.87658
▁no	-7.88392
선	-7.88483
하지	-7.88628
비	-7.88633
드	-7.89199
ll	-7.89226
조	-7.89452
적으로	-7.89538
▁일	-7.89918
▁때	-7.89953
▁9	-7.90266
차	-7.90327
▁Lee	-7.90335
▁high	-7.90748
▁companies	-7.91098
요	-7.91282
▁통해	-7.91645
용	-7.91758
▁re	-7.92346
▁나는	-7.9349
▁would	-7.9374
▁should	-7.93946
▁National	-7.94584
▁유	-7.95079
▁함께	-7.95182
▁고	-7.95592
▁다	-7.95641
▁신	-7.95741
하여	-7.96836
▁support	-7.9759
▁원	-7.97832
▁As	-7.98107
▁밝혔다	-7.98189
▁사	-7.98227
▁19	-7.98548
▁If	-7.98599
관	-7.98697
▁made	-7.99432
:	-7.99969
▁number	-8.00257
▁work	-8.00299
▁years	-8.00336
▁local	-8.00365
▁them	-8.00647
회	-8.00854
▁것이	-8.01
▁many	-8.01968
▁into	-8.02001
▁We	-8.02051
치	-8.02173
실	-8.02205
▁보	-8.02427
신	-8.02966
▁이번	-8.03837
여	-8.04323
우	-8.0483
▁market	-8.04927
미	-8.05379
재	-8.05478
▁company	-8.05536
▁해	-8.05636
▁두	-8.05636
▁between	-8.06059
▁business	-8.06112
▁지	-8.06221
호	-8.06279
▁가	-8.06311
o	-8.06433
▁make	-8.06773
a	-8.07153
▁30	-8.07605
▁후	-8.07845
법	-8.08217
▁system	-8.08251
▁대	-8.08623
▁K	-8.08932
▁하는	-8.09148
▁take	-8.09348
▁있습니다	-8.0959
되는	-8.09964
▁B	-8.10336
▁오	-8.10337
▁많은	-8.10914
3	-8.10981
▁even	-8.11029
영	-8.11069
▁11	-8.11194
당	-8.113
형	-8.11365
▁12	-8.11531
▁school	-8.11655
▁서울	-8.11701
▁구	-8.11781
분	-8.11833
입니다	-8.1198
),	-8.1202
히	-8.1223
트	-8.12487
▁since	-8.12584
▁There	-8.12956
l	-8.13174
▁위한	-8.13365
▁use	-8.1405
▁S	-8.14526
▁members	-8.15141
▁while	-8.15714
▁go	-8.16312
▁각	-8.16462
▁상	-8.16652
▁등을	-8.16999
▁가장	-8.17004
▁well	-8.17028
▁President	-8.17896
▁기	-8.17965
에서는	-8.18005
식	-8.1819
▁Park	-8.18393
될	-8.18868
▁order	-8.19178
니	-8.19443
▁저는	-8.19567
▁미국	-8.19821
중	-8.19875
▁다른	-8.20048
le	-8.20091
▁good	-8.20192
▁부	-8.20204
▁each	-8.20491
▁말했다	-8.21335
방	-8.21439
I	-8.21535
▁공	-8.21659
or	-8.21768
▁team	-8.22004
k	-8.2255
▁말	-8.22645
연	-8.22935
위	-8.23096
▁비	-8.2311
이라고	-8.2312
하	-8.23423
권	-8.23506
▁her	-8.23535
던	-8.2372
▁다음	-8.24133
러	-8.24167
▁것이다	-8.24172
▁C	-8.24242
▁He	-8.2427
하며	-8.24405
▁했다	-8.24487
▁나	-8.24645
▁잘	-8.24666
단	-8.25189
▁being	-8.25329
물	-8.25539
▁연	-8.25585
▁think	-8.25776
▁장	-8.25784
무	-8.25853
국	-8.26102
유	-8.26206
▁want	-8.26245
경	-8.26332
계	-8.26494
▁get	-8.272
an	-8.27298
ve	-8.27308
▁management	-8.27314
4	-8.27782
▁next	-8.27823
부터	-8.27881
▁expected	-8.28112
▁지역	-8.28332
▁during	-8.28612
▁대해	-8.28631
▁three	-8.2867
▁것은	-8.28884
▁place	-8.28958
공	-8.29008
▁some	-8.29009
르	-8.29249
▁When	-8.29265
▁미	-8.29388
▁게	-8.30218
▁any	-8.3031
마	-8.30326
오	-8.30515
금	-8.30571
A	-8.30631
▁것을	-8.30782
▁15	-8.30822
▁Article	-8.30919
▁project	-8.31199
▁동	-8.31264
▁우리	-8.32049
▁our	-8.32075
D	-8.32424
▁도	-8.32431
▁City	-8.32524
▁million	-8.32654
▁같은	-8.32703
해야	-8.32807
▁etc	-8.32866
▁before	-8.32877
▁Party	-8.32936
안	-8.32944
▁Ministry	-8.33163
ers	-8.33427
▁official	-8.33448
▁meeting	-8.33533
보다	-8.33546
ation	-8.33704
천	-8.33853
▁큰	-8.34531
▁know	-8.34541
▁students	-8.34658
▁various	-8.3473
▁Act	-8.34903
▁person	-8.35223
P	-8.35425
▁자	-8.35684
이나	-8.35879
▁관련	-8.35926
▁could	-8.36558
▁경기도	-8.36666
▁Do	-8.36719
se	-8.36775
▁need	-8.36782
내	-8.37307
▁office	-8.37395
▁불	-8.37451
양	-8.375
▁area	-8.37721
▁소	-8.37889
▁necessary	-8.3796
▁또는	-8.38023
▁second	-8.38055
▁E	-8.38116
p	-8.38118
문	-8.3829
됐다	-8.38356
▁재	-8.38534
il	-8.3875
▁무	-8.3905
on	-8.39175
b	-8.39424
질	-8.39427
▁가운데	-8.39478
▁p	-8.39517
▁바	-8.39861
▁중국	-8.40161
▁police	-8.40194
▁China	-8.40362
▁필요한	-8.40443
돼	-8.40647
청	-8.40698
▁Committee	-8.40774
▁what	-8.40868
▁plan	-8.4123
G	-8.41359
모	-8.41447
▁same	-8.41493
▁month	-8.41549
▁case	-8.41561
종	-8.41841
▁있어	-8.42162
▁이상	-8.4226
g	-8.42516
▁서	-8.42542
▁이후	-8.42924
▁박	-8.43051
▁most	-8.43059
▁뒤	-8.43134
된다	-8.44089
▁그는	-8.44119
들의	-8.44186
ment	-8.44337
급	-8.44842
▁now	-8.44853
▁education	-8.44891
▁사용	-8.4492
i	-8.44927
점	-8.45046
▁residents	-8.45114
하면	-8.45172
ic	-8.45197
석	-8.45612
면서	-8.45669
▁조	-8.45927
▁used	-8.45931
▁총	-8.45935
▁때문에	-8.4595
▁long	-8.45985
▁special	-8.46083
▁Metropolitan	-8.46259
▁world	-8.46855
▁service	-8.4687
▁without	-8.4693
▁세	-8.46959
▁days	-8.46987
▁양	-8.47264
▁don	-8.47356
▁South	-8.47402
▁마	-8.47984
강	-8.4838
되고	-8.48865
▁모	-8.49062
▁Government	-8.49076
▁지난해	-8.49589
▁products	-8.49635
The	-8.49732
▁있도록	-8.5006
▁지원	-8.50181
운	-8.50241
nt	-8.50316
ro	-8.5054
ho	-8.50644
▁end	-8.50755
▁최근	-8.50776
▁저	-8.50803
▁등이	-8.50876
▁former	-8.50962
▁am	-8.51045
▁around	-8.51176
▁life	-8.51224
it	-8.51351
▁Center	-8.51418
들은	-8.51542
▁information	-8.51648
하여야	-8.51774
B	-8.51996
▁how	-8.52065
▁industry	-8.52075
현	-8.52096
▁간	-8.52109
▁You	-8.52335
역	-8.52351
려	-8.52359
▁right	-8.52378
▁investigation	-8.52608
ur	-8.52656
▁하고	-8.52733
교	-8.5286
▁related	-8.53071
▁많이	-8.53086
▁small	-8.5338
▁18	-8.53384
▁just	-8.53736
dong	-8.53962
c	-8.53975
▁특히	-8.54096
▁따른	-8.54241
▁남	-8.54262
▁city	-8.5432
▁According	-8.54613
들	-8.54628
C	-8.54769
▁현재	-8.5502
▁약	-8.55206
▁강	-8.55263
▁관리	-8.55264
▁development	-8.5534
▁event	-8.55397
군	-8.55415
간	-8.5595
▁see	-8.56214
ra	-8.5633
생	-8.56521
파	-8.5655
민	-8.56631
▁거	-8.5664
▁lot	-8.56642
▁이날	-8.56685
학	-8.568
▁facilities	-8.57114
▁국내	-8.57572
ar	-8.57894
지만	-8.57901
▁saying	-8.58186
▁어	-8.58208
▁아	-8.58231
행	-8.58305
▁100	-8.58479
▁G	-8.58592
▁de	-8.58635
▁다양한	-8.58933
▁children	-8.58934
▁경	-8.59033
들을	-8.59037
▁될	-8.59175
▁13	-8.59479
▁올해	-8.59558
▁following	-8.59706
▁다시	-8.59733
에도	-8.59803
▁country	-8.59937
▁large	-8.60039
▁center	-8.60083
she	-8.60109
▁increase	-8.60121
▁세계	-8.60175
▁billion	-8.60265
▁없는	-8.60434
▁home	-8.60514
▁하	-8.60547
▁much	-8.60653
합니다	-8.60927
▁within	-8.60997
▁선	-8.61024
▁데	-8.61192
었다	-8.6131
▁경제	-8.62056
하면서	-8.62663
▁period	-8.62697
▁16	-8.62713
▁14	-8.62819
▁Moon	-8.62877
심	-8.63343
데	-8.63525
▁있다는	-8.63686
▁모두	-8.63737
라고	-8.63841
▁process	-8.63874
▁fact	-8.64023
▁이어	-8.64079
체	-8.64186
출	-8.64225
▁On	-8.64232
▁food	-8.64287
ity	-8.64521
▁일본	-8.64537
▁실	-8.64575
▁performance	-8.64734
▁직접	-8.64829
▁교육	-8.64901
▁among	-8.65037
▁announced	-8.65057
▁제가	-8.65209
▁rate	-8.65438
습니다	-8.65517
▁did	-8.65526
포	-8.65596
▁University	-8.65708
▁help	-8.66057
는데	-8.66102
▁여	-8.66162
T	-8.6627
5	-8.66343
▁social	-8.66469
▁price	-8.66472
▁group	-8.66503
6	-8.66535
▁against	-8.66539
▁내가	-8.66671
건	-8.66998
타	-8.67035
라는	-8.67117
▁경기	-8.67242
7	-8.67371
▁national	-8.67516
un	-8.67536
거	-8.6756
M	-8.67684
▁party	-8.6773
f	-8.67778
▁운영	-8.67897
▁기업	-8.68046
▁economic	-8.68055
▁달	-8.68092
F	-8.68128
ul	-8.68141
nd	-8.68405
ive	-8.68422
▁very	-8.68442
직	-8.68451
터	-8.68505
▁operation	-8.68723
▁come	-8.68913
▁fire	-8.68959
▁문	-8.69308
▁referred	-8.69488
▁사업	-8.69556
▁차	-8.69591
▁시간	-8.69662
▁줄	-8.69785
L	-8.701
▁Jung	-8.70153
▁total	-8.70165
▁구청장은	-8.70373
▁못	-8.70431
▁반	-8.70453
▁back	-8.70469
▁water	-8.70802
▁At	-8.71095
en	-8.71595
▁인	-8.72054
K	-8.72284
▁영화	-8.72353
▁아니라	-8.72597
▁모든	-8.72648
▁보고	-8.72772
▁문화	-8.7294
▁분	-8.73025
▁알	-8.73057
▁found	-8.73063
감	-8.73125
▁financial	-8.73284
na	-8.73289
▁17	-8.73435
▁him	-8.73529
▁whether	-8.73878
▁un	-8.74093
▁way	-8.74132
▁위하여	-8.74154
▁설치	-8.74196
사업	-8.74354
래	-8.74454
▁Jae	-8.74654
▁report	-8.74776
▁situation	-8.74849
▁part	-8.75079
속	-8.75094
▁방	-8.75137
자가	-8.75158
배	-8.75219
시간	-8.75406
▁she	-8.75534
▁성	-8.75535
명이	-8.75593
▁become	-8.75967
▁P	-8.76154
▁지금	-8.76215
▁배	-8.76317
▁down	-8.76332
▁charge	-8.76378
길	-8.76893
▁attention	-8.76943
▁D	-8.77025
하다	-8.77195
관리	-8.77242
▁going	-8.77332
루	-8.77499
▁시작	-8.77599
ent	-8.7763
프	-8.77631
▁등의	-8.77899
▁family	-8.77916
워	-8.78093
▁좋은	-8.78098
병	-8.7825
▁조사	-8.78314
▁budget	-8.78325
▁해당	-8.7848
▁policy	-8.78491
별	-8.78645
▁product	-8.78669
매	-8.78807
el	-8.78826
업	-8.79046
▁없다	-8.79084
력	-8.79154
▁future	-8.79334
위원회	-8.7934
▁발	-8.7934
▁difficult	-8.79384
up	-8.79506
발	-8.79598
이하	-8.7966
▁cases	-8.797
▁visit	-8.79721
▁국가	-8.80092
▁change	-8.801
▁25	-8.8013
▁대표	-8.80205
▁car	-8.80232
▁Governor	-8.80248
▁those	-8.80324
▁officials	-8.80326
억	-8.80388
▁외	-8.80543
▁확인	-8.8056
▁당	-8.80639
ter	-8.8071
▁hard	-8.80767
▁단	-8.80847
▁working	-8.80936
ary	-8.81191
▁construction	-8.81267
▁따르면	-8.81283
린	-8.81394
▁power	-8.81553
the	-8.81584
▁provide	-8.81613
▁하나	-8.81697
▁amount	-8.81771
to	-8.81866
N	-8.81908
at	-8.8192
이라는	-8.82004
▁입	-8.82047
▁set	-8.82064
ry	-8.82088
et	-8.82092
▁된다	-8.82117
▁again	-8.82345
▁이를	-8.82468
디	-8.82594
▁교	-8.82734
▁every	-8.82866
▁means	-8.82929
▁영	-8.83009
8	-8.83028
임	-8.83059
▁F	-8.83082
태	-8.8313
▁파	-8.83148
▁건	-8.83193
R	-8.83198
ion	-8.83298
▁24	-8.83514
크	-8.83596
▁committee	-8.83797
▁different	-8.83963
9	-8.83979
ne	-8.83984
」	-8.84078
▁개	-8.84092
▁경찰	-8.84134
시설	-8.84227
▁'	-8.84288
▁Minister	-8.84307
되어	-8.84457
▁오후	-8.84598
▁Office	-8.84622
반	-8.84813
란	-8.85095
두	-8.85134
▁together	-8.85141
▁초	-8.85355
▁50	-8.85461
▁생각	-8.8562
▁있을	-8.85952
▁member	-8.85962
▁measures	-8.85975
승	-8.8601
E	-8.86047
▁시장	-8.86133
해서	-8.86341
토	-8.86362
피	-8.86433
h	-8.86489
▁오늘	-8.86553
san	-8.86858
▁날	-8.86944
▁Dong	-8.86945
▁culture	-8.8695
▁「	-8.86993
통	-8.87268
▁난	-8.87324
▁우리는	-8.87451
min	-8.87456
▁당시	-8.87509
▁activities	-8.87753
▁hope	-8.8777
지는	-8.87844
▁interest	-8.87974
▁결과	-8.88056
▁particular	-8.88137
층	-8.88164
▁M	-8.88171
남	-8.88207
able	-8.88303
▁진행	-8.88369
▁Busan	-8.88406
▁노	-8.88529
▁problem	-8.88671
노	-8.8876
설	-8.88765
작	-8.88925
증	-8.88977
te	-8.88994
u	-8.89012
▁reported	-8.89177
▁received	-8.89196
▁possible	-8.89402
▁Ordinance	-8.89495
▁countries	-8.89534
hereinafter	-8.89665
▁general	-8.89772
▁best	-8.8988
▁우	-8.90109
▁sales	-8.90124
준	-8.90316
▁명	-8.90342
▁real	-8.90392
레	-8.90408
▁다만	-8.90426
류	-8.90478
▁term	-8.90564
▁Assembly	-8.90662
▁타	-8.90668
▁투자	-8.90758
▁개발	-8.90893
▁province	-8.90898
▁준비	-8.90923
▁스	-8.90994
지역	-8.91009
복	-8.91037
▁US	-8.91206
이라	-8.91226
▁major	-8.91344
▁경우에는	-8.91371
그	-8.91453
▁있었다	-8.91581
▁Please	-8.91599
▁동안	-8.91677
▁Japan	-8.91727
▁private	-8.91941
▁추진	-8.9198
▁say	-8.92086
▁That	-8.92259
▁percent	-8.92267
▁때문이다	-8.92425
▁main	-8.92699
▁room	-8.92705
We	-8.92713
▁있다고	-8.9272
입	-8.92815
▁결정	-8.92929
저	-8.92939
▁관한	-8.92943
▁matters	-8.92945
▁필요	-8.93159
▁북한	-8.9329
her	-8.93394
▁사회	-8.93397
즈	-8.93421
온	-8.93455
w	-8.93456
▁21	-8.93639
약	-8.93786
▁물	-8.93796
▁women	-8.93885
▁첫	-8.93947
▁너무	-8.93974
▁T	-8.94
▁확대	-8.94001
ci	-8.94012
▁give	-8.94099
▁어떤	-8.94201
▁director	-8.94271
▁위	-8.94441
▁job	-8.94553
▁번	-8.94769
▁too	-8.94807
▁areas	-8.94939
ting	-8.94943
▁start	-8.95012
▁game	-8.95041
mi	-8.95058
▁No	-8.95065
▁않은	-8.95143
▁foreign	-8.95228
▁experience	-8.95314
▁높은	-8.95314
▁Samsung	-8.95362
O	-8.95384
▁reason	-8.954
▁Re	-8.9554
▁새로운	-8.95548
▁만큼	-8.95631
▁here	-8.95701
▁until	-8.95812
▁정도	-8.95885
▁today	-8.95921
▁four	-8.96016
▁들어	-8.96113
▁using	-8.96115
▁based	-8.96219
▁산	-8.96294
▁볼	-8.96317
▁important	-8.9635
▁f	-8.96402
▁money	-8.96408
U	-8.96445
▁Education	-8.96473
▁An	-8.96627
")	-8.96871
▁평가	-8.96952
▁pay	-8.9697
ma	-8.96973
했던	-8.97008
▁매	-8.97014
판	-8.9721
▁per	-8.97247
▁27	-8.97343
▁past	-8.97413
▁23	-8.97451
▁data	-8.97474
▁department	-8.97579
▁피	-8.97707
▁technology	-8.97725
▁show	-8.97793
▁check	-8.97809
▁최	-8.97908
▁growth	-8.97984
엔	-8.9811
▁Chinese	-8.98155
▁increased	-8.98199
▁판매	-8.98285
▁전국	-8.98355
▁이런	-8.98476
바	-8.98549
▁신청	-8.98676
▁연구	-8.98698
▁five	-8.98838
▁president	-8.98962
창	-8.98992
▁사람	-8.99113
등	-8.99212
▁참여	-8.99214
▁half	-8.99276
▁why	-8.99351
량	-8.9938
▁able	-8.99458
li	-8.99624
▁정책	-8.99631
항	-8.99661
▁So	-8.99694
▁Japanese	-8.99695
▁still	-8.99909
▁workers	-8.99938
▁decided	-8.99949
기를	-8.99951
▁left	-9.00064
▁22	-9.00066
▁등에	-9.00148
▁off	-9.00228
H	-9.00317
▁media	-9.00353
▁Council	-9.00412
▁합니다	-9.00418
결	-9.00436
센터	-9.00612
▁came	-9.00616
▁request	-9.00619
▁40	-9.00824
▁week	-9.00882
달	-9.00884
▁safety	-9.00913
▁당신은	-9.00935
티	-9.01055
▁New	-9.01189
la	-9.01286
희	-9.01349
ate	-9.01464
de	-9.0175
▁co	-9.01775
▁level	-9.02021
rd	-9.02135
기업	-9.02205
▁또	-9.02522
▁these	-9.02604
▁making	-9.02617
▁house	-9.02679
처럼	-9.02976
▁low	-9.02999
시장	-9.03022
▁심	-9.03126
▁result	-9.03174
격	-9.03392
▁열	-9.035
▁building	-9.03602
▁예	-9.0364
▁만	-9.03803
▁early	-9.03833
▁After	-9.03962
문화	-9.04098
▁Ma	-9.0412
▁이용	-9.04197
▁us	-9.04462
료	-9.04529
집	-9.04556
▁Trump	-9.04586
▁tax	-9.04627
▁당신이	-9.04679
▁find	-9.04741
▁projects	-9.04761
▁적	-9.04853
▁본	-9.04855
▁활동	-9.04927
▁2018	-9.04928
won	-9.04984
했습니다	-9.05002
ch	-9.05051
▁took	-9.05144
색	-9.05291
▁feel	-9.05296
어요	-9.05387
▁pursua	-9.05453
억원	-9.05596
▁일부	-9.057
▁Han	-9.05817
▁results	-9.05858
▁배우	-9.05876
▁기존	-9.05956
▁감사	-9.05974
▁labor	-9.06038
▁온	-9.06155
▁28	-9.06167
▁개선	-9.06426
져	-9.06473
▁26	-9.06604
▁어떻게	-9.06751
▁마련	-9.06765
▁살	-9.06803
▁military	-9.06825
▁감	-9.06859
ist	-9.06907
▁released	-9.06946
들에게	-9.06959
ce	-9.07025
▁않고	-9.07159
▁걸	-9.07211
▁학교	-9.07284
▁관계자는	-9.07333
각	-9.07349
▁health	-9.07392
▁트럼프	-9.0774
▁own	-9.0784
▁What	-9.07879
est	-9.0797
▁paragraph	-9.08001
▁정부	-9.08012
▁agreement	-9.08079
▁issue	-9.08146
si	-9.08241
▁보인다	-9.08245
▁있어요	-9.08464
▁네	-9.08507
항에	-9.08703
▁오전	-9.08878
난	-9.08957
▁KRW	-9.09006
했고	-9.09029
하거나	-9.09045
▁domestic	-9.09068
▁Incheon	-9.09072
▁국제	-9.09121
▁name	-9.09121
lo	-9.09144
▁site	-9.09249
▁great	-9.09371
교육	-9.09384
ated	-9.09535
▁pro	-9.09568
▁purpose	-9.09615
▁화	-9.09632
▁손	-9.09664
▁생산	-9.09725
예	-9.09775
us	-9.09803
▁relevant	-9.10004
▁부산	-9.10042
▁research	-9.10223
▁affairs	-9.10311
▁법	-9.10375
▁times	-9.10381
▁여성	-9.10443
▁Co	-9.10509
ted	-9.10587
절	-9.10588
되지	-9.10674
▁For	-9.10765
▁Cho	-9.10802
했다고	-9.11116
▁오는	-9.1118
▁O	-9.11191
▁However	-9.11259
본	-9.11408
▁economy	-9.1142
▁care	-9.11501
▁global	-9.11507
▁investment	-9.11612
▁도시	-9.11681
ca	-9.12051
▁e	-9.1206
▁love	-9.12096
▁Choi	-9.12312
▁test	-9.12382
목	-9.12417
▁주요	-9.12519
▁strong	-9.1254
▁있으며	-9.12608
▁cultural	-9.1263
▁문제	-9.12661
▁law	-9.12821
▁열린	-9.1283
음	-9.13119
향	-9.13193
▁보내	-9.13295
품	-9.13375
▁속	-9.13487
장이	-9.13542
립	-9.13602
▁여러	-9.13656
▁state	-9.1367
co	-9.13685
▁Dae	-9.13722
거나	-9.13727
▁called	-9.13772
▁있고	-9.13794
기관	-9.13813
장은	-9.13816
▁좀	-9.13849
∼	-9.13906
▁young	-9.14008
▁개최	-9.14133
▁없이	-9.14221
▁진	-9.14244
▁방문	-9.14262
▁집	-9.1428
▁hold	-9.14302
▁front	-9.14314
▁open	-9.14332
▁포	-9.14341
산업	-9.14382
▁then	-9.1443
▁된	-9.14745
▁environment	-9.1498
▁must	-9.15024
▁does	-9.15039
▁추가	-9.15052
▁plans	-9.15083
rs	-9.15099
▁Chairman	-9.15139
더	-9.15164
▁국	-9.1533
▁대통령이	-9.15419
▁Although	-9.15427
▁환경	-9.15436
▁put	-9.15456
▁군	-9.15504
▁addition	-9.15528
▁기술	-9.15556
▁human	-9.15622
▁새	-9.15809
▁attached	-9.15812
▁Hong	-9.15827
▁생활	-9.15859
환	-9.15994
▁citizens	-9.16172
20	-9.16172
▁Court	-9.16206
▁북	-9.16298
ol	-9.16298
철	-9.16437
▁free	-9.16497
man	-9.16612
am	-9.16639
림	-9.16791
▁전체	-9.16817
▁chairman	-9.16987
▁current	-9.17082
카	-9.17213
▁기록	-9.1723
▁구성	-9.17265
에서도	-9.17329
▁받은	-9.17491
▁찾아	-9.17508
▁create	-9.17514
▁산업	-9.1754
▁노력	-9.17817
▁전문	-9.17882
박	-9.17922
▁맞	-9.17933
▁My	-9.18072
▁full	-9.1825
▁medical	-9.1828
만원	-9.18295
▁receive	-9.18351
▁시행	-9.18416
▁Institute	-9.18476
W	-9.18478
▁court	-9.18611
su	-9.18612
▁개인	-9.18617
▁강화	-9.18706
▁music	-9.18719
해요	-9.18756
▁less	-9.18834
▁prosecution	-9.18911
▁어느	-9.18937
▁went	-9.18949
편	-9.19006
▁already	-9.19098
▁pre	-9.19143
▁채	-9.19216
ization	-9.1927
▁body	-9.19348
▁해외	-9.19474
▁계속	-9.19573
▁발생	-9.19591
▁look	-9.19603
▁Jong	-9.19704
▁meet	-9.19724
지원	-9.19773
▁live	-9.19801
▁provincial	-9.19808
▁once	-9.19822
근	-9.19931
▁established	-9.19973
▁사진	-9.19996
▁prevent	-9.20014
▁관심	-9.20042
▁사람이	-9.20061
▁hours	-9.20114
▁아니	-9.20167
▁방송	-9.20191
ia	-9.20204
ju	-9.20302
망	-9.20305
▁May	-9.20319
▁공개	-9.20349
이었다	-9.20405
▁29	-9.20546
▁man	-9.20604
▁according	-9.20619
▁예정이다	-9.20645
버	-9.20769
▁To	-9.20781
▁성장	-9.20784
10	-9.20872
▁play	-9.20884
▁조성	-9.20933
울	-9.21101
▁trade	-9.21129
▁호	-9.21166
다는	-9.21168
▁설명했다	-9.21172
▁point	-9.2123
▁please	-9.21318
be	-9.21412
jin	-9.21438
▁올	-9.21523
▁제공	-9.21547
▁services	-9.21582
처	-9.21623
▁paid	-9.21693
▁participate	-9.21809
po	-9.21862
▁바로	-9.21899
▁음식	-9.21924
▁expenses	-9.2203
▁제품	-9.22112
▁floor	-9.22189
▁season	-9.22196
령	-9.2224
▁적용	-9.22254
ru	-9.22319
평	-9.22356
였다	-9.22372
든	-9.22542
▁stage	-9.22608
▁2017	-9.22681
▁side	-9.22714
▁갈	-9.22796
▁같이	-9.22873
단체	-9.22877
졌다	-9.22976
▁top	-9.22977
▁31	-9.22998
▁competition	-9.23014
▁inter	-9.2302
▁치	-9.23141
▁만들어	-9.23153
ti	-9.23168
▁증가	-9.23183
as	-9.23228
이에요	-9.23322
▁안전	-9.23344
▁both	-9.23374
ta	-9.23439
▁cooperation	-9.23534
tic	-9.23599
▁self	-9.23613
▁employees	-9.23722
▁있	-9.23734
스트	-9.23854
▁program	-9.23936
ating	-9.24006
성을	-9.24045
ha	-9.24049
ness	-9.2412
▁months	-9.24133
▁그리고	-9.2415
▁fine	-9.24193
▁R	-9.24235
▁Association	-9.24255
gi	-9.24269
▁They	-9.24383
▁더욱	-9.24489
열	-9.24512
랑	-9.24543
▁seems	-9.24571
▁처리	-9.24963
합	-9.25015
▁apply	-9.25042
▁send	-9.25073
▁회사	-9.25126
표	-9.2521
▁land	-9.25231
번	-9.25257
론	-9.25431
▁demand	-9.25478
▁가능성이	-9.25479
▁conducted	-9.25598
▁big	-9.25675
▁explained	-9.25709
▁living	-9.25781
▁Young	-9.25809
▁수사	-9.259
30	-9.26005
▁최대	-9.26047
▁집중	-9.26247
▁성공	-9.2625
age	-9.2628
▁cannot	-9.26359
▁사건	-9.2646
sa	-9.26606
▁정말	-9.26607
▁selected	-9.26624
▁dis	-9.26716
▁아닌	-9.26719
▁2016	-9.26806
▁District	-9.26928
▁기간	-9.26947
불	-9.26984
▁line	-9.27075
▁생	-9.27187
업체	-9.27221
▁recently	-9.27298
▁production	-9.27389
▁국회	-9.2746
▁받고	-9.27466
▁t	-9.27562
▁date	-9.27577
으며	-9.2759
▁차량	-9.27714
외	-9.27836
언	-9.28073
네	-9.2809
장을	-9.28105
z	-9.28125
▁ceremony	-9.28131
ng	-9.28147
살	-9.28153
▁training	-9.28165
▁친구	-9.28298
▁old	-9.28329
▁got	-9.28342
▁송	-9.28454
▁design	-9.2848
▁편	-9.28522
▁정부가	-9.28549
▁application	-9.28628
▁있지만	-9.28666
사가	-9.2873
▁Se	-9.28819
▁H	-9.28831
▁morning	-9.28862
광	-9.28867
▁late	-9.28872
▁설명	-9.28945
▁V	-9.29067
▁class	-9.29092
▁2015	-9.29123
▁호의	-9.29133
하도록	-9.29154
▁Service	-9.29253
▁대학	-9.29259
▁contract	-9.29438
id	-9.29494
릴	-9.29519
▁United	-9.29576
▁발표	-9.29577
▁받아	-9.29599
성이	-9.29631
time	-9.29638
▁organizations	-9.29725
.”	-9.2984
▁prices	-9.29889
코	-9.29934
ck	-9.29979
▁요구	-9.3006
변	-9.30091
▁가격	-9.30094
▁Shin	-9.30128
▁지급	-9.30185
▁form	-9.30202
▁대상으로	-9.30263
초	-9.30285
▁Democratic	-9.30376
▁기대	-9.30443
▁되는	-9.30511
▁inspection	-9.30588
▁Since	-9.30638
▁않는	-9.3067
▁추	-9.30794
▁유지	-9.30814
▁시설	-9.30829
▁처음	-9.30861
▁문제가	-9.30867
ke	-9.30939
▁payment	-9.30972
▁업무	-9.30972
팀	-9.31194
ring	-9.31213
▁행정	-9.31281
▁field	-9.31366
▁English	-9.31419
V	-9.3147
▁청	-9.31506
▁popular	-9.31507
▁것입니다	-9.31533
▁agency	-9.31583
▁summit	-9.31583
▁organization	-9.3161
후	-9.31833
▁판단	-9.31855
▁along	-9.31865
▁지정	-9.31944
▁away	-9.31977
▁short	-9.31997
탄	-9.32053
x	-9.32147
▁이미	-9.32193
▁도지사	-9.32346
▁continue	-9.32478
▁선정	-9.32496
▁representative	-9.32501
▁started	-9.32652
▁청와대	-9.3277
ge	-9.32805
mo	-9.32923
▁administration	-9.3296
▁non	-9.3297
▁cost	-9.32998
조제	-9.3303
▁매우	-9.33031
▁리	-9.33058
ir	-9.33074
▁became	-9.33176
▁말한다	-9.33191
▁taking	-9.3356
▁opening	-9.33647
▁accident	-9.33673
습	-9.33757
▁서비스	-9.33779
채	-9.33869
▁visited	-9.33875
▁book	-9.3389
▁thought	-9.33919
▁improve	-9.33928
less	-9.33949
다고	-9.33989
ant	-9.34002
▁community	-9.34018
▁ex	-9.34037
▁백	-9.34282
▁아직	-9.34308
▁주민	-9.34407
▁가족	-9.34435
▁income	-9.34526
▁better	-9.3457
0	-9.34728
▁기관	-9.34737
▁administrative	-9.3477
▁때에는	-9.34858
soo	-9.34873
ong	-9.34905
▁air	-9.34952
▁likely	-9.34974
▁welfare	-9.35001
▁막	-9.3505
락	-9.35113
ga	-9.35141
일까지	-9.35149
▁Bo	-9.35243
▁너	-9.35295
▁decision	-9.35331
▁final	-9.35369
▁발전	-9.35425
▁주문	-9.35445
▁임	-9.35496
▁Gwangju	-9.35763
▁민	-9.35815
▁international	-9.35835
개월	-9.35841
▁구매	-9.35888
▁Where	-9.3592
른	-9.35958
▁Mayor	-9.35973
",	-9.36033
▁Commission	-9.36081
백	-9.36088
일부터	-9.36155
▁night	-9.36237
▁행사	-9.36483
▁(1)	-9.36574
▁당신의	-9.36588
▁another	-9.36654
▁asked	-9.36665
▁leader	-9.36831
▁establish	-9.36854
추	-9.36861
▁확보	-9.36866
▁soon	-9.36905
▁우리가	-9.36963
으면	-9.36979
vi	-9.36994
▁조례	-9.37047
▁video	-9.37047
▁됐다	-9.37057
▁Seo	-9.37068
▁World	-9.37128
▁정보	-9.37155
▁일정	-9.37199
▁tell	-9.37211
▁Kang	-9.37249
▁led	-9.37305
▁국민	-9.37362
▁war	-9.37516
▁treatment	-9.37564
▁School	-9.37571
bu	-9.37616
▁이해	-9.37918
▁promote	-9.38159
▁60	-9.38229
서를	-9.3825
▁현장	-9.38268
young	-9.38292
▁move	-9.38311
me	-9.3837
▁child	-9.38386
um	-9.38477
▁농	-9.38582
▁요청	-9.38597
순	-9.38698
▁election	-9.38714
▁몇	-9.38716
▁가지	-9.38763
▁제작	-9.38845
▁Ji	-9.39011
▁시간이	-9.39043
ad	-9.39155
▁또한	-9.39167
▁De	-9.39213
▁located	-9.39314
▁damage	-9.39353
▁출	-9.39359
▁직	-9.39372
▁third	-9.39631
▁things	-9.39649
▁history	-9.39671
▁trial	-9.39695
▁exchange	-9.39721
▁자신의	-9.39741
▁통	-9.39766
▁들	-9.39841
▁해결	-9.3987
▁let	-9.39885
▁rights	-9.39899
▁먼저	-9.40044
▁role	-9.40109
▁공동	-9.40187
ous	-9.40236
했지만	-9.40265
았다	-9.40289
▁크게	-9.4036
▁소속	-9.40414
ling	-9.40568
조에	-9.40665
▁known	-9.40672
▁않았다	-9.40707
v	-9.40739
▁Even	-9.40838
▁협력	-9.4097
▁Group	-9.40983
▁account	-9.41008
▁showed	-9.41089
씨가	-9.4113
▁March	-9.4115
▁security	-9.41154
5%	-9.41175
▁confirmed	-9.41193
ized	-9.41197
되면	-9.41241
▁Ho	-9.41252
▁space	-9.41264
기가	-9.41336
▁건강	-9.41346
지를	-9.41379
▁서울특별시	-9.4154
▁store	-9.41609
▁관계	-9.41635
▁TV	-9.41679
▁Jeju	-9.4169
정책	-9.41698
▁survey	-9.41724
▁control	-9.41774
▁N	-9.41833
▁International	-9.41855
▁Ha	-9.41867
▁수출	-9.42002
ty	-9.42073
▁금	-9.42077
ok	-9.42084
주의	-9.42129
▁problems	-9.42207
▁학생	-9.42215
▁lead	-9.42255
되면서	-9.42373
▁With	-9.4246
▁parents	-9.42472
▁light	-9.42475
브	-9.42498
▁만나	-9.42529
▁face	-9.42551
▁계획	-9.42565
▁senior	-9.42576
▁기준	-9.42579
들과	-9.42654
▁관	-9.42717
했어요	-9.4275
▁Me	-9.42827
겨	-9.42843
▁subject	-9.42846
▁return	-9.4285
op	-9.42854
▁업체	-9.42872
▁잡	-9.42895
훈	-9.42927
▁등으로	-9.4316
▁caused	-9.43169
▁began	-9.4322
go	-9.43236
▁논의	-9.43262
▁규정	-9.43348
▁Yang	-9.43471
투	-9.43495
▁provided	-9.435
▁attended	-9.4354
션	-9.43753
▁코	-9.43835
▁단체	-9.43935
ally	-9.43998
▁합의	-9.44025
되었다	-9.44027
▁우선	-9.44117
송	-9.44155
자는	-9.44184
▁Nam	-9.44198
▁didn	-9.44215
▁exhibition	-9.4427
인데	-9.44284
까	-9.44293
▁&	-9.44369
블	-9.44462
▁added	-9.44515
▁Police	-9.44596
▁선택	-9.44609
ine	-9.44888
50	-9.44898
▁있나요	-9.44901
no	-9.45014
▁position	-9.45082
▁보호	-9.45153
▁employment	-9.45206
▁hospital	-9.45311
▁sent	-9.45313
▁사항을	-9.45317
▁persons	-9.45339
▁주장	-9.45404
▁공무원	-9.45411
▁그런	-9.45477
▁Jin	-9.45548
▁점	-9.45575
명의	-9.4566
▁넘	-9.45744
▁How	-9.45769
▁이에	-9.45807
명을	-9.45812
▁대상	-9.45829
기술	-9.45829
름	-9.4584
키	-9.45856
▁남북	-9.45928
▁관심이	-9.46052
▁institutions	-9.46067
year	-9.46116
▁CEO	-9.46157
▁middle	-9.46208
▁response	-9.46221
▁전했다	-9.46224
▁토	-9.46267
나요	-9.46315
▁예정	-9.4634
▁분석	-9.46365
is	-9.46397
▁region	-9.46404
▁사고	-9.46438
▁previous	-9.46473
ance	-9.46475
▁삼	-9.46525
▁additional	-9.46527
▁식	-9.46608
▁age	-9.46757
▁신고	-9.46773
com	-9.468
It	-9.46878
old	-9.46896
▁policies	-9.47112
▁폭	-9.4714
▁일반	-9.4722
▁회의	-9.47322
▁movie	-9.47351
▁value	-9.47352
농	-9.47361
곳	-9.47501
▁players	-9.47504
▁far	-9.47531
▁결	-9.4754
▁글로벌	-9.47549
▁political	-9.47553
▁도입	-9.47597
▁society	-9.47622
▁festival	-9.47692
▁card	-9.47714
▁ruling	-9.47733
▁게임	-9.47867
▁대비	-9.47894
▁순	-9.47928
▁housing	-9.47955
기간	-9.4797
곡	-9.47997
로부터	-9.48065
▁fans	-9.4809
▁review	-9.48193
▁quality	-9.48235
▁phone	-9.48296
▁art	-9.48312
▁팀	-9.48329
▁House	-9.48362
▁위원	-9.48435
▁인상	-9.48453
▁buy	-9.48473
▁having	-9.485
▁bus	-9.48732
▁프로그램	-9.48767
액	-9.4886
▁participated	-9.48876
ni	-9.48905
▁overseas	-9.48946
하였다	-9.49014
▁Can	-9.49065
▁keep	-9.49066
▁물론	-9.49103
▁보면	-9.49113
▁minutes	-9.49192
▁run	-9.49201
▁애	-9.49232
▁되	-9.49305
di	-9.49309
▁road	-9.49357
▁표	-9.49395
▁district	-9.49399
▁schools	-9.49429
ian	-9.49462
▁Sa	-9.49509
북	-9.49602
▁travel	-9.49651
▁검토	-9.49671
▁있기	-9.49707
▁사실	-9.49717
▁대통령	-9.49739
▁카	-9.49763
woo	-9.49767
▁일이	-9.49807
▁역	-9.49852
▁actively	-9.49906
▁changed	-9.50021
▁supply	-9.5006
▁의원	-9.50081
▁여행	-9.50109
▁학	-9.50109
▁예상	-9.50167
▁directly	-9.50167
▁공연	-9.50244
▁좋아	-9.50245
ism	-9.5029
자를	-9.50322
▁experts	-9.50326
▁민간	-9.5041
▁present	-9.50435
▁변	-9.50442
▁계약	-9.50453
▁과거	-9.50526
▁pointed	-9.50544
▁현지	-9.50547
▁cause	-9.50558
▁금융	-9.50578
▁little	-9.50615
▁opposition	-9.50714
▁prepare	-9.50815
▁joint	-9.50949
Korean	-9.51048
▁활성화	-9.51088
▁귀	-9.51106
▁그동안	-9.51107
▁200	-9.51107
▁책	-9.51151
▁Mi	-9.51218
▁상품	-9.51256
▁c	-9.51359
▁increasing	-9.51388
▁나라	-9.51399
▁길	-9.51515
▁Min	-9.516
▁near	-9.51655
▁황	-9.51838
▁conduct	-9.51845
▁chief	-9.51887
▁match	-9.52016
▁hit	-9.52048
▁insurance	-9.52051
▁April	-9.52167
▁Tae	-9.52252
▁enjoy	-9.52425
▁promotion	-9.52474
ial	-9.525
▁공공	-9.52519
▁2019	-9.5262
기도	-9.52675
▁역시	-9.5268
▁effect	-9.52681
▁공급	-9.52811
▁있는데	-9.52822
▁하루	-9.52831
▁작업	-9.52953
▁study	-9.5296
▁사랑	-9.53069
▁States	-9.53166
환경	-9.53175
▁facility	-9.53215
▁six	-9.53245
▁regular	-9.53334
범	-9.53427
▁Sang	-9.53525
▁특별	-9.53526
▁중인	-9.5354
cheon	-9.5359
per	-9.53599
▁앞으로	-9.53602
▁call	-9.53658
▁develop	-9.53664
▁stock	-9.53769
▁completed	-9.53943
▁각종	-9.53978
▁funds	-9.54106
▁잠	-9.54165
▁앞서	-9.54237
▁2014	-9.54238
0,000	-9.54272
니다	-9.54281
▁그의	-9.54289
gun	-9.54323
▁사람들이	-9.54326
탁	-9.54358
▁basic	-9.54384
▁일자리	-9.54395
▁traditional	-9.54436
갈	-9.54476
▁applied	-9.54482
▁conditions	-9.5449
하기로	-9.54508
▁manager	-9.54531
▁Jang	-9.54557
혜	-9.54594
▁civil	-9.54712
▁later	-9.5474
▁Seung	-9.54757
친	-9.54889
▁고객	-9.54892
▁규제	-9.55024
▁하지만	-9.5505
씨는	-9.55061
▁operate	-9.55069
볼	-9.55071
▁press	-9.55097
올	-9.55108
원이	-9.55109
▁raised	-9.55156
▁existing	-9.55228
독	-9.5528
례	-9.55348
▁really	-9.55377
▁해요	-9.55384
▁L	-9.55459
▁June	-9.55476
▁Sung	-9.55531
▁Na	-9.55548
▁always	-9.55585
▁대부분	-9.55601
▁given	-9.55689
▁수도	-9.55707
▁눈	-9.5579
▁film	-9.55802
▁반영	-9.55881
▁경기도가	-9.55972
패	-9.55995
▁Liberty	-9.5605
▁trillion	-9.5608
▁customers	-9.56081
공사	-9.56089
▁Station	-9.56314
ang	-9.56422
▁나온다	-9.56422
▁evaluation	-9.56462
▁jobs	-9.56588
▁revealed	-9.56591
▁Provincial	-9.56669
했다는	-9.56687
▁고용	-9.56722
▁인사	-9.56753
▁광	-9.56768
▁Public	-9.56776
▁최고	-9.5683
▁아이	-9.56857
▁businesses	-9.56956
씨	-9.56986
▁과정에서	-9.57021
▁July	-9.57187
▁나서	-9.57209
▁대회	-9.57226
▁왜	-9.57366
om	-9.57419
네요	-9.57421
▁지방	-9.57434
km	-9.57474
긴	-9.57538
이며	-9.57548
기에	-9.57557
▁내용	-9.5759
자의	-9.57672
▁하며	-9.5776
회의	-9.57767
▁나타났다	-9.57794
▁post	-9.5801
▁각각	-9.58167
▁가능한	-9.58175
mp	-9.58404
▁trip	-9.5844
▁가지고	-9.58461
▁death	-9.58504
▁materials	-9.58512
▁others	-9.58518
▁쓰	-9.58541
▁often	-9.58686
▁알고	-9.58755
▁실제	-9.58778
▁우려	-9.58781
▁sector	-9.58782
▁But	-9.58795
pe	-9.58829
▁Wa	-9.58832
담	-9.58838
도록	-9.5892
▁news	-9.58971
이고	-9.58977
▁Jeong	-9.59055
▁규모	-9.59056
▁몸	-9.59071
em	-9.59077
ies	-9.59114
▁Pa	-9.59143
▁advance	-9.59151
▁제도	-9.59264
▁eat	-9.59439
계획	-9.5952
▁taken	-9.59526
▁least	-9.5959
▁industrial	-9.59707
▁seen	-9.59738
개발	-9.59857
▁지난달	-9.59893
충	-9.59909
년간	-9.59953
▁share	-9.59958
▁버	-9.59972
▁rather	-9.60059
▁친	-9.60123
▁close	-9.6013
▁변화	-9.60226
▁Si	-9.60251
▁권	-9.6028
지고	-9.60298
▁emergency	-9.60326
▁예산	-9.60367
▁해야	-9.60406
▁Song	-9.60408
▁전에	-9.60463
▁것도	-9.60521
▁참	-9.60533
▁연락	-9.60612
▁story	-9.60616
▁lack	-9.60618
▁경영	-9.60635
▁events	-9.60635
▁않	-9.60732
▁취	-9.60794
▁시민	-9.60809
▁higher	-9.60833
▁복	-9.60833
▁변경	-9.60879
▁student	-9.6088
날	-9.60949
way	-9.60962
너	-9.61014
골	-9.61017
▁Cheong	-9.61021
▁건물	-9.61027
▁Supreme	-9.61083
협	-9.61169
▁hand	-9.61206
▁건설	-9.61239
▁Su	-9.61355
▁medium	-9.61417
▁그가	-9.61537
hyun	-9.61582
▁largest	-9.61597
대로	-9.61648
▁선거	-9.61697
▁Bank	-9.61709
▁벌	-9.61743
▁Yoon	-9.61775
▁용	-9.61817
im	-9.61894
▁recent	-9.61923
▁wage	-9.61956
축	-9.62143
▁Affairs	-9.6215
운영	-9.62154
ki	-9.62277
▁윤	-9.62288
이란	-9.62324
▁창	-9.62353
out	-9.62368
▁자동차	-9.62455
▁외국인	-9.62487
▁만에	-9.625
▁받을	-9.62512
테	-9.62513
▁전달	-9.62531
▁though	-9.62554
&	-9.62582
▁rise	-9.62583
익	-9.62585
ung	-9.62622
▁compared	-9.62627
▁works	-9.62638
▁planning	-9.6268
ful	-9.62712
▁제안	-9.62749
pa	-9.62751
▁한다는	-9.62815
▁언론	-9.62824
▁easy	-9.6284
▁활용	-9.62895
▁possibility	-9.62937
▁설	-9.63095
tu	-9.63133
▁러시아	-9.63196
▁purchase	-9.63197
▁드라마	-9.63371
side	-9.63392
▁없어	-9.63438
정보	-9.63487
▁영향을	-9.63527
ex	-9.63573
▁소개	-9.63613
▁돌	-9.63645
▁인기	-9.63672
▁operating	-9.63732
▁감소	-9.63854
▁average	-9.63861
▁clear	-9.63902
▁음악	-9.63935
▁거래	-9.63939
▁Financial	-9.63991
책	-9.64119
mb	-9.64145
찬	-9.64147
총	-9.64159
pi	-9.64224
견	-9.64255
▁참가	-9.64285
▁구조	-9.64306
경제	-9.64306
▁제출	-9.64329
▁한국의	-9.64336
▁회	-9.64347
▁never	-9.644
▁현	-9.64423
렸다	-9.64455
▁제기	-9.64472
▁ago	-9.64563
▁상승	-9.64576
▁있게	-9.64659
▁담	-9.64705
▁병원	-9.64728
ver	-9.64743
암	-9.64879
▁Form	-9.64904
▁scene	-9.64926
▁종	-9.65027
▁인해	-9.65073
마다	-9.65125
▁issues	-9.65237
▁la	-9.65269
은행	-9.65286
▁list	-9.65332
▁구축	-9.65402
▁key	-9.65405
▁met	-9.6542
▁여기	-9.65522
▁Mo	-9.65579
▁contact	-9.65635
취	-9.65662
▁looking	-9.65719
▁Some	-9.65742
▁않을	-9.65759
▁먹	-9.65775
▁같다	-9.6585
term	-9.65959
▁introduced	-9.6596
sion	-9.6605
▁하지	-9.66052
▁size	-9.66075
▁outside	-9.66081
▁submit	-9.66122
led	-9.66122
▁mother	-9.662
hee	-9.66277
▁반대	-9.66316
▁fees	-9.66342
침	-9.66348
규	-9.66349
▁후보	-9.66389
▁않아	-9.66404
▁Kyung	-9.66451
▁앞	-9.66509
▁September	-9.66515
▁conference	-9.66517
Y	-9.66527
▁mo	-9.66548
▁enter	-9.6661
▁최종	-9.66715
▁Chung	-9.66739
▁계획이다	-9.66809
▁energy	-9.66936
▁면	-9.6696
인이	-9.66976
▁인터넷	-9.6703
▁lower	-9.67067
▁council	-9.67087
▁작품	-9.67091
▁expand	-9.67093
으	-9.67119
▁Festival	-9.67121
▁establishment	-9.67133
▁Ga	-9.6716
▁few	-9.67197
▁목적으로	-9.6724
▁중심으로	-9.67277
숙	-9.67397
▁실시	-9.67417
▁70	-9.67478
▁personal	-9.67484
위원	-9.67542
▁costs	-9.67567
▁체험	-9.67576
▁서로	-9.67582
▁sold	-9.67614
▁leave	-9.67636
▁ask	-9.67687
▁illegal	-9.67689
▁작성	-9.67731
▁골	-9.67799
▁Hyun	-9.67921
▁Asian	-9.6794
한다는	-9.67981
▁광주	-9.68007
▁Hyundai	-9.68067
▁di	-9.68069
cu	-9.68094
▁dust	-9.68126
▁W	-9.68133
▁아파트	-9.68336
les	-9.68347
00	-9.68409
▁문재인	-9.68421
▁audit	-9.68425
▁something	-9.68425
▁선수	-9.68432
▁이렇게	-9.68441
▁course	-9.68523
▁goal	-9.68527
▁불법	-9.68611
▁families	-9.6868
▁enough	-9.68715
hi	-9.68738
▁Then	-9.68778
▁밤	-9.68792
▁강조했다	-9.68857
▁understand	-9.68897
▁영어	-9.68899
▁Be	-9.68958
▁해당하는	-9.69037
▁알려	-9.69054
▁officer	-9.69055
▁2013	-9.69104
▁성과	-9.69109
하던	-9.69194
▁공유	-9.69204
19	-9.69235
▁friends	-9.69254
능	-9.69263
▁경쟁	-9.6928
쳐	-9.69312
▁상태	-9.69339
▁created	-9.69375
막	-9.69382
▁정상	-9.69413
▁heart	-9.6942
리는	-9.69437
으나	-9.69437
bo	-9.69446
▁language	-9.69452
▁이야기	-9.69544
▁홍	-9.69544
사를	-9.69582
ction	-9.69878
▁cities	-9.6989
▁Management	-9.69918
▁believe	-9.6995
▁controversy	-9.6997
▁대응	-9.69976
▁disaster	-9.70022
▁질	-9.70042
▁이러한	-9.70093
▁complex	-9.70169
▁base	-9.70199
▁심의	-9.70208
쪽	-9.70289
▁drama	-9.70293
▁Department	-9.70299
▁seven	-9.70303
▁opinions	-9.70333
메	-9.7044
▁points	-9.70478
▁근무	-9.70502
▁groups	-9.7051
4%	-9.7054
▁Yes	-9.70563
▁active	-9.70574
▁두고	-9.70617
▁spread	-9.70628
▁Gangwon	-9.70651
▁Provided	-9.70664
▁특	-9.70675
land	-9.70759
▁legal	-9.70866
▁accordance	-9.70943
▁교통	-9.70957
커	-9.70964
▁friend	-9.70979
▁많다	-9.71002
▁내년	-9.71016
▁청년	-9.71023
▁con	-9.71045
▁While	-9.71066
말	-9.71085
▁시험	-9.71095
▁도로	-9.7111
위를	-9.71152
▁협상	-9.71157
sized	-9.71184
▁professional	-9.71307
▁나왔다	-9.71325
인지	-9.71339
▁prepared	-9.71381
▁currently	-9.71394
▁reduce	-9.71411
▁developed	-9.71459
▁village	-9.71502
▁risk	-9.71522
der	-9.71541
lu	-9.71608
yang	-9.71611
▁있어서	-9.71641
▁words	-9.71675
▁interview	-9.71682
▁Agency	-9.71715
▁저희	-9.71738
▁growing	-9.71785
▁improvement	-9.71888
▁이는	-9.71916
▁증	-9.71949
협회	-9.7195
▁중소기업	-9.72027
fi	-9.72091
▁삼성	-9.72131
▁yet	-9.7216
▁Research	-9.72174
거리	-9.72178
▁팔	-9.72223
)’	-9.72242
▁Chang	-9.7226
▁되고	-9.72279
▁경험	-9.72288
▁SK	-9.72292
▁talk	-9.72355
▁중요한	-9.72414
▁도착	-9.72431
▁도내	-9.7244
님	-9.72446
▁자료	-9.72515
▁레	-9.72573
▁afternoon	-9.72671
▁홍보	-9.72698
▁전문가	-9.72716
▁것이라는	-9.72761
▁인천	-9.72775
▁주택	-9.72799
▁schedule	-9.72827
▁method	-9.72849
▁의미	-9.72893
▁같아	-9.73008
▁500	-9.73015
▁역할을	-9.73018
▁opinion	-9.73063
▁Go	-9.73068
▁status	-9.7317
▁try	-9.7322
nam	-9.73249
▁items	-9.73289
▁documents	-9.73292
▁vehicle	-9.73353
▁조선	-9.73395
▁leading	-9.73403
▁Trade	-9.73411
▁needed	-9.73459
▁She	-9.73551
▁인정	-9.73576
▁men	-9.73606
▁equipment	-9.73618
▁수행	-9.73677
▁photo	-9.73736
▁opened	-9.738
▁October	-9.73869
▁거쳐	-9.73907
▁독일	-9.73916
▁union	-9.73969
▁승	-9.74006
▁메	-9.74006
▁round	-9.74053
▁기본	-9.74075
▁content	-9.74102
대표	-9.74106
지도	-9.74135
▁bank	-9.74159
▁수립	-9.7417
기는	-9.74171
학교	-9.74176
▁300	-9.74177
율	-9.74177
▁이동	-9.74195
▁communication	-9.7423
▁sports	-9.74242
균	-9.74259
하지만	-9.74306
▁미래	-9.74313
▁전통	-9.74346
▁자리	-9.74369
▁vice	-9.74382
▁전시	-9.74391
움	-9.74444
▁조금	-9.74475
▁낮	-9.74493
▁expressed	-9.74506
▁waste	-9.74515
▁view	-9.74521
3%	-9.74524
▁내부	-9.74592
ber	-9.74596
▁받았다	-9.74627
▁알려졌다	-9.74638
▁female	-9.74646
복지	-9.74647
▁station	-9.7466
▁online	-9.74675
▁record	-9.74688
ize	-9.74691
▁달리	-9.74721
▁reform	-9.74771
런	-9.74781
돌	-9.7482
▁대화	-9.74879
▁target	-9.74882
술	-9.74894
▁efforts	-9.7491
▁계	-9.74929
▁관련해	-9.74938
▁주변	-9.7495
▁어려운	-9.74955
▁Land	-9.75068
2%	-9.7507
▁핵심	-9.75095
▁마을	-9.75134
▁Administration	-9.75137
▁makes	-9.75252
▁설립	-9.75259
▁stop	-9.7527
김	-9.75293
학생	-9.75377
▁그룹	-9.75382
▁LG	-9.75393
▁Ro	-9.75394
조사	-9.7542
▁kind	-9.75462
ji	-9.75488
▁중구	-9.75585
▁rain	-9.75663
덕	-9.75694
▁tomorrow	-9.75758
▁deal	-9.75807
▁추천	-9.75815
별로	-9.75839
▁드	-9.75843
▁의료	-9.75856
▁parties	-9.75869
▁individual	-9.75889
▁브랜드	-9.75889
▁getting	-9.7589
▁continued	-9.75901
▁question	-9.75904
▁programs	-9.75947
▁버스	-9.76003
▁수업	-9.7602
▁regulations	-9.76044
▁en	-9.76051
애	-9.76069
ding	-9.76133
▁similar	-9.76162
▁등록	-9.76176
▁이제	-9.76188
he	-9.76271
▁starting	-9.76295
▁호텔	-9.76314
▁transfer	-9.76341
▁영상	-9.76358
▁g	-9.76454
▁예술	-9.76513
▁passed	-9.76515
▁heat	-9.76661
▁우리나라	-9.76687
▁고려	-9.76696
▁내일	-9.76697
▁Internet	-9.76717
tra	-9.76777
풍	-9.76815
▁평	-9.76874
▁single	-9.7694
▁written	-9.77073
1%	-9.77095
▁secretary	-9.77096
▁rest	-9.77097
tal	-9.77105
착	-9.77112
▁personnel	-9.77199
▁내려	-9.77206
ide	-9.77269
되며	-9.77294
▁직원	-9.77333
▁부분	-9.77378
▁Mr	-9.77388
▁youth	-9.77399
▁사업을	-9.7743
▁가능하다	-9.77432
▁2012	-9.77455
▁capital	-9.7746
▁운동	-9.77462
▁별지	-9.77543
▁취업	-9.77559
▁평화	-9.77627
▁수입	-9.77668
객	-9.77673
ence	-9.77707
ba	-9.77716
▁designated	-9.77726
▁relationship	-9.77741
▁대하여	-9.77749
▁Yoo	-9.77799
▁governor	-9.77833
▁매년	-9.78035
▁연결	-9.78043
검	-9.78071
▁접	-9.78078
ven	-9.78126
▁Gangnam	-9.78214
▁조직	-9.78251
▁제대로	-9.78255
▁happy	-9.78265
▁message	-9.78284
▁공사	-9.78299
권을	-9.78324
▁traffic	-9.78359
▁Prime	-9.78397
con	-9.78443
▁hall	-9.78532
▁상황에서	-9.78588
▁model	-9.78646
va	-9.78654
ster	-9.7868
▁책임	-9.78703
▁현대	-9.78771
로서	-9.78779
병원	-9.78789
▁staff	-9.78831
▁Electronics	-9.78903
▁한류	-9.7892
▁요	-9.78953
▁모습을	-9.79017
In	-9.79018
▁소비자	-9.79039
▁곳	-9.79043
▁여자	-9.79047
▁shows	-9.7905
▁Justice	-9.79097
▁university	-9.79115
▁피해	-9.7912
▁번째	-9.79121
ran	-9.79154
▁statement	-9.79176
▁Sun	-9.79209
▁없	-9.79212
▁서울시	-9.79224
▁session	-9.79228
▁sorry	-9.79238
40	-9.79316
▁La	-9.79327
ee	-9.79345
찰	-9.7935
▁얘기	-9.794
▁considered	-9.79408
▁Yong	-9.79426
▁별	-9.79435
▁minimum	-9.79437
▁디자인	-9.79468
▁Health	-9.79495
▁자신	-9.79559
ak	-9.79611
▁authorities	-9.79612
J	-9.79641
tor	-9.7969
▁August	-9.79723
관계	-9.79724
▁fund	-9.79733
▁d	-9.79743
▁burden	-9.798
▁lives	-9.79846
수가	-9.79866
▁told	-9.7988
▁받는	-9.79974
▁방식	-9.79977
▁quarter	-9.80008
ities	-9.80021
▁attend	-9.80024
▁네가	-9.80047
▁contents	-9.80053
죠	-9.80086
▁0	-9.80098
▁점을	-9.80125
▁천	-9.80148
▁Daegu	-9.80166
척	-9.80167
▁transportation	-9.80171
▁인근	-9.80177
yeon	-9.8018
▁환	-9.80255
▁nuclear	-9.80302
▁지속	-9.80335
▁gave	-9.80471
씩	-9.80541
▁credit	-9.80543
▁남자	-9.80569
▁lost	-9.80576
▁자연	-9.80614
력이	-9.80644
▁지적	-9.80667
line	-9.80674
▁natural	-9.80689
▁만든	-9.80725
택	-9.80754
▁mind	-9.80784
▁넘어	-9.80789
▁모습이	-9.80796
▁원인	-9.80815
상을	-9.80834
▁further	-9.80894
▁진출	-9.80931
▁아래	-9.8097
▁division	-9.80972
▁ahead	-9.80994
▁베트남	-9.80998
▁January	-9.81029
▁bring	-9.81038
▁비핵화	-9.81068
ard	-9.81119
▁read	-9.81121
▁implement	-9.81128
one	-9.81195
▁estate	-9.81204
▁included	-9.81209
▁State	-9.81224
▁커	-9.81339
점을	-9.8134
률	-9.81389
▁daily	-9.81397
▁mobile	-9.81416
기로	-9.81459
▁정도로	-9.81484
ie	-9.81484
▁중앙	-9.81499
▁standard	-9.81508
▁High	-9.81514
▁평균	-9.81539
▁app	-9.8155
▁network	-9.81652
▁종합	-9.81693
▁movement	-9.81703
▁대신	-9.81741
▁Won	-9.81801
▁oil	-9.81824
▁sexual	-9.81835
▁cr	-9.81836
ot	-9.81848
▁조정	-9.81862
▁Hwang	-9.81891
▁protect	-9.81893
▁several	-9.81942
안전	-9.81983
대가	-9.81996
▁First	-9.82059
▁crisis	-9.82078
▁pain	-9.82177
▁독	-9.82178
▁bad	-9.82246
▁concert	-9.82254
▁온라인	-9.82258
했을	-9.82263
▁built	-9.82274
▁dream	-9.82274
▁역사	-9.82298
▁축제	-9.82348
▁needs	-9.8236
ner	-9.82368
▁inside	-9.82369
▁hot	-9.8245
▁말씀	-9.82451
ving	-9.82508
▁행	-9.82514
fe	-9.8252
▁fall	-9.82532
▁사이	-9.82536
▁언제	-9.82596
▁song	-9.82603
▁누	-9.82632
줄	-9.82639
항의	-9.8267
▁창업	-9.82712
rea	-9.82746
▁월	-9.82797
▁우수	-9.82798
▁Po	-9.82831
▁appointed	-9.82834
▁발견	-9.82839
▁heard	-9.82865
▁Corporation	-9.82882
구청장	-9.82915
▁얼마나	-9.82916
▁bill	-9.82922
에선	-9.82962
▁Hall	-9.83014
▁mid	-9.83079
▁자체	-9.83093
촌	-9.8315
▁모델	-9.83179
▁합	-9.8319
▁nation	-9.83195
▁direct	-9.83236
▁temperature	-9.83237
▁취소	-9.83267
력을	-9.83278
▁장애인	-9.83352
▁위반	-9.83372
▁참석	-9.83392
▁악	-9.8341
▁제한	-9.83435
▁One	-9.835
그룹	-9.83516
▁갖고	-9.83522
함	-9.83529
필	-9.8354
act	-9.83607
dy	-9.83663
▁표현	-9.83721
king	-9.83724
▁연기	-9.83771
사회	-9.83776
악	-9.83799
▁됩니다	-9.83872
▁charges	-9.83917
▁시대	-9.83942
▁li	-9.8395
▁가진	-9.8399
금을	-9.8403
;	-9.84151
봉	-9.84151
▁예약	-9.8418
▁generation	-9.84208
▁vehicles	-9.84225
극	-9.84239
▁changes	-9.84246
mon	-9.84267
▁alone	-9.84272
▁그럼	-9.84279
▁거예요	-9.84298
red	-9.84308
▁상황	-9.8431
ative	-9.84322
25	-9.84395
wi	-9.8442
▁December	-9.8445
▁가는	-9.84531
▁regional	-9.84591
▁minister	-9.84651
▁당신	-9.84703
▁되어	-9.84737
▁장소	-9.84753
▁관광	-9.84782
한다고	-9.84795
지가	-9.84883
▁And	-9.84903
▁users	-9.84935
▁raise	-9.84944
▁공식	-9.84974
▁위험	-9.8498
▁보도	-9.85068
▁왕	-9.85174
▁수준	-9.85207
▁목소리	-9.85316
▁은행	-9.85328
하고자	-9.85446
▁일을	-9.85451
평가	-9.85458
하자	-9.85459
▁바랍니다	-9.85556
▁담당	-9.85566
▁심사	-9.85594
플	-9.85594
▁목	-9.85601
▁candidate	-9.85619
▁회장	-9.8573
족	-9.85839
도시	-9.85892
▁항	-9.85893
혀	-9.85922
▁rice	-9.86024
son	-9.86033
▁적극	-9.86041
▁Vice	-9.86045
▁돌아	-9.86063
▁include	-9.86086
we	-9.86124
▁급	-9.86166
▁청소년	-9.8617
▁poor	-9.86189
▁출신	-9.86223
손	-9.86238
투자	-9.86256
ical	-9.86259
▁November	-9.86308
▁college	-9.86369
▁parking	-9.86385
▁interested	-9.86477
▁조치	-9.8651
황	-9.86587
▁향	-9.86618
▁자유한국당	-9.86721
▁있던	-9.86745
▁문제를	-9.86767
▁famous	-9.869
다면	-9.86919
que	-9.86962
▁certain	-9.86962
▁분야	-9.86972
▁summer	-9.87024
년부터	-9.8703
▁글	-9.87066
생활	-9.87073
▁structure	-9.87158
왕	-9.87187
▁document	-9.8719
▁board	-9.87333
▁유럽	-9.87356
▁대한민국	-9.87414
▁comp	-9.87451
▁그것	-9.87471
▁easily	-9.87496
경기	-9.87512
▁것이라고	-9.87521
▁기념	-9.87542
▁operated	-9.87551
ap	-9.87566
▁이들	-9.8758
▁Culture	-9.876
▁접수	-9.87616
시는	-9.87657
▁가능	-9.8767
었	-9.87721
denuclearization	-9.87724
▁direction	-9.87741
▁action	-9.87755
▁Labor	-9.87789
day	-9.87844
밀	-9.87877
▁agencies	-9.87972
▁숨	-9.88068
겠습니다	-9.88104
▁않다	-9.88139
▁regarding	-9.88257
▁Development	-9.88305
▁commercial	-9.88408
▁출연	-9.88456
▁governments	-9.88466
▁전략	-9.88475
▁위탁	-9.88476
che	-9.88482
▁deliberation	-9.88512
▁대통령은	-9.88516
▁receiving	-9.88595
▁지나	-9.88634
▁woman	-9.88637
▁played	-9.8866
과의	-9.88693
▁immediately	-9.88695
활동	-9.88774
▁이전	-9.88816
▁점검	-9.8887
▁검찰	-9.88874
▁혹시	-9.88888
▁central	-9.8895
vo	-9.89038
▁올라	-9.89071
▁비해	-9.89097
▁practice	-9.89118
▁specific	-9.89131
▁cut	-9.89186
▁terms	-9.89199
▁train	-9.8931
▁picture	-9.89313
▁터	-9.89319
▁극	-9.89355
▁institution	-9.89424
▁opportunity	-9.89454
▁win	-9.89456
▁cold	-9.89551
▁forward	-9.89574
▁자신이	-9.89578
▁않았	-9.89593
▁questions	-9.89623
▁거야	-9.89623
▁carried	-9.89643
▁apartment	-9.89654
▁복지	-9.89816
bi	-9.89839
▁grow	-9.89924
자로	-9.89997
9%	-9.90024
▁부동산	-9.90031
있	-9.90083
▁search	-9.9011
▁작은	-9.90211
▁approval	-9.90256
▁가정	-9.90264
▁highest	-9.90275
▁영국	-9.90345
자들이	-9.90369
mm	-9.90418
▁participation	-9.90468
▁original	-9.90522
▁manage	-9.90543
▁issued	-9.90549
▁촬영	-9.90575
구역	-9.90613
의회	-9.90614
▁answer	-9.90618
▁property	-9.90621
▁대형	-9.90658
▁Because	-9.90702
▁driving	-9.90744
▁sh	-9.90826
퍼	-9.90848
▁taste	-9.90852
▁urban	-9.90873
했으며	-9.90884
▁restaurant	-9.90898
▁치료	-9.90967
여명이	-9.90976
▁현실	-9.90999
▁키	-9.91022
▁ball	-9.91034
왔다	-9.9104
폐	-9.91051
▁확정	-9.91073
▁J	-9.91077
▁incident	-9.91086
▁베	-9.91092
▁Special	-9.91101
▁cars	-9.91141
▁professor	-9.91182
▁park	-9.91347
었습니다	-9.91358
함을	-9.91359
▁이상의	-9.91386
▁휴	-9.91397
▁의견을	-9.91411
▁ground	-9.91467
▁부담	-9.91476
▁fee	-9.91492
▁파악	-9.91509
▁pressure	-9.91543
7%	-9.91576
ship	-9.91584
▁excellent	-9.91601
▁Island	-9.91611
▁details	-9.91668
▁available	-9.91708
▁발생한	-9.91741
▁launch	-9.91775
▁상담	-9.91786
da	-9.91865
▁놓	-9.91872
▁공부	-9.91893
▁희망	-9.91901
related	-9.91902
▁patients	-9.91923
▁prescribed	-9.91943
▁negotiations	-9.91984
화를	-9.92006
새	-9.92026
▁turn	-9.92079
▁혁신	-9.92151
▁절	-9.92161
▁같아요	-9.92205
▁때문	-9.92218
▁절차	-9.92358
▁정상회담	-9.92361
▁협의	-9.9237
▁카드	-9.92382
▁제주	-9.9246
▁father	-9.92512
tro	-9.92532
폭	-9.92551
▁concerning	-9.9256
▁중에서	-9.92621
▁relations	-9.92626
▁trying	-9.92676
▁인식	-9.92703
▁done	-9.92733
▁sound	-9.9274
▁목표	-9.92748
▁Director	-9.92764
▁Among	-9.92768
▁clean	-9.92775
▁games	-9.92832
▁정치	-9.92942
▁Welfare	-9.92963
▁duties	-9.92965
니까	-9.92972
▁행복	-9.92994
12	-9.9302
▁export	-9.93021
조의	-9.93031
▁chance	-9.93077
ear	-9.9309
▁돼	-9.9309
▁places	-9.93136
▁Support	-9.93159
13	-9.9316
스타	-9.93165
▁God	-9.93273
▁정부의	-9.93303
▁노동	-9.9336
▁콘텐츠	-9.93371
대회	-9.93381
졌	-9.93389
하는데	-9.9347
▁consumers	-9.93488
▁풍	-9.93557
▁submitted	-9.93568
▁사실을	-9.93593
▁standards	-9.93673
▁actual	-9.93796
▁자기	-9.93801
▁considering	-9.93811
▁못한	-9.93852
▁공격	-9.93861
and	-9.93887
서는	-9.93955
▁trend	-9.94002
▁February	-9.94014
▁drawing	-9.94015
▁허	-9.94163
▁사회적	-9.94166
운동	-9.94187
ator	-9.94189
▁Security	-9.9419
▁대해서는	-9.94221
sung	-9.94268
ny	-9.94298
▁잔	-9.94307
▁parts	-9.94317
▁제시	-9.94386
▁common	-9.945
X	-9.94527
▁wanted	-9.94528
ac	-9.94548
▁executive	-9.94549
▁들어가	-9.94591
▁내용을	-9.94611
▁sea	-9.94626
8%	-9.94644
▁없습니다	-9.94675
▁포함	-9.94678
▁공간	-9.94692
▁전화	-9.9472
▁watch	-9.94735
wa	-9.94761
▁act	-9.94792
▁사무	-9.94807
▁coming	-9.94815
▁빈	-9.94832
▁focus	-9.94874
▁전망이다	-9.949
▁소송	-9.9496
▁perform	-9.94962
pop	-9.94983
▁거리	-9.95015
▁규정에	-9.95024
▁선발	-9.95026
▁Yeong	-9.95032
▁교수	-9.95095
▁시스템	-9.95108
▁quickly	-9.95147
수를	-9.95159
▁많아	-9.9517
▁talks	-9.95174
ja	-9.95218
▁탈	-9.95222
Pop	-9.95241
15	-9.95244
압	-9.95332
▁통합	-9.95384
18	-9.95397
▁꼭	-9.95443
seong	-9.95493
▁감독	-9.95516
▁필요하다고	-9.95525
▁판	-9.95525
▁Let	-9.95529
▁positive	-9.95567
▁출시	-9.95574
▁learning	-9.95595
▁않는다	-9.95599
▁가수	-9.95699
겠다	-9.957
▁holding	-9.95707
▁Foundation	-9.95723
▁ma	-9.95749
비를	-9.9576
▁예방	-9.9579
▁determined	-9.95864
이지만	-9.95909
ten	-9.95913
▁sense	-9.95926
▁Ki	-9.9593
▁type	-9.95942
▁쉽게	-9.96038
▁analysis	-9.96082
▁worth	-9.96082
시면	-9.961
▁법률	-9.96103
▁장관	-9.9622
▁경기도는	-9.96265
▁anti	-9.96283
>	-9.96307
▁plant	-9.96369
▁Local	-9.96377
▁brand	-9.96382
▁보여	-9.96402
▁시즌	-9.96429
▁결과를	-9.96464
되	-9.96476
▁Day	-9.96502
▁전환	-9.96542
▁높다	-9.96598
▁비용	-9.96599
▁example	-9.96603
▁presidential	-9.96665
▁검사	-9.96731
▁비롯해	-9.96775
▁impact	-9.96807
보고	-9.96834
했는데	-9.96961
▁마지막	-9.96981
▁learn	-9.9699
▁안정	-9.96992
▁performances	-9.97017
▁업계	-9.97027
▁그러	-9.9708
윤	-9.971
ning	-9.97115
▁showing	-9.97143
▁corporate	-9.97144
▁crime	-9.97159
▁hotel	-9.97162
▁입장	-9.97187
▁examination	-9.97204
▁저녁	-9.97212
▁광고	-9.97264
gen	-9.97273
▁ship	-9.97358
▁po	-9.97376
련	-9.97414
▁Russia	-9.97421
▁중심	-9.97434
▁소재	-9.97508
▁주세요	-9.97524
링	-9.97566
▁안에	-9.97567
았	-9.97601
▁향후	-9.9761
▁부족	-9.97618
▁지원을	-9.97639
▁chairperson	-9.97663
▁하는데	-9.97665
▁introduce	-9.97722
▁걱정	-9.97736
tr	-9.97758
▁화재	-9.97817
▁존재	-9.9789
▁대출	-9.9796
▁Fund	-9.97971
▁beautiful	-9.97988
▁에너지	-9.98003
▁disease	-9.98013
▁reduced	-9.98018
▁기억	-9.98039
uk	-9.98063
du	-9.98087
▁삼성전자	-9.98106
▁Le	-9.98112
▁break	-9.98122
▁takes	-9.98132
▁소방	-9.98167
11	-9.98225
▁fair	-9.98264
▁doing	-9.98291
협력	-9.983
▁intention	-9.9831
men	-9.98325
chi	-9.9836
▁기획	-9.98413
▁SNS	-9.98427
▁병	-9.98457
▁위치	-9.9846
▁80	-9.98469
기준	-9.98547
▁미세먼지	-9.98615
▁reach	-9.98801
▁맞아	-9.98817
▁확산	-9.98844
▁hands	-9.98849
곤	-9.98895
▁하면	-9.98989
▁implementation	-9.99075
▁이하	-9.992
▁<	-9.99258
▁coach	-9.99261
▁(2)	-9.99264
▁distribution	-9.99279
정부	-9.9928
▁패	-9.99281
세를	-9.99284
▁만들	-9.99334
▁정보를	-9.99367
ct	-9.99388
▁fell	-9.99394
▁풀	-9.99409
▁eyes	-9.99461
▁matter	-9.99509
▁metropolitan	-9.99511
▁Yu	-9.99545
▁사람들	-9.9961
level	-9.99619
▁태	-9.99638
월부터	-9.99706
▁보도했다	-9.99741
주택	-9.99746
▁households	-9.99779
▁자유	-9.99784
ut	-9.99799
▁맛	-9.99823
▁doesn	-9.99831
▁야	-9.99887
▁Woo	-9.9989
▁goods	-9.99898
대상	-9.99916
▁b	-10.0001
▁재정	-10.0002
닝	-10.0002
jo	-10.0002
▁organized	-10.0009
▁discuss	-10.0009
▁실제로	-10.0013
▁Science	-10.0016
▁Union	-10.0018
자에게	-10.0018
▁industries	-10.0019
▁소득	-10.0023
▁teams	-10.0024
▁entire	-10.0026
▁사례	-10.0027
낸	-10.0029
▁아시아	-10.0029
▁eight	-10.0034
▁스스로	-10.0035
▁도는	-10.0042
세요	-10.0044
▁se	-10.0045
▁saw	-10.0049
▁stores	-10.0059
▁build	-10.0059
▁앞두고	-10.0061
▁proposal	-10.0066
▁consultation	-10.0072
하기도	-10.0072
▁Technology	-10.0073
개의	-10.0073
▁도움이	-10.0076
▁dance	-10.0079
▁progress	-10.0092
▁늘	-10.0097
ward	-10.0098
▁완료	-10.0102
▁true	-10.0103
▁프로젝트	-10.0106
▁might	-10.0106
▁대통령의	-10.0109
▁produced	-10.0118
▁제품을	-10.0125
서비스	-10.0126
▁전망	-10.0128
식을	-10.0129
▁felt	-10.0129
▁followed	-10.0131
▁이유로	-10.0132
▁wave	-10.0132
▁활동을	-10.0132
측	-10.0138
▁적이	-10.014
팅	-10.0143
myeon	-10.0144
▁사장	-10.0146
izing	-10.0147
▁등장	-10.0148
▁reflect	-10.0148
▁필	-10.0156
▁series	-10.0156
▁thing	-10.0161
▁consist	-10.0164
▁Oh	-10.0167
▁공장	-10.017
▁sanctions	-10.017
▁church	-10.017
▁Cup	-10.0175
▁혐의로	-10.0178
▁hearing	-10.018
▁발언	-10.0182
▁loan	-10.0184
▁형	-10.0186
▁speed	-10.0189
▁신규	-10.0192
work	-10.0195
▁그녀는	-10.0196
▁unit	-10.0204
▁required	-10.0206
▁agricultural	-10.0208
▁하락	-10.0217
▁pass	-10.0218
▁밀	-10.0222
▁color	-10.0226
▁expect	-10.0235
▁2010	-10.0236
▁centers	-10.0239
▁위기	-10.024
▁있는지	-10.0251
▁population	-10.0251
감을	-10.0252
▁concerns	-10.0252
▁속도	-10.0253
▁나가	-10.0253
▁letter	-10.0259
▁참석한	-10.0259
▁측	-10.0261
▁상황이	-10.0263
레이	-10.0264
▁한다고	-10.0269
▁sure	-10.027
▁Cha	-10.0271
현지시간	-10.0272
▁필요하다	-10.0277
▁leaders	-10.0278
▁2011	-10.0284
▁skin	-10.0287
▁마음	-10.0288
▁시기	-10.0295
▁승리	-10.0295
▁delivery	-10.0301
▁항상	-10.031
거래	-10.0311
량이	-10.0311
yo	-10.0316
▁bit	-10.0317
▁Lo	-10.0318
▁failed	-10.0318
▁Lotte	-10.032
▁protection	-10.0323
▁caught	-10.033
스가	-10.0331
▁달러	-10.0334
▁없었다	-10.0335
▁수요	-10.0335
▁peace	-10.0337
되었	-10.0338
▁논란이	-10.0344
▁Is	-10.0345
접	-10.0349
▁구청장이	-10.0349
했	-10.0356
▁침	-10.0356
▁Con	-10.0357
▁Transport	-10.0359
▁paper	-10.0362
▁암	-10.0364
▁달라	-10.0364
▁크다	-10.0368
▁디	-10.0369
▁넘는	-10.0372
▁어제	-10.0376
▁내용이	-10.0383
분기	-10.0384
대를	-10.0386
▁Defense	-10.0404
▁Son	-10.0404
▁fast	-10.0407
전을	-10.0408
츠	-10.041
▁사망	-10.041
▁민주당	-10.0411
▁American	-10.0413
ft	-10.0414
▁wife	-10.0415
▁Ra	-10.0415
위원장	-10.0416
관이	-10.0418
▁여전히	-10.0425
▁Industrial	-10.043
▁동시에	-10.0432
▁Un	-10.0446
▁행동	-10.0448
물을	-10.0449
▁전반	-10.0453
▁인도	-10.0456
yong	-10.046
▁아동	-10.0467
▁것에	-10.0467
▁Seong	-10.0467
par	-10.0472
▁ordered	-10.0472
▁체결	-10.0481
▁위해서는	-10.0481
hwa	-10.0482
▁launched	-10.0488
▁높	-10.0489
되기	-10.0489
▁release	-10.049
▁미국의	-10.0491
▁Ca	-10.0491
▁Business	-10.0498
▁strengthen	-10.0499
공원	-10.0501
▁Secretary	-10.0501
▁atmosphere	-10.0501
▁installed	-10.0504
록	-10.0506
▁통한	-10.0506
▁scheduled	-10.0511
▁victims	-10.0512
▁difficulties	-10.0513
▁나섰다	-10.0513
6%	-10.0515
ration	-10.0516
▁Asia	-10.052
qua	-10.0526
▁Cultural	-10.053
▁살아	-10.0537
▁위원장	-10.054
If	-10.0541
▁resources	-10.0542
▁뜻	-10.0544
▁의한	-10.0546
▁방법	-10.0547
▁바라	-10.0549
성과	-10.0549
▁뿐	-10.0551
제를	-10.0552
▁”	-10.0553
▁moment	-10.0555
▁Economic	-10.0557
▁club	-10.056
▁People	-10.0562
▁sites	-10.0564
▁부과	-10.0565
▁educational	-10.057
▁forest	-10.0573
▁스마트폰	-10.0577
▁behind	-10.058
▁답	-10.0582
▁최저임금	-10.0585
▁proceed	-10.0587
▁대구	-10.0588
▁enterprises	-10.0588
▁books	-10.0588
으로부터	-10.0593
▁장기	-10.0594
val	-10.0601
▁entrance	-10.0604
▁son	-10.061
seok	-10.061
▁거의	-10.0615
진다	-10.0615
▁sell	-10.0616
▁benefits	-10.0616
▁법원	-10.062
▁$	-10.0625
▁그림	-10.0627
▁internal	-10.063
▁규칙	-10.0632
▁Jo	-10.0634
▁Li	-10.0634
ser	-10.0638
▁아무	-10.0642
▁경남	-10.0643
▁Air	-10.0645
문을	-10.065
▁곳이	-10.0651
▁향상	-10.0652
▁위원회	-10.0655
▁whole	-10.0655
▁팬들	-10.0657
▁고민	-10.0659
▁explain	-10.0665
▁남성	-10.0666
▁Bu	-10.0666
▁attack	-10.0667
▁의혹	-10.0672
▁서비스를	-10.0673
본부	-10.0682
▁사전	-10.0683
▁정신	-10.0684
▁결제	-10.0688
▁한반도	-10.0702
▁success	-10.0707
▁reality	-10.0707
▁명이	-10.0712
▁재판	-10.0715
▁below	-10.0717
▁선물	-10.072
▁죽	-10.0722
▁중단	-10.0723
▁fourth	-10.0728
▁reduction	-10.073
▁의원이	-10.0732
▁sc	-10.0732
▁이유	-10.0732
▁wish	-10.0732
ries	-10.0737
14	-10.0737
▁tried	-10.0737
od	-10.074
ors	-10.0743
▁influence	-10.0747
▁screen	-10.0754
▁wrong	-10.0755
local	-10.0755
▁어린이	-10.0756
▁환자	-10.0759
▁AI	-10.076
▁Safety	-10.0765
▁무대	-10.0765
옥	-10.0766
▁있었	-10.0768
▁writing	-10.0772
▁위원장은	-10.0776
▁개정	-10.0779
▁section	-10.078
갔	-10.0783
▁그래서	-10.0784
▁꿈	-10.0784
▁시도	-10.0796
▁그녀	-10.08
▁elderly	-10.0807
▁location	-10.0808
존	-10.0808
▁자금	-10.081
▁약속	-10.081
▁certificate	-10.081
▁participating	-10.081
▁anniversary	-10.0813
▁딸	-10.0815
▁밖에	-10.0815
▁broadcast	-10.0816
▁notice	-10.0818
▁daughter	-10.0823
▁비롯한	-10.0826
▁comprehensive	-10.0835
주는	-10.0839
▁red	-10.084
▁score	-10.0844
lt	-10.0846
▁나의	-10.0848
▁falling	-10.0855
▁instead	-10.0856
이라며	-10.087
있는	-10.0872
▁중요	-10.0873
까요	-10.0881
▁weather	-10.0881
▁유통	-10.0886
▁address	-10.0889
▁노래	-10.089
rt	-10.0891
▁mark	-10.0901
▁headquarters	-10.0902
▁broke	-10.0902
▁gas	-10.0902
벌	-10.0906
▁의원은	-10.0907
▁condition	-10.0907
▁file	-10.0908
▁Promotion	-10.0915
▁shopping	-10.0915
sing	-10.0917
▁나와	-10.092
▁청구	-10.0921
▁영업	-10.0924
▁itself	-10.0924
▁요즘	-10.0925
▁괜찮	-10.093
▁따	-10.0932
빙	-10.0943
▁피해자	-10.0943
▁해서	-10.0945
납	-10.0946
ron	-10.0947
십	-10.0947
▁노인	-10.0948
▁관계자	-10.0948
ever	-10.0952
▁accounting	-10.0954
▁싶습니다	-10.0957
▁evidence	-10.0958
▁image	-10.0959
▁Blue	-10.0961
▁markets	-10.0961
▁annual	-10.0962
헌	-10.0963
▁wide	-10.0964
▁walk	-10.0965
▁불편	-10.0967
걸	-10.0968
▁petition	-10.0969
ton	-10.097
▁동물	-10.097
▁Vietnam	-10.0971
염	-10.0975
▁견	-10.0976
탈	-10.0978
▁외부	-10.0986
겠	-10.0986
▁commissioned	-10.0986
없이	-10.0988
하세요	-10.099
▁raising	-10.0993
▁All	-10.0997
▁결국	-10.0999
▁단계	-10.1
대학교	-10.1001
▁character	-10.1001
▁한번	-10.1003
han	-10.1006
▁wind	-10.1008
▁Many	-10.1014
▁떠	-10.1015
▁ba	-10.1016
▁entered	-10.1018
▁이것은	-10.1025
▁died	-10.1025
▁follow	-10.1029
▁Ahn	-10.103
▁filed	-10.1031
▁인한	-10.1032
▁earlier	-10.1036
▁준	-10.1041
▁교회	-10.1042
▁appeared	-10.1052
▁participants	-10.1058
▁폐	-10.1061
▁occurred	-10.1065
▁requested	-10.1066
▁보다	-10.1069
▁원하는	-10.107
lic	-10.1071
▁예산의	-10.1072
▁없을	-10.1072
▁주도	-10.1077
금융	-10.1079
▁제재	-10.108
▁gift	-10.1082
▁기업이	-10.1085
▁Man	-10.1085
▁목적	-10.1085
▁fun	-10.1089
ye	-10.109
▁사람은	-10.1092
냐	-10.1094
▁35	-10.1096
▁duty	-10.1096
▁winter	-10.1097
▁profit	-10.1099
▁unique	-10.1108
▁통과	-10.111
▁skills	-10.1114
보다는	-10.1117
deemed	-10.1118
▁safe	-10.1124
▁지원할	-10.1125
소득	-10.1127
▁피부	-10.1129
▁Al	-10.113
▁한국어	-10.1134
됩니다	-10.1137
칭	-10.1138
▁싶어	-10.1142
▁이름	-10.1149
▁열리는	-10.1155
▁highly	-10.1163
▁stay	-10.1165
리고	-10.1166
▁user	-10.117
!	-10.1174
▁채용	-10.1178
▁volunteer	-10.1179
삼	-10.1182
▁자녀	-10.1184
▁ten	-10.1188
▁environmental	-10.119
▁의사	-10.1192
▁player	-10.1194
▁accidents	-10.1194
▁얼굴	-10.1195
▁연장	-10.1199
빈	-10.12
▁녹	-10.1205
제도	-10.1205
뜨	-10.1206
▁universities	-10.1206
▁serious	-10.1207
▁Kong	-10.1208
▁울	-10.1209
ea	-10.121
ish	-10.1212
end	-10.1215
도로	-10.1216
fl	-10.1219
▁warm	-10.122
공무원	-10.1221
yeong	-10.1224
▁beginning	-10.1224
rge	-10.123
▁한국에서	-10.1238
▁Central	-10.124
ral	-10.1242
▁입주	-10.1247
▁Z	-10.1248
처리	-10.125
▁Donald	-10.125
▁그렇게	-10.1264
▁타고	-10.1265
▁prize	-10.1266
▁Germany	-10.1267
tion	-10.1272
▁yesterday	-10.1277
▁인구	-10.1278
▁라	-10.128
힌	-10.1282
▁차례	-10.1284
▁Industry	-10.1288
▁green	-10.129
▁secure	-10.1291
▁Foreign	-10.1293
▁website	-10.1293
scale	-10.1293
▁소통	-10.1297
▁중에	-10.1304
▁idea	-10.1308
▁특별한	-10.1311
▁stressed	-10.1314
cent	-10.1315
▁solve	-10.1315
hwan	-10.1324
▁involved	-10.1324
fin	-10.1327
갑	-10.133
▁범위	-10.1331
▁Ex	-10.1333
▁위해서	-10.1333
▁말을	-10.1334
▁기반	-10.1338
▁physical	-10.1341
▁보는	-10.1342
▁석	-10.1342
치를	-10.1344
’(	-10.1351
▁Year	-10.1356
▁taxi	-10.1357
▁강조	-10.1359
▁지적했다	-10.136
턴	-10.1362
▁wait	-10.1363
by	-10.1364
쳤다	-10.1366
▁특정	-10.1366
fo	-10.1368
혼	-10.1371
▁houses	-10.1371
▁프랑스	-10.1373
▁성적	-10.1377
▁sp	-10.1378
춘	-10.1381
기구	-10.1383
사의	-10.1383
▁체	-10.1386
▁collection	-10.1386
▁의장	-10.1387
년에	-10.1392
▁도널드	-10.1397
▁owner	-10.1408
▁Chief	-10.1408
▁읽	-10.1413
▁anything	-10.1419
▁쪽	-10.1419
원을	-10.142
▁step	-10.1424
▁자주	-10.1426
▁도움	-10.143
▁expansion	-10.1435
▁가져	-10.1436
▁수가	-10.144
▁이들이	-10.1442
▁across	-10.1446
▁술	-10.1446
인의	-10.1452
▁기사	-10.1454
▁지지	-10.1461
▁degrees	-10.1463
▁hour	-10.147
수록	-10.1471
▁이유는	-10.1471
▁theme	-10.1472
▁access	-10.1473
득	-10.1473
보험	-10.1474
사는	-10.1475
▁의견	-10.1481
▁없다는	-10.1484
▁comes	-10.1492
▁conflict	-10.1493
흥	-10.1494
가요	-10.1495
▁visitors	-10.1496
▁2009	-10.1498
▁deep	-10.1501
▁비판	-10.1501
▁Infrastructure	-10.1502
▁모습	-10.1503
▁범죄	-10.151
▁agreed	-10.1512
▁위촉	-10.1516
▁사진을	-10.1519
▁Lim	-10.152
▁대중	-10.1522
▁By	-10.1525
▁근	-10.1526
▁유명	-10.1532
▁배송	-10.1536
▁holiday	-10.1539
▁intends	-10.1539
▁아주	-10.154
▁집에	-10.1547
이자	-10.1549
▁맞는	-10.1553
▁김정은	-10.1559
▁믿	-10.156
관광	-10.1562
▁creating	-10.1562
▁수밖에	-10.1563
je	-10.1566
▁공정	-10.1569
▁loans	-10.1571
▁범위에서	-10.1571
▁exercise	-10.1573
▁hair	-10.1574
▁작	-10.1574
▁variety	-10.1584
▁rates	-10.1585
▁인간	-10.1586
▁갖	-10.1588
▁육성	-10.1589
▁빨리	-10.1592
는지	-10.1592
▁후에	-10.1596
완	-10.1598
▁창출	-10.1607
pro	-10.1608
▁Are	-10.161
▁tourism	-10.1612
슬	-10.1613
▁물건	-10.1615
▁부모	-10.1617
단이	-10.1622
▁visiting	-10.1622
▁violence	-10.1623
▁heavy	-10.1628
▁platform	-10.1628
리가	-10.1629
▁가능성	-10.1637
▁통신	-10.1641
▁tour	-10.1644
▁sale	-10.1645
▁위원장이	-10.1645
▁ways	-10.1646
▁multi	-10.1651
▁명의	-10.1652
▁worked	-10.1652
os	-10.1663
cre	-10.1663
▁Finance	-10.1664
▁충	-10.1666
▁어디	-10.1666
▁주는	-10.1669
▁sub	-10.1671
ible	-10.1672
▁처	-10.1673
▁Art	-10.1673
▁usually	-10.1681
▁electric	-10.1684
▁축구	-10.1685
▁mountain	-10.1689
▁회원	-10.169
▁해도	-10.1707
▁table	-10.1712
▁직무	-10.1713
ae	-10.1715
발전	-10.1715
셔서	-10.1718
▁높아	-10.1721
▁보수	-10.1729
화가	-10.173
대책	-10.1731
▁black	-10.1733
▁posted	-10.1733
ory	-10.1734
▁학생들이	-10.1739
▁difference	-10.1743
▁basis	-10.1745
▁때는	-10.1746
▁롯데	-10.175
▁작가	-10.1751
ub	-10.1752
▁주로	-10.1753
▁Pro	-10.1753
▁reading	-10.1755
▁General	-10.1757
▁효과	-10.1757
16	-10.176
라도	-10.1761
▁더불어민주당	-10.1762
▁안내	-10.1763
▁같습니다	-10.1764
▁좋아하는	-10.1768
head	-10.1773
▁접근	-10.1777
▁principle	-10.1778
▁star	-10.1781
▁reasons	-10.1781
▁프로	-10.1793
▁complete	-10.1794
▁investigating	-10.1797
▁teacher	-10.1801
녀	-10.1804
▁받았	-10.1812
▁defense	-10.1814
▁부상	-10.1816
▁authority	-10.1816
▁ensure	-10.1817
▁implemented	-10.1819
▁accept	-10.1822
ens	-10.1824
글	-10.1825
▁우려가	-10.1829
▁1,000	-10.1831
▁많	-10.1854
▁popularity	-10.1855
시켜	-10.1863
였	-10.1863
▁ability	-10.1866
▁전자	-10.1867
▁delivered	-10.1874
렌	-10.1876
▁알아	-10.1878
▁따로	-10.188
▁turned	-10.1881
연구원	-10.1884
▁discount	-10.1885
▁이번에	-10.1887
렸	-10.1887
▁결혼	-10.1889
▁properly	-10.189
▁East	-10.189
▁warrant	-10.189
▁York	-10.189
ph	-10.1892
하시	-10.1893
업무	-10.1905
▁입장을	-10.1907
▁Eun	-10.1909
시스템	-10.1909
▁girl	-10.191
▁주장했다	-10.1914
▁보고서	-10.1914
▁Professor	-10.1921
▁proposed	-10.1922
▁announcement	-10.1923
▁teachers	-10.1923
ite	-10.1923
▁Food	-10.193
하다는	-10.193
으로서	-10.1931
▁관련된	-10.1932
▁disabled	-10.1935
jeong	-10.194
점이	-10.1941
랜드	-10.1942
▁출석	-10.1943
장에서	-10.1945
▁조례는	-10.195
▁tourists	-10.1951
▁홍콩	-10.1953
▁학습	-10.1962
▁논란	-10.1962
▁사실이	-10.1966
▁force	-10.1968
▁branch	-10.1968
▁arrest	-10.1969
▁Suwon	-10.1972
지면서	-10.1978
▁소비	-10.198
▁인력	-10.1987
▁대책	-10.1988
▁돈을	-10.1989
▁지도	-10.199
행사	-10.1992
▁Ko	-10.1995
tain	-10.1997
▁우승	-10.2
▁마무리	-10.2004
▁판결	-10.2005
▁limited	-10.2006
▁트	-10.2009
▁couldn	-10.201
▁외국	-10.201
▁convenience	-10.2012
케이	-10.2014
▁prevention	-10.2016
▁점에서	-10.2016
함으로써	-10.2019
▁o	-10.202
mer	-10.2022
▁street	-10.2024
▁limit	-10.2026
슈	-10.2027
베	-10.2028
결과	-10.203
▁투입	-10.2031
▁원내대표	-10.2032
▁airport	-10.2033
▁시절	-10.2037
와의	-10.2043
fu	-10.2047
▁corporation	-10.2049
계약	-10.205
ab	-10.205
ue	-10.2056
fa	-10.2057
▁만드는	-10.2057
▁correct	-10.2058
▁During	-10.2062
▁머리	-10.2063
▁경북	-10.207
한국	-10.2073
▁Decree	-10.2075
ition	-10.208
육	-10.2081
▁요리	-10.2084
▁creation	-10.2084
▁배경	-10.2086
sh	-10.209
▁trust	-10.2093
▁2020	-10.2098
▁compensation	-10.2101
법인	-10.2103
▁voice	-10.2104
hoon	-10.2108
▁elementary	-10.2116
▁불구하고	-10.2116
▁처음으로	-10.2118
▁Je	-10.2121
▁career	-10.2121
▁toward	-10.2126
물이	-10.2131
mun	-10.2133
▁우리의	-10.2134
▁모여	-10.2137
▁drink	-10.2138
▁하기	-10.2142
려고	-10.215
▁customer	-10.2152
하겠습니다	-10.2155
port	-10.2165
▁protest	-10.2168
▁Ba	-10.2169
▁deposit	-10.2172
페	-10.2178
▁있으면	-10.2178
▁대전	-10.2181
시가	-10.2181
▁해소	-10.2187
혁	-10.2188
▁War	-10.219
▁전기	-10.2194
▁경찰이	-10.2195
부가	-10.2196
▁조건	-10.2201
row	-10.2202
▁변호사	-10.2205
▁Ju	-10.222
▁blood	-10.222
▁의해	-10.2222
▁탄	-10.2226
▁serve	-10.2229
해주세요	-10.2229
하려는	-10.2229
▁혐의	-10.223
▁깨	-10.2233
▁material	-10.2239
▁2008	-10.2239
sta	-10.2247
만명	-10.2249
▁happen	-10.2256
▁criticized	-10.2257
▁effects	-10.2259
24	-10.226
▁innovation	-10.2261
▁avoid	-10.2261
▁투	-10.2269
▁Life	-10.2271
▁의지	-10.2271
▁몰	-10.2273
▁King	-10.2283
▁여부	-10.2285
었어요	-10.2285
▁않도록	-10.2286
▁너는	-10.2287
▁얼마	-10.229
▁cover	-10.2291
▁St	-10.2292
교회	-10.2292
17	-10.2293
콘	-10.2302
60	-10.2303
▁찾는	-10.2306
▁완화	-10.2308
▁예상된다	-10.231
시에	-10.2312
▁것과	-10.2315
bor	-10.2317
▁brother	-10.2317
▁predicted	-10.2317
▁Peninsula	-10.232
▁stand	-10.2328
shi	-10.233
에게는	-10.2332
▁Sea	-10.2333
▁강원도	-10.2333
하려고	-10.2333
▁나온	-10.2333
받은	-10.2333
▁arrested	-10.2334
▁giving	-10.2337
▁weak	-10.234
▁award	-10.234
▁인증	-10.2341
▁candidates	-10.2343
하신	-10.2344
한테	-10.2348
▁criticism	-10.2349
▁newly	-10.2351
다가	-10.2353
씨의	-10.2353
▁염	-10.2354
ture	-10.2356
friendly	-10.2357
▁하나에	-10.2358
▁Representative	-10.2358
▁someone	-10.2359
▁nature	-10.2361
▁foundation	-10.2366
▁IT	-10.2369
▁의무	-10.2382
린다	-10.2385
▁실무	-10.2385
▁않습니다	-10.2388
▁era	-10.239
▁select	-10.239
▁campaign	-10.2394
신청	-10.2397
▁represent	-10.2399
뿐	-10.2402
▁주관	-10.2403
▁부문	-10.2403
▁audience	-10.2409
▁검	-10.2413
▁가구	-10.2413
▁appointment	-10.2415
▁meaning	-10.2416
▁Market	-10.2421
증권	-10.2421
▁팬	-10.2421
▁responsibility	-10.2423
▁오르	-10.2424
▁Sports	-10.2426
▁수도권	-10.2427
▁보장	-10.2428
널	-10.243
▁아니다	-10.2433
ek	-10.2438
▁미리	-10.2441
▁배출	-10.2443
▁vi	-10.2445
▁moved	-10.2448
23	-10.2452
특	-10.2453
▁포함한	-10.2453
셔	-10.2454
보호	-10.2456
▁simple	-10.2459
▁힘	-10.2459
▁providing	-10.2462
연구	-10.2464
▁엄마	-10.2465
▁loss	-10.2465
▁소리	-10.2468
tae	-10.2473
스를	-10.2473
lar	-10.2478
▁아이들	-10.2484
원은	-10.2487
▁birth	-10.2489
욕	-10.2497
▁KT	-10.2499
▁싶은	-10.2499
▁signed	-10.25
▁방안을	-10.2504
▁allow	-10.2504
▁발표한	-10.2505
▁민원	-10.2507
▁밝	-10.2508
▁이벤트	-10.251
때	-10.2512
ya	-10.2515
▁respect	-10.2516
▁실적	-10.2519
▁낙	-10.2522
▁Why	-10.2526
셨	-10.2529
▁weekend	-10.253
▁determine	-10.2533
▁reached	-10.2535
▁reports	-10.2536
▁banks	-10.2537
ure	-10.2549
▁flight	-10.2551
▁solution	-10.2552
▁그것은	-10.2553
▁maintain	-10.2555
▁sign	-10.2555
▁효과가	-10.2558
▁어려움	-10.256
▁매장	-10.257
▁장면	-10.2572
인가요	-10.2572
▁consideration	-10.2573
버스	-10.2574
▁River	-10.2574
▁respond	-10.2578
▁returned	-10.2582
▁그대로	-10.2583
▁measure	-10.2586
▁기회를	-10.259
▁recognized	-10.2596
▁뉴욕	-10.2598
▁mentioned	-10.26
회사	-10.2605
cy	-10.2608
▁90	-10.2609
ile	-10.2611
▁쌓	-10.2611
iti	-10.2614
▁especially	-10.2616
▁못하고	-10.2617
▁science	-10.2619
▁overall	-10.2624
▁gathered	-10.2624
▁bar	-10.2625
▁Chairperson	-10.2627
▁아버지	-10.2631
촉	-10.2634
▁manufacturing	-10.2637
▁carry	-10.2641
▁host	-10.2642
500	-10.2645
▁Kwon	-10.2651
▁exam	-10.2651
▁San	-10.2655
께	-10.2665
▁봐	-10.2666
based	-10.2672
ual	-10.2672
센	-10.2677
▁겸	-10.2687
▁새로	-10.2687
▁중이다	-10.2687
원의	-10.2688
vis	-10.2688
▁상대로	-10.269
▁pension	-10.2692
들도	-10.2693
▁becoming	-10.2695
▁pick	-10.2697
▁actually	-10.2698
안을	-10.2699
▁할인	-10.2708
▁함	-10.271
어야	-10.2713
휴	-10.2713
리를	-10.272
▁단지	-10.2725
▁Enforcement	-10.2726
였던	-10.273
▁household	-10.2731
▁여름	-10.2735
~	-10.2735
▁신뢰	-10.2736
▁driver	-10.2739
▁기여	-10.274
▁되었다	-10.274
▁recommended	-10.2744
▁아침	-10.2744
싱	-10.2747
학년	-10.2752
▁클	-10.2752
ig	-10.2755
누	-10.2755
▁Daejeon	-10.2756
▁themselves	-10.2756
▁임명	-10.2757
▁발굴	-10.2757
▁숙	-10.2759
▁응	-10.276
▁퇴	-10.2762
▁보이는	-10.2764
qui	-10.2765
▁감정	-10.2766
▁classes	-10.2768
▁Hee	-10.2772
ah	-10.2773
▁responsible	-10.2775
ple	-10.2777
site	-10.2782
▁function	-10.2783
▁대표가	-10.279
▁h	-10.2791
▁preparing	-10.2793
▁except	-10.2795
하겠다는	-10.2803
▁전문가들	-10.2805
음을	-10.2807
라면	-10.2808
▁registration	-10.2815
▁white	-10.2815
▁owners	-10.2816
▁교류	-10.2818
▁상황을	-10.282
▁그들은	-10.2822
▁씨	-10.2824
▁엄	-10.2824
▁Women	-10.2824
통신	-10.2825
▁shown	-10.283
▁기초	-10.2839
▁택시	-10.284
▁되면	-10.2847
▁여기에	-10.2847
▁대규모	-10.2847
gar	-10.2849
▁deputy	-10.2849
▁경쟁력	-10.2852
▁consider	-10.2854
▁abuse	-10.286
하다고	-10.2861
▁Complex	-10.2862
jung	-10.2862
▁says	-10.2862
▁Federation	-10.2868
ow	-10.2869
행위	-10.2871
했으나	-10.2872
▁buildings	-10.2877
▁clothes	-10.2877
▁severe	-10.2877
▁relatively	-10.2878
▁Hye	-10.2879
지에	-10.2883
▁덧붙였다	-10.2883
▁가입	-10.2889
▁홈페이지	-10.2893
▁연계	-10.2894
▁door	-10.2895
▁advantage	-10.2898
ions	-10.2899
▁significant	-10.29
▁한국에	-10.29
킹	-10.2905
70	-10.2907
▁Ja	-10.2907
▁camp	-10.2907
인들이	-10.2908
▁회복	-10.2908
gra	-10.2912
자와	-10.2916
▁동의	-10.2917
▁Sam	-10.2919
으니	-10.2919
▁기능	-10.2919
사항	-10.292
▁훈련	-10.2921
▁이야기를	-10.2922
▁찍	-10.2923
▁biggest	-10.2924
▁농업	-10.2925
머	-10.2926
▁vacation	-10.2927
▁vote	-10.2931
▁올리	-10.2932
▁dispute	-10.2934
▁지역의	-10.2934
▁normal	-10.2939
▁resolution	-10.294
▁abroad	-10.2943
▁contest	-10.2946
▁독립	-10.2947
eun	-10.2953
▁Baek	-10.2957
▁ever	-10.2964
▁ratio	-10.2966
▁150	-10.2968
▁appeal	-10.2971
▁Da	-10.2979
▁둘	-10.299
▁나이	-10.2995
▁nearby	-10.2997
0%	-10.3006
▁사는	-10.301
▁suspected	-10.3011
light	-10.3011
지지	-10.3015
sik	-10.3015
▁오래	-10.3017
▁deliver	-10.3021
nu	-10.3022
▁법인	-10.3023
▁못했다	-10.3025
▁flow	-10.3028
▁운전	-10.303
▁Gi	-10.3033
▁artists	-10.3038
There	-10.3041
▁교체	-10.3042
▁센터	-10.3042
▁공항	-10.305
▁2000	-10.3052
▁block	-10.3053
▁Mu	-10.3068
▁eye	-10.3069
징	-10.307
▁records	-10.3072
▁notify	-10.3076
▁스마트	-10.3079
▁망	-10.3082
▁보니	-10.3085
▁Koreans	-10.3085
하겠다	-10.3087
▁registered	-10.3087
▁나타나	-10.3088
▁반도체	-10.3091
ium	-10.3092
▁끼	-10.3093
▁pm	-10.3095
명으로	-10.3097
▁computer	-10.3098
▁drop	-10.3101
▁investors	-10.3102
▁offer	-10.3102
▁himself	-10.3105
▁브	-10.311
ants	-10.311
▁separate	-10.3114
cor	-10.3116
확	-10.3116
▁running	-10.3118
▁구속	-10.3119
pl	-10.3121
med	-10.3123
▁상대	-10.3124
▁감독이	-10.3125
▁sun	-10.3128
▁wall	-10.3135
▁김씨	-10.3139
학과	-10.3145
▁싶어요	-10.3148
ev	-10.315
▁appropriate	-10.3152
▁꽃	-10.3152
▁These	-10.3154
▁secret	-10.3157
hu	-10.3158
▁Vi	-10.3163
ai	-10.3164
for	-10.3166
업계	-10.3171
▁퍼	-10.3175
▁expectations	-10.3175
▁누구	-10.3176
log	-10.3176
▁Te	-10.3177
▁플랫폼	-10.3178
▁있었던	-10.3182
▁제외	-10.3183
▁Project	-10.3184
▁최선	-10.3185
▁노조	-10.3185
▁회담	-10.3186
▁huge	-10.3191
칠	-10.3193
지방	-10.3196
ag	-10.3198
▁위치한	-10.32
임을	-10.3208
▁strategy	-10.321
효	-10.3213
▁Joseon	-10.3214
▁express	-10.3214
드리겠습니다	-10.3217
▁produce	-10.3218
▁allowed	-10.3222
▁보이	-10.3224
참	-10.3225
▁놓고	-10.3227
▁정부는	-10.3228
몰	-10.323
▁connection	-10.3231
▁돈	-10.3235
▁듯	-10.3235
▁순간	-10.3237
▁운영하는	-10.3238
지로	-10.3239
▁couple	-10.3242
▁수술	-10.3245
▁semiconductor	-10.3245
▁guarantee	-10.3245
▁adding	-10.3246
▁형성	-10.3246
ome	-10.3247
▁업무를	-10.3249
▁대표는	-10.3256
재단	-10.3257
▁everyone	-10.3258
▁사실상	-10.3258
▁이란	-10.3258
▁w	-10.3259
세대	-10.3261
▁맞춰	-10.3262
▁묻	-10.3265
▁slow	-10.3267
벽	-10.327
▁점이	-10.3272
조원	-10.3272
▁preparation	-10.3278
▁guide	-10.3284
▁appearance	-10.3288
▁(1),	-10.3289
▁successful	-10.3292
▁힘을	-10.3293
었던	-10.3296
▁selling	-10.3299
▁크	-10.3299
마을	-10.33
ug	-10.3301
▁appear	-10.3302
rate	-10.3304
▁출발	-10.3305
▁grade	-10.3307
▁당국	-10.3311
▁지적이	-10.3313
▁지금까지	-10.3313
▁낮은	-10.3319
▁negative	-10.332
▁당신에게	-10.3327
▁Airport	-10.3327
▁매력	-10.3329
궁	-10.3331
▁비상	-10.3336
▁금액	-10.3337
▁것이에요	-10.3341
▁sharing	-10.3342
▁잘못	-10.3343
스터	-10.3343
▁closed	-10.3343
로는	-10.3344
▁좋다	-10.3344
▁사항은	-10.3345
▁refund	-10.3349
▁조치를	-10.335
▁중요하다	-10.3352
▁연속	-10.3352
▁confirm	-10.3353
협의회	-10.3355
▁respectively	-10.3356
27	-10.3358
▁analyzed	-10.3359
▁gap	-10.3364
클	-10.3366
▁보험	-10.3367
▁지사	-10.3367
▁만약	-10.3368
▁Deputy	-10.3369
ren	-10.337
▁entrusted	-10.337
▁net	-10.3371
ping	-10.3375
▁prescribe	-10.3376
sk	-10.3381
▁zone	-10.3386
▁includes	-10.3387
▁From	-10.3389
진흥	-10.3389
▁낸	-10.3391
▁nothing	-10.3392
▁긴급	-10.3397
▁cons	-10.3397
▁속에서	-10.3398
▁choice	-10.3398
▁일대	-10.3407
▁북미	-10.3412
줘	-10.3415
▁expanding	-10.342
▁정확한	-10.3421
구조	-10.3423
ep	-10.3425
▁electronic	-10.3425
▁jurisdiction	-10.3428
▁entertainment	-10.3429
▁땅	-10.3429
▁Gyeongsang	-10.3431
▁오히려	-10.3431
▁planned	-10.3436
▁지시	-10.3443
▁fully	-10.3448
▁되지	-10.3449
▁금지	-10.3452
▁European	-10.346
▁goes	-10.3465
▁characteristics	-10.3466
ified	-10.3467
▁revenue	-10.3468
▁Regard	-10.3468
▁위원은	-10.3469
▁assault	-10.347
▁northern	-10.3474
공단	-10.3475
슨	-10.3475
념	-10.3476
iv	-10.3478
▁farmers	-10.3483
▁설계	-10.3485
주년	-10.3489
▁펼쳐	-10.349
▁modern	-10.3494
▁않으면	-10.3503
▁이행	-10.3511
대학	-10.3512
▁혼자	-10.3522
▁revision	-10.3528
▁hosted	-10.3536
더라도	-10.3537
▁주거	-10.3538
섭	-10.3539
▁enhance	-10.3541
▁넣	-10.3546
▁사용자	-10.3547
▁agenda	-10.3547
▁젊은	-10.3549
▁데이터	-10.3549
▁waiting	-10.355
▁나오는	-10.3552
딩	-10.3552
▁나에게	-10.3556
▁경찰에	-10.3556
비가	-10.3557
국제	-10.3557
▁건축	-10.3561
▁coffee	-10.3564
▁격	-10.3568
장애인	-10.3571
oc	-10.3572
▁joined	-10.3574
eng	-10.3578
치는	-10.3582
hy	-10.3583
었지만	-10.3583
▁근거	-10.3585
▁직업	-10.3587
▁winning	-10.3591
▁완성	-10.3595
▁매출	-10.3597
▁join	-10.3599
▁페	-10.3607
세가	-10.3608
▁정리	-10.3608
▁내리	-10.3609
▁품	-10.3611
행정	-10.3611
▁delay	-10.3612
dae	-10.3617
▁consecutive	-10.3617
▁기금	-10.3618
개를	-10.3618
▁Europe	-10.3618
▁이상이	-10.362
사와	-10.362
▁Star	-10.362
▁prison	-10.3621
▁playing	-10.3624
▁가격이	-10.3624
답	-10.3627
▁강한	-10.3632
▁invest	-10.3633
▁elections	-10.3634
▁spot	-10.3635
▁actor	-10.364
▁Singapore	-10.3641
▁introduction	-10.3645
▁recorded	-10.3646
▁double	-10.3648
hye	-10.365
국장	-10.365
▁track	-10.3651
▁지자체	-10.3651
▁watching	-10.3653
▁싶다	-10.3653
▁운영에	-10.3655
▁receipt	-10.3658
▁사용할	-10.3661
▁moving	-10.3662
▁published	-10.3667
▁축	-10.367
▁모집	-10.3672
▁검찰은	-10.3675
▁뭐	-10.3676
▁놀	-10.368
▁허가	-10.3681
▁bought	-10.3681
▁32	-10.3684
▁older	-10.3686
cha	-10.3687
▁reportedly	-10.369
ip	-10.3692
▁대법원	-10.3696
▁shot	-10.3703
ening	-10.3705
▁listen	-10.3708
▁lo	-10.371
▁문제는	-10.3713
▁협약	-10.3713
▁시점	-10.3718
▁혼	-10.3721
▁cancer	-10.3723
▁hear	-10.3723
로운	-10.3724
▁infrastructure	-10.3725
ice	-10.3731
ger	-10.3731
▁circumstances	-10.3732
었고	-10.3734
▁스포츠	-10.3734
▁criminal	-10.3739
▁presented	-10.3742
탕	-10.3742
▁caus	-10.3747
▁lawmakers	-10.3748
어서	-10.3748
▁재난	-10.3754
▁핵	-10.3755
▁주식	-10.3755
▁rising	-10.3763
80	-10.3764
▁investigate	-10.3764
▁Village	-10.3766
하였	-10.3768
▁resident	-10.3771
▁range	-10.3772
run	-10.3773
▁killed	-10.3773
▁거주	-10.3775
▁국립	-10.378
▁의심	-10.3781
▁받지	-10.3781
▁참여하는	-10.3783
ps	-10.3787
▁designed	-10.379
▁Currently	-10.379
▁규모의	-10.3792
잡	-10.3794
▁임금	-10.3799
▁방침이다	-10.38
▁수정	-10.38
▁Social	-10.3811
▁Thank	-10.3813
청장	-10.3814
▁취지	-10.3817
▁supporting	-10.382
돈	-10.3821
▁정기	-10.3824
▁separately	-10.3827
▁최초로	-10.3827
▁방식으로	-10.3831
lan	-10.3835
▁recommend	-10.3836
▁Wave	-10.3836
28	-10.3837
▁display	-10.3839
▁근로자	-10.3843
▁selection	-10.3844
▁재산	-10.3844
혈	-10.3845
▁victim	-10.385
▁expanded	-10.3856
연구소	-10.3857
▁Church	-10.3859
났다	-10.3859
▁rental	-10.386
▁전혀	-10.3868
cing	-10.3872
▁사람을	-10.3873
▁Byung	-10.3877
제가	-10.3884
▁viewers	-10.3884
▁운행	-10.3888
▁생명	-10.3889
▁CCTV	-10.389
▁improved	-10.3895
비용	-10.3896
년까지	-10.3897
▁camera	-10.3897
▁질문	-10.3897
률이	-10.3899
▁external	-10.3903
▁인물	-10.3906
▁납부	-10.3907
▁songs	-10.3909
▁Hospital	-10.391
▁healthy	-10.3912
▁dollars	-10.3914
소를	-10.3915
제품	-10.3915
▁나도	-10.3915
밖에	-10.3916
▁봉	-10.3917
▁전부	-10.3919
ification	-10.392
▁매일	-10.3921
load	-10.3922
▁졸업	-10.3924
▁강남	-10.3926
▁전남	-10.3929
▁box	-10.3929
▁becomes	-10.393
▁첨부	-10.3931
▁regions	-10.3933
▁쉽지	-10.3935
▁옥	-10.3936
▁방안	-10.3939
▁screening	-10.3946
위에	-10.3948
▁앞에서	-10.395
▁다수	-10.3951
▁promoting	-10.3952
▁무역	-10.3953
▁커피	-10.3955
▁답변	-10.3957
예술	-10.3962
▁피해를	-10.3963
▁바람	-10.3964
▁occur	-10.3966
▁음	-10.3966
▁claimed	-10.3968
▁commission	-10.397
▁draw	-10.3971
▁건가요	-10.3971
좋	-10.3973
east	-10.3974
chan	-10.3974
21	-10.3975
ement	-10.3978
검사	-10.3982
▁lawyer	-10.3983
▁보였다	-10.3983
▁곡	-10.3984
▁곧	-10.3984
▁왔다	-10.3984
▁exports	-10.3985
▁graduate	-10.3987
sang	-10.3987
▁eligible	-10.399
ier	-10.399
▁everything	-10.3994
▁competitiveness	-10.3994
욱	-10.3996
▁쏟아	-10.3997
겠다는	-10.3998
▁repair	-10.4001
홍	-10.4002
part	-10.4004
let	-10.4008
감이	-10.4009
▁superintendent	-10.4015
▁했습니다	-10.4018
▁색	-10.4018
▁More	-10.402
▁33	-10.4021
▁Jeon	-10.4021
▁above	-10.4021
▁북한이	-10.4022
▁장비	-10.4024
▁fan	-10.4025
▁counseling	-10.4027
▁등은	-10.4029
관은	-10.4032
▁열심히	-10.4032
▁decrease	-10.4037
ious	-10.4038
받	-10.404
▁author	-10.404
▁제조	-10.4043
▁육	-10.4045
▁수익	-10.4048
▁싸	-10.4049
▁끝	-10.405
▁decide	-10.4051
▁strike	-10.4053
▁recruit	-10.4054
▁붙	-10.4057
▁word	-10.4061
▁rent	-10.4066
년대	-10.4066
▁생각이	-10.4068
▁수상	-10.4069
▁theater	-10.407
▁improving	-10.407
▁im	-10.4074
▁기회가	-10.408
▁셈이	-10.408
▁doctor	-10.4081
▁advanced	-10.4082
만큼	-10.4085
▁longer	-10.4085
교육청	-10.4086
▁provisions	-10.4087
▁의결	-10.4087
▁보안	-10.409
▁Last	-10.4091
쿠	-10.4092
▁공공기관	-10.4093
▁add	-10.4094
회를	-10.4096
▁suffering	-10.4098
▁사용하는	-10.41
▁과제	-10.4106
▁almost	-10.4106
▁바란다	-10.4109
▁겁니다	-10.4113
▁gender	-10.4113
지구	-10.4114
▁담긴	-10.4118
▁lecture	-10.412
▁thinking	-10.4121
▁본다	-10.4122
▁제일	-10.4124
▁전용	-10.4127
▁Tourism	-10.4131
ze	-10.4131
▁대만	-10.4132
▁위원회의	-10.4132
▁도전	-10.4135
▁formed	-10.4137
▁여부를	-10.4137
▁Ta	-10.4138
▁도와	-10.4139
▁touch	-10.4142
▁donation	-10.4143
▁depending	-10.4145
▁미술	-10.4151
tan	-10.4151
식품	-10.4152
왔	-10.4152
▁judge	-10.4156
▁employee	-10.4158
▁elected	-10.4159
▁served	-10.416
월에	-10.4163
▁maintenance	-10.4169
▁바탕으로	-10.4169
부서	-10.4171
▁focused	-10.4172
ability	-10.4172
귀	-10.4173
공항	-10.4174
▁겨울	-10.4175
▁provides	-10.4176
▁싱가포르	-10.4176
▁대통령과	-10.4177
▁collected	-10.4179
▁cross	-10.418
▁assets	-10.418
▁husband	-10.4183
문제	-10.4185
pre	-10.4185
▁collect	-10.4187
▁sleep	-10.4187
한다면	-10.4193
▁식당	-10.4195
▁Hae	-10.4197
▁눈에	-10.4199
▁적극적으로	-10.4201
▁없다고	-10.4202
▁물품	-10.4205
▁knowledge	-10.4208
▁singer	-10.4209
▁눈길	-10.4212
▁역할	-10.4215
▁speech	-10.4215
▁Ne	-10.4216
▁detailed	-10.4217
▁한국당	-10.4218
▁빛	-10.4219
▁일어나	-10.4223
ink	-10.4238
일에	-10.4239
▁반드시	-10.424
▁Environment	-10.4242
▁부서	-10.4243
▁주제로	-10.4243
▁있을까요	-10.4243
건설	-10.4244
▁technologies	-10.4244
함에	-10.4246
▁although	-10.4248
▁블록체인	-10.4248
▁회계	-10.4249
▁구민	-10.425
▁관세	-10.4253
▁것처럼	-10.4257
▁delayed	-10.4259
▁마음을	-10.4259
▁Sejong	-10.4259
▁consumer	-10.426
▁빠르게	-10.426
▁smart	-10.4262
▁spring	-10.4263
▁지속적으로	-10.4265
▁beauty	-10.4265
가지	-10.4266
TV	-10.4267
io	-10.4267
▁supported	-10.4269
▁참여한	-10.4271
CC	-10.4273
▁Fair	-10.4274
▁Of	-10.4275
▁바뀌	-10.4276
▁looks	-10.4278
app	-10.4285
▁2007	-10.4293
▁통화	-10.4299
nce	-10.4299
▁못하는	-10.4299
▁Also	-10.4302
▁꾸	-10.4304
so	-10.4305
리아	-10.4306
▁Mar	-10.4307
방송	-10.4312
▁association	-10.4312
▁factory	-10.4314
▁Port	-10.4317
▁fields	-10.432
▁차지	-10.432
▁경험이	-10.4326
▁license	-10.4326
▁행위	-10.4328
▁반발	-10.4328
▁contribute	-10.4332
▁Don	-10.4333
▁주민들	-10.4336
페이	-10.4336
▁한국인	-10.4343
장에	-10.4343
▁strength	-10.4345
▁이들은	-10.4352
량을	-10.4354
▁Ye	-10.4355
▁Most	-10.4355
▁이와	-10.4356
▁completely	-10.4356
▁challenge	-10.4359
▁seem	-10.436
▁push	-10.4362
드립니다	-10.437
▁League	-10.437
▁떠나	-10.4371
▁스타	-10.4374
빠	-10.4375
▁lawmaker	-10.4376
▁claim	-10.4377
▁자료를	-10.4378
▁식사	-10.438
▁cooperate	-10.4381
▁effective	-10.4382
▁세상	-10.4384
▁정하는	-10.4384
▁불과	-10.4385
▁cash	-10.439
▁reservation	-10.4392
들에	-10.4393
▁marketing	-10.4395
▁이루	-10.4396
▁시장이	-10.4399
▁types	-10.4401
▁soccer	-10.4402
▁사태	-10.4405
ight	-10.4406
▁ch	-10.4406
호에	-10.4406
▁자리를	-10.4413
▁10%	-10.4415
▁콘서트	-10.4416
▁changing	-10.4417
jong	-10.4418
▁item	-10.4419
▁측은	-10.4421
▁아들	-10.4423
▁photos	-10.4427
▁그리	-10.4428
▁forced	-10.443
▁중국의	-10.4433
▁fresh	-10.4435
▁debt	-10.4435
장과	-10.4436
100	-10.4438
차례	-10.4439
▁prior	-10.4441
자료	-10.4443
▁Soo	-10.4444
▁보기	-10.4445
▁말이	-10.4446
▁despite	-10.4446
시키는	-10.4448
▁보상	-10.4457
▁County	-10.4458
▁철	-10.446
있다	-10.446
▁continues	-10.4467
▁속에	-10.4467
▁평양	-10.4469
▁remember	-10.4469
(1	-10.4469
▁군사	-10.4471
▁approach	-10.4472
▁나오	-10.4476
▁article	-10.4478
▁mayor	-10.4479
▁Che	-10.4479
▁유치	-10.448
▁remarks	-10.4481
▁discussion	-10.4484
▁삶	-10.4489
탑	-10.449
▁seats	-10.4491
▁분위기	-10.4491
▁procedures	-10.4493
가족	-10.4496
스는	-10.45
▁emphasized	-10.4502
▁meal	-10.4503
공간	-10.4504
▁Movement	-10.4505
▁style	-10.4505
jae	-10.4505
▁mainly	-10.4505
▁하다	-10.4506
▁suit	-10.4511
펜	-10.4512
관을	-10.4512
▁이것	-10.4513
▁평소	-10.4513
▁concept	-10.4516
▁프로그램을	-10.4516
▁진단	-10.4517
▁갈등	-10.4526
▁부위원장	-10.4531
ack	-10.4531
▁시각	-10.4533
▁정당	-10.4533
▁snow	-10.4535
▁broadcasting	-10.4535
꽃	-10.4541
나무	-10.4541
▁Di	-10.4544
▁인도네시아	-10.4549
▁venue	-10.4549
sun	-10.4551
▁가치	-10.4552
▁배치	-10.4554
▁specialized	-10.4555
▁stocks	-10.4557
▁suspect	-10.4557
▁부탁	-10.4563
▁연간	-10.4566
ble	-10.4567
▁studying	-10.4569
▁빌	-10.457
▁rose	-10.4572
▁총리	-10.4572
▁allows	-10.4573
▁정비	-10.4573
▁대해서	-10.4574
▁sister	-10.4578
▁전쟁	-10.4581
▁album	-10.4582
분야	-10.4583
▁특성	-10.4584
성장	-10.4586
rn	-10.4588
▁mean	-10.4591
▁Myung	-10.4592
▁이용자	-10.4593
▁하여야	-10.4593
▁meters	-10.4593
됐고	-10.4593
▁최고의	-10.4596
▁쉬	-10.4597
▁플	-10.4601
틀	-10.4602
China	-10.4604
했기	-10.4608
좌	-10.461
▁choose	-10.4611
tent	-10.4614
▁34	-10.4615
▁과학	-10.4616
▁했어요	-10.4616
▁developing	-10.4616
주세요	-10.4617
자금	-10.4618
▁무슨	-10.4618
▁날씨	-10.4626
알	-10.4626
▁생기	-10.4627
▁consumption	-10.463
▁meetings	-10.4631
카드	-10.4631
▁사이에	-10.4633
▁앞에	-10.4635
▁Mountain	-10.4637
▁firm	-10.464
▁gr	-10.4642
선을	-10.4644
▁Roh	-10.4644
▁때까지	-10.4645
갔다	-10.4646
▁종류	-10.4648
▁disabilities	-10.4649
▁지식	-10.465
▁특수	-10.4652
▁require	-10.4652
ded	-10.4655
▁가서	-10.4659
use	-10.466
▁autonomous	-10.4661
▁greatly	-10.4661
▁fish	-10.4664
▁부인	-10.4665
▁sex	-10.4666
상황	-10.467
▁independence	-10.4671
ound	-10.4673
풀	-10.4676
▁ad	-10.4676
▁통일	-10.4684
▁45	-10.4684
진이	-10.4685
▁선언	-10.4685
▁남편	-10.4689
▁Employment	-10.469
었는데	-10.469
▁그러나	-10.4691
▁도민	-10.4693
lin	-10.4693
▁폭염	-10.4694
▁born	-10.4696
쳤	-10.47
▁cell	-10.47
▁사항	-10.47
년이	-10.47
▁nine	-10.4701
냈다	-10.4703
▁ordinary	-10.4705
▁있지	-10.4707
▁진술	-10.4711
ade	-10.4713
째	-10.4713
▁cool	-10.4713
bra	-10.4714
허가	-10.4724
▁talent	-10.4725
▁전날	-10.4726
rib	-10.473
앤	-10.4731
▁machine	-10.4733
▁units	-10.4734
▁premium	-10.4734
▁methods	-10.4738
▁제주도	-10.4741
▁항공	-10.4741
▁52	-10.4742
▁ca	-10.4744
폰	-10.4744
▁개혁	-10.4747
▁금리	-10.4752
▁Ri	-10.4753
▁Human	-10.4754
▁가득	-10.4755
▁폭행	-10.4755
▁fishing	-10.4756
이기	-10.476
▁제출하여야	-10.4762
벨	-10.4767
▁호주	-10.4772
우리	-10.4776
▁surgery	-10.4777
▁leaving	-10.478
▁admission	-10.478
26	-10.478
▁performed	-10.4782
율이	-10.4785
▁Organization	-10.4787
▁자문	-10.4787
▁installation	-10.4789
▁토론	-10.4791
▁Pyongyang	-10.4791
▁lawsuit	-10.4791
▁mental	-10.4797
▁미국이	-10.4797
▁50%	-10.48
▁cur	-10.4801
▁Christian	-10.4802
cm	-10.4803
개선	-10.4803
▁scope	-10.4806
▁promoted	-10.4807
▁처벌	-10.481
응	-10.4811
람	-10.4811
롭	-10.482
웅	-10.4821
▁거부	-10.4821
▁rapidly	-10.4823
▁시작한	-10.4824
▁목사	-10.4824
컬	-10.4825
▁attract	-10.4834
등급	-10.4836
▁suffered	-10.4837
의원	-10.4837
▁Th	-10.4837
▁20%	-10.484
▁comment	-10.4841
하되	-10.4847
▁library	-10.4859
▁초과	-10.4865
▁분양	-10.4865
▁entering	-10.4865
▁찬	-10.4869
▁wear	-10.4871
▁divided	-10.4873
▁settlement	-10.4879
뿐만	-10.4879
▁standing	-10.4879
드는	-10.4881
dang	-10.4882
▁Pe	-10.4884
장의	-10.4892
▁dead	-10.4895
▁throughout	-10.4896
▁전년	-10.4918
▁당신을	-10.4921
▁cat	-10.4924
▁해석	-10.4932
겠지만	-10.4932
되도록	-10.4935
▁기부	-10.4939
트리	-10.4942
▁finished	-10.4945
▁슬	-10.4945
▁인수	-10.4951
▁표시	-10.4952
▁대기업	-10.4954
▁sample	-10.4954
▁Sin	-10.4956
기관의	-10.4961
▁메일	-10.4961
▁brought	-10.4966
▁협조	-10.4966
▁교사	-10.4968
▁악화	-10.4976
분의	-10.4979
▁write	-10.4983
ka	-10.4984
▁확	-10.4984
▁worried	-10.4985
▁즐길	-10.4985
▁focusing	-10.4991
▁품질	-10.4992
▁medicine	-10.4993
▁His	-10.4994
sol	-10.4994
해도	-10.4998
▁remaining	-10.4998
▁밝힌	-10.5001
▁빠른	-10.5004
▁그냥	-10.5005
▁arm	-10.5007
▁없어요	-10.5008
▁내놓	-10.5008
▁북한의	-10.5008
▁weight	-10.5009
▁concern	-10.5015
▁65	-10.5019
교통	-10.502
▁independent	-10.502
▁지역에	-10.502
▁주최	-10.502
▁taxes	-10.5023
▁va	-10.5023
▁rescue	-10.5024
▁activity	-10.5024
▁오늘은	-10.503
av	-10.5031
▁Ulsan	-10.5031
▁academic	-10.5031
▁Rules	-10.5032
▁공모	-10.5033
off	-10.5035
▁Line	-10.5035
▁이내에	-10.5037
▁요금	-10.504
▁stable	-10.5047
▁ban	-10.5048
▁안에서	-10.5051
전이	-10.5053
▁background	-10.5055
▁수수료	-10.5055
▁encourage	-10.5057
▁profits	-10.5057
▁significantly	-10.5058
kg	-10.5065
▁다니	-10.5072
▁일상	-10.5081
▁Peace	-10.5082
▁과정	-10.5082
▁ticket	-10.5085
▁male	-10.5087
▁바다	-10.5088
▁eating	-10.5088
35	-10.5089
▁증거	-10.5091
▁heads	-10.5093
▁지원하는	-10.5093
▁Fire	-10.5095
▁모바일	-10.5097
이번	-10.5098
BC	-10.5098
▁어머니	-10.5098
▁dramas	-10.5099
부서의	-10.5101
▁나를	-10.5103
▁늦	-10.5103
법을	-10.5105
▁캐나다	-10.5105
▁끝난	-10.5106
▁이용해	-10.5108
일간	-10.5108
▁subway	-10.511
▁weeks	-10.5112
짝	-10.5113
▁기준으로	-10.5114
▁경비	-10.5114
▁meaningful	-10.5114
▁마케팅	-10.5114
▁America	-10.5114
▁작년	-10.5123
▁사람들은	-10.5124
▁디지털	-10.5129
▁representatives	-10.5131
▁alternative	-10.5132
나는	-10.5134
장으로	-10.5135
▁seat	-10.5138
해온	-10.514
기금	-10.5141
▁집행	-10.5142
▁전력	-10.5144
▁subsidize	-10.5144
달러	-10.5145
▁busy	-10.515
▁있다면	-10.515
▁Gyeong	-10.5152
▁Hu	-10.5158
▁주목	-10.5159
▁exceed	-10.5165
▁헤	-10.5166
▁관하여	-10.5167
▁시작했다	-10.5167
상의	-10.5168
케	-10.5169
▁신경	-10.5171
▁opportunities	-10.5172
▁tea	-10.5174
▁체육	-10.5174
▁인권	-10.5175
ud	-10.5175
▁Small	-10.5179
▁가야	-10.518
▁400	-10.5182
▁제공하는	-10.5183
▁paying	-10.5184
▁estimated	-10.5186
▁보관	-10.5188
▁유리	-10.519
▁Games	-10.5193
▁Bi	-10.5193
▁사고가	-10.5196
륙	-10.5197
▁county	-10.5199
▁Division	-10.5199
▁Yeon	-10.52
ook	-10.5206
치가	-10.5207
▁permission	-10.5207
▁루	-10.5207
▁assessment	-10.5216
▁섬	-10.5219
▁카페	-10.5224
night	-10.5226
▁Table	-10.5226
▁subsidies	-10.5227
▁자격	-10.5227
▁주의	-10.5231
45	-10.5233
ists	-10.5233
▁restaurants	-10.5234
Q	-10.5234
▁perfect	-10.5235
릭	-10.5242
▁초기	-10.5243
▁Our	-10.5247
ups	-10.5248
-1	-10.5249
▁pictures	-10.5249
▁arts	-10.5249
▁교육감	-10.5249
보는	-10.525
▁38	-10.5251
▁Hotel	-10.5251
쇼	-10.5255
▁무엇보다	-10.5256
▁차이가	-10.5258
▁practical	-10.5258
▁발행	-10.5261
▁빼	-10.5261
▁길이	-10.5264
▁preliminary	-10.5274
▁title	-10.5277
▁없고	-10.528
▁달성	-10.5286
위가	-10.5287
▁movies	-10.5289
▁어렵다	-10.5297
▁언급	-10.53
톤	-10.5302
▁추가로	-10.5303
▁권리	-10.5307
▁탐	-10.531
▁speak	-10.531
▁전해졌다	-10.5311
▁기업의	-10.5313
▁화제	-10.5313
29	-10.5315
“	-10.5315
적이고	-10.5316
▁유치원	-10.5319
iz	-10.532
▁rating	-10.5322
▁서류	-10.5323
▁accounts	-10.5325
▁spend	-10.5325
감독	-10.5328
▁계산	-10.5332
▁이름을	-10.5333
부는	-10.5335
치고	-10.5341
체육	-10.5343
▁arrived	-10.5344
▁Facebook	-10.5346
▁기자	-10.5346
▁오른	-10.5347
fer	-10.535
하겠다고	-10.535
사진	-10.5351
90	-10.5353
라며	-10.5353
▁테	-10.5354
▁mistake	-10.5358
자원	-10.5359
▁Motor	-10.5361
▁관광객	-10.5361
bin	-10.5362
▁먹고	-10.5363
▁후원	-10.5368
▁decline	-10.5369
▁식품	-10.5372
▁source	-10.5372
시설을	-10.5374
▁excessive	-10.5378
ey	-10.538
▁양국	-10.538
▁부여	-10.5383
▁세대	-10.5387
▁웃	-10.5388
▁허용	-10.5388
개소	-10.5396
▁도서관	-10.5398
▁보통	-10.5399
▁교수는	-10.5401
▁Com	-10.5405
구를	-10.5405
▁Policy	-10.5406
개국	-10.5407
▁불안	-10.5411
▁써	-10.5416
▁understanding	-10.542
▁achieve	-10.5423
▁컴퓨터	-10.5426
▁외교	-10.5426
▁monthly	-10.5428
▁recruitment	-10.5428
▁dinner	-10.543
▁Under	-10.5431
▁사과	-10.5432
▁Ni	-10.5433
▁활발	-10.5435
▁이달	-10.544
▁이익	-10.5442
▁36	-10.5447
▁냉	-10.5447
▁attending	-10.545
85	-10.5454
▁shared	-10.5455
gang	-10.5455
ctor	-10.5456
▁남아	-10.5461
▁훨씬	-10.5462
▁교육을	-10.5463
gan	-10.547
▁farm	-10.5472
▁국방부	-10.5472
차를	-10.5473
이야	-10.5473
▁회장이	-10.5474
▁충분히	-10.5475
▁shop	-10.5476
▁메뉴	-10.5478
▁최대한	-10.5479
허	-10.5483
▁volume	-10.5486
스러운	-10.5486
rac	-10.5487
스크	-10.5491
▁지구	-10.5496
▁predict	-10.5497
lie	-10.55
over	-10.5502
▁managed	-10.5511
ui	-10.5514
읍	-10.5519
▁desire	-10.5519
▁지하철	-10.5524
▁twice	-10.5527
▁페이스북	-10.5527
트를	-10.5529
경찰서	-10.553
au	-10.5532
▁thereof	-10.5533
만의	-10.5545
▁절반	-10.555
▁확인해	-10.555
▁feature	-10.5553
대에	-10.5554
▁결과가	-10.5558
▁conservative	-10.5559
pt	-10.556
▁acting	-10.5562
▁다소	-10.5565
랐	-10.5566
이어서	-10.5571
▁많았다	-10.5572
▁email	-10.5572
장관	-10.5575
▁과정을	-10.5575
▁factors	-10.5579
▁Dis	-10.5582
▁nationwide	-10.5588
▁expression	-10.5588
▁지켜	-10.5589
▁카메라	-10.5589
▁늘어나	-10.5591
▁옷	-10.5592
▁examine	-10.5592
▁방문해	-10.5593
▁혐의를	-10.5594
▁비가	-10.5595
▁cancel	-10.5595
▁일단	-10.5598
▁받	-10.56
▁town	-10.56
둥	-10.56
ties	-10.5601
▁멤버	-10.5602
▁의하여	-10.5603
▁Services	-10.5604
▁30%	-10.5606
▁보이고	-10.5608
▁후보자	-10.5608
▁제외한	-10.5612
form	-10.5619
▁stone	-10.5623
▁bl	-10.5627
▁대기	-10.5631
pen	-10.5631
▁아름다운	-10.5633
▁기자회견	-10.5637
▁수용	-10.5638
베이	-10.5641
▁어렵	-10.5642
AR	-10.5642
▁sentence	-10.5642
▁캐릭터	-10.5645
▁지역에서	-10.5649
▁노동자	-10.5651
▁recommendation	-10.5652
다른	-10.5654
▁Heung	-10.5656
▁불러	-10.5656
▁이뤄지	-10.5657
▁느껴	-10.5657
▁반복	-10.5658
▁begin	-10.5659
▁알려주	-10.5663
▁개편	-10.5663
국가	-10.5667
▁Information	-10.567
▁등에서	-10.5672
시민	-10.5674
▁만들기	-10.5675
▁mis	-10.5678
주가	-10.5678
대의	-10.5679
▁Du	-10.568
▁좌	-10.568
▁efficient	-10.5681
▁종료	-10.5682
▁행사를	-10.5682
▁없었	-10.5682
▁figure	-10.5685
▁사상	-10.5685
▁의미가	-10.5689
▁부부	-10.569
▁대체	-10.5693
▁path	-10.5693
▁obtain	-10.5694
▁devices	-10.5695
▁완	-10.5695
▁port	-10.5696
▁recover	-10.5698
Ch	-10.57
▁부분이	-10.5702
▁Agricultural	-10.5703
▁impossible	-10.5703
▁refer	-10.5705
▁울산	-10.5706
▁열고	-10.5707
▁remains	-10.5709
▁gold	-10.5719
▁contains	-10.5723
type	-10.573
▁presentation	-10.573
our	-10.5735
▁틀	-10.574
▁기대된다	-10.5756
▁apartments	-10.5759
▁서식	-10.5762
▁미국과	-10.5763
▁foot	-10.5764
North	-10.5764
훈련	-10.5766
리스트	-10.5768
▁majority	-10.577
▁상당	-10.5772
▁forces	-10.5778
▁부진	-10.578
▁Seok	-10.5783
ify	-10.5783
▁직후	-10.5785
▁conversation	-10.5786
▁소유	-10.5788
▁인기가	-10.5789
재산	-10.5789
▁징수	-10.5796
▁지금은	-10.5797
▁Not	-10.5798
봐	-10.5799
▁공개된	-10.5799
▁follows	-10.5802
CO	-10.5802
US	-10.5804
▁처분	-10.5806
▁stories	-10.5807
▁digital	-10.5807
▁reporters	-10.5809
▁text	-10.581
리지	-10.581
▁후반	-10.5812
▁finance	-10.5815
▁상호	-10.5821
▁Inter	-10.5823
과정	-10.5833
▁Now	-10.5834
▁ended	-10.5834
▁하여	-10.5834
▁위에	-10.5835
▁교육부	-10.5838
lock	-10.584
▁Recently	-10.5844
▁leadership	-10.5846
닥	-10.5846
▁지키	-10.5846
▁wrote	-10.5849
▁실패	-10.5849
만으로	-10.5854
▁conf	-10.5855
▁시장에서	-10.5855
▁선생님	-10.5858
▁절대	-10.5859
▁reward	-10.5859
▁투표	-10.5861
▁내에서	-10.5862
▁크기	-10.5867
혹	-10.5868
▁Im	-10.5869
드리	-10.5873
▁menu	-10.5875
시부터	-10.5875
▁suggested	-10.5881
▁발급	-10.5883
▁punishment	-10.5883
▁했지만	-10.5886
▁때마다	-10.5887
▁실력	-10.5888
▁국회의원	-10.5892
▁blockchain	-10.5895
▁생각합니다	-10.5901
▁Chi	-10.5902
▁불가능	-10.5902
▁KBS	-10.5902
▁수원	-10.5904
▁warning	-10.5909
▁시작된	-10.591
▁believed	-10.5913
▁deliberate	-10.592
▁exchanges	-10.5921
▁announce	-10.5922
웠다	-10.5925
느	-10.5926
▁Museum	-10.5929
▁bi	-10.593
▁예측	-10.5931
▁밝혀	-10.5932
▁꾸준히	-10.5933
방안	-10.5933
▁김영	-10.5934
▁의회	-10.5934
▁films	-10.5939
▁Fe	-10.5941
▁구입	-10.5944
▁인생	-10.5951
▁기술을	-10.5953
▁들고	-10.5953
웠	-10.5954
▁hurt	-10.5954
▁참석했다	-10.5955
▁비교	-10.5956
▁difficulty	-10.5961
▁강제	-10.5962
▁즉시	-10.5964
▁가까운	-10.5967
사고	-10.5968
▁filled	-10.5969
내는	-10.5972
▁잇	-10.5973
랜	-10.5975
▁newspaper	-10.5975
▁앱	-10.5975
물질	-10.5977
▁tourist	-10.5979
▁좋지	-10.5985
▁limits	-10.5985
낼	-10.5987
▁쓴	-10.5988
free	-10.5989
tter	-10.599
▁징계	-10.5992
억원을	-10.5993
▁나무	-10.5995
▁executives	-10.5995
▁그들	-10.5996
▁요인	-10.5996
▁unfair	-10.5996
▁멕시코	-10.5996
▁충남	-10.6002
▁말고	-10.6002
▁친환경	-10.6007
▁검찰이	-10.6008
▁supplement	-10.6009
▁unable	-10.601
아이	-10.6014
▁법안	-10.6018
lim	-10.6025
▁drug	-10.6029
▁나올	-10.603
▁평가를	-10.603
▁concerned	-10.6032
22	-10.6034
ler	-10.6035
▁anyone	-10.6036
관에서	-10.6036
▁이미지	-10.6037
▁Did	-10.6039
시행	-10.6039
▁Q	-10.6041
느냐	-10.6043
▁나머지	-10.6043
▁있었습니다	-10.6044
▁장관이	-10.6046
▁검증	-10.6046
▁fashion	-10.6048
▁사이트	-10.605
씨를	-10.6051
활	-10.6051
▁벽	-10.6051
▁link	-10.6053
▁선고	-10.6054
▁계획을	-10.6054
▁directors	-10.6056
▁그때	-10.6059
놀이	-10.6059
▁extra	-10.6061
▁catch	-10.6063
▁handle	-10.6063
▁Could	-10.6065
▁sentenced	-10.6065
지원센터	-10.6068
▁Construction	-10.6069
▁myself	-10.6071
▁초청	-10.6073
As	-10.6073
▁lose	-10.6073
▁bio	-10.6078
▁머	-10.608
▁승인	-10.6086
▁먹는	-10.6098
▁강원	-10.6102
▁위협	-10.6103
▁judges	-10.6104
▁auto	-10.6106
▁주제	-10.6107
▁원활	-10.6111
▁계기	-10.6115
상품	-10.6116
▁contribution	-10.6116
▁beyond	-10.6116
▁구분	-10.6117
▁방지	-10.6117
▁강남구	-10.6118
▁여러분	-10.612
▁Hwa	-10.6125
▁확장	-10.6127
봐야	-10.6127
▁이용할	-10.6129
▁범	-10.613
▁나선	-10.6133
▁expects	-10.6136
▁시군	-10.6138
▁전면	-10.614
▁potential	-10.6142
▁nice	-10.6143
▁missing	-10.6143
번째	-10.6144
▁거기	-10.6145
회관	-10.6146
68	-10.6146
▁역량	-10.6148
▁나누	-10.6148
▁보조금	-10.6148
▁debate	-10.6151
▁j	-10.6152
ko	-10.6154
▁surrounding	-10.6155
▁상황이다	-10.6159
▁endeavor	-10.6159
▁상장	-10.616
TO	-10.6164
▁alleged	-10.6165
▁비슷한	-10.6166
▁allegations	-10.6166
▁출전	-10.6169
▁통보	-10.6171
▁spirit	-10.6172
▁작용	-10.6174
all	-10.6175
▁Republic	-10.6175
▁모아	-10.6175
▁roads	-10.6177
▁실현	-10.6178
▁설정	-10.6179
▁사건이	-10.618
pyeong	-10.6188
▁threat	-10.619
▁damaged	-10.619
되자	-10.619
밥	-10.6191
▁규정함을	-10.6191
▁print	-10.6192
▁happened	-10.6193
바이	-10.6193
▁index	-10.6194
▁smartphone	-10.6195
▁봄	-10.6198
sure	-10.6198
▁시행령	-10.6198
시대	-10.62
▁유명한	-10.6201
▁행사가	-10.6202
▁partner	-10.6202
▁inconvenience	-10.6203
능력	-10.6204
▁manner	-10.6205
▁개정안	-10.6206
▁중간	-10.6206
win	-10.6208
▁운용	-10.6209
▁imp	-10.621
▁Former	-10.6212
▁바꾸	-10.6213
식이	-10.6214
▁wearing	-10.6214
▁힘들	-10.6216
▁feeling	-10.6217
▁accused	-10.622
▁expensive	-10.622
▁임시	-10.6223
den	-10.6223
시험	-10.6227
자들의	-10.6231
rch	-10.6231
▁빠져	-10.6233
▁성격	-10.6237
▁Taiwan	-10.6238
▁효과를	-10.6239
▁열어	-10.624
조정	-10.6241
▁revised	-10.6243
▁Russian	-10.6247
▁순위	-10.6247
▁운	-10.625
▁마음이	-10.625
리그	-10.625
▁false	-10.6251
▁자세	-10.6251
▁주차	-10.6253
▁효	-10.6253
ped	-10.6253
▁장애	-10.6255
65	-10.6257
▁진입	-10.6257
▁retirement	-10.6261
▁calling	-10.6261
▁축하	-10.6266
bil	-10.6267
▁정책을	-10.627
부를	-10.6271
▁Insurance	-10.6273
▁싶	-10.6273
▁본인	-10.6274
전에	-10.6275
▁burn	-10.6277
▁편의	-10.6277
▁그린	-10.6278
wing	-10.628
▁응원	-10.628
▁보유	-10.6283
Ma	-10.6289
▁느끼	-10.629
▁흐름	-10.6295
▁노선	-10.6295
▁토지	-10.6295
이었던	-10.63
van	-10.63
▁Mon	-10.63
▁wants	-10.6303
▁PC	-10.6303
▁대변인	-10.6303
▁plants	-10.6309
84	-10.6317
200	-10.6318
▁때문입니다	-10.6318
▁du	-10.6319
의료	-10.632
▁lunch	-10.6321
▁반면	-10.6321
쟁	-10.6322
zz	-10.6323
▁diseases	-10.6325
▁honor	-10.6328
▁decreased	-10.6328
▁prove	-10.6329
팀이	-10.633
▁많았	-10.6331
▁여야	-10.6331
▁leg	-10.6333
계획을	-10.6336
▁calls	-10.634
값	-10.6341
▁shock	-10.6343
▁named	-10.6346
▁대표팀	-10.6347
시킬	-10.6349
▁About	-10.6352
▁quite	-10.6352
▁압박	-10.6353
▁BTS	-10.6353
▁주말	-10.6356
▁farming	-10.6357
심사	-10.6358
▁Youth	-10.6359
표를	-10.6359
▁나오고	-10.6364
호선	-10.6374
단지	-10.6377
▁참석해	-10.638
▁포장	-10.6381
63	-10.6381
▁victory	-10.6383
▁시청	-10.6383
▁Iran	-10.6385
▁task	-10.6385
▁그곳	-10.6387
▁judgment	-10.6387
▁asking	-10.6388
▁아니냐	-10.6389
▁worker	-10.6389
▁밥	-10.639
주민	-10.6392
가격	-10.6393
▁Joon	-10.6393
▁Goyang	-10.6393
여성	-10.6395
▁Gwang	-10.6395
▁Yi	-10.6398
▁있습니까	-10.6401
▁동영상	-10.6405
조치	-10.6407
시아	-10.6408
▁진행된	-10.6409
▁stress	-10.641
▁X	-10.6411
웨	-10.6411
▁지하	-10.6411
프라	-10.6412
▁temporary	-10.6414
▁책을	-10.6422
▁태국	-10.6428
과학	-10.6432
핑	-10.6435
▁finally	-10.6437
▁processing	-10.644
▁suggest	-10.6447
▁친구들	-10.6451
▁기대하고	-10.6453
월까지	-10.6453
▁현금	-10.6454
▁여기서	-10.6454
▁연출	-10.6455
돼야	-10.6459
회가	-10.6461
▁gain	-10.6462
▁알리	-10.6465
체험	-10.6468
▁봤	-10.6468
시티	-10.6469
▁별표	-10.6469
▁여론	-10.647
▁affected	-10.6474
58	-10.6476
▁increases	-10.6479
▁열린다	-10.6479
▁intelligence	-10.648
▁확인할	-10.6481
수사	-10.6481
ff	-10.6481
▁구청장에게	-10.6483
▁상반기	-10.6485
ign	-10.6486
31	-10.649
▁reveal	-10.649
▁residential	-10.649
▁shape	-10.6492
▁conducting	-10.6492
▁master	-10.6495
사업을	-10.6495
▁수요가	-10.6497
▁권한	-10.6498
원으로	-10.6501
▁사무실	-10.6502
▁시장에	-10.6504
56	-10.6504
▁폐지	-10.6505
▁fit	-10.6508
▁태풍	-10.6508
▁k	-10.6508
험	-10.651
shin	-10.651
pon	-10.6513
웨이	-10.6513
▁주소	-10.6519
64	-10.652
▁충격	-10.6523
▁스페인	-10.6525
▁wonder	-10.6527
▁이곳	-10.6532
▁바른미래당	-10.6534
▁사업에	-10.6537
▁가게	-10.6538
▁device	-10.6539
▁하반기	-10.6539
▁아마	-10.6539
상담	-10.6542
▁새벽	-10.6545
▁들어서	-10.6545
dis	-10.6546
▁counties	-10.6548
타임	-10.6548
▁사업이	-10.655
▁favor	-10.655
▁Plan	-10.6551
시키	-10.6555
▁island	-10.6559
▁topic	-10.6561
ric	-10.6562
▁spent	-10.6564
▁else	-10.6566
ect	-10.6566
▁patient	-10.6569
▁아내	-10.6569
▁capacity	-10.657
▁consult	-10.6572
wan	-10.6573
▁Economy	-10.6575
▁의견이	-10.6575
seo	-10.6576
▁shares	-10.6576
▁Xi	-10.6577
IS	-10.6578
▁가고	-10.6579
▁fi	-10.658
▁좋을	-10.658
▁attracting	-10.6582
▁cooperative	-10.6588
영화	-10.6588
▁방향	-10.6589
▁건립	-10.659
▁violation	-10.6598
단계	-10.6601
air	-10.6603
law	-10.6604
▁fruit	-10.6606
▁defect	-10.6607
▁Ar	-10.6607
▁의혹을	-10.6608
▁자체가	-10.6608
▁갑자기	-10.6611
개혁	-10.6611
▁cafe	-10.6611
▁자산	-10.6615
▁Car	-10.6617
▁대북	-10.6617
▁한편	-10.6619
본부장	-10.6619
▁ordinance	-10.662
▁높이	-10.6622
▁seek	-10.6624
▁foreigners	-10.6624
▁exclusive	-10.6625
▁집단	-10.6628
▁헌	-10.6628
▁사건을	-10.663
▁kid	-10.663
▁만난	-10.6631
▁dog	-10.6633
▁briefing	-10.6634
▁trees	-10.6639
income	-10.6643
▁생각한다	-10.6647
▁eco	-10.6652
▁Pre	-10.6653
▁자본	-10.6654
▁fixed	-10.6655
리스	-10.6663
▁브라질	-10.667
ces	-10.6671
▁광역	-10.6671
hae	-10.6671
▁걸쳐	-10.6673
(2	-10.6675
▁해양	-10.6676
됐다고	-10.6676
▁전까지	-10.6678
66	-10.6678
▁시범	-10.6684
▁이내	-10.6687
▁soldiers	-10.6688
▁상대적으로	-10.6689
▁complaints	-10.6692
▁언어	-10.6693
▁그러면	-10.6695
단은	-10.6699
▁생각해	-10.6706
당한	-10.6707
cation	-10.671
▁effort	-10.6713
57	-10.6714
▁먹을	-10.6714
▁crimes	-10.6717
축제	-10.6717
▁Therefore	-10.672
▁failure	-10.672
▁kept	-10.6725
▁Through	-10.6731
▁ranked	-10.6735
▁폭발	-10.6739
rim	-10.6741
▁France	-10.6744
▁세부	-10.6746
▁37	-10.6747
찌	-10.6747
▁자전거	-10.6752
▁처음이다	-10.6752
▁차별	-10.6753
ifi	-10.6753
▁Due	-10.6754
▁상징	-10.6756
▁포기	-10.6756
▁활약	-10.6758
▁모두가	-10.6761
▁존	-10.6763
▁compete	-10.6764
심을	-10.6765
힐	-10.6766
▁medal	-10.6766
▁discussed	-10.6767
▁band	-10.6768
하니	-10.677
▁researcher	-10.677
▁technical	-10.677
▁German	-10.6774
▁resolve	-10.6776
yu	-10.678
▁baby	-10.678
선거	-10.6781
▁했던	-10.6781
▁무료	-10.6782
▁집에서	-10.6784
하려	-10.6784
▁일부를	-10.6784
▁주고	-10.6785
▁stopped	-10.6785
▁organize	-10.6785
▁discussions	-10.6786
ery	-10.6788
▁예고	-10.6789
롱	-10.6789
▁삶의	-10.6796
멘	-10.6798
신고	-10.68
▁이들의	-10.6802
▁Energy	-10.6803
▁Securities	-10.6807
단의	-10.6809
▁Prosecutors	-10.6811
려면	-10.6812
▁참여해	-10.6815
홀	-10.6816
▁떨어진	-10.6817
권이	-10.6818
▁취임	-10.6819
▁발생하는	-10.6819
▁Jun	-10.682
▁baseball	-10.6821
▁세금	-10.6823
▁Or	-10.6825
▁artificial	-10.6826
▁선수들	-10.6826
▁촉진	-10.6829
▁전시회	-10.683
▁이사장	-10.6831
▁비밀	-10.6832
퇴	-10.6832
▁매체	-10.6833
▁chicken	-10.6835
▁패션	-10.6837
▁비행기	-10.6837
▁Headquarters	-10.684
▁못해	-10.6843
▁미만	-10.6843
▁조기	-10.6847
▁개별	-10.6849
점검	-10.6849
가구	-10.6849
▁exact	-10.6851
▁긴	-10.6855
▁learned	-10.6856
연금	-10.6856
▁하겠습니다	-10.6857
pur	-10.6857
87	-10.6858
됐던	-10.6859
▁lived	-10.6864
▁캐	-10.6871
chul	-10.6872
▁마시	-10.6876
▁prosecutor	-10.6876
끈	-10.6877
▁푸	-10.6879
▁initial	-10.688
low	-10.6881
▁따른다	-10.6881
5,000	-10.6883
당이	-10.6885
최	-10.6885
▁register	-10.6888
▁미안	-10.689
▁drinking	-10.6892
▁rooms	-10.6892
▁이슈	-10.6894
▁completion	-10.6895
▁Fi	-10.6903
수는	-10.6903
▁livestock	-10.6905
▁Geun	-10.6906
▁듣고	-10.6906
▁커지고	-10.6906
▁rich	-10.6907
▁actors	-10.6908
joon	-10.6913
house	-10.6914
드릴게요	-10.6914
▁관람	-10.6914
▁reducing	-10.6915
▁현장에서	-10.6916
▁북부	-10.6919
따	-10.692
▁EU	-10.6923
▁drunk	-10.6923
회장	-10.6924
▁engine	-10.6924
ject	-10.6926
▁historical	-10.6928
▁부탁드립니다	-10.6928
▁길을	-10.693
67	-10.694
▁treat	-10.6947
▁urgent	-10.6948
▁그들이	-10.6953
▁declaration	-10.6956
▁favorite	-10.6956
▁bo	-10.6957
▁있어야	-10.6958
▁talking	-10.696
▁core	-10.6962
▁직장	-10.6965
▁고령	-10.6973
▁내에	-10.698
▁reflected	-10.6985
끼	-10.6988
▁제품이	-10.6991
▁suspicion	-10.6995
경찰	-10.6997
▁구성된	-10.6997
jun	-10.6999
▁officers	-10.6999
rap	-10.7
▁MBC	-10.7
▁당선	-10.7001
▁분석이	-10.7005
▁features	-10.7006
▁기대한다	-10.7006
▁예비	-10.7009
▁인천광역시	-10.7012
▁아이디어	-10.7012
▁심리	-10.7017
감사	-10.7021
▁functions	-10.7023
▁ease	-10.7025
▁영역	-10.7026
▁원장	-10.7027
▁부회장	-10.703
▁손을	-10.7032
▁save	-10.7033
잔	-10.7035
▁Tax	-10.7035
▁characters	-10.7036
▁어려워	-10.7036
실을	-10.7038
▁월드컵	-10.704
▁앨범	-10.7041
▁드러났다	-10.7041
▁사정	-10.7042
▁단순	-10.7045
▁bag	-10.7046
▁부족한	-10.7049
에만	-10.705
▁thank	-10.705
▁마이크	-10.705
▁거듭	-10.7051
▁pushed	-10.7054
art	-10.7054
▁덜	-10.7054
▁Wi	-10.7055
▁trustee	-10.7056
이라도	-10.7058
▁기대감	-10.7058
선이	-10.706
▁결론	-10.7063
짐	-10.7065
▁parliamentary	-10.7065
▁부품	-10.7065
▁checked	-10.7065
▁뉴스	-10.7066
전문	-10.7067
상이	-10.707
▁적은	-10.7073
▁연주	-10.7074
tech	-10.7075
▁justice	-10.7077
▁출산	-10.7077
밴	-10.7079
벤	-10.7082
만원을	-10.7083
▁attitude	-10.7083
▁케	-10.7087
▁차이	-10.7088
▁수집	-10.7088
▁교환	-10.7095
89	-10.7099
▁피해가	-10.7102
▁hike	-10.7107
▁scored	-10.7107
▁씨가	-10.7108
▁animal	-10.711
▁추세	-10.711
렇	-10.7111
▁advertisement	-10.7117
37	-10.7118
▁진행된다	-10.712
국민	-10.7121
▁remain	-10.7124
▁cloud	-10.7126
▁줄어들	-10.7126
▁fill	-10.7133
▁어린	-10.7133
▁sw	-10.7134
▁알게	-10.7135
▁유엔	-10.7137
▁특징	-10.7137
▁구체적인	-10.7138
▁근로	-10.7138
▁Today	-10.7138
▁단위	-10.7139
▁battle	-10.714
long	-10.7141
▁짓	-10.7142
▁수사를	-10.7143
▁Middle	-10.7145
▁accepted	-10.7146
▁integrated	-10.7147
▁Investment	-10.715
▁balance	-10.7152
Gu	-10.7153
▁judicial	-10.7155
▁worry	-10.7155
▁암호화폐	-10.7155
▁살고	-10.7155
사건	-10.716
pped	-10.716
▁younger	-10.7162
chang	-10.7165
▁suddenly	-10.7166
▁runs	-10.7172
▁사법	-10.7173
▁secured	-10.7173
▁minute	-10.7173
▁않아요	-10.7175
▁선임	-10.7176
▁square	-10.7179
칸	-10.7179
▁덕	-10.7181
▁남은	-10.7181
▁aid	-10.7183
받는	-10.7186
단을	-10.7188
데요	-10.7189
▁단속	-10.719
▁drive	-10.719
▁painting	-10.719
▁currency	-10.7193
▁bright	-10.7194
서울특별시	-10.7194
▁kinds	-10.7194
▁looked	-10.7194
▁그래	-10.7197
▁establishing	-10.7198
▁Medical	-10.7198
▁gather	-10.7198
▁기계	-10.7199
▁참고	-10.72
▁interpreted	-10.72
▁오랜	-10.7201
진흥원	-10.7202
▁sending	-10.7203
군이	-10.7204
▁만족	-10.7206
▁장은	-10.7206
▁자랑	-10.7209
핵	-10.721
▁포함된	-10.7211
▁marriage	-10.7212
ay	-10.7214
77	-10.7217
▁convenient	-10.7217
▁곳에	-10.7218
짜	-10.7222
▁suspended	-10.7225
▁injured	-10.7227
▁새롭게	-10.7227
혁신	-10.7231
tation	-10.7233
sen	-10.7233
▁등과	-10.7235
▁subparagraph	-10.7236
▁주가	-10.7236
deok	-10.7236
▁inform	-10.7241
소가	-10.7244
▁광주시	-10.7245
됐	-10.7249
▁39	-10.7251
▁활	-10.7256
세기	-10.7256
▁기타	-10.7257
ik	-10.7257
▁seemed	-10.7257
▁했	-10.7258
▁기회	-10.7258
▁골프	-10.7259
▁이어질	-10.7264
▁excluded	-10.7265
▁politics	-10.7265
종합	-10.7269
▁저에게	-10.7272
▁완전히	-10.7272
▁kindergartens	-10.7272
dam	-10.7274
하려면	-10.7274
▁요소	-10.7275
▁fight	-10.7277
▁Rights	-10.7279
room	-10.7279
하셨	-10.728
▁갖춘	-10.7281
▁Team	-10.7281
▁힘든	-10.7284
▁공연을	-10.7285
왔습니다	-10.7287
듯	-10.7288
kyung	-10.7288
▁applying	-10.729
▁왔	-10.7293
300	-10.7298
▁Grand	-10.73
▁기록했다	-10.73
▁ranking	-10.73
▁인재	-10.7302
▁bed	-10.7302
AN	-10.7302
▁Unlike	-10.7304
tle	-10.7305
▁이끌	-10.7307
▁종목	-10.7307
road	-10.7312
called	-10.7313
▁ICT	-10.7313
▁모르겠	-10.7314
맹	-10.7314
맥	-10.7316
▁돌아가	-10.7316
▁콜	-10.732
▁animals	-10.7321
▁proper	-10.7322
분이	-10.7322
▁Just	-10.7325
▁터키	-10.7325
맞	-10.7329
순환	-10.7331
▁reporter	-10.7333
▁발생했다	-10.7337
▁유출	-10.7338
▁operator	-10.7339
▁2006	-10.7341
이기도	-10.7342
질환	-10.7346
▁편리	-10.735
▁ob	-10.7351
▁electricity	-10.7351
▁고발	-10.7352
▁behavior	-10.7353
▁vulnerable	-10.7353
▁수많은	-10.7353
▁finding	-10.7354
▁India	-10.7354
▁의뢰	-10.7358
▁잠시	-10.7358
▁연습	-10.7358
▁walking	-10.7358
▁노출	-10.7359
명과	-10.736
▁주인공	-10.736
▁experienced	-10.736
▁affect	-10.7363
jang	-10.7363
▁truth	-10.7367
쇄	-10.737
▁외에	-10.7371
▁압	-10.7373
보건	-10.7374
▁뜻을	-10.7377
조사를	-10.7379
▁mass	-10.7379
▁대학생	-10.7384
▁티	-10.7385
▁comments	-10.7386
▁Civil	-10.7387
▁grand	-10.7388
▁jointly	-10.7388
cc	-10.739
▁trading	-10.7392
▁이메일	-10.7392
증을	-10.7393
▁대표적인	-10.7394
▁칼	-10.7394
▁엘	-10.7397
▁했는데	-10.7397
▁무엇	-10.7398
▁담겨	-10.7404
Re	-10.7406
▁보낸	-10.7408
wook	-10.7409
bit	-10.741
▁pop	-10.7413
됐지만	-10.7413
▁분명	-10.7415
▁museum	-10.7416
bri	-10.7417
▁수탁자	-10.7419
▁Your	-10.742
▁노사	-10.7422
해주는	-10.7422
▁rules	-10.7422
▁하나요	-10.7424
호가	-10.7425
▁융자	-10.7428
▁착	-10.7428
▁writer	-10.7434
사무	-10.7434
▁문의	-10.7435
ology	-10.7438
86	-10.7438
▁outstanding	-10.7438
▁guard	-10.744
앙	-10.7442
오는	-10.7442
ST	-10.7442
▁southern	-10.7446
하시는	-10.7449
ham	-10.7449
▁league	-10.7451
▁blue	-10.7451
▁attempt	-10.7453
▁designation	-10.7456
▁대로	-10.7458
▁경제적	-10.7459
▁guidance	-10.7461
▁비용을	-10.7461
▁formulate	-10.7461
예산	-10.7461
기와	-10.7462
gye	-10.7465
▁explanation	-10.7465
▁홀	-10.7466
▁scale	-10.7467
meter	-10.7469
▁묘	-10.7469
▁ice	-10.747
▁담은	-10.747
▁업	-10.7472
▁flu	-10.7474
▁cook	-10.7475
부장	-10.7477
▁자율	-10.7479
▁출장	-10.7482
of	-10.7482
▁clearly	-10.7483
▁기능을	-10.7483
▁agree	-10.7485
▁100%	-10.7486
▁benefit	-10.7487
ick	-10.7492
▁점점	-10.7494
자동차	-10.7495
▁삶을	-10.7495
▁구간	-10.7498
▁확인됐다	-10.7498
먹	-10.7498
조차	-10.7499
쯤	-10.75
▁Nowon	-10.75
▁움직임	-10.75
라운드	-10.75
▁river	-10.7501
겠다고	-10.7502
▁photograph	-10.7503
▁쓸	-10.7504
텔	-10.7506
스의	-10.7506
▁finish	-10.7507
▁받아야	-10.7507
▁일제	-10.7508
▁출범	-10.7508
▁mall	-10.7509
▁gradually	-10.7515
▁entry	-10.752
▁Hak	-10.7521
▁musical	-10.7522
▁안건	-10.7526
했어	-10.7527
분쯤	-10.7528
▁철도	-10.7529
▁체계	-10.7529
▁짐	-10.7531
(3	-10.7531
bok	-10.7536
▁overcome	-10.7537
함이	-10.7539
▁arrive	-10.7542
려는	-10.7542
곽	-10.7545
▁Indonesia	-10.7545
76	-10.7545
▁익	-10.7547
nal	-10.7548
▁입고	-10.7548
▁sad	-10.7552
▁Joo	-10.7556
gil	-10.7558
48	-10.756
▁완벽	-10.756
▁현상	-10.7563
▁reserve	-10.7565
▁강의	-10.7565
▁우수한	-10.7571
▁자치	-10.7571
▁attraction	-10.7575
69	-10.7576
▁System	-10.7579
▁golf	-10.758
▁출입	-10.758
▁부르	-10.7582
▁되나요	-10.7582
▁필리핀	-10.7584
▁누구나	-10.7588
▁스타트업	-10.7589
▁outdoor	-10.759
MO	-10.759
▁강사	-10.759
노동	-10.7591
▁symptoms	-10.7591
줬다	-10.7593
▁agent	-10.7593
▁한국과	-10.7595
만이	-10.7597
▁논	-10.7601
▁지연	-10.7604
▁Gang	-10.7605
효과	-10.761
▁minor	-10.761
▁지급할	-10.761
▁둔	-10.7611
▁있을지	-10.7611
▁개입	-10.7612
▁모르	-10.7615
▁이유가	-10.7616
▁중국이	-10.7619
▁어린이집	-10.7622
▁추진하는	-10.7625
ution	-10.7627
▁해제	-10.7628
▁borrow	-10.7629
▁모양	-10.7632
▁청소	-10.7633
▁rule	-10.7633
▁향해	-10.7634
▁White	-10.7634
룸	-10.7634
▁Geo	-10.7635
▁일찍	-10.7635
으면서	-10.7636
보세요	-10.7637
▁공원	-10.7639
▁다녀	-10.7641
▁소상공인	-10.7641
▁inspect	-10.7645
▁끝나	-10.7646
▁알려진	-10.7647
▁부정	-10.7655
위는	-10.7657
▁window	-10.766
▁걸리	-10.7663
▁포함해	-10.7663
sim	-10.7663
▁2022	-10.7664
▁관련한	-10.7666
▁innovative	-10.767
78	-10.767
▁정치적	-10.7671
킨	-10.7671
▁국내외	-10.7673
▁가까이	-10.7675
▁문건	-10.7677
▁interests	-10.768
사로	-10.768
년도	-10.7683
▁되기	-10.7686
▁realize	-10.7691
▁시선	-10.7692
▁requires	-10.7693
▁책임을	-10.7697
▁strengthening	-10.7698
wo	-10.7699
▁의식	-10.7705
▁exist	-10.771
대는	-10.771
파크	-10.7713
▁부모님	-10.7714
▁필요하다는	-10.7714
wer	-10.7714
▁사업자	-10.7715
▁stated	-10.772
ern	-10.7721
여행	-10.7722
▁continuously	-10.7727
▁인터뷰	-10.773
▁특징이다	-10.773
▁civic	-10.773
▁고통	-10.7731
▁검색	-10.7737
ash	-10.7739
▁600	-10.774
군수	-10.7741
▁실험	-10.7742
▁certification	-10.7745
▁border	-10.7745
▁참여할	-10.7746
gn	-10.7748
▁주민들이	-10.7749
▁route	-10.7751
▁Dr	-10.7755
▁하면서	-10.7758
ox	-10.7759
▁Saturday	-10.7761
▁creative	-10.7761
▁미디어	-10.7761
줬	-10.7762
istic	-10.7762
▁재무	-10.7764
점으로	-10.7766
▁명예	-10.7768
CEO	-10.777
▁Sohn	-10.7771
▁종교	-10.7773
▁via	-10.7773
었어	-10.7775
▁plastic	-10.7776
큐	-10.7776
▁전북	-10.7778
먼	-10.778
▁experiences	-10.7781
▁차관	-10.7781
▁regardless	-10.7782
안이	-10.7784
▁초대	-10.7785
79	-10.7785
▁Kakao	-10.7786
▁파일	-10.7788
▁인프라	-10.7788
춤	-10.7791
▁자원	-10.7792
공장	-10.7792
▁점이다	-10.7795
▁trouble	-10.7796
▁strongly	-10.7797
tric	-10.7802
경기도	-10.7803
▁그려	-10.7803
일에는	-10.7806
▁경고	-10.7807
료를	-10.7811
▁distance	-10.7812
elect	-10.7814
▁coast	-10.7816
지면	-10.7816
oon	-10.7818
▁정한	-10.7819
되었습니다	-10.7819
▁criteria	-10.7827
▁memory	-10.7827
32	-10.7829
▁쿠	-10.7831
▁끌어	-10.7831
▁Green	-10.7832
▁휘	-10.7832
차가	-10.7832
▁법령	-10.7832
▁공감	-10.7835
if	-10.7835
▁defeat	-10.7837
▁저희가	-10.7837
▁게시	-10.7841
▁sides	-10.7842
▁venture	-10.7842
▁가능성을	-10.7843
▁재미있	-10.7843
이면	-10.7843
개가	-10.7844
▁경기도와	-10.7849
▁entrust	-10.7854
▁관객	-10.7854
▁만한	-10.7854
▁Bareunmirae	-10.7858
▁궁금	-10.7859
▁형태	-10.786
▁환불	-10.7865
▁Chungcheong	-10.7867
▁보완	-10.7869
▁(1	-10.787
▁걸어	-10.7871
컵	-10.7873
▁Malaysia	-10.7873
▁committed	-10.7874
▁재개	-10.7875
음에도	-10.7877
▁mission	-10.7877
press	-10.7879
▁실천	-10.788
▁tight	-10.788
▁지역사회	-10.788
▁신설	-10.7881
닐	-10.7881
water	-10.7882
▁incurred	-10.7883
▁생각을	-10.7884
▁지분	-10.7886
▁install	-10.7887
▁시민들	-10.7888
▁Monday	-10.7889
rry	-10.789
▁오픈	-10.789
▁뉴	-10.7892
관련	-10.7896
▁지출	-10.7897
▁falls	-10.7897
▁뒤에	-10.7897
습니까	-10.7899
▁보조	-10.7899
▁싶은데	-10.7902
▁부지	-10.7906
굴	-10.7908
▁lots	-10.7908
▁applicants	-10.791
ological	-10.7912
34	-10.7913
▁화장품	-10.7914
▁debut	-10.7914
▁regulation	-10.7916
▁보급	-10.7917
▁만날	-10.7918
ced	-10.7919
켜	-10.7919
▁Pyeongtaek	-10.7919
▁rock	-10.792
▁offices	-10.7924
▁recovery	-10.7927
back	-10.7927
▁interesting	-10.7927
공연	-10.7928
▁발표했다	-10.7929
SC	-10.793
▁Force	-10.7931
ise	-10.7933
사들이	-10.7933
▁scandal	-10.7935
▁salary	-10.7935
▁당장	-10.7936
▁스타일	-10.7938
73	-10.7938
▁ran	-10.794
▁suspension	-10.794
▁놀이	-10.7941
▁Forest	-10.7941
▁정권	-10.7942
▁임대	-10.7943
▁Film	-10.7945
▁Children	-10.7945
▁가동	-10.7946
▁Rep	-10.7946
▁선수들이	-10.7949
▁장관은	-10.7949
▁비난	-10.795
죄	-10.795
쾌	-10.7955
mate	-10.7958
rag	-10.796
▁노력하여야	-10.796
현장	-10.7963
▁사안	-10.7965
▁foods	-10.7969
▁meat	-10.7969
일이	-10.7971
회계	-10.7972
direct	-10.7972
▁총괄	-10.7973
▁119	-10.7973
▁object	-10.7973
▁둘러	-10.7975
▁입학	-10.7975
▁누가	-10.7976
▁120	-10.7977
▁tickets	-10.7977
룬	-10.7981
▁adjust	-10.7983
▁approved	-10.7986
▁foster	-10.7986
▁Consider	-10.7987
▁부당	-10.7991
▁굴	-10.7991
▁지배	-10.7992
▁tree	-10.7995
▁의혹이	-10.7995
께서	-10.7996
▁깊은	-10.7997
▁Ka	-10.7998
지기	-10.8001
▁okay	-10.8002
▁upon	-10.8007
umb	-10.801
이드	-10.8013
IT	-10.8015
연맹	-10.8017
▁aimed	-10.8022
▁흥미	-10.8022
▁Dan	-10.8022
▁의도	-10.8023
▁rare	-10.8024
▁그간	-10.8027
▁counter	-10.8028
33	-10.8028
sis	-10.8033
▁혹은	-10.8039
▁2005	-10.8042
▁뇌	-10.8043
▁Friday	-10.8044
▁fear	-10.8046
리에	-10.805
▁열렸다	-10.805
▁ideas	-10.8056
▁개방	-10.8058
▁48	-10.806
▁나선다	-10.806
cer	-10.806
▁signs	-10.8062
▁utilize	-10.8065
▁신용	-10.8065
▁특허	-10.8067
▁Canada	-10.807
▁여행을	-10.807
▁기울	-10.8074
▁Ti	-10.8077
49	-10.808
꾸	-10.8082
실에서	-10.8084
▁systems	-10.8085
▁될까요	-10.809
▁불만	-10.8092
▁최소	-10.8096
lit	-10.81
▁amid	-10.8106
▁boat	-10.8108
▁늘어난	-10.8108
▁Y	-10.8109
▁이재	-10.811
▁직원들	-10.811
▁그래도	-10.8111
▁말레이시아	-10.8112
▁grant	-10.8112
▁occurs	-10.8116
▁ingredients	-10.8117
▁concentration	-10.8117
▁법정	-10.8119
쓰	-10.812
▁thanks	-10.8121
▁mu	-10.8121
▁만들고	-10.8122
▁package	-10.8126
▁끝에	-10.8127
▁disclosure	-10.8128
▁부담이	-10.8129
sign	-10.8131
하나	-10.8134
joo	-10.8136
▁forecast	-10.8138
▁Australia	-10.8139
▁상황에	-10.814
ari	-10.8141
▁Soon	-10.8142
▁regime	-10.8144
▁communicate	-10.8149
픽	-10.8149
▁transaction	-10.8149
▁이틀	-10.8151
py	-10.8154
▁pack	-10.8154
딜	-10.8154
▁알려져	-10.8154
트가	-10.8154
▁방법을	-10.8155
▁같은데	-10.8157
▁강력한	-10.8157
mul	-10.8158
▁시위	-10.8159
▁관객들	-10.816
▁consulting	-10.8162
솔	-10.8164
▁발생할	-10.8166
해왔다	-10.8169
▁인원	-10.8169
▁transactions	-10.817
▁corruption	-10.817
명은	-10.8172
▁Arts	-10.8175
▁이건	-10.8175
▁subparagraphs	-10.8176
▁늘어	-10.818
잉	-10.8181
▁drawn	-10.8183
IC	-10.8185
▁garden	-10.8191
▁Ryu	-10.8193
▁양성	-10.8196
99	-10.8197
▁김문수	-10.8202
▁10,000	-10.8202
▁보유한	-10.8202
하더라도	-10.8203
▁Google	-10.8207
줍니다	-10.8207
▁정한다	-10.8211
▁신문	-10.8211
▁말해	-10.8212
▁Law	-10.8216
▁겪고	-10.8218
ulation	-10.8218
▁page	-10.8221
mu	-10.8222
▁enforcement	-10.8224
▁habit	-10.8224
으려	-10.8225
▁아이돌	-10.8225
▁laws	-10.8228
▁cryptocurrency	-10.8228
▁데뷔	-10.8229
▁reporting	-10.823
▁적극적인	-10.8233
▁분야에서	-10.8234
▁connected	-10.8238
교류	-10.8239
▁변화가	-10.8239
▁flood	-10.8239
▁지휘	-10.8241
▁춤	-10.8245
예요	-10.8246
실장	-10.8248
▁setting	-10.8254
▁원래	-10.8256
▁학생들	-10.8261
▁일주일	-10.8262
▁cheer	-10.8262
▁attracted	-10.8263
▁입법	-10.8267
▁expert	-10.8272
▁Base	-10.8274
▁earnest	-10.8277
▁것인지	-10.8278
▁recognize	-10.828
▁펼치	-10.8282
▁distributed	-10.8283
▁Free	-10.8283
▁Lu	-10.8284
엘	-10.8287
▁개설	-10.8288
▁하나님	-10.8291
활동을	-10.8291
▁stars	-10.8292
▁composed	-10.8292
▁샘플	-10.8292
▁dark	-10.8292
▁제거	-10.8294
▁가을	-10.8297
▁역대	-10.8298
▁옆	-10.8301
겠어요	-10.8303
▁원칙	-10.8303
▁evening	-10.8305
▁tasks	-10.8305
▁rural	-10.8308
▁진료	-10.831
▁fierce	-10.8314
vers	-10.8318
pil	-10.8319
▁buses	-10.832
▁frequently	-10.832
▁orders	-10.832
▁산하	-10.8321
Do	-10.8328
▁휴가	-10.833
▁Olympics	-10.833
▁Award	-10.8331
36	-10.8331
▁클럽	-10.8332
받고	-10.8332
전에서	-10.8335
▁비중이	-10.8335
▁Power	-10.8336
▁childcare	-10.8336
▁태도	-10.8336
제로	-10.834
▁uniform	-10.8341
▁사업장	-10.8343
▁차단	-10.8344
▁지방자치단체	-10.8345
▁마치	-10.8347
▁Il	-10.8349
▁grounds	-10.8349
▁efficiency	-10.8349
▁checking	-10.8351
▁시장의	-10.8353
▁‘2018	-10.8353
▁되었습니다	-10.8354
하였습니다	-10.8355
▁News	-10.8355
트로	-10.8356
sin	-10.8356
마크	-10.8356
▁narrow	-10.8357
▁concluded	-10.8357
▁dress	-10.8357
▁지내	-10.836
▁반환	-10.8361
▁Jeolla	-10.8361
릿	-10.8362
▁55	-10.8365
▁측정	-10.8367
▁Road	-10.837
▁통계	-10.8372
▁bottom	-10.8373
▁importance	-10.8374
61	-10.8376
도서관	-10.8377
시까지	-10.8377
▁뒷	-10.8378
▁YouTube	-10.8378
▁행사는	-10.838
▁민족	-10.8381
ec	-10.8382
cal	-10.8384
▁eventually	-10.8384
script	-10.8388
▁plane	-10.8389
▁심의를	-10.8392
▁tired	-10.8393
wang	-10.8393
▁boost	-10.8395
▁상영	-10.8396
▁고등학교	-10.8399
▁임원	-10.8399
▁네트워크	-10.84
▁chart	-10.8401
▁연말	-10.8403
선수	-10.8403
▁운전자	-10.8404
▁시작으로	-10.8404
렉	-10.8405
▁느낄	-10.8405
tel	-10.8406
▁문서	-10.8408
▁고려해	-10.8409
▁있으니	-10.841
▁사전에	-10.8411
class	-10.8413
어가	-10.8414
▁kindergarten	-10.8414
▁폼페이오	-10.8416
employed	-10.8419
▁증시	-10.842
ach	-10.8421
▁witness	-10.8422
▁권고	-10.8422
군의	-10.8424
ram	-10.8425
자리	-10.8425
▁murder	-10.8427
든지	-10.8427
▁detect	-10.8428
ney	-10.8432
▁42	-10.8435
list	-10.8437
▁적어	-10.8438
▁손흥민	-10.8438
엑스	-10.8444
▁구글	-10.8444
▁개의	-10.8447
사에	-10.8447
금리	-10.8448
▁essential	-10.8449
▁단독	-10.8449
▁Cheonan	-10.845
▁corporations	-10.845
▁(3)	-10.845
참여	-10.8452
▁maximum	-10.8454
▁국토교통부	-10.8454
▁typhoon	-10.846
▁putting	-10.8462
▁institute	-10.8464
▁징역	-10.8465
▁patent	-10.8471
▁감사합니다	-10.8471
▁latest	-10.8472
myung	-10.8472
74	-10.8473
▁제품은	-10.8473
자에	-10.8475
▁레이	-10.8476
▁나갈	-10.8479
put	-10.848
▁운영을	-10.8483
▁보존	-10.8483
▁올린	-10.8483
▁workplace	-10.8484
▁번역	-10.8485
▁천안	-10.8487
▁번호	-10.8488
▁평택	-10.8489
▁1000	-10.8489
했는지	-10.8491
right	-10.8491
62	-10.8492
▁와서	-10.8492
▁argued	-10.8495
38	-10.8496
▁dry	-10.8498
톱	-10.8503
▁1.5	-10.8505
▁쓰레기	-10.8512
▁타이	-10.8514
▁쌀	-10.8514
▁재판부	-10.8518
▁smile	-10.852
▁제조업	-10.852
▁대법원장	-10.8521
▁loved	-10.8521
rae	-10.8523
▁공익	-10.8524
▁Corp	-10.8526
붙	-10.8529
사용	-10.853
▁SBS	-10.8531
▁sweet	-10.8531
▁실수	-10.8534
▁발달	-10.8535
▁형사	-10.8538
lig	-10.8539
hyeon	-10.854
멸	-10.8542
▁에이	-10.8543
▁이끌어	-10.8546
PO	-10.8547
▁Rule	-10.8549
체계	-10.8549
▁listed	-10.8549
드릴	-10.855
FA	-10.855
위원회의	-10.8554
▁43	-10.8559
▁자동	-10.8561
▁departments	-10.8562
▁damages	-10.8563
처분	-10.8563
▁Hi	-10.8565
자치	-10.8566
▁있음을	-10.8571
▁훼손	-10.8575
신문	-10.8576
되어야	-10.8577
atory	-10.8581
▁본사	-10.8582
▁goals	-10.8583
▁watched	-10.8584
시키고	-10.8585
gg	-10.8585
▁achieved	-10.8587
시켰다	-10.8589
▁예전	-10.8589
▁Mexico	-10.8591
▁심각한	-10.8596
총회	-10.8597
▁국민연금	-10.8598
▁면접	-10.8598
▁수석	-10.8604
▁명확	-10.8605
자인	-10.8613
▁옮겨	-10.8613
▁Sha	-10.8616
▁주목된다	-10.8616
▁seeing	-10.8619
룡	-10.8619
lum	-10.862
▁complaint	-10.8621
▁추정	-10.8622
▁아이들이	-10.8623
주기	-10.8625
style	-10.8628
됨에	-10.8632
▁사랑을	-10.8632
▁보이지	-10.8636
soon	-10.8641
ero	-10.8641
▁즉	-10.8641
▁채널	-10.8643
엄	-10.8645
▁학부모	-10.8645
▁이번이	-10.8646
▁sometimes	-10.8647
▁국토부	-10.8649
▁2,000	-10.865
년에는	-10.8652
▁Supervisory	-10.8652
화된	-10.8654
▁난민	-10.8654
▁체크	-10.8655
▁통제	-10.8659
▁대해서도	-10.866
▁designate	-10.8662
▁Gr	-10.8666
▁French	-10.8669
▁간담회	-10.8669
▁이뤄	-10.8671
▁폐기물	-10.8671
▁believes	-10.8674
▁유해	-10.868
▁videos	-10.868
군요	-10.8681
▁suffer	-10.8681
ew	-10.8683
▁CJ	-10.8688
렬	-10.8688
▁정착	-10.8692
ette	-10.8694
하시면	-10.8696
lk	-10.8697
▁homes	-10.8697
▁Stadium	-10.8702
▁awareness	-10.8703
▁관계자들	-10.8706
▁주차장	-10.8707
▁alcohol	-10.8708
았습니다	-10.8713
▁century	-10.8713
▁이뤄진	-10.8714
▁인정하는	-10.8716
산업단지	-10.8718
▁변동	-10.8721
▁Bar	-10.8722
여명의	-10.8722
업소	-10.8722
▁Any	-10.8723
좁	-10.8725
▁평생	-10.8725
▁emerged	-10.8728
▁점수	-10.8729
95	-10.8729
젠	-10.873
▁활용해	-10.8731
▁글을	-10.8733
▁helped	-10.8734
93	-10.8736
▁railway	-10.8736
▁벗어나	-10.8736
▁관할	-10.8737
88	-10.8737
▁홈	-10.8739
▁tri	-10.8746
kyu	-10.8747
▁상임	-10.8747
▁fa	-10.8747
▁Seongnam	-10.8748
dent	-10.8751
▁regard	-10.8753
▁문제로	-10.8754
▁불이	-10.8756
▁수학	-10.8758
▁시민들이	-10.8759
▁models	-10.8759
▁Music	-10.8761
pose	-10.8763
▁Family	-10.8764
▁officially	-10.8765
▁Gyeongnam	-10.8765
▁도심	-10.8774
▁sentiment	-10.8775
▁Yeo	-10.8775
39	-10.8776
▁문화를	-10.8778
▁대행	-10.8779
▁정황	-10.878
▁서명	-10.8782
▁En	-10.8784
▁사업은	-10.8785
털	-10.8785
서울	-10.8785
▁감독은	-10.8787
▁낮아	-10.8788
게임	-10.879
▁mutual	-10.8792
▁placed	-10.8793
판매	-10.8794
▁뛰어	-10.8795
▁극복	-10.8796
획	-10.8796
lation	-10.8803
▁birthday	-10.8804
▁충북	-10.8805
▁와	-10.8805
스와	-10.8807
▁손님	-10.8808
팩	-10.8809
▁gets	-10.881
▁priority	-10.8812
▁affiliated	-10.8812
▁married	-10.8814
폭력	-10.8815
▁West	-10.8817
▁기다리	-10.8818
▁인하	-10.882
▁extend	-10.882
ged	-10.8821
▁Hallyu	-10.8821
▁할머니	-10.8824
mark	-10.8824
▁가족들	-10.8826
▁올해는	-10.883
도지사	-10.8831
「	-10.8833
▁마약	-10.8835
▁생긴	-10.8835
작업	-10.8837
▁위로	-10.8843
▁뜨거운	-10.8843
▁cosmetics	-10.8844
청소년	-10.8845
▁공연이	-10.8845
▁거론	-10.8847
▁주장이	-10.885
금액	-10.8854
▁super	-10.8855
▁가면	-10.8856
치료	-10.8856
▁연령	-10.8857
럼	-10.8859
▁boy	-10.8859
▁맞춤형	-10.886
▁댓글	-10.886
▁wild	-10.886
직원	-10.8861
기지	-10.8862
▁간의	-10.8864
▁gives	-10.8864
보니	-10.8864
들로	-10.887
▁purchased	-10.8876
▁분리	-10.8877
▁노원구	-10.8879
▁우리에게	-10.888
har	-10.8881
▁늘고	-10.8882
▁키우	-10.8882
▁방침	-10.8883
pr	-10.8883
흘	-10.8883
cho	-10.8885
mar	-10.8885
▁rumor	-10.8894
▁drugs	-10.8896
▁비율	-10.8898
쇠	-10.8899
▁당부했다	-10.89
ecu	-10.8901
▁civilian	-10.8908
해줄	-10.8909
▁올려	-10.891
▁confidence	-10.8911
▁분석했다	-10.8911
틴	-10.8916
▁causes	-10.8917
▁upper	-10.8919
moon	-10.8921
요금	-10.8922
900	-10.8924
▁만남	-10.8926
▁성인	-10.8929
▁fuel	-10.8934
▁희생	-10.8934
▁idol	-10.894
▁para	-10.8943
▁wages	-10.8944
▁고객이	-10.8945
▁풀어	-10.8945
▁accurate	-10.8951
▁범행	-10.8954
▁괴	-10.8957
▁급격	-10.896
▁emerging	-10.8962
▁Sunday	-10.8964
▁offering	-10.8966
▁합격	-10.8966
▁Speaker	-10.8968
▁gate	-10.8968
▁lines	-10.8969
lor	-10.8972
▁동료	-10.8974
▁전공	-10.8974
▁라인	-10.8976
▁instructor	-10.8976
▁보건	-10.8978
▁diplomatic	-10.8979
▁표준	-10.8979
chon	-10.8979
▁advice	-10.8979
▁금감원	-10.8979
프로그램	-10.8982
▁haven	-10.8985
▁그런데	-10.8986
▁전개	-10.8986
칙	-10.8987
▁44	-10.8989
▁Paju	-10.8989
▁Would	-10.8997
▁robot	-10.8997
FI	-10.8997
▁사례가	-10.9
▁기업들이	-10.9001
▁띄	-10.9004
▁떨어지	-10.9005
동안	-10.9006
결정	-10.9011
▁화면	-10.9011
▁들었다	-10.9012
▁다리	-10.9013
▁들어간	-10.9014
▁밑	-10.9017
▁경기를	-10.9019
▁transform	-10.902
▁않기	-10.902
▁El	-10.9024
지게	-10.9026
▁차원에서	-10.9026
▁fail	-10.9028
입니까	-10.9031
▁Meteorological	-10.9031
▁스트레스	-10.9031
▁그것이	-10.9032
▁suitable	-10.9033
MA	-10.9035
▁municipal	-10.9037
▁extended	-10.9037
55	-10.9037
▁계기로	-10.9039
전자	-10.904
▁Dynasty	-10.9043
▁expenditure	-10.9043
▁상위	-10.9043
▁disciplinary	-10.9043
▁throw	-10.9043
ore	-10.9044
맛	-10.9048
eup	-10.905
여개	-10.905
▁비즈니스	-10.9054
▁커뮤니티	-10.9054
▁진짜	-10.9056
▁Fa	-10.9056
▁현황	-10.9056
▁액	-10.9059
인들의	-10.9061
▁확실	-10.9062
콜	-10.9063
▁임기	-10.9064
▁실시간	-10.9065
▁가치를	-10.9065
▁경우에	-10.9066
텍	-10.9066
▁shipping	-10.9067
▁무엇을	-10.9067
럽	-10.9067
▁Myeong	-10.9069
▁샤	-10.907
▁바이오	-10.907
▁형식	-10.9071
▁불가피	-10.9072
▁유도	-10.9074
졌습니다	-10.9076
▁이웃	-10.9078
▁보육	-10.9078
▁업종	-10.908
lay	-10.9081
우는	-10.9085
체가	-10.9086
지수	-10.9086
▁enjoyed	-10.9087
▁fifth	-10.9089
▁가로	-10.909
되었고	-10.9093
경영	-10.9094
받아	-10.9095
▁방법으로	-10.9098
ush	-10.9099
▁confirmation	-10.9099
▁passing	-10.91
turn	-10.9102
board	-10.9103
▁broken	-10.9106
▁thousand	-10.9106
▁대리	-10.9106
▁올랐다	-10.9109
▁못할	-10.9109
▁적발	-10.9109
▁Mun	-10.911
항제	-10.911
▁equipped	-10.9112
▁세종	-10.9114
협정	-10.9116
▁무리	-10.9118
▁earthquake	-10.9118
▁error	-10.9118
스럽	-10.9119
▁Real	-10.9123
▁spreading	-10.9124
▁발송	-10.9125
▁race	-10.9128
▁artist	-10.9129
ix	-10.9129
▁나아가	-10.913
▁Bang	-10.9133
▁메시지를	-10.9134
▁사유	-10.9134
AI	-10.9134
▁상품을	-10.9134
▁courses	-10.9136
액이	-10.9137
ency	-10.9137
▁선수가	-10.9141
▁일은	-10.9141
▁extent	-10.9143
grade	-10.9145
▁Pohang	-10.9147
▁cake	-10.9149
▁먹어	-10.915
▁firms	-10.9152
번호	-10.9154
▁효율적인	-10.9156
▁judged	-10.9157
▁포인트	-10.9158
됐으며	-10.9158
▁execution	-10.9159
▁passengers	-10.9159
미가	-10.916
▁transferred	-10.9161
▁sharp	-10.9162
▁ready	-10.9166
▁lease	-10.9171
섬	-10.9171
자들은	-10.9173
late	-10.9176
xi	-10.9176
▁매각	-10.9179
▁편성	-10.9181
▁comfortable	-10.9183
뉴	-10.9184
▁하늘	-10.9184
▁transport	-10.9186
▁곳은	-10.9187
▁storage	-10.9188
▁이어지고	-10.9189
▁시정	-10.9192
까지는	-10.9195
법이	-10.9196
▁appears	-10.9196
▁figures	-10.9196
▁bureau	-10.92
▁episode	-10.92
▁i	-10.92
▁부산시	-10.9201
▁감염	-10.9203
▁복합	-10.9205
▁2016,	-10.9206
▁Kwang	-10.9208
▁체제	-10.9208
▁보내주	-10.9211
▁나눠	-10.9212
▁해주	-10.9217
▁aware	-10.922
▁values	-10.9221
▁가방	-10.9221
닉	-10.9223
▁demonstration	-10.9223
▁subjects	-10.9227
코리아	-10.9227
▁꼽	-10.9228
▁British	-10.9229
▁faith	-10.9229
▁드러나	-10.9232
▁신체	-10.9235
▁노후	-10.9237
71	-10.9238
간다	-10.9238
▁수능	-10.9239
▁이민	-10.9241
수당	-10.9241
▁건축물	-10.9245
▁version	-10.9247
▁pollution	-10.9247
▁mouth	-10.9247
▁grades	-10.925
▁manufacturer	-10.925
ient	-10.9251
▁폴	-10.9252
▁수여	-10.9252
▁amendment	-10.9253
▁계좌	-10.9254
▁영상을	-10.9255
죽	-10.9255
▁lectures	-10.9255
▁확인하고	-10.9255
▁기도	-10.9256
book	-10.9257
▁cast	-10.9259
에너지	-10.9262
▁combined	-10.9262
▁방법이	-10.9266
▁unification	-10.9267
낭	-10.927
▁Hyo	-10.9271
▁sectors	-10.9271
▁실행	-10.9273
how	-10.9275
컴	-10.9276
▁Society	-10.9276
▁escape	-10.9282
▁treated	-10.9286
▁truck	-10.9288
▁invited	-10.9288
▁deadline	-10.9289
▁경기가	-10.9289
▁점심	-10.929
clo	-10.9294
랩	-10.93
▁한화	-10.93
▁농가	-10.9303
▁complexes	-10.9303
여명	-10.9304
▁stance	-10.9306
▁당초	-10.9308
▁메시지	-10.9308
▁import	-10.9309
▁좋았	-10.9309
▁수는	-10.9312
▁missile	-10.9312
위원회는	-10.9313
▁국민들	-10.9314
▁mostly	-10.9314
부문	-10.9314
uction	-10.9314
▁주주	-10.9314
ray	-10.9314
▁마리	-10.9315
철도	-10.9317
▁names	-10.9317
▁notified	-10.9318
▁Pompeo	-10.9324
▁suicide	-10.9324
▁Bae	-10.9324
▁급증	-10.9328
▁듣	-10.9329
▁굉장히	-10.933
▁부총리	-10.933
▁실시한	-10.933
▁임직원	-10.9331
▁이사	-10.9331
▁파주	-10.9335
▁모임	-10.9336
▁여의도	-10.9338
▁공기	-10.934
▁Actor	-10.934
▁saving	-10.9343
▁holidays	-10.9344
pect	-10.9345
aries	-10.9346
▁빚	-10.9347
꾼	-10.9347
▁demanded	-10.9349
▁용인	-10.935
▁점도	-10.9352
▁individuals	-10.9353
▁pledge	-10.9353
▁Western	-10.9354
▁동반	-10.9356
▁추석	-10.9358
튜	-10.9359
▁comprised	-10.9359
espite	-10.936
▁호소	-10.9361
▁recognition	-10.9365
▁defend	-10.9366
▁프로그램이	-10.9367
▁질문에	-10.9369
▁forum	-10.9369
▁기재	-10.9369
인력	-10.937
▁drew	-10.9371
▁사로잡	-10.9371
▁곳에서	-10.9371
▁바꿔	-10.9372
▁응답	-10.9372
br	-10.9372
75	-10.9374
▁ecosystem	-10.9377
▁Jesus	-10.9377
▁팀이	-10.9382
▁혜택을	-10.9382
연합회	-10.9382
▁SMEs	-10.9383
엠	-10.9389
▁sluggish	-10.9389
▁대폭	-10.9392
▁smooth	-10.9392
cro	-10.9395
▁의원들	-10.9395
▁injury	-10.9395
▁shooting	-10.9395
▁stick	-10.9395
▁Home	-10.9396
둔	-10.9397
▁적정	-10.9397
yeol	-10.9398
▁carrying	-10.9401
▁기다려	-10.9401
▁돌파	-10.9402
▁colors	-10.9405
▁가능합니다	-10.9407
하실	-10.9407
▁단축	-10.9408
▁벗	-10.9409
축구	-10.941
▁당일	-10.9414
-0	-10.9414
▁stations	-10.9417
▁들어오	-10.9418
▁BMW	-10.9419
▁delicious	-10.9419
▁flower	-10.942
▁levels	-10.9426
▁있으나	-10.9427
닷	-10.9431
싸	-10.9432
▁테스트	-10.9433
▁그만큼	-10.9433
▁잡고	-10.9434
▁Communication	-10.9437
▁bicycle	-10.9437
면서도	-10.944
▁Company	-10.9443
재정	-10.9443
▁부대	-10.9445
(4	-10.9445
▁시청자들	-10.9445
▁곳으로	-10.9445
▁판사	-10.9447
ress	-10.9448
해달라	-10.9448
▁선호	-10.9448
제한	-10.9449
▁여건	-10.9454
af	-10.9454
▁잡아	-10.9456
▁채택	-10.9458
▁코스	-10.946
▁긍정적	-10.9461
▁안보	-10.9463
▁citizen	-10.9464
▁개념	-10.9464
졸	-10.9467
▁option	-10.9468
▁publish	-10.9468
▁바닥	-10.947
▁현대차	-10.9473
gok	-10.9476
코드	-10.9477
▁능력	-10.9477
▁아시안게임	-10.9479
▁유튜브	-10.9479
▁Hanwha	-10.948
님이	-10.9482
▁앉아	-10.9482
차량	-10.9484
TF	-10.9485
▁ride	-10.9486
▁offered	-10.9487
▁쓰는	-10.9488
▁실내	-10.949
pic	-10.949
top	-10.9491
▁surface	-10.9491
▁티켓	-10.9491
▁allowing	-10.9492
pla	-10.9492
▁합동	-10.9494
더니	-10.9494
싸움	-10.9495
▁lowest	-10.9499
▁Shim	-10.9501
▁기술이	-10.9501
▁pattern	-10.9503
▁north	-10.9504
▁재료	-10.9504
위생	-10.9507
▁끌고	-10.9508
▁열정	-10.9509
▁더불어	-10.9509
wn	-10.951
▁놀라	-10.9512
▁restore	-10.9515
호의	-10.9516
센터에서	-10.9517
▁meals	-10.9518
▁작동	-10.952
▁glass	-10.9522
▁mail	-10.9523
▁비중	-10.9524
▁Have	-10.9525
▁전원	-10.9527
▁무역전쟁	-10.9528
▁치료를	-10.9531
▁상처	-10.9532
▁permit	-10.9534
▁저의	-10.9534
▁discover	-10.9536
▁height	-10.9536
▁performing	-10.9537
▁maintained	-10.9538
▁mixed	-10.9538
▁shops	-10.954
씨와	-10.9541
▁복잡	-10.9541
▁proportion	-10.9544
금이	-10.9544
품을	-10.9545
2)	-10.9545
다운	-10.9546
▁가슴	-10.9547
▁code	-10.9549
▁districts	-10.9551
▁procedure	-10.9552
▁Seocho	-10.9553
하우스	-10.9557
▁hospitals	-10.9558
▁qualification	-10.9558
얼	-10.956
▁화장실	-10.9567
▁Yun	-10.9574
▁competitive	-10.9575
▁시간에	-10.9577
point	-10.9577
pel	-10.9579
hen	-10.9579
▁Changwon	-10.958
▁이끄는	-10.9582
맨	-10.9583
▁꿈을	-10.9584
원장	-10.9588
▁flowers	-10.9589
방법	-10.9591
사무소	-10.9592
놓	-10.9592
FC	-10.9593
세포	-10.9593
사랑	-10.9596
▁취득	-10.9596
▁actions	-10.9597
▁applications	-10.9597
▁지불	-10.96
타운	-10.9603
늘	-10.9605
▁결승	-10.9607
▁자극	-10.9608
▁claims	-10.961
2018	-10.9613
▁포항	-10.9614
ened	-10.9615
▁미치는	-10.9618
▁feelings	-10.962
내용	-10.9624
▁statutes	-10.9627
▁breath	-10.9631
▁obtained	-10.9632
▁취약	-10.9636
EC	-10.9637
▁promise	-10.9637
됐다는	-10.9638
▁촉구	-10.9639
▁sit	-10.9641
▁guidelines	-10.9643
▁Command	-10.9643
▁Future	-10.9644
▁소화	-10.9644
▁negotiation	-10.9645
둘	-10.9645
▁올림픽	-10.9646
(20	-10.9648
▁전부터	-10.9648
▁기상청	-10.965
해진	-10.965
▁cooking	-10.9651
▁기업들	-10.9653
▁pastor	-10.9655
82	-10.9655
▁customized	-10.9656
▁창원	-10.9657
▁눈이	-10.9657
▁뿐만	-10.966
▁조작	-10.9661
rin	-10.9661
연구원은	-10.9663
▁없어서	-10.9663
팔	-10.9663
▁41	-10.9664
▁담당자	-10.9664
▁earn	-10.9665
▁통해서	-10.9665
▁contributed	-10.9665
▁hydrogen	-10.9668
▁화성	-10.9668
person	-10.9671
▁자는	-10.9673
▁Operation	-10.9674
▁Bong	-10.9676
▁둔화	-10.9678
▁찬성	-10.968
▁공개했다	-10.9687
▁그렇지	-10.9687
▁쇼핑	-10.9691
▁map	-10.9694
소리	-10.9695
▁naturally	-10.9696
▁5,000	-10.9697
▁appreciate	-10.9699
▁Zone	-10.97
▁테니	-10.9701
났	-10.9701
▁suspicions	-10.9704
▁diverse	-10.9705
▁생각하는	-10.9705
Korea	-10.9708
▁charm	-10.9711
▁학교에	-10.9712
청사	-10.9713
▁얼	-10.9713
▁이제는	-10.9715
▁nearly	-10.9718
추진	-10.9721
▁늘리	-10.9723
틱	-10.9723
▁야당	-10.9724
신도시	-10.9726
몽	-10.973
업자	-10.9731
phone	-10.9734
▁identified	-10.9736
▁phenomenon	-10.9736
▁요구하는	-10.9736
▁소식	-10.9736
▁articles	-10.9737
▁내고	-10.9737
▁투명	-10.9738
▁힘이	-10.974
▁하이	-10.9741
▁slightly	-10.9742
▁reply	-10.9742
▁efficiently	-10.9743
cus	-10.9743
▁초등학교	-10.9744
▁welcome	-10.9748
▁disappear	-10.975
▁웃음	-10.9752
▁전해	-10.9753
▁bonds	-10.9755
▁producer	-10.9755
ned	-10.9756
▁여당	-10.9758
OS	-10.9758
▁하나로	-10.9759
▁Global	-10.9761
▁강릉	-10.9762
▁signing	-10.9767
▁토요일	-10.9767
▁operations	-10.9768
▁Marine	-10.9769
▁Every	-10.9772
▁destination	-10.9773
해져	-10.9773
절차	-10.9774
▁당사자	-10.9775
▁Wednesday	-10.9779
▁convention	-10.9779
▁Yeouido	-10.9785
▁넣어	-10.9788
hop	-10.9789
▁conflicts	-10.9789
▁통하여	-10.979
▁connect	-10.9793
▁careful	-10.9793
▁gathering	-10.9794
▁대학교	-10.9798
▁cup	-10.9798
롤	-10.9798
▁체포	-10.9802
▁3,000	-10.9805
▁복귀	-10.9805
대출	-10.9806
▁그녀가	-10.9809
▁Love	-10.9809
jeon	-10.9809
▁이유를	-10.9812
▁한국은	-10.9812
▁굳	-10.9813
▁농촌	-10.9813
▁그를	-10.9814
라인	-10.9815
▁아니면	-10.9816
▁Academy	-10.9817
▁Gangneung	-10.9817
▁백악관	-10.9817
▁concentrated	-10.9817
▁예정입니다	-10.9818
▁야구	-10.9822
▁Philippines	-10.9823
▁나왔	-10.9828
심의위원회	-10.983
시킨	-10.9832
▁canceled	-10.9836
%	-10.9837
▁감안	-10.9841
호서식의	-10.9841
▁promised	-10.9842
호서식에	-10.9844
▁위원회는	-10.9844
▁유입	-10.9844
▁이루어	-10.9844
▁ruled	-10.9845
▁enterprise	-10.9845
즐	-10.9847
▁penalty	-10.9848
▁모색	-10.985
▁투어	-10.9851
▁학생이	-10.9852
▁전망된다	-10.9853
▁기소	-10.9854
▁김동	-10.9858
▁소요	-10.9858
▁여성이	-10.9859
▁pushing	-10.9859
받을	-10.9859
고속도로	-10.986
▁로봇	-10.986
▁찾은	-10.9861
기록	-10.9861
져야	-10.9863
▁rapid	-10.9864
▁celebrate	-10.9865
이라면	-10.987
▁대안	-10.9872
▁sky	-10.9873
중국	-10.9873
▁70%	-10.9876
▁contracts	-10.9876
피스	-10.9877
▁증명	-10.9879
▁진행되는	-10.9879
▁누군가	-10.9879
▁벌써	-10.988
▁대사	-10.988
▁meantime	-10.9881
하라	-10.9881
▁높아지고	-10.9881
▁않게	-10.9882
▁당신과	-10.9883
▁symbol	-10.9885
▁straight	-10.9885
▁struggle	-10.9885
▁사유가	-10.9886
▁Apple	-10.9888
▁자리에	-10.9889
▁맞이	-10.989
▁ministry	-10.9892
▁토대로	-10.9895
보면	-10.9895
▁머물	-10.9895
lle	-10.9896
▁점차	-10.9897
▁유일	-10.9898
▁seal	-10.9902
▁계정	-10.9904
▁경력	-10.9904
▁250	-10.9906
▁정부와	-10.9906
▁deem	-10.9909
▁involving	-10.991
buk	-10.9915
▁Har	-10.9916
▁법적	-10.9918
▁declared	-10.9921
윈	-10.9923
▁현행	-10.9924
▁teenagers	-10.993
위로	-10.9931
▁이어졌다	-10.9934
▁국내에서	-10.9934
전략	-10.9935
▁파견	-10.9935
듀	-10.9936
▁football	-10.9936
레스	-10.9938
▁awarded	-10.9941
▁either	-10.9942
rk	-10.9942
▁주어	-10.9942
▁대선	-10.9943
▁belong	-10.9945
▁관측	-10.9945
▁Work	-10.9946
▁Chun	-10.9946
▁지원에	-10.9947
무역	-10.9954
▁산불	-10.9956
▁박물관	-10.9957
민주	-10.9957
▁Bio	-10.9958
▁본격	-10.9959
▁subsidy	-10.9961
▁충돌	-10.9962
98	-10.9963
▁측면	-10.9963
▁Workers	-10.9963
lam	-10.9966
▁연휴	-10.9966
▁beat	-10.9967
▁wake	-10.9967
▁fat	-10.9968
▁Motors	-10.997
▁pitcher	-10.997
▁가치가	-10.997
▁athletes	-10.9975
깊	-10.9975
▁Community	-10.998
▁Chuseok	-10.998
▁factor	-10.9981
나라	-10.9982
상태	-10.9982
▁됐	-10.9984
없는	-10.9985
PS	-10.9985
피해	-10.9986
▁느낌	-10.9987
▁보여주	-10.9987
▁녹색	-10.9989
5000	-10.999
▁successfully	-10.9991
▁chair	-10.9992
[	-10.9993
▁franchise	-10.9993
▁inevitable	-10.9993
▁받기	-10.9994
▁입은	-10.9996
▁일본의	-10.9997
83	-10.9998
▁지속적인	-10.9999
▁occasion	-10.9999
▁유기	-11
▁전망이	-11.0001
▁첨단	-11.0005
▁축소	-11.0008
▁건의	-11.0008
해지고	-11.0009
pping	-11.0011
▁tournament	-11.0012
▁사이에서	-11.0012
▁배달	-11.0014
▁위원장의	-11.0014
프로	-11.0016
▁regret	-11.0018
▁몽골	-11.0018
▁prime	-11.0018
스테이	-11.0019
▁팬들이	-11.0024
농업	-11.0026
▁좋겠다	-11.0027
▁Chan	-11.0029
▁초반	-11.003
▁방탄소년단	-11.0031
▁bear	-11.0033
▁점은	-11.0034
▁예산을	-11.0034
▁수리	-11.0035
어져	-11.0035
▁Yongin	-11.0036
셀	-11.0037
]	-11.0037
졌고	-11.0042
▁관내	-11.0043
▁품목	-11.0046
rang	-11.0048
킬	-11.0048
▁Ansan	-11.0048
▁착용	-11.0048
▁exposed	-11.005
▁뛰	-11.0053
maker	-11.0054
▁앞둔	-11.0057
▁산림	-11.0058
▁마감	-11.0059
▁정원	-11.006
▁closely	-11.0061
▁aged	-11.0062
▁짜	-11.0066
▁사용료	-11.0066
▁Medium	-11.0069
▁80%	-11.007
▁losing	-11.007
캐	-11.007
▁aim	-11.0071
할게요	-11.0071
▁시장을	-11.0072
▁활용한	-11.0073
유산	-11.0074
비는	-11.0074
▁solid	-11.0076
▁managing	-11.0077
전형	-11.0077
시기	-11.0078
▁shareholders	-11.0081
▁eliminat	-11.0082
▁Yongsan	-11.0082
OC	-11.0084
▁숨진	-11.0087
▁사회복지	-11.0087
▁채권	-11.0087
dan	-11.0087
▁studies	-11.0088
▁풀이된다	-11.0088
NA	-11.009
▁성폭력	-11.009
▁개막	-11.0093
bong	-11.0095
▁fiscal	-11.0095
▁과태료	-11.0095
▁감동	-11.0096
▁신호	-11.0096
▁spending	-11.0097
▁소비자들	-11.0099
▁흑	-11.0099
▁tend	-11.01
▁생일	-11.0101
빛	-11.0101
▁분쟁	-11.0104
▁engaged	-11.0105
▁corner	-11.0108
▁withdraw	-11.0109
hak	-11.0109
▁40%	-11.0113
▁Agriculture	-11.0114
▁collapse	-11.0114
hold	-11.0119
특별	-11.012
4,000	-11.012
▁wedding	-11.012
▁의미를	-11.0123
generation	-11.0124
사업자	-11.0127
▁kick	-11.0128
▁나중에	-11.0128
▁dropped	-11.0134
▁드리	-11.0134
▁이전에	-11.0134
▁해상	-11.0137
▁operators	-11.0139
▁strict	-11.014
▁Other	-11.014
▁설치된	-11.0142
협의체	-11.0146
▁이탈리아	-11.0146
▁통상	-11.0147
cial	-11.0148
▁사람에게	-11.0149
▁하였다	-11.0149
실적	-11.0151
▁보여주는	-11.0151
AT	-11.0152
▁선사	-11.0152
▁booth	-11.0153
▁statistics	-11.0153
중앙	-11.0153
▁최초	-11.0161
▁배제	-11.0162
▁instruct	-11.0163
ES	-11.0163
▁imposed	-11.0164
▁승인을	-11.0165
용품	-11.0167
아트	-11.0169
▁DMZ	-11.0173
▁총장	-11.0177
하면서도	-11.0177
▁구속영장	-11.0179
▁향한	-11.0179
▁vision	-11.0183
▁Super	-11.0185
▁국회에서	-11.019
400	-11.0191
▁이른바	-11.0191
▁buying	-11.0192
▁grown	-11.0194
▁Qu	-11.0196
▁Student	-11.0198
▁pilot	-11.0198
▁동원	-11.0201
보장	-11.0204
지며	-11.0204
▁stability	-11.0204
▁찾을	-11.0205
▁제정	-11.0207
사항을	-11.0209
▁tariffs	-11.0211
▁weapons	-11.0213
▁가시	-11.0215
▁생겨	-11.0216
▁밖의	-11.0218
47	-11.0223
▁shift	-11.0224
▁hiring	-11.0224
▁multiple	-11.0225
▁attach	-11.0226
▁mini	-11.0227
▁handed	-11.0229
▁Brazil	-11.023
몬	-11.023
▁Bureau	-11.023
▁서류를	-11.0234
▁한정	-11.0234
미국	-11.0235
▁기독교	-11.0237
▁remove	-11.0237
▁의원의	-11.024
▁이용하는	-11.0241
▁하되	-11.0242
▁음료	-11.0242
▁leisure	-11.0243
▁unusual	-11.0243
▁Unification	-11.0244
묘	-11.0245
▁꺼	-11.0247
▁가능할	-11.0248
uc	-11.0248
▁gained	-11.0249
밭	-11.025
▁losses	-11.0253
▁청주	-11.0253
▁poll	-11.0253
▁고소	-11.0257
▁불리는	-11.0258
▁Temple	-11.0263
▁religious	-11.0263
▁김정	-11.0264
▁한국을	-11.0267
디자인	-11.0268
▁covered	-11.0268
▁수십	-11.0268
▁blind	-11.0269
aging	-11.027
▁powerful	-11.0275
▁flag	-11.0275
46	-11.0276
▁funeral	-11.0276
▁직원이	-11.0276
전문가	-11.0277
▁novel	-11.0277
▁degree	-11.0279
owned	-11.0279
▁army	-11.028
▁세계적인	-11.028
▁관련하여	-11.028
▁여유	-11.0284
▁resolved	-11.0288
▁떨어져	-11.0289
창업	-11.0291
▁outcome	-11.0294
▁disposal	-11.0296
건강	-11.0297
▁begun	-11.0298
▁plays	-11.03
▁표정	-11.0301
▁Tokyo	-11.0302
첩	-11.0302
▁있었지만	-11.0302
▁Thailand	-11.0302
▁관계를	-11.0302
▁문제에	-11.0303
▁containing	-11.0304
▁지점	-11.0306
▁몰려	-11.0307
cen	-11.031
▁replace	-11.031
▁100,000	-11.0311
▁이것이	-11.0312
▁가능해	-11.0313
▁폭력	-11.0313
예방	-11.0314
▁후보가	-11.0314
▁south	-11.0315
▁맥	-11.0317
▁독서	-11.0318
민이	-11.0319
▁Gun	-11.032
▁monitoring	-11.0321
▁opponent	-11.0322
건의	-11.0322
▁집회	-11.0322
sha	-11.0322
▁공정위	-11.0323
▁예능	-11.0326
푸	-11.0327
▁옆에	-11.0327
▁휴식	-11.0332
He	-11.0333
▁교수가	-11.0333
duct	-11.0338
▁외에도	-11.0339
▁미군	-11.0341
▁strange	-11.0342
▁문화재	-11.0342
▁메이	-11.0343
▁한인	-11.0344
▁evaluated	-11.0345
car	-11.0347
▁내린	-11.0348
▁semester	-11.0348
▁dialogue	-11.0355
엽	-11.0355
▁유력	-11.0355
▁받게	-11.0357
▁달하는	-11.0358
▁경계	-11.0358
Z	-11.0359
▁맞추	-11.036
▁세워	-11.0362
▁infant	-11.0363
▁국무위원장	-11.0364
▁Beijing	-11.0368
▁Innovation	-11.0368
▁supervision	-11.0368
▁경기도의	-11.0368
▁상생	-11.0369
bak	-11.037
▁수당	-11.0371
▁soft	-11.0371
기능	-11.0373
▁client	-11.0374
▁Army	-11.0374
▁국민의	-11.0376
▁즐기	-11.0379
▁farms	-11.0379
춰	-11.038
▁Amid	-11.0381
▁Gyeongsangnam	-11.0382
▁입증	-11.0385
텐	-11.0386
guk	-11.0387
▁이름이	-11.0388
▁생태계	-11.0389
▁Fu	-11.039
▁Board	-11.039
마저	-11.0395
▁펀드	-11.0397
▁소식을	-11.0397
▁적지	-11.0401
ane	-11.0402
▁안전한	-11.0402
▁count	-11.0402
▁mine	-11.0402
▁연극	-11.0403
ably	-11.0407
▁목표로	-11.0407
핀	-11.0407
▁Citizens	-11.0407
▁진화	-11.0408
▁구단	-11.041
▁2004	-11.0413
▁날이	-11.0413
▁Engineering	-11.0414
해질	-11.0416
▁생존	-11.0416
▁Pu	-11.0419
▁blow	-11.0422
아웃	-11.0427
똑	-11.0427
▁둘러싼	-11.0427
▁따뜻한	-11.0429
▁Tour	-11.043
▁dishes	-11.0431
▁sudden	-11.0432
▁입을	-11.0432
▁extension	-11.0434
▁찾고	-11.0434
▁중소	-11.0434
▁금요일	-11.0434
▁무료로	-11.0436
▁날짜	-11.0436
▁관해	-11.0442
▁easier	-11.0447
▁Vietnamese	-11.0447
▁voting	-11.0447
▁혈	-11.0448
▁단어	-11.0449
▁sharply	-11.0451
▁cleaning	-11.0452
gon	-11.0452
▁협업	-11.0454
▁Planning	-11.0455
▁대거	-11.0455
bb	-11.0457
▁옷을	-11.0459
▁combination	-11.046
▁voices	-11.046
▁이용한	-11.0461
▁상상	-11.0461
▁증가한	-11.0462
▁비용이	-11.0463
▁revitalize	-11.0467
▁College	-11.0474
▁주인	-11.0477
괄	-11.0478
▁pet	-11.048
▁Urban	-11.048
▁만들었다	-11.0485
▁pan	-11.0487
mail	-11.0491
▁묵	-11.0491
▁bridge	-11.0494
▁resume	-11.0494
▁blocked	-11.0496
▁풍부한	-11.05
▁제출한	-11.05
▁satisfaction	-11.05
▁actress	-11.0501
▁appoint	-11.0501
▁carefully	-11.0503
▁competent	-11.0503
▁탄생	-11.0505
▁detail	-11.0511
▁수준의	-11.0511
92	-11.0512
▁부담을	-11.0512
▁주력	-11.0513
▁advertising	-11.0514
▁Care	-11.0514
▁비율이	-11.0514
▁생각해요	-11.0515
cle	-11.0517
호텔	-11.0518
▁preferential	-11.052
평화	-11.0521
▁출근	-11.0526
▁channel	-11.0526
▁cap	-11.0527
▁경기도지사	-11.0527
▁fraud	-11.0527
▁litigation	-11.0527
떡	-11.0527
▁죄송합니다	-11.0528
▁stake	-11.0529
▁과목	-11.053
담당	-11.053
▁영향	-11.053
▁signal	-11.0532
항공	-11.0533
Kim	-11.0534
▁identity	-11.0534
▁intensive	-11.0534
▁영향으로	-11.0534
eo	-11.0536
▁retail	-11.0537
▁시책	-11.0539
내고	-11.054
AS	-11.0541
▁그건	-11.0541
▁Two	-11.0542
▁질환	-11.0542
▁asset	-11.0544
▁Gangseo	-11.0547
▁찾기	-11.0548
800	-11.0548
bal	-11.0551
care	-11.0551
▁continuing	-11.0554
율을	-11.0554
생명	-11.0556
▁uses	-11.0556
▁강하게	-11.0561
▁분위기를	-11.0564
끄	-11.0565
don	-11.0565
▁사업의	-11.0565
▁familiar	-11.0567
뇨	-11.0567
▁자리에서	-11.0568
▁있으	-11.0571
▁눈물	-11.0573
▁현재까지	-11.0574
▁Senior	-11.0574
▁46	-11.0575
▁맛있	-11.0577
▁회장은	-11.0577
▁prohibit	-11.0581
쥐	-11.0581
▁행정부	-11.0581
▁민주	-11.0582
eu	-11.0583
▁낼	-11.0583
▁bills	-11.0584
▁Administrative	-11.0588
▁소식이	-11.0588
▁영향력	-11.059
▁무상	-11.0591
▁gaining	-11.0592
▁inning	-11.0593
▁충전	-11.0593
▁없지만	-11.0594
▁pretty	-11.0594
▁넘겨	-11.0598
▁행복한	-11.0601
▁fundamental	-11.0601
▁rejected	-11.0601
니아	-11.0601
▁진행됐다	-11.0602
▁외교부	-11.0602
▁2002	-11.0605
▁investigated	-11.0606
▁시스템을	-11.0606
▁Declaration	-11.0608
▁긍정적인	-11.0608
▁이유다	-11.061
body	-11.0611
53	-11.0612
▁무기	-11.0614
tang	-11.0614
▁탑승	-11.0615
like	-11.0615
▁sick	-11.0617
▁시설물	-11.0618
덤	-11.0621
▁Town	-11.0622
▁49	-11.0624
▁권력	-11.0625
▁Big	-11.0625
▁환영	-11.0625
▁출동	-11.0626
▁cards	-11.0628
▁revolution	-11.0628
▁솔	-11.0629
▁chat	-11.063
▁지진	-11.0632
SA	-11.0633
▁숲	-11.0637
▁가졌다	-11.0639
▁한식	-11.0641
▁실시한다	-11.0641
▁얻어	-11.0642
▁이같이	-11.0642
▁장점	-11.0642
▁작품을	-11.0642
za	-11.0644
▁Nak	-11.0644
▁대상이	-11.0649
프레	-11.0649
▁들었	-11.0649
▁오염	-11.065
방식	-11.065
▁돈이	-11.0651
쉬	-11.0651
▁Thanks	-11.0651
▁dispatched	-11.0653
▁identify	-11.0655
▁남성이	-11.0656
▁투자자	-11.0661
▁Cheongju	-11.0661
ging	-11.0663
▁공동으로	-11.0665
것	-11.0666
▁형태로	-11.0666
▁사이즈	-11.0667
▁stadium	-11.0669
▁블랙	-11.0669
▁인공지능	-11.0669
조직	-11.067
▁문화예술	-11.0672
▁다르	-11.0673
▁drivers	-11.0673
▁사기	-11.0674
▁Until	-11.0676
트레	-11.0679
근무	-11.0681
▁heritage	-11.0682
▁residence	-11.0683
▁최소화	-11.0684
▁결합	-11.0687
▁Strategy	-11.0689
ature	-11.069
혔다	-11.069
▁다문화	-11.069
▁알려주세요	-11.0691
았던	-11.0693
▁자신들	-11.0697
됐습니다	-11.0699
▁긴장	-11.0701
▁downtown	-11.0703
▁introducing	-11.0703
▁방문한	-11.0704
▁뛰어난	-11.0704
▁이뤄질	-11.0706
▁extreme	-11.0708
ley	-11.071
▁반응	-11.071
▁박근혜	-11.0713
▁멀	-11.0714
마켓	-11.0716
▁facing	-11.0717
▁realized	-11.072
44	-11.0722
▁측이	-11.0722
마당	-11.0723
▁착수	-11.0724
▁동기	-11.0726
▁돌려	-11.0726
▁대상자	-11.0727
gyu	-11.0729
▁quantity	-11.073
▁invested	-11.0731
▁끌	-11.0733
▁법무부	-11.0737
▁캠페인	-11.0737
▁Hwaseong	-11.0738
▁bigger	-11.0739
hand	-11.074
▁responded	-11.0741
▁charged	-11.0743
연대	-11.0747
▁주기	-11.0747
seon	-11.0748
▁파티	-11.0749
▁pleasant	-11.0751
음악	-11.0751
▁comply	-11.0753
▁물량	-11.0753
▁entrustment	-11.0754
칼	-11.0754
▁automobile	-11.0757
세계	-11.0759
봤	-11.0762
▁brands	-11.0762
▁Attention	-11.0764
▁smoke	-11.0764
▁문제점	-11.0766
하러	-11.0767
▁애플	-11.0767
▁쓰고	-11.0769
▁저도	-11.0771
▁smartphones	-11.0771
▁securing	-11.0771
▁Moo	-11.0771
▁월요일	-11.0772
흡	-11.0774
폐기물	-11.0776
▁Ya	-11.0777
▁Disaster	-11.0778
▁purchasing	-11.0778
챔	-11.0778
▁본격적	-11.0779
펀드	-11.078
▁exceeded	-11.078
▁continuous	-11.0783
▁학생들의	-11.0783
▁permanent	-11.0785
▁Housing	-11.0785
▁tests	-11.0786
▁Show	-11.0788
▁구현	-11.079
▁Washington	-11.0792
▁experiment	-11.0792
▁analyze	-11.0793
지사	-11.0793
▁가족이	-11.0802
▁acts	-11.0804
▁맨	-11.0805
▁capabilities	-11.0806
▁genre	-11.0806
▁이중	-11.0809
▁마음에	-11.081
▁개봉	-11.0811
▁Bridge	-11.0814
▁aging	-11.0817
▁조언	-11.0819
▁legislation	-11.0819
▁분류	-11.082
▁허위	-11.0821
▁ha	-11.0826
vol	-11.0826
▁Especially	-11.0826
ute	-11.0828
▁Job	-11.0829
▁bags	-11.0831
▁느	-11.0833
▁stream	-11.0833
play	-11.0833
▁scholarship	-11.0834
▁aircraft	-11.0834
▁제약	-11.0836
▁villages	-11.0837
장치	-11.0839
▁Independence	-11.084
▁perspective	-11.084
▁requirements	-11.084
▁선출	-11.0841
▁질병	-11.0846
▁Street	-11.0847
▁rush	-11.0847
▁셀	-11.0847
▁뿌리	-11.0847
▁많지	-11.0848
▁detected	-11.0848
생산	-11.085
▁hang	-11.085
시즌	-11.085
gin	-11.0851
place	-11.0851
▁봉사	-11.0852
▁publicly	-11.0853
▁acquisition	-11.0854
▁Matters	-11.0854
▁둔다	-11.0856
net	-11.0857
▁심각	-11.0858
▁이어진	-11.0858
▁refers	-11.0862
▁필요합니다	-11.0863
▁winner	-11.0866
▁Sub	-11.0867
▁그게	-11.0868
깃	-11.0868
▁결과에	-11.0868
▁Gyeongbuk	-11.0868
▁올라가	-11.0868
▁singing	-11.0869
▁tension	-11.087
▁originally	-11.087
자재	-11.0871
▁differences	-11.0871
장비	-11.0872
600	-11.0874
▁방북	-11.0879
▁turning	-11.088
▁imported	-11.0881
ption	-11.0883
▁인정받	-11.0886
▁폐기	-11.089
▁마치고	-11.0891
▁whenever	-11.0893
▁memorial	-11.0895
▁청원	-11.0899
▁늦어	-11.09
▁고급	-11.0901
▁선박	-11.0901
▁Pension	-11.0902
▁troops	-11.0902
램	-11.0902
▁Christmas	-11.0902
롭게	-11.0903
갈수록	-11.0905
lip	-11.0907
▁comfort	-11.0908
▁금융위	-11.0909
되기도	-11.091
차전	-11.0911
▁추억	-11.0911
range	-11.0913
▁지원한다	-11.0916
ov	-11.0918
▁추진하고	-11.0918
노조	-11.0919
▁이목	-11.092
▁exemption	-11.092
나가는	-11.092
oriented	-11.0923
층에	-11.0927
▁tons	-11.093
▁peak	-11.093
▁준다	-11.093
▁origin	-11.0931
trans	-11.0932
선언	-11.0938
▁선정된	-11.0939
live	-11.094
cheol	-11.0942
▁deploy	-11.0944
▁오른쪽	-11.0945
▁때도	-11.0949
▁실종	-11.0949
▁유형	-11.0958
▁gone	-11.0963
▁흥	-11.0964
yn	-11.0965
▁plenary	-11.0965
▁교부	-11.0965
▁발전을	-11.0967
▁대부분이	-11.0967
∼20	-11.0968
조선	-11.0968
▁심화	-11.097
▁소녀	-11.0971
▁apologize	-11.0972
▁images	-11.0973
▁봤다	-11.0974
▁prosecutors	-11.098
▁죽음	-11.0982
▁명절	-11.0982
▁하게	-11.0986
▁agriculture	-11.0986
▁대하여는	-11.0986
▁폐쇄	-11.0987
▁daycare	-11.099
▁category	-11.0993
▁다음달	-11.0993
▁마친	-11.0996
▁talked	-11.0997
스카	-11.0998
▁경기에서	-11.1
▁brain	-11.1
▁dangerous	-11.1001
▁편안	-11.1001
▁별로	-11.1002
▁진실	-11.1004
만한	-11.1006
▁결정을	-11.1006
▁marine	-11.1007
▁누리	-11.1009
회의에서	-11.101
▁merchants	-11.101
▁진전	-11.1012
▁기획재정부	-11.1014
▁convey	-11.1014
▁Design	-11.1015
▁호응	-11.1016
▁reasonable	-11.1019
▁너희	-11.1021
ori	-11.1023
건축	-11.1024
▁현상이	-11.1026
▁따라서	-11.1027
verse	-11.1029
▁검찰에	-11.1029
▁Regional	-11.1035
▁rally	-11.1036
▁Industries	-11.1042
고용	-11.1043
수행	-11.1044
▁applicant	-11.1048
▁강연	-11.1049
▁technique	-11.1049
▁달려	-11.1053
써	-11.1055
▁1990	-11.1056
▁filming	-11.1056
▁추구	-11.1058
▁받으	-11.1059
▁Ban	-11.106
겁	-11.1064
▁landscape	-11.1064
▁증진	-11.1064
자산	-11.1065
about	-11.1066
▁진로	-11.1069
▁replaced	-11.107
▁principal	-11.1071
▁Sc	-11.1072
▁혜택	-11.1072
▁운영할	-11.1073
▁consent	-11.1074
하라고	-11.1075
▁returning	-11.1077
▁아직도	-11.1078
폴	-11.1079
집니다	-11.1079
▁singers	-11.1084
poli	-11.1084
▁micro	-11.1085
협상	-11.1085
▁덕분에	-11.1085
▁흘러	-11.1085
hour	-11.109
▁서울대	-11.1091
▁지명	-11.1092
▁postpone	-11.1093
▁남부	-11.1095
▁동일	-11.1095
▁disc	-11.1097
▁부처	-11.1098
96	-11.1098
▁많고	-11.1098
▁종이	-11.1099
랄	-11.1099
▁miss	-11.1099
▁raw	-11.1099
▁parent	-11.1101
▁국방	-11.1102
▁혼란	-11.1102
드려	-11.1102
▁퇴직	-11.1103
▁부실	-11.1105
▁않았습니다	-11.1106
▁strategic	-11.1106
▁아는	-11.1108
▁replacement	-11.1108
조례	-11.1109
▁spa	-11.1114
▁낳	-11.1116
▁greater	-11.1116
▁receives	-11.1118
▁현안	-11.1118
▁균형	-11.1119
▁흐	-11.112
▁면제	-11.1123
▁일시	-11.1125
▁이루어지	-11.1126
데이	-11.1126
▁참가자들	-11.1127
▁편지	-11.1128
▁지역은	-11.1129
▁김치	-11.1129
elecommunication	-11.113
▁추진할	-11.1131
▁passenger	-11.1134
▁개발한	-11.1134
▁linked	-11.1134
▁spokesman	-11.1134
▁pray	-11.1138
▁효율적으로	-11.1139
▁simply	-11.1142
▁조절	-11.1143
▁학원	-11.1144
▁Water	-11.1145
▁담아	-11.1146
▁여성의	-11.115
▁Ok	-11.115
▁올렸다	-11.1153
교사	-11.1153
▁않았지만	-11.1155
자들	-11.1155
▁centered	-11.1157
▁행사에	-11.1157
봉투	-11.1159
▁컨	-11.1159
tail	-11.1161
▁일자리를	-11.1161
▁UN	-11.1163
▁감면	-11.1166
방위	-11.1167
▁beer	-11.1168
94	-11.1169
스코	-11.117
껏	-11.117
▁Jeollanam	-11.1171
▁떨	-11.1173
묵	-11.1173
▁lend	-11.1173
▁분야의	-11.1174
셔야	-11.1176
▁composition	-11.1177
액을	-11.1178
▁본격적으로	-11.1179
▁영어를	-11.1181
▁behalf	-11.1184
▁discrimination	-11.1184
▁happiness	-11.1184
학습	-11.1184
▁payments	-11.1185
▁전망했다	-11.1189
▁noise	-11.119
▁고위	-11.119
▁king	-11.1195
▁allowances	-11.1195
구나	-11.1197
▁researchers	-11.1199
▁평가했다	-11.12
▁공고	-11.1201
▁고정	-11.1204
▁knew	-11.1206
▁Hana	-11.1207
▁dismissed	-11.1207
▁장르	-11.1208
스포츠	-11.1208
▁데다	-11.1208
▁scar	-11.1213
▁Regulation	-11.1213
▁침해	-11.1214
▁51	-11.1215
field	-11.1216
▁ultra	-11.122
▁필수	-11.1222
▁진행한다	-11.1224
▁소집	-11.1225
▁했다고	-11.1227
▁아티스트	-11.1227
▁adjustment	-11.123
▁플레이	-11.1231
▁맡은	-11.1235
▁shoes	-11.1235
▁monitor	-11.1235
▁어디서	-11.1239
여서	-11.124
▁공개한	-11.1242
iness	-11.1243
ken	-11.1245
To	-11.1245
pyo	-11.1245
▁handling	-11.1246
▁설비	-11.1246
▁47	-11.1249
▁worse	-11.1251
▁분위기가	-11.1252
▁호흡	-11.1257
▁가려	-11.1262
▁incentive	-11.1263
▁내렸다	-11.1264
▁가량	-11.1266
▁저장	-11.1268
▁수급	-11.1272
▁note	-11.1273
▁만났	-11.1275
▁알았	-11.1275
▁Pay	-11.1276
▁relief	-11.1278
▁belonging	-11.128
▁건조	-11.1283
TE	-11.1284
▁물어	-11.1284
뷰	-11.1285
▁트위터	-11.1285
▁specified	-11.1285
gal	-11.1286
▁성분	-11.1286
▁한글	-11.1287
밤	-11.1288
▁상태다	-11.1289
▁쇼	-11.129
▁KB	-11.1291
흔	-11.1291
▁살해	-11.1292
▁joy	-11.1293
왔던	-11.1293
재판	-11.1296
▁equal	-11.1298
59	-11.1299
MS	-11.13
벤처	-11.1301
▁감시	-11.1301
해졌다	-11.1305
▁가스	-11.1306
▁먼	-11.1306
▁Huawei	-11.1307
▁조명	-11.1308
미술	-11.1309
」(	-11.1309
ental	-11.1309
▁trends	-11.1311
▁도모	-11.1312
bel	-11.1314
▁empty	-11.1314
▁왼쪽	-11.1314
▁unlike	-11.1314
▁직전	-11.1314
▁궁	-11.1316
ei	-11.1318
▁거주하는	-11.132
▁칠	-11.1324
뉴스	-11.1325
▁제목	-11.1326
▁대단	-11.1328
▁crackdown	-11.1329
▁keen	-11.1329
▁소장	-11.1329
▁접촉	-11.133
▁것이란	-11.1333
▁포착	-11.1333
개로	-11.1334
▁대처	-11.1335
▁steel	-11.1336
게요	-11.1337
▁영양	-11.1338
▁옛	-11.1342
▁helping	-11.1344
▁listening	-11.1346
▁isn	-11.1347
sook	-11.1349
▁기간이	-11.135
▁차지했다	-11.135
▁화물	-11.135
▁별도의	-11.1351
▁무게	-11.1352
43	-11.1352
▁demands	-11.1356
럭	-11.1357
▁Wan	-11.1357
CE	-11.1357
▁발휘	-11.1359
▁아빠	-11.1361
▁laugh	-11.1363
▁freely	-11.1363
▁adults	-11.1364
▁curriculum	-11.1365
▁forget	-11.1365
▁맥주	-11.1366
▁동생	-11.1369
▁leak	-11.1369
▁활용할	-11.1369
▁이승	-11.1369
▁guest	-11.1375
▁widely	-11.1375
BA	-11.1378
▁장식	-11.1379
▁소관	-11.1381
DI	-11.1382
▁FC	-11.1383
▁최저	-11.1383
▁investments	-11.1385
▁Ui	-11.139
▁1980	-11.1392
▁disappeared	-11.1392
▁temple	-11.1393
멜	-11.1394
▁Sp	-11.1398
▁urged	-11.1398
(5	-11.14
▁Military	-11.1401
▁진행하고	-11.1403
▁화웨이	-11.1403
▁bird	-11.1404
▁annually	-11.1405
▁Jongno	-11.1407
▁비교적	-11.1408
▁왜냐하면	-11.1409
등록	-11.1409
ao	-11.1411
머니	-11.1411
▁undergo	-11.1412
▁각자	-11.1413
▁세우	-11.1414
▁Head	-11.1416
▁Singer	-11.1417
▁공동주택	-11.1418
▁pen	-11.142
▁물리	-11.1421
▁Store	-11.1424
ᆞ	-11.1431
▁Experts	-11.1431
including	-11.1437
▁갖추	-11.1438
8,000	-11.1438
bul	-11.144
▁Red	-11.144
▁계획이	-11.1441
▁however	-11.1444
가량	-11.1447
▁Only	-11.1451
▁abolish	-11.1453
▁Ph	-11.1453
▁라이	-11.1453
▁국정	-11.1453
▁resign	-11.1455
▁Koo	-11.1459
▁지상	-11.1459
Gun	-11.146
▁지원이	-11.1466
▁shipment	-11.1467
▁impose	-11.147
보고서	-11.1473
▁보낼	-11.1473
▁응급	-11.1474
▁강력	-11.1478
▁관계가	-11.148
▁시내	-11.1482
▁조사됐다	-11.1482
▁mood	-11.1484
▁준수	-11.1486
▁Non	-11.1487
▁신분	-11.1487
▁relation	-11.149
일자리	-11.1491
▁제공한다	-11.1491
▁마련된	-11.1492
quality	-11.1492
▁John	-11.1497
▁방향으로	-11.1498
▁구청장	-11.1498
▁정확히	-11.1498
▁재미	-11.1501
▁memories	-11.1504
▁동작	-11.1506
▁비슷	-11.1508
▁usage	-11.1512
▁실시할	-11.1513
▁Good	-11.1513
전쟁	-11.1514
▁바에	-11.1518
안정	-11.1519
역에서	-11.1519
▁거에요	-11.1519
▁friendly	-11.1519
▁탓에	-11.152
▁mutati	-11.1525
▁conclusion	-11.1526
DA	-11.1527
▁싫어	-11.153
▁타격	-11.153
llow	-11.1531
▁흔들	-11.1533
▁피의자	-11.1533
▁chose	-11.1536
▁회사가	-11.1537
▁기반으로	-11.1541
▁Before	-11.1541
▁Ilbo	-11.1542
▁폭로	-11.1542
아시아	-11.1543
책임	-11.1544
증진	-11.1546
▁정식	-11.1547
▁draft	-11.1548
▁prompt	-11.1549
▁공무원이	-11.1549
▁제공하고	-11.1549
ically	-11.155
마리	-11.1553
▁곳이다	-11.1555
사실	-11.1555
▁재단	-11.1556
▁진행하는	-11.1556
▁Leader	-11.1556
▁새해	-11.1559
▁(5	-11.1561
dle	-11.1562
센터를	-11.1562
▁juvenile	-11.1563
▁얻고	-11.1563
▁유발	-11.1564
▁diet	-11.1564
라이브	-11.1566
▁행보	-11.1566
▁기분이	-11.1567
▁Four	-11.1568
▁preserve	-11.1571
▁phase	-11.1571
▁wins	-11.1571
▁succeeded	-11.1572
기획	-11.1575
▁임기는	-11.1576
되거나	-11.1577
81	-11.1578
pan	-11.1579
▁없도록	-11.1581
▁재배	-11.1582
geun	-11.1584
▁성폭행	-11.1586
▁emission	-11.1586
▁비롯	-11.1587
▁발사	-11.1587
▁이재명	-11.1587
▁딱	-11.1588
체계를	-11.1588
▁Each	-11.1589
▁헌법	-11.1589
규모	-11.1592
▁vessel	-11.1593
북한	-11.1594
▁말하는	-11.1595
▁산정	-11.1598
▁assembly	-11.1601
체제	-11.1601
님께서	-11.1602
▁동네	-11.1602
▁Yo	-11.1604
소송	-11.1604
▁Saudi	-11.1608
▁royal	-11.1608
▁프리미엄	-11.1608
▁차지하는	-11.1608
▁연합	-11.1613
▁Northern	-11.1614
▁substance	-11.1615
디스플레이	-11.1615
▁respondents	-11.1615
▁2021	-11.1616
▁자살	-11.1617
▁attendance	-11.1618
주간	-11.1619
az	-11.1619
▁recording	-11.162
▁문자	-11.1624
▁연수	-11.1624
▁teach	-11.1625
▁깨끗	-11.163
▁grew	-11.1631
take	-11.1631
▁automatically	-11.1631
▁물질	-11.1632
▁대책을	-11.1633
Co	-11.1633
▁입원	-11.1633
▁열차	-11.1634
▁고양이	-11.1637
▁이어지는	-11.1637
▁Pi	-11.1637
▁leads	-11.1637
▁배터리	-11.1638
TA	-11.1639
▁선정됐다	-11.164
▁frequent	-11.1644
▁spaces	-11.1645
겹	-11.1645
▁disadvantage	-11.1645
엔터테인먼트	-11.1645
▁수준이	-11.1647
▁에스	-11.1647
ched	-11.1649
▁positions	-11.165
▁적절한	-11.165
▁ski	-11.1651
▁장치	-11.1651
▁securities	-11.1653
▁극단	-11.1655
▁공동체	-11.1656
making	-11.1659
▁Earlier	-11.166
▁Audit	-11.1661
교육을	-11.1662
▁죄	-11.1665
▁늘었다	-11.1666
▁보증	-11.1667
▁담배	-11.1668
▁주변에	-11.167
사례	-11.1673
▁협의회	-11.1673
▁재판에	-11.1676
▁아이가	-11.1677
▁진행될	-11.168
릉	-11.1681
▁dogs	-11.1682
craft	-11.1683
▁온도	-11.1683
▁Elementary	-11.1683
▁아기	-11.1687
▁운동을	-11.1687
▁남아있	-11.1688
▁buyers	-11.1689
▁discovered	-11.1689
범위	-11.1691
De	-11.1692
▁wasn	-11.1693
▁것보다	-11.1694
▁비리	-11.1697
▁Fisheries	-11.1698
▁communities	-11.1698
▁고려하여	-11.1699
▁withdrawal	-11.1704
▁mom	-11.1705
▁kimchi	-11.1705
뼈	-11.1705
▁upcoming	-11.1705
▁800	-11.1706
▁internet	-11.1707
▁hole	-11.1709
uff	-11.171
▁Control	-11.1713
▁dedicated	-11.1713
▁Smart	-11.1715
▁estimate	-11.1715
▁Shinhan	-11.1716
▁enable	-11.1716
첨	-11.1718
▁진행할	-11.1721
대상자	-11.1721
▁기각	-11.1722
No	-11.1722
▁Heritage	-11.1728
▁짧은	-11.1728
옹	-11.1728
well	-11.1731
▁입지	-11.1733
PM	-11.1734
▁않아도	-11.1734
▁감독의	-11.1735
▁smell	-11.1736
▁압수수색	-11.1736
▁스토리	-11.1736
▁건강한	-11.1736
▁dish	-11.1737
▁어디에	-11.1739
▁지역주민	-11.174
옵	-11.1743
▁Cooperation	-11.1743
▁잇따라	-11.1743
▁지체	-11.1745
▁준공	-11.1746
▁seeking	-11.1748
▁서구	-11.1749
▁아닙니다	-11.1751
▁Those	-11.1751
▁열었다	-11.1751
▁빠진	-11.1751
▁하자	-11.1754
▁벌금	-11.1755
▁teaching	-11.1757
▁파트너	-11.1758
sam	-11.1759
▁벌어지	-11.1759
▁180	-11.176
▁반응을	-11.176
▁모르는	-11.176
▁전기차	-11.1763
▁Kyo	-11.1764
냥	-11.1765
▁판단했다	-11.1767
▁문학	-11.1768
리티	-11.1771
▁우주	-11.1775
▁yourself	-11.1776
uck	-11.1779
▁Spain	-11.1781
▁Self	-11.1784
97	-11.1785
▁빗	-11.1788
▁박람회	-11.1789
▁분야에	-11.1793
▁Ham	-11.1796
버리	-11.1798
정신	-11.1799
▁faster	-11.1801
▁container	-11.1805
▁공간을	-11.1808
▁각국	-11.1808
하였고	-11.1808
▁rank	-11.1809
▁충분한	-11.181
▁받는다	-11.1811
▁yellow	-11.1811
▁verification	-11.1811
▁노래를	-11.1818
ku	-11.1818
▁전담	-11.1819
』	-11.1819
▁seminar	-11.1819
▁도쿄	-11.1819
▁Starting	-11.1822
▁이외에	-11.1823
▁싶었	-11.1823
▁운영하고	-11.1824
▁semi	-11.1825
랍	-11.1827
▁decade	-11.1827
Pacific	-11.1827
▁prefer	-11.1828
▁Residents	-11.1828
하다가	-11.1828
▁미국에서	-11.1829
▁75	-11.183
▁Tong	-11.1831
▁의사를	-11.1832
▁emotional	-11.1834
▁에어	-11.1835
▁일요일	-11.1836
▁빠지	-11.1838
▁Comp	-11.1839
▁relax	-11.1842
▁절감	-11.1844
센터는	-11.1847
▁돼요	-11.1848
공동	-11.1848
▁quick	-11.1849
gak	-11.1849
▁politician	-11.185
컨	-11.1853
▁구체적으로	-11.1854
▁Intelligence	-11.1857
▁flexible	-11.1857
젤	-11.1857
▁Geum	-11.186
▁exempt	-11.1861
yeo	-11.1862
브라	-11.1863
▁어려울	-11.1865
보증	-11.1865
▁Gyeongsangbuk	-11.1865
▁컨설팅	-11.1866
▁멤버들	-11.1869
▁영장	-11.187
▁편의점	-11.187
▁간사	-11.1871
▁위임	-11.1872
▁Hanoi	-11.1873
▁빅	-11.1875
▁아프	-11.1876
▁awards	-11.1877
장애	-11.1877
▁사항이	-11.1878
푸드	-11.1878
▁liquid	-11.188
hood	-11.1881
▁adult	-11.1882
티브	-11.1884
▁자국	-11.1888
▁바람이	-11.1888
깝	-11.1888
▁Fo	-11.1888
억달러	-11.1891
▁현장에	-11.1891
▁끝내	-11.1892
클럽	-11.1894
▁traveling	-11.1895
넷	-11.1896
▁경기북부	-11.1896
▁비판했다	-11.1896
▁거래소	-11.1898
상당히	-11.1898
▁합리적	-11.19
▁단기	-11.19
▁손해	-11.1901
▁표창	-11.1902
▁삭제	-11.1903
cip	-11.1904
▁bottle	-11.1911
▁regulatory	-11.1911
▁underground	-11.1913
▁이때	-11.1914
▁걸려	-11.1914
▁보일	-11.1914
ough	-11.1914
조건	-11.1915
▁disclosed	-11.1915
으로써	-11.1918
▁숫자	-11.1919
▁bid	-11.1919
렸습니다	-11.1919
▁egg	-11.1921
문학	-11.1926
▁케이팝	-11.1926
▁투수	-11.1927
▁panel	-11.1928
▁adopted	-11.193
효율	-11.1932
▁nurse	-11.1934
▁mask	-11.1936
▁행사에는	-11.1936
▁선도	-11.1937
▁프리	-11.1941
▁움직이	-11.1942
▁의문	-11.1944
ender	-11.1946
규정	-11.1947
▁기준을	-11.1948
▁친구들과	-11.1948
▁워싱턴	-11.1949
▁consensus	-11.1949
▁unexpected	-11.1949
하길	-11.1951
▁공포	-11.1953
▁Nu	-11.1953
▁reaction	-11.1957
▁연예인	-11.1958
aged	-11.1958
▁bound	-11.1958
▁수준으로	-11.1958
itive	-11.1962
arious	-11.1962
▁명시	-11.1964
▁베이징	-11.1965
▁슈퍼	-11.1965
▁공시	-11.1966
▁나설	-11.1968
담당관	-11.1969
Committee	-11.197
6,000	-11.1973
▁diagnosis	-11.1973
갑니다	-11.1975
▁매입	-11.1977
▁과연	-11.1979
▁donated	-11.1982
gro	-11.1983
▁votes	-11.1986
▁신고를	-11.1986
▁succeed	-11.1987
under	-11.1987
▁LA	-11.1988
연합	-11.1988
▁늦게	-11.1991
규제	-11.1993
▁전주	-11.1994
▁상태에서	-11.1994
▁2003	-11.1997
pet	-11.1999
▁증가하고	-11.2004
여건	-11.2004
▁earth	-11.2004
▁않지만	-11.2005
rail	-11.2006
▁일원	-11.2007
▁700	-11.2008
▁막기	-11.2009
▁subordinate	-11.2011
룰	-11.2011
▁소설	-11.2012
▁Valley	-11.2019
▁bereaved	-11.2019
▁institutes	-11.2021
▁진정	-11.2021
▁staying	-11.2027
▁복구	-11.2029
▁경주	-11.203
▁손실	-11.203
▁Guard	-11.2036
▁정의당	-11.2036
▁개최한다	-11.2036
▁승객	-11.2037
▁하노이	-11.2043
천만	-11.2045
▁종로구	-11.2049
▁사업비	-11.2049
▁Col	-11.2049
▁visual	-11.205
▁convert	-11.2051
▁지도자	-11.2051
임금	-11.2059
▁copy	-11.206
▁favorable	-11.206
▁recall	-11.2064
주시겠어요	-11.2064
▁살인	-11.2067
▁steps	-11.2072
▁때부터	-11.2073
41	-11.2075
들어	-11.2075
깔	-11.2081
▁indicate	-11.2082
▁차가	-11.2083
▁강경	-11.2083
▁있었고	-11.2083
▁돕는	-11.2083
▁북측	-11.2085
▁towards	-11.2086
▁영화제	-11.2087
니스	-11.2088
▁strengthened	-11.2089
▁interior	-11.2089
▁doubt	-11.2089
▁댄스	-11.209
▁calm	-11.209
▁지방선거	-11.2091
▁공약	-11.2092
▁unveiled	-11.2095
▁Kia	-11.2095
▁Turkey	-11.2097
▁핸드폰	-11.2097
▁thus	-11.2099
▁Look	-11.2101
▁설득	-11.2107
▁물을	-11.2108
▁몰라	-11.2111
멋	-11.2113
벼	-11.2113
▁수사에	-11.2115
▁radio	-11.2117
▁용역	-11.2122
▁combine	-11.2124
▁사랑하는	-11.2127
▁발주	-11.2128
▁경기도지사가	-11.2128
▁collecting	-11.2128
릅니다	-11.2129
▁하겠다	-11.213
▁pull	-11.2133
브리	-11.2133
튼	-11.2136
▁Second	-11.2136
∼1	-11.2138
bum	-11.2141
▁root	-11.2141
▁Goryeo	-11.2143
▁리그	-11.2143
▁고향	-11.2144
▁views	-11.2144
▁관측이	-11.2144
회담	-11.2145
▁된다는	-11.2148
gel	-11.215
▁조례에	-11.215
▁추락	-11.215
hun	-11.215
▁stood	-11.2152
▁Three	-11.2152
▁lay	-11.2153
▁잊	-11.2154
▁resignation	-11.2155
▁지역경제	-11.2157
▁국경	-11.2157
▁사람들에게	-11.2158
▁Exchange	-11.216
▁guess	-11.216
였습니다	-11.2163
▁lifelong	-11.2163
▁득점	-11.2169
ker	-11.2172
▁exception	-11.2172
▁기록한	-11.2174
▁die	-11.2175
▁Who	-11.2175
▁중요성	-11.2177
▁여성들	-11.2178
▁일하는	-11.218
▁professors	-11.218
PA	-11.2181
▁개인정보	-11.2181
▁증가했다	-11.2182
▁personality	-11.2184
This	-11.2184
POP	-11.2185
▁총선	-11.2185
▁solo	-11.2187
▁앞으로도	-11.219
▁relative	-11.2191
빌	-11.2192
▁illegally	-11.2194
▁기다리고	-11.2196
▁고등	-11.2198
▁산업혁명	-11.22
▁expertise	-11.22
▁별도로	-11.2202
법원	-11.2203
▁roll	-11.2204
▁기원	-11.2204
▁지사는	-11.2206
▁scholar	-11.2207
clock	-11.2207
▁Class	-11.2207
▁logistics	-11.2207
▁제공할	-11.2211
▁발의	-11.2212
▁비전	-11.2212
52	-11.2214
zen	-11.2215
▁luxury	-11.2215
▁입력	-11.2219
▁owned	-11.2221
▁추진한다	-11.2223
▁휴대전화	-11.2223
bang	-11.2223
▁들여	-11.2224
▁주목받	-11.2229
▁예를	-11.223
▁zones	-11.2231
▁사용한	-11.2231
▁closing	-11.2231
▁Joint	-11.2231
▁음악을	-11.2232
▁작성하여	-11.2233
▁paintings	-11.2234
기념	-11.2234
MI	-11.2236
▁것이라	-11.2237
▁audiences	-11.2237
▁54	-11.2239
▁가맹점	-11.2239
▁leaves	-11.2243
▁Rural	-11.2247
▁서비스가	-11.2249
월에는	-11.2251
잖아	-11.2253
▁대표이사	-11.2253
▁voluntary	-11.2255
▁subcommittee	-11.2255
▁자유롭게	-11.2256
▁그중	-11.2256
▁꼬	-11.2259
life	-11.226
▁60%	-11.226
▁뚜렷	-11.2263
▁Songpa	-11.2266
스키	-11.2269
▁가끔	-11.2273
▁값	-11.2273
(19	-11.2276
▁tears	-11.2281
▁갈등이	-11.2283
요원	-11.2283
cl	-11.2285
▁surpass	-11.2287
▁목숨	-11.2287
▁명단	-11.2288
▁숙박	-11.229
▁이르는	-11.2292
▁강서구	-11.2293
▁pig	-11.2293
heung	-11.2293
▁번째로	-11.2294
5%)	-11.2295
▁accompanied	-11.2295
Seo	-11.2298
▁중국에서	-11.2299
▁대표하는	-11.23
▁고양시	-11.2301
▁milk	-11.2303
▁묶	-11.2304
▁bull	-11.2305
진영	-11.2305
05	-11.2307
▁이야기가	-11.2309
▁사고로	-11.2309
▁상당한	-11.231
▁카카오	-11.2311
▁multicultural	-11.2311
서비스를	-11.2313
▁비행	-11.2313
▁시사	-11.2313
▁철거	-11.2315
▁독자	-11.2316
▁입구	-11.2317
▁Forum	-11.2318
▁mutandis	-11.2319
▁perception	-11.2319
▁supplied	-11.2319
pul	-11.2323
MC	-11.2325
▁founded	-11.2326
▁밟	-11.2326
떼	-11.2327
▁retire	-11.2333
▁portion	-11.2334
▁Standard	-11.2335
▁serving	-11.2335
▁매출이	-11.2337
▁분들이	-11.234
▁환경부	-11.2341
▁Analysts	-11.2343
▁channels	-11.2344
▁숙소	-11.2345
시키기	-11.2346
▁요청할	-11.2346
▁Congress	-11.2351
▁fake	-11.2353
▁제품에	-11.2353
▁usual	-11.2353
범죄	-11.2353
학원	-11.2354
▁주민의	-11.2356
▁hundreds	-11.2357
▁climate	-11.2359
▁네이버	-11.2359
▁cancellation	-11.2359
▁측면에서	-11.236
▁났	-11.2362
▁massive	-11.2362
You	-11.2362
▁Following	-11.2367
ON	-11.2371
▁surge	-11.2374
▁fallen	-11.2375
▁높이고	-11.2376
▁고기	-11.2376
▁운송	-11.2377
▁여권	-11.2378
▁구상	-11.2378
▁smoothly	-11.2379
Mart	-11.238
oh	-11.2382
▁minimize	-11.2383
▁정상회담을	-11.2384
▁disclose	-11.2387
ware	-11.2387
▁직원들이	-11.2388
driven	-11.2388
▁선적	-11.2388
▁찍어	-11.2391
톡	-11.2391
▁afraid	-11.2391
▁snack	-11.2391
▁Another	-11.2392
▁해명	-11.2395
▁남녀	-11.2397
▁Dream	-11.2399
▁좋습니다	-11.2399
RA	-11.2402
▁90%	-11.2403
▁chemical	-11.2407
▁instrument	-11.2407
▁기조	-11.2407
▁horse	-11.2407
▁하던	-11.2409
roll	-11.2413
셨다	-11.2413
ara	-11.2413
▁한층	-11.2415
▁맞게	-11.2416
▁겪는	-11.2416
데다	-11.2416
▁자연스럽게	-11.2416
▁고객들	-11.2417
▁사용해	-11.2418
▁Per	-11.242
▁테마	-11.2421
▁고교	-11.2422
▁violations	-11.2422
▁Gwanak	-11.2424
▁wine	-11.2424
▁서초구	-11.2426
graph	-11.2426
▁깊이	-11.2428
▁previously	-11.2428
▁fare	-11.243
▁Officials	-11.2433
▁Bucheon	-11.2434
▁특검	-11.2434
▁맛이	-11.2435
면적	-11.2435
▁remained	-11.2436
호서식	-11.2437
룩	-11.244
▁smoking	-11.244
▁비치	-11.2441
▁surprised	-11.2442
▁중국과	-11.2443
▁물류	-11.2446
▁governed	-11.2448
▁dollar	-11.2448
▁아이템	-11.2448
▁꽤	-11.2448
▁상업	-11.2449
wha	-11.2449
순위	-11.2451
▁accumulated	-11.2452
▁speaker	-11.2453
▁능력을	-11.2456
▁Buddhist	-11.2456
▁fulfill	-11.2456
▁Mapo	-11.2457
▁반응이	-11.2457
▁과장	-11.2458
▁classified	-11.2458
▁Girls	-11.246
▁Ltd	-11.2464
▁repeatedly	-11.2465
줘야	-11.2466
트라	-11.2469
▁chosen	-11.247
kin	-11.247
▁조심	-11.2471
▁roof	-11.2472
▁Thursday	-11.2472
▁Naver	-11.2476
▁역사를	-11.2479
포럼	-11.248
▁재고	-11.248
듬	-11.248
▁harassment	-11.248
▁몰랐	-11.2481
▁shareholder	-11.2481
▁59	-11.2481
▁연방	-11.2487
AP	-11.2487
▁hidden	-11.2489
▁공간이	-11.2492
▁임신	-11.2494
듯이	-11.2495
▁멋진	-11.2497
▁냈다	-11.2502
▁하는지	-11.2503
▁기능이	-11.2504
▁Twitter	-11.2505
▁preventing	-11.2505
▁beach	-11.2506
▁능력이	-11.2507
▁safely	-11.2508
▁engage	-11.2508
72	-11.2509
박물관	-11.251
▁그럴	-11.2513
아동	-11.2514
▁세상을	-11.2516
▁학교에서	-11.2516
▁plate	-11.2517
▁아무리	-11.2518
▁clubs	-11.2521
▁Entertainment	-11.2521
▁steadily	-11.2521
▁formation	-11.2522
▁적응	-11.2524
▁재능	-11.2524
▁마련됐다	-11.2525
▁완전	-11.2527
suk	-11.253
▁유행	-11.2531
짓	-11.2533
▁Ste	-11.2535
▁단원	-11.2536
▁uncomfortable	-11.2538
▁voluntarily	-11.2538
▁workshop	-11.2539
▁맞은	-11.2539
▁journalist	-11.2545
▁토론회	-11.2545
▁removed	-11.2546
▁FTA	-11.2547
▁약간	-11.255
▁부천	-11.2552
▁색상	-11.2552
▁Which	-11.2554
▁Deliberation	-11.2555
▁충족	-11.2556
▁studied	-11.2562
▁맡아	-11.2562
▁deeply	-11.2565
▁야외	-11.2566
phy	-11.2567
▁동일한	-11.2569
▁갔다	-11.257
awa	-11.257
active	-11.2575
▁restrictions	-11.2576
▁공부를	-11.2577
▁anxiety	-11.2579
▁본회의	-11.2581
▁코치	-11.2582
렀다	-11.2583
▁김태	-11.2587
▁autumn	-11.2587
▁certified	-11.2587
▁martial	-11.2587
▁미래를	-11.2588
▁Southeast	-11.2592
없	-11.2592
▁매주	-11.2592
▁간편	-11.2595
▁restoration	-11.2595
럴	-11.2595
▁세트	-11.26
논	-11.2601
nova	-11.2603
밍	-11.2603
▁Shi	-11.2607
▁Does	-11.2607
▁KBO	-11.2608
▁주재	-11.2609
▁진행되고	-11.2609
▁영향이	-11.261
▁탓	-11.2611
▁쪽으로	-11.2611
▁함께하는	-11.2612
▁무엇인지	-11.2613
▁mode	-11.2613
▁복원	-11.2614
▁다르다	-11.2615
▁Hyung	-11.2619
▁manipulation	-11.262
▁command	-11.2621
▁중심의	-11.2623
rmal	-11.2623
동물	-11.2625
▁implementing	-11.2627
▁accommodation	-11.2628
▁내다봤다	-11.2628
▁remark	-11.2628
▁예상되는	-11.2629
▁보입니다	-11.263
▁evaluate	-11.2632
▁존중	-11.2634
짜리	-11.2635
▁Square	-11.2636
▁acknowledg	-11.2636
▁즐거운	-11.2636
▁Once	-11.2638
공동체	-11.2639
▁합류	-11.2642
▁조사하고	-11.2643
팬	-11.2643
▁방해	-11.2644
▁Child	-11.2644
face	-11.2645
▁pipe	-11.2646
▁김성	-11.2647
▁않다는	-11.2648
chun	-11.2648
▁guests	-11.265
▁studio	-11.2653
▁모으고	-11.2653
▁neighborhood	-11.2653
▁boom	-11.2653
▁expense	-11.2656
▁지난주	-11.2656
▁collective	-11.2657
▁게재	-11.2658
▁않을까	-11.2659
▁조합	-11.266
▁begins	-11.2665
▁성향	-11.2667
▁25%	-11.2669
▁subscription	-11.2669
▁명령	-11.267
ana	-11.2673
▁아프리카	-11.2676
▁출마	-11.2677
▁상관없	-11.2678
▁thick	-11.2678
▁위원으로	-11.2679
▁pursue	-11.2682
▁soup	-11.2684
눈	-11.2685
▁통증	-11.2686
▁북미정상회담	-11.2686
▁사람들을	-11.2687
▁너에게	-11.2687
BI	-11.2688
▁feet	-11.2693
profit	-11.2694
▁손상	-11.2694
▁valuable	-11.2694
▁Doosan	-11.2696
▁전화를	-11.2696
▁중학교	-11.2698
▁치매	-11.2698
▁극장	-11.27
▁담겼다	-11.2703
▁뮤지컬	-11.2703
▁freedom	-11.2703
▁없으면	-11.2706
▁servants	-11.2706
▁전역	-11.2707
made	-11.2709
▁Maritime	-11.2711
▁describe	-11.2719
▁대법관	-11.272
▁죄송하지만	-11.272
▁인사를	-11.2721
▁airline	-11.2723
gation	-11.2725
▁institutional	-11.2725
▁streets	-11.2726
▁답했다	-11.2733
▁정치권	-11.2733
▁박사	-11.2734
▁한미	-11.2735
▁fold	-11.2736
▁supplies	-11.2736
▁Buk	-11.2737
▁종사자	-11.2737
▁공인	-11.274
eum	-11.2741
▁시신	-11.2741
▁NC	-11.2743
▁정지	-11.2744
▁argument	-11.2744
▁presence	-11.2744
준다	-11.2747
휘	-11.2748
▁미중	-11.2749
▁석유	-11.2752
▁neglect	-11.2753
▁issuance	-11.2753
▁Play	-11.2755
▁proud	-11.2755
ER	-11.2757
환자	-11.2758
▁도와주	-11.276
▁이정	-11.2762
▁확충	-11.2763
▁공통	-11.2766
▁성능	-11.2769
▁포함하여	-11.2769
▁Ku	-11.2771
▁ill	-11.2774
▁검출	-11.2775
▁Card	-11.2779
분석	-11.2784
▁일이다	-11.2785
▁내용은	-11.2789
▁battery	-11.279
▁주관하는	-11.2792
▁intellectual	-11.2795
▁achievements	-11.2795
▁Sewol	-11.2795
▁텐데	-11.2796
▁자신감	-11.28
down	-11.28
▁aims	-11.2801
▁경로	-11.2801
▁파리	-11.2802
▁Open	-11.2805
▁떨어졌	-11.2812
▁crack	-11.2813
▁없기	-11.2813
합니까	-11.2813
▁골목	-11.2817
▁Galaxy	-11.282
▁depict	-11.282
▁employed	-11.282
▁momentum	-11.2823
▁잘못된	-11.2829
▁어려움이	-11.2831
▁refused	-11.2836
▁인터뷰에서	-11.2838
▁앉	-11.2838
▁과정이	-11.2844
▁Branch	-11.2845
캠퍼스	-11.2845
▁무엇이	-11.2846
▁boil	-11.285
▁routes	-11.2853
▁위험이	-11.2854
hal	-11.2856
▁emerge	-11.2858
▁최적	-11.2858
▁cited	-11.2862
▁비판이	-11.2862
▁계열사	-11.2863
▁서민	-11.2863
▁repeated	-11.2865
When	-11.2865
▁돌아오	-11.2866
▁시민단체	-11.2867
▁Competition	-11.2871
▁feasibility	-11.2871
기본계획	-11.2871
▁나아	-11.2875
▁keeping	-11.2879
▁absence	-11.2879
▁climb	-11.2879
▁이곳에	-11.288
▁Paris	-11.288
공급	-11.2881
▁총리가	-11.2881
▁아이를	-11.2882
▁상태로	-11.2882
▁제기됐다	-11.2883
야구	-11.2884
틸	-11.2887
▁livelihood	-11.2887
▁violating	-11.2887
▁오랫동안	-11.2887
▁특별히	-11.2888
▁성별	-11.2888
▁pork	-11.2888
▁금융당국	-11.2888
보수	-11.2893
▁『	-11.2894
▁invoice	-11.2896
▁회사에	-11.2901
▁assistant	-11.2902
▁matches	-11.2904
▁침체	-11.2907
대사관	-11.2909
▁격려	-11.291
▁53	-11.2911
▁collapsed	-11.2913
▁Amazon	-11.2913
▁highlight	-11.2914
▁자발적	-11.2918
▁2001	-11.2918
lli	-11.2921
▁maintaining	-11.2921
▁조사한	-11.2922
▁Jeonju	-11.2924
▁settled	-11.2924
▁수백	-11.2925
dia	-11.2927
54	-11.2927
▁muscle	-11.293
▁cells	-11.2932
▁간부	-11.2933
고등학교	-11.2933
▁Report	-11.2934
▁supposed	-11.2938
맑	-11.2938
▁selecting	-11.2939
플러스	-11.2939
▁장점이	-11.2942
▁배려	-11.2945
▁opposed	-11.2947
▁상환	-11.2947
▁thoroughly	-11.2947
숭	-11.2947
round	-11.2949
▁Next	-11.295
▁김현	-11.2951
▁peninsula	-11.2956
▁anymore	-11.2956
▁Post	-11.2956
▁adapt	-11.2956
del	-11.296
▁resulting	-11.296
▁Times	-11.2963
▁Investigation	-11.2964
▁magazine	-11.2964
▁supervisor	-11.2964
▁quiet	-11.2964
▁GS	-11.2964
▁factories	-11.2965
▁방향을	-11.2973
▁시행규칙	-11.2974
0.0	-11.2974
▁irr	-11.2978
▁formal	-11.2978
▁merit	-11.2978
▁대여	-11.2983
▁이곳에서	-11.2983
▁indoor	-11.2984
▁이번에는	-11.2984
▁때문이에요	-11.2985
▁크고	-11.2985
▁한계	-11.2986
▁단순히	-11.2987
해지는	-11.2988
▁교육청	-11.2988
▁displayed	-11.2989
턱	-11.299
▁심장	-11.299
▁willingness	-11.299
08	-11.2993
▁좋아요	-11.2995
▁solar	-11.2995
▁기온이	-11.2996
▁Up	-11.3
▁다루	-11.3002
▁지표	-11.3005
▁두산	-11.3006
▁Pastor	-11.3007
▁용도	-11.3007
dol	-11.301
▁주지	-11.3012
▁후속	-11.3012
▁한강	-11.3014
▁세력	-11.3015
▁최창식	-11.3015
▁화려한	-11.3016
▁연관	-11.3016
미터	-11.3018
▁의존	-11.3018
직한	-11.3024
7,000	-11.3024
▁필요할	-11.3026
▁부분에	-11.303
▁length	-11.3033
▁customs	-11.3034
▁bond	-11.3035
▁조용	-11.3036
▁지목	-11.3036
▁shortage	-11.304
▁Olympic	-11.304
▁동아리	-11.3041
matic	-11.3041
샤	-11.3044
▁closer	-11.3047
▁국가대표	-11.3049
▁inherit	-11.305
▁assist	-11.3058
▁strategies	-11.3059
▁verify	-11.3059
▁세미나	-11.3059
▁헤어	-11.306
▁sources	-11.3061
▁물러	-11.3062
Park	-11.3063
▁참여했다	-11.3066
▁투자자들	-11.3066
▁reverse	-11.3066
▁경위	-11.3067
▁출판	-11.3067
▁행위를	-11.3069
▁성실	-11.307
확인	-11.3072
▁거두	-11.3072
▁통행	-11.3075
▁벌인	-11.3075
▁공직	-11.3076
▁신임	-11.3077
사단	-11.3078
▁소속사	-11.3081
PR	-11.3081
당국	-11.3084
▁cheap	-11.3087
▁전문성	-11.3088
▁양식	-11.3089
▁화학	-11.3092
▁Gong	-11.3093
▁들려	-11.3095
▁만나는	-11.3096
▁hat	-11.3097
▁extinguish	-11.3102
▁열릴	-11.3102
▁이래	-11.3104
▁이내로	-11.3105
겸	-11.3107
▁면적	-11.3109
gh	-11.311
▁sauce	-11.311
▁manufacture	-11.3114
▁맞지	-11.3114
수요	-11.3115
▁Asiana	-11.3115
▁사항에	-11.3116
▁solved	-11.3117
▁Gwangjin	-11.3121
teen	-11.3122
▁FA	-11.3126
▁환자가	-11.3127
▁sufficient	-11.3128
▁carrier	-11.3128
▁마지막으로	-11.3129
발전소	-11.3129
협약	-11.313
▁김포	-11.3131
gging	-11.3133
▁Mike	-11.3133
렴	-11.3135
▁크리스마스	-11.3136
▁며칠	-11.3137
▁승부	-11.3138
▁청약	-11.3138
▁몸을	-11.3141
trust	-11.3143
▁사찰	-11.3144
▁Abe	-11.3145
▁내내	-11.3149
▁방영	-11.315
▁최신	-11.3153
▁Prize	-11.3154
▁relieve	-11.3154
복합	-11.3154
▁익숙	-11.3155
51	-11.3156
▁kilometers	-11.3163
▁본격화	-11.3165
▁enjoying	-11.3167
▁지원사업	-11.3168
▁subsidiary	-11.3171
▁veteran	-11.3171
▁휴대폰	-11.3171
▁earnings	-11.3172
▁Seon	-11.3172
▁늘어날	-11.3172
였지만	-11.3173
해진다	-11.3173
되었으며	-11.3174
시장에서	-11.3178
▁궁금증	-11.3178
더라	-11.3179
▁걸릴	-11.318
▁sensitive	-11.318
▁spicy	-11.318
유통	-11.3181
▁교통사고	-11.3181
depth	-11.3182
략	-11.3182
▁너를	-11.3183
▁항목	-11.3185
▁Awards	-11.3185
▁국무위원장이	-11.3186
▁구성원	-11.3187
▁나오지	-11.3188
▁harmony	-11.3189
▁부작용	-11.3189
My	-11.3193
▁이해관계	-11.3193
▁prospect	-11.3196
▁주석	-11.3196
DC	-11.3196
▁countermeasures	-11.3197
▁wh	-11.3197
▁백화점	-11.3197
연수	-11.3198
중인	-11.3199
▁exhibit	-11.32
▁honorary	-11.32
war	-11.3203
테크	-11.3204
▁있었는데	-11.3206
▁junior	-11.3206
▁준용한다	-11.3206
특례	-11.3208
▁poet	-11.3212
▁높이는	-11.3213
▁나타난	-11.3215
▁auditor	-11.3215
▁풍경	-11.3217
▁pieces	-11.3217
▁안정적인	-11.3221
투표	-11.3222
▁발생해	-11.3222
촬	-11.3224
▁Summit	-11.3224
▁garbage	-11.3224
▁folk	-11.3224
▁신발	-11.3224
▁Deok	-11.323
▁refugees	-11.3231
▁방치	-11.3231
급여	-11.3232
▁재발	-11.3234
▁집값	-11.3235
쁘	-11.3235
▁안전관리	-11.3236
▁증상	-11.3245
▁Out	-11.3246
▁아베	-11.3247
▁모인	-11.3253
▁역사적	-11.3255
▁과정에	-11.3255
▁유족	-11.3257
▁kill	-11.3257
▁시리즈	-11.3258
▁neck	-11.3259
▁판정	-11.3263
금지	-11.3264
▁cream	-11.3268
▁textbook	-11.3268
▁호와	-11.3268
▁aired	-11.3269
▁시공	-11.3272
itude	-11.3273
curr	-11.3275
▁코리아	-11.3276
▁incumbent	-11.3276
▁세월호	-11.3277
cept	-11.3277
▁Over	-11.3282
▁최초의	-11.3285
▁acquaintance	-11.3285
덩	-11.3285
▁startups	-11.3287
▁진행한	-11.3288
shaped	-11.329
▁배정	-11.329
▁주체	-11.3291
▁engineering	-11.3291
▁NH	-11.3294
탱	-11.3294
▁regarded	-11.3294
▁App	-11.3295
▁않는다는	-11.3295
▁학생들은	-11.3297
▁입금	-11.33
▁동참	-11.3301
▁hate	-11.3303
▁개통	-11.3303
퀴	-11.3303
▁worst	-11.3303
▁admitted	-11.3303
▁무대에	-11.3304
EU	-11.3306
▁mandatory	-11.3312
▁struggling	-11.3312
▁고용노동부	-11.3312
▁만들어진	-11.3314
▁명칭	-11.3317
▁근처에	-11.332
700	-11.3323
▁데이터를	-11.3327
IoT	-11.3327
▁designer	-11.3327
▁remind	-11.333
▁부채	-11.3332
▁세계에서	-11.3333
▁mention	-11.3333
▁만료	-11.3334
▁김종	-11.3335
▁위촉한다	-11.3336
▁Exhibition	-11.3338
▁drone	-11.3338
취약계층	-11.3338
▁hung	-11.3342
▁거치	-11.3344
▁Training	-11.3347
▁130	-11.335
하자는	-11.3352
Mo	-11.3356
▁생태	-11.3356
동맹	-11.3357
▁objective	-11.3359
▁Chae	-11.336
립니다	-11.3362
▁분석한	-11.3362
▁Conference	-11.3365
▁superior	-11.3365
▁발령	-11.3369
▁캠프	-11.3369
학자	-11.337
부지사	-11.3372
▁barrier	-11.3374
▁producing	-11.3375
배우	-11.3375
▁assaulted	-11.3375
▁튀	-11.3376
▁neighbors	-11.3378
분께	-11.338
▁arranged	-11.338
▁exit	-11.338
▁따르	-11.3382
▁Resources	-11.3383
▁bomb	-11.3384
▁목격	-11.3388
▁satisfied	-11.3392
▁저렴한	-11.3392
▁입장에서	-11.3396
▁마련했다	-11.3397
▁맛있는	-11.34
▁component	-11.3401
▁승용차	-11.3401
▁만족도	-11.3401
함과	-11.3403
▁provision	-11.3405
▁식물	-11.3407
▁Framework	-11.341
▁hometown	-11.341
개사	-11.341
▁Area	-11.341
▁꺾	-11.3411
▁광장	-11.3414
▁분명히	-11.3415
홀에서	-11.3418
▁dementia	-11.3419
▁입장이다	-11.3419
2017	-11.3422
▁sum	-11.3422
▁들어갔다	-11.3422
▁seriously	-11.3422
▁72	-11.3422
▁찍은	-11.3422
▁경기장	-11.3425
▁Club	-11.3427
▁controversial	-11.3427
▁swimming	-11.3427
▁timing	-11.3427
▁processed	-11.343
▁개성	-11.3432
▁argue	-11.3433
▁힘들어	-11.3433
CI	-11.3433
▁Her	-11.3434
▁덮	-11.3435
▁rebound	-11.3436
▁harmful	-11.3437
▁아마존	-11.3437
▁재활용	-11.3438
▁개최했다	-11.344
자문	-11.344
▁allowance	-11.3443
랙	-11.3445
▁Election	-11.3445
▁Tuesday	-11.3445
▁POSCO	-11.3445
기본법	-11.3454
퓨	-11.3454
▁보유하고	-11.3459
▁페스티벌	-11.3462
▁분노	-11.3464
▁듯한	-11.3464
켓	-11.3464
▁주말에	-11.3466
▁검사를	-11.3468
▁informed	-11.3468
gy	-11.347
▁기자들	-11.347
▁showcase	-11.3472
▁정규직	-11.3475
모델	-11.3475
방향	-11.3477
▁winners	-11.3477
쉽	-11.3477
▁한복	-11.3478
▁중점	-11.3478
▁없었던	-11.348
uch	-11.3481
▁clothing	-11.3481
▁음성	-11.3482
▁구청장의	-11.3483
▁동남아	-11.3488
비서관	-11.3489
▁somewhat	-11.349
▁critical	-11.3491
▁granted	-11.3492
▁무시	-11.3494
▁회의에	-11.3496
▁pitch	-11.3498
서류	-11.3498
▁마주	-11.3498
▁양측	-11.3498
▁deficit	-11.3499
릇	-11.3499
family	-11.3501
▁기업인	-11.3503
▁드론	-11.3504
▁전투	-11.3506
믹	-11.3508
▁줄어든	-11.3508
▁미팅	-11.3509
Chairman	-11.351
power	-11.3511
▁사라지	-11.3514
▁balanced	-11.3514
▁Account	-11.3517
▁lowered	-11.3518
▁간사는	-11.3519
▁좋겠어요	-11.3521
▁걸린	-11.3521
토록	-11.3523
▁limitations	-11.3526
▁Members	-11.3527
▁당직	-11.353
▁passion	-11.3533
통합	-11.3533
▁confident	-11.3535
▁Commerce	-11.3535
▁kitchen	-11.3535
▁어떠한	-11.3535
▁Theater	-11.3536
▁농산물	-11.3538
▁근처	-11.3539
▁부정적	-11.3541
▁냄새	-11.3544
썬	-11.3544
▁iron	-11.3545
▁Like	-11.3548
▁Chosun	-11.3552
▁미칠	-11.3552
▁확인했다	-11.3552
억원으로	-11.3552
▁precious	-11.3554
▁갤럭시	-11.3554
곱	-11.3554
▁유일한	-11.3559
▁expiration	-11.3563
▁statue	-11.3563
▁느꼈	-11.3563
▁본인이	-11.3563
▁어깨	-11.3564
▁Product	-11.3564
▁바이어	-11.3565
▁자사	-11.3567
▁imports	-11.3567
▁상당수	-11.3567
▁Enterprise	-11.3572
▁Uzbekistan	-11.3572
▁inauguration	-11.3572
공학	-11.3574
▁보여준다	-11.3577
▁tank	-11.3581
▁부분은	-11.3583
▁건너	-11.3589
맘	-11.359
▁tough	-11.3591
▁포럼	-11.3595
▁추모	-11.3598
▁단장	-11.3599
▁probably	-11.3599
▁fails	-11.3599
▁fighting	-11.36
▁Chungnam	-11.3602
▁Here	-11.3606
▁콩	-11.3606
Constitutional	-11.3607
▁boyfriend	-11.3608
▁luck	-11.3608
▁고성	-11.3609
콘텐츠	-11.3611
▁Kookmin	-11.3617
▁컸다	-11.3617
▁thorough	-11.3617
▁쇼핑몰	-11.3618
▁induce	-11.3618
▁전세	-11.3619
▁2.5	-11.362
▁계절	-11.3623
▁larger	-11.3625
▁Okay	-11.3627
▁진보	-11.363
▁빨	-11.3632
▁참가한	-11.3633
▁용기	-11.3634
▁건전	-11.3634
▁update	-11.3635
▁promising	-11.3635
▁태권도	-11.3635
▁Revolution	-11.3636
▁갖춰	-11.3636
▁소외	-11.3636
▁많아서	-11.3638
▁조각	-11.3638
▁Wang	-11.3644
곰	-11.3645
▁손해배상	-11.3645
▁risen	-11.3645
▁실적이	-11.3648
▁missed	-11.3649
aving	-11.3651
▁열기	-11.3651
▁원칙으로	-11.3651
▁piece	-11.3651
▁마세요	-11.3653
▁activist	-11.3654
▁진주	-11.3655
geo	-11.3655
▁skill	-11.3656
비율	-11.366
▁Jakarta	-11.3663
▁abundant	-11.3663
▁정규	-11.3663
▁angry	-11.3663
2,000	-11.3667
▁최근에는	-11.3667
▁Eui	-11.3668
▁키워	-11.367
▁appliance	-11.3672
▁bread	-11.3672
▁음주운전	-11.3672
박스	-11.3672
NE	-11.3674
election	-11.3675
▁shake	-11.3676
▁impression	-11.3681
▁salt	-11.3684
▁학술	-11.3685
▁insufficient	-11.369
▁최우수	-11.369
▁switch	-11.3691
▁조처	-11.3691
▁crash	-11.3691
▁percentage	-11.3692
▁나눔	-11.3693
▁불리	-11.3698
▁generated	-11.3699
▁Protection	-11.37
▁bodies	-11.37
▁immigrant	-11.37
▁utilizing	-11.37
정비	-11.3701
▁미사일	-11.3706
▁대외	-11.3707
봉사	-11.3708
▁helicopter	-11.3709
▁지닌	-11.3711
▁돌입	-11.3716
▁circles	-11.3718
부분	-11.3726
other	-11.3727
콤	-11.3727
▁증상이	-11.3728
▁broadcaster	-11.3729
▁insisted	-11.3731
▁대한항공	-11.3735
▁Judge	-11.3736
▁부장판사	-11.3736
▁그에게	-11.3738
Ju	-11.3739
▁일본에서	-11.374
▁창작	-11.374
ished	-11.374
▁내년에	-11.3741
▁posting	-11.3743
띠	-11.3746
▁충분	-11.3746
GDP	-11.3747
▁헬	-11.3748
▁지정된	-11.3748
▁정체	-11.3749
▁그렇다면	-11.375
벨트	-11.375
▁MC	-11.375
▁occupation	-11.3755
▁빅데이터	-11.3755
▁이뤄졌다	-11.3758
▁Test	-11.3759
ball	-11.3762
▁항공기	-11.3763
▁JTBC	-11.3764
궐	-11.3764
놓고	-11.3767
▁전파	-11.3771
bro	-11.3772
▁스웨덴	-11.3773
▁강점	-11.378
▁논문	-11.3781
▁판문점	-11.3783
▁Guro	-11.3783
▁curious	-11.3783
▁발효	-11.3788
▁particularly	-11.3789
▁anger	-11.3792
▁Pan	-11.3792
▁sitting	-11.3794
▁경찰청	-11.3794
▁발견된	-11.3797
▁리더	-11.3801
▁Black	-11.3801
▁테이블	-11.3801
Con	-11.3804
셋	-11.3811
▁partially	-11.3811
▁널리	-11.3811
▁slowdown	-11.3811
▁아침에	-11.3811
▁높게	-11.3811
criminat	-11.3811
▁떨어지는	-11.3816
▁친절	-11.3817
▁실시하고	-11.3817
▁주목을	-11.3818
▁vegetables	-11.3819
▁배상	-11.3827
▁확신	-11.3828
▁부스	-11.3829
▁일어난	-11.3829
▁탄력	-11.3829
▁joining	-11.3832
▁killing	-11.3833
였고	-11.3836
방지	-11.3838
▁Cooperative	-11.3838
▁officio	-11.3838
▁트렌드	-11.3838
▁Mac	-11.3839
▁치러	-11.3844
▁championship	-11.3848
▁요청했다	-11.3852
▁고양	-11.3854
▁delegation	-11.3857
▁소년	-11.3862
▁매달	-11.3862
▁Environmental	-11.3862
▁농도	-11.3864
▁매월	-11.3867
▁매매	-11.3872
▁indicators	-11.3872
줘서	-11.3873
kyun	-11.3875
▁exactly	-11.3875
▁contain	-11.3876
▁신용카드	-11.3876
▁관람객	-11.3877
▁입시	-11.388
▁금액을	-11.3881
▁survive	-11.3885
▁시상식	-11.3885
친화	-11.3886
▁Jeonnam	-11.3887
▁파업	-11.3888
▁세계적으로	-11.389
▁위촉직	-11.3891
▁Consumer	-11.3895
▁영업이익	-11.3895
▁manpower	-11.3896
▁pool	-11.3899
▁과일	-11.3901
▁지원하기	-11.3903
▁literature	-11.3904
▁preservation	-11.3904
▁LED	-11.3905
요양	-11.3906
RE	-11.3909
정치	-11.391
▁맡고	-11.3913
▁소규모	-11.3916
▁당연	-11.3917
▁effectively	-11.3918
▁좌석	-11.3918
▁젊은이들	-11.3919
▁반박	-11.3919
▁신중	-11.3921
▁보험료	-11.3922
▁guardian	-11.3924
▁GM	-11.3925
▁자원봉사	-11.3927
▁부착	-11.3928
▁조항	-11.3931
랭	-11.3932
▁네티즌	-11.3932
▁크리스	-11.3933
▁않아서	-11.3935
▁sexually	-11.3938
▁possess	-11.3942
▁퍼포먼스	-11.3942
▁당분간	-11.3942
▁denied	-11.3942
gram	-11.3943
▁집으로	-11.3946
라이트	-11.3947
▁관여	-11.3947
▁fix	-11.3947
▁내놓은	-11.3949
▁인공	-11.3951
▁포스코	-11.3952
▁dominate	-11.3954
대장	-11.3955
▁cycle	-11.3956
▁earned	-11.3958
▁경찰관	-11.3959
▁Sta	-11.396
▁송금	-11.396
▁collaboration	-11.396
▁flavor	-11.396
▁reinforce	-11.396
슛	-11.396
▁danger	-11.3961
▁colonial	-11.3961
▁이사회	-11.3962
▁funding	-11.3963
▁tap	-11.3967
▁천연	-11.3967
▁constantly	-11.3967
school	-11.3968
농구	-11.3973
▁Book	-11.3975
▁membership	-11.3976
▁높았다	-11.3977
재활	-11.3979
▁variable	-11.3979
▁대중교통	-11.398
▁방안이	-11.3982
▁소수	-11.3983
땀	-11.3989
▁Italy	-11.399
▁쌍	-11.399
▁엔진	-11.399
어린이	-11.399
▁무려	-11.3991
▁치열한	-11.3992
▁인천시	-11.3993
▁닭	-11.3995
▁저번	-11.3997
President	-11.3997
▁Uijeongbu	-11.3998
▁자카르타	-11.3998
▁girlfriend	-11.3998
▁stayed	-11.4003
Go	-11.4007
▁west	-11.4008
▁excluding	-11.4008
▁Indian	-11.4008
주차장	-11.4009
▁넘치는	-11.401
▁즐기는	-11.4011
▁도중	-11.4015
▁assess	-11.4015
삼성	-11.4017
▁Gimpo	-11.4017
▁disorder	-11.4017
▁독특한	-11.4017
▁Airlines	-11.4017
▁stamp	-11.4017
▁tuition	-11.4017
▁preference	-11.4018
▁assistance	-11.4018
▁사유로	-11.4024
▁참가자	-11.4024
▁alliance	-11.4027
자들을	-11.4028
proof	-11.4028
▁KTX	-11.4028
▁가리	-11.4029
▁sand	-11.4029
▁전액	-11.403
화학	-11.4031
▁빌려	-11.4032
▁absolute	-11.4036
▁지원대상	-11.4037
▁급여	-11.4038
▁지어	-11.4041
ama	-11.4046
결제	-11.4046
▁Lunar	-11.4046
come	-11.4046
▁의정부	-11.4049
▁비교해	-11.405
▁고시	-11.4051
대학원	-11.4051
▁한계가	-11.4051
권자	-11.4052
chu	-11.4053
▁carbon	-11.4057
▁상무	-11.4059
▁pill	-11.4064
▁calculation	-11.4065
▁금메달	-11.4065
▁뒷받침	-11.4065
▁glad	-11.4065
▁훌륭한	-11.4065
의약품	-11.4065
▁intended	-11.4067
▁통보하여야	-11.4069
▁당해	-11.4074
▁ambassador	-11.4074
▁Given	-11.4076
▁성사	-11.4077
▁manual	-11.4078
▁닿	-11.4084
▁Major	-11.4084
▁citing	-11.4084
▁reviewing	-11.4084
▁제시한	-11.4085
▁일어났	-11.4086
▁생각하고	-11.4087
▁founder	-11.4089
▁실질적인	-11.409
▁temporarily	-11.4093
▁자영업자	-11.4093
▁subscribers	-11.4094
▁곳곳에	-11.4096
▁교육과정	-11.41
학회	-11.4102
▁tenant	-11.4103
▁abnormal	-11.4103
쏘	-11.4103
▁곧바로	-11.4103
▁assigned	-11.4103
▁배당	-11.4103
▁1970	-11.4104
▁감성	-11.4108
▁전통시장	-11.4109
▁systematic	-11.4112
▁업데이트	-11.4113
▁correction	-11.4114
▁선생	-11.4114
j	-11.4115
▁중동	-11.4115
die	-11.4122
▁Winter	-11.4124
▁격차	-11.4124
▁연구개발	-11.413
정원	-11.4132
▁exhaust	-11.4132
협동조합	-11.4132
▁expressing	-11.4137
SI	-11.4139
▁접속	-11.414
▁법원행정처	-11.4141
▁택배	-11.4141
fighting	-11.4144
▁artistic	-11.4144
▁적합	-11.4146
음식	-11.4146
▁말아	-11.4147
ional	-11.4148
▁융합	-11.4151
▁ministries	-11.4151
녕	-11.4151
▁심지어	-11.4151
▁음식점	-11.4151
버린	-11.4152
놓은	-11.4155
▁위축	-11.4159
ibility	-11.416
▁answered	-11.416
▁국무총리	-11.4161
▁색깔	-11.4161
▁대구시	-11.4166
끼리	-11.4166
▁separated	-11.417
▁Coast	-11.417
수단	-11.417
▁당연직	-11.4172
▁Tri	-11.4172
▁passage	-11.4174
▁Contest	-11.418
▁ferry	-11.418
now	-11.418
▁disposition	-11.418
광장	-11.4181
▁업체들	-11.4181
▁하나님의	-11.4182
▁가질	-11.4182
▁VR	-11.4183
▁싶지	-11.4186
▁누적	-11.4188
fledged	-11.419
▁모니터링	-11.419
▁영수증	-11.419
▁signature	-11.419
교육감	-11.4191
▁considerable	-11.4194
▁다르게	-11.4197
▁Tu	-11.4197
명령	-11.4197
▁Tra	-11.4198
▁시작됐다	-11.4198
▁fostering	-11.42
▁소방당국	-11.42
▁arise	-11.42
▁sixth	-11.4201
new	-11.4202
▁Will	-11.4206
▁허리	-11.4207
대비	-11.4208
▁과학기술	-11.4208
▁박스	-11.4212
▁조례에서	-11.4214
▁shoulder	-11.4216
▁convene	-11.4221
기반	-11.4223
▁reflecting	-11.4227
▁드러내	-11.4232
▁faced	-11.4236
계열	-11.4236
▁펴	-11.4236
칩	-11.4238
▁expire	-11.4238
▁탑재	-11.4238
▁toilet	-11.4239
▁stronger	-11.424
하였으며	-11.4241
▁가계	-11.4241
총장	-11.4241
씨에게	-11.4243
▁hire	-11.4245
찾	-11.4248
▁획득	-11.4248
▁구미	-11.4248
government	-11.425
▁진학	-11.425
▁차질	-11.4254
▁예외	-11.4258
▁상승세	-11.4258
잠	-11.4259
▁secondary	-11.426
융	-11.426
▁academy	-11.4267
▁typical	-11.4267
▁cable	-11.4268
▁cutting	-11.4273
▁emotions	-11.4274
▁인정되는	-11.4274
▁촉구했다	-11.4275
▁모른다	-11.4277
hyuk	-11.4278
General	-11.428
이라서	-11.428
▁창조	-11.4281
07	-11.4283
▁입찰	-11.4284
▁붕괴	-11.4287
▁beef	-11.4287
뱅크	-11.4287
▁되길	-11.4288
▁belt	-11.4288
▁청소년들	-11.4289
픈	-11.4291
▁형태의	-11.4292
▁벌이고	-11.4292
▁server	-11.4294
▁않겠다	-11.4295
▁otherwise	-11.4296
▁담당하는	-11.43
▁대량	-11.4301
사람	-11.4302
▁쉬운	-11.4302
▁수행할	-11.4304
▁거라	-11.4306
▁Building	-11.4306
드루킹	-11.4306
▁없는데	-11.4307
▁퇴근	-11.4309
▁Gangdong	-11.431
▁월드	-11.4311
▁유사	-11.4313
▁차트	-11.4314
ounce	-11.4314
▁귀사	-11.4316
▁mix	-11.4319
▁소지	-11.4321
▁Africa	-11.4321
▁observe	-11.4323
pharmaceutical	-11.4326
▁Except	-11.4326
▁종종	-11.433
무늬	-11.433
ryong	-11.4332
▁적절	-11.4332
▁commander	-11.4333
▁settle	-11.4333
▁느끼는	-11.4335
▁easing	-11.4336
▁Hello	-11.4336
▁breaking	-11.4337
gyo	-11.4339
▁달라고	-11.434
▁불확실성	-11.4345
▁체납	-11.4347
▁interpretation	-11.4347
public	-11.4348
▁sponsor	-11.4348
▁입국	-11.4349
유공자	-11.435
▁언제나	-11.4351
▁발견됐다	-11.4351
▁Ten	-11.4354
윗	-11.4355
▁execute	-11.4355
▁wealth	-11.4355
▁sustainable	-11.4356
▁suspend	-11.4358
▁Heavy	-11.4365
▁행정안전부	-11.4365
▁음주	-11.4366
자마자	-11.4366
라이프	-11.4367
▁경기도내	-11.4367
7%)	-11.4367
▁특화	-11.4368
▁점포	-11.4368
▁discharge	-11.4372
▁weapon	-11.4381
▁1998	-11.439
▁광진구	-11.4392
▁체감	-11.4393
▁느낌이	-11.4394
▁틈	-11.4399
▁noodles	-11.4401
▁일반인	-11.4402
▁아니지만	-11.4402
▁규모로	-11.4402
▁해체	-11.4403
▁obligation	-11.4404
▁쏠리고	-11.4404
▁이곳은	-11.4404
▁흔적	-11.4405
천만원	-11.4409
rise	-11.4414
킴	-11.4414
▁concrete	-11.4414
▁revive	-11.4414
▁재생	-11.4414
▁요건	-11.4415
▁진행했다	-11.4417
▁여겨	-11.4418
rance	-11.4419
▁expectation	-11.4421
▁analyzing	-11.4424
▁deceased	-11.4424
▁어려웠	-11.4424
▁성경	-11.4424
▁Lake	-11.4426
▁조화	-11.4429
▁받았습니다	-11.4431
▁엄청난	-11.4434
▁Meeting	-11.4434
mount	-11.4438
▁restricted	-11.4438
올림픽	-11.4439
▁Daewoo	-11.4442
▁impressive	-11.4444
▁뷰티	-11.4444
▁Gyeongju	-11.4446
graphic	-11.4451
▁Byeong	-11.4455
▁아쉽	-11.4456
▁violated	-11.4456
▁heating	-11.4457
▁motor	-11.4457
timate	-11.4457
▁boss	-11.4459
유치원	-11.446
운반	-11.446
청년	-11.446
캠프	-11.4461
▁delete	-11.4461
▁observation	-11.4464
▁recession	-11.4464
▁western	-11.4464
▁강아지	-11.4464
▁김용	-11.4468
▁높이기	-11.4468
▁빠졌	-11.447
▁많습니다	-11.447
▁예배	-11.4472
▁논리	-11.4472
▁대장	-11.4472
▁팀장	-11.4472
▁Transportation	-11.4473
▁추적	-11.4474
덴	-11.4474
펠	-11.4474
▁증언	-11.4479
▁실질적	-11.4481
▁Library	-11.4484
▁분들	-11.4486
▁colorful	-11.4486
city	-11.449
▁abandoned	-11.4492
보좌관	-11.4493
▁taxpayer	-11.4494
▁레스토랑	-11.4494
▁Great	-11.4494
▁아예	-11.4494
▁cargo	-11.4495
TS	-11.4497
▁entrepreneur	-11.4498
▁차세대	-11.4499
▁Egypt	-11.4503
▁오면	-11.4504
▁summon	-11.4504
▁crowd	-11.4506
▁안심	-11.4508
▁조달	-11.4508
▁순서	-11.4509
▁인형	-11.4515
시쯤	-11.4517
▁어렵다는	-11.4521
▁reviewed	-11.4525
▁멀리	-11.4526
▁끌었다	-11.4526
PI	-11.4528
▁Sim	-11.453
▁surprise	-11.4531
▁Woori	-11.4531
▁인적	-11.4531
▁다섯	-11.4536
▁팝	-11.4536
▁Brexit	-11.4543
▁Period	-11.4543
▁설명회	-11.4545
▁뭔가	-11.4545
▁근육	-11.4545
▁뇌물	-11.4547
▁지켜보	-11.4547
not	-11.455
뚝	-11.4553
▁돌봄	-11.4554
▁말까지	-11.4558
리얼	-11.4559
°	-11.4563
▁대다수	-11.4565
▁어린이들	-11.4566
beom	-11.4569
▁문구	-11.4571
▁Shanghai	-11.4573
▁guilty	-11.4573
▁빵	-11.4577
▁인정할	-11.4581
▁Jinju	-11.4581
▁Myanmar	-11.4584
▁margin	-11.4584
▁London	-11.4584
▁신제품	-11.4584
▁대피	-11.4585
▁이미지를	-11.4588
▁사업이다	-11.4588
▁유아	-11.459
▁듣는	-11.4591
▁유학	-11.4594
수익	-11.4595
▁실시하는	-11.4597
ivity	-11.4597
8%)	-11.4598
되지만	-11.4599
▁기분	-11.46
▁자회사	-11.4602
▁stipulat	-11.4604
▁믿음	-11.4605
▁calculated	-11.461
▁수렴	-11.4613
▁tariff	-11.4613
▁함은	-11.4614
▁국무장관	-11.4614
렛	-11.4614
▁나타내	-11.4614
▁boast	-11.4624
▁democracy	-11.4624
▁tradition	-11.4625
▁Gov	-11.4626
▁유망	-11.4627
▁Doo	-11.463
▁violate	-11.4631
▁compensate	-11.4634
▁pace	-11.4634
▁wound	-11.4635
▁PD	-11.4635
▁고장	-11.4638
▁achievement	-11.4639
부처	-11.4641
▁선배	-11.4642
경쟁	-11.4643
Un	-11.4643
▁종전선언	-11.4644
Me	-11.4644
▁주시	-11.4645
▁성명	-11.4646
▁매수	-11.4647
▁objection	-11.4648
▁생길	-11.4648
▁dealing	-11.4649
▁피곤	-11.465
▁Sol	-11.4651
잎	-11.4654
▁도서	-11.4654
self	-11.4656
▁흥행	-11.4659
▁기차	-11.466
GB	-11.466
Japan	-11.4662
▁Property	-11.4664
▁선진국	-11.4664
▁intense	-11.4664
▁둘째	-11.4665
▁회수	-11.4668
▁최악	-11.4671
▁revise	-11.4672
넌	-11.4674
commerce	-11.4674
▁furniture	-11.4674
▁Yeosu	-11.4677
▁Win	-11.4677
▁감각	-11.4677
▁speculation	-11.4678
위험	-11.4678
▁창립	-11.4681
▁솔루션	-11.4684
Ho	-11.4685
▁끝나고	-11.4685
▁너무나	-11.4686
▁destroy	-11.4688
▁근로시간	-11.4688
▁회사에서	-11.4689
▁공적	-11.4689
▁재직	-11.4692
6%)	-11.4692
OT	-11.4694
▁Private	-11.4695
▁revitalization	-11.4695
▁클라우드	-11.4695
뚫	-11.4695
▁pending	-11.4696
▁관악구	-11.4696
▁booked	-11.4696
▁웹	-11.4696
high	-11.4696
▁affiliates	-11.4697
▁logic	-11.4698
gyeong	-11.47
▁commit	-11.4701
규칙	-11.4702
▁조회	-11.4703
▁relocation	-11.4705
▁미얀마	-11.4705
Li	-11.4705
▁계속해서	-11.4708
▁취급	-11.4709
▁무죄	-11.4709
하나요	-11.4709
▁적합한	-11.4712
EX	-11.4712
▁출국	-11.4713
▁알리는	-11.4714
▁childbirth	-11.4715
▁보건복지부	-11.4715
▁제외하고는	-11.4715
▁disrupt	-11.4715
ura	-11.4716
▁그날	-11.4717
▁가해자	-11.4717
앞으로	-11.4717
▁가공	-11.4719
fect	-11.4722
▁주최하고	-11.4722
▁England	-11.4725
냅	-11.4725
▁terminal	-11.4725
▁wood	-11.4726
▁조리	-11.4728
▁정보통신	-11.4728
역사	-11.4729
▁달아	-11.4733
▁해안	-11.4734
▁tall	-11.4734
▁편집	-11.4736
▁늘어나고	-11.4738
▁환율	-11.4741
▁Media	-11.4742
▁Football	-11.4746
▁Plaza	-11.4746
천여	-11.4746
OECD	-11.4746
▁dispatch	-11.4749
KO	-11.4751
▁shortly	-11.4751
▁contained	-11.4754
▁uncertain	-11.4755
▁Heo	-11.4756
▁Persons	-11.4756
▁끈다	-11.4756
▁titled	-11.4758
민원	-11.476
▁Establishment	-11.4766
▁Drug	-11.4767
▁예산안	-11.4773
▁전직	-11.4773
▁곳곳에서	-11.4774
month	-11.4774
▁conv	-11.4775
딘	-11.4776
▁밖으로	-11.4776
▁객실	-11.4777
▁아니고	-11.4777
▁Iranian	-11.4778
▁원전	-11.4781
▁모았다	-11.4782
투어	-11.4785
삭	-11.4786
▁Jeonbuk	-11.4787
▁은퇴	-11.4788
▁파괴	-11.4788
▁overlap	-11.4793
▁알아보	-11.4795
▁지수	-11.4796
태평양	-11.4797
▁entity	-11.4797
▁관광객들	-11.48
▁고유	-11.48
▁살리	-11.4803
Presidential	-11.4803
▁지도부	-11.4805
몸	-11.4805
Japanese	-11.4807
엉	-11.4807
▁software	-11.4807
TC	-11.4807
▁당연히	-11.481
▁방어	-11.4815
▁무관	-11.4816
▁야간	-11.4817
▁성남	-11.4817
▁frame	-11.4817
▁이뤄지지	-11.4818
에겐	-11.4819
▁운영한다	-11.4819
▁Prosecutor	-11.4819
▁치킨	-11.4819
Pro	-11.4821
▁equality	-11.4821
▁현지인들	-11.4822
공유	-11.4823
▁promotional	-11.4826
▁supplier	-11.4828
▁solving	-11.4828
월말	-11.4828
▁태양광	-11.4828
한국시간	-11.483
▁전후	-11.4832
▁attractive	-11.4832
▁높여	-11.4834
▁급등	-11.4834
▁marked	-11.4834
▁notification	-11.4837
▁equity	-11.4838
▁psychological	-11.4838
▁restructuring	-11.4838
성평등	-11.4838
▁crew	-11.4839
shirt	-11.484
▁alley	-11.4841
▁취재	-11.4842
▁마포구	-11.4843
▁미소	-11.4848
management	-11.4849
▁spoke	-11.4849
▁마찬가지로	-11.4853
▁실업	-11.4855
▁Vo	-11.4855
▁pad	-11.4857
▁monetary	-11.4858
▁nursing	-11.4858
▁opposite	-11.4858
긍	-11.4858
▁metal	-11.486
▁살펴	-11.4861
finding	-11.4862
mission	-11.4866
국장은	-11.4867
▁대체로	-11.4868
▁노하우	-11.4869
UAE	-11.4869
▁갖추고	-11.4874
▁테러	-11.4876
▁공연장	-11.4876
▁coal	-11.4876
▁금융기관	-11.4878
▁scenery	-11.4878
넥	-11.4879
▁Lawmaker	-11.4879
▁cute	-11.488
▁아우	-11.4881
▁고조	-11.4884
▁talented	-11.4885
밖	-11.4887
▁초점	-11.4888
▁Championship	-11.4889
▁저소득층	-11.4889
▁남쪽	-11.4891
졌지만	-11.4892
▁characterized	-11.4893
▁모범	-11.4894
▁몰아	-11.4894
▁발생하지	-11.4895
▁위탁할	-11.4896
▁desk	-11.4896
▁greeting	-11.4897
▁supporters	-11.49
▁Gumi	-11.4903
▁churches	-11.4908
▁‘2019	-11.491
▁모자	-11.4913
▁관광지	-11.4918
▁colleague	-11.4921
▁dividend	-11.4922
▁harm	-11.4927
▁못한다	-11.4928
▁emphasize	-11.4929
▁brief	-11.4931
쏠	-11.4931
▁사립유치원	-11.4931
굿	-11.4931
▁고문	-11.4935
드리고	-11.4939
져서	-11.4944
▁비싸	-11.4946
▁crowded	-11.4949
▁claiming	-11.495
0%)	-11.4951
샘	-11.4952
▁fault	-11.4952
▁조현	-11.4952
▁hub	-11.4953
Since	-11.4954
▁dismissal	-11.4955
▁publication	-11.4956
burg	-11.4957
▁애초	-11.4959
▁사퇴	-11.496
터미널	-11.4962
▁illness	-11.4963
헤	-11.4964
▁Officer	-11.4965
광역시	-11.4971
▁Prevention	-11.4973
▁송파구	-11.4974
PC	-11.4976
▁sponsored	-11.498
▁사람으로	-11.4982
▁shoot	-11.4983
▁Expressway	-11.4983
general	-11.4985
▁resource	-11.4987
▁1999	-11.499
▁평창	-11.499
▁confusion	-11.4994
▁utilization	-11.4994
▁느낀	-11.4994
▁일환으로	-11.4994
▁미니	-11.4995
▁reference	-11.4995
▁귀국	-11.4996
위기	-11.4998
▁법관	-11.4998
▁요구했다	-11.5
▁포상	-11.5001
▁Dongdaemun	-11.5004
chairperson	-11.5007
▁않았던	-11.5008
경비	-11.5008
Mi	-11.5009
▁corresponding	-11.5011
빌딩	-11.5011
▁everyday	-11.5011
▁브렉시트	-11.5015
Je	-11.5016
케어	-11.5017
▁관찰	-11.5019
▁firefighter	-11.5025
앓	-11.5025
▁납품	-11.5025
▁helpful	-11.5026
▁Thai	-11.5026
주십시오	-11.5032
하라는	-11.5035
▁patrol	-11.5036
▁pregnant	-11.5036
▁끊임없	-11.5036
렁	-11.5036
▁쾌적	-11.5036
▁탄핵	-11.5036
▁부위	-11.5042
▁Ambassador	-11.5046
▁동대문	-11.5046
▁mag	-11.5047
임대주택	-11.5049
▁hired	-11.505
델	-11.5052
뒀	-11.5057
▁extraordinary	-11.5057
▁stomach	-11.5057
▁valid	-11.5057
▁흐르	-11.506
▁떠난	-11.5061
▁Spanish	-11.5067
▁conglomerate	-11.5067
▁stabilize	-11.5067
▁떠오르	-11.5067
▁FSS	-11.5067
▁국토	-11.5067
▁조금씩	-11.507
교수	-11.507
겐	-11.5076
▁distinguish	-11.5078
▁nervous	-11.5078
▁가기	-11.5079
▁홈런	-11.5079
Act	-11.508
포트	-11.5084
cover	-11.5086
▁Camp	-11.509
▁서버	-11.509
▁20,000	-11.5091
▁대결	-11.5092
▁살펴보면	-11.5096
▁기온	-11.5098
▁몇몇	-11.5099
▁makeup	-11.5099
▁Panmunjom	-11.5109
▁grandmother	-11.5109
▁trail	-11.5111
▁지원금	-11.5112
▁사회적경제	-11.5113
▁박수	-11.5114
진단	-11.5115
▁nor	-11.5117
촉진	-11.5117
pass	-11.5119
▁curiosity	-11.512
▁belief	-11.512
▁든다	-11.512
▁Authority	-11.512
Although	-11.5124
▁정보화	-11.5124
▁수익률	-11.5126
Ba	-11.5127
▁실장	-11.513
▁confrontation	-11.5131
▁homepage	-11.5131
▁unemployment	-11.5132
▁Bible	-11.5133
었으며	-11.5134
▁변수	-11.5135
▁밀집	-11.5136
취업	-11.5138
▁attorney	-11.5141
▁worship	-11.5141
▁sensor	-11.5141
▁가입자	-11.5143
wol	-11.5143
바이오	-11.5143
▁Game	-11.5145
▁감상	-11.5145
▁보면서	-11.5145
▁fever	-11.5147
▁어른	-11.5148
▁북쪽	-11.5148
▁charging	-11.5152
▁ignore	-11.5152
▁speaking	-11.5155
▁jump	-11.5156
▁집계	-11.516
▁acquired	-11.5161
▁침대	-11.5161
▁아름답	-11.5162
▁complain	-11.5163
▁Chungcheongnam	-11.5164
▁구청	-11.5166
▁나한테	-11.5172
▁공중	-11.5173
▁Above	-11.5173
▁apology	-11.5173
ella	-11.5174
▁Hang	-11.5176
▁수상자	-11.5177
▁연임	-11.5179
▁결정했다	-11.5184
▁Instead	-11.5184
▁커질	-11.5186
▁sat	-11.5186
▁smaller	-11.5189
타워	-11.5193
▁요구할	-11.5193
▁Democracy	-11.5194
▁excited	-11.5194
▁spark	-11.5195
GA	-11.5195
▁Reform	-11.5198
드라	-11.5198
▁소형	-11.5201
대응	-11.5206
벤처기업	-11.5207
▁constructed	-11.521
흐	-11.5211
▁확실히	-11.5211
▁160	-11.5213
box	-11.5213
depend	-11.5215
▁legislative	-11.5216
목적	-11.522
▁빠르	-11.5221
▁감축	-11.5224
▁distribute	-11.5224
▁fabric	-11.5227
▁renewable	-11.5227
으니까	-11.5233
▁만화	-11.5236
▁도시재생	-11.5237
▁농민	-11.5238
▁항공사	-11.5238
▁reconstruction	-11.5239
므	-11.524
으므로	-11.5241
▁연설	-11.5241
었기	-11.5243
▁금연	-11.5246
▁pride	-11.5248
▁곁	-11.525
국회	-11.525
▁체력	-11.5251
hong	-11.5259
▁런던	-11.5259
▁임용	-11.5259
▁wooden	-11.5261
운용	-11.5265
▁소환	-11.5269
▁소프트웨어	-11.5269
▁과도한	-11.527
▁군인	-11.527
▁그걸	-11.5271
▁math	-11.5272
▁button	-11.5273
▁SM	-11.5274
▁관장	-11.5275
▁rear	-11.5277
▁좌우	-11.5278
렀	-11.5278
플레이	-11.5287
큰	-11.5287
▁있었어요	-11.5289
▁prayer	-11.529
▁이집트	-11.5291
▁열려	-11.5295
▁organic	-11.5295
뢰	-11.5297
▁resort	-11.5302
폼	-11.5302
▁카카오톡	-11.5302
▁남겨	-11.5307
▁인하여	-11.5308
▁방학	-11.531
ranking	-11.5312
댄	-11.5312
▁꼽힌다	-11.5313
▁자율주행	-11.5313
▁Techno	-11.5313
▁partnership	-11.5314
band	-11.5318
▁청년들	-11.532
▁디자이너	-11.5323
▁classroom	-11.5325
우스	-11.5326
minute	-11.5333
▁오류	-11.5333
▁농협	-11.5334
▁equivalent	-11.5334
▁rehabilitation	-11.5334
▁한때	-11.5335
▁virtual	-11.5336
view	-11.5337
▁정상화	-11.5341
▁병역	-11.5344
▁비정규직	-11.5345
▁동장	-11.5345
▁메인	-11.5346
LC	-11.5352
hang	-11.5354
▁사후	-11.5356
▁판매량	-11.5358
▁가능하며	-11.5359
▁clinic	-11.5361
▁worsen	-11.5364
▁소중한	-11.5367
조합	-11.537
▁Official	-11.5376
▁phrase	-11.5378
비아	-11.5382
▁50,000	-11.5384
▁bone	-11.5387
▁Farm	-11.5389
▁existence	-11.539
▁moral	-11.5393
▁advisory	-11.5394
렸던	-11.5394
▁차원의	-11.5395
▁남자친구	-11.5399
▁특유의	-11.54
cker	-11.54
▁진정한	-11.5403
▁높고	-11.5404
집행	-11.5404
▁세탁	-11.5404
story	-11.5405
▁graduation	-11.541
▁스크린	-11.541
▁몰리	-11.5412
▁Actress	-11.5415
▁직장인	-11.5418
▁정치인	-11.5418
▁부득이	-11.5421
▁Dal	-11.5424
▁자격증	-11.5428
▁김민	-11.543
iff	-11.5432
▁Network	-11.5432
▁installing	-11.5433
▁여수	-11.544
뇌	-11.544
▁불량	-11.5441
▁hitting	-11.5442
▁해군	-11.5442
▁sleeping	-11.5442
▁Yeongdeungpo	-11.5443
▁우즈베키스탄	-11.5443
▁일으키	-11.5443
▁크지	-11.5443
했으면	-11.5444
▁warned	-11.5445
▁주행	-11.5446
개발사업	-11.5446
▁Agreement	-11.5454
▁departure	-11.5454
▁윤리	-11.5457
▁Daily	-11.546
▁걸그룹	-11.546
▁Anyang	-11.5463
▁native	-11.5465
▁돼지	-11.5467
▁내외	-11.5469
Bu	-11.547
▁버전	-11.5471
▁succession	-11.5471
▁guaranteed	-11.5476
▁언급한	-11.5476
▁무산	-11.5476
▁또다시	-11.5476
▁어울리	-11.5476
렸고	-11.5476
▁초래	-11.5478
▁일각에서	-11.5479
▁critic	-11.5483
수시로	-11.5487
▁iPhone	-11.5487
▁sweat	-11.5487
▁즉각	-11.5489
스럽게	-11.5492
▁attempted	-11.5492
▁detention	-11.5498
▁여자친구	-11.5498
▁chain	-11.5498
▁부각	-11.5498
▁그랬	-11.5499
▁friendship	-11.5501
▁realistic	-11.5501
▁Gen	-11.5505
▁cheering	-11.5508
▁Budget	-11.5509
긋	-11.5509
▁비영리	-11.5509
▁컬러	-11.5509
plication	-11.5512
▁adjusted	-11.5512
▁투기	-11.5514
▁강좌	-11.5515
▁suggestion	-11.5515
BO	-11.5518
▁무용	-11.5518
▁드러냈다	-11.552
▁와인	-11.5521
▁unknown	-11.5522
▁안전성	-11.5522
근로자	-11.5522
▁지위	-11.5523
▁리스크	-11.5523
▁기여할	-11.5526
홈	-11.553
▁Confederation	-11.5531
▁basketball	-11.5531
▁Cheol	-11.5534
itch	-11.5538
▁산책	-11.554
권역	-11.5541
▁대답	-11.5541
짚	-11.5542
책임자	-11.5543
▁passport	-11.5544
▁임상	-11.5544
▁마스크	-11.5548
▁거세	-11.555
▁부족하다	-11.555
박람회	-11.5552
▁circle	-11.5554
▁2030	-11.5558
▁유연	-11.5563
▁judiciary	-11.5564
▁없애	-11.5568
개월간	-11.5571
▁bathroom	-11.5575
▁조율	-11.5576
▁대해선	-11.5579
▁집안	-11.5582
▁세입	-11.5583
▁complicated	-11.5586
▁survival	-11.5586
▁activate	-11.5587
▁세운	-11.5588
▁Review	-11.5588
▁$1	-11.5595
▁사실이다	-11.5597
▁Inspection	-11.5598
▁breakfast	-11.5598
▁Hanjin	-11.5599
▁stepped	-11.5599
▁specialist	-11.5599
▁하천	-11.5603
만달러	-11.5606
▁Christ	-11.5608
탐	-11.5608
▁Meanwhile	-11.5609
governing	-11.5609
▁효율성	-11.5611
▁비싼	-11.5611
▁1997	-11.5614
▁넘어서	-11.5614
▁swing	-11.5615
▁propose	-11.5621
▁작곡	-11.5623
킥	-11.5631
▁가사	-11.5632
▁immediate	-11.5633
▁poem	-11.5634
EN	-11.5636
ED	-11.5637
▁응시	-11.5637
09	-11.5638
특위	-11.5639
0.1	-11.5641
▁Celsius	-11.5642
▁aggressive	-11.5642
찾아가는	-11.5643
▁anywhere	-11.5644
▁가져다	-11.5644
▁기무사	-11.5646
▁Mongolia	-11.5648
▁최소한	-11.5653
▁harvest	-11.5653
▁아이폰	-11.5655
▁국비	-11.5658
▁조금만	-11.5658
▁유물	-11.5659
▁유사한	-11.5661
▁startup	-11.5664
▁removal	-11.5664
▁차장	-11.5666
▁육아	-11.5667
▁depart	-11.5668
▁Ge	-11.5673
▁Dam	-11.5674
▁매니저	-11.5676
▁성추행	-11.5676
▁고객님	-11.5679
ffi	-11.568
▁부활	-11.5683
▁신앙	-11.5684
▁Sweden	-11.5687
▁깜짝	-11.5687
▁민주노총	-11.5687
▁수원시	-11.5694
▁첫날	-11.5696
▁celebrities	-11.5698
▁날부터	-11.5703
▁고려하면	-11.5704
▁맞서	-11.5704
▁보냈다	-11.5708
▁예선	-11.5709
▁점유율	-11.5709
▁가능한가요	-11.5712
▁exceeding	-11.5714
▁기기	-11.5719
▁갖게	-11.5719
낫	-11.5721
▁독립운동	-11.5722
▁붙여	-11.5726
재난	-11.5726
▁합병	-11.573
▁honest	-11.5732
▁뒤늦게	-11.5732
▁스케줄	-11.5732
▁살펴보	-11.5732
▁펼쳐진다	-11.5733
▁portal	-11.5735
▁이탈	-11.5735
▁Convention	-11.5743
▁Studies	-11.5743
▁desperate	-11.5743
븐	-11.5743
▁Cheon	-11.5748
▁막아	-11.5748
▁Right	-11.5749
▁예수님	-11.5751
▁국어	-11.5753
눌	-11.5754
▁섭취	-11.5754
▁sheet	-11.5756
priced	-11.5757
▁통신원	-11.5757
▁Seodaemun	-11.5766
▁convergence	-11.5766
▁translation	-11.5766
▁CNN	-11.5766
▁chronic	-11.5766
▁그나마	-11.5766
▁supervise	-11.5766
▁흉기	-11.5768
과정에서	-11.5771
▁치열	-11.5773
member	-11.5775
▁Tower	-11.5779
▁trace	-11.5779
▁(4)	-11.578
월드컵	-11.578
▁Arabia	-11.5781
▁가능하도록	-11.5782
▁내년부터	-11.5788
어업	-11.5789
▁잊지	-11.5791
▁소유자	-11.5791
▁과세	-11.5795
▁destroyed	-11.5796
▁virtually	-11.5798
ography	-11.5799
▁recipient	-11.58
▁추산	-11.58
▁중독	-11.5801
▁명품	-11.5802
▁엄격	-11.5804
▁적자	-11.5807
▁기증	-11.5809
▁도민들	-11.5809
▁아르헨티나	-11.5811
▁설문조사	-11.5811
▁절실	-11.5817
컷	-11.5822
故	-11.5822
▁재원	-11.5825
▁pure	-11.5833
▁experiencing	-11.5834
▁transparent	-11.5834
▁즐겨	-11.5834
▁기술력	-11.5834
천명	-11.5837
▁Compar	-11.5838
▁아니한다	-11.584
▁지나치	-11.5841
▁높아진	-11.5841
▁발간	-11.5842
▁상대방	-11.5844
수준	-11.5844
▁Federal	-11.5845
얀	-11.5845
▁선포	-11.5846
▁끝까지	-11.5848
▁connecting	-11.585
▁서양	-11.5856
▁흡연	-11.5857
▁species	-11.5857
중심	-11.5857
▁뒤집	-11.5857
▁철회	-11.5859
06	-11.5861
▁먹거리	-11.5861
▁유포	-11.5861
▁straw	-11.5868
▁나쁜	-11.5869
▁dump	-11.587
▁UK	-11.587
▁찾으	-11.5877
∼5	-11.5879
▁국무부	-11.588
▁보러	-11.5881
▁급식	-11.5883
수입	-11.5884
졌던	-11.5885
과학기술	-11.5885
▁선두	-11.5885
▁전세계	-11.5889
▁Instagram	-11.5891
▁올바른	-11.5891
▁시너지	-11.5891
▁조합원	-11.5895
▁위법	-11.5901
뿌	-11.5902
▁있거나	-11.5902
▁Memorial	-11.5902
▁아울러	-11.5902
후보	-11.5904
으세요	-11.5904
▁통계청	-11.5905
▁30,000	-11.5906
▁안양	-11.5909
혔	-11.5911
▁defendant	-11.5913
▁기금운용	-11.5914
▁finishing	-11.5917
zy	-11.5919
▁효율적	-11.5919
▁seller	-11.5922
년째	-11.5922
▁참사	-11.5924
▁Credit	-11.5925
▁워크숍	-11.5925
▁stir	-11.5926
▁Asset	-11.5926
▁드러난	-11.5926
꺼	-11.593
▁사업계획	-11.5934
▁observed	-11.594
끄러	-11.5941
▁면담	-11.5942
▁보건소	-11.5943
0.5	-11.5944
▁reign	-11.5946
▁correspondent	-11.5949
▁USD	-11.595
▁문장	-11.5951
▁다가오	-11.5955
▁유전자	-11.5957
노동조합	-11.5958
▁integration	-11.596
▁rough	-11.596
known	-11.5963
▁quota	-11.5964
▁progressive	-11.5968
▁Australian	-11.597
통제	-11.597
▁pedestrian	-11.5971
▁연봉	-11.5975
ME	-11.5975
▁줄여	-11.5977
▁offline	-11.5979
▁여론조사	-11.5982
▁감안하면	-11.5982
▁sacrifice	-11.5983
▁챙겨	-11.5983
▁Israel	-11.5983
▁추정된다	-11.5987
▁실망	-11.5991
▁clerk	-11.5994
▁primary	-11.5994
▁브리핑	-11.5994
▁주류	-11.5995
▁빨간	-11.5997
▁양산	-11.5997
워크	-11.5998
▁Basic	-11.6003
▁Trans	-11.6003
▁급속	-11.6004
▁libraries	-11.6006
▁인스타그램	-11.6006
▁revoke	-11.6006
▁고마워	-11.6006
▁Rather	-11.6006
▁telephone	-11.6006
▁monk	-11.6007
나갈	-11.6008
▁지방세	-11.6009
▁Gender	-11.6009
▁건강보험	-11.601
▁인쇄	-11.601
▁착공	-11.6017
▁금융감독원	-11.6018
▁고백	-11.6019
▁사망자	-11.6021
안보	-11.6022
▁집권	-11.6024
▁상금	-11.6025
설계	-11.6026
▁취미	-11.6029
▁distinct	-11.6029
▁reside	-11.603
▁코너	-11.6035
▁Hope	-11.6039
캔	-11.6041
▁다행히	-11.6041
▁꼼꼼	-11.6052
중소기업	-11.6059
▁방문객	-11.6059
▁집계됐다	-11.606
혐	-11.6063
▁Catholic	-11.6064
▁demonstrate	-11.6064
받았다	-11.6072
▁강동구	-11.6075
▁매출액	-11.6076
▁펼친	-11.6076
▁Candidate	-11.6076
▁ancient	-11.6076
▁인건비	-11.6076
▁diagnosed	-11.6076
시킨다	-11.6076
stone	-11.608
geum	-11.608
▁시술	-11.6081
예정	-11.6083
▁numerous	-11.6087
섹	-11.6087
▁워낙	-11.6087
했었다	-11.6088
▁interpret	-11.6092
왔지만	-11.6092
▁무단	-11.6093
▁계시	-11.6094
레이션	-11.6094
▁발목	-11.6094
▁아쉬움	-11.6099
▁받아들여	-11.6099
▁거절	-11.6099
▁상용화	-11.61
▁보여주고	-11.61
▁행사장	-11.6101
▁아까	-11.6103
▁200,000	-11.6106
bon	-11.6111
▁Talk	-11.6112
▁특성상	-11.6117
▁자원봉사자	-11.6117
▁모습으로	-11.6117
▁finalized	-11.6119
▁이명박	-11.6122
▁주민등록	-11.6124
▁Ru	-11.6127
▁동향	-11.6129
▁constitutional	-11.6129
▁철학	-11.613
▁saved	-11.6131
zi	-11.6131
▁따뜻	-11.6132
드림	-11.6133
▁governance	-11.6134
▁resistance	-11.6134
▁translate	-11.6134
▁knee	-11.6134
▁playground	-11.6135
▁사이버	-11.6135
▁loud	-11.6135
▁label	-11.6135
▁기름	-11.6136
▁견적	-11.6137
십니다	-11.6138
▁학생들에게	-11.6138
▁올해부터	-11.6139
멍	-11.6143
뮤	-11.6144
▁과반수	-11.6146
▁shelter	-11.6146
▁좋겠습니다	-11.6147
▁소문	-11.6148
▁발매	-11.6148
▁unlikely	-11.6149
▁거친	-11.6149
▁신축	-11.6151
▁섬유	-11.6154
▁highway	-11.6162
▁Kyu	-11.6163
리즘	-11.6166
▁활력	-11.6167
ranging	-11.6169
▁Ocean	-11.6169
▁slump	-11.6169
핸	-11.6169
▁들어갈	-11.6172
▁대립	-11.6172
▁인류	-11.6174
머리	-11.6174
▁restrict	-11.6174
▁visa	-11.6175
▁안전하게	-11.6177
▁construct	-11.6179
▁normally	-11.6179
방문	-11.6186
firm	-11.6186
해준다	-11.6186
▁branches	-11.6187
▁cheaper	-11.619
몫	-11.6193
▁이스라엘	-11.6193
Friend	-11.6193
▁ledger	-11.6196
hyung	-11.6197
▁끝나면	-11.6197
겠어	-11.6198
mart	-11.6198
▁낮추	-11.6199
▁Cheongdo	-11.6201
▁passes	-11.6203
▁afford	-11.6205
▁analysts	-11.6205
▁heatwave	-11.6205
부담	-11.6206
▁보고하여야	-11.6206
▁패널	-11.6207
▁지났	-11.6208
▁seekers	-11.6211
▁소개했다	-11.6212
▁면허	-11.6213
소프트	-11.6214
▁기쁨	-11.6218
▁비록	-11.6218
설비	-11.622
▁높였다	-11.6221
▁대통령에게	-11.6223
▁Pyeong	-11.6224
▁assume	-11.6224
녹	-11.6224
▁법무	-11.6227
▁힘들다	-11.6228
▁philosophy	-11.6229
뻔	-11.6229
▁poison	-11.6229
거든요	-11.6229
▁자립	-11.6234
▁invitation	-11.624
▁위주로	-11.6241
▁오래된	-11.6242
Tech	-11.6245
▁추진하기	-11.6248
흉	-11.6249
▁shut	-11.6255
▁취재진	-11.6255
▁남긴	-11.6256
▁rainy	-11.6256
▁affection	-11.6258
▁본선	-11.626
▁물어보	-11.6264
▁ritual	-11.6264
▁철저한	-11.6264
▁Jinping	-11.6267
변경	-11.6267
▁먹었	-11.6268
▁드러	-11.627
▁미친	-11.6273
▁선호하는	-11.6275
▁지지율	-11.6276
아카데미	-11.6276
▁조만간	-11.6276
▁유효	-11.6277
▁FTC	-11.6278
▁greet	-11.6279
▁repayment	-11.6279
▁계약서	-11.6282
▁채워	-11.6282
▁일반적으로	-11.6284
▁praised	-11.6286
▁Capital	-11.6288
▁seizure	-11.6288
▁transition	-11.6288
▁솔로	-11.6288
▁adopt	-11.6293
▁이례적	-11.6294
▁없게	-11.6296
▁포함한다	-11.6298
▁quit	-11.6299
▁철저히	-11.63
▁incorporat	-11.63
▁광화문	-11.63
놀	-11.63
▁gym	-11.63
▁흡수	-11.63
▁쟁점	-11.6301
▁구체적	-11.6303
▁leaked	-11.6304
▁내릴	-11.6305
▁강요	-11.6309
뚜	-11.6312
▁적립	-11.6315
▁extremely	-11.6315
▁압력	-11.6316
▁useful	-11.6321
▁노동자들	-11.6322
▁CSAT	-11.6324
▁identification	-11.6324
▁페이지	-11.6327
▁다채로	-11.6329
▁개관	-11.6333
▁올랐	-11.6333
▁블루	-11.6336
▁Chungbuk	-11.6337
▁긴밀	-11.6337
▁edge	-11.634
▁적용한다	-11.6346
▁Jan	-11.6347
▁현실화	-11.635
십시오	-11.6352
▁미흡	-11.6352
paid	-11.6352
▁개척	-11.6357
3,000	-11.6358
▁urgently	-11.6358
▁organ	-11.636
`	-11.636
▁플라스틱	-11.636
▁casualties	-11.636
▁silver	-11.6372
▁한쪽	-11.6375
▁Republican	-11.6379
▁Confucian	-11.6384
▁inevitably	-11.6384
▁Earth	-11.6384
▁바뀐	-11.6384
▁순천	-11.6388
each	-11.639
▁pursued	-11.639
해지면서	-11.6391
▁운항	-11.6392
싼	-11.6393
▁reorganization	-11.6396
▁에어컨	-11.6396
▁성남시	-11.6398
▁tied	-11.6398
스쿨	-11.64
▁3·1	-11.64
▁회원들	-11.6404
▁봉사활동	-11.6404
▁동행	-11.6407
횡	-11.6408
▁Emergency	-11.6408
▁유럽연합	-11.6409
▁미뤄	-11.6409
사회적	-11.641
▁성범죄	-11.641
▁치르	-11.6413
▁feed	-11.6413
▁하원	-11.6417
▁차지하고	-11.6418
▁separation	-11.642
▁coupon	-11.642
퍼센트	-11.642
▁visible	-11.642
▁장학금	-11.642
▁advised	-11.6426
▁explore	-11.6432
▁자동으로	-11.6437
▁지원받	-11.6437
▁slowly	-11.6441
▁인접	-11.6441
▁이슬람	-11.6444
▁간단한	-11.6444
▁거짓말	-11.6444
▁공직자	-11.6448
▁포함돼	-11.6448
▁지급한다	-11.6449
▁functional	-11.645
▁병행	-11.6454
▁autonomy	-11.6456
▁패키지	-11.6456
▁어쩔	-11.6456
리조트	-11.6459
▁변신	-11.646
토론	-11.6464
수산물	-11.6464
▁파손	-11.6465
▁inspector	-11.6467
밸	-11.6467
▁indicted	-11.6468
삽	-11.6468
▁소음	-11.6469
행정기관	-11.6469
▁뛰어나	-11.647
▁1994	-11.6474
▁Wall	-11.6475
▁repeat	-11.6476
(15	-11.6477
괴	-11.6479
▁줄었다	-11.6479
▁국면	-11.6479
▁거라고	-11.6479
▁Gwanghwamun	-11.648
▁시진핑	-11.648
▁worsening	-11.648
▁stole	-11.648
star	-11.6481
▁금융권	-11.6482
▁수익성	-11.6491
▁밝혔	-11.6492
▁통지하여야	-11.6492
드릴까요	-11.6493
▁proportional	-11.6495
▁Hyeon	-11.6497
▁해결하기	-11.6499
▁destruction	-11.6505
▁고맙	-11.6505
▁Program	-11.6505
▁wrap	-11.6507
사이트	-11.6509
neighboring	-11.6509
▁들어온	-11.6512
▁rot	-11.6513
▁mentor	-11.6514
▁경쟁률	-11.6516
▁Chamber	-11.6517
텀	-11.6517
▁생계	-11.6521
특구	-11.6522
▁기념식	-11.6523
TI	-11.6528
▁Prince	-11.6529
▁inappropriate	-11.6529
▁violent	-11.6529
▁amazing	-11.6529
▁사우디	-11.6529
▁sugar	-11.6541
▁비공개	-11.6541
모니터	-11.6542
▁경유	-11.6548
▁언급했다	-11.6548
▁영세	-11.6548
▁학대	-11.655
▁응답자	-11.6553
▁Mokpo	-11.6553
▁scientific	-11.6553
닛	-11.6553
▁민주주의	-11.6555
▁ownership	-11.6556
▁Silla	-11.6556
▁boxes	-11.6557
▁Kindergarten	-11.6566
▁arrival	-11.6566
▁commemorate	-11.6566
▁essay	-11.6566
▁merger	-11.6566
▁붉은	-11.6566
▁연료	-11.6567
▁운영위원회	-11.6567
▁기재부	-11.6569
▁담보	-11.657
▁없나요	-11.6571
▁poster	-11.6573
▁Indonesian	-11.6578
펌	-11.6578
뭉	-11.6578
쩌	-11.6578
▁신청서를	-11.6578
▁앞선	-11.6582
▁건수	-11.6584
▁Wol	-11.6586
▁Wal	-11.6587
▁differ	-11.6589
▁1,500	-11.6589
▁impeachment	-11.659
봄	-11.6592
▁정확하게	-11.6595
▁접목	-11.6597
▁democratic	-11.6602
▁Buddha	-11.6602
▁banned	-11.6603
quarter	-11.6604
인천광역시	-11.6604
▁근대	-11.6607
▁bowl	-11.6612
▁concentrate	-11.6614
▁Palace	-11.6615
▁steady	-11.6615
준비	-11.662
▁wire	-11.6621
▁riding	-11.6621
▁1995	-11.6622
hyang	-11.6623
▁동력	-11.6625
▁영광	-11.6631
seop	-11.6631
임에도	-11.6634
▁추정되는	-11.6634
▁insist	-11.6634
▁Namyangju	-11.6639
▁completing	-11.6639
▁lyrics	-11.6639
▁벨기에	-11.6639
콩	-11.6641
▁refugee	-11.6641
▁가축	-11.6645
▁인연	-11.6647
▁shipbuilding	-11.6652
▁얻었다	-11.6652
▁항소심	-11.6652
드라마	-11.6654
작품	-11.6656
▁열람	-11.6656
▁terminate	-11.6656
▁handled	-11.6657
▁선보인다	-11.6658
▁도출	-11.6659
ancy	-11.666
▁있을까	-11.6661
▁invite	-11.6664
9,000	-11.6664
▁실태조사	-11.6664
▁healing	-11.6665
▁규명	-11.6668
▁우유	-11.6669
heon	-11.667
▁분석된다	-11.6671
▁jumped	-11.6672
▁강세	-11.6673
▁conclude	-11.6676
▁contrary	-11.6677
툼	-11.6677
▁5·18	-11.6677
▁멘토	-11.6677
▁Siheung	-11.6678
▁encouraged	-11.668
▁도약	-11.6682
▁fairness	-11.6682
▁축산	-11.6682
▁출제	-11.6685
hoo	-11.6686
▁노력하겠다	-11.6689
▁아르바이트	-11.6689
▁공모전	-11.6691
▁declined	-11.6691
▁합쳐	-11.6693
▁통장	-11.6696
▁substitute	-11.6701
▁벌어진	-11.6702
vic	-11.6702
Chairperson	-11.6704
▁Along	-11.6704
▁그러하지	-11.6704
Po	-11.6706
▁순수	-11.6707
illa	-11.6713
▁초등학생	-11.6714
▁공시가격	-11.6714
▁결혼식	-11.6721
▁비디오	-11.6726
▁Concert	-11.6726
▁Pangyo	-11.6726
▁계엄	-11.6728
▁Coach	-11.6729
▁constant	-11.673
▁위상	-11.6732
▁잡았다	-11.6734
▁결코	-11.6735
▁즐겁게	-11.6739
▁initiative	-11.6739
▁bidding	-11.674
▁feared	-11.6742
ffer	-11.675
▁다이어트	-11.6751
▁유관기관	-11.6751
▁인용해	-11.6751
노동자	-11.6753
corn	-11.6757
됐는데	-11.6761
▁반등	-11.6763
▁거점	-11.6764
▁outlook	-11.6764
▁남양주	-11.6764
▁남북정상회담	-11.6764
▁Embassy	-11.6776
▁Gimhae	-11.6776
▁Manager	-11.6776
▁잠깐	-11.6777
▁아무것	-11.6777
▁broad	-11.6777
▁elder	-11.678
▁Suk	-11.6782
▁국제사회	-11.6786
▁오랜만에	-11.6789
▁안전사고	-11.6792
▁용산구	-11.6793
았어요	-11.6793
▁배울	-11.6795
▁벌였다	-11.6796
▁tip	-11.6797
▁끝났	-11.68
▁sought	-11.6801
▁멈추	-11.6801
▁보복	-11.6803
▁석탄	-11.6806
▁밀어	-11.6812
▁정밀	-11.6812
▁react	-11.6813
▁injuries	-11.6814
▁환호	-11.6814
▁읽어	-11.6817
▁건데	-11.6822
▁회신	-11.6826
▁보험사	-11.6826
▁closure	-11.6826
봤다	-11.6828
▁celebration	-11.6832
▁찾았다	-11.6832
육성	-11.6833
▁포함되어	-11.6833
▁관중	-11.6834
▁Experience	-11.6839
▁outbreak	-11.6839
▁suppress	-11.6839
▁꺼내	-11.684
▁근본	-11.6842
▁nut	-11.6848
def	-11.6849
yoon	-11.6851
▁다하겠다	-11.6851
▁생겼다	-11.6851
▁현직	-11.6852
bae	-11.6857
cycle	-11.6859
▁생물	-11.6862
▁submission	-11.6864
▁의류	-11.6865
▁소셜	-11.6866
▁laughter	-11.6867
▁학부모들	-11.6868
▁Joong	-11.6871
▁죄송	-11.6876
▁Press	-11.6876
▁encouraging	-11.6877
▁liberal	-11.6877
▁entertain	-11.6877
▁증대	-11.6878
▁underway	-11.6885
셨나요	-11.6888
▁늘려	-11.6888
▁Nuclear	-11.6889
▁Taekwondo	-11.6889
▁bulletin	-11.6889
▁unclear	-11.6889
▁Lord	-11.6896
▁Fan	-11.6897
▁counsel	-11.6897
▁목포	-11.6901
발표	-11.6903
▁Yeah	-11.6903
▁좋겠어	-11.6904
특별위원회	-11.6905
▁표면	-11.6909
▁자세히	-11.6911
▁immigration	-11.6915
륜	-11.6915
▁목요일	-11.6915
▁Sorry	-11.6918
▁lecturer	-11.692
▁계층	-11.6923
▁decreasing	-11.6927
▁Everyone	-11.6928
▁목록	-11.693
▁unified	-11.6934
▁clinical	-11.6934
▁hip	-11.6939
▁Electric	-11.694
▁클래식	-11.694
phe	-11.6942
▁일상생활	-11.6942
▁육군	-11.6945
▁Take	-11.6948
▁SW	-11.6951
▁buried	-11.6953
▁reputation	-11.6953
▁History	-11.6953
▁민선	-11.6955
▁measurement	-11.6962
스케	-11.6965
▁소감	-11.6965
▁abolition	-11.6965
▁infection	-11.6966
▁Jeollabuk	-11.6966
▁관행	-11.6972
떨	-11.6972
▁승진	-11.6973
cheong	-11.6973
▁열풍	-11.6974
▁가이드	-11.6977
▁encounter	-11.6978
▁defined	-11.6978
▁lifted	-11.6978
▁신속하게	-11.6978
꼬	-11.6985
롬	-11.6991
IMF	-11.6993
▁2∼3	-11.6993
▁누르	-11.6995
▁fisheries	-11.7004
▁sculpture	-11.7004
▁beverage	-11.7004
▁threatened	-11.7004
▁finger	-11.7006
vision	-11.7007
▁공략	-11.7008
▁1996	-11.701
▁Such	-11.701
investigative	-11.7017
▁investigator	-11.7017
흙	-11.7017
▁노무현	-11.7017
▁언니	-11.7017
펀	-11.702
▁Equality	-11.7021
▁Live	-11.7023
낙	-11.7024
▁오늘날	-11.7028
▁수상했다	-11.7028
▁divorce	-11.7029
▁slogan	-11.7029
▁필요성이	-11.7032
▁맡았다	-11.7038
▁복무	-11.7038
▁peaceful	-11.7046
▁Dance	-11.7046
national	-11.7049
▁붙어	-11.7051
▁1∼2	-11.7052
▁긴장감	-11.7053
해주고	-11.7055
▁structural	-11.7055
▁religion	-11.7055
▁wheel	-11.7055
▁scoring	-11.7055
▁systematically	-11.7056
taek	-11.7057
▁입점	-11.7058
▁discharged	-11.7059
cular	-11.7059
▁나오면	-11.7062
▁못했던	-11.7068
▁Dongjak	-11.7068
볶	-11.7068
▁Kingdom	-11.7068
▁300,000	-11.7069
▁여사	-11.7072
▁Southern	-11.7074
▁하락세	-11.7075
미세먼지	-11.7077
▁반려동물	-11.7081
▁거대한	-11.7081
▁stating	-11.7082
않	-11.7088
Lee	-11.7088
print	-11.7089
▁Reuters	-11.7094
▁vocal	-11.7094
▁split	-11.7095
▁탈퇴	-11.7095
▁금품	-11.7095
▁Gunsan	-11.7097
납니다	-11.7097
▁필요해요	-11.7097
▁받으면	-11.7102
attached	-11.7102
▁철수	-11.7106
▁exciting	-11.7107
▁grateful	-11.7107
▁dawn	-11.7107
▁issuing	-11.7108
▁profitability	-11.7108
터널	-11.7111
징수	-11.7111
▁간판	-11.7112
▁사법부	-11.7114
▁Turkish	-11.712
▁극대화	-11.712
▁포토	-11.712
For	-11.712
▁저렴하	-11.7122
▁포털	-11.7122
▁구름	-11.7123
▁좋아합니다	-11.7123
▁고위급	-11.7124
싫	-11.7126
▁captured	-11.7132
봇	-11.7132
▁powder	-11.7133
prosperity	-11.7133
굽	-11.7133
▁Sky	-11.7133
되던	-11.7134
▁임무	-11.7135
▁패턴	-11.7135
▁할아버지	-11.7146
▁distort	-11.7146
▁양쪽	-11.7148
moo	-11.7153
▁주시면	-11.7157
▁Interior	-11.7159
▁Kaesong	-11.7159
▁prolonged	-11.7159
▁Night	-11.7162
▁통일부	-11.7162
▁regeneration	-11.7166
▁빨라	-11.717
프트	-11.7171
샷	-11.7172
▁이루어진	-11.7172
▁헬기	-11.7176
▁어르신	-11.7182
▁Burning	-11.7185
▁compromise	-11.7185
▁humid	-11.7185
▁shipped	-11.7186
▁Sure	-11.7186
▁의료기관	-11.7186
▁억제	-11.7187
▁국정원	-11.7194
▁Bay	-11.7194
▁성장세	-11.7195
▁안녕하세요	-11.7198
▁Kumho	-11.7198
▁간호사	-11.7198
▁1960	-11.72
▁investor	-11.7204
▁Expo	-11.7208
▁automatic	-11.721
é	-11.7211
▁accelerate	-11.7211
▁bloom	-11.7211
▁determination	-11.7211
쿼	-11.7211
▁선보였다	-11.7211
▁Britain	-11.7211
▁케이블	-11.7211
▁스파	-11.7214
▁재건축	-11.7215
▁Suncheon	-11.7216
▁advisor	-11.7218
▁replied	-11.7224
▁treasury	-11.7224
▁오프라인	-11.7224
▁punished	-11.7227
▁계단	-11.7228
▁overwhelming	-11.7237
▁chef	-11.7237
[...]
