<unk>	0
<s>	0
</s>	0
.	-3.49895
▁the	-3.67303
▁	-3.73878
,	-3.76514
s	-4.06573
▁of	-4.40233
▁and	-4.6194
▁to	-4.63456
이	-4.75907
을	-4.82826
▁a	-4.85343
▁in	-4.92675
의	-5.00207
에	-5.00969
-	-5.11422
가	-5.16223
▁is	-5.30986
를	-5.41731
는	-5.46143
'	-5.54197
▁that	-5.55518
ing	-5.59464
은	-5.62029
▁for	-5.63027
한	-5.72798
고	-5.73171
ed	-5.78603
▁I	-5.81122
▁on	-5.86557
▁The	-5.86605
로	-5.91143
과	-5.9466
▁be	-5.95404
▁수	-5.96041
▁as	-5.97947
d	-5.99106
도	-5.99885
▁it	-6.02417
에서	-6.06394
▁with	-6.07358
지	-6.10679
▁was	-6.11641
▁by	-6.14696
)	-6.17654
해	-6.21982
으로	-6.2466
▁are	-6.25989
▁will	-6.26977
인	-6.27411
일	-6.29103
t	-6.30266
▁"	-6.32549
기	-6.33865
▁이	-6.36312
다	-6.38488
▁있다	-6.40541
하는	-6.41482
와	-6.42001
?	-6.44963
▁at	-6.45447
할	-6.46932
ly	-6.52389
▁from	-6.54514
▁you	-6.54918
하고	-6.56408
(	-6.57046
▁have	-6.57308
▁“	-6.6235
▁has	-6.62404
th	-6.62753
▁‘	-6.63005
리	-6.63251
시	-6.65143
’	-6.65708
어	-6.66307
▁1	-6.66799
▁which	-6.67122
사	-6.68129
▁not	-6.68967
m	-6.6905
▁who	-6.71053
▁an	-6.73411
e	-6.73701
”	-6.74271
자	-6.7618
·	-6.76778
y	-6.77236
n	-6.77934
수	-6.79441
er	-6.84287
▁그	-6.84734
서	-6.84943
▁(	-6.85747
▁this	-6.85908
▁전	-6.86977
▁등	-6.87219
했다	-6.87314
▁Korea	-6.87445
al	-6.88113
장	-6.89023
▁3	-6.91102
년	-6.91181
▁but	-6.91351
대	-6.91503
▁2	-6.9367
▁In	-6.93729
주	-6.93901
▁있는	-6.94068
정	-6.9427
▁can	-6.96851
▁or	-6.97361
만	-6.97759
▁한	-6.97983
스	-6.98647
"	-7.00796
부	-7.00814
원	-7.00834
▁A	-7.02537
상	-7.03405
S	-7.06248
▁제	-7.06654
▁said	-7.0871
▁It	-7.09775
진	-7.12211
면	-7.12624
▁re	-7.12692
▁he	-7.12916
▁shall	-7.13038
소	-7.13132
된	-7.13197
in	-7.145
적	-7.1479
▁year	-7.15924
▁so	-7.16135
게	-7.16147
화	-7.17283
▁been	-7.17497
아	-7.17889
o	-7.18242
r	-7.186
▁time	-7.186
▁were	-7.2039
▁주	-7.21753
전	-7.22054
제	-7.22479
▁there	-7.23629
▁Korean	-7.23834
구	-7.24086
성	-7.24198
st	-7.25146
ri	-7.25873
▁한다	-7.25896
▁4	-7.26099
월	-7.27512
산	-7.28436
▁5	-7.29551
k	-7.29587
들이	-7.29836
라	-7.3009
▁Kim	-7.31612
re	-7.32381
2	-7.32921
▁his	-7.32992
▁중	-7.33882
▁유	-7.34499
."	-7.34821
▁such	-7.35113
동	-7.35648
ll	-7.36551
▁also	-7.36563
▁after	-7.36947
es	-7.37211
나	-7.38102
▁people	-7.38173
▁가	-7.38477
ation	-7.38608
▁when	-7.38776
▁10	-7.38946
▁정	-7.39467
l	-7.40859
▁김	-7.41297
▁than	-7.41393
▁시	-7.41583
명	-7.41718
▁more	-7.41807
▁및	-7.42044
보	-7.42095
에는	-7.42839
▁their	-7.42958
▁것으로	-7.43211
▁지	-7.44349
요	-7.45164
위	-7.45266
▁내	-7.45392
여	-7.45518
g	-7.45544
or	-7.45665
선	-7.46113
3	-7.46298
▁they	-7.46675
1	-7.46683
▁if	-7.46806
▁head	-7.46977
▁대	-7.47148
차	-7.47663
▁out	-7.47935
▁first	-7.48075
용	-7.48167
▁부	-7.48326
한다	-7.49055
▁about	-7.49525
재	-7.50363
개	-7.50494
▁we	-7.50609
관	-7.50978
조	-7.50983
▁고	-7.51965
▁신	-7.52016
세	-7.52813
▁기	-7.52906
치	-7.53199
비	-7.53497
a	-7.54037
드	-7.54099
▁대한	-7.54147
▁me	-7.54465
단	-7.55033
▁한국	-7.55639
트	-7.56439
이다	-7.56698
회	-7.57178
on	-7.57473
분	-7.57828
▁보	-7.5791
실	-7.584
에게	-7.59191
se	-7.59441
하게	-7.59662
▁비	-7.60854
▁Gyeonggi	-7.6179
안	-7.61926
▁사	-7.62203
▁S	-7.6229
▁up	-7.625
il	-7.62716
▁나	-7.62805
까지	-7.63269
▁일	-7.63705
do	-7.63863
▁6	-7.63958
▁because	-7.63989
A	-7.64389
▁것	-7.65013
▁안	-7.65231
▁one	-7.65602
▁다	-7.65664
p	-7.6619
적인	-7.66246
당	-7.66332
금	-7.66461
▁my	-7.683
gu	-7.68356
려	-7.68574
▁Seoul	-7.6884
야	-7.68938
ar	-7.6984
하	-7.69851
c	-7.69987
▁all	-7.70131
며	-7.70808
▁공	-7.7081
호	-7.71038
▁동	-7.71091
하기	-7.71218
방	-7.71405
▁상	-7.71692
▁위해	-7.72048
우	-7.72574
식	-7.72791
an	-7.73489
ur	-7.73991
▁public	-7.74196
중	-7.74349
le	-7.74438
신	-7.74499
▁government	-7.74578
계	-7.74679
▁B	-7.74827
공	-7.74975
무	-7.75114
▁its	-7.7525
▁구	-7.75914
ic	-7.75942
▁where	-7.75966
연	-7.76144
▁P	-7.76477
it	-7.76591
I	-7.76592
니	-7.7712
ce	-7.77358
▁Gu	-7.77489
4	-7.77807
▁U	-7.77817
▁may	-7.77908
▁연	-7.78064
국	-7.78362
▁had	-7.78437
▁소	-7.78583
르	-7.7873
물	-7.7878
▁7	-7.78834
내	-7.79013
법	-7.79095
▁경우	-7.791
ers	-7.79117
▁더	-7.7937
미	-7.79377
▁p	-7.79421
▁de	-7.79602
▁조	-7.79861
▁K	-7.80611
히	-7.80703
un	-7.81263
▁under	-7.81324
▁해	-7.81421
유	-7.81812
하여	-7.81839
▁through	-7.81858
ra	-7.81904
w	-7.82061
▁강	-7.82176
마	-7.82197
▁C	-7.82609
▁19	-7.82621
영	-7.82949
적으로	-7.82962
ro	-7.84166
▁won	-7.8433
학	-7.84483
▁last	-7.8464
ment	-7.85239
▁including	-7.86681
▁선	-7.86963
ve	-7.87069
▁other	-7.87683
▁do	-7.87918
▁미	-7.87979
i	-7.88108
행	-7.88362
▁따라	-7.88435
▁North	-7.88576
▁no	-7.88915
▁마	-7.89065
▁This	-7.89197
▁over	-7.89757
▁two	-7.90067
▁20	-7.90248
▁말	-7.90407
오	-7.9062
▁support	-7.90639
▁new	-7.90685
▁like	-7.90702
▁8	-7.90926
▁무	-7.90933
경	-7.91031
▁자	-7.91254
at	-7.91372
▁due	-7.91538
▁only	-7.91662
러	-7.9172
f	-7.92348
▁할	-7.92512
됐다	-7.92729
운	-7.93211
▁day	-7.93278
▁아	-7.93394
권	-7.93394
▁재	-7.93405
▁your	-7.9347
,"	-7.93589
h	-7.93812
5	-7.9439
/	-7.94415
문	-7.94452
▁때	-7.94473
P	-7.94687
하지	-7.94748
▁지난	-7.95217
간	-7.95825
b	-7.96205
C	-7.96417
▁불	-7.96616
▁high	-7.96797
▁market	-7.96802
et	-7.97411
▁후	-7.97866
▁저	-7.97873
▁지역	-7.98123
▁9	-7.98311
▁held	-7.98585
ho	-7.98639
ion	-7.99101
▁오	-7.99158
▁통해	-7.99245
D	-7.99288
▁Province	-7.99478
생	-7.99526
천	-7.99613
▁원	-8.00028
en	-8.00236
건	-8.01313
▁Lee	-8.02137
▁입	-8.02151
▁E	-8.0219
양	-8.02333
형	-8.02488
▁should	-8.02737
▁companies	-8.02919
▁함께	-8.03413
▁work	-8.03422
M	-8.03432
되는	-8.03537
ive	-8.03919
점	-8.03949
ate	-8.03962
체	-8.04184
▁거	-8.04279
료	-8.04942
민	-8.05045
▁As	-8.05253
▁세	-8.0537
▁성	-8.05433
▁would	-8.0556
▁나는	-8.05645
질	-8.05834
▁National	-8.06386
u	-8.06548
▁F	-8.06781
▁장	-8.07138
te	-8.07304
군	-8.07392
um	-8.07456
▁것이	-8.07584
▁이번	-8.07831
▁인	-8.08002
청	-8.08111
던	-8.08497
급	-8.08769
▁바	-8.08913
▁We	-8.09279
T	-8.0943
▁미국	-8.09494
:	-8.0973
직	-8.09752
▁밝혔다	-8.10003
들	-8.10219
임	-8.10698
▁If	-8.1075
ol	-8.10894
▁두	-8.10986
▁made	-8.1121
▁G	-8.11626
E	-8.11688
la	-8.11706
▁number	-8.12077
▁local	-8.12317
업	-8.1257
▁them	-8.13367
모	-8.13388
부터	-8.13391
▁co	-8.1344
▁years	-8.13494
▁system	-8.13727
▁지원	-8.13761
▁many	-8.13823
▁into	-8.13906
입니다	-8.14234
ity	-8.14317
el	-8.14443
▁서울	-8.14533
▁30	-8.14554
출	-8.14912
▁진행	-8.15042
에서는	-8.15127
▁make	-8.15237
▁business	-8.15476
심	-8.15618
▁실	-8.15659
G	-8.15741
▁사업	-8.15761
▁He	-8.16019
ent	-8.16148
력	-8.16164
▁even	-8.16431
▁모	-8.16473
B	-8.16479
),	-8.16524
역	-8.16707
▁company	-8.17357
▁각	-8.17701
▁between	-8.17879
vi	-8.17908
▁use	-8.17999
▁도	-8.18435
들의	-8.1853
ter	-8.19381
▁11	-8.1975
ul	-8.19767
▁f	-8.19771
▁since	-8.20215
li	-8.20275
▁take	-8.20528
▁개	-8.20741
▁있습니다	-8.21415
된다	-8.21484
▁12	-8.21532
nt	-8.21692
포	-8.21856
▁go	-8.22159
석	-8.22307
▁중국	-8.22557
▁많은	-8.22787
▁경	-8.22807
▁school	-8.22917
▁우리	-8.23092
▁간	-8.23635
▁발	-8.23748
▁order	-8.23974
지만	-8.24209
up	-8.24342
▁분	-8.24342
될	-8.24628
N	-8.24661
▁남	-8.24828
▁하는	-8.25014
▁There	-8.25189
▁위한	-8.25356
O	-8.25651
▁차	-8.25924
▁양	-8.26109
▁President	-8.2625
ne	-8.26318
▁think	-8.26621
▁D	-8.26735
▁경기도	-8.26769
품	-8.27065
보다	-8.27187
▁members	-8.27274
▁열	-8.2751
▁while	-8.27534
▁다음	-8.27542
▁서	-8.27555
현	-8.27739
▁당	-8.28292
▁생각	-8.28428
교	-8.28444
▁well	-8.28846
▁want	-8.28957
▁가장	-8.2907
▁등을	-8.29194
▁T	-8.29401
습니다	-8.29663
거	-8.29668
▁Do	-8.29867
▁Park	-8.30259
▁박	-8.30808
▁Re	-8.30812
age	-8.30942
이라고	-8.31029
었다	-8.31118
입	-8.31235
하며	-8.31469
▁good	-8.31508
▁저는	-8.31688
▁다른	-8.31757
▁get	-8.31922
▁게	-8.32181
▁하	-8.3222
▁문	-8.32229
크	-8.32265
▁each	-8.32274
▁이어	-8.32316
래	-8.32403
▁진	-8.32597
증	-8.32678
▁방	-8.3269
타	-8.32732
▁place	-8.32873
▁관련	-8.32913
종	-8.32966
ci	-8.3311
▁말했다	-8.33256
류	-8.33257
▁team	-8.33331
ting	-8.33451
▁her	-8.33455
▁초	-8.34047
▁운영	-8.34069
▁meeting	-8.3416
able	-8.34419
▁Act	-8.3468
워	-8.34681
▁파	-8.34956
▁여	-8.35345
R	-8.35375
설	-8.357
▁것이다	-8.36072
배	-8.36369
▁잘	-8.36507
에도	-8.36547
ke	-8.36656
▁report	-8.36656
▁적	-8.36766
▁대해	-8.36985
▁official	-8.37093
격	-8.37333
하여야	-8.37503
6	-8.3758
▁사용	-8.37824
▁some	-8.38312
▁뒤	-8.38378
ta	-8.38407
강	-8.38413
티	-8.38534
▁un	-8.38586
▁any	-8.38669
감	-8.38924
mi	-8.39121
▁being	-8.39128
▁management	-8.3918
00	-8.3961
▁next	-8.39643
들은	-8.39918
▁expected	-8.39999
린	-8.40145
▁office	-8.40416
▁during	-8.40432
▁단	-8.40447
파	-8.40478
▁three	-8.4049
im	-8.40503
▁것은	-8.40781
▁확인	-8.40836
ist	-8.40999
▁When	-8.4102
▁이상	-8.41029
▁경기	-8.41259
▁month	-8.41427
▁시장	-8.41521
데	-8.41916
약	-8.42015
해야	-8.42031
▁15	-8.42217
각	-8.42221
▁배	-8.42337
▁했다	-8.42348
▁our	-8.42412
▁project	-8.42513
▁포	-8.42624
합니다	-8.42652
min	-8.4267
▁Article	-8.4274
프	-8.42768
▁것을	-8.42824
통	-8.42892
▁국	-8.42937
▁b	-8.43174
ver	-8.43199
▁점	-8.43326
ge	-8.43358
목	-8.43511
면서	-8.43626
ry	-8.43662
▁You	-8.43853
이나	-8.43987
▁plan	-8.4413
매	-8.44156
ated	-8.44263
ang	-8.44331
▁City	-8.4438
▁million	-8.44474
▁있어	-8.44607
▁etc	-8.4468
▁before	-8.44697
▁Party	-8.44755
속	-8.44796
▁예	-8.44818
▁총	-8.44895
▁Ministry	-8.44983
ut	-8.45111
▁second	-8.45204
▁같은	-8.45403
▁반	-8.45621
lo	-8.457
▁fact	-8.45713
ch	-8.45751
▁시작	-8.46005
am	-8.46053
▁know	-8.46296
절	-8.46343
▁출	-8.46359
▁M	-8.46381
▁큰	-8.46395
▁various	-8.46551
량	-8.46557
▁students	-8.46622
준	-8.4675
▁person	-8.46805
위원회	-8.46995
▁most	-8.47051
▁경찰	-8.47159
합	-8.47319
하면	-8.47559
▁위	-8.47644
돼	-8.47661
저	-8.47877
▁need	-8.4796
피	-8.48139
▁could	-8.48313
▁매	-8.48795
달	-8.49
8	-8.49075
발	-8.49131
터	-8.49261
집	-8.49298
me	-8.49311
▁area	-8.4932
▁South	-8.49545
▁necessary	-8.4978
▁또는	-8.49869
들을	-8.49944
us	-8.50129
▁special	-8.50316
▁end	-8.50554
▁집	-8.50957
▁어	-8.51293
▁가운데	-8.51299
태	-8.51327
▁심	-8.5146
L	-8.51473
디	-8.51505
nd	-8.51763
▁police	-8.52014
▁am	-8.52085
▁e	-8.52099
사업	-8.52201
▁China	-8.52316
▁필요한	-8.52379
▁세계	-8.52461
▁Committee	-8.52658
▁what	-8.52688
▁don	-8.52784
▁못	-8.52807
▁case	-8.52897
루	-8.5297
▁life	-8.53074
▁명	-8.53221
는데	-8.53238
▁same	-8.53314
되고	-8.53578
▁c	-8.53629
작	-8.5377
색	-8.53797
ir	-8.53798
▁물	-8.53849
ary	-8.53939
반	-8.54298
id	-8.54488
울	-8.54652
▁추	-8.54658
▁이후	-8.54808
율	-8.54831
▁들어	-8.54833
F	-8.54979
▁따른	-8.54998
▁감	-8.5507
▁now	-8.55184
▁world	-8.55247
자가	-8.55297
K	-8.55348
▁help	-8.554
9	-8.55562
하면서	-8.55635
▁편	-8.55697
ted	-8.55867
ma	-8.55932
▁An	-8.56065
처	-8.56117
▁교육	-8.56126
▁lot	-8.56286
▁see	-8.56398
▁mo	-8.56494
de	-8.56541
▁education	-8.56661
▁그는	-8.56747
▁달	-8.56776
▁how	-8.56778
▁화	-8.56829
▁기업	-8.56837
▁최근	-8.56981
▁residents	-8.57008
받	-8.57053
▁경제	-8.57229
▁process	-8.57329
▁건	-8.57382
▁올해	-8.57423
▁rate	-8.57431
▁O	-8.57502
po	-8.57558
▁home	-8.57626
토	-8.5771
란	-8.57729
ance	-8.57769
▁come	-8.57785
▁때문에	-8.57828
▁used	-8.58067
▁Metropolitan	-8.5808
▁service	-8.58183
▁이용	-8.58302
▁문화	-8.5835
ju	-8.58367
x	-8.58367
▁참여	-8.58373
하다	-8.58413
판	-8.58555
em	-8.58573
▁long	-8.58574
▁without	-8.58765
남	-8.58829
▁현재	-8.59023
▁알	-8.5932
▁생	-8.59417
▁국내	-8.59428
▁스	-8.59548
is	-8.59566
▁increase	-8.59655
▁추진	-8.59853
▁days	-8.59881
▁걸	-8.5994
▁영	-8.60033
▁노	-8.60103
▁small	-8.60268
령	-8.60421
The	-8.60507
dong	-8.60653
▁조사	-8.60732
난	-8.60851
▁Government	-8.60896
na	-8.6105
해서	-8.6105
▁데	-8.61117
▁right	-8.6132
▁일본	-8.61499
▁지난해	-8.61524
음	-8.61598
▁있도록	-8.61882
▁products	-8.61905
▁없	-8.62023
센터	-8.62079
san	-8.62397
▁On	-8.62471
▁약	-8.62529
ti	-8.6281
▁former	-8.6286
▁around	-8.62943
예	-8.63005
바	-8.63022
길	-8.63033
▁18	-8.63186
▁Center	-8.63238
온	-8.63316
▁모두	-8.63328
she	-8.63364
▁information	-8.63478
▁center	-8.63484
to	-8.63603
라고	-8.63609
▁줄	-8.63647
▁industry	-8.63896
▁등이	-8.63904
ca	-8.63953
레	-8.6397
▁just	-8.63977
▁investigation	-8.64403
ful	-8.64463
▁대표	-8.6447
mo	-8.64578
언	-8.64649
▁pro	-8.64853
▁way	-8.65011
▁food	-8.65128
▁많이	-8.65128
▁related	-8.65151
tic	-8.65375
▁large	-8.65712
▁산	-8.65827
▁특히	-8.65931
su	-8.66014
▁city	-8.66094
▁손	-8.66146
▁13	-8.6617
bo	-8.66319
노	-8.66325
장은	-8.66349
▁According	-8.66413
z	-8.66595
근	-8.66608
졌다	-8.66776
▁event	-8.66786
억	-8.66879
▁북한	-8.66915
0	-8.66948
지는	-8.67175
▁development	-8.67266
▁행사	-8.67461
▁만	-8.67524
승	-8.67576
▁최	-8.67896
▁사람	-8.67973
▁문제	-8.68083
외	-8.68167
▁set	-8.68257
▁100	-8.68284
항	-8.68306
▁관리	-8.68347
시간	-8.68422
▁이날	-8.68605
▁발생	-8.68656
ant	-8.68686
표	-8.6872
▁facilities	-8.68934
즈	-8.6913
v	-8.69164
▁외	-8.69189
20	-8.69501
om	-8.69522
▁맞	-8.69552
장이	-8.69627
▁호	-8.69629
▁없는	-8.6965
7	-8.69762
▁become	-8.69931
pe	-8.6999
her	-8.7002
져	-8.70021
▁saying	-8.70189
▁t	-8.70481
pa	-8.70508
▁다양한	-8.70753
▁children	-8.70755
H	-8.70768
▁먹	-8.70789
액	-8.70791
▁found	-8.70819
▁operation	-8.7089
est	-8.71384
▁국가	-8.71448
▁필요	-8.71492
▁following	-8.71614
겨	-8.71616
▁country	-8.71756
▁다시	-8.71852
▁타	-8.72056
▁di	-8.72069
▁billion	-8.72097
▁청	-8.72302
▁16	-8.7233
▁much	-8.72472
▁본	-8.72497
▁날	-8.72536
▁하나	-8.72713
▁될	-8.7275
▁reason	-8.72804
별	-8.72811
▁시간	-8.72933
더	-8.73077
▁14	-8.73115
▁우	-8.73127
▁지금	-8.73132
▁within	-8.73173
두	-8.7319
▁interest	-8.73429
▁살	-8.73602
▁없다	-8.7368
박	-8.73904
▁L	-8.73989
▁결과	-8.74171
ia	-8.74404
▁period	-8.74517
▁관	-8.74571
▁Moon	-8.74728
▁fire	-8.7492
▁provide	-8.74921
▁하고	-8.7494
no	-8.75297
ating	-8.75318
as	-8.75351
기를	-8.75437
규	-8.755
라는	-8.75627
▁법	-8.75647
▁통	-8.7572
▁오늘	-8.75755
▁있다는	-8.75775
▁difficult	-8.75929
창	-8.75977
▁교	-8.75992
▁performance	-8.76022
▁h	-8.76041
▁설치	-8.76225
▁영화	-8.76502
층	-8.76533
카	-8.76562
축	-8.76584
▁직접	-8.76651
버	-8.76688
▁ma	-8.76783
▁car	-8.76811
▁among	-8.76867
립	-8.76872
▁announced	-8.76895
ru	-8.77048
▁price	-8.77122
효	-8.77351
▁제가	-8.77457
▁did	-8.7752
▁University	-8.77528
▁농	-8.77569
mp	-8.7766
복	-8.77714
∼	-8.77736
등	-8.77795
▁group	-8.77817
▁charge	-8.78117
▁social	-8.78306
▁against	-8.78382
환	-8.78389
▁dis	-8.7861
▁experience	-8.78657
ha	-8.78848
▁있을	-8.78855
▁No	-8.78889
▁ex	-8.78959
▁she	-8.79093
▁내가	-8.79132
▁national	-8.79286
관리	-8.79459
▁po	-8.79499
rs	-8.79548
▁party	-8.79605
엔	-8.79637
▁economic	-8.79836
ck	-8.79939
▁back	-8.80036
▁very	-8.80267
▁보고	-8.80287
어요	-8.80311
0,000	-8.80394
▁At	-8.80404
▁제공	-8.80724
▁투자	-8.80828
▁check	-8.80828
시설	-8.80954
▁say	-8.80962
되어	-8.81022
ian	-8.81026
결	-8.8105
▁referred	-8.81312
향	-8.81614
▁Jung	-8.81932
▁H	-8.81962
di	-8.81992
▁평가	-8.82098
▁total	-8.82133
▁구청장은	-8.82165
이라	-8.82222
브	-8.82343
▁water	-8.82456
▁Ma	-8.82772
▁part	-8.82783
명이	-8.82812
▁power	-8.8289
병	-8.82903
ong	-8.83095
▁증	-8.83357
추	-8.83568
▁every	-8.83582
sion	-8.83719
▁down	-8.83723
rd	-8.84263
W	-8.84373
▁17	-8.84451
▁모든	-8.84481
씨	-8.8452
▁아니라	-8.84565
▁product	-8.84778
▁올	-8.84923
▁치	-8.85027
▁제품	-8.85077
▁financial	-8.85104
망	-8.85282
▁him	-8.85373
북	-8.85558
▁whether	-8.85699
ness	-8.85842
▁위하여	-8.8601
▁여성	-8.86016
」	-8.86249
▁N	-8.8632
▁Jae	-8.86521
▁term	-8.86574
▁situation	-8.8667
했던	-8.86839
▁방문	-8.87307
▁결정	-8.87331
▁50	-8.87784
▁된다	-8.87878
▁기술	-8.87949
cheon	-8.88129
king	-8.88183
▁inter	-8.88185
U	-8.8828
▁난	-8.88457
▁pre	-8.88525
▁So	-8.88699
▁attention	-8.88764
▁director	-8.88772
▁Pa	-8.88775
▁25	-8.88907
▁room	-8.8898
▁아니	-8.8899
▁사회	-8.891
▁week	-8.8912
날	-8.89129
코	-8.89249
▁피	-8.8926
▁마련	-8.89289
▁pay	-8.89496
▁going	-8.89497
▁member	-8.89506
▁Dong	-8.89607
▁Office	-8.89614
▁name	-8.89712
▁family	-8.89816
익	-8.89857
per	-8.89867
▁좋은	-8.89921
▁look	-8.89996
▁budget	-8.90145
▁등의	-8.903
▁building	-8.9031
▁policy	-8.90312
▁해당	-8.90359
니다	-8.90406
문화	-8.90423
편	-8.90445
억원	-8.90446
기관	-8.90454
mb	-8.90478
▁Ha	-8.90605
▁개발	-8.90641
the	-8.90668
존	-8.90676
▁안전	-8.90829
▁Han	-8.90933
▁future	-8.91154
▁For	-8.91157
▁200	-8.91202
▁visit	-8.91235
▁change	-8.9129
이하	-8.91364
▁different	-8.91406
▁채	-8.91411
희	-8.91468
션	-8.91511
ba	-8.91772
▁임	-8.91836
▁Governor	-8.92018
▁particular	-8.92046
▁those	-8.92145
ok	-8.9215
착	-8.9224
▁cases	-8.92269
▁con	-8.92306
이라는	-8.92323
▁give	-8.92507
ies	-8.92575
▁hard	-8.92603
ran	-8.92688
▁construction	-8.93071
투	-8.93072
▁따르면	-8.93088
▁officials	-8.93184
▁working	-8.93194
▁북	-8.93273
▁첫	-8.93276
▁번	-8.93286
ine	-8.93469
▁학교	-8.93507
▁amount	-8.93531
be	-8.93682
시장	-8.93803
했습니다	-8.93815
op	-8.93994
장을	-8.94056
▁again	-8.94139
▁real	-8.9414
▁정책	-8.94152
평	-8.94158
후	-8.94231
▁24	-8.9428
되지	-8.94385
▁연구	-8.94484
▁means	-8.94513
nam	-8.94583
▁Co	-8.94601
담	-8.94707
▁New	-8.94822
그	-8.94888
si	-8.94912
▁vi	-8.95071
▁design	-8.95192
▁department	-8.95199
▁off	-8.95205
man	-8.95239
▁결	-8.95599
림	-8.95647
▁US	-8.95747
▁percent	-8.95783
▁이를	-8.95864
▁committee	-8.95876
ab	-8.96004
▁금	-8.96066
▁Minister	-8.96128
ence	-8.962
▁man	-8.96205
▁problem	-8.96324
▁오후	-8.96435
▁past	-8.96444
▁눈	-8.96483
든	-8.96589
들에게	-8.96608
co	-8.96729
사가	-8.96852
▁together	-8.96961
▁care	-8.96988
ure	-8.97005
▁사건	-8.97169
▁V	-8.97254
0%	-8.97349
▁us	-8.97382
았다	-8.9746
성을	-8.97487
해요	-8.97509
번	-8.97609
단체	-8.97935
▁들	-8.9795
▁measures	-8.98023
▁요	-8.98097
▁너무	-8.9814
교육	-8.98153
론	-8.98338
▁strong	-8.98763
▁culture	-8.98771
지역	-8.98883
▁「	-8.98953
▁증가	-8.99006
sa	-8.99008
▁실시	-8.99088
ous	-8.99092
ical	-8.99369
▁당시	-8.99466
▁우리는	-8.99476
▁find	-8.99503
pla	-8.99526
▁취	-8.99536
으면	-8.99544
▁activities	-8.99574
▁hope	-8.99582
ven	-8.996
▁분석	-8.99618
▁기록	-8.99647
했다고	-8.99649
▁일부	-8.9965
▁To	-8.99812
▁d	-8.99995
▁Busan	-9.00233
철	-9.00307
▁main	-9.00325
락	-9.00361
▁구성	-9.00483
▁level	-9.0053
능	-9.0055
go	-9.0056
▁곳	-9.0085
▁per	-9.01033
▁received	-9.01135
▁possible	-9.01222
▁Ordinance	-9.01269
▁reported	-9.01328
▁countries	-9.01354
▁공개	-9.01369
▁벌	-9.01434
hereinafter	-9.01486
▁general	-9.01493
▁low	-9.01896
리는	-9.01906
old	-9.01937
cu	-9.02048
▁볼	-9.02079
▁sales	-9.02088
술	-9.02117
▁부산	-9.02353
▁best	-9.02365
▁다만	-9.02425
▁판매	-9.02426
▁Assembly	-9.02483
송	-9.02524
기업	-9.02548
른	-9.02569
gra	-9.02667
▁준비	-9.02709
▁province	-9.02718
▁늘	-9.02736
으며	-9.02865
▁감사	-9.02962
▁major	-9.03153
▁경우에는	-9.03169
ad	-9.03312
ber	-9.03325
▁Please	-9.03419
▁동안	-9.03459
▁담	-9.03485
ship	-9.03507
▁Japan	-9.03628
▁포함	-9.03651
▁있었다	-9.03664
▁private	-9.03688
▁보내	-9.03782
▁속	-9.03823
We	-9.03868
만원	-9.03937
▁온	-9.0394
▁신청	-9.04086
▁That	-9.04091
▁때문이다	-9.04253
jo	-9.04301
쟁	-9.04472
▁result	-9.04481
불	-9.04518
▁개최	-9.04627
▁투	-9.04806
▁않	-9.04938
▁matters	-9.0494
▁자리	-9.04947
▁정부	-9.04983
▁추가	-9.05031
▁관한	-9.05076
▁회사	-9.05083
▁표	-9.05112
▁21	-9.05183
까	-9.05217
지고	-9.05487
▁있다고	-9.05555
거나	-9.05639
▁women	-9.05705
▁열린	-9.05835
▁job	-9.05861
▁media	-9.05888
▁확대	-9.05896
▁music	-9.0594
▁23	-9.05996
▁40	-9.06017
▁어떤	-9.06021
ization	-9.06102
▁급	-9.06116
팀	-9.06179
▁comp	-9.06241
▁game	-9.06354
▁air	-9.06422
▁또	-9.06541
tion	-9.06648
▁start	-9.06678
ally	-9.06687
열	-9.06704
▁새	-9.06794
▁foreign	-9.0703
▁Samsung	-9.07132
▁않은	-9.07149
▁앞	-9.07159
본	-9.07262
▁Mo	-9.07303
▁높은	-9.07308
▁새로운	-9.07374
▁law	-9.07533
▁체	-9.07563
긴	-9.07574
함	-9.07592
▁until	-9.07632
▁용	-9.07661
▁요구	-9.07746
▁young	-9.07747
▁areas	-9.07773
▁love	-9.0783
▁four	-9.07835
▁today	-9.07889
▁state	-9.07903
▁call	-9.07943
du	-9.07975
▁합	-9.08026
▁만큼	-9.08028
▁here	-9.08031
▁demand	-9.08112
백	-9.08156
▁using	-9.08169
▁important	-9.08175
▁27	-9.08215
▁money	-9.08234
com	-9.08249
ling	-9.08277
▁Education	-9.08294
▁정도	-9.08357
▁based	-9.08382
▁순	-9.08492
")	-9.08557
▁R	-9.08607
▁great	-9.08638
▁show	-9.08733
▁아이	-9.08744
▁권	-9.0879
wa	-9.0893
▁damage	-9.08951
범	-9.09195
였다	-9.09232
지를	-9.09287
▁data	-9.09295
▁되	-9.09325
▁test	-9.09373
▁환경	-9.09382
▁technology	-9.09504
▁토	-9.09539
▁play	-9.09589
▁tax	-9.09713
▁growth	-9.09827
bu	-9.09828
▁공연	-9.09957
▁Chinese	-9.09976
협	-9.1003
tra	-9.10092
명의	-9.1017
▁리	-9.10172
▁전국	-9.102
▁put	-9.10236
▁increased	-9.10245
원이	-9.10319
▁이런	-9.10355
릴	-9.10366
▁너	-9.10438
▁too	-9.1044
▁복	-9.1068
▁five	-9.10718
▁22	-9.10723
성이	-9.10737
▁president	-9.10779
yo	-9.10804
랑	-9.10885
▁live	-9.1097
▁investment	-9.11011
▁half	-9.11096
다는	-9.11104
갈	-9.11135
▁why	-9.11165
례	-9.11252
▁계	-9.11326
에서도	-9.11334
▁house	-9.11489
▁Cho	-9.11539
▁workers	-9.11583
▁Japanese	-9.11602
초	-9.11642
30	-9.11715
▁still	-9.1173
곡	-9.1179
▁decided	-9.11799
친	-9.11847
▁left	-9.11885
▁잡	-9.11889
▁등에	-9.1192
red	-9.12035
▁가격	-9.12059
기도	-9.12079
lu	-9.1212
▁free	-9.12179
▁Council	-9.12186
▁request	-9.12302
▁class	-9.12318
ding	-9.12319
▁came	-9.12432
염	-9.12454
ors	-9.12523
▁수사	-9.12566
con	-9.12668
▁프로그램	-9.12726
▁사이	-9.1273
▁safety	-9.12736
▁2018	-9.12783
▁당신은	-9.12893
찬	-9.12896
▁W	-9.12903
▁가능	-9.13135
▁side	-9.13142
▁창	-9.13172
won	-9.13182
ung	-9.13219
▁지방	-9.1339
▁최대	-9.13552
▁막	-9.13621
▁지급	-9.13689
jin	-9.13748
▁국민	-9.13979
블	-9.14014
▁길	-9.14105
ty	-9.14115
▁국제	-9.14117
▁own	-9.14197
▁making	-9.14299
▁현장	-9.14366
항에	-9.14393
ign	-9.14428
▁Su	-9.14714
처럼	-9.148
yeong	-9.14974
▁합니다	-9.14999
▁able	-9.1501
▁final	-9.15019
▁short	-9.1504
▁충	-9.1506
▁돌	-9.15065
▁field	-9.15106
▁관계	-9.15191
hi	-9.15259
ni	-9.15414
▁De	-9.15453
▁g	-9.15578
▁early	-9.15655
▁도시	-9.15658
▁top	-9.15668
▁계획	-9.15675
▁After	-9.15716
플	-9.15771
ized	-9.15784
▁continue	-9.1595
▁주민	-9.15962
▁(1)	-9.16019
▁선정	-9.16106
자는	-9.16188
▁send	-9.16224
▁Service	-9.16271
▁변	-9.16289
▁Trump	-9.16406
▁apply	-9.16422
▁receive	-9.16454
▁코	-9.16458
▁Dae	-9.16553
▁share	-9.1666
▁기대	-9.16686
졌	-9.16822
ens	-9.16859
▁당신이	-9.1689
극	-9.16924
▁feel	-9.16984
▁Bo	-9.16993
▁사고	-9.17006
▁군	-9.17032
▁있	-9.17082
▁철	-9.17083
▁pursua	-9.17274
▁contract	-9.17283
말	-9.17424
▁pass	-9.17452
▁Se	-9.17494
▁28	-9.17495
▁took	-9.17511
▁26	-9.17537
▁배우	-9.1757
▁projects	-9.17648
▁representative	-9.17714
tor	-9.17716
▁활동	-9.17729
ga	-9.1773
▁국회	-9.17771
▁기존	-9.17841
▁labor	-9.17862
▁금융	-9.1795
▁활용	-9.18077
ow	-9.18143
▁Jong	-9.18146
gi	-9.18301
▁Wa	-9.18341
▁results	-9.18391
ew	-9.18403
▁election	-9.18426
▁en	-9.18449
쪽	-9.18484
▁cr	-9.1853
▁개선	-9.18531
회의	-9.18536
▁어떻게	-9.18572
ial	-9.18592
▁개인	-9.18616
▁military	-9.18645
▁시행	-9.18668
ever	-9.1874
▁released	-9.18813
너	-9.18815
▁음식	-9.19004
ee	-9.19015
▁관계자는	-9.19157
▁health	-9.1916
▁않고	-9.19203
▁인정	-9.1923
키	-9.1925
▁전문	-9.19288
▁issue	-9.19346
▁네	-9.19374
되면	-9.19436
▁트럼프	-9.19495
▁성장	-9.19546
▁What	-9.19625
▁prevent	-9.19703
스트	-9.19737
▁메	-9.19818
▁paragraph	-9.19822
ten	-9.19843
▁agreement	-9.19903
▁특	-9.20035
▁보인다	-9.20067
네	-9.2011
▁site	-9.20172
▁학	-9.20196
▁공동	-9.20214
채	-9.20243
광	-9.20274
되었다	-9.2033
▁있어요	-9.20343
기에	-9.20386
ving	-9.20605
▁act	-9.20623
했고	-9.20635
▁form	-9.20719
▁Me	-9.20722
▁KRW	-9.20756
▁마음	-9.20764
▁오전	-9.20765
하거나	-9.20834
▁발표	-9.2084
▁domestic	-9.20888
▁Incheon	-9.20958
▁2016	-9.21008
▁research	-9.21091
▁고객	-9.21172
▁app	-9.2119
▁sign	-9.21267
▁late	-9.21324
▁purpose	-9.21436
▁these	-9.21436
▁생산	-9.2146
ring	-9.2158
J	-9.21589
▁계속	-9.21623
기가	-9.21669
▁relevant	-9.21824
ct	-9.21923
▁노력	-9.21947
했	-9.2198
ex	-9.21997
▁affairs	-9.22081
▁line	-9.22145
▁Na	-9.22218
che	-9.2244
애	-9.22473
▁big	-9.22493
▁최고	-9.22547
농	-9.2256
▁film	-9.22655
ig	-9.22844
cy	-9.22855
씨가	-9.22895
▁규모	-9.22962
▁human	-9.22971
der	-9.2301
▁art	-9.23055
서를	-9.23081
▁However	-9.23084
▁오는	-9.23154
이에요	-9.23194
▁갈	-9.23238
▁economy	-9.2324
▁application	-9.2325
▁예정	-9.23253
▁global	-9.23327
V	-9.23328
▁조례	-9.23393
ide	-9.23431
▁시설	-9.23462
▁만들어	-9.23556
나요	-9.23847
ative	-9.23923
ction	-9.23988
▁effect	-9.2405
▁현	-9.24096
X	-9.24112
했어요	-9.24146
▁행정	-9.24214
▁Choi	-9.2424
다고	-9.24288
pi	-9.24334
▁account	-9.24433
▁있으며	-9.24448
od	-9.24473
살	-9.2456
산업	-9.2465
▁주요	-9.24655
▁누	-9.24656
▁요청	-9.2475
▁cultural	-9.24812
▁region	-9.24869
퍼	-9.24951
▁exchange	-9.25089
ip	-9.25117
5%	-9.25174
ng	-9.25177
▁la	-9.25246
ger	-9.25283
탄	-9.25305
▁Ho	-9.25322
▁기간	-9.25402
▁establish	-9.25411
했지만	-9.2544
님	-9.25494
▁잠	-9.25516
▁분야	-9.25565
▁적용	-9.2559
▁sp	-9.25642
▁좀	-9.25684
▁있고	-9.25746
▁hold	-9.25774
time	-9.25839
순	-9.25844
▁open	-9.25856
으	-9.25963
▁called	-9.26061
▁front	-9.26134
▁times	-9.26199
변	-9.26335
▁부분	-9.26478
▁St	-9.26527
▁buy	-9.26555
19	-9.26558
▁record	-9.26734
▁여러	-9.26745
▁environment	-9.26785
▁must	-9.26831
머	-9.26841
▁does	-9.26888
봉	-9.26921
▁Mi	-9.26948
▁Chairman	-9.27075
▁Go	-9.27241
▁Although	-9.27346
▁addition	-9.2736
▁대통령이	-9.2738
▁목	-9.27404
▁받아	-9.2745
▁believe	-9.27474
▁사랑	-9.27544
▁Shin	-9.27569
▁payment	-9.2759
▁run	-9.27616
▁Hong	-9.27668
▁없이	-9.27729
▁attached	-9.27735
니까	-9.27764
▁몰	-9.27781
▁sh	-9.27808
▁민	-9.27826
지원	-9.27907
사를	-9.2795
▁Court	-9.28027
▁citizens	-9.28073
▁쓰	-9.28172
▁넘	-9.28196
10	-9.28212
▁plans	-9.28297
객	-9.28396
▁생활	-9.28466
▁건강	-9.28491
▁video	-9.28677
▁전체	-9.28677
▁chairman	-9.28708
납	-9.28723
악	-9.28733
▁정보	-9.28792
▁애	-9.28838
▁current	-9.28845
▁야	-9.28907
ook	-9.29003
▁높	-9.2903
▁발전	-9.29091
자를	-9.29165
▁판단	-9.29203
▁create	-9.29213
록	-9.2927
▁movie	-9.29299
▁war	-9.29309
조사	-9.29357
▁enjoy	-9.2938
▁찾아	-9.29382
▁좋아	-9.29459
▁종	-9.29553
▁ca	-9.29672
이었다	-9.2976
▁팀	-9.29764
less	-9.29851
▁가족	-9.29899
▁받은	-9.2993
vo	-9.29946
rt	-9.29961
들과	-9.29969
▁My	-9.30002
▁full	-9.30021
▁medical	-9.301
자의	-9.30109
▁상태	-9.30141
▁hand	-9.30236
▁Institute	-9.30296
os	-9.30349
▁아직	-9.30412
▁court	-9.30432
▁산업	-9.30471
▁식	-9.30548
ability	-9.30598
곳	-9.3071
▁송	-9.30723
사는	-9.30729
▁prosecution	-9.30732
▁어느	-9.30762
▁커	-9.30776
ak	-9.30807
▁went	-9.30819
▁already	-9.30919
▁학생	-9.30937
▁body	-9.30961
▁강화	-9.30991
▁'	-9.31057
▁의미	-9.31168
▁기준	-9.31241
하도록	-9.31296
▁대상	-9.31339
▁해외	-9.31348
ud	-9.31486
▁인천	-9.31489
▁land	-9.31512
▁사진	-9.31523
▁meet	-9.31524
▁provincial	-9.31629
▁업무	-9.3165
ition	-9.31652
iv	-9.31661
▁관심	-9.31715
계획	-9.31752
50	-9.31897
▁less	-9.31927
이란	-9.31955
▁established	-9.31977
▁stock	-9.31986
▁hours	-9.32132
▁사람이	-9.32155
▁서비스	-9.32211
▁May	-9.32212
▁지정	-9.32229
▁방송	-9.32336
▁광	-9.32428
▁according	-9.32439
▁회의	-9.32447
▁예정이다	-9.32487
▁attend	-9.32526
▁once	-9.32605
▁고려	-9.32642
▁29	-9.32696
ite	-9.3279
주의	-9.32814
테	-9.32822
▁point	-9.32858
수가	-9.32864
▁trade	-9.32954
▁설명했다	-9.33013
▁please	-9.33139
▁Ba	-9.33158
side	-9.332
act	-9.33226
▁방법	-9.33338
▁paid	-9.33395
▁귀	-9.33447
▁participate	-9.33508
▁접	-9.3353
▁조성	-9.33538
▁road	-9.33594
▁bank	-9.33703
▁book	-9.33751
▁li	-9.3388
ified	-9.33906
▁expenses	-9.33916
▁season	-9.33934
▁floor	-9.33951
ach	-9.33974
▁바로	-9.34111
▁talk	-9.34306
▁2017	-9.34346
ries	-9.34352
▁31	-9.34356
ning	-9.34397
▁당신	-9.34408
▁subject	-9.34415
▁stage	-9.34429
▁services	-9.34482
취	-9.34571
tu	-9.34573
and	-9.34596
ious	-9.34645
▁같이	-9.34693
woo	-9.34724
fe	-9.34788
cha	-9.34809
▁competition	-9.34834
▁review	-9.34921
▁승	-9.34946
▁참	-9.34985
혜	-9.3505
왔다	-9.35075
대로	-9.35104
▁both	-9.35123
ard	-9.35124
mon	-9.35159
름	-9.35212
▁program	-9.35248
▁교수	-9.35277
▁태	-9.35296
▁cooperation	-9.35355
uk	-9.35377
▁conduct	-9.3551
▁Jin	-9.35587
ight	-9.35601
▁대학	-9.35664
▁employees	-9.35699
▁그리고	-9.35942
▁Association	-9.36075
▁self	-9.36076
▁cost	-9.36076
▁Ex	-9.36126
▁Seo	-9.36142
ap	-9.36142
▁그런	-9.36149
▁fine	-9.36155
fi	-9.36191
렸다	-9.36192
▁close	-9.36199
▁책	-9.36304
▁더욱	-9.36308
▁일반	-9.36337
▁환	-9.36406
▁수준	-9.36646
▁직	-9.36715
▁않았	-9.3679
▁이유	-9.36863
han	-9.36936
▁seems	-9.36945
구청장	-9.3696
습	-9.36996
▁space	-9.37
▁알려	-9.37021
▁hospital	-9.37033
개월	-9.3704
진다	-9.37116
▁면	-9.37138
▁joint	-9.37141
▁허	-9.37149
land	-9.3718
력을	-9.37284
둔	-9.37354
▁return	-9.37407
▁처리	-9.37484
led	-9.37516
▁bus	-9.37559
▁가능성이	-9.37564
.”	-9.37576
▁months	-9.37576
▁explained	-9.37591
▁conducted	-9.37601
▁living	-9.3761
▁Young	-9.37638
▁lead	-9.37648
▁설명	-9.37657
▁여행	-9.37662
▁이해	-9.37748
총	-9.37795
명을	-9.37855
▁They	-9.38003
▁있었	-9.38015
▁value	-9.38067
▁예산	-9.38108
▁집중	-9.38139
end	-9.38165
▁cannot	-9.38168
▁된	-9.38306
▁Yang	-9.38405
▁소속	-9.38413
▁성공	-9.38437
▁정말	-9.38481
▁selected	-9.38537
▁아닌	-9.38545
▁남북	-9.38594
▁District	-9.38706
▁인사	-9.38766
▁card	-9.38776
▁폐	-9.38883
▁받고	-9.38949
경제	-9.38983
찰	-9.39077
▁돌아	-9.3912
▁recently	-9.39159
▁production	-9.39191
낸	-9.39263
▁차량	-9.39329
▁몇	-9.39491
▁회장	-9.395
▁독	-9.3958
va	-9.39595
▁date	-9.39596
글	-9.39618
tr	-9.3966
▁전망	-9.39864
▁ceremony	-9.39951
▁주장	-9.40082
탁	-9.4009
▁training	-9.40097
견	-9.40113
gun	-9.40129
▁cause	-9.40152
▁position	-9.40236
▁got	-9.40315
▁만나	-9.40327
▁district	-9.4035
▁있지만	-9.40505
▁정부가	-9.40586
▁led	-9.4066
▁morning	-9.40683
▁Yong	-9.40742
▁상품	-9.40793
독	-9.40803
mm	-9.40808
▁친구	-9.40911
▁eat	-9.40916
▁2015	-9.40948
▁장관	-9.41033
▁폭	-9.41055
▁버	-9.41061
▁공무원	-9.41103
ea	-9.41266
les	-9.41304
책	-9.41341
▁child	-9.41393
▁United	-9.41397
▁호의	-9.41435
▁face	-9.41466
ions	-9.41493
▁Cheong	-9.41509
▁의원	-9.41511
하였다	-9.4152
혼	-9.41541
way	-9.41557
▁골	-9.4168
▁해결	-9.41736
▁ten	-9.41809
업체	-9.41825
금을	-9.41923
▁역	-9.4196
헌	-9.42022
one	-9.42023
▁organizations	-9.42045
▁대상으로	-9.42143
▁Democratic	-9.42165
Y	-9.42235
▁Since	-9.42323
▁old	-9.42428
택	-9.42428
▁inspection	-9.4243
▁검찰	-9.42435
침	-9.42458
▁사람들	-9.4248
▁near	-9.42501
▁Con	-9.42648
▁previous	-9.42676
▁처음	-9.42677
▁prices	-9.42695
인지	-9.4271
▁업체	-9.42847
▁60	-9.42885
▁organization	-9.42922
▁Jo	-9.43157
▁신고	-9.43157
ish	-9.43174
▁English	-9.43239
인이	-9.43239
▁문제가	-9.43255
▁popular	-9.43316
▁천	-9.43347
▁것입니다	-9.43365
▁summit	-9.43404
▁agency	-9.43404
▁만들	-9.43471
▁설	-9.43524
▁않는	-9.43561
qui	-9.43582
압	-9.43616
▁선수	-9.43684
▁이미	-9.43861
▁away	-9.43971
▁far	-9.44113
▁경험	-9.44115
▁along	-9.44226
▁유지	-9.44245
▁끝	-9.44278
▁극	-9.4431
soo	-9.44326
▁도지사	-9.44391
sta	-9.44432
",	-9.44441
▁travel	-9.44578
▁청와대	-9.44591
돌	-9.44629
▁started	-9.44682
▁않아	-9.44729
cl	-9.44741
▁administration	-9.44781
fin	-9.44808
ual	-9.44853
ize	-9.44854
▁특별	-9.4487
▁Si	-9.44913
▁매우	-9.44923
▁control	-9.44948
▁accident	-9.44985
▁became	-9.44996
조제	-9.45049
▁keep	-9.45069
ster	-9.45105
▁말한다	-9.45154
렸	-9.45164
▁goal	-9.45196
▁understand	-9.45212
▁drama	-9.45213
▁post	-9.45257
lation	-9.45275
▁taking	-9.45381
리가	-9.45424
▁non	-9.45436
cent	-9.45506
▁photo	-9.45509
▁fall	-9.45541
ound	-9.45551
▁improve	-9.4561
▁opening	-9.45663
팅	-9.45766
▁thought	-9.45767
▁then	-9.45802
▁method	-9.45826
▁community	-9.45838
일까지	-9.45911
▁라	-9.45931
▁visited	-9.45934
▁부담	-9.45996
▁audit	-9.46111
ities	-9.4613
▁위원	-9.46241
out	-9.463
▁예상	-9.46303
line	-9.46324
▁변화	-9.46364
▁better	-9.46465
ism	-9.4648
▁income	-9.46528
▁administrative	-9.4659
▁향	-9.46643
▁드	-9.4672
▁때에는	-9.4673
개발	-9.46764
런	-9.46802
▁welfare	-9.46821
위를	-9.46846
뉴	-9.46909
페	-9.46912
dy	-9.46942
fa	-9.47036
▁참가	-9.47054
력이	-9.4706
▁likely	-9.4707
▁Sa	-9.47106
▁일자리	-9.47143
▁decision	-9.47151
겠	-9.47211
사회	-9.47213
▁clear	-9.47214
▁age	-9.47266
▁Cha	-9.47298
▁sector	-9.47323
▁낮	-9.47363
▁의혹	-9.47573
buk	-9.4759
▁Gwangju	-9.47591
90	-9.47602
일부터	-9.47636
▁international	-9.47654
▁Mayor	-9.47714
▁Where	-9.47741
▁구매	-9.47779
자치	-9.47844
▁주문	-9.47851
▁참석	-9.4787
정보	-9.479
▁Commission	-9.47903
▁작품	-9.47909
▁인기	-9.47986
▁대부분	-9.48
▁match	-9.48037
▁위원회	-9.48097
he	-9.4811
짜	-9.48123
▁제출	-9.48134
빠	-9.48177
▁leader	-9.48199
▁백	-9.48254
틀	-9.48296
▁앞으로	-9.48365
lar	-9.48369
▁night	-9.48386
ot	-9.48408
▁another	-9.48457
올	-9.48483
long	-9.4854
▁asked	-9.48622
▁Nam	-9.48626
rea	-9.48674
▁확보	-9.48718
▁soon	-9.48766
네요	-9.4877
▁당신의	-9.48786
줄	-9.48804
▁됐다	-9.48813
wi	-9.48904
▁World	-9.48905
▁현지	-9.48939
황	-9.48976
▁되는	-9.48978
▁Li	-9.48996
young	-9.49012
▁tell	-9.49036
tal	-9.49115
▁wage	-9.4912
pt	-9.4914
▁Kang	-9.49161
▁우리가	-9.49295
은행	-9.49356
▁School	-9.49392
▁treatment	-9.49398
▁include	-9.4948
▁song	-9.49507
▁일정	-9.4959
▁광주	-9.49738
▁현대	-9.49779
▁휴	-9.49803
▁대통령	-9.49811
▁자신	-9.49844
▁promote	-9.49858
▁제기	-9.49888
득	-9.4993
▁cons	-9.49937
▁purchase	-9.49944
슬	-9.50019
▁move	-9.50243
▁Ga	-9.50342
▁비용	-9.50391
qua	-9.50439
▁Chung	-9.5047
▁officer	-9.50597
▁list	-9.50636
▁제작	-9.50703
▁시간이	-9.50895
▁six	-9.50957
▁Ji	-9.51003
▁promotion	-9.51083
▁또한	-9.5112
▁located	-9.51134
▁Be	-9.51178
컨	-9.51249
됐	-9.51318
▁third	-9.51325
▁이름	-9.51335
원을	-9.51404
기간	-9.51433
▁계약	-9.51467
▁history	-9.51491
▁hit	-9.51511
이며	-9.51523
▁trial	-9.51546
주는	-9.51601
육	-9.51669
▁패	-9.51733
▁things	-9.51743
▁자신의	-9.51816
▁먼저	-9.51863
▁role	-9.51939
ner	-9.51972
도록	-9.5211
활	-9.52186
▁담당	-9.52231
▁크게	-9.52238
▁기관	-9.52245
▁내용	-9.52271
▁없어	-9.52305
▁Da	-9.52353
▁Ro	-9.52443
▁시민	-9.52484
조에	-9.52514
정책	-9.52546
hu	-9.52577
▁Even	-9.52578
▁판	-9.5261
▁Can	-9.52645
ja	-9.52681
인데	-9.52682
▁가지	-9.52704
▁allow	-9.52766
률	-9.52779
▁Group	-9.52804
▁attract	-9.52854
▁store	-9.52927
▁security	-9.52933
되었	-9.52934
ki	-9.52945
▁카	-9.52981
▁March	-9.52984
▁않았다	-9.53013
였	-9.53018
▁rights	-9.53057
▁known	-9.53082
▁showed	-9.53126
▁confirmed	-9.53137
쇼	-9.53154
▁형	-9.53165
충	-9.53339
▁협력	-9.53387
▁Jeju	-9.53514
십	-9.53518
▁let	-9.53524
ator	-9.5353
▁survey	-9.53544
▁sc	-9.53623
▁서울특별시	-9.53643
▁character	-9.53649
▁owner	-9.53649
▁International	-9.53675
았	-9.53755
▁준	-9.53805
ep	-9.53834
▁TV	-9.53898
시는	-9.53919
되면서	-9.53951
gen	-9.53983
▁저희	-9.54002
ture	-9.54053
▁win	-9.54081
▁With	-9.54188
▁Song	-9.54214
▁수출	-9.54317
▁parents	-9.54387
▁senior	-9.54396
we	-9.54431
▁course	-9.54581
▁몸	-9.54596
▁감독	-9.54602
▁친	-9.54607
활동	-9.54733
훈	-9.54748
▁규정	-9.54848
▁많	-9.54904
점을	-9.54956
▁kind	-9.54991
▁problems	-9.5501
▁후보	-9.55061
ff	-9.55089
었	-9.55098
▁등으로	-9.55121
덕	-9.55122
▁began	-9.55158
▁caused	-9.55215
ft	-9.55289
▁논의	-9.55341
▁light	-9.5538
위원	-9.55393
▁침	-9.55407
▁회	-9.55487
▁expect	-9.5554
▁attended	-9.55628
▁provided	-9.5564
▁피해	-9.55689
볼	-9.55769
▁Bu	-9.55811
val	-9.55827
▁보면	-9.5583
▁우선	-9.56009
대표	-9.56052
▁exhibition	-9.56098
▁책임	-9.5614
의회	-9.56157
▁didn	-9.56187
▁export	-9.5623
ress	-9.56237
▁spread	-9.56256
ral	-9.56282
▁complex	-9.56309
▁added	-9.56404
▁Police	-9.56417
▁ch	-9.56417
▁역사	-9.56454
▁선택	-9.56462
정부	-9.56504
▁합의	-9.56527
▁Po	-9.56544
cc	-9.56688
▁있나요	-9.56727
기술	-9.56794
측	-9.56815
▁음악	-9.56829
je	-9.5687
상을	-9.5689
year	-9.56985
복지	-9.57055
▁&	-9.57061
▁부족	-9.57067
▁사항을	-9.57123
검	-9.57193
▁측	-9.57238
▁sent	-9.57249
▁심의	-9.57296
▁키	-9.57359
▁reflect	-9.57361
▁employment	-9.57415
▁높아	-9.5749
▁가능한	-9.57506
▁거래	-9.57575
▁How	-9.57588
▁따	-9.57631
▁보호	-9.57635
쳐	-9.57703
▁조금	-9.57716
▁일이	-9.57792
레이	-9.57806
▁황	-9.57832
기로	-9.57885
칠	-9.57973
▁크	-9.57973
▁관심이	-9.58023
▁middle	-9.58027
▁response	-9.58041
▁rise	-9.58047
tle	-9.58049
▁사실	-9.58051
▁strengthen	-9.5806
ect	-9.58089
▁탄	-9.58136
pl	-9.58241
▁CEO	-9.58257
It	-9.58268
▁additional	-9.58334
▁contain	-9.58354
▁단체	-9.58357
족	-9.58397
로부터	-9.58465
▁과정	-9.58485
▁picture	-9.58492
▁institutions	-9.58503
메	-9.58582
tro	-9.58646
했다는	-9.58648
▁persons	-9.58704
ants	-9.58762
되	-9.58774
▁자체	-9.58814
▁works	-9.58833
▁전했다	-9.58853
▁policies	-9.58932
▁영상	-9.58958
pen	-9.58998
씨는	-9.59162
▁게임	-9.59171
▁내년	-9.59178
▁삼	-9.59237
▁글로벌	-9.59263
▁fee	-9.59318
▁political	-9.59374
▁Min	-9.59419
▁영어	-9.59422
hy	-9.59433
▁society	-9.59443
▁도입	-9.59452
▁restaurant	-9.5947
▁festival	-9.59512
▁personal	-9.59524
day	-9.59528
▁ruling	-9.59554
관계	-9.59618
▁players	-9.59628
▁왜	-9.59654
널	-9.59678
▁근	-9.59751
▁housing	-9.59776
▁Lo	-9.59833
let	-9.59835
부서	-9.59907
▁대비	-9.59918
oc	-9.59989
▁않을	-9.60039
▁type	-9.60041
▁station	-9.60042
▁재판	-9.60115
▁profit	-9.60118
▁illegal	-9.60123
▁발견	-9.60128
거리	-9.60134
▁leave	-9.60165
수를	-9.60168
▁House	-9.60187
ory	-9.60193
▁작성	-9.60286
▁fans	-9.60291
▁having	-9.60319
▁phone	-9.60353
▁apartment	-9.60458
lic	-9.60614
하기로	-9.60624
▁village	-9.6064
▁0	-9.60652
▁overseas	-9.60766
▁individual	-9.60822
port	-9.6083
▁인상	-9.60847
▁participated	-9.60855
▁상승	-9.60871
▁quality	-9.60876
▁물론	-9.60945
식을	-9.60949
▁Hyun	-9.60985
ser	-9.61035
부가	-9.61039
▁윤	-9.611
▁minutes	-9.61162
ification	-9.6117
da	-9.61237
리를	-9.61263
하자	-9.61345
fl	-9.61404
▁model	-9.61428
▁우수	-9.61438
▁검토	-9.615
▁직원	-9.61699
▁actively	-9.61774
원의	-9.61779
▁이야기	-9.61787
que	-9.61829
Korean	-9.61849
물을	-9.61875
▁supply	-9.6188
▁lower	-9.61926
▁보여	-9.61957
▁scene	-9.61981
▁있기	-9.62021
▁directly	-9.62029
▁present	-9.6208
▁놀	-9.62086
▁changed	-9.62092
커	-9.62115
겠다	-9.62148
별로	-9.62179
▁color	-9.62237
▁민간	-9.62261
▁있는데	-9.6236
▁과거	-9.62365
cho	-9.62392
움	-9.62395
▁공간	-9.62404
▁테	-9.6242
▁little	-9.62435
폭	-9.62501
▁prepare	-9.62514
▁돼	-9.62515
▁opposition	-9.62535
▁pointed	-9.62551
▁experts	-9.62595
하던	-9.62639
▁소개	-9.62669
hyun	-9.62722
접	-9.62766
▁활성화	-9.62792
▁나오	-9.62804
▁그동안	-9.62907
▁Sung	-9.6292
yang	-9.62976
공사	-9.62977
ern	-9.62978
▁밀	-9.62995
▁Pro	-9.62997
▁숨	-9.63008
▁이제	-9.63011
▁limit	-9.63044
▁im	-9.63044
자들이	-9.63045
▁news	-9.63056
시면	-9.63165
▁상황	-9.63167
▁increasing	-9.63208
▁Ca	-9.63245
▁schools	-9.63294
▁sub	-9.6333
ag	-9.63358
term	-9.63394
▁chief	-9.63597
핑	-9.63626
izing	-9.63629
▁공공	-9.6363
균	-9.63633
▁음	-9.63657
▁삶	-9.63716
men	-9.63726
▁나라	-9.6377
▁insurance	-9.63871
mark	-9.63914
▁탈	-9.63929
▁April	-9.63987
▁미래	-9.63987
환경	-9.64042
▁이에	-9.64047
▁Tae	-9.64143
▁key	-9.64273
▁read	-9.64319
기는	-9.64338
▁작업	-9.64436
▁2019	-9.64462
보고	-9.64487
▁executive	-9.64495
ac	-9.64516
▁역시	-9.64526
▁공급	-9.6454
치는	-9.64544
▁judge	-9.64597
▁study	-9.6462
▁unit	-9.64644
wo	-9.64647
▁하루	-9.6469
▁va	-9.6474
옥	-9.64758
▁met	-9.64862
흥	-9.64944
▁Asian	-9.64957
원은	-9.65025
학교	-9.6503
▁facility	-9.65035
리고	-9.65078
▁구조	-9.6508
▁주변	-9.65103
ie	-9.65147
▁develop	-9.65169
▁natural	-9.65299
▁교통	-9.65319
▁States	-9.65371
점이	-9.65382
▁view	-9.654
▁Sang	-9.65437
써	-9.65505
으나	-9.65505
▁삼성	-9.65508
▁적극	-9.65535
▁friend	-9.65586
▁이뤄	-9.65635
건축	-9.65636
▁뜻	-9.65637
▁regular	-9.65692
▁enter	-9.65715
▁중인	-9.65798
▁각종	-9.65819
▁completed	-9.65828
께	-9.65866
▁지속	-9.65868
끼	-9.65903
▁2014	-9.66059
장에서	-9.66078
휘	-9.66109
▁대하여	-9.66136
▁plant	-9.66197
▁basic	-9.66199
▁앞서	-9.66205
▁traditional	-9.6626
▁applied	-9.66302
▁cut	-9.66315
▁Jang	-9.66327
▁manager	-9.66383
▁정치	-9.66409
▁civil	-9.66524
▁Seung	-9.66587
응	-9.6659
▁funds	-9.6659
▁규제	-9.66599
▁later	-9.66662
▁정상	-9.66719
ient	-9.66762
패	-9.66763
▁operate	-9.66766
▁conditions	-9.66799
▁사람들이	-9.66882
▁sea	-9.67001
▁평	-9.67042
▁raised	-9.67067
▁existing	-9.67147
▁June	-9.67335
▁rain	-9.67342
ration	-9.67378
ear	-9.67379
▁ba	-9.67381
▁always	-9.67405
세요	-9.67419
▁really	-9.67444
촌	-9.6745
▁언제	-9.67515
▁경쟁	-9.67523
▁ask	-9.6753
▁Some	-9.67628
케	-9.67659
▁given	-9.67663
▁대회	-9.6769
숙	-9.67729
필	-9.67745
▁청년	-9.67756
▁반영	-9.67767
▁하지만	-9.67818
그룹	-9.67838
▁Liberty	-9.67871
▁disease	-9.67901
▁trillion	-9.67901
지가	-9.67999
▁press	-9.68001
▁항	-9.68118
봤	-9.68142
▁customers	-9.68175
▁Station	-9.68207
▁evaluation	-9.68233
▁나온다	-9.68243
한다는	-9.68297
▁운동	-9.68322
▁industrial	-9.68354
▁경기도가	-9.68407
▁받는	-9.68446
▁revealed	-9.68458
녀	-9.68475
▁Provincial	-9.6849
▁Public	-9.68596
▁고용	-9.68609
▁그것	-9.68635
▁crime	-9.68657
ub	-9.68659
었던	-9.68756
▁learn	-9.68772
▁클	-9.68803
lt	-9.68831
링	-9.68854
▁businesses	-9.68885
▁과정에서	-9.68927
▁gr	-9.69004
▁imp	-9.6902
▁July	-9.69073
▁전통	-9.69074
▁bill	-9.69077
▁La	-9.69096
밀	-9.69166
▁수행	-9.69224
화를	-9.69287
ced	-9.69322
▁jobs	-9.69371
▁나타났다	-9.69587
늦	-9.69587
▁offer	-9.69597
▁ground	-9.6961
▁수도	-9.6965
척	-9.69694
▁문재인	-9.69817
끌	-9.6982
능력	-9.69857
▁글	-9.70005
▁입장	-9.7001
▁번째	-9.70014
▁각각	-9.70042
▁그의	-9.70104
▁step	-9.70105
km	-9.7021
▁achieve	-9.70278
▁해요	-9.70284
▁men	-9.70285
▁나서	-9.70306
▁death	-9.70325
tain	-9.70346
▁push	-9.70373
ug	-9.70394
도시	-9.704
eo	-9.70425
▁가지고	-9.70464
▁홍	-9.70527
▁discuss	-9.7054
▁trip	-9.70567
▁materials	-9.70601
▁기능	-9.70611
▁우려	-9.70623
ough	-9.70659
되기	-9.70693
한다고	-9.70701
▁별	-9.70703
했는데	-9.70744
▁Jeong	-9.70794
곤	-9.70835
▁advance	-9.7085
▁실제	-9.70858
▁알고	-9.70959
▁절	-9.71
▁But	-9.7102
학생	-9.71028
▁처	-9.71068
▁action	-9.71144
yeon	-9.71182
웃	-9.71311
▁least	-9.71412
▁deal	-9.71513
경기	-9.71535
▁often	-9.71601
▁taken	-9.71647
ify	-9.7167
▁implement	-9.71682
▁지난달	-9.71765
▁seen	-9.7178
골	-9.71798
▁rather	-9.7188
년간	-9.7209
▁풍	-9.72133
▁emergency	-9.72147
▁경영	-9.72192
▁student	-9.72195
▁story	-9.72243
갑	-9.72273
▁치료	-9.72293
ible	-9.72372
▁watch	-9.72453
▁lack	-9.72458
▁연락	-9.72486
▁변경	-9.72559
▁어디	-9.72587
▁것도	-9.72635
▁fund	-9.72792
▁제도	-9.72838
▁수요	-9.72893
▁Supreme	-9.72904
▁건물	-9.72926
▁higher	-9.72944
mission	-9.72984
케이	-9.73079
운영	-9.73084
이고	-9.73143
▁bi	-9.73148
김	-9.73166
▁medium	-9.73237
▁accept	-9.73253
▁병	-9.7326
▁grow	-9.73265
▁farm	-9.7331
&	-9.73366
▁차지	-9.73376
▁follow	-9.73386
▁ago	-9.73394
▁이전	-9.73411
관이	-9.73428
서는	-9.73453
▁ship	-9.73466
▁largest	-9.73503
▁Bank	-9.73508
▁건설	-9.73544
▁others	-9.73553
▁award	-9.7358
▁Yoon	-9.736
▁받을	-9.73743
▁recent	-9.73772
풍	-9.73847
hee	-9.7391
cre	-9.73919
▁events	-9.73927
▁인터넷	-9.73938
pop	-9.73953
▁Affairs	-9.7397
▁하며	-9.74032
▁의료	-9.74072
감을	-9.74108
▁70	-9.74118
▁제안	-9.74126
▁외국인	-9.74166
▁사회적	-9.74246
▁though	-9.74341
▁이동	-9.74349
▁compared	-9.74436
▁행	-9.74478
mer	-9.74495
▁planning	-9.74518
▁올라	-9.74562
제를	-9.74573
▁전달	-9.74579
▁언론	-9.74646
▁easy	-9.74661
▁선거	-9.74711
▁possibility	-9.74758
▁sexual	-9.74842
▁자동차	-9.7488
▁function	-9.74957
자로	-9.75009
▁러시아	-9.75016
▁드라마	-9.75016
ph	-9.75049
▁위험	-9.75241
▁무엇	-9.75241
스크	-9.75255
▁필	-9.7527
▁비판	-9.75357
▁perform	-9.75364
▁만에	-9.75375
손	-9.75539
▁스타	-9.75545
찾	-9.75551
▁operating	-9.75551
▁stay	-9.75555
참	-9.75599
씩	-9.756
암	-9.75658
▁average	-9.75682
▁maintain	-9.75727
▁감소	-9.75808
▁Financial	-9.75812
seong	-9.75839
▁영향을	-9.75911
세를	-9.75982
▁original	-9.76029
▁목표	-9.76085
ice	-9.76134
▁한다는	-9.76134
대회	-9.76169
하시	-9.76193
▁never	-9.76227
▁clean	-9.76286
▁해야	-9.76316
왔	-9.76351
▁Ra	-9.76367
▁필요하다	-9.76437
▁있게	-9.76545
▁넘어	-9.76573
대가	-9.76636
▁전화	-9.7673
bil	-9.76755
▁Jeon	-9.76782
▁노동	-9.76785
▁Form	-9.76825
▁행복	-9.76836
▁turn	-9.76913
시가	-9.76917
홀	-9.7724
▁그가	-9.77262
▁한국의	-9.77268
촉	-9.77297
▁구축	-9.77312
도로	-9.77334
▁아무	-9.77358
gan	-9.77364
▁mid	-9.77409
▁contact	-9.77455
har	-9.77457
▁병원	-9.77466
▁score	-9.77479
▁stand	-9.7755
▁홍보	-9.77575
스가	-9.77603
▁사례	-9.77656
▁같다	-9.77671
마다	-9.77682
▁풀	-9.77721
비를	-9.77722
nu	-9.77779
▁Yu	-9.77783
▁공정	-9.7779
▁Sun	-9.77808
son	-9.77849
▁introduced	-9.77869
▁size	-9.77897
운동	-9.77911
▁heat	-9.77913
싸	-9.77914
▁outside	-9.77928
▁submit	-9.77934
▁issues	-9.77966
▁institution	-9.78007
▁mother	-9.78022
ji	-9.78077
▁looking	-9.78097
▁port	-9.78106
▁인해	-9.78238
▁Kyung	-9.7827
▁September	-9.78287
생활	-9.78314
▁conference	-9.78337
▁최종	-9.7846
▁전에	-9.78463
▁밝	-9.78497
▁여기	-9.78606
▁expand	-9.78615
3%	-9.78623
▁계획이다	-9.7864
▁energy	-9.78756
▁council	-9.78907
▁Festival	-9.78941
▁유명	-9.78953
▁establishment	-9.78991
▁professor	-9.79025
람	-9.79042
▁시스템	-9.79043
▁않다	-9.79044
공항	-9.7906
주택	-9.79065
2%	-9.79078
▁few	-9.79086
▁walk	-9.79093
▁목적으로	-9.79104
cing	-9.79107
▁중심으로	-9.79143
▁효과	-9.79194
념	-9.79203
▁작	-9.79257
▁의견	-9.7926
▁trend	-9.79278
▁청소년	-9.79296
▁fees	-9.79297
▁break	-9.79396
죠	-9.7943
ick	-9.79455
확	-9.79492
▁반대	-9.795
▁sold	-9.79503
세대	-9.79556
▁관광	-9.79587
▁팔	-9.79589
▁rest	-9.79746
▁brand	-9.79769
지도	-9.79775
럽	-9.79779
▁체험	-9.79799
▁서로	-9.79886
▁Hyundai	-9.79887
pre	-9.79894
▁악	-9.79903
▁이내	-9.79911
▁dust	-9.79926
▁아파트	-9.79989
log	-9.80003
row	-9.80019
지방	-9.80056
슈	-9.80057
▁혐의	-9.80079
trans	-9.80118
막	-9.80162
▁위촉	-9.80182
▁lo	-9.80228
▁something	-9.80247
▁이렇게	-9.80262
▁정상회담	-9.80302
▁costs	-9.80324
oon	-9.80338
▁드러	-9.80352
▁Gyeongsang	-9.80398
었습니다	-9.80409
법인	-9.80446
있	-9.80448
웨	-9.80483
▁families	-9.805
ai	-9.80515
▁enough	-9.80547
▁secure	-9.80552
났	-9.80571
▁불법	-9.80574
권을	-9.80599
▁강조했다	-9.80688
▁중앙	-9.80719
꽃	-9.80723
▁서울시	-9.80821
mun	-9.80831
▁밤	-9.80858
▁pain	-9.8086
▁해당하는	-9.8089
얼	-9.80893
▁2013	-9.8093
▁공부	-9.8102
▁공유	-9.81025
▁베	-9.81041
▁사전	-9.8106
사의	-9.81066
▁force	-9.81081
▁레	-9.81243
▁heart	-9.81254
▁language	-9.81272
▁되어	-9.81305
하겠다	-9.81375
▁때문	-9.81387
▁created	-9.814
io	-9.81403
1%	-9.81539
▁대응	-9.81634
scale	-9.81703
▁cities	-9.81733
▁Management	-9.81738
▁controversy	-9.8179
▁disaster	-9.81842
휴	-9.81862
▁friends	-9.81873
▁이러한	-9.81915
▁주택	-9.81948
▁remain	-9.81957
▁base	-9.81967
▁위탁	-9.81997
▁근무	-9.8202
째	-9.82092
▁active	-9.82102
▁Department	-9.82119
▁seven	-9.82122
40	-9.82139
ton	-9.82159
▁답	-9.82167
▁영향	-9.82188
걸	-9.82269
4%	-9.82292
ron	-9.82313
▁가치	-9.82334
ev	-9.82357
)’	-9.82424
▁answer	-9.82469
▁Gangwon	-9.82473
▁Provided	-9.82485
죄	-9.82578
▁opinions	-9.82649
▁협상	-9.82653
▁accordance	-9.82764
▁While	-9.82799
푸	-9.82816
▁happen	-9.82816
▁legal	-9.8282
▁Art	-9.82822
nal	-9.82865
▁두고	-9.82916
▁question	-9.82924
▁검	-9.82931
▁Yes	-9.8298
▁500	-9.83039
▁성과	-9.8304
▁lawmaker	-9.83067
▁나왔다	-9.83107
▁힘	-9.83109
▁reduce	-9.8311
▁professional	-9.83114
▁points	-9.8314
▁complain	-9.83149
▁붙	-9.83156
체계	-9.8318
▁artist	-9.83202
low	-9.83267
▁유럽	-9.83287
▁currently	-9.83314
▁developed	-9.83324
▁risk	-9.83344
▁prepared	-9.8335
▁많다	-9.83354
체육	-9.83408
▁지나	-9.83413
▁시험	-9.8342
겠습니다	-9.83421
▁기념	-9.83473
▁interview	-9.835
▁심사	-9.83509
▁Agency	-9.83536
▁Chang	-9.83545
안전	-9.83588
▁cover	-9.83606
▁떠	-9.83612
7%	-9.83641
▁wide	-9.83657
▁있어서	-9.8368
협회	-9.83692
gg	-9.83693
▁숙	-9.83701
▁improvement	-9.83734
▁words	-9.83749
▁groups	-9.83776
▁growing	-9.83841
스를	-9.83875
폐	-9.839
60	-9.83935
80	-9.83947
▁Research	-9.83995
▁burden	-9.83995
▁yet	-9.83999
좋	-9.84006
▁중소기업	-9.84089
▁환자	-9.84099
▁idea	-9.84103
때	-9.8412
use	-9.84127
ye	-9.84133
▁Then	-9.84138
▁300	-9.84151
▁SK	-9.84178
▁갖	-9.84216
▁도착	-9.8431
▁응	-9.84348
▁broke	-9.84349
▁중요한	-9.84355
특	-9.84359
▁opinion	-9.84377
▁전문가	-9.84417
▁도내	-9.84418
▁것이라는	-9.84441
▁rule	-9.84445
▁afternoon	-9.84491
▁items	-9.84523
▁schedule	-9.84526
하지만	-9.84552
▁중심	-9.8464
▁vehicle	-9.84667
▁않는다	-9.84672
칭	-9.84705
▁위원장	-9.84728
▁분위기	-9.84764
▁같아	-9.84807
sized	-9.8481
▁drink	-9.84847
▁역할을	-9.84857
훈련	-9.84924
▁지도	-9.84925
▁try	-9.84942
pr	-9.84985
▁status	-9.8499
자에게	-9.85054
▁도로	-9.85084
▁자료	-9.85087
▁조선	-9.85148
13	-9.85168
식품	-9.85195
▁꿈	-9.85197
▁이들	-9.85197
▁이곳	-9.85215
▁Trade	-9.85223
▁봉	-9.85223
하겠습니다	-9.85233
▁많아	-9.85254
▁퇴	-9.85296
east	-9.85308
▁content	-9.85421
▁equipment	-9.85438
탈	-9.85474
▁의사	-9.85482
▁rank	-9.85509
▁leading	-9.85533
▁documents	-9.85559
bi	-9.85568
▁mis	-9.85569
▁round	-9.85584
▁마지막	-9.856
▁하지	-9.85603
▁Ja	-9.85655
▁그녀	-9.8566
cor	-9.85672
▁October	-9.8569
▁질	-9.85699
▁She	-9.85705
혈	-9.85726
회담	-9.85731
▁거쳐	-9.85751
▁needed	-9.85827
▁독일	-9.85851
▁opened	-9.85871
▁sports	-9.85907
▁찍	-9.8595
투자	-9.85957
▁안정	-9.85967
▁가능성	-9.85999
▁communication	-9.8605
▁자유	-9.8608
▁union	-9.86142
서비스	-9.86143
퇴	-9.86157
▁현실	-9.86223
▁맛	-9.86277
▁제시	-9.86302
▁수립	-9.86304
▁vice	-9.86306
맥	-9.86339
▁받았다	-9.86348
▁그러	-9.86378
8%	-9.86452
▁expressed	-9.86462
▁female	-9.86466
▁알려졌다	-9.86476
▁내부	-9.86574
▁높이	-9.86587
▁팬들	-9.86611
▁online	-9.86621
▁reform	-9.86643
베	-9.86658
쿠	-9.86666
▁target	-9.86702
대학교	-9.86703
▁어려운	-9.86775
평가	-9.86893
▁핵심	-9.86921
▁efforts	-9.86932
▁Land	-9.86938
▁Administration	-9.86957
▁waste	-9.87037
대를	-9.87072
▁설립	-9.87092
our	-9.871
▁stop	-9.87114
▁star	-9.87125
▁관련해	-9.87221
▁LG	-9.87229
▁달리	-9.87304
18	-9.8731
▁검사	-9.87316
15	-9.87473
거래	-9.87496
▁tomorrow	-9.87579
cle	-9.87601
하였	-9.87693
▁브랜드	-9.87707
▁parties	-9.87709
에선	-9.87709
▁추천	-9.87727
chi	-9.87761
▁getting	-9.87767
▁호텔	-9.87777
▁protect	-9.87855
ze	-9.87931
▁similar	-9.87983
▁중구	-9.88019
▁continued	-9.88035
▁regulations	-9.88045
6%	-9.88078
▁확	-9.88091
벽	-9.88132
▁transfer	-9.88156
▁이는	-9.8816
▁fast	-9.88176
ash	-9.88192
새	-9.88213
▁사무	-9.88223
년부터	-9.88282
▁전시	-9.88384
회사	-9.88414
▁starting	-9.88494
▁우리나라	-9.88501
▁Internet	-9.88537
▁기본	-9.88585
▁Te	-9.88611
▁programs	-9.88626
흡	-9.88629
nce	-9.88655
ded	-9.88655
▁되고	-9.88675
▁수업	-9.88682
량이	-9.88728
▁죽	-9.88728
▁occur	-9.88735
▁등록	-9.88745
▁single	-9.88761
▁written	-9.88778
▁passed	-9.88828
▁그룹	-9.88839
▁축	-9.88884
istic	-9.88889
▁claim	-9.88898
▁취업	-9.8892
▁secretary	-9.8892
▁personnel	-9.89019
▁대화	-9.8905
되며	-9.89084
▁버스	-9.8909
▁남성	-9.89155
▁평화	-9.89166
for	-9.89223
콜	-9.89261
▁2012	-9.89278
▁capital	-9.8928
▁녹	-9.89286
sk	-9.89286
▁내려	-9.89287
▁내일	-9.89292
▁마을	-9.89437
까요	-9.89437
▁견	-9.89448
▁holiday	-9.89485
▁별지	-9.89492
▁가능하다	-9.89496
▁designated	-9.89541
▁Mr	-9.8956
▁relationship	-9.8956
▁youth	-9.89563
▁예술	-9.89592
▁Yoo	-9.896
▁Che	-9.89611
갔	-9.89624
▁조직	-9.89629
▁train	-9.89653
▁governor	-9.89654
줘	-9.89654
yong	-9.89684
▁혁신	-9.89697
롭	-9.8971
셨	-9.89805
▁석	-9.8981
병원	-9.89824
▁수입	-9.89942
▁Gangnam	-9.89942
▁corporation	-9.89954
스타	-9.89956
▁연결	-9.89967
시키	-9.90043
rch	-9.90047
▁매년	-9.90053
▁lecture	-9.90066
▁happy	-9.90085
pro	-9.90096
▁message	-9.90104
▁makes	-9.90124
▁제대로	-9.90125
▁image	-9.90139
▁seat	-9.90161
발전	-9.90174
▁traffic	-9.90179
문을	-9.90183
▁Prime	-9.90217
▁collect	-9.90247
▁월	-9.903
과의	-9.90336
▁hall	-9.90351
빛	-9.90368
클	-9.90488
▁conflict	-9.90538
ple	-9.9056
▁cancel	-9.90627
▁상황에서	-9.90629
▁Electronics	-9.90651
▁staff	-9.90651
율이	-9.90661
개의	-9.90702
light	-9.90764
벤	-9.90783
▁Justice	-9.90918
▁university	-9.90935
▁club	-9.90992
▁소비자	-9.90998
▁모습을	-9.91003
▁한류	-9.91007
▁보유	-9.91036
▁statement	-9.91043
▁Hall	-9.91045
▁session	-9.91049
▁사업을	-9.9106
▁Woo	-9.91066
▁sorry	-9.91092
▁gain	-9.91138
▁얘기	-9.91221
▁minimum	-9.91258
▁annual	-9.9128
항의	-9.9131
▁Health	-9.91316
지면서	-9.91341
▁considered	-9.91374
▁Bi	-9.91409
▁authorities	-9.91433
벌	-9.91481
재단	-9.91518
▁August	-9.91544
공원	-9.91569
▁디자인	-9.91591
사항	-9.91593
ue	-9.91608
▁quarter	-9.9162
style	-9.91666
▁told	-9.91759
▁moment	-9.91774
▁유치	-9.91809
9%	-9.91843
▁노래	-9.91846
▁방식	-9.91854
▁네가	-9.91981
▁Daegu	-9.91982
▁transportation	-9.92004
▁nuclear	-9.92022
▁shows	-9.92046
rac	-9.92052
▁인근	-9.92088
잡	-9.92172
콘	-9.92271
▁credit	-9.92272
했을	-9.92273
▁invest	-9.92288
▁gave	-9.92292
낼	-9.92406
▁contents	-9.92414
▁lost	-9.9246
▁만든	-9.92572
▁State	-9.92592
▁여자	-9.92595
cial	-9.926
랜드	-9.92609
In	-9.92618
▁mind	-9.9263
ile	-9.92649
▁자연	-9.9265
aging	-9.92683
▁further	-9.92714
▁베트남	-9.92734
▁중요	-9.92742
▁ahead	-9.92778
▁division	-9.92791
▁standard	-9.92829
전을	-9.92835
성과	-9.92844
▁January	-9.92849
Q	-9.92855
▁진출	-9.92869
▁church	-9.92888
▁비핵화	-9.92888
▁bring	-9.92905
▁아래	-9.92921
▁estate	-9.93026
▁모습이	-9.93041
▁fair	-9.93087
▁원인	-9.9315
치를	-9.93193
▁daily	-9.93217
▁mobile	-9.93237
▁included	-9.93293
▁lives	-9.93299
▁High	-9.93334
▁소식	-9.93348
▁평균	-9.93362
▁대형	-9.93364
▁Ki	-9.93368
▁정도로	-9.93413
▁network	-9.93473
가요	-9.93493
▁movement	-9.9355
▁Transport	-9.93587
fer	-9.93643
▁oil	-9.93644
▁affect	-9.93645
▁있으	-9.93659
▁vote	-9.93674
▁축제	-9.9368
다면	-9.93695
▁Hwang	-9.9372
▁several	-9.93762
▁지적	-9.93775
수록	-9.93795
▁ban	-9.93814
▁First	-9.93879
▁crisis	-9.93899
▁대신	-9.93903
▁Man	-9.93981
▁종합	-9.94056
▁창업	-9.94057
▁concert	-9.94075
▁온라인	-9.94075
하고자	-9.94085
▁built	-9.94094
▁dream	-9.94094
▁Won	-9.94109
▁progress	-9.94133
▁말씀	-9.94272
▁기반	-9.9429
25	-9.94291
▁bad	-9.94376
▁hot	-9.94395
로서	-9.94483
▁믿	-9.94514
▁매출	-9.94535
▁inside	-9.94612
▁actor	-9.94637
▁refer	-9.94662
▁appointed	-9.94695
▁Corporation	-9.94703
▁모델	-9.94718
▁얼마나	-9.94745
▁남자	-9.94771
▁heard	-9.94818
▁nation	-9.95001
▁temperature	-9.95058
구역	-9.9506
▁Ju	-9.9508
▁조정	-9.95141
pose	-9.9517
▁취소	-9.95189
▁direct	-9.95228
▁위반	-9.95248
▁safe	-9.95265
ny	-9.95312
▁대구	-9.95359
▁broadcast	-9.9548
▁difference	-9.95494
bor	-9.95504
▁갖고	-9.9552
▁장애인	-9.95541
랐	-9.95573
▁표현	-9.95578
▁프로	-9.95622
▁One	-9.95673
sung	-9.95724
▁무대	-9.95737
통신	-9.95763
갔다	-9.95864
연합	-9.9587
▁fell	-9.95887
▁sw	-9.95916
▁트	-9.95953
;	-9.95971
12	-9.96024
▁운전	-9.96051
▁Ko	-9.9606
▁예약	-9.96073
▁Gyeong	-9.96095
▁alone	-9.96097
▁거예요	-9.96111
▁그럼	-9.9612
라도	-9.96154
어야	-9.96213
섭	-9.96231
▁공사	-9.96262
▁December	-9.96271
▁장소	-9.96287
▁시대	-9.96307
▁minister	-9.96313
▁needs	-9.96406
▁됩니다	-9.96487
▁slow	-9.96497
ae	-9.96558
▁regional	-9.96559
ui	-9.96578
▁점을	-9.96604
▁vehicles	-9.96614
▁raise	-9.96643
▁어린이	-9.9669
▁제한	-9.96694
▁generation	-9.96722
▁넣	-9.96828
▁voice	-9.96833
▁달라	-9.96895
▁candidate	-9.96932
▁사망	-9.96951
▁하락	-9.9702
▁아시아	-9.97115
▁공식	-9.97116
▁carry	-9.97133
▁목소리	-9.97136
함을	-9.97164
센	-9.97235
▁users	-9.97238
wer	-9.97365
▁바랍니다	-9.97377
eng	-9.97463
▁changes	-9.97527
▁And	-9.9753
혀	-9.97711
▁wear	-9.97716
ward	-9.97752
▁charges	-9.97757
work	-9.97784
▁가수	-9.97804
▁rice	-9.9786
▁Vice	-9.97911
▁$	-9.97927
▁peace	-9.97945
왕	-9.97973
▁가진	-9.98006
▁왕	-9.98018
▁serious	-9.98047
▁November	-9.98128
삼	-9.98139
▁사항	-9.98142
▁sell	-9.98163
▁solve	-9.98173
▁poor	-9.98179
▁college	-9.98189
▁출신	-9.98195
▁exceed	-9.98291
▁success	-9.98294
45	-9.98307
▁deep	-9.98332
▁parking	-9.98359
▁보도	-9.98377
▁함	-9.98391
대상	-9.98401
▁자유한국당	-9.98475
ack	-9.98478
▁discussion	-9.98496
▁document	-9.98501
하는데	-9.9853
▁있던	-9.98587
▁주목	-9.98621
▁학생들	-9.98625
징	-9.98638
▁seem	-9.98679
짐	-9.9868
▁예방	-9.98687
▁J	-9.98715
▁famous	-9.98721
▁multi	-9.98724
▁loss	-9.98728
▁certain	-9.98782
▁터	-9.9882
▁summer	-9.98844
▁structure	-9.98905
▁interested	-9.98915
▁못한	-9.99046
▁대한민국	-9.99111
▁힘들	-9.99122
▁완	-9.99166
▁보험	-9.99185
▁연기	-9.99241
이지만	-9.99253
드리	-9.99259
17	-9.99284
▁것이라고	-9.99285
▁문제를	-9.99288
▁easily	-9.99317
개혁	-9.99329
츠	-9.99358
lie	-9.99384
▁은행	-9.99389
▁Culture	-9.9942
협약	-9.99432
▁조치	-9.99451
▁operated	-9.99539
denuclearization	-9.99544
달러	-9.99585
▁direction	-9.99598
fo	-9.99598
▁Labor	-9.99613
▁접수	-9.9971
▁Star	-9.99711
▁agencies	-9.99792
▁board	-9.99855
▁consult	-9.99877
▁듣	-9.9988
yu	-9.9991
짓	-9.99917
▁전략	-9.99924
by	-9.99941
▁놓	-9.99973
답	-10.0001
뜨	-10.0006
▁출연	-10.0012
▁Development	-10.0012
▁격	-10.002
▁regarding	-10.0022
▁commercial	-10.0023
▁논	-10.0026
▁deliberation	-10.0033
▁대책	-10.0033
린다	-10.0034
ists	-10.0034
받은	-10.0037
▁Ar	-10.004
▁가는	-10.004
▁대통령은	-10.0041
▁receiving	-10.0042
▁woman	-10.0046
▁grade	-10.0048
▁confirm	-10.0048
▁appear	-10.005
▁immediately	-10.0053
▁일을	-10.0056
▁Mu	-10.0066
▁specific	-10.0067
tter	-10.0067
▁대법원	-10.0069
▁혹시	-10.0071
광역시	-10.0075
▁비교	-10.0076
▁central	-10.0077
▁Dis	-10.008
▁협의	-10.0081
▁draw	-10.0082
▁text	-10.0086
▁played	-10.0091
▁practice	-10.0094
▁상당	-10.0095
스터	-10.0097
▁respond	-10.0098
턴	-10.01
▁대중	-10.0109
▁기획	-10.0119
▁점검	-10.0119
욕	-10.0123
▁바라	-10.0123
▁opportunity	-10.0127
65	-10.0128
▁방향	-10.0134
▁forward	-10.0142
▁cold	-10.0142
허가	-10.0142
▁쪽	-10.0145
▁carried	-10.0146
▁mark	-10.0151
▁거야	-10.0163
▁부동산	-10.0168
▁toward	-10.0169
▁produce	-10.0176
▁All	-10.0181
닥	-10.0186
렌	-10.0193
▁search	-10.0194
▁driver	-10.0202
▁weak	-10.0206
▁아이들	-10.0207
▁approval	-10.0208
▁questions	-10.0212
여명이	-10.0212
▁자신이	-10.0213
▁highest	-10.0214
라면	-10.0217
▁작은	-10.0223
▁manage	-10.0223
▁영국	-10.0225
▁육	-10.0229
▁participation	-10.0229
리그	-10.0232
킹	-10.0237
▁Because	-10.0239
▁driving	-10.0239
▁촬영	-10.024
▁property	-10.0244
▁condition	-10.0247
▁books	-10.0252
▁street	-10.0257
▁가져	-10.0259
▁ball	-10.0262
▁정신	-10.0263
▁issued	-10.0265
▁speak	-10.0267
▁taste	-10.0267
related	-10.0269
▁urban	-10.0269
폭력	-10.027
했으며	-10.027
▁Seong	-10.028
▁Special	-10.0282
▁comment	-10.0282
인의	-10.0289
▁require	-10.0289
▁incident	-10.0291
▁살아	-10.0291
▁확정	-10.0298
▁provision	-10.0299
▁park	-10.0301
▁상담	-10.0307
▁비해	-10.0307
나무	-10.0309
▁Th	-10.0309
▁details	-10.031
값	-10.0321
▁terms	-10.0321
▁곳이	-10.0336
▁파악	-10.0336
▁pressure	-10.0338
▁successful	-10.0342
▁excellent	-10.0342
▁Island	-10.0343
▁바람	-10.0344
▁launch	-10.0346
▁block	-10.0349
▁절차	-10.0351
▁available	-10.0353
▁희망	-10.0353
▁가정	-10.0355
▁device	-10.0357
▁Ta	-10.0361
사와	-10.0361
▁의견을	-10.0365
▁이상의	-10.037
bb	-10.0378
▁뛰어	-10.0379
▁prescribed	-10.0384
▁whole	-10.0385
rib	-10.0397
▁negotiations	-10.0398
▁patients	-10.0399
▁80	-10.0401
Pop	-10.0405
▁같아요	-10.0405
▁relations	-10.0409
▁audience	-10.0411
friendly	-10.0413
텔	-10.0414
듯	-10.0416
▁복지	-10.0425
보험	-10.0428
▁수익	-10.0432
▁father	-10.0433
▁전기	-10.0446
▁concerning	-10.0447
회를	-10.0455
▁Among	-10.0459
▁sound	-10.0462
11	-10.0465
▁trying	-10.0469
▁Director	-10.0473
par	-10.0476
▁Welfare	-10.0478
▁duties	-10.0478
한국	-10.0483
form	-10.0491
▁chance	-10.0493
▁Support	-10.0498
▁done	-10.0498
▁받았	-10.0501
만큼	-10.0502
▁feature	-10.0502
▁질문	-10.051
▁인식	-10.051
▁제주	-10.0514
연구원	-10.0514
맨	-10.0515
lock	-10.0525
▁governments	-10.053
▁항공	-10.0531
▁cars	-10.0533
▁모습	-10.0533
▁Le	-10.0535
밥	-10.054
▁submitted	-10.054
▁카드	-10.0542
▁콘텐츠	-10.0544
▁정부의	-10.0547
▁anti	-10.0547
▁effective	-10.0549
▁사실을	-10.055
조의	-10.055
ome	-10.0551
▁God	-10.0556
▁actual	-10.0557
▁돈	-10.0558
▁access	-10.0559
▁consumers	-10.0562
▁select	-10.0565
벨	-10.0568
▁불편	-10.0577
▁considering	-10.0583
▁February	-10.0583
70	-10.0586
▁공격	-10.0586
▁Security	-10.0601
▁games	-10.0602
▁standards	-10.0607
▁drawing	-10.0609
있는	-10.0613
▁correct	-10.0619
▁대해서는	-10.0623
▁수상	-10.0623
▁주관	-10.0624
공무원	-10.0625
▁중에서	-10.0629
▁common	-10.0632
▁focus	-10.0639
▁피해자	-10.0642
▁green	-10.0645
▁소송	-10.0646
단이	-10.0647
▁알아	-10.065
▁읽	-10.0656
▁발생한	-10.0657
▁없습니다	-10.0658
▁fish	-10.066
▁잔	-10.0662
▁아동	-10.0662
▁coming	-10.0666
16	-10.0668
▁내용을	-10.0671
▁except	-10.0672
▁전망이다	-10.0673
▁ticket	-10.0676
▁대해서	-10.0677
▁어려움	-10.0681
▁Yeong	-10.0685
봄	-10.0685
▁통합	-10.0694
▁quickly	-10.0698
▁규정에	-10.07
▁Gwang	-10.0713
캐	-10.0714
21	-10.072
위원장	-10.0723
본부	-10.0725
▁wanted	-10.0725
▁꼭	-10.0731
▁들어가	-10.0736
▁positive	-10.0739
▁선발	-10.0742
▁Vi	-10.0744
음을	-10.0745
▁Let	-10.075
▁자기	-10.0751
▁빈	-10.0753
▁Foundation	-10.0754
▁필요하다고	-10.0755
자와	-10.0755
▁sense	-10.0775
▁learning	-10.0775
▁determined	-10.0777
▁Gi	-10.078
▁시즌	-10.0784
▁쉽게	-10.0786
춘	-10.0787
윤	-10.0789
▁holding	-10.0789
▁analysis	-10.079
▁worth	-10.079
셔	-10.0791
▁법률	-10.0796
▁형태	-10.0796
궁	-10.0797
vol	-10.08
▁serve	-10.0801
었어요	-10.0801
▁출시	-10.0807
▁parts	-10.0808
>	-10.0813
▁통신	-10.0819
▁Local	-10.082
▁회원	-10.0821
호서식	-10.0829
▁places	-10.0833
▁낙	-10.0836
▁example	-10.0843
▁비롯해	-10.0849
▁전환	-10.0849
▁presidential	-10.0849
쳤다	-10.085
▁Day	-10.0851
▁실적	-10.0858
▁investigate	-10.086
▁impact	-10.0864
▁결과를	-10.0865
▁주민들	-10.0866
▁firm	-10.0867
▁경기도는	-10.0867
민주	-10.0867
예술	-10.0868
▁하는데	-10.0873
ink	-10.0877
▁Rule	-10.0885
▁무역	-10.089
인들이	-10.0891
▁examination	-10.0892
▁contribute	-10.0896
▁corporate	-10.0896
▁hotel	-10.09
▁talks	-10.0903
▁Russia	-10.0905
▁Thank	-10.0908
▁Un	-10.0918
련	-10.0921
▁KT	-10.093
하다는	-10.0931
협력	-10.0936
▁광고	-10.0941
▁showing	-10.0941
엘	-10.0942
▁introduce	-10.0942
▁향후	-10.0945
혔	-10.0953
▁procedure	-10.0956
▁걱정	-10.0956
▁업계	-10.0956
▁이루어	-10.0956
▁대출	-10.0958
▁gas	-10.0959
▁높다	-10.0964
part	-10.0964
▁connect	-10.0969
▁존재	-10.097
▁chairperson	-10.0971
▁소재	-10.0975
▁좌	-10.0976
▁Fund	-10.0979
▁beautiful	-10.0981
▁지지	-10.0982
▁화재	-10.0983
rap	-10.0988
▁branch	-10.0988
주세요	-10.0992
▁삼성전자	-10.0992
기준	-10.0993
br	-10.0996
▁recover	-10.0999
▁reduced	-10.1
▁기억	-10.1
ping	-10.1
▁SNS	-10.1004
▁안에	-10.101
▁intention	-10.1013
▁article	-10.1015
페이	-10.1017
▁소방	-10.1019
▁사유	-10.102
도서관	-10.1022
▁여름	-10.1025
▁결혼	-10.1027
▁meal	-10.1032
over	-10.1035
스포츠	-10.1038
level	-10.1041
▁에너지	-10.1043
쇄	-10.1045
wan	-10.1059
▁미세먼지	-10.1062
딩	-10.1064
▁reach	-10.1065
▁listen	-10.1066
▁확산	-10.1072
▁아침	-10.1073
▁performances	-10.1077
▁디	-10.1084
▁matter	-10.1084
▁맞아	-10.1086
▁주세요	-10.1088
▁implementation	-10.1096
ler	-10.1096
▁Z	-10.1101
▁(2)	-10.1104
▁위치	-10.1107
▁<	-10.111
▁distribution	-10.111
▁zone	-10.111
한테	-10.1111
▁coach	-10.1114
▁metropolitan	-10.1133
▁정보를	-10.1137
▁Al	-10.1138
결과	-10.1144
hwa	-10.1148
▁보도했다	-10.1158
▁eyes	-10.1162
ble	-10.1162
월부터	-10.1166
fu	-10.1171
▁doing	-10.1171
▁거주	-10.1177
▁doesn	-10.1182
하기도	-10.1183
닝	-10.1184
▁실제로	-10.119
▁재정	-10.1191
▁지원을	-10.1195
세가	-10.1196
▁빌	-10.1197
▁organized	-10.1197
▁Science	-10.1198
▁households	-10.1199
▁East	-10.1199
▁industries	-10.1201
▁consider	-10.1202
▁Asia	-10.1204
myeon	-10.1205
▁Union	-10.1208
▁entire	-10.1208
▁스스로	-10.1217
▁장기	-10.1219
▁eight	-10.122
▁축구	-10.122
▁build	-10.1225
▁최소	-10.1225
보건	-10.1229
▁saw	-10.1232
ade	-10.1234
▁이것	-10.1238
싱	-10.1241
▁앞두고	-10.1243
▁proposal	-10.1248
▁잘못	-10.125
▁거리	-10.1252
▁Technology	-10.1255
▁언급	-10.1255
▁hands	-10.1256
▁consultation	-10.1259
▁활동을	-10.1267
▁dance	-10.1268
▁도움이	-10.1269
▁프로젝트	-10.1278
▁true	-10.1285
▁완료	-10.1287
▁might	-10.1288
▁import	-10.1293
▁소득	-10.1305
ney	-10.1306
▁adjust	-10.1307
▁대통령의	-10.131
▁felt	-10.1312
▁thing	-10.1313
▁채용	-10.1314
▁wave	-10.1315
협의회	-10.1317
▁produced	-10.1318
▁loan	-10.132
▁singer	-10.132
▁듯	-10.132
ek	-10.1324
▁stores	-10.1333
▁도는	-10.1335
▁series	-10.1338
▁sanctions	-10.134
▁takes	-10.134
Ch	-10.134
▁followed	-10.1343
37	-10.1346
▁이유로	-10.1346
wang	-10.1349
▁나선	-10.1349
▁speed	-10.1352
▁consist	-10.1361
▁Oh	-10.1364
홈	-10.1368
▁bar	-10.1372
뿐만	-10.1373
▁hearing	-10.1373
▁발언	-10.1373
▁Cup	-10.1374
▁혐의로	-10.1378
▁신규	-10.1386
▁sure	-10.1387
▁agricultural	-10.139
500	-10.1392
▁그녀는	-10.1396
▁required	-10.1408
air	-10.1411
버스	-10.1415
uction	-10.1415
▁2010	-10.1418
▁제품을	-10.1425
▁separate	-10.1428
▁사실이	-10.1428
▁population	-10.1433
14	-10.1437
▁왔	-10.1443
▁letter	-10.1443
▁seek	-10.1447
금융	-10.145
현지시간	-10.145
하되	-10.1451
tae	-10.1452
▁금액	-10.1463
(1	-10.1464
▁animal	-10.1464
과정	-10.1465
▁2011	-10.1466
▁concerns	-10.1466
처리	-10.147
ement	-10.147
▁skin	-10.1473
▁express	-10.1475
▁속도	-10.1483
▁goods	-10.1485
▁delivery	-10.1487
▁assault	-10.1493
▁제외	-10.15
▁항상	-10.1501
ery	-10.1501
▁등장	-10.1501
▁Lotte	-10.1504
▁구청장이	-10.1505
▁protection	-10.1507
제도	-10.151
▁caught	-10.1512
▁failed	-10.1514
shi	-10.1514
▁teams	-10.1514
▁데이터	-10.1515
ution	-10.1516
▁기여	-10.1528
▁가입	-10.153
▁없었다	-10.1531
▁둘	-10.1533
▁이하	-10.1533
▁figure	-10.1536
▁논란이	-10.1537
▁paper	-10.1544
pyeong	-10.1544
▁tree	-10.1545
▁dollar	-10.1546
▁task	-10.1549
▁shop	-10.1554
tan	-10.1555
이라며	-10.1556
들도	-10.1557
▁measure	-10.1562
▁leaders	-10.1564
▁arm	-10.1567
폰	-10.1568
▁American	-10.1575
rry	-10.1577
▁Defense	-10.1578
▁상황이	-10.1581
▁어제	-10.1582
▁참석한	-10.1585
iti	-10.159
▁민주당	-10.159
략	-10.1591
▁넘는	-10.1596
▁승리	-10.1596
▁wife	-10.1597
▁내용이	-10.16
▁Industrial	-10.1602
▁여전히	-10.1607
▁drug	-10.1609
▁동시에	-10.1613
주민	-10.1621
▁Son	-10.1624
보는	-10.1631
▁행동	-10.1635
▁있는지	-10.1637
If	-10.1649
▁독립	-10.1649
▁display	-10.1651
▁King	-10.1652
▁Motor	-10.1654
▁크다	-10.1656
▁하면	-10.1658
▁release	-10.166
▁전반	-10.1663
▁위해서는	-10.1665
▁체결	-10.1668
▁뿐	-10.1673
dang	-10.1677
▁Business	-10.168
▁spend	-10.168
▁적이	-10.1681
▁Secretary	-10.1683
▁atmosphere	-10.1683
bin	-10.1683
▁join	-10.1685
▁launched	-10.1686
으로부터	-10.1688
▁Eun	-10.1693
▁centers	-10.1695
▁나섰다	-10.1695
▁difficulties	-10.1698
▁암	-10.1701
▁서류	-10.1703
▁installed	-10.1705
번호	-10.1705
▁이번에	-10.1706
장으로	-10.1706
▁Are	-10.1708
▁scheduled	-10.171
▁Cultural	-10.1712
lit	-10.1714
선거	-10.1715
▁Je	-10.1716
▁달러	-10.1718
▁obtain	-10.172
▁작가	-10.1722
▁victims	-10.173
▁People	-10.1735
▁resources	-10.1736
’(	-10.1738
▁Economic	-10.1739
▁엄	-10.1741
보다는	-10.1744
감이	-10.1745
▁efficient	-10.1747
ology	-10.1749
▁object	-10.175
▁최저임금	-10.1754
▁Jeolla	-10.1757
▁ordered	-10.1757
▁normal	-10.1759
▁스마트폰	-10.176
▁behind	-10.1762
▁proceed	-10.1769
ped	-10.1771
▁educational	-10.1778
▁규칙	-10.1782
▁entrance	-10.1786
▁인도	-10.1789
▁enterprises	-10.179
▁한다고	-10.1794
deemed	-10.1794
app	-10.1799
▁미국의	-10.1799
▁forest	-10.1806
seok	-10.181
▁것에	-10.181
▁통한	-10.1811
▁반응	-10.1812
▁internal	-10.1814
▁benefits	-10.1824
▁그림	-10.1825
▁서비스를	-10.1826
▁경남	-10.1832
local	-10.1833
▁explain	-10.1833
▁도와	-10.1838
트를	-10.1844
▁오래	-10.1846
▁guarantee	-10.1846
▁attack	-10.1849
▁Air	-10.1854
▁고민	-10.1854
▁위기	-10.1854
로운	-10.1857
킨	-10.1857
▁결제	-10.186
▁공장	-10.1864
▁향상	-10.1867
▁cur	-10.1868
폴	-10.1871
▁남아	-10.1873
▁보여주	-10.1873
▁sites	-10.1879
▁한반도	-10.1884
▁AI	-10.1893
▁reality	-10.1894
▁외교	-10.19
press	-10.1903
전문	-10.1907
▁reduction	-10.1912
▁wish	-10.1912
▁fourth	-10.1914
▁상대	-10.1919
pect	-10.1919
▁방안	-10.1919
▁screen	-10.192
▁갈등	-10.1921
▁below	-10.1921
▁중단	-10.1926
줬	-10.1926
▁influence	-10.1929
땅	-10.1932
▁롯데	-10.1934
▁tried	-10.1936
▁wrong	-10.1937
▁법원	-10.1941
ium	-10.1944
▁subparagraph	-10.1944
▁Safety	-10.1947
▁writing	-10.1954
▁bit	-10.1955
▁그래서	-10.1962
▁section	-10.1962
▁의원이	-10.1967
▁mass	-10.1969
▁위원장은	-10.1975
▁ob	-10.1978
▁35	-10.1983
▁부과	-10.1985
▁elderly	-10.1987
험	-10.1988
▁location	-10.199
학과	-10.1991
깊	-10.1991
▁certificate	-10.1992
▁participating	-10.1992
▁anniversary	-10.1995
▁약속	-10.1995
▁비롯한	-10.1997
제품	-10.1999
▁옷	-10.2001
▁의한	-10.2002
▁daughter	-10.2005
분기	-10.2007
▁딸	-10.2008
▁오른	-10.2014
교육청	-10.2014
▁comprehensive	-10.2018
▁notice	-10.2022
▁개정	-10.2028
▁instead	-10.2038
▁선물	-10.2054
▁유통	-10.2056
증권	-10.2056
dae	-10.2059
▁weather	-10.2063
lin	-10.2064
▁feeling	-10.207
▁address	-10.2072
났다	-10.2074
▁영업	-10.2074
▁file	-10.2074
▁kindergarten	-10.2076
▁전자	-10.2077
mul	-10.2077
▁사장	-10.2078
if	-10.2083
▁headquarters	-10.2084
▁Ye	-10.2088
▁falling	-10.2088
▁거의	-10.209
ren	-10.2091
▁펼쳐	-10.2094
▁Promotion	-10.2097
▁shopping	-10.2097
▁의원은	-10.2106
없이	-10.2107
▁요즘	-10.2107
률이	-10.2111
▁괜찮	-10.2112
▁bl	-10.2113
▁itself	-10.2118
▁밖에	-10.212
▁청구	-10.2123
▁세상	-10.2123
공단	-10.2124
▁단계	-10.2124
빙	-10.2125
▁camp	-10.2126
▁싶습니다	-10.214
▁evidence	-10.214
▁Blue	-10.2143
▁Wi	-10.2148
▁petition	-10.215
ka	-10.2151
칙	-10.2152
▁Vietnam	-10.2153
▁토론	-10.2157
▁raising	-10.2158
▁노인	-10.2161
▁행위	-10.2164
▁bag	-10.2165
▁Mar	-10.2168
씨의	-10.2175
art	-10.2176
▁commissioned	-10.2178
하세요	-10.2182
▁son	-10.2185
▁Environment	-10.2187
소득	-10.219
▁동물	-10.219
▁외부	-10.2191
▁결국	-10.2191
▁승인	-10.2192
▁accounting	-10.2192
굴	-10.2197
▁한번	-10.2198
▁시도	-10.2198
▁Many	-10.2205
으니	-10.2205
▁Ahn	-10.2213
▁나와	-10.2215
됩니다	-10.2216
▁earlier	-10.2218
▁이것은	-10.2221
▁계기	-10.2222
성장	-10.2224
▁filed	-10.2225
▁entered	-10.2228
▁participants	-10.2231
놓	-10.2233
▁wind	-10.2235
▁자금	-10.2236
▁cell	-10.2243
▁occurred	-10.2248
gar	-10.2248
▁시기	-10.2257
▁appeared	-10.2258
▁skills	-10.2262
▁fun	-10.2264
춤	-10.2264
▁gift	-10.2264
▁wall	-10.2265
냐	-10.2276
▁목적	-10.2276
▁duty	-10.2278
빈	-10.228
▁earn	-10.2281
▁winter	-10.2283
▁싶어	-10.2288
▁원하는	-10.2289
▁requested	-10.2289
▁unique	-10.229
▁기금	-10.2294
▁끝나	-10.2295
뇌	-10.2296
▁treat	-10.2296
▁머리	-10.2303
▁예산의	-10.2304
완	-10.2306
대책	-10.2307
▁선수들	-10.2314
▁died	-10.2318
컬	-10.2322
▁피부	-10.2326
▁inform	-10.2327
▁exam	-10.2327
▁제재	-10.2329
느	-10.233
▁궁금	-10.2332
▁사람은	-10.2338
카드	-10.2342
▁player	-10.2344
▁교회	-10.2345
▁열리는	-10.2346
▁user	-10.2354
▁기자	-10.2356
!	-10.2356
▁Ne	-10.2358
▁통과	-10.2358
▁관계자	-10.2361
▁volunteer	-10.2361
▁지원할	-10.2363
▁advantage	-10.2369
▁자녀	-10.2371
되었습니다	-10.2371
uck	-10.2371
▁environmental	-10.2376
▁얼굴	-10.2377
▁한국어	-10.2379
▁restrict	-10.2386
먼	-10.2387
▁universities	-10.2388
▁Car	-10.2388
▁Kong	-10.24
48	-10.2405
▁highly	-10.2406
▁beginning	-10.2407
▁transaction	-10.2409
▁기업이	-10.241
▁warm	-10.241
chan	-10.2415
▁인한	-10.2416
▁Pre	-10.2417
▁By	-10.2418
▁Central	-10.2422
▁Baek	-10.2431
▁Donald	-10.2432
5,000	-10.2436
▁솔	-10.2438
꺼	-10.244
▁범위	-10.2443
rn	-10.2444
▁그렇게	-10.2446
▁prize	-10.2448
▁Germany	-10.2452
연구	-10.2452
▁팬	-10.2458
▁yesterday	-10.2459
힌	-10.2464
탑	-10.247
▁Industry	-10.247
▁smartphone	-10.2472
▁website	-10.2475
▁Foreign	-10.2475
▁auto	-10.2478
ey	-10.2481
▁대체	-10.2483
▁accidents	-10.2488
▁소통	-10.2496
▁멤버	-10.2502
▁인구	-10.2504
▁stressed	-10.2504
▁involved	-10.2504
▁suspicion	-10.2507
리지	-10.2508
▁타고	-10.2513
▁특별한	-10.2519
▁physical	-10.2523
▁link	-10.2525
elect	-10.2527
▁나의	-10.2528
▁wait	-10.2529
▁총리	-10.2533
▁tea	-10.2534
hwan	-10.2535
▁Year	-10.2541
▁명이	-10.2543
▁지적했다	-10.2544
▁차례	-10.2548
hye	-10.2552
ah	-10.2553
▁hour	-10.2553
▁없을	-10.2555
▁프랑스	-10.2555
▁sleep	-10.2558
▁위해서	-10.256
▁부정	-10.2562
▁taxi	-10.2567
▁특정	-10.257
▁collection	-10.2574
▁Chief	-10.2579
▁도널드	-10.2579
ties	-10.258
atory	-10.2583
▁강조	-10.2584
▁연장	-10.2584
▁box	-10.2587
▁포함한	-10.2589
▁집에	-10.2589
▁anything	-10.2601
▁도움	-10.2602
IC	-10.261
▁expansion	-10.2617
hoon	-10.262
▁across	-10.2628
▁resolve	-10.2628
house	-10.2633
▁gather	-10.264
관광	-10.2646
▁헤	-10.2649
▁한국에서	-10.2653
▁쉬	-10.2658
기구	-10.2664
▁degrees	-10.2666
하다고	-10.267
대학	-10.2671
23	-10.2671
▁지사	-10.2672
교통	-10.2673
▁내놓	-10.268
▁visitors	-10.2681
▁주도	-10.2681
▁자주	-10.2682
▁2009	-10.2684
▁Infrastructure	-10.2685
▁아마	-10.2685
▁Hye	-10.2686
▁intends	-10.2698
려고	-10.27
▁agreed	-10.2701
엄	-10.2702
▁없다는	-10.2707
▁사진을	-10.2711
▁이유는	-10.2714
보호	-10.2718
▁무료	-10.2719
▁배송	-10.2722
▁김정은	-10.2726
▁houses	-10.2726
▁compete	-10.2728
▁source	-10.2744
▁creating	-10.2745
▁수밖에	-10.2746
▁범위에서	-10.2755
▁exercise	-10.2755
좌	-10.2757
▁hair	-10.2758
▁Lim	-10.2758
▁fan	-10.2763
▁입주	-10.2763
▁이들이	-10.2765
▁variety	-10.2766
▁성적	-10.2767
▁cook	-10.2768
▁육성	-10.2771
▁빨리	-10.2772
chang	-10.2772
▁sale	-10.2777
으로서	-10.2778
▁범죄	-10.2782
rate	-10.2793
▁tourism	-10.2794
▁인간	-10.2794
▁창출	-10.2795
▁아주	-10.2796
▁begin	-10.2797
▁violence	-10.2805
▁물건	-10.2808
▁platform	-10.281
▁heavy	-10.281
▁loans	-10.2811
▁talent	-10.2816
홍	-10.2823
▁통일	-10.2832
▁맞는	-10.2843
▁Finance	-10.2846
cation	-10.2858
head	-10.2859
▁usually	-10.286
ency	-10.2862
▁electric	-10.2865
▁visiting	-10.2868
▁mountain	-10.2871
▁친구들	-10.2876
2018	-10.2879
▁위원장이	-10.2884
load	-10.2886
▁operator	-10.289
▁직무	-10.2891
▁table	-10.2905
셔서	-10.2906
24	-10.2916
▁black	-10.2916
▁해도	-10.2919
▁basis	-10.2927
▁더불어민주당	-10.2935
▁teacher	-10.2938
▁택시	-10.2939
▁complete	-10.2942
물질	-10.2943
▁부모	-10.2944
▁보수	-10.2944
▁같습니다	-10.2946
▁posted	-10.2956
▁principle	-10.296
▁접근	-10.2962
렴	-10.2965
▁prosecutor	-10.2968
자리	-10.2968
▁안내	-10.2969
▁General	-10.2969
쯤	-10.2971
▁때는	-10.2976
▁1,000	-10.2976
▁좋아하는	-10.2978
▁reading	-10.2978
▁worked	-10.2979
▁investigating	-10.2979
허	-10.2981
시스템	-10.2988
▁cap	-10.299
▁주최	-10.2992
▁defense	-10.2996
▁authority	-10.2999
▁ensure	-10.2999
털	-10.3002
▁보는	-10.3008
묘	-10.301
▁학생들이	-10.3012
hen	-10.3014
질환	-10.3016
den	-10.3018
▁우려가	-10.3019
▁install	-10.3024
▁도민	-10.3026
▁implemented	-10.3032
▁popularity	-10.304
시켜	-10.3041
print	-10.3051
업무	-10.3053
괴	-10.3058
▁의장	-10.3062
▁discount	-10.3066
▁delivered	-10.3069
▁York	-10.3072
▁warrant	-10.3072
▁properly	-10.3077
▁conf	-10.3082
계약	-10.3083
▁girl	-10.3092
▁따로	-10.3092
▁turned	-10.3094
가족	-10.3097
▁proposed	-10.31
▁Professor	-10.3103
▁특성	-10.3105
▁주장했다	-10.3105
▁announcement	-10.3106
av	-10.311
▁Food	-10.3112
jeong	-10.3112
▁disabled	-10.3117
▁시민들	-10.3119
▁spot	-10.3123
▁보고서	-10.3124
▁관련된	-10.313
▁논란	-10.3134
▁홍콩	-10.3135
▁출석	-10.3138
▁arrest	-10.3138
▁Comp	-10.3141
▁입장을	-10.3152
▁Suwon	-10.3155
▁teachers	-10.3159
▁dog	-10.3162
▁조례는	-10.3163
▁tourists	-10.3167
▁extend	-10.3177
▁favor	-10.3179
칼	-10.3183
▁title	-10.3183
▁어렵다	-10.3185
▁마무리	-10.3186
▁우승	-10.3186
▁판결	-10.3193
▁convenience	-10.3194
▁소비	-10.3196
함으로써	-10.32
▁prevention	-10.3205
▁돈을	-10.3209
▁외국	-10.321
▁red	-10.3214
▁원내대표	-10.3214
▁airport	-10.3217
▁투입	-10.322
슨	-10.3225
드는	-10.3225
행사	-10.3231
▁학습	-10.3231
▁limited	-10.3233
▁couldn	-10.3233
▁부상	-10.3239
▁싶	-10.3241
▁만드는	-10.3241
▁During	-10.3244
▁시절	-10.3246
베이	-10.3248
▁Chungcheong	-10.3254
▁있으면	-10.3254
▁관광객	-10.3256
▁ratio	-10.3256
▁Decree	-10.3257
▁경북	-10.3261
▁leg	-10.3262
▁모여	-10.3262
▁추정	-10.3264
▁creation	-10.3266
해주세요	-10.3267
CO	-10.3268
▁강원도	-10.3273
▁researcher	-10.3276
▁배경	-10.3283
▁compensation	-10.3283
었고	-10.3284
▁customer	-10.3288
▁Sam	-10.3288
▁2020	-10.3288
▁elementary	-10.3298
▁불구하고	-10.3298
하려는	-10.3299
▁처음으로	-10.3302
짝	-10.3312
행정	-10.3315
꼽	-10.3321
▁deposit	-10.3329
▁trust	-10.3332
자들의	-10.3334
▁인력	-10.3337
▁secret	-10.3339
▁violation	-10.3341
▁Ti	-10.3342
국장	-10.3345
▁disc	-10.3346
▁지켜	-10.3348
▁자격	-10.3348
▁protest	-10.335
▁career	-10.336
99	-10.336
▁해소	-10.3363
▁조건	-10.3364
▁변호사	-10.3367
▁material	-10.337
▁점에서	-10.3373
▁늘어나	-10.3385
▁continuous	-10.3388
잇	-10.3399
▁blood	-10.3402
hae	-10.3404
교회	-10.3404
▁겨울	-10.3405
▁대전	-10.3406
▁War	-10.3412
▁현상	-10.3414
▁2008	-10.3425
혁	-10.3425
▁entrust	-10.3427
▁honor	-10.3434
탐	-10.3437
▁criticized	-10.3438
▁innovation	-10.3443
▁avoid	-10.3443
▁IT	-10.3445
graph	-10.3451
▁Life	-10.3454
▁않도록	-10.3469
▁얼마	-10.3469
▁메시지	-10.347
▁요리	-10.3474
신청	-10.348
뿐	-10.3485
▁예상된다	-10.3494
하려고	-10.3495
▁찾는	-10.3498
▁Law	-10.3499
▁brother	-10.3499
▁Peninsula	-10.3502
렇	-10.3503
▁완화	-10.3504
▁깨	-10.3513
▁predicted	-10.3515
▁옆	-10.3515
▁encourage	-10.3517
▁인증	-10.3517
▁giving	-10.352
▁너는	-10.352
▁공모	-10.3526
▁arrested	-10.3531
떨	-10.3531
▁criticism	-10.3532
▁나온	-10.3533
road	-10.3538
▁Representative	-10.354
▁것과	-10.3541
▁someone	-10.3543
▁nature	-10.3543
▁Com	-10.3546
항공	-10.3552
▁주말	-10.3559
▁의해	-10.356
▁섬	-10.3563
하신	-10.3566
▁회계	-10.3566
▁보이는	-10.3568
▁foundation	-10.3569
었지만	-10.3573
▁가구	-10.3575
▁campaign	-10.3576
▁않습니다	-10.3576
▁의무	-10.3579
▁meaning	-10.358
▁represent	-10.3581
▁여부	-10.3585
▁실무	-10.3587
▁부문	-10.3594
gang	-10.3597
▁Yeo	-10.3597
▁appointment	-10.3598
▁candidates	-10.36
▁newly	-10.36
▁era	-10.3601
▁Market	-10.3603
빨	-10.3605
▁applicant	-10.3605
▁responsibility	-10.3605
▁Sports	-10.3609
▁수도권	-10.361
FA	-10.3623
rge	-10.3629
▁오르	-10.363
▁통보	-10.3631
명으로	-10.3635
▁하나에	-10.3638
▁배출	-10.3638
ened	-10.364
▁simple	-10.3641
▁providing	-10.3644
▁Hae	-10.3645
▁painting	-10.3649
▁엄마	-10.365
▁모르	-10.365
▁비상	-10.3652
▁일상	-10.3656
▁moved	-10.3659
만명	-10.3664
▁아니다	-10.3666
▁birth	-10.3671
담당	-10.3674
▁Sea	-10.3676
▁machine	-10.3683
▁본인	-10.369
▁이벤트	-10.3692
하겠다는	-10.3694
▁respect	-10.3698
▁determine	-10.3703
웠	-10.3708
▁Why	-10.371
▁민원	-10.3713
▁방안을	-10.3713
▁weekend	-10.3714
▁이뤄지	-10.3724
▁solution	-10.3734
▁기사	-10.3735
▁reached	-10.3735
▁flight	-10.3736
▁미리	-10.3739
mar	-10.3748
▁기회를	-10.3749
▁Soo	-10.3751
based	-10.3752
중앙	-10.3754
▁그것은	-10.3755
▁decline	-10.3755
▁River	-10.3757
▁consideration	-10.376
▁발표한	-10.3762
▁signed	-10.3763
▁불안	-10.3768
인가요	-10.3769
▁느끼	-10.3774
▁mentioned	-10.3777
▁그대로	-10.3779
▁뉴욕	-10.378
▁recognized	-10.3785
▁해석	-10.3786
▁보장	-10.3786
▁효과가	-10.3786
▁쌓	-10.3795
컵	-10.3795
▁장면	-10.3798
▁especially	-10.3798
▁instruct	-10.3798
▁science	-10.3801
▁overall	-10.3803
흐	-10.3804
▁싶은	-10.3807
▁returned	-10.3809
▁host	-10.3813
▁아버지	-10.3813
▁detect	-10.3815
▁manufacturing	-10.3819
▁이미지	-10.3821
▁못하고	-10.3824
lan	-10.3828
▁gathered	-10.3829
▁단순	-10.3829
누	-10.3832
쉽	-10.3834
▁Chairperson	-10.3835
▁Kwon	-10.3837
▁App	-10.3839
▁꾸	-10.384
quality	-10.3841
기관의	-10.3849
학년	-10.3851
겠다는	-10.3853
▁핵	-10.3854
최	-10.3854
▁household	-10.3862
리아	-10.3865
였던	-10.3866
▁flower	-10.387
▁pension	-10.3874
▁소유	-10.3876
▁becoming	-10.3877
귀	-10.3879
곧	-10.388
▁pick	-10.3885
▁actually	-10.3888
▁상대로	-10.3889
▁새로	-10.3897
습니까	-10.3897
▁중이다	-10.3899
▁Enforcement	-10.3902
▁겸	-10.3906
▁Daejeon	-10.3911
ox	-10.3913
폐기물	-10.3913
ifi	-10.3914
ST	-10.3914
~	-10.3917
▁신뢰	-10.3919
27	-10.392
▁알려주	-10.3925
▁할인	-10.3929
▁Ka	-10.393
▁교류	-10.393
▁recommended	-10.3938
▁themselves	-10.3939
▁발굴	-10.3942
셀	-10.3948
▁responsible	-10.3957
▁봐	-10.396
▁classes	-10.3962
▁임명	-10.3969
▁의지	-10.397
▁preparing	-10.3976
▁Sin	-10.3977
hood	-10.3977
▁감정	-10.398
▁전문가들	-10.3981
ier	-10.3986
▁promise	-10.3988
▁Yeon	-10.3993
▁registration	-10.3997
▁white	-10.3997
▁partner	-10.4004
▁Women	-10.4006
▁그들은	-10.4008
49	-10.401
▁exact	-10.4011
▁여기에	-10.4011
▁한국인	-10.4014
▁add	-10.4019
▁realize	-10.4025
▁대규모	-10.4028
▁deputy	-10.4031
국제	-10.4032
▁기초	-10.4034
▁San	-10.4034
▁sharp	-10.4034
▁shown	-10.4037
▁Hee	-10.4039
jung	-10.4041
▁abuse	-10.4043
▁Complex	-10.4044
했으나	-10.4049
▁Federation	-10.405
▁농업	-10.4053
▁경쟁력	-10.4055
▁단지	-10.4057
▁상황을	-10.4057
▁본격적	-10.4059
▁clothes	-10.4059
▁severe	-10.406
▁relatively	-10.4062
▁덧붙였다	-10.4066
놀	-10.4067
▁빼	-10.4073
▁대표가	-10.4074
▁홈페이지	-10.4075
▁significant	-10.4076
meter	-10.4076
▁만족	-10.4082
▁balance	-10.4084
▁회복	-10.4092
▁flow	-10.4094
▁frequent	-10.4094
▁150	-10.4105
▁biggest	-10.4106
▁vacation	-10.411
pped	-10.4113
▁dispute	-10.4116
▁연계	-10.4117
▁이야기를	-10.412
▁resolution	-10.4122
▁abroad	-10.4125
200	-10.4126
맹	-10.4127
▁affiliate	-10.4128
▁contest	-10.4128
행위	-10.4128
sik	-10.4132
There	-10.4133
었는데	-10.4136
▁노동자	-10.4148
진흥	-10.4148
▁매장	-10.4152
▁appeal	-10.4153
▁nearby	-10.418
▁deliver	-10.4184
▁door	-10.4184
▁neighbor	-10.4186
▁expert	-10.4194
▁brief	-10.4194
▁Work	-10.4204
▁suspected	-10.4205
▁인터뷰	-10.421
▁eye	-10.4212
륙	-10.4213
▁suggest	-10.4217
▁교체	-10.4224
▁sun	-10.4228
▁route	-10.4229
▁foot	-10.4232
kyu	-10.4234
pping	-10.4235
▁critic	-10.4237
▁스마트	-10.4238
닐	-10.4245
tent	-10.4247
▁반도체	-10.4254
▁investors	-10.4256
▁긍정적	-10.4267
▁2000	-10.4267
▁나타나	-10.427
▁notify	-10.4273
▁Republic	-10.4277
▁registered	-10.4279
▁computer	-10.428
▁최선	-10.4281
▁Prosecutor	-10.4283
▁drop	-10.4284
▁himself	-10.4288
▁못했다	-10.4292
업계	-10.4296
▁His	-10.4296
▁worse	-10.4296
▁Inter	-10.4299
▁tri	-10.43
▁running	-10.4302
▁노조	-10.4304
끈	-10.4309
몰	-10.431
▁어렵	-10.4313
▁Hu	-10.4318
▁expectations	-10.4318
미디어	-10.4329
▁보니	-10.4329
▁싶어요	-10.4333
▁institute	-10.4334
▁appropriate	-10.4334
▁불가능	-10.4337
tech	-10.4337
▁플랫폼	-10.4344
▁구속	-10.4344
▁passenger	-10.4347
zz	-10.4349
렀	-10.4363
춰	-10.4365
▁Project	-10.4367
▁누구	-10.4368
▁celebrat	-10.4369
한다면	-10.437
▁있었던	-10.4371
▁국립	-10.4372
▁huge	-10.4373
▁놓고	-10.4376
년대	-10.4379
획	-10.4387
▁여론	-10.439
▁위치한	-10.439
▁pm	-10.4391
▁strategy	-10.4392
▁여러분	-10.4393
드리겠습니다	-10.4393
있다	-10.4393
▁Joseon	-10.4396
▁감독이	-10.4414
▁guard	-10.4415
▁prefer	-10.4417
▁suspend	-10.4418
▁지적이	-10.4421
▁connection	-10.4422
▁근로	-10.4423
▁couple	-10.4424
ctor	-10.4426
▁semiconductor	-10.4427
▁순간	-10.4428
▁India	-10.4434
▁올리	-10.4436
▁정부는	-10.4438
▁혜택	-10.444
▁everyone	-10.4441
▁predict	-10.4442
▁업무를	-10.4443
lig	-10.4444
▁사실상	-10.4445
▁맞춰	-10.4445
▁adding	-10.4448
▁코스	-10.445
▁threat	-10.445
▁묻	-10.4451
▁Or	-10.4455
▁cross	-10.4457
▁gold	-10.4457
▁preparation	-10.446
▁형성	-10.446
▁allowed	-10.4462
▁교사	-10.4466
▁guide	-10.4467
▁당국	-10.4468
▁appearance	-10.4472
핵	-10.4478
▁소리	-10.4478
▁Chi	-10.4486
duct	-10.4486
▁지금까지	-10.4487
▁수술	-10.449
▁net	-10.449
▁운영하는	-10.4493
▁sharing	-10.4499
▁출발	-10.4499
▁negative	-10.4502
98	-10.4504
lk	-10.4504
▁대표는	-10.4508
▁Airport	-10.4509
28	-10.4511
▁selling	-10.4512
▁당신에게	-10.4514
헬	-10.4525
▁것이에요	-10.4525
▁좋다	-10.453
self	-10.4531
풀	-10.4531
▁refund	-10.4531
▁낮은	-10.4533
▁조치를	-10.4535
조정	-10.4538
▁respectively	-10.4538
▁handle	-10.4538
▁재난	-10.4539
▁힘을	-10.4541
▁중요하다	-10.4544
흔	-10.4544
▁prescribe	-10.4546
▁analyzed	-10.4547
▁gap	-10.455
▁Deputy	-10.4551
프라	-10.4552
▁연속	-10.4553
▁사항은	-10.4555
▁만약	-10.4559
▁김씨	-10.456
▁dismiss	-10.4561
구조	-10.4561
ya	-10.4565
▁알리	-10.4567
▁From	-10.4571
▁멀	-10.4572
▁closed	-10.4573
▁nothing	-10.4575
▁entrusted	-10.4576
▁긴급	-10.4578
▁choice	-10.4581
▁주식	-10.459
즐	-10.4592
▁북미	-10.4597
▁정확한	-10.4597
▁자세	-10.4601
▁직장	-10.4603
▁electronic	-10.4607
▁않으면	-10.4609
room	-10.4609
▁entertainment	-10.461
▁jurisdiction	-10.461
down	-10.461
▁오히려	-10.4613
▁planned	-10.4617
▁기다리	-10.4619
▁characteristics	-10.462
▁집행	-10.462
장애인	-10.4626
BC	-10.4627
렬	-10.463
앱	-10.4633
▁expanding	-10.4634
▁설계	-10.4636
느냐	-10.4644
rang	-10.4644
▁European	-10.4644
심사	-10.4644
▁일대	-10.4645
▁fully	-10.4649
▁revenue	-10.465
▁Regard	-10.465
▁속에서	-10.4656
▁northern	-10.4657
▁Olympic	-10.466
고등학교	-10.466
▁위원은	-10.467
▁goes	-10.4671
▁Gang	-10.4672
▁farmers	-10.4672
▁fight	-10.4672
▁금지	-10.4675
▁modern	-10.4676
노동	-10.4681
흘	-10.4689
▁혼자	-10.4691
▁grant	-10.4702
▁revision	-10.4709
▁hosted	-10.471
▁매력	-10.4716
▁Award	-10.4717
▁냉	-10.472
▁강남	-10.4722
▁시청	-10.4722
▁enhance	-10.4723
▁agenda	-10.4729
▁젊은	-10.473
더라도	-10.473
▁coffee	-10.4746
▁extra	-10.4746
▁나에게	-10.4749
▁waiting	-10.4752
쁘	-10.4753
▁직업	-10.4756
▁들었	-10.4759
▁없었	-10.4773
▁winning	-10.4775
▁Taiwan	-10.4776
올림픽	-10.4776
▁delay	-10.4779
▁joined	-10.4781
▁근거	-10.4784
▁disappear	-10.4786
▁완성	-10.4789
▁부탁	-10.479
연구소	-10.4791
▁Europe	-10.4799
▁consecutive	-10.48
돕	-10.48
▁prison	-10.4803
run	-10.4803
▁discover	-10.4803
▁주거	-10.481
멘	-10.4813
▁introduction	-10.4816
employed	-10.4819
mail	-10.4822
▁Singapore	-10.4823
뜻	-10.4823
▁emerge	-10.483
▁double	-10.483
▁urgent	-10.4833
▁지자체	-10.4833
▁save	-10.4833
▁track	-10.4833
▁나누	-10.4835
펀드	-10.4836
적이고	-10.484
▁receipt	-10.484
▁combine	-10.484
조원	-10.4841
▁밝혀	-10.4844
▁하나님	-10.4847
▁caus	-10.485
▁moving	-10.485
알	-10.4851
▁지시	-10.4854
▁이행	-10.4855
▁published	-10.4857
▁뭐	-10.4859
▁사용할	-10.486
▁직원들	-10.4862
▁bought	-10.4863
▁foster	-10.4867
▁모집	-10.4868
▁원칙	-10.4875
▁cancer	-10.4881
▁watching	-10.4882
▁older	-10.4883
▁싶다	-10.4886
▁shot	-10.4886
▁playing	-10.4887
▁range	-10.4891
▁reportedly	-10.4898
돈	-10.4899
▁recorded	-10.49
▁circumstances	-10.4901
▁resident	-10.4901
릭	-10.4904
▁검찰은	-10.4904
▁임기	-10.4906
▁infrastructure	-10.4907
▁argue	-10.4913
▁받지	-10.4917
▁criminal	-10.4921
탕	-10.4924
릉	-10.4924
쓸	-10.4931
▁attempt	-10.4935
톡	-10.4941
lip	-10.4943
▁rising	-10.4945
비용	-10.4946
▁Village	-10.4948
앤	-10.4955
▁presented	-10.4957
47	-10.496
▁hear	-10.4964
▁임금	-10.4969
iz	-10.4969
▁killed	-10.4971
▁Currently	-10.4972
▁증거	-10.4972
▁의심	-10.4974
▁재산	-10.4976
▁Qu	-10.4978
▁방침이다	-10.4979
win	-10.498
앙	-10.4982
▁victim	-10.4982
영화	-10.4988
▁나오는	-10.4991
▁regard	-10.4992
CC	-10.4992
▁Social	-10.4995
▁recommend	-10.5
46	-10.5008
첨	-10.5013
▁방식으로	-10.5015
▁monitor	-10.5017
깔	-10.5017
▁separately	-10.502
▁참여하는	-10.5021
▁최초로	-10.5021
▁smooth	-10.5023
▁Wave	-10.5029
▁selection	-10.503
즉	-10.504
▁Church	-10.5041
▁rental	-10.5047
bra	-10.5054
▁전혀	-10.5055
▁Byung	-10.5059
▁운행	-10.5061
▁designed	-10.5065
▁expanded	-10.5066
▁근로자	-10.5069
년까지	-10.5069
▁CCTV	-10.5072
▁시점	-10.5072
▁wonder	-10.5073
묵	-10.5075
▁engine	-10.5075
▁exist	-10.5078
▁viewers	-10.5081
▁finish	-10.5082
▁external	-10.5085
▁camera	-10.5088
▁납부	-10.509
▁Hospital	-10.5092
톤	-10.5092
2,000	-10.5094
▁취지	-10.5103
밖에	-10.5104
au	-10.5104
▁졸업	-10.5106
샤	-10.511
▁improved	-10.5112
▁첨부	-10.5114
▁healthy	-10.5114
▁emotion	-10.5117
▁쉽지	-10.512
▁withdraw	-10.5123
▁인물	-10.5124
쾌	-10.513
▁promoting	-10.5134
▁오랜	-10.5137
▁commission	-10.5138
▁사용자	-10.5138
▁답변	-10.5139
▁커피	-10.5141
▁전남	-10.5144
▁screening	-10.515
검사	-10.5153
▁건가요	-10.5155
둥	-10.5158
▁lawyer	-10.5166
▁graduate	-10.5169
▁생명	-10.5171
▁eligible	-10.5172
▁매일	-10.5174
▁everything	-10.5176
▁competitiveness	-10.5176
▁보였다	-10.5176
▁피해를	-10.5177
욱	-10.5178
▁쏟아	-10.5179
롱	-10.5179
▁repair	-10.5183
▁받으	-10.5183
95	-10.5189
▁superintendent	-10.519
▁claimed	-10.5191
▁word	-10.5193
▁대북	-10.5193
▁강제	-10.5193
▁above	-10.5204
자료	-10.5206
▁decrease	-10.5206
▁열심히	-10.5214
▁decide	-10.5221
▁author	-10.5221
▁기회가	-10.5222
▁counseling	-10.5223
▁More	-10.5223
▁앞에서	-10.5227
▁recruit	-10.5235
▁strike	-10.5235
▁관측	-10.5236
이어서	-10.5237
▁manufacture	-10.5246
▁장비	-10.5249
▁사법	-10.525
▁improving	-10.5253
▁인권	-10.5258
따	-10.5263
▁doctor	-10.5264
▁다수	-10.527
ological	-10.5271
▁의결	-10.5272
하라	-10.5275
▁theater	-10.5275
▁공공기관	-10.5277
▁셈이	-10.5278
▁미술	-10.5281
▁fail	-10.5281
▁touch	-10.5281
▁Last	-10.5283
▁여부를	-10.5284
▁almost	-10.5288
▁employee	-10.5289
▁suffering	-10.529
▁바란다	-10.5291
▁advanced	-10.5291
없	-10.5293
▁spirit	-10.5295
▁겁니다	-10.5295
▁gender	-10.5296
코리아	-10.5297
▁assets	-10.5298
▁longer	-10.53
▁담긴	-10.5304
▁rent	-10.5311
▁보안	-10.5312
▁Tourism	-10.5312
▁사용하는	-10.5318
▁Indonesia	-10.5323
▁과제	-10.5325
▁depending	-10.5327
▁도전	-10.5328
경찰	-10.5329
ray	-10.5339
▁elected	-10.5342
FC	-10.5342
▁formed	-10.5344
where	-10.5346
▁임시	-10.5347
TV	-10.5347
건설	-10.5351
▁maintenance	-10.5351
▁바탕으로	-10.5351
▁측면	-10.5352
문제	-10.5353
▁donation	-10.5355
▁한국당	-10.5355
▁inspect	-10.5357
▁싱가포르	-10.5358
bit	-10.5359
▁중간	-10.536
▁husband	-10.5365
▁served	-10.5366
▁대통령과	-10.537
26	-10.5371
▁떨어지	-10.5373
75	-10.5374
▁focused	-10.5376
▁식당	-10.5376
▁물품	-10.5378
▁적극적으로	-10.5386
▁consumer	-10.539
▁detailed	-10.539
▁knowledge	-10.539
▁본다	-10.5394
script	-10.5394
pur	-10.5397
ham	-10.5397
▁speech	-10.5398
▁눈길	-10.5399
▁주제로	-10.5402
▁collected	-10.5402
박물관	-10.5402
방송	-10.5403
▁일어나	-10.5405
▁역할	-10.5408
▁distribute	-10.5412
감사	-10.5415
▁살펴	-10.5416
▁Of	-10.5419
▁반드시	-10.5423
▁있을까요	-10.5425
▁technologies	-10.5426
▁although	-10.543
▁블록체인	-10.543
릿	-10.5433
▁것처럼	-10.5438
▁빠르게	-10.544
▁Sejong	-10.5441
▁smart	-10.5444
▁beauty	-10.5447
▁spring	-10.5448
▁지속적으로	-10.545
top	-10.5451
▁leak	-10.5451
▁구민	-10.5452
▁delayed	-10.5455
▁shareholder	-10.5458
▁바뀌	-10.5458
▁Fair	-10.546
▁2007	-10.5478
ecu	-10.5479
▁정당	-10.5482
▁engage	-10.5483
▁Also	-10.5484
자금	-10.5486
▁association	-10.5494
▁cheer	-10.5495
▁factory	-10.5496
craft	-10.5498
▁Port	-10.5502
▁strength	-10.5507
▁license	-10.5509
▁bond	-10.5509
bri	-10.5511
▁반발	-10.5518
트리	-10.5527
▁League	-10.553
차례	-10.5531
▁떠나	-10.5536
▁못하는	-10.554
▁challenge	-10.5541
point	-10.5543
드립니다	-10.5544
▁completely	-10.5546
▁경기도지사	-10.5546
자동차	-10.5548
pon	-10.555
▁통화	-10.5554
▁Australia	-10.5555
▁자료를	-10.5556
▁Most	-10.5559
▁cooperate	-10.5563
▁콘서트	-10.557
ibility	-10.557
▁adopt	-10.557
▁reservation	-10.5574
▁remove	-10.5574
▁cash	-10.5581
▁soccer	-10.5584
공간	-10.5589
▁changing	-10.56
▁이들은	-10.5602
jong	-10.5603
bok	-10.5604
▁diagnos	-10.5606
▁Don	-10.5608
▁사태	-10.561
▁fresh	-10.5617
▁debt	-10.5618
▁관세	-10.5618
▁군사	-10.5619
▁prior	-10.5622
▁기업들	-10.5622
▁harm	-10.5627
▁exempt	-10.5628
▁despite	-10.5629
▁10%	-10.5632
플레이	-10.5638
▁County	-10.5639
▁channel	-10.5643
▁이루	-10.5643
quo	-10.5647
▁측은	-10.5648
▁remember	-10.565
▁approach	-10.5654
▁평양	-10.5655
됐고	-10.5662
▁collapse	-10.5665
▁evaluate	-10.5672
쓴	-10.5676
China	-10.5682
▁Movement	-10.5687
▁emphasized	-10.5688
펜	-10.5694
▁진단	-10.5695
▁suit	-10.5695
rag	-10.5696
▁concept	-10.5698
▁평소	-10.5707
▁forced	-10.5708
분야	-10.5711
▁Joon	-10.5712
▁통계	-10.5714
▁snow	-10.5716
▁mainly	-10.5717
▁부위원장	-10.5719
▁exclude	-10.572
▁suspect	-10.5726
▁fear	-10.573
▁인도네시아	-10.5731
▁venue	-10.5731
▁내리	-10.5731
했기	-10.5737
▁specialized	-10.5739
▁scholar	-10.5745
▁mayor	-10.5749
jae	-10.5751
▁시각	-10.5752
▁rose	-10.5755
▁broadcasting	-10.5755
▁모양	-10.5757
88	-10.5757
▁sister	-10.576
▁식사	-10.5761
▁album	-10.5764
상황	-10.5765
▁Myung	-10.5775
▁배치	-10.5784
▁meters	-10.5785
시키는	-10.5788
▁연간	-10.5789
▁차별	-10.5791
▁studying	-10.5791
▁choose	-10.5793
힐	-10.5801
▁무슨	-10.5802
▁consumption	-10.5812
겠지만	-10.5815
clo	-10.5815
100	-10.5816
▁때까지	-10.5817
▁Mountain	-10.5819
▁autonomous	-10.5827
▁pitch	-10.5827
▁disabilities	-10.5831
▁보상	-10.5831
▁정비	-10.5833
▁종류	-10.5836
끔	-10.5838
▁Roh	-10.5839
▁developing	-10.5839
개선	-10.584
▁최초	-10.584
▁alleged	-10.5849
▁cat	-10.5851
▁independence	-10.5853
▁sex	-10.5858
등급	-10.5862
800	-10.5863
▁특수	-10.5866
▁adult	-10.5868
므	-10.5868
▁Employment	-10.5872
▁greatly	-10.5874
type	-10.5875
▁그러나	-10.5878
▁남편	-10.5878
▁폭염	-10.5879
▁nine	-10.5884
▁ordinary	-10.5887
▁born	-10.5887
쳤	-10.5889
▁진술	-10.5903
53	-10.5904
▁lunch	-10.5915
▁premium	-10.5917
▁날씨	-10.5921
▁conclude	-10.5924
▁국무위원장	-10.5924
럴	-10.5924
▁cool	-10.5927
▁확실	-10.5927
▁teach	-10.5931
▁Human	-10.5937
▁촉구	-10.5939
▁제출하여야	-10.5946
▁전날	-10.5948
▁제주도	-10.595
▁있지	-10.5952
▁가득	-10.5954
▁flu	-10.5955
튼	-10.5958
▁surgery	-10.5959
▁leaving	-10.5962
▁admission	-10.5962
off	-10.5969
▁Organization	-10.5969
▁폭행	-10.5969
▁Pyongyang	-10.5973
▁lawsuit	-10.5973
▁installation	-10.5978
▁fishing	-10.5979
▁임대	-10.598
▁공감	-10.5981
97	-10.5984
▁Christian	-10.5985
▁scope	-10.5988
▁처벌	-10.5993
29	-10.5994
▁50%	-10.6001
웅	-10.6003
▁performed	-10.6007
▁rapidly	-10.6008
▁mental	-10.6014
드릴	-10.6018
▁promoted	-10.6025
▁succeed	-10.6026
▁suffered	-10.6028
63	-10.6029
▁20%	-10.6033
▁자문	-10.6038
▁library	-10.6041
꾸	-10.6042
maker	-10.6044
▁불러	-10.6047
▁자동	-10.6049
▁divided	-10.6053
▁shoot	-10.6053
▁호주	-10.6056
▁settlement	-10.606
▁생기	-10.6062
▁모르겠	-10.6068
▁분양	-10.607
▁지식	-10.6071
▁throughout	-10.608
스럽	-10.6085
▁거부	-10.6086
▁dead	-10.6091
▁entering	-10.6095
웠다	-10.6105
▁concern	-10.6116
하겠다고	-10.6117
되도록	-10.6119
▁악화	-10.6125
보증	-10.6136
▁sample	-10.6137
▁finished	-10.6148
▁brought	-10.6148
▁협조	-10.6149
▁대기업	-10.615
▁write	-10.6162
▁worried	-10.6167
▁즐길	-10.6167
▁메일	-10.617
▁품질	-10.6172
▁medicine	-10.6175
지원센터	-10.6177
▁학부모	-10.6183
▁밝힌	-10.6183
끄	-10.6186
▁빠른	-10.6187
▁그냥	-10.619
▁weight	-10.6194
▁느낌	-10.6198
▁focusing	-10.6201
▁표시	-10.6201
▁independent	-10.6202
▁activity	-10.6206
▁rescue	-10.6206
▁없어요	-10.6207
ush	-10.6207
▁academic	-10.6214
▁Ulsan	-10.6214
▁taxes	-10.6217
▁맛있	-10.622
▁장점	-10.6221
겁	-10.6221
▁ill	-10.6224
델	-10.623
▁Line	-10.6231
▁stable	-10.6231
젠	-10.6233
▁background	-10.6237
AR	-10.624
빅	-10.6241
▁guest	-10.6241
▁chose	-10.6243
켓	-10.6244
▁remaining	-10.6246
▁master	-10.6246
▁significantly	-10.6247
탓	-10.6252
▁Peace	-10.6264
▁proper	-10.6266
▁마케팅	-10.6272
▁Fire	-10.6272
▁어머니	-10.6279
▁모바일	-10.6279
▁즐기	-10.6282
▁캐나다	-10.6287
▁디지털	-10.6291
▁끝난	-10.6293
▁subway	-10.6293
▁meaningful	-10.6297
▁America	-10.6299
▁male	-10.6311
▁기준으로	-10.6313
▁alternative	-10.6315
▁작년	-10.6317
85	-10.6319
쁜	-10.6322
▁subsidize	-10.6326
▁weapon	-10.633
▁Games	-10.633
▁winner	-10.6337
57	-10.6353
▁opportunities	-10.6354
▁busy	-10.6355
▁Ri	-10.6357
▁Small	-10.6361
▁defend	-10.6362
night	-10.6366
▁관하여	-10.6367
▁카페	-10.6368
▁Now	-10.637
▁Jun	-10.6374
▁estimated	-10.6374
van	-10.6375
59	-10.6376
▁county	-10.6377
▁Division	-10.6381
▁목사	-10.6387
▁permission	-10.6392
“	-10.6393
▁coast	-10.6394
▁교육감	-10.6397
▁assessment	-10.6397
▁disclose	-10.6397
▁다니	-10.6397
▁차이가	-10.6398
▁subsidies	-10.6409
감독	-10.6409
▁perfect	-10.6417
▁신경	-10.6419
▁tariff	-10.642
96	-10.6426
▁Table	-10.6427
▁Hotel	-10.6432
▁practical	-10.644
▁무엇보다	-10.6443
▁시작했다	-10.6446
▁보관	-10.6451
컴	-10.6452
▁경비	-10.6455
▁preliminary	-10.6456
▁Our	-10.6456
▁para	-10.6465
렉	-10.6476
▁발행	-10.6477
네트워크	-10.648
찌	-10.6488
▁전해졌다	-10.6488
▁pack	-10.6502
빚	-10.6504
조치	-10.6504
▁rating	-10.6506
NA	-10.6508
▁allowance	-10.6509
▁아프	-10.6516
▁Facebook	-10.6528
▁달성	-10.6534
▁arrived	-10.6536
▁계산	-10.6539
▁mistake	-10.654
개국	-10.6541
jun	-10.6552
▁excessive	-10.656
쌀	-10.656
back	-10.656
펼	-10.6562
▁선호	-10.6575
▁응답	-10.6581
▁양국	-10.6584
▁허용	-10.6585
▁Policy	-10.6588
uff	-10.6591
94	-10.6592
56	-10.6598
▁이용자	-10.6607
▁컴퓨터	-10.6608
텍	-10.6612
▁dinner	-10.6612
▁recruitment	-10.6612
▁보통	-10.6612
▁Under	-10.6614
▁활발	-10.6616
▁국방부	-10.6636
▁훨씬	-10.6644
▁충분히	-10.6656
스러운	-10.666
▁메뉴	-10.6663
▁volume	-10.6668
▁화제	-10.6672
▁proportion	-10.6676
공동체	-10.6676
▁세종	-10.6678
▁eco	-10.6685
▁Hi	-10.6696
읍	-10.6701
▁desire	-10.6701
▁지하철	-10.6705
▁twice	-10.6709
▁페이스북	-10.6709
▁thereof	-10.6709
시험	-10.6711
▁managed	-10.6716
▁감안	-10.6726
넷	-10.6729
▁절반	-10.6735
US	-10.674
▁conservative	-10.6741
▁dispatch	-10.6741
▁카메라	-10.6749
잉	-10.6749
시킨	-10.6752
▁많았다	-10.6756
▁email	-10.6756
▁stone	-10.6758
▁보이고	-10.6765
▁nationwide	-10.677
▁Base	-10.6773
▁examine	-10.6777
포인트	-10.6782
▁expression	-10.6788
▁평생	-10.6792
▁권리	-10.6792
ject	-10.6797
3,000	-10.6801
▁의하여	-10.6807
Gun	-10.6808
▁sentence	-10.6814
▁아름다운	-10.6815
▁30%	-10.6819
▁기자회견	-10.6819
92	-10.6821
▁캐릭터	-10.6827
▁Sha	-10.6836
▁recommendation	-10.6839
▁전력	-10.6839
▁느껴	-10.6839
North	-10.6843
▁Heung	-10.6845
▁반복	-10.6846
▁Information	-10.6852
58	-10.6854
▁개편	-10.6856
▁종료	-10.687
board	-10.6875
봐	-10.6878
68	-10.688
▁path	-10.6881
▁울산	-10.6882
▁Agricultural	-10.6885
▁Kakao	-10.6885
▁impossible	-10.6885
▁Geum	-10.6885
▁concentrate	-10.6897
depend	-10.6902
경찰서	-10.6904
하셨	-10.6909
리스트	-10.6911
▁Du	-10.6915
▁ski	-10.6922
▁presentation	-10.6924
▁징수	-10.6935
▁기대된다	-10.6943
64	-10.6947
▁후보자	-10.6952
되자	-10.6955
▁majority	-10.6958
멸	-10.6964
▁conversation	-10.6968
▁직후	-10.6969
▁Every	-10.6972
▁Seok	-10.6976
됨	-10.6985
▁서식	-10.6989
▁digital	-10.6989
▁stories	-10.6989
뷰	-10.6989
▁만들기	-10.6989
▁finance	-10.6997
▁후반	-10.7006
꼬	-10.7014
▁예비	-10.7014
84	-10.7019
▁Recently	-10.7026
▁leadership	-10.703
▁wrote	-10.7031
▁제외한	-10.7034
▁실패	-10.7035
▁교육부	-10.7036
▁지키	-10.7047
▁faith	-10.7047
혹	-10.7049
▁reward	-10.7052
▁적발	-10.7058
mouth	-10.7058
66	-10.7064
대상자	-10.7065
▁punishment	-10.7067
free	-10.7069
▁때마다	-10.7069
▁국회의원	-10.7074
▁blockchain	-10.7077
셜	-10.7077
▁KBS	-10.7077
▁suggested	-10.7088
▁발급	-10.7089
67	-10.709
▁announce	-10.709
▁warning	-10.7093
▁절대	-10.7095
87	-10.7095
▁menu	-10.7097
▁생각합니다	-10.7097
▁선생님	-10.7101
▁deliberate	-10.7102
▁tourist	-10.7105
▁Museum	-10.7111
▁꾸준히	-10.7115
▁예측	-10.7117
▁공개된	-10.7123
owned	-10.7126
▁hurt	-10.7136
generation	-10.7138
▁즉시	-10.7141
▁가까운	-10.7149
랜	-10.7156
▁법안	-10.7156
▁newspaper	-10.7157
▁구입	-10.7159
▁참석했다	-10.7161
▁filled	-10.7163
▁Did	-10.7168
늘	-10.7171
▁인생	-10.7173
▁징계	-10.7174
▁멕시코	-10.7178
▁unfair	-10.7178
MO	-10.718
틴	-10.7183
▁좋지	-10.7185
▁충남	-10.7187
▁친환경	-10.7189
▁supplement	-10.7191
right	-10.7195
▁unable	-10.7208
▁anyone	-10.7221
▁나올	-10.7221
번째	-10.7224
▁나머지	-10.7226
▁검증	-10.7227
▁fashion	-10.723
▁concerned	-10.723
▁있었습니다	-10.7233
▁사이트	-10.7239
▁아들	-10.7247
▁Could	-10.7247
▁catch	-10.7248
▁Construction	-10.7251
▁pray	-10.7252
▁초청	-10.7255
▁그때	-10.7255
▁myself	-10.7257
봐야	-10.7259
▁갖추	-10.7259
▁sentenced	-10.726
덜	-10.7264
▁Xi	-10.7277
▁역량	-10.7286
▁위협	-10.7292
▁contribution	-10.7298
▁beyond	-10.7298
▁원활	-10.7302
▁보조금	-10.7303
▁lose	-10.731
▁크기	-10.7311
▁missing	-10.7313
포럼	-10.7315
TO	-10.732
▁allegations	-10.7324
▁potential	-10.7324
▁nice	-10.7325
▁비슷한	-10.7333
초등학교	-10.7333
▁debate	-10.7333
▁운용	-10.7335
▁surrounding	-10.7337
▁Chun	-10.7339
▁endeavor	-10.7341
것	-10.7344
쉬	-10.7344
튜	-10.7346
▁상황이다	-10.7353
쌍	-10.7354
▁확장	-10.7357
혁신	-10.7364
▁작용	-10.7366
▁개정안	-10.7367
▁extreme	-10.7372
▁Hwa	-10.7373
▁규정함을	-10.7373
▁손님	-10.7375
▁index	-10.7377
▁끌어	-10.7377
▁실현	-10.7381
▁설정	-10.7384
▁시행령	-10.7385
▁inconvenience	-10.7385
▁명예	-10.7385
▁manner	-10.739
▁바꾸	-10.7397
▁expensive	-10.7402
섯	-10.7407
럼	-10.7408
▁Former	-10.7408
▁accused	-10.7413
▁빠져	-10.7415
▁revised	-10.742
▁false	-10.7433
종합	-10.7437
▁Russian	-10.7442
▁retirement	-10.7444
▁성격	-10.7446
▁노선	-10.7448
▁Yi	-10.745
▁Insurance	-10.7455
▁burn	-10.746
▁축하	-10.746
▁진입	-10.7462
▁grand	-10.7475
▁super	-10.7476
▁흐름	-10.7477
▁대변인	-10.7485
챙	-10.749
▁때문입니다	-10.7501
었어	-10.7503
shin	-10.7505
파크	-10.7507
▁응원	-10.7507
▁대표팀	-10.7508
bong	-10.7514
▁실력	-10.7521
▁thorough	-10.7525
▁shock	-10.7525
▁decreased	-10.7525
쓰	-10.7527
돼야	-10.7528
▁quite	-10.753
▁Ni	-10.7531
▁About	-10.7534
▁BTS	-10.7534
▁압박	-10.7534
▁강남구	-10.7535
▁여야	-10.7539
시킬	-10.7539
체험	-10.7543
▁개막	-10.7545
700	-10.7561
▁victory	-10.7565
▁judgment	-10.7569
▁아니냐	-10.7571
▁Goyang	-10.7576
▁stress	-10.7579
▁긴장	-10.758
▁있습니까	-10.7584
았습니다	-10.7587
▁동영상	-10.7587
등록	-10.7588
▁temporary	-10.7596
▁bio	-10.7596
건강	-10.761
77	-10.7613
▁counter	-10.7618
▁태국	-10.7622
▁여기서	-10.7647
▁그러면	-10.765
▁사무실	-10.7652
았던	-10.7653
▁별표	-10.7654
▁shape	-10.7658
▁reveal	-10.7659
▁intelligence	-10.7662
닉	-10.7662
▁구청장에게	-10.7663
▁상반기	-10.7667
ender	-10.767
▁residential	-10.7673
▁arrange	-10.7676
▁patient	-10.7679
▁surprise	-10.768
▁piece	-10.768
▁현금	-10.7682
▁근처	-10.7682
▁command	-10.7689
▁unlike	-10.7689
▁태풍	-10.7692
타임	-10.7703
▁스페인	-10.7707
▁충격	-10.7714
▁바른미래당	-10.7716
밑	-10.7716
income	-10.7719
▁하반기	-10.7721
▁새벽	-10.7728
▁counties	-10.773
박람회	-10.7743
▁많았	-10.7747
프레	-10.7748
▁else	-10.7749
▁Plan	-10.7751
▁capacity	-10.7752
특별	-10.7755
▁spent	-10.7756
▁Economy	-10.7757
MC	-10.7757
본부장	-10.7766
▁좋을	-10.7766
▁kill	-10.7767
▁cooperative	-10.777
둘	-10.7779
▁Brazil	-10.7779
▁건립	-10.778
▁fruit	-10.7788
▁defect	-10.7789
person	-10.779
▁갑자기	-10.7793
낭	-10.7793
▁cafe	-10.7797
▁ordinance	-10.7802
▁exclusive	-10.7806
▁kid	-10.7815
▁foreigners	-10.7817
▁만난	-10.7823
▁fixed	-10.7829
ffi	-10.7837
옛	-10.7838
▁effort	-10.7844
▁Corp	-10.7851
▁브라질	-10.7852
▁자본	-10.7852
▁걸쳐	-10.7858
▁soldiers	-10.787
▁상대적으로	-10.7873
뱅	-10.7875
▁언어	-10.7877
▁시범	-10.7886
왔습니다	-10.7892
myung	-10.7895
▁Through	-10.7897
▁Therefore	-10.7902
▁failure	-10.7904
팔	-10.7905
▁kept	-10.7907
잊	-10.7916
▁이사장	-10.7924
▁폭발	-10.7924
▁France	-10.7925
점검	-10.7927
▁prove	-10.7929
▁자전거	-10.7934
▁처음이다	-10.7937
숲	-10.7939
▁활약	-10.7939
86	-10.7939
▁비행기	-10.794
낙	-10.7942
▁카카오	-10.7943
▁상징	-10.7945
73	-10.7948
▁medal	-10.7949
▁Due	-10.795
▁German	-10.795
▁technical	-10.7952
▁촉진	-10.7953
▁organize	-10.7955
▁baby	-10.7963
itude	-10.7964
▁stopped	-10.7967
▁광역	-10.797
▁매체	-10.7977
▁Energy	-10.7985
▁laugh	-10.7989
▁Securities	-10.7989
넥	-10.7994
▁떨어진	-10.7999
▁baseball	-10.8003
▁전시회	-10.8004
▁artificial	-10.8008
▁취임	-10.8012
▁chicken	-10.8017
몬	-10.8017
▁Headquarters	-10.8022
▁패션	-10.8022
▁비밀	-10.8023
됐던	-10.8033
▁EU	-10.8045
▁Official	-10.8045
chul	-10.8049
▁register	-10.8056
▁개별	-10.8061
▁initial	-10.8062
▁statute	-10.8063
▁Tax	-10.8072
똑	-10.8073
▁completion	-10.8077
▁Geun	-10.8078
▁livestock	-10.8087
▁rich	-10.8089
▁커지고	-10.8092
▁reducing	-10.8096
드릴게요	-10.8096
▁관람	-10.81
matic	-10.8102
▁drunk	-10.8105
▁historical	-10.811
▁부탁드립니다	-10.811
잔	-10.8113
룸	-10.8115
핀	-10.8129
▁declaration	-10.8138
▁favorite	-10.814
89	-10.8141
캠프	-10.8149
▁영역	-10.8156
76	-10.8162
▁월드컵	-10.8166
▁correspond	-10.8176
▁MBC	-10.8183
▁아이디어	-10.8195
▁기대한다	-10.8207
▁부회장	-10.8211
▁symbol	-10.8213
▁ease	-10.8215
▁어려워	-10.8218
▁앨범	-10.8223
▁드러났다	-10.8224
▁flag	-10.8228
▁마이크	-10.8233
▁거듭	-10.8234
▁trustee	-10.8239
tric	-10.8243
▁minute	-10.8246
▁parliamentary	-10.8247
▁결론	-10.825
밴	-10.8261
▁justice	-10.8261
▁attitude	-10.8265
▁solid	-10.8266
범죄	-10.827
서울특별시	-10.8272
called	-10.8279
▁drive	-10.828
▁교환	-10.8283
▁Geo	-10.8289
▁hike	-10.829
▁fill	-10.8298
gye	-10.8299
▁advertisement	-10.83
▁cloud	-10.8308
▁줄어들	-10.8308
▁구체적인	-10.8313
▁특징	-10.832
▁boy	-10.832
▁어린	-10.8322
▁기대감	-10.8322
▁Today	-10.8322
▁battle	-10.8323
▁Middle	-10.8327
▁integrated	-10.8327
으려	-10.8329
▁Investment	-10.8332
▁같은데	-10.8337
▁암호화폐	-10.8337
▁judicial	-10.8337
▁worry	-10.8337
▁suddenly	-10.8352
칸	-10.8361
▁square	-10.8361
▁않아요	-10.837
셔야	-10.837
▁interpreted	-10.8375
▁currency	-10.8375
▁bright	-10.8378
▁Medical	-10.838
학습	-10.8383
▁단속	-10.8387
▁marriage	-10.8394
▁convenient	-10.8399
▁자랑	-10.8402
진흥원	-10.8403
▁새롭게	-10.8409
▁injured	-10.8409
▁Rights	-10.8409
맞	-10.8409
에너지	-10.8416
하려면	-10.8424
78	-10.8432
deok	-10.8434
▁제조업	-10.8445
▁골프	-10.8446
▁politics	-10.8447
▁완전히	-10.8452
▁ICT	-10.8457
▁갖춘	-10.8463
▁힘든	-10.8465
▁Team	-10.8467
kyung	-10.8469
책임	-10.8479
▁Grand	-10.8482
▁Unlike	-10.8486
▁흔들	-10.8486
heung	-10.8491
▁종목	-10.8497
보세요	-10.8503
앉	-10.8505
▁터키	-10.8508
슴	-10.851
▁Just	-10.8518
▁2006	-10.8531
순환	-10.8534
▁behavior	-10.8535
▁vulnerable	-10.8535
▁수많은	-10.8535
▁electricity	-10.8535
▁실질적	-10.8539
▁주인공	-10.854
▁의뢰	-10.854
jang	-10.8545
▁연습	-10.8549
▁truth	-10.8549
▁bull	-10.8557
▁노출	-10.8558
Tech	-10.8558
▁north	-10.8564
▁대학생	-10.8566
▁Civil	-10.8569
픽	-10.8574
▁이메일	-10.8574
▁trading	-10.8574
먹	-10.8577
됐지만	-10.8589
▁담겨	-10.8594
▁museum	-10.8598
▁수탁자	-10.8602
▁보낸	-10.8606
▁융자	-10.861
▁pursue	-10.8613
▁benefit	-10.8618
▁outstanding	-10.8618
▁writer	-10.862
▁southern	-10.8628
▁league	-10.8633
콤	-10.8633
▁blue	-10.8634
▁comfort	-10.864
▁guidance	-10.8643
▁formulate	-10.8644
▁photograph	-10.8644
▁explanation	-10.8647
72	-10.8651
▁agree	-10.8653
▁startup	-10.8658
69	-10.8666
넘	-10.8679
▁움직임	-10.8682
라운드	-10.8682
▁river	-10.8684
▁곳곳에	-10.8686
▁Nowon	-10.8687
▁받아야	-10.8695
▁부모님	-10.8696
▁gradually	-10.8697
▁출범	-10.87
▁entry	-10.8703
▁arrive	-10.8712
분쯤	-10.8716
▁regret	-10.8717
▁overcome	-10.8717
곽	-10.8727
▁완벽	-10.8743
▁reserve	-10.8747
▁symptoms	-10.8757
▁sad	-10.8757
▁System	-10.8762
▁golf	-10.8762
▁repeat	-10.8765
▁필리핀	-10.8766
▁cheap	-10.8767
▁되나요	-10.8767
▁누구나	-10.8771
▁스타트업	-10.8772
▁outdoor	-10.8772
▁agent	-10.878
▁출입	-10.8785
럭	-10.8791
▁violate	-10.8792
▁minor	-10.8795
▁소상공인	-10.8801
▁어린이집	-10.8807
▁Shim	-10.8808
▁borrow	-10.8812
▁White	-10.8817
▁일찍	-10.8818
밖	-10.8824
▁다녀	-10.8834
롤	-10.8837
▁circle	-10.8842
▁2022	-10.8842
▁attraction	-10.8842
▁window	-10.8844
롯	-10.8847
CEO	-10.8848
▁innovative	-10.8852
▁가까이	-10.8857
밸	-10.8862
regular	-10.8863
▁국내외	-10.8863
▁싶은데	-10.8896
▁sponsor	-10.8907
▁civic	-10.8912
▁특징이다	-10.8913
▁검색	-10.8923
잖아	-10.8924
▁certification	-10.8927
▁hire	-10.8927
▁border	-10.8927
▁실험	-10.8928
▁south	-10.8932
▁Saturday	-10.8943
▁creative	-10.8943
79	-10.8951
듀	-10.8953
▁Sohn	-10.8953
큐	-10.8958
▁plastic	-10.8958
▁종교	-10.8961
▁regardless	-10.8964
▁crowd	-10.8973
▁인프라	-10.8974
관련	-10.8974
▁trouble	-10.8978
▁distance	-10.8994
▁재미있	-10.8999
▁criteria	-10.9009
▁memory	-10.9009
▁Green	-10.9014
▁관객	-10.9015
떡	-10.9019
▁defeat	-10.902
▁venture	-10.9024
▁법령	-10.9026
▁Bareunmirae	-10.904
▁refugee	-10.904
▁regulation	-10.9048
▁환불	-10.905
direct	-10.9052
▁Malaysia	-10.9055
▁보완	-10.9055
훌	-10.9055
▁committed	-10.9057
▁incurred	-10.9065
겠어요	-10.9067
▁지역사회	-10.907
▁tight	-10.907
▁Monday	-10.907
cultural	-10.9072
▁오픈	-10.9074
▁정치적	-10.908
▁화장품	-10.9096
▁debut	-10.9096
▁Pyeongtaek	-10.9101
▁rock	-10.9102
켜	-10.9105
▁만날	-10.9111
▁scandal	-10.9117
▁salary	-10.9117
▁suspension	-10.9122
▁Film	-10.9127
▁Children	-10.9127
▁Forest	-10.9129
▁노력하여야	-10.9145
▁총괄	-10.9155
뮤	-10.9158
▁둘러	-10.9161
룬	-10.9163
▁Consider	-10.9169
총회	-10.918
▁깊은	-10.9181
fighting	-10.9183
▁okay	-10.9184
겐	-10.9195
▁oppose	-10.92
▁흥미	-10.92
▁rare	-10.9209
▁자원봉사	-10.921
연맹	-10.9213
뒷	-10.9221
▁혹은	-10.9222
옵	-10.9226
▁Friday	-10.9226
킬	-10.923
▁열렸다	-10.9233
솔	-10.9242
▁utilize	-10.9247
▁Canada	-10.9252
콩	-10.9257
과학기술	-10.9257
▁특허	-10.926
▁될까요	-10.9273
▁boat	-10.9285
▁늘어난	-10.9289
▁refuse	-10.9289
▁말레이시아	-10.9294
▁wood	-10.9297
▁concentration	-10.9299
▁package	-10.9303
▁disclosure	-10.931
▁forecast	-10.932
▁regime	-10.9327
▁communicate	-10.9331
▁fraud	-10.9331
▁알려져	-10.9333
딜	-10.9336
▁observe	-10.9347
나가는	-10.935
▁corruption	-10.9352
하더라도	-10.9355
▁관객들	-10.937
▁garden	-10.9373
▁Ryu	-10.9377
▁김문수	-10.9384
▁Google	-10.9389
줍니다	-10.9389
▁enforcement	-10.9405
▁habit	-10.9407
받았	-10.941
▁아이돌	-10.941
▁cryptocurrency	-10.941
▁데뷔	-10.9411
▁flood	-10.9421
숨	-10.9442
▁일주일	-10.9443
▁recognize	-10.9449
▁earnest	-10.9462
▁펼치	-10.9465
▁Free	-10.9474
▁destroy	-10.9474
▁샘플	-10.9474
▁composed	-10.9474
▁dark	-10.9474
▁rural	-10.9491
class	-10.9491
▁fierce	-10.9496
▁constant	-10.9501
멈	-10.9507
▁efficiency	-10.9517
▁childcare	-10.9517
▁Power	-10.9519
▁uniform	-10.9523
틱	-10.9523
▁prospect	-10.9523
하였습니다	-10.9525
▁narrow	-10.9539
겹	-10.9539
▁Camp	-10.9539
▁dress	-10.9546
▁advise	-10.955
▁Road	-10.9555
▁bottom	-10.9555
▁importance	-10.9559
▁YouTube	-10.956
▁Girl	-10.956
▁민족	-10.9564
▁eventually	-10.9566
▁tired	-10.9572
▁boost	-10.9577
템	-10.9582
▁chart	-10.9586
▁느낄	-10.9588
닌	-10.9589
▁confident	-10.9593
벗	-10.9593
Z	-10.9596
▁폼페이오	-10.9598
▁witness	-10.9604
붙	-10.9607
▁murder	-10.9609
▁손흥민	-10.962
엑스	-10.9626
▁1.5	-10.9627
▁essential	-10.9631
▁Cheonan	-10.9631
▁(3)	-10.9633
켰	-10.9636
▁maximum	-10.9636
▁국토교통부	-10.9636
▁단독	-10.9637
▁custom	-10.9637
▁typhoon	-10.9642
elecommunication	-10.9647
횡	-10.9647
▁징역	-10.9647
흑	-10.9653
▁patent	-10.9653
했는지	-10.966
▁workplace	-10.9664
▁쓰레기	-10.9669
▁평택	-10.9672
▁그렇다	-10.9681
톱	-10.9685
▁smile	-10.9702
▁SBS	-10.9713
▁sweet	-10.9713
▁systematic	-10.9724
괄	-10.9733
시켰다	-10.9746
▁관계자들	-10.9748
▁있음을	-10.9754
▁훼손	-10.9757
딱	-10.9762
▁Mexico	-10.9773
▁국민연금	-10.9779
▁균형	-10.9779
▁면접	-10.9783
▁명확	-10.9791
미사일	-10.9799
벼	-10.9801
룡	-10.9801
▁주목된다	-10.9803
▁virtual	-10.9812
▁국토부	-10.9812
▁greet	-10.9812
known	-10.9815
▁블랙	-10.9823
▁채널	-10.9829
▁sometimes	-10.9829
▁suffer	-10.9833
▁Supervisory	-10.9834
산업단지	-10.985
▁French	-10.9851
▁간담회	-10.9851
▁sky	-10.9857
▁roof	-10.9873
▁discharge	-10.9873
▁Stadium	-10.9884
▁awareness	-10.9886
▁alcohol	-10.989
▁century	-10.9895
좁	-10.9907
「	-10.9912
▁railway	-10.9918
▁벗어나	-10.9918
십시오	-10.9918
청소년	-10.9923
융합	-10.9925
▁construct	-10.9925
▁Seongnam	-10.9932
▁equal	-10.994
▁Family	-10.9946
▁Music	-10.9947
▁Gyeongnam	-10.995
▁sentiment	-10.9957
▁generate	-10.9963
▁copy	-10.9963
픈	-10.9965
▁mutual	-10.9974
▁극복	-10.9982
▁birthday	-10.9987
팩	-10.9991
▁충북	-10.9994
▁priority	-10.9995
▁married	-10.9997
▁cosmetics	-11.0002
▁할머니	-11.0002
▁Hallyu	-11.0004
깨	-11.0004
도지사	-11.0006
committee	-11.001
▁뜨거운	-11.0025
field	-11.0028
▁댓글	-11.0042
▁맞춤형	-11.0042
▁wild	-11.0042
앞	-11.0052
프로그램	-11.0062
cular	-11.0064
▁rumor	-11.0076
curr	-11.0076
눔	-11.0082
쇠	-11.0082
▁당부했다	-11.0082
띄	-11.0093
▁confidence	-11.0093
▁civilian	-11.0093
▁fuel	-11.0116
▁희생	-11.0116
▁idol	-11.0122
맛	-11.0126
▁accurate	-11.0133
▁jump	-11.0133
▁범행	-11.0134
▁emerging	-11.0144
냥	-11.0145
▁Sunday	-11.0147
▁Speaker	-11.015
▁diplomatic	-11.0156
▁advice	-11.0161
▁금감원	-11.0162
놨	-11.0173
▁Would	-11.0179
▁robot	-11.0179
닭	-11.0196
turn	-11.02
▁transform	-11.0202
▁차원에서	-11.0208
뛰	-11.0213
▁Meteorological	-11.0213
▁스트레스	-11.0213
▁suitable	-11.0217
▁municipal	-11.0219
▁Dynasty	-11.0225
▁disciplinary	-11.0225
▁expenditure	-11.0225
▁throw	-11.0226
▁커뮤니티	-11.0236
▁비즈니스	-11.0236
▁현황	-11.0241
싼	-11.0242
▁shipping	-11.025
섬	-11.025
흉	-11.0254
▁불가피	-11.0254
▁업종	-11.0261
▁ride	-11.0267
▁fifth	-11.0271
▁올랐다	-11.0271
▁나아가	-11.0272
심의위원회	-11.028
▁thousand	-11.0288
▁commit	-11.0292
▁equipped	-11.0294
▁Ya	-11.0295
▁질병	-11.03
▁earthquake	-11.03
▁error	-11.03
▁Africa	-11.0318
▁extent	-11.0326
▁Pohang	-11.0329
죽	-11.0333
▁aware	-11.034
됐으며	-11.0341
▁execution	-11.0341
셋	-11.0341
▁transferred	-11.0344
▁race	-11.0348
▁lease	-11.0353
▁transport	-11.0364
▁clinic	-11.0365
▁가족들	-11.0365
▁comfortable	-11.0367
▁하늘	-11.0368
빌	-11.0369
▁storage	-11.037
▁bureau	-11.0382
▁episode	-11.0382
▁나눠	-11.0394
웹	-11.0399
▁demonstration	-11.0405
▁British	-11.0411
▁pollution	-11.0429
▁version	-11.0429
▁amendment	-11.0435
▁계좌	-11.0437
▁Society	-11.0458
▁escape	-11.0464
듬	-11.047
▁truck	-11.047
▁deadline	-11.0471
눈	-11.0477
랩	-11.0482
빗	-11.0482
▁stance	-11.049
▁missile	-11.0494
▁Pompeo	-11.0506
▁suicide	-11.0506
▁관람객	-11.0507
▁좋았	-11.0508
▁advisor	-11.0512
▁굉장히	-11.0512
▁임직원	-11.0512
▁부총리	-11.0512
▁여의도	-11.0523
▁saving	-11.0524
꾼	-11.053
▁pledge	-11.0535
▁Western	-11.0536
▁comprised	-11.0541
espite	-11.0542
▁recognition	-11.0547
▁drew	-11.0553
▁사로잡	-11.0553
▁바꿔	-11.0554
삭	-11.0559
▁ecosystem	-11.0559
▁Jesus	-11.0559
▁SMEs	-11.0565
엠	-11.0571
▁sluggish	-11.0571
▁injury	-11.0577
▁stick	-11.0578
▁기다려	-11.0584
▁citizen	-11.0598
▁delicious	-11.0601
▁BMW	-11.0601
해달라	-11.0608
닷	-11.0613
▁테스트	-11.0618
▁Communication	-11.0619
▁bicycle	-11.0619
▁Company	-11.0625
싸움	-11.0634
▁publish	-11.0637
▁시청자들	-11.0642
졸	-11.0649
▁option	-11.0649
▁아시안게임	-11.0661
▁유튜브	-11.0661
▁Hanwha	-11.0661
▁앉아	-11.0662
멜	-11.0667
▁끌고	-11.067
▁surface	-11.0673
▁티켓	-11.0673
▁speculat	-11.068
▁pattern	-11.0685
▁subscribe	-11.0692
▁더불어	-11.0692
▁restore	-11.0703
▁glass	-11.0704
▁무역전쟁	-11.071
▁Seocho	-11.0713
랍	-11.0716
깝	-11.0716
▁화장실	-11.0716
▁permit	-11.0716
하우스	-11.0719
▁복잡	-11.0725
▁servant	-11.0734
▁슈퍼	-11.0734
▁qualification	-11.074
▁competitive	-11.0757
▁Changwon	-11.0762
뒀	-11.0764
▁이끄는	-11.0765
▁frame	-11.077
▁negotiation	-11.0776
Korea	-11.078
▁architect	-11.0795
굳	-11.0807
▁acquire	-11.0807
▁breath	-11.0813
phone	-11.0815
▁Future	-11.0825
▁guidelines	-11.0825
▁Command	-11.0826
▁기상청	-11.0832
▁customized	-11.0839
▁의원들	-11.0842
▁hydrogen	-11.085
▁Operation	-11.0856
▁그렇지	-11.087
즌	-11.0874
님께서	-11.0875
▁appreciate	-11.0881
▁Zone	-11.0883
▁diverse	-11.0887
▁charm	-11.0893
즘	-11.0898
▁웃음	-11.0902
몽	-11.0912
팝	-11.0912
▁identified	-11.0918
▁phenomenon	-11.0918
▁slightly	-11.0924
▁reply	-11.0924
▁welcome	-11.093
▁Global	-11.0943
▁토요일	-11.0949
▁Marine	-11.0953
▁destination	-11.0955
▁당사자	-11.0961
▁convention	-11.0961
▁Wednesday	-11.0961
▁Yeouido	-11.0967
▁enterprise	-11.0977
▁복귀	-11.0988
▁노원구	-11.0995
▁Academy	-11.0999
▁Gangneung	-11.0999
▁백악관	-11.0999
▁Philippines	-11.1005
▁penalty	-11.103
▁rapid	-11.104
▁마찬가지	-11.1042
고속도로	-11.1042
▁로봇	-11.1043
▁찾은	-11.1046
▁meantime	-11.1061
▁누군가	-11.1061
▁straight	-11.1067
▁struggle	-11.1067
▁ministry	-11.1074
▁involving	-11.1093
윈	-11.1105
▁teenagers	-11.1111
▁football	-11.1118
▁either	-11.1124
▁uncertain	-11.113
▁micro	-11.1143
▁subsidy	-11.1143
▁wake	-11.115
▁Chuseok	-11.1162
▁Community	-11.1162
▁franchise	-11.1175
젤	-11.1175
[	-11.1175
▁inevitable	-11.1175
▁chair	-11.1176
▁좋겠다	-11.1176
스테이	-11.1178
▁occasion	-11.1181
▁첨단	-11.1188
▁tournament	-11.1194
▁몽골	-11.12
▁prime	-11.12
▁방탄소년단	-11.1213
]	-11.1219
▁소비자들	-11.122
▁착용	-11.1227
▁exposed	-11.1232
▁Medium	-11.1251
▁losing	-11.1254
▁eliminat	-11.1264
협의체	-11.1267
▁studies	-11.127
▁풀이된다	-11.127
▁fiscal	-11.1277
▁과태료	-11.1277
멍	-11.129
▁corner	-11.129
▁선보인	-11.129
▁Agriculture	-11.1296
4,000	-11.1301
페스티벌	-11.1302
▁wedding	-11.1303
▁구속영장	-11.1309
▁kick	-11.131
▁나중에	-11.1312
▁dropped	-11.1316
밍	-11.1322
▁strict	-11.1322
▁Other	-11.1322
▁DMZ	-11.1328
▁이탈리아	-11.1328
▁booth	-11.1335
▁statistics	-11.1335
디자인	-11.1345
▁countermeasure	-11.1348
빵	-11.136
▁이른바	-11.1373
▁Student	-11.138
퀴	-11.138
▁pilot	-11.138
▁stability	-11.1387
▁attach	-11.1395
▁밖의	-11.1401
▁shift	-11.1406
▁hiring	-11.1406
▁multiple	-11.1408
▁degree	-11.141
▁Bureau	-11.1412
▁기독교	-11.1419
▁leisure	-11.1425
▁unusual	-11.1425
▁Unification	-11.1427
밭	-11.1432
▁Temple	-11.1445
▁religious	-11.1445
팽	-11.1451
▁blind	-11.1452
▁funeral	-11.1458
▁novel	-11.1458
▁떨어져	-11.1471
▁outcome	-11.1472
▁disposal	-11.1478
▁Thailand	-11.1484
첩	-11.1484
▁Tokyo	-11.1484
▁opponent	-11.1504
▁capture	-11.1512
▁국민들	-11.1515
▁strange	-11.1524
▁semester	-11.153
▁Mongolia	-11.1537
▁dialogue	-11.1537
엽	-11.1537
▁infant	-11.1548
▁Beijing	-11.155
▁Innovation	-11.155
▁supervision	-11.155
▁Army	-11.1556
▁client	-11.1556
▁Yo	-11.1557
▁Amid	-11.1564
텐	-11.157
▁생태계	-11.157
▁Citizens	-11.1589
employment	-11.1592
▁Engineering	-11.1596
륭	-11.1603
▁sudden	-11.1608
▁둘러싼	-11.1609
▁extension	-11.1616
▁금요일	-11.1617
▁찾고	-11.1619
▁easier	-11.1629
▁Vietnamese	-11.1629
▁voting	-11.163
▁Planning	-11.1637
▁협업	-11.1638
▁combination	-11.1642
릅	-11.1642
▁revitalize	-11.1649
▁College	-11.1656
▁Urban	-11.1662
trust	-11.1665
▁appoint	-11.1668
▁풍부한	-11.1669
▁bridge	-11.1676
▁resume	-11.1677
▁satisfaction	-11.1682
▁advertising	-11.1696
▁praise	-11.1696
▁preferential	-11.1703
▁litigation	-11.1709
▁죄송합니다	-11.1709
▁wire	-11.1715
▁identity	-11.1716
▁intensive	-11.1716
▁Gangseo	-11.1731
▁continuing	-11.1736
▁찾기	-11.1737
▁familiar	-11.1749
뇨	-11.1749
▁Senior	-11.1756
▁prohibit	-11.1763
쥐	-11.1763
▁Administrative	-11.177
깜	-11.177
▁pretty	-11.1776
▁fundamental	-11.1783
▁rejected	-11.1783
▁Declaration	-11.179
▁punish	-11.1793
▁vegetable	-11.1797
▁탑승	-11.1797
▁mine	-11.1798
덤	-11.1803
▁Town	-11.1803
▁revolution	-11.181
j	-11.1817
쏠	-11.1824
▁identify	-11.1837
▁참가자들	-11.1845
▁stadium	-11.1851
▁인공지능	-11.1851
▁Until	-11.1858
▁residence	-11.1864
▁heritage	-11.1864
▁Strategy	-11.1871
▁counsel	-11.1882
▁downtown	-11.1885
▁introducing	-11.1885
▁착수	-11.1895
▁calculate	-11.1898
▁facing	-11.1899
▁법무부	-11.1905
▁quantity	-11.1912
▁캠페인	-11.1919
▁Hwaseong	-11.192
▁origin	-11.1924
▁pleasant	-11.1933
▁automobile	-11.1939
▁Attention	-11.1946
▁smoke	-11.1946
▁securing	-11.1953
▁월요일	-11.1954
챔	-11.196
▁Disaster	-11.196
▁purchasing	-11.196
▁analyze	-11.1963
▁permanent	-11.1967
▁Housing	-11.1967
▁experiment	-11.1974
▁Washington	-11.1974
혐	-11.1986
%	-11.1987
▁capabilities	-11.1988
▁genre	-11.1988
▁legislation	-11.2001
캔	-11.2008
▁Especially	-11.2008
▁stream	-11.2015
▁Independence	-11.2022
▁perspective	-11.2022
▁requirements	-11.2022
▁indicator	-11.2029
▁Street	-11.2029
▁rush	-11.203
▁뿌리	-11.2031
▁acquisition	-11.2036
꿀	-11.2036
▁Matters	-11.2036
튀	-11.2043
깃	-11.205
▁memorial	-11.2077
쿄	-11.2077
▁troops	-11.2084
램	-11.2084
븐	-11.2084
▁Christmas	-11.2084
▁Pension	-11.2084
oriented	-11.2106
슷	-11.2112
▁peak	-11.2113
낳	-11.2119
▁deploy	-11.2126
excluding	-11.2133
▁plenary	-11.2147
▁apologize	-11.2154
▁agriculture	-11.2168
▁category	-11.2175
▁dangerous	-11.2182
▁brain	-11.2183
▁marine	-11.2189
▁기획재정부	-11.2196
▁convey	-11.2196
▁Design	-11.2196
▁mini	-11.2217
▁Regional	-11.2217
▁rally	-11.2221
▁Industries	-11.2224
burg	-11.2225
▁parent	-11.223
▁technique	-11.2231
▁landscape	-11.2246
▁principal	-11.2253
▁덕분에	-11.2267
▁흘러	-11.2267
▁postpone	-11.2275
랄	-11.2281
▁strategic	-11.2288
덮	-11.2309
랭	-11.2317
▁spokesman	-11.2317
▁simply	-11.2324
샌	-11.2345
껏	-11.2352
▁root	-11.2353
▁composition	-11.2359
▁lend	-11.2365
▁behalf	-11.2366
▁discrimination	-11.2366
▁happiness	-11.2366
밤	-11.2367
▁knew	-11.2388
▁noodle	-11.2388
▁Regulation	-11.2395
▁ultra	-11.2403
밟	-11.2409
▁아티스트	-11.2409
▁어르신	-11.2409
▁shoes	-11.2417
랙	-11.2431
벤처기업	-11.2453
▁relief	-11.246
▁specified	-11.2467
▁트위터	-11.2467
▁Huawei	-11.2489
▁empty	-11.2496
▁왼쪽	-11.2496
▁crackdown	-11.251
▁keen	-11.2512
덩	-11.2518
뭔	-11.2518
▁steel	-11.2518
▁별도의	-11.2533
▁curriculum	-11.2547
▁forget	-11.2548
▁temple	-11.2569
▁urged	-11.2576
▁Military	-11.2583
▁왜냐하면	-11.2591
깐	-11.2598
▁Store	-11.2606
▁mutati	-11.2606
ᆞ	-11.2613
▁Experts	-11.2613
8,000	-11.2616
▁abolish	-11.2635
▁delegate	-11.2679
▁정확히	-11.2679
▁John	-11.2679
▁memories	-11.2686
▁거에요	-11.2702
▁conclusion	-11.2708
라이브	-11.2711
▁싫어	-11.2713
▁피의자	-11.2717
▁Before	-11.2723
▁draft	-11.2731
▁prompt	-11.2731
틈	-11.2738
▁Leader	-11.2738
▁juvenile	-11.2745
▁preserve	-11.2753
▁phase	-11.2753
닿	-11.276
▁성폭행	-11.2768
▁vessel	-11.2775
▁assembly	-11.2783
▁Saudi	-11.279
▁프리미엄	-11.279
▁royal	-11.279
▁spoke	-11.2791
▁substance	-11.2797
디스플레이	-11.2797
▁respondents	-11.2798
▁automatically	-11.2812
▁깨끗	-11.2812
▁배터리	-11.282
▁disadvantage	-11.2827
엔터테인먼트	-11.2827
▁securities	-11.2835
▁Earlier	-11.2842
쿨	-11.2842
▁Audit	-11.2844
▁Elementary	-11.2865
▁constitution	-11.2865
▁Goryeo	-11.2874
▁Fisheries	-11.288
▁communities	-11.288
▁estimate	-11.2885
▁kimchi	-11.2887
뼈	-11.2887
▁internet	-11.2888
▁upcoming	-11.2888
▁Control	-11.2895
▁dedicated	-11.2895
▁Smart	-11.2895
▁Heritage	-11.291
옹	-11.291
▁압수수색	-11.2918
▁smell	-11.2918
▁스토리	-11.2918
▁Cooperation	-11.2925
▁잇따라	-11.2925
▁아닙니다	-11.2933
▁Those	-11.2933
▁빠진	-11.2937
▁파트너	-11.294
▁벌어지	-11.2945
▁Spain	-11.2963
▁Self	-11.2965
기본계획	-11.2988
▁yellow	-11.2993
『	-11.2993
▁verification	-11.2994
』	-11.3001
▁seminar	-11.3001
▁decade	-11.3009
Pacific	-11.3009
눌	-11.3016
▁일요일	-11.3019
▁relax	-11.3024
▁quick	-11.3025
▁politician	-11.3032
▁Intelligence	-11.3039
▁flexible	-11.3039
폼	-11.3047
▁어려울	-11.3047
Committee	-11.3049
▁Hanoi	-11.3055
▁liquid	-11.3062
▁경기북부	-11.3078
▁삭제	-11.3086
▁bottle	-11.3093
▁regulatory	-11.3093
▁underground	-11.3093
▁합리적	-11.3099
▁숫자	-11.3101
셉	-11.3108
▁케이팝	-11.3108
▁panel	-11.3108
▁nurse	-11.3116
▁움직이	-11.3124
ography	-11.3125
▁워싱턴	-11.3131
▁consensus	-11.3131
▁unexpected	-11.3131
▁reaction	-11.3132
엇	-11.3135
▁연예인	-11.314
▁베이징	-11.3147
6,000	-11.315
대사관	-11.3181
▁subordinate	-11.3193
룰	-11.3193
▁Valley	-11.3201
▁bereaved	-11.3201
é	-11.3225
▁하노이	-11.3225
▁visual	-11.3233
▁convert	-11.3233
주시겠어요	-11.3242
This	-11.3263
▁indicate	-11.3264
▁unveiled	-11.3271
▁interior	-11.3271
▁doubt	-11.3272
▁calm	-11.3272
▁댄스	-11.3272
▁Turkey	-11.3279
▁핸드폰	-11.3279
멋	-11.3295
상당히	-11.3306
▁pull	-11.3313
▁Second	-11.3318
▁radio	-11.3328
▁stood	-11.3334
▁Three	-11.3334
헤	-11.3335
▁Exchange	-11.3342
▁guess	-11.3342
▁득점	-11.3353
설명회	-11.3365
▁entrepreneur	-11.3366
▁relative	-11.3367
▁고양시	-11.3379
묶	-11.3382
픔	-11.3382
▁산업혁명	-11.3382
▁logistics	-11.339
넌	-11.3413
뤄	-11.3426
캠	-11.3474
렘	-11.3493
떼	-11.3509
볶	-11.359
붕	-11.3598
꽤	-11.3598
룩	-11.3622
논	-11.368
팬	-11.3722
갤	-11.3744
엉	-11.3752
봅	-11.3802
앗	-11.3876
뿌	-11.3908
셰	-11.3977
틸	-11.407
맑	-11.4121
숭	-11.4129
붉	-11.4138
펴	-11.4162
턱	-11.4172
겸	-11.4185
쁨	-11.4215
롬	-11.4249
흰	-11.4266
벅	-11.431
촬	-11.4406
탱	-11.4476
꺾	-11.4494
q	-11.4619
퓨	-11.4636
릇	-11.4681
믹	-11.469
썬	-11.4727
곱	-11.4736
휩	-11.4745
맘	-11.4772
곰	-11.4827
띠	-11.4928
궐	-11.4946
뻐	-11.4946
늬	-11.4955
솟	-11.4983
랬	-11.5067
슛	-11.5142
듭	-11.5168
땀	-11.5171
쏘	-11.5285
몇	-11.5319
녕	-11.5333
잠	-11.5338
렵	-11.534
칫	-11.5401
칩	-11.542
융	-11.5442
윗	-11.5537
낯	-11.5576
킴	-11.5596
덴	-11.5656
펠	-11.5656
뚝	-11.5735
°	-11.5745
렛	-11.5796
넉	-11.5816
잎	-11.5836
뚫	-11.5877
몸	-11.5885
냅	-11.5907
딘	-11.5958
갱	-11.5999
긍	-11.604
굿	-11.6113
샘	-11.6134
훼	-11.6155
앓	-11.6207
렁	-11.6218
곁	-11.6302
맵	-11.6345
큰	-11.6365
뢰	-11.6477
댄	-11.6494
탠	-11.6516
맙	-11.6571
긋	-11.6691
햇	-11.6691
짚	-11.6724
킥	-11.6813
뀐	-11.688
낫	-11.6903
쩔	-11.6925
넣	-11.6961
쩍	-11.697
컷	-11.7004
故	-11.7004
얀	-11.7027
꿈	-11.7066
윌	-11.7153
낚	-11.7258
섹	-11.7269
녹	-11.7301
핸	-11.7352
몫	-11.7375
엿	-11.7387
뻔	-11.7411
뚜	-11.7494
`	-11.7542
삽	-11.765
텀	-11.7699
랫	-11.7723
닛	-11.7735
뭉	-11.776
쩌	-11.776
펌	-11.776
뉘	-11.7846
툼	-11.7859
햄	-11.7971
톨	-11.8046
륜	-11.8097
않	-11.8168
흙	-11.8199
펀	-11.82
싫	-11.8306
봇	-11.8314
굽	-11.8315
툰	-11.8341
샷	-11.8354
쿼	-11.8393
‘	-11.8419
켈	-11.8498
붐	-11.8511
힘	-11.8514
궤	-11.8564
겉	-11.8577
돋	-11.859
닮	-11.8631
쉼	-11.8631
젖	-11.8631
덧	-11.8711
엑	-11.8722
왼	-11.8765
옷	-11.8788
높	-11.8985
앨	-11.904
떠	-11.96
찮	-11.9763
왜	-12.0047
또	-12.0222
젊	-12.046
찍	-12.061
헨	-12.0754
못	-12.0988
냉	-12.1488
숍	-12.1985
젝	-12.2405
잘	-12.2979
낮	-12.3478
셈	-12.3825
뒤	-12.4027
끝	-12.4027
딸	-12.4074
큼	-12.4276
됩	-12.4288
갖	-12.441
씬	-12.4527
싶	-12.4534
껴	-12.4722
및	-12.5438
잖	-12.6112
뷔	-12.6346
냄	-12.6702
많	-12.6799
멀	-12.721
$	-12.7639
멕	-12.8795
줍	-12.8868
꼼	-12.9249
캘	-12.9249
낀	-13.0096
굉	-13.0439
댓	-13.0526
듣	-13.0784
닙	-13.0794
괜	-13.1068
멤	-13.1641
꿔	-13.1737
떤	-13.2195
걱	-13.2249
꼭	-13.2547
꼈	-13.2952
읽	-13.3715
씀	-13.4011
얘	-13.4012
좀	-13.4621
묻	-13.5037
첫	-13.5179
빼	-13.5544
낄	-13.5932
숫	-13.6877
옆	-13.7878
렷	-13.8023
믿	-13.8458
끗	-13.8597
삶	-13.9288
뀌	-14.0078
<	-14.0554
룹	-14.2372
밝	-14.7064
쌓	-14.7796
뭐	-15.0715
딪	-15.873
밌	-15.8731
뤘	-15.8732
짙	-15.8733
릎	-15.8734
횟	-15.8735
쫓	-15.8736
잦	-15.8737
샀	-15.8738
췄	-15.8739
섞	-15.874
썼	-15.8741
팎	-15.8742
컸	-15.8743
닫	-15.8744
뽑	-15.8745
걷	-15.8746
훨	-15.8747
짧	-15.8748
맺	-15.8749
낌	-15.875
쏟	-15.8751
옮	-15.8752
잃	-15.8753
끊	-15.8754
넓	-15.8755
녁	-15.8756
겪	-15.8757
겼	-15.8758
섰	-15.8759
얻	-15.876
맡	-15.8761
냈	-15.8762
떻	-15.8763
같	-15.8764
눠	-15.8764
