<unk>	0
<s>	0
</s>	0
.	-3.25959
▁the	-3.41916
,	-3.51352
▁of	-4.1426
▁and	-4.35864
▁to	-4.39277
▁a	-4.66551
▁in	-4.74319
-	-4.87843
을	-4.87975
▁	-5.02449
s	-5.02805
▁is	-5.05888
의	-5.08628
▁that	-5.29493
'	-5.29839
를	-5.30552
▁for	-5.39209
가	-5.39551
는	-5.5142
이	-5.55567
에	-5.57509
▁on	-5.61046
▁The	-5.62561
▁I	-5.64555
▁as	-5.74418
은	-5.75236
▁it	-5.78204
▁be	-5.78794
▁with	-5.81652
▁was	-5.87053
▁by	-5.88696
▁수	-5.98853
▁are	-6.00211
)	-6.00344
▁will	-6.02007
▁"	-6.06368
▁있다	-6.16764
▁at	-6.19338
?	-6.19688
과	-6.25938
▁from	-6.28491
▁you	-6.28991
도	-6.29268
▁have	-6.32504
고	-6.35026
▁has	-6.37243
▁“	-6.38457
’	-6.39611
▁‘	-6.4076
▁which	-6.41098
일	-6.46141
로	-6.46271
▁not	-6.47566
▁who	-6.48341
(	-6.50889
”	-6.51638
▁an	-6.52312
·	-6.55888
에서	-6.56696
와	-6.59378
▁this	-6.59883
▁Korea	-6.62779
으로	-6.62932
▁1	-6.64195
▁이	-6.65781
▁but	-6.66772
▁있는	-6.68218
▁can	-6.72311
▁등	-6.7415
한	-6.74516
▁(	-6.75333
▁or	-6.75357
th	-6.76276
▁In	-6.77121
"	-6.77121
▁2	-6.80939
▁said	-6.82685
▁It	-6.84723
인	-6.86655
▁shall	-6.87151
t	-6.90701
▁year	-6.9104
▁been	-6.91371
▁3	-6.92874
▁time	-6.94178
▁were	-6.94707
▁he	-6.97829
다	-6.98582
▁한다	-6.98897
▁there	-6.99203
년	-6.99238
▁Korean	-7.02245
▁Kim	-7.06565
▁한	-7.0789
▁his	-7.08261
▁such	-7.0909
▁제	-7.09823
▁also	-7.10538
."	-7.10812
▁so	-7.11858
▁people	-7.12152
▁after	-7.12798
▁when	-7.14974
▁A	-7.15095
▁more	-7.15764
▁및	-7.16009
▁their	-7.16175
▁they	-7.16359
ing	-7.16477
▁것으로	-7.17137
▁그	-7.19857
▁if	-7.20645
▁than	-7.21875
▁first	-7.22054
▁5	-7.22745
▁about	-7.23511
m	-7.23587
월	-7.24164
▁4	-7.26724
▁10	-7.27779
▁out	-7.30711
▁head	-7.30769
할	-7.31735
▁대한	-7.32196
만	-7.32716
▁Gyeonggi	-7.3664
▁we	-7.36965
하는	-7.37552
▁because	-7.37966
하고	-7.39284
▁one	-7.41666
▁Seoul	-7.42817
▁its	-7.4333
▁my	-7.44466
▁전	-7.45603
지	-7.47302
▁위해	-7.47808
해	-7.49405
▁government	-7.49999
▁where	-7.5161
▁all	-7.523
▁had	-7.52746
▁may	-7.52888
▁up	-7.54914
▁through	-7.55838
▁public	-7.56503
▁won	-7.57786
S	-7.58351
▁last	-7.5968
▁6	-7.59951
▁including	-7.60678
▁other	-7.62733
▁This	-7.63117
▁것	-7.63964
▁two	-7.64044
▁me	-7.6443
▁only	-7.64669
▁더	-7.64887
▁due	-7.65512
▁under	-7.66471
▁North	-7.67363
▁new	-7.67536
▁따라	-7.67571
▁경우	-7.67649
▁할	-7.67931
do	-7.68462
▁like	-7.69011
,"	-7.69934
▁do	-7.70454
▁7	-7.70614
▁Gu	-7.70657
▁your	-7.70687
gu	-7.72087
▁held	-7.72562
/	-7.73428
▁Province	-7.73454
▁day	-7.73805
▁지난	-7.74558
▁중	-7.75102
▁Lee	-7.76102
▁high	-7.76645
▁companies	-7.76894
▁통해	-7.77392
ed	-7.78853
▁나는	-7.78945
▁U	-7.79781
▁National	-7.8037
기	-7.80511
▁20	-7.81484
▁over	-7.81684
▁8	-7.81732
▁would	-7.81832
▁should	-7.82234
들이	-7.82654
2	-7.83364
▁no	-7.83463
▁함께	-7.83696
나	-7.83931
▁If	-7.84159
▁밝혔다	-7.84622
▁years	-7.84664
▁them	-7.84688
▁made	-7.85191
▁As	-7.86486
▁many	-7.87748
▁into	-7.87926
▁한국	-7.88636
▁support	-7.89155
▁number	-7.89497
하게	-7.89618
▁work	-7.89767
▁9	-7.89985
▁local	-7.9004
▁하는	-7.90222
개	-7.90623
1	-7.90799
시	-7.90909
▁company	-7.91334
▁between	-7.91856
대	-7.92089
에는	-7.92237
▁market	-7.92371
▁이번	-7.92518
d	-7.92756
▁business	-7.92998
며	-7.94502
▁30	-7.94543
▁system	-7.94602
▁있습니다	-7.95389
▁make	-7.95473
▁때	-7.96081
까지	-7.96981
▁take	-7.97601
▁것이	-7.97666
▁school	-7.97986
▁내	-7.98125
▁We	-7.98204
▁even	-7.98307
▁There	-7.98399
▁위한	-7.99048
▁많은	-7.99309
▁since	-8.00542
▁members	-8.00659
▁use	-8.01333
▁while	-8.01511
했다	-8.01547
▁등을	-8.02628
▁well	-8.0273
▁가장	-8.035
자	-8.03783
▁President	-8.03899
게	-8.04474
▁김	-8.04609
▁저는	-8.05174
▁안	-8.0531
▁Park	-8.05659
▁다른	-8.06209
▁each	-8.06245
▁12	-8.06401
서	-8.07622
▁11	-8.07964
▁good	-8.07973
▁말했다	-8.08316
▁order	-8.08675
▁go	-8.08769
▁것이다	-8.09866
▁했다	-8.10262
▁team	-8.1044
▁being	-8.11242
),	-8.11522
▁management	-8.13078
▁her	-8.13517
▁get	-8.13565
▁next	-8.1362
▁want	-8.13639
▁think	-8.13732
▁expected	-8.1389
▁대해	-8.14281
▁during	-8.14407
▁three	-8.14474
▁것은	-8.14521
된	-8.14785
에게	-8.158
:	-8.16139
이다	-8.1625
▁것을	-8.1635
▁When	-8.16678
▁place	-8.16692
▁각	-8.17102
이라고	-8.17238
▁두	-8.17241
▁our	-8.17743
▁City	-8.18307
▁잘	-8.18482
▁후	-8.18485
면	-8.18584
▁etc	-8.1866
▁project	-8.1872
▁Party	-8.18732
▁He	-8.18733
▁Ministry	-8.18961
▁some	-8.19082
▁같은	-8.19435
▁meeting	-8.19833
▁before	-8.19973
▁official	-8.20174
▁큰	-8.20282
▁students	-8.20293
▁any	-8.20473
▁various	-8.20526
입니다	-8.21394
▁미국	-8.21444
▁Article	-8.21545
▁million	-8.21629
▁could	-8.22386
▁person	-8.22473
▁게	-8.23598
▁necessary	-8.23755
▁area	-8.23759
▁또는	-8.23813
▁need	-8.24956
▁office	-8.25167
▁15	-8.2543
라	-8.25554
▁다음	-8.25814
▁China	-8.26068
▁가운데	-8.26116
▁서울	-8.26268
▁Committee	-8.26527
▁police	-8.26556
▁우리	-8.26661
명	-8.27222
▁same	-8.27288
▁second	-8.27388
▁case	-8.27931
▁month	-8.27947
in	-8.27968
▁know	-8.28266
▁필요한	-8.28556
▁what	-8.2874
▁most	-8.28919
▁Act	-8.28973
▁그는	-8.29573
▁now	-8.30577
▁education	-8.30734
▁residents	-8.30827
▁있어	-8.31075
▁plan	-8.31167
▁used	-8.31533
▁때문에	-8.31631
▁days	-8.31723
▁하고	-8.31872
▁Metropolitan	-8.32055
▁without	-8.32692
▁South	-8.33055
▁world	-8.33092
▁Do	-8.3311
▁service	-8.3324
▁관련	-8.34851
▁Government	-8.34876
▁products	-8.35
▁있도록	-8.35853
▁등이	-8.3598
▁long	-8.36068
이나	-8.36177
하지	-8.36632
▁former	-8.36809
▁around	-8.36937
▁information	-8.3745
▁K	-8.3749
▁how	-8.3779
▁industry	-8.37875
▁right	-8.38637
▁related	-8.38688
▁많이	-8.38769
The	-8.38837
▁don	-8.38869
▁Center	-8.39282
▁You	-8.39485
▁life	-8.39589
▁city	-8.4005
▁따른	-8.4008
▁small	-8.40275
▁특히	-8.41125
▁시	-8.41224
▁special	-8.41316
▁event	-8.41686
▁just	-8.42324
▁According	-8.42412
▁최근	-8.42581
▁facilities	-8.42912
▁am	-8.43617
▁development	-8.43751
▁saying	-8.43886
히	-8.44274
▁investigation	-8.44288
▁100	-8.4434
ll	-8.44414
▁이날	-8.44559
▁이후	-8.44728
▁children	-8.44733
▁다양한	-8.44736
ly	-8.44771
▁following	-8.45471
에서는	-8.4578
차	-8.45901
주	-8.4593
▁lot	-8.45942
▁within	-8.46391
▁much	-8.46448
▁increase	-8.46579
▁지난해	-8.46649
적	-8.46905
▁다시	-8.47072
▁country	-8.47096
하기	-8.47332
3	-8.47352
야	-8.48379
▁billion	-8.48433
I	-8.48558
▁center	-8.48564
▁18	-8.48573
▁현재	-8.48683
적인	-8.4873
▁없는	-8.48821
▁see	-8.48967
▁경기도	-8.48981
▁국내	-8.48987
던	-8.49065
▁Moon	-8.49175
st	-8.49208
▁있다는	-8.49427
▁될	-8.49772
▁제가	-8.50143
▁food	-8.50559
▁large	-8.50689
▁among	-8.50835
▁announced	-8.50842
▁performance	-8.51074
she	-8.5116
▁did	-8.513
▁period	-8.51324
하여	-8.51326
▁University	-8.51507
하며	-8.51512
▁뒤	-8.51613
▁이상	-8.51645
▁내가	-8.51717
▁against	-8.52312
어	-8.52677
▁group	-8.52872
▁rate	-8.5303
▁party	-8.53506
▁On	-8.53573
▁end	-8.53648
▁price	-8.53976
▁very	-8.54246
한다	-8.54729
▁'	-8.55154
▁16	-8.55245
▁referred	-8.55287
▁13	-8.55422
성	-8.55544
사	-8.55947
▁구청장은	-8.56159
수	-8.5641
제	-8.56553
▁process	-8.56691
▁social	-8.57027
▁중국	-8.57119
▁national	-8.5723
라는	-8.57363
▁올해	-8.57413
▁모두	-8.5786
▁직접	-8.57965
▁total	-8.58023
▁지역	-8.58091
▁모든	-8.58449
▁해	-8.59093
▁him	-8.59325
▁operation	-8.59385
▁economic	-8.59576
▁whether	-8.59679
▁fact	-8.59852
▁14	-8.59878
▁위하여	-8.59925
▁way	-8.60023
▁home	-8.60169
▁financial	-8.60366
▁Jae	-8.6044
▁Jung	-8.60623
▁report	-8.61469
라고	-8.61556
보다	-8.62104
조	-8.62109
▁become	-8.62317
▁come	-8.6232
▁attention	-8.62739
▁going	-8.62879
▁help	-8.62902
▁등의	-8.63297
▁family	-8.63659
▁At	-8.63813
▁found	-8.63878
미	-8.64274
▁주	-8.64576
▁cases	-8.6467
진	-8.64745
▁charge	-8.64955
▁policy	-8.65106
▁future	-8.65129
▁officials	-8.65218
▁difficult	-8.65233
dong	-8.65435
이하	-8.65545
▁좋은	-8.65815
▁다	-8.65827
▁back	-8.65878
▁Governor	-8.66017
▁those	-8.66122
▁19	-8.66337
▁working	-8.66448
▁change	-8.66564
▁product	-8.66715
re	-8.66829
▁17	-8.66921
▁construction	-8.67049
▁따르면	-8.67065
▁이를	-8.67527
▁보고	-8.67528
nt	-8.68147
▁again	-8.68167
회	-8.68199
▁budget	-8.68485
er	-8.68583
▁총	-8.68593
▁means	-8.68594
호	-8.68671
▁water	-8.69205
▁25	-8.69382
명이	-8.69808
▁situation	-8.69814
▁she	-8.69815
▁every	-8.70078
▁Minister	-8.70112
」	-8.70367
▁Office	-8.70483
▁together	-8.70941
장	-8.70985
상	-8.71023
▁B	-8.71218
해야	-8.71315
▁있을	-8.71477
▁part	-8.71525
▁measures	-8.71609
▁아니라	-8.71939
ve	-8.72013
▁member	-8.72275
▁power	-8.72466
▁「	-8.72693
요	-8.72784
▁없다	-8.72788
여	-8.729
▁amount	-8.72931
▁committee	-8.73067
하면서	-8.73178
▁우리는	-8.73191
▁50	-8.73483
▁activities	-8.73549
▁particular	-8.74
▁down	-8.74012
▁provide	-8.7426
원	-8.74283
▁interest	-8.74567
부터	-8.74662
▁reported	-8.74891
▁received	-8.74928
▁problem	-8.75035
▁해당	-8.7509
▁fire	-8.75096
▁possible	-8.75198
▁Ordinance	-8.75266
▁Busan	-8.75279
▁countries	-8.75329
y	-8.75343
▁24	-8.75373
hereinafter	-8.75461
분	-8.75628
▁약	-8.75751
▁sales	-8.75767
▁다만	-8.7608
동	-8.76174
▁best	-8.76573
▁당시	-8.76676
▁term	-8.77014
▁경우에는	-8.77085
▁set	-8.77148
▁visit	-8.77309
▁오후	-8.77377
▁Please	-8.77415
▁있다고	-8.77431
▁Japan	-8.77468
될	-8.77566
▁That	-8.7806
▁percent	-8.78065
▁때문이다	-8.78209
▁데	-8.78502
▁matters	-8.78545
e	-8.78569
▁say	-8.78572
▁관한	-8.78585
4	-8.78591
세	-8.7863
▁culture	-8.78744
▁Assembly	-8.78774
▁different	-8.79119
▁동안	-8.79152
이라는	-8.79404
▁private	-8.79477
▁areas	-8.79616
▁room	-8.79669
▁women	-8.79687
▁너무	-8.79773
▁give	-8.80488
▁된다	-8.80563
▁director	-8.8064
▁job	-8.80902
▁main	-8.80913
억	-8.81001
▁높은	-8.81013
We	-8.81103
선	-8.81108
리	-8.81111
▁Samsung	-8.81131
▁새로운	-8.81356
▁만큼	-8.81388
▁today	-8.81536
▁until	-8.81607
▁지금	-8.81664
▁experience	-8.8177
▁based	-8.81778
▁using	-8.81802
▁four	-8.81831
되는	-8.81984
▁21	-8.81987
▁major	-8.82044
▁important	-8.82147
▁money	-8.8221
▁game	-8.82227
▁이어	-8.82737
▁general	-8.82823
▁reason	-8.83025
▁too	-8.8308
▁어떤	-8.83217
▁here	-8.83258
▁않은	-8.83428
▁technology	-8.83486
▁문	-8.83494
▁growth	-8.83779
들은	-8.83816
▁able	-8.83842
▁increased	-8.8386
▁department	-8.83944
▁Chinese	-8.83964
▁these	-8.84081
▁이런	-8.84237
▁등에	-8.84405
▁미	-8.84592
▁five	-8.84627
▁foreign	-8.84866
▁합니다	-8.8488
▁hard	-8.84913
하면	-8.84986
▁why	-8.8514
▁real	-8.85288
▁오늘	-8.85331
▁Japanese	-8.85433
▁workers	-8.85587
▁Education	-8.85665
▁still	-8.85709
▁decided	-8.85721
▁data	-8.85795
▁half	-8.85855
▁US	-8.86039
ri	-8.86372
▁당신은	-8.86674
▁safety	-8.86714
▁경찰	-8.86786
▁came	-8.86976
▁27	-8.87108
▁세계	-8.87126
a	-8.8729
▁지원	-8.87382
형	-8.87941
▁23	-8.8801
▁pay	-8.88082
▁level	-8.88116
들의	-8.88176
▁province	-8.88255
합니다	-8.88265
▁making	-8.88329
▁president	-8.88381
ho	-8.88383
▁low	-8.88645
▁첫	-8.88706
▁경기	-8.88816
▁left	-8.88927
▁시장	-8.88954
▁hope	-8.89181
▁projects	-8.89368
▁us	-8.89552
▁early	-8.89629
▁past	-8.89681
▁New	-8.89704
▁22	-8.89764
▁building	-8.89925
하여야	-8.89998
면서	-8.90062
비	-8.90103
▁일본	-8.90193
▁당신이	-8.90291
A	-8.90366
nd	-8.90384
▁Trump	-8.90392
▁took	-8.90442
▁tax	-8.90606
▁then	-8.90636
스	-8.90813
▁시간	-8.90874
▁results	-8.91025
▁pursua	-8.91249
돼	-8.91325
▁또	-8.9147
이라	-8.91554
부	-8.91578
▁40	-8.91609
▁times	-8.91942
▁media	-8.92084
▁Council	-8.92189
화	-8.92194
▁건	-8.9238
▁off	-8.92472
했던	-8.92484
▁Dong	-8.92535
▁military	-8.92628
al	-8.92652
G	-8.92658
▁released	-8.92712
▁car	-8.92732
▁house	-8.9275
▁After	-8.92791
▁관계자는	-8.93074
▁볼	-8.93236
▁트럼프	-8.93502
▁있었다	-8.93567
▁어떻게	-8.93996
▁있어요	-8.94217
전	-8.94358
▁지	-8.94409
▁간	-8.94475
아	-8.94483
▁show	-8.94613
용	-8.94642
▁KRW	-8.94766
▁find	-8.9482
▁Incheon	-8.94848
▁않고	-8.94923
에도	-8.9498
▁26	-8.95073
▁나	-8.95169
▁결과	-8.95272
▁site	-8.95347
▁28	-8.95363
▁What	-8.9537
▁issue	-8.95539
▁말	-8.9574
▁week	-8.95742
▁relevant	-8.95802
the	-8.95954
▁affairs	-8.96083
▁원	-8.96154
▁오는	-8.96301
▁check	-8.96319
▁된	-8.96455
▁own	-8.96614
▁domestic	-8.96641
▁name	-8.96705
▁start	-8.96793
지만	-8.96923
▁However	-8.97061
▁economy	-8.97216
▁result	-8.97413
▁labor	-8.97674
▁보인다	-8.97883
구	-8.97939
▁investment	-8.97973
▁re	-8.98028
5	-8.9814
항에	-8.98158
▁cultural	-8.98359
▁있으며	-8.98389
▁health	-8.98409
▁열린	-8.98703
▁research	-8.99144
▁called	-8.99331
▁있고	-8.99386
her	-8.99455
▁plans	-8.99659
들을	-8.99671
▁사업	-8.99926
▁조사	-9.00247
▁바	-9.00251
▁law	-9.00445
▁일	-9.00445
▁does	-9.00717
중	-9.00725
▁박	-9.00726
▁Chairman	-9.00858
▁agreement	-9.00865
신	-9.00883
▁대통령이	-9.00908
▁front	-9.00992
▁paragraph	-9.01131
▁Although	-9.01157
▁great	-9.01282
▁운영	-9.0141
▁attached	-9.01531
▁must	-9.01549
▁citizens	-9.01862
▁Court	-9.02002
▁addition	-9.02048
▁Choi	-9.02183
▁global	-9.02824
▁받은	-9.02866
▁current	-9.02956
▁네	-9.03023
▁오전	-9.03059
▁여러	-9.03128
▁feel	-9.03242
됐다	-9.0329
▁young	-9.03351
▁교육	-9.03479
")	-9.03541
▁좀	-9.03711
▁care	-9.03731
처럼	-9.03759
▁So	-9.0378
▁chairman	-9.03917
▁주요	-9.04056
▁medical	-9.04087
▁기존	-9.04094
▁Institute	-9.04272
▁북한	-9.04283
▁줄	-9.04397
▁2018	-9.04589
▁My	-9.04619
▁비	-9.04701
▁prosecution	-9.04711
▁went	-9.04715
▁An	-9.04734
▁없이	-9.04795
▁strong	-9.04864
▁environment	-9.04878
▁already	-9.04894
▁body	-9.04954
▁put	-9.04955
▁For	-9.05025
▁once	-9.05307
산	-9.05437
▁provincial	-9.05606
▁established	-9.05668
▁hours	-9.05673
▁난	-9.05825
습니다	-9.06109
▁services	-9.06191
▁look	-9.06227
▁full	-9.06328
▁예정이다	-9.06412
▁request	-9.06665
▁receive	-9.06833
▁Jong	-9.06883
▁설명했다	-9.06899
▁No	-9.06915
▁일부	-9.06951
▁사람이	-9.07061
▁paid	-9.07383
▁어느	-9.07494
▁music	-9.07578
▁expenses	-9.07754
▁top	-9.07799
▁purpose	-9.08158
▁per	-9.08209
▁사용	-9.08621
▁months	-9.08645
rd	-9.0872
▁같이	-9.08725
▁They	-9.08731
▁못	-9.08944
7	-9.0919
▁cooperation	-9.0933
▁employees	-9.09344
▁Hong	-9.09346
▁29	-9.09654
▁side	-9.0966
▁그리고	-9.0986
▁영화	-9.09875
▁Association	-9.10053
▁seems	-9.10182
했습니다	-9.1027
▁free	-9.10426
당	-9.10574
위	-9.10737
▁state	-9.10762
천	-9.10874
▁according	-9.10921
▁apply	-9.10925
▁기업	-9.11001
▁바로	-9.11052
▁가능성이	-9.11081
▁participate	-9.11138
정	-9.112
▁play	-9.11274
▁conducted	-9.11289
▁please	-9.11304
▁explained	-9.1144
▁create	-9.11451
▁big	-9.1148
▁living	-9.11584
▁Young	-9.11611
D	-9.11613
▁court	-9.11786
▁관리	-9.12058
▁cannot	-9.12152
되고	-9.1216
▁May	-9.1234
▁selected	-9.12368
▁open	-9.12644
▁District	-9.12702
소	-9.12977
▁recently	-9.13046
▁production	-9.13124
▁정	-9.13309
▁program	-9.13439
▁self	-9.13554
▁send	-9.13773
▁training	-9.13883
▁ceremony	-9.13926
▁point	-9.13985
▁31	-9.14082
▁정부가	-9.14116
▁호의	-9.14269
▁있지만	-9.14438
▁both	-9.14461
▁meet	-9.14491
▁prices	-9.14611
▁morning	-9.14658
▁설치	-9.14783
▁organizations	-9.14924
▁application	-9.14994
▁달	-9.1526
적으로	-9.15319
▁United	-9.15388
▁live	-9.15537
▁Service	-9.15614
▁더욱	-9.15664
▁대상으로	-9.15957
▁less	-9.16005
되어	-9.16118
6	-9.16138
▁Democratic	-9.16153
▁Cho	-9.16236
▁추가	-9.16272
▁Since	-9.1635
▁신	-9.16357
▁문제가	-9.16366
우	-9.16373
▁floor	-9.16619
▁S	-9.1678
▁love	-9.16988
▁English	-9.1722
▁payment	-9.17268
▁것입니다	-9.17292
▁agency	-9.17379
▁away	-9.17399
▁최대	-9.17474
▁got	-9.17843
▁trade	-9.17893
▁date	-9.17899
▁고	-9.1801
▁받고	-9.18023
▁started	-9.18247
▁p	-9.18254
▁정말	-9.18264
▁이미	-9.18362
▁competition	-9.18397
▁하나	-9.1846
▁administration	-9.18758
▁매우	-9.18802
▁정도	-9.18855
▁old	-9.18857
▁말한다	-9.18874
▁representative	-9.18879
▁continue	-9.18932
▁became	-9.18981
조제	-9.18996
▁가	-9.19133
▁popular	-9.19214
▁opening	-9.1927
▁cost	-9.19349
▁오	-9.19373
▁taking	-9.19383
▁visited	-9.19442
▁않는	-9.19491
▁hold	-9.19568
▁test	-9.19597
▁field	-9.19692
▁조	-9.19708
니	-9.19749
▁along	-9.19752
▁community	-9.1982
▁late	-9.19867
▁summit	-9.19899
하거나	-9.2006
▁학교	-9.20176
▁better	-9.20306
▁경제	-9.20364
▁likely	-9.20443
식	-9.20462
▁administrative	-9.2057
▁때에는	-9.20578
▁세	-9.2077
▁welfare	-9.20801
▁D	-9.20871
▁prevent	-9.21114
▁전국	-9.2148
▁도지사	-9.21485
▁Gwangju	-9.21572
▁Mayor	-9.21681
▁Where	-9.21723
보	-9.21873
▁당신의	-9.22258
▁led	-9.2227
▁asked	-9.22372
▁C	-9.22391
▁투자	-9.22415
▁another	-9.22435
▁우리가	-9.22503
.”	-9.22614
▁income	-9.22694
▁man	-9.22804
soo	-9.2282
하도록	-9.22916
▁leader	-9.23165
억원	-9.23313
▁2016	-9.23323
시간	-9.2336
▁School	-9.23378
▁human	-9.23413
▁demand	-9.23513
▁사람	-9.23589
▁contract	-9.2368
▁구	-9.2373
일까지	-9.23782
▁line	-9.23794
▁video	-9.23866
▁improve	-9.23927
▁World	-9.23927
▁child	-9.24111
일부터	-9.24146
▁rights	-9.24346
▁non	-9.24422
▁몇	-9.24505
r	-9.24507
▁알	-9.24552
▁international	-9.24618
▁번	-9.24643
▁soon	-9.24718
▁또한	-9.24751
란	-9.24786
▁organization	-9.2479
▁시간이	-9.2481
데	-9.24817
▁election	-9.24959
▁located	-9.25115
▁Dae	-9.25132
▁things	-9.2514
C	-9.25149
▁이에	-9.25184
▁third	-9.25342
▁자신의	-9.25365
▁되는	-9.25377
▁history	-9.25466
▁accident	-9.25548
▁damage	-9.25807
▁먼저	-9.25838
won	-9.25979
▁크게	-9.26137
▁거	-9.2617
▁필요	-9.26246
▁known	-9.26275
▁showed	-9.2668
▁stage	-9.26701
▁대	-9.26777
▁Group	-9.26783
▁season	-9.26794
▁대표	-9.26854
조에	-9.26876
▁날	-9.26894
▁security	-9.26928
▁confirmed	-9.26933
▁March	-9.26952
▁air	-9.26969
▁establish	-9.26983
▁problems	-9.2704
▁됐다	-9.27084
▁Kang	-9.27268
▁정부	-9.27297
▁Jeju	-9.27501
es	-9.2754
▁International	-9.27667
했고	-9.27877
▁promote	-9.27891
▁parents	-9.28119
▁Commission	-9.28159
",	-9.28219
해서	-9.2829
young	-9.28383
▁fine	-9.28401
▁아직	-9.28537
▁space	-9.28571
n	-9.28584
▁진행	-9.28619
▁book	-9.28666
▁treatment	-9.2871
▁도	-9.28732
▁60	-9.2874
▁lead	-9.2881
▁caused	-9.28829
▁Han	-9.28941
▁began	-9.2895
▁provided	-9.29121
▁등으로	-9.29148
▁attended	-9.29245
▁persons	-9.29434
▁&	-9.29591
min	-9.29689
▁didn	-9.29946
▁문화	-9.30206
치	-9.30233
▁added	-9.30296
▁Police	-9.30399
▁Shin	-9.30409
▁With	-9.30472
▁있나요	-9.30688
▁청와대	-9.30795
▁부산	-9.30824
▁사항을	-9.30838
up	-9.309
▁employment	-9.30939
▁장	-9.31034
▁관심이	-9.3125
▁조례	-9.31269
▁여성	-9.31293
▁전했다	-9.31334
▁계속	-9.31346
▁position	-9.31351
▁How	-9.31419
▁강	-9.3147
▁institutions	-9.31495
▁decision	-9.31534
▁let	-9.31811
▁관심	-9.3183
▁class	-9.31895
▁(1)	-9.31973
▁middle	-9.32012
법	-9.32057
▁inspection	-9.32187
▁저	-9.32306
▁previous	-9.32337
▁양	-9.32499
year	-9.3256
▁법	-9.32632
▁사	-9.32728
▁region	-9.32808
엔	-9.32902
▁policies	-9.32907
▁players	-9.32979
▁schools	-9.33014
It	-9.33119
▁본	-9.33268
▁글로벌	-9.3329
하	-9.33353
▁society	-9.33418
▁서울특별시	-9.33421
▁ruling	-9.33529
▁유	-9.3354
▁Even	-9.33549
▁design	-9.33557
jin	-9.33583
▁fans	-9.3364
▁TV	-9.33729
▁housing	-9.33759
▁subject	-9.33858
▁quality	-9.339
▁sent	-9.34227
▁having	-9.34294
▁movie	-9.34413
▁보면	-9.34465
▁올	-9.34493
▁participated	-9.34549
▁국가	-9.34581
▁night	-9.34638
▁overseas	-9.34741
▁minutes	-9.3482
▁short	-9.34878
실	-9.35009
▁새	-9.3509
▁아닌	-9.35107
▁일이	-9.35292
▁온	-9.35332
▁Ji	-9.35368
군	-9.35402
▁changed	-9.35631
▁actively	-9.35646
▁far	-9.3576
▁district	-9.35772
▁directly	-9.3591
▁experts	-9.3597
마	-9.3601
경	-9.36043
▁pointed	-9.36162
9	-9.36236
▁little	-9.3641
▁role	-9.36433
▁opposition	-9.3651
▁차	-9.36564
▁thought	-9.36824
▁200	-9.36828
▁G	-9.36876
▁그런	-9.36888
▁trial	-9.36897
▁그동안	-9.36916
▁move	-9.36948
▁value	-9.36957
▁cause	-9.37024
▁CEO	-9.37151
▁land	-9.37157
▁political	-9.37306
석	-9.37334
Korean	-9.3753
관	-9.37591
▁2017	-9.37596
▁House	-9.37683
▁서	-9.37712
▁E	-9.37757
▁insurance	-9.37856
▁April	-9.3798
▁exchange	-9.38059
되지	-9.38114
▁제품	-9.38281
▁store	-9.3836
▁그의	-9.38383
▁역시	-9.38385
8	-9.38433
▁확인	-9.38441
거나	-9.38482
▁States	-9.38526
▁study	-9.38908
▁effect	-9.38954
▁facility	-9.39014
명의	-9.39026
▁six	-9.39042
▁배우	-9.39233
▁card	-9.39254
▁회사	-9.39389
▁funds	-9.39414
▁prepare	-9.3942
▁중인	-9.39494
▁수도	-9.39536
▁해요	-9.39647
▁completed	-9.3969
▁각종	-9.39709
▁age	-9.39762
▁사람들이	-9.39776
개월	-9.39878
▁conditions	-9.39917
▁To	-9.39954
▁return	-9.39963
▁앞서	-9.39973
▁하지만	-9.3999
▁국회	-9.40021
▁하며	-9.40109
▁stock	-9.40145
▁final	-9.4018
▁control	-9.40219
si	-9.4026
▁applied	-9.40281
▁call	-9.40286
▁bus	-9.40299
▁additional	-9.40397
▁joint	-9.40413
▁later	-9.40458
▁기술	-9.40574
▁판매	-9.40671
▁raised	-9.40879
▁others	-9.40905
▁existing	-9.40973
▁really	-9.41001
영	-9.41198
▁June	-9.41271
▁road	-9.41327
on	-9.4136
▁always	-9.4138
▁jobs	-9.41383
▁news	-9.41396
▁given	-9.41412
배	-9.4143
▁경기도가	-9.41467
▁customers	-9.4158
질	-9.41584
▁들어	-9.4175
▁war	-9.41779
▁run	-9.41797
▁Sung	-9.41825
▁Liberty	-9.41855
▁trillion	-9.41876
▁Station	-9.42089
▁초	-9.42097
▁나온다	-9.42192
금	-9.42208
▁Can	-9.42307
▁revealed	-9.42335
▁chief	-9.42397
▁Provincial	-9.42465
▁face	-9.4256
▁북	-9.42582
▁Public	-9.4259
▁businesses	-9.42598
▁과정에서	-9.42641
▁tell	-9.42902
▁promotion	-9.42952
▁July	-9.42961
▁traditional	-9.43031
만원	-9.43099
▁senior	-9.43243
▁2015	-9.43305
▁survey	-9.43433
들	-9.43453
명을	-9.43507
▁나타났다	-9.4357
▁near	-9.43644
▁often	-9.43718
▁supply	-9.4389
▁각각	-9.43928
un	-9.43941
▁물론	-9.43959
▁이용	-9.43995
▁materials	-9.44009
▁가지고	-9.44079
▁buy	-9.44199
▁가지	-9.44207
트	-9.44299
▁시설	-9.44425
간	-9.4458
▁실제	-9.44594
▁전체	-9.44602
▁events	-9.44824
▁해외	-9.44952
▁가격	-9.44987
▁response	-9.45022
▁basic	-9.45084
문	-9.4513
▁taken	-9.45145
▁sector	-9.45148
▁그가	-9.45306
▁But	-9.45372
▁least	-9.45386
▁seen	-9.4541
▁keep	-9.45455
했지만	-9.45469
▁works	-9.45552
▁Seo	-9.45653
무	-9.45668
▁civil	-9.45672
▁것도	-9.4579
▁rather	-9.45855
▁emergency	-9.46132
▁아	-9.46136
드	-9.4621
재	-9.4623
▁기간	-9.46231
▁industrial	-9.46286
▁higher	-9.46387
▁share	-9.46428
▁하지	-9.46461
▁해야	-9.46638
▁자	-9.46647
▁T	-9.46696
▁전에	-9.46758
▁exhibition	-9.46768
연	-9.46843
▁Supreme	-9.46884
▁처음	-9.46888
는데	-9.46976
▁있는데	-9.4702
▁국제	-9.47135
▁Jin	-9.47164
오	-9.47229
▁medium	-9.47233
▁student	-9.47253
▁지난달	-9.47308
▁largest	-9.47369
hyun	-9.47389
▁만에	-9.47423
▁Yoon	-9.47493
▁한다는	-9.47553
▁Yang	-9.47593
▁recent	-9.47766
▁enjoy	-9.47783
▁인기	-9.47859
▁받을	-9.47896
▁Affairs	-9.47953
▁집	-9.47994
▁increasing	-9.48042
▁왜	-9.48166
K	-9.48203
▁2019	-9.48227
▁앞으로	-9.48234
관리	-9.48291
▁match	-9.48332
▁wage	-9.48362
▁though	-9.4839
▁compared	-9.48414
▁planning	-9.48462
▁hospital	-9.48477
▁한국의	-9.48559
▁easy	-9.48636
ary	-9.4866
▁possibility	-9.48733
▁art	-9.48812
▁evaluation	-9.48822
▁개발	-9.48853
&	-9.4907
▁차량	-9.49231
▁영향을	-9.49257
▁우선	-9.49354
내	-9.49372
▁operating	-9.49535
이란	-9.49678
▁Financial	-9.49797
▁story	-9.49816
▁환경	-9.50013
▁issues	-9.50024
▁review	-9.50207
▁알고	-9.50251
o	-9.50258
▁문제	-9.50402
에서도	-9.50537
▁참여	-9.50644
▁Jang	-9.50697
▁never	-9.50751
▁account	-9.50823
▁form	-9.51027
▁받아	-9.51054
▁있기	-9.51198
권	-9.51313
▁규모	-9.5132
▁looking	-9.51346
to	-9.51379
▁친구	-9.51398
단	-9.51634
▁Sang	-9.51655
▁introduced	-9.51686
▁fees	-9.51695
▁있게	-9.51697
▁festival	-9.51829
▁average	-9.51833
급	-9.51926
▁regular	-9.52022
▁phone	-9.52073
i	-9.52106
▁advance	-9.52168
▁Seung	-9.52225
▁September	-9.52285
이에요	-9.5229
▁Jeong	-9.52421
▁공동	-9.52524
▁계획이다	-9.52557
▁costs	-9.52565
▁인해	-9.52577
▁Then	-9.52613
▁걸	-9.52619
▁energy	-9.52742
▁close	-9.52756
▁ago	-9.52857
▁목적으로	-9.52914
▁Festival	-9.52919
▁중심으로	-9.52982
건	-9.53216
▁Bank	-9.53323
▁일자리	-9.5333
유	-9.53484
▁수사	-9.53614
▁Hyun	-9.53629
▁Asian	-9.53713
▁Hyundai	-9.53875
▁dust	-9.53911
러	-9.53957
하였다	-9.53979
▁leave	-9.53995
▁Kyung	-9.53997
▁문재인	-9.54102
▁something	-9.54228
▁이렇게	-9.54246
▁eat	-9.54254
▁연	-9.54275
별	-9.54302
▁되고	-9.54367
▁이는	-9.54458
▁families	-9.54476
▁friends	-9.54487
▁enough	-9.5451
▁key	-9.54518
▁conduct	-9.54577
▁강조했다	-9.5459
위원회	-9.54593
▁가능한	-9.54609
▁해당하는	-9.54632
ers	-9.54664
길	-9.54699
▁goal	-9.54716
▁groups	-9.54719
km	-9.54748
▁film	-9.54752
▁course	-9.54798
▁않을	-9.5486
▁Form	-9.54928
▁created	-9.55011
▁points	-9.55283
▁officer	-9.55305
▁outside	-9.55341
했어요	-9.55386
▁소속	-9.55525
▁opinions	-9.55579
▁연구	-9.55583
▁travel	-9.55646
▁cities	-9.55679
▁Management	-9.55726
▁controversy	-9.55768
이었다	-9.55783
▁두고	-9.55831
▁않았다	-9.55886
▁이러한	-9.55903
▁met	-9.55957
▁않아	-9.56008
씨가	-9.56013
▁Department	-9.561
▁active	-9.56185
▁음식	-9.56223
▁갈	-9.56342
▁동	-9.56342
▁Gangwon	-9.56444
▁Provided	-9.56461
▁채	-9.56664
국	-9.56684
g	-9.56702
▁accordance	-9.56739
▁illegal	-9.5676
▁press	-9.56766
▁While	-9.56816
san	-9.56961
il	-9.56969
▁developed	-9.56996
▁establishment	-9.57011
▁currently	-9.57099
▁size	-9.57121
▁words	-9.57185
▁정책	-9.57194
▁Min	-9.57253
▁death	-9.57399
▁conference	-9.57446
▁growing	-9.57476
현	-9.57502
▁Agency	-9.57511
▁대학	-9.57523
▁complex	-9.57567
▁하루	-9.57656
▁반	-9.57676
▁Some	-9.5769
▁expand	-9.57736
ro	-9.57804
항	-9.5782
▁yet	-9.57952
▁P	-9.57999
▁makes	-9.58044
▁friend	-9.58149
▁도내	-9.58152
▁부	-9.583
▁대부분	-9.58306
▁모	-9.58327
▁inter	-9.5842
▁활성화	-9.58437
▁operate	-9.5844
▁afternoon	-9.58466
▁documents	-9.58502
▁것이라는	-9.58514
▁역할을	-9.58573
▁500	-9.586
term	-9.587
▁70	-9.58736
▁needed	-9.58747
▁items	-9.58803
▁재	-9.58804
▁status	-9.58965
▁활동	-9.58996
▁talk	-9.59004
계	-9.59015
▁leading	-9.59036
B	-9.59068
▁try	-9.59155
▁신청	-9.5916
▁Trade	-9.59207
)’	-9.59243
▁너	-9.59268
▁opened	-9.59353
▁equipment	-9.59413
▁opinion	-9.59427
강	-9.59489
▁un	-9.59562
woo	-9.59623
▁prepared	-9.59678
▁October	-9.59683
▁Song	-9.59717
▁vehicle	-9.59727
▁서비스	-9.59808
▁300	-9.59836
▁present	-9.60101
▁개인	-9.60118
모	-9.60166
▁나왔다	-9.60169
▁vice	-9.6019
sized	-9.60198
▁expressed	-9.60225
▁ask	-9.60236
▁Co	-9.60285
▁추진	-9.60304
▁online	-9.60335
▁중요한	-9.60337
▁rise	-9.60399
U	-9.604
▁알려졌다	-9.60446
▁female	-9.60455
▁content	-9.6047
▁efforts	-9.6048
▁자동차	-9.60524
▁hit	-9.60664
▁기	-9.60719
▁programs	-9.60763
▁Administration	-9.60935
▁method	-9.61029
▁understand	-9.61035
▁만들어	-9.61064
로부터	-9.61099
▁LG	-9.61178
hee	-9.61221
▁Yes	-9.61224
▁불	-9.61226
▁sports	-9.61279
하던	-9.61325
▁남	-9.61354
▁서로	-9.61418
종	-9.6149
▁tomorrow	-9.61554
▁continued	-9.61555
▁submit	-9.61609
▁regulations	-9.61637
▁getting	-9.61641
▁develop	-9.61649
▁parties	-9.6165
▁군	-9.61726
▁starting	-9.61758
▁photo	-9.62001
▁사업을	-9.62022
▁passed	-9.62205
년간	-9.62276
▁sold	-9.62366
▁어	-9.62413
▁Internet	-9.62525
▁spread	-9.62606
▁일반	-9.62694
▁written	-9.62786
▁secretary	-9.62885
해요	-9.62943
▁Tae	-9.62975
▁personnel	-9.62996
▁record	-9.63025
▁어려운	-9.63037
▁별지	-9.63318
▁대하여	-9.63374
▁men	-9.6342
▁shows	-9.63445
▁선	-9.63483
▁designated	-9.63503
▁노	-9.63506
▁Yoo	-9.63675
▁매년	-9.63702
▁SK	-9.6376
▁lower	-9.63792
▁Gangnam	-9.63958
▁제대로	-9.64003
도록	-9.6402
▁happy	-9.6406
mi	-9.64078
l	-9.64125
gun	-9.64202
공	-9.6422
▁점을	-9.64303
▁모습을	-9.64445
▁Land	-9.64468
▁manager	-9.64479
했다고	-9.64481
▁대비	-9.64516
▁lives	-9.64531
▁similar	-9.64575
▁같다	-9.6461
▁Electronics	-9.64665
▁사고	-9.64713
안	-9.64743
▁She	-9.64746
청	-9.64777
time	-9.6483
▁Justice	-9.64891
▁university	-9.64919
▁purchase	-9.64964
▁model	-9.65006
▁sorry	-9.65011
온	-9.65024
하다	-9.65024
▁considered	-9.65119
▁있어서	-9.65216
▁minimum	-9.65238
▁contents	-9.65249
▁현지	-9.65355
▁authorities	-9.65405
방	-9.65411
▁계획	-9.65453
▁당	-9.65509
▁improvement	-9.65521
▁August	-9.6554
▁네가	-9.65607
▁reduce	-9.65618
▁told	-9.65656
▁needs	-9.65723
▁2014	-9.65749
▁list	-9.65895
▁업무	-9.659
점	-9.65957
▁transportation	-9.65963
▁Daegu	-9.65992
▁nuclear	-9.66018
▁single	-9.66184
▁legal	-9.66229
▁속	-9.66231
▁gave	-9.66266
▁lost	-9.66344
P	-9.66416
▁village	-9.66436
▁few	-9.66444
▁believe	-9.66472
였다	-9.6649
an	-9.66535
▁natural	-9.66564
▁trip	-9.66568
▁생산	-9.66595
▁ahead	-9.66652
▁타	-9.668
▁January	-9.66838
▁받는	-9.66873
▁e	-9.66883
▁mother	-9.66911
▁included	-9.66917
▁최	-9.6695
▁정도로	-9.66973
▁estate	-9.66999
파	-9.67056
▁평가	-9.67145
▁발생	-9.67155
▁daily	-9.67193
▁mobile	-9.67222
▁일을	-9.6725
인데	-9.67328
▁수출	-9.67412
▁계약	-9.67505
▁Yong	-9.67518
▁Prime	-9.67528
▁traffic	-9.67567
▁sexual	-9.6772
▁several	-9.67738
▁전문	-9.67774
민	-9.67797
▁language	-9.67822
▁과거	-9.67827
▁crisis	-9.67874
▁최종	-9.67959
▁Research	-9.67973
▁charges	-9.68031
▁Nam	-9.68053
지역	-9.68067
▁built	-9.68078
▁audit	-9.68101
▁저희	-9.68169
▁further	-9.68206
▁사회	-9.68355
▁changes	-9.68453
▁clear	-9.68467
▁heard	-9.68535
물	-9.68538
▁appointed	-9.68598
▁round	-9.68642
▁Corporation	-9.68678
▁조금	-9.68687
▁산	-9.68691
▁얼마나	-9.68697
▁가는	-9.68859
▁scene	-9.68894
▁enter	-9.68945
▁남북	-9.68949
▁없어	-9.68971
▁R	-9.69009
▁fall	-9.69043
▁됩니다	-9.69045
▁Cheong	-9.69054
▁governments	-9.69069
▁갖고	-9.69148
▁One	-9.69186
▁거쳐	-9.69297
▁State	-9.6937
▁vehicles	-9.69392
▁governor	-9.69426
▁상황에서	-9.69761
p	-9.69807
;	-9.69946
▁oil	-9.70027
▁alone	-9.70066
▁거예요	-9.70103
▁대통령	-9.70155
▁users	-9.70211
▁December	-9.7026
▁regional	-9.70341
▁schedule	-9.70342
▁staff	-9.70381
▁Chung	-9.70422
▁song	-9.70439
▁station	-9.70498
▁council	-9.70525
▁Mr	-9.70548
▁inside	-9.70784
▁seven	-9.70828
포	-9.71058
▁하	-9.71083
▁방문	-9.71277
▁회의	-9.71291
▁바랍니다	-9.71352
▁대회	-9.71358
▁personal	-9.71372
▁처리	-9.71398
된다	-9.71412
▁First	-9.71455
▁Chang	-9.71468
▁단	-9.7154
▁번째	-9.71548
▁러시아	-9.71562
▁피해	-9.71596
▁보	-9.71692
층	-9.71774
▁lack	-9.71794
▁이제	-9.71818
▁Vice	-9.7182
▁rice	-9.71838
▁일정	-9.719
▁interested	-9.71926
▁현장	-9.71927
▁candidate	-9.71986
▁parking	-9.72032
▁November	-9.72123
▁내년	-9.72174
▁문제를	-9.72269
▁Hwang	-9.72291
▁그룹	-9.72381
▁Health	-9.72467
하기로	-9.72476
▁사진	-9.72526
▁include	-9.72551
▁kind	-9.72619
▁famous	-9.72718
▁summer	-9.72828
타	-9.72923
병	-9.72937
운	-9.72946
▁individual	-9.73161
▁게임	-9.73197
▁operated	-9.73211
▁같아	-9.73255
▁것이라고	-9.73255
▁action	-9.7327
▁easily	-9.73292
준	-9.73402
▁Culture	-9.73413
▁최고	-9.7345
▁terms	-9.73472
▁light	-9.73504
denuclearization	-9.73519
▁평균	-9.73622
▁”	-9.73749
▁agencies	-9.73767
▁가진	-9.73915
▁regarding	-9.73999
▁마	-9.74092
▁Development	-9.741
▁대통령은	-9.74118
▁상	-9.74119
▁발표	-9.74129
▁played	-9.74248
▁Sun	-9.74253
▁성	-9.74256
▁deliberation	-9.74322
▁capital	-9.74382
▁receiving	-9.74391
▁woman	-9.74466
▁immediately	-9.74478
▁개	-9.74521
되면서	-9.74522
▁questions	-9.74583
▁자신이	-9.74783
▁달리	-9.74788
▁cars	-9.74835
▁있던	-9.74837
▁bill	-9.74931
▁인터넷	-9.74942
10	-9.74943
▁forward	-9.75076
▁주민	-9.75161
▁opportunity	-9.75249
▁거야	-9.75358
▁공연	-9.75422
▁carried	-9.75439
▁지정	-9.75537
▁heat	-9.75692
▁co	-9.75753
▁drama	-9.75754
▁hand	-9.75824
▁institution	-9.75844
▁standard	-9.75862
▁communication	-9.75904
▁내일	-9.75938
태	-9.75938
▁apartment	-9.76021
▁highest	-9.76022
▁places	-9.76023
▁picture	-9.76036
▁approval	-9.76062
▁Labor	-9.76094
▁division	-9.76099
▁issued	-9.76133
▁Hall	-9.76176
▁participation	-9.7627
▁property	-9.76414
▁Because	-9.76431
▁win	-9.76451
▁driving	-9.76452
▁이상의	-9.76485
▁목소리	-9.765
에선	-9.76509
▁youth	-9.76562
▁fund	-9.76616
박	-9.76626
▁Is	-9.76628
사업	-9.76628
심	-9.76745
▁관련해	-9.7678
▁기준	-9.76812
▁그럼	-9.76843
직	-9.76871
▁의견을	-9.76926
양	-9.76958
▁professional	-9.76971
▁relationship	-9.77073
▁games	-9.77124
▁도시	-9.77199
교육	-9.77216
▁행사	-9.77221
▁transfer	-9.77232
▁restaurant	-9.77261
▁details	-9.77282
마다	-9.77392
▁Island	-9.77399
▁High	-9.77403
▁excellent	-9.77403
▁비해	-9.77435
▁patients	-9.77447
▁무	-9.77487
▁hot	-9.77491
▁available	-9.77504
▁핵심	-9.7752
장은	-9.77545
▁professor	-9.7755
▁negotiations	-9.7758
번	-9.77598
▁central	-9.77668
▁prescribed	-9.77678
▁살	-9.77708
▁union	-9.77958
▁같아요	-9.77973
었다	-9.78007
▁받았다	-9.78014
▁parts	-9.78068
▁poor	-9.78101
it	-9.78222
▁done	-9.78229
▁relations	-9.78254
▁concerning	-9.78281
▁trying	-9.7831
▁father	-9.7833
▁original	-9.78336
▁분	-9.78338
▁정보	-9.78358
▁많다	-9.78383
▁Wa	-9.78395
▁implement	-9.78405
▁Director	-9.78461
년부터	-9.7852
▁fee	-9.78544
▁Among	-9.78567
▁기록	-9.78612
▁cold	-9.78635
역	-9.78638
▁정부의	-9.78652
▁disaster	-9.78666
레	-9.78673
▁duties	-9.78759
▁Welfare	-9.78763
▁standards	-9.78775
▁사실을	-9.78899
▁consumers	-9.78935
▁산업	-9.7895
▁만	-9.78963
▁준비	-9.79051
▁God	-9.79106
약	-9.79162
▁contact	-9.79224
▁urban	-9.79255
M	-9.79277
▁submitted	-9.79352
남	-9.7938
자가	-9.79437
씨는	-9.79487
▁considering	-9.795
▁대형	-9.79588
▁wanted	-9.79629
▁actual	-9.79657
초	-9.7972
▁손	-9.7972
▁February	-9.79826
▁혹시	-9.79901
▁Ha	-9.79907
▁bank	-9.7992
▁지급	-9.7997
▁되어	-9.79975
▁내용을	-9.79978
▁버스	-9.7998
▁대해서는	-9.79981
▁Security	-9.79986
프	-9.79988
▁개선	-9.80009
N	-9.80085
반	-9.80177
학	-9.80195
교	-9.80196
▁takes	-9.80231
▁2013	-9.80253
▁talks	-9.80259
▁하면	-9.80326
▁F	-9.80422
▁없습니다	-9.80453
▁보내	-9.80458
▁확대	-9.80546
▁credit	-9.80548
어요	-9.8057
▁못한	-9.80644
▁coming	-9.8066
▁전망이다	-9.80661
▁불법	-9.80686
▁performances	-9.80736
▁college	-9.80741
▁아파트	-9.80747
승	-9.80758
▁reform	-9.80779
▁burden	-9.80792
▁영어	-9.80839
▁quickly	-9.80923
희	-9.80924
▁executive	-9.80936
▁bad	-9.80966
▁Support	-9.81133
▁holding	-9.81171
▁필요하다고	-9.81225
노	-9.81267
▁learning	-9.81282
▁부동산	-9.8138
▁session	-9.81436
▁Foundation	-9.81524
▁경기도는	-9.81568
▁determined	-9.816
▁결정	-9.81602
▁mind	-9.81708
old	-9.81709
▁생활	-9.81734
조의	-9.81734
▁우리나라	-9.81775
▁type	-9.81824
▁쉽게	-9.81835
▁작업	-9.81849
▁중구	-9.81865
▁heart	-9.8188
▁analysis	-9.81885
▁만나	-9.82079
▁브랜드	-9.82121
▁지원을	-9.82127
▁결과를	-9.82153
▁Local	-9.8221
related	-9.82253
▁소	-9.82284
▁goods	-9.82312
철	-9.82338
▁모습이	-9.82345
▁주변	-9.82415
▁certain	-9.82442
▁presidential	-9.82446
T	-9.82498
▁비롯해	-9.82503
▁showing	-9.82559
카	-9.82575
▁impact	-9.826
기를	-9.8264
▁teams	-9.82674
pop	-9.82693
▁concert	-9.82698
▁만든	-9.82763
▁brand	-9.82763
▁주세요	-9.82767
▁doing	-9.82819
▁pressure	-9.82864
▁베트남	-9.82923
▁Special	-9.8295
▁corporate	-9.82955
▁비핵화	-9.83064
or	-9.83112
▁Russia	-9.83171
▁명	-9.83175
▁심사	-9.83249
▁risk	-9.83285
▁chairperson	-9.83307
▁향후	-9.83431
여명이	-9.83443
▁거래	-9.83483
▁crime	-9.83533
▁stop	-9.83582
▁고용	-9.8364
▁reduced	-9.8369
▁단체	-9.83692
▁Let	-9.83693
▁base	-9.83786
르	-9.83812
▁송	-9.83812
▁외국인	-9.83987
티	-9.84049
▁SNS	-9.84114
▁규제	-9.84278
▁disease	-9.84376
▁nation	-9.84447
▁trend	-9.84461
▁규정에	-9.84467
yeon	-9.84485
▁도는	-9.84527
▁안에	-9.84589
▁발생한	-9.84679
▁작은	-9.8468
ra	-9.84744
▁implementation	-9.84863
▁관계	-9.8488
▁정보를	-9.84941
▁<	-9.8504
▁꼭	-9.85042
▁distribution	-9.85084
▁structure	-9.85136
▁households	-9.85145
▁스	-9.85183
▁fell	-9.85191
▁학생	-9.85199
▁drawing	-9.85207
▁독일	-9.85227
▁중에서	-9.85255
▁stores	-9.85259
▁metropolitan	-9.85314
▁가족	-9.85374
월부터	-9.85386
▁적이	-9.85394
▁물	-9.854
▁보도했다	-9.85451
▁사회적	-9.85462
▁설명	-9.85478
▁hall	-9.85524
▁온라인	-9.85533
▁doesn	-9.85573
▁적극	-9.85721
▁활동을	-9.8573
▁centers	-9.85825
항의	-9.85863
▁matter	-9.85871
▁organized	-9.85874
▁한다고	-9.85888
▁attend	-9.85913
sa	-9.85958
▁성과	-9.85977
▁industries	-9.85983
▁노력	-9.86029
▁업체	-9.86076
지원	-9.86121
man	-9.86123
▁눈	-9.86137
▁스스로	-9.86148
▁도움이	-9.86278
▁saw	-9.86288
▁배	-9.86352
▁sense	-9.86372
▁앞두고	-9.86406
▁Technology	-9.86532
▁대통령의	-9.86544
▁제품을	-9.86596
▁여행	-9.86612
▁주문	-9.86659
▁interview	-9.86676
▁전문가	-9.86748
▁시즌	-9.86786
발	-9.86805
>	-9.86817
▁true	-9.86829
▁might	-9.86853
▁produced	-9.86932
▁이유로	-9.86948
▁followed	-9.86982
▁외	-9.87067
▁felt	-9.87104
▁여자	-9.87112
▁것에	-9.87125
▁waste	-9.87127
▁Si	-9.87212
▁위원	-9.87307
▁하는데	-9.87327
▁series	-9.87362
▁Oh	-9.87376
이며	-9.87407
▁sanctions	-9.87423
▁statement	-9.87446
▁혐의로	-9.87449
▁leaders	-9.87459
▁Cup	-9.87473
▁church	-9.87531
▁movement	-9.8754
지는	-9.87555
▁대신	-9.87595
▁임	-9.87607
▁그녀는	-9.87612
▁분석	-9.87659
▁감사	-9.87748
▁공개	-9.87774
▁eyes	-9.87777
▁learn	-9.87796
▁required	-9.87798
▁Day	-9.8781
▁인천	-9.87814
디	-9.87837
level	-9.87844
▁협력	-9.87881
▁agricultural	-9.87885
▁thing	-9.879
랑	-9.87911
▁concerns	-9.87962
피	-9.88054
▁post	-9.88105
▁worth	-9.88175
▁loan	-9.88194
▁명이	-9.88211
되면	-9.88257
토	-9.88284
▁열	-9.88293
▁population	-9.88304
시설	-9.8833
▁And	-9.88416
k	-9.88583
▁Won	-9.88605
개의	-9.88637
▁beautiful	-9.88719
▁논란이	-9.88744
▁delivery	-9.88777
▁raise	-9.88797
▁집중	-9.88822
▁항상	-9.88836
▁sea	-9.88845
▁성공	-9.88883
▁failed	-9.88915
네	-9.88918
▁Lotte	-9.89006
▁2012	-9.8903
▁manage	-9.89055
▁국민	-9.8908
▁caught	-9.89098
▁구청장이	-9.89149
▁peace	-9.89155
되었다	-9.89163
▁Transport	-9.89408
▁가수	-9.89531
▁에너지	-9.89563
▁ordered	-9.89686
▁message	-9.89735
▁commercial	-9.89756
▁80	-9.89766
▁Defense	-9.8979
▁통한	-9.89862
바	-9.89937
▁sites	-9.89945
▁wife	-9.89967
▁사건	-9.90037
▁미국의	-9.90037
▁여전히	-9.90045
▁동시에	-9.90165
▁사실	-9.90184
▁Industrial	-9.9019
▁거의	-9.9024
산업	-9.90256
▁direction	-9.90282
▁위해서는	-9.90474
▁victims	-9.90489
두	-9.90502
▁launched	-9.9052
▁common	-9.90757
▁installed	-9.90773
▁scheduled	-9.90794
▁atmosphere	-9.90803
▁Secretary	-9.90803
▁방	-9.90874
▁difficulties	-9.90908
▁books	-9.90919
su	-9.90922
▁나섰다	-9.90948
▁Asia	-9.91004
▁strengthen	-9.91034
▁광주	-9.91035
▁수가	-9.9107
▁resources	-9.91078
▁Cultural	-9.91113
▁markets	-9.91119
기도	-9.91185
문화	-9.91261
▁educational	-9.91304
▁People	-9.91366
▁신규	-9.9138
▁그것	-9.91389
less	-9.91448
▁enterprises	-9.91452
▁whole	-9.91544
▁behind	-9.91606
구청장	-9.91631
▁benefits	-9.91641
▁question	-9.91712
If	-9.91802
▁examination	-9.91807
▁entrance	-9.9184
▁Fund	-9.91865
▁어제	-9.91873
▁나의	-9.91922
들과	-9.91937
▁돼	-9.91952
▁보호	-9.91954
▁club	-9.91961
▁가능하다	-9.91979
▁서비스를	-9.91993
▁의원이	-9.92146
▁direct	-9.92172
▁O	-9.9219
▁실제로	-9.92386
▁temperature	-9.92417
Pop	-9.92502
▁document	-9.92506
▁공식	-9.92562
▁않다	-9.92587
▁마지막	-9.92635
▁grow	-9.92638
▁안전	-9.92666
▁build	-9.92671
▁color	-9.92758
▁검찰	-9.92812
▁reality	-9.92827
▁below	-9.9288
다는	-9.92975
▁fourth	-9.93064
▁tried	-9.93092
▁reduction	-9.93098
▁보다	-9.93119
▁관광	-9.93176
▁부분	-9.93298
▁기대	-9.93309
▁구매	-9.93344
ic	-9.93351
▁위원장은	-9.9339
▁Safety	-9.93452
▁Science	-9.93539
▁행정	-9.93539
▁그래서	-9.93601
현지시간	-9.93604
씨	-9.93754
▁incident	-9.93799
▁elderly	-9.93849
▁participating	-9.93904
ha	-9.93917
▁anniversary	-9.93932
▁윤	-9.93935
▁비롯한	-9.93968
▁자체	-9.94016
▁M	-9.94066
▁cut	-9.9414
▁rest	-9.94157
▁falling	-9.94174
▁여기	-9.94185
deemed	-9.94208
local	-9.94212
▁minister	-9.9429
▁건물	-9.94302
▁Na	-9.94314
▁변화	-9.94348
▁instead	-9.94377
▁board	-9.94459
▁의원은	-9.94505
▁protection	-9.94533
▁skin	-9.94583
단체	-9.94608
▁weather	-9.9462
▁건강	-9.94671
sung	-9.94679
살	-9.9471
▁심	-9.94787
▁headquarters	-9.94886
▁entire	-9.94894
▁Promotion	-9.94942
▁백	-9.94943
▁positive	-9.94956
▁shopping	-9.94958
▁itself	-9.94997
▁accounting	-9.95036
▁인한	-9.95059
▁나라	-9.9512
▁Ki	-9.9515
▁watch	-9.95191
myeon	-9.95268
그	-9.95289
▁원하는	-9.95293
▁남자	-9.95336
한다는	-9.9534
▁싶습니다	-9.95353
▁evidence	-9.95395
able	-9.95447
▁중소기업	-9.95482
▁annual	-9.95507
▁예산	-9.95523
▁Vietnam	-9.9553
▁commissioned	-9.9558
▁raising	-9.9559
▁Business	-9.95619
se	-9.95628
ation	-9.95735
▁참석한	-9.95746
▁died	-9.95755
▁결국	-9.95756
▁시행	-9.95759
▁entered	-9.95766
▁한번	-9.9577
▁해서	-9.95813
▁청년	-9.95817
▁sure	-9.95867
▁콘텐츠	-9.95876
▁Many	-9.95909
▁인사	-9.95929
▁image	-9.95942
크	-9.95964
▁이것은	-9.95973
▁deal	-9.95991
▁filed	-9.96001
▁보는	-9.9603
▁requested	-9.96045
▁예산의	-9.96074
▁Ahn	-9.96115
▁earlier	-9.96152
▁introduce	-9.96167
▁검토	-9.96189
▁appeared	-9.96204
▁말을	-9.96227
▁bring	-9.96257
▁사람은	-9.96291
▁hands	-9.96332
▁participants	-9.96332
▁character	-9.96388
▁accidents	-9.96432
▁occurred	-9.96438
▁제도	-9.9645
▁대상	-9.96457
▁맞아	-9.96485
▁기업이	-9.9649
seok	-9.96491
▁영	-9.96536
▁focus	-9.96544
▁지원할	-9.96551
센터	-9.96558
▁발전	-9.96574
▁hearing	-9.96603
▁시작	-9.96679
▁발	-9.96687
▁skills	-9.96701
▁점	-9.96713
▁winter	-9.96753
▁duty	-9.96775
▁필요하다	-9.96792
▁highly	-9.96812
린	-9.9688
▁인상	-9.96893
In	-9.96901
▁release	-9.96929
▁경험	-9.96937
▁등록	-9.97028
▁의한	-9.9707
▁수입	-9.97119
▁Son	-9.97135
▁view	-9.97135
▁조정	-9.97152
▁음악	-9.97186
ity	-9.97198
▁찾아	-9.97213
▁있는지	-9.9737
▁열리는	-9.97413
▁삼성전자	-9.9746
▁V	-9.97562
▁검사	-9.9759
▁구성	-9.97598
▁리	-9.97705
▁AI	-9.9772
▁houses	-9.97732
▁user	-9.97751
▁직원	-9.97798
▁Kong	-9.97819
▁universities	-9.97851
▁son	-9.97925
▁선수	-9.98022
▁beginning	-9.98036
▁곳이	-9.98156
▁comes	-9.98167
▁Se	-9.98176
▁Central	-9.98206
▁player	-9.98207
▁넘는	-9.98217
▁ground	-9.98247
창	-9.98248
▁network	-9.98289
▁홍보	-9.98299
▁Donald	-9.983
▁대화	-9.98322
▁자유한국당	-9.98351
▁미세먼지	-9.98363
▁이들이	-9.98381
▁Germany	-9.98441
▁그렇게	-9.98443
▁eight	-9.98478
불	-9.98502
▁주는	-9.98546
▁특별한	-9.98557
▁yesterday	-9.98565
▁plant	-9.98606
▁Industry	-9.98678
▁Economic	-9.98756
▁선정	-9.98769
▁secure	-9.98794
위를	-9.9882
▁stressed	-9.98848
코	-9.98988
▁involved	-9.9902
▁피	-9.99032
▁장애인	-9.9906
▁rates	-9.99093
▁Blue	-9.99094
▁논의	-9.99094
▁공무원	-9.99124
▁주택	-9.99139
▁All	-9.99166
▁hotel	-9.99202
▁unique	-9.9928
▁지적했다	-9.99283
▁변경	-9.99318
scale	-9.99412
▁위	-9.99474
▁통합	-9.99487
▁의원	-9.99615
▁generation	-9.99618
임	-9.99647
▁collection	-9.99649
▁자주	-9.99657
이고	-9.99666
▁도널드	-9.99782
▁solve	-9.99865
▁ways	-9.99929
▁집에	-9.99942
▁moment	-9.99953
▁anything	-9.99983
으로부터	-9.99985
▁법률	-9.99998
▁사진을	-10.0001
▁owner	-10.0008
▁wrong	-10.0015
▁quarter	-10.0017
▁degrees	-10.002
▁제재	-10.0021
▁수업	-10.0027
▁across	-10.0028
▁이유는	-10.0028
ji	-10.0031
▁도입	-10.0044
▁방송	-10.0047
▁없다는	-10.0047
▁타고	-10.0049
▁신고	-10.0051
ness	-10.0064
▁한류	-10.007
▁민간	-10.0071
▁매	-10.0071
▁프로그램	-10.0074
▁pre	-10.0076
▁기관	-10.0076
▁writing	-10.0077
▁visitors	-10.0077
▁Infrastructure	-10.0082
▁Air	-10.0083
▁제공	-10.0084
▁loans	-10.0085
▁agreed	-10.0086
▁내용이	-10.0091
▁해도	-10.0095
▁특별	-10.0102
▁intends	-10.0103
▁chance	-10.0112
F	-10.0114
으며	-10.0116
▁example	-10.0118
▁worked	-10.0119
이라며	-10.012
▁화재	-10.0121
▁internal	-10.0124
▁specific	-10.013
▁수립	-10.0132
▁수밖에	-10.0133
▁김정은	-10.0134
▁범위에서	-10.0136
▁황	-10.0136
▁creating	-10.0144
▁visiting	-10.0147
려	-10.0148
hwan	-10.0149
▁한반도	-10.0158
▁주로	-10.0159
▁드라마	-10.0161
▁variety	-10.0164
년에	-10.0165
▁위원장이	-10.0165
▁reasons	-10.0168
▁holiday	-10.0176
▁빨리	-10.0176
▁성장	-10.019
▁tourism	-10.0194
▁violence	-10.0203
하는데	-10.0205
▁heavy	-10.0208
▁taste	-10.0209
▁현	-10.021
▁이번에	-10.0225
▁인근	-10.0227
▁step	-10.024
▁크다	-10.024
▁유지	-10.0243
▁Finance	-10.0244
▁때는	-10.0248
▁생각	-10.0249
▁expansion	-10.0251
▁내용	-10.0251
▁대구	-10.0252
▁usually	-10.0258
▁해결	-10.0261
▁rain	-10.0268
▁이야기	-10.0268
감	-10.0268
gi	-10.0271
▁유럽	-10.0279
▁이전	-10.0281
▁학생들이	-10.0283
▁environmental	-10.0284
▁posted	-10.0287
▁sale	-10.0287
다고	-10.0294
▁분야	-10.0294
하자	-10.0295
ion	-10.0295
▁Foreign	-10.0308
▁reading	-10.0314
▁launch	-10.0318
▁basis	-10.0324
▁같습니다	-10.0343
▁이들	-10.0347
▁우려가	-10.035
▁청소년	-10.036
▁ability	-10.0362
했다는	-10.0362
ization	-10.0363
▁stay	-10.0375
▁investigating	-10.0377
▁difference	-10.0379
▁implemented	-10.0379
▁green	-10.0387
▁위반	-10.0393
▁authority	-10.0394
▁theme	-10.0394
▁defense	-10.0397
▁speed	-10.0398
▁여	-10.0401
▁read	-10.0404
봉	-10.0407
루	-10.041
▁ensure	-10.0418
▁1,000	-10.0423
▁follow	-10.0424
▁progress	-10.0427
▁입장을	-10.043
▁popularity	-10.0431
c	-10.0435
▁teacher	-10.0437
▁delivered	-10.0441
▁act	-10.0443
▁teachers	-10.0445
▁turned	-10.0446
▁당신	-10.0452
▁American	-10.0457
대로	-10.046
▁properly	-10.0465
순	-10.0466
▁Koreans	-10.0468
장이	-10.0469
▁주장했다	-10.0473
들에게	-10.0477
▁관련된	-10.0486
▁Chief	-10.0492
▁tourists	-10.0493
▁공급	-10.0495
▁proposed	-10.0499
▁Professor	-10.0503
▁Year	-10.0503
▁사람들	-10.0506
▁저녁	-10.0507
30	-10.0511
▁Food	-10.0513
▁아주	-10.0516
▁disabled	-10.0518
▁조례는	-10.052
▁중에	-10.0522
▁우	-10.0525
▁coach	-10.0538
▁공사	-10.054
▁red	-10.054
▁돈을	-10.0547
▁Suwon	-10.0551
▁branch	-10.0552
▁점에서	-10.0552
저	-10.0562
▁설립	-10.0565
▁couldn	-10.057
▁따로	-10.0575
▁serious	-10.0575
▁limited	-10.0576
복	-10.0577
생	-10.0592
▁convenience	-10.0592
▁광고	-10.0593
▁prevention	-10.0594
▁자기	-10.0595
거	-10.0606
▁perform	-10.0607
le	-10.0609
▁없을	-10.0614
▁좋아하는	-10.0614
▁35	-10.0619
▁profit	-10.0629
▁complete	-10.0629
▁export	-10.0631
▁이하	-10.0632
즈	-10.0632
▁condition	-10.0636
▁디자인	-10.0642
▁During	-10.0642
▁gas	-10.0643
▁경찰이	-10.065
▁toward	-10.0654
▁street	-10.0657
▁Decree	-10.0659
▁우리의	-10.0663
▁creation	-10.0665
▁전시	-10.0665
▁한국에서	-10.0669
열	-10.0673
▁요청	-10.0674
류	-10.0675
▁처음으로	-10.0676
▁상황이	-10.068
▁hour	-10.068
▁General	-10.068
▁compensation	-10.0681
▁corporation	-10.0686
▁mid	-10.069
na	-10.0694
▁불구하고	-10.0695
▁elementary	-10.0695
▁force	-10.0707
▁2009	-10.0707
▁도움	-10.0712
▁구조	-10.0714
판	-10.0715
근	-10.0719
▁전화	-10.0725
▁effects	-10.0725
▁King	-10.073
▁safe	-10.074
▁daughter	-10.0745
▁Eun	-10.075
▁아시아	-10.0754
▁fair	-10.0755
▁Lim	-10.0765
▁내부	-10.0771
▁것과	-10.0771
▁감독	-10.0778
▁취업	-10.0778
▁하기	-10.078
▁website	-10.0782
▁customer	-10.0788
백	-10.0788
▁하나에	-10.08
▁pass	-10.0801
▁sound	-10.0803
’(	-10.0804
▁제작	-10.0805
▁인구	-10.0807
▁반대	-10.081
▁협의	-10.0812
▁discuss	-10.0825
▁너는	-10.0834
▁criticized	-10.0835
▁candidates	-10.084
▁innovation	-10.0842
▁건설	-10.0847
L	-10.0848
▁영국	-10.0854
ju	-10.0855
▁Life	-10.0856
yong	-10.0864
▁않도록	-10.0864
▁reports	-10.0865
▁comprehensive	-10.0867
김	-10.087
터	-10.0872
▁York	-10.0875
했을	-10.0877
▁conflict	-10.0877
▁material	-10.0877
▁East	-10.0878
▁명의	-10.0883
▁사전	-10.0885
▁예상된다	-10.0886
▁predicted	-10.0886
▁Peninsula	-10.0899
▁arrested	-10.09
▁나온	-10.0913
▁giving	-10.0919
▁대출	-10.092
▁de	-10.092
▁채용	-10.0921
▁arrest	-10.0935
▁someone	-10.0937
▁이동	-10.0939
▁nature	-10.0941
▁기본	-10.0945
▁밖에	-10.0951
▁교통	-10.0955
▁사실이	-10.0958
▁않습니다	-10.0965
▁최저임금	-10.0966
ment	-10.097
!	-10.0971
hoon	-10.098
▁미리	-10.0982
▁아니다	-10.0982
기업	-10.0982
friendly	-10.1004
▁responsibility	-10.1004
▁banks	-10.1005
▁moved	-10.1005
▁포함한	-10.1011
▁협상	-10.1016
▁section	-10.1016
▁Sports	-10.1016
로서	-10.1026
▁proposal	-10.1032
▁dance	-10.1032
▁simple	-10.1039
▁providing	-10.1042
▁audience	-10.1046
cheon	-10.1046
▁announcement	-10.1047
▁경쟁	-10.1047
▁회장	-10.1049
▁loss	-10.105
▁사는	-10.106
설	-10.1061
▁IT	-10.1061
▁방안을	-10.1065
▁signed	-10.1067
▁합의	-10.1067
▁전통	-10.107
▁경영	-10.1071
▁expect	-10.1072
▁fun	-10.1073
el	-10.1073
▁특정	-10.108
▁진	-10.108
▁결제	-10.1082
광	-10.1083
▁미래	-10.1094
▁sell	-10.1096
▁reached	-10.1096
▁physical	-10.1107
집	-10.1107
▁효과가	-10.111
▁Why	-10.111
▁밤	-10.111
▁창업	-10.1115
▁그것은	-10.1119
▁제주	-10.1122
했으며	-10.1127
▁returned	-10.1131
▁allow	-10.1137
▁Mi	-10.114
림	-10.1144
▁못하고	-10.1149
▁blood	-10.115
▁consideration	-10.115
▁River	-10.1153
▁지적이	-10.1163
▁그대로	-10.1163
▁기회를	-10.1165
▁상품	-10.1168
▁recognized	-10.117
▁싶은	-10.1171
▁있으면	-10.1173
▁앞	-10.1173
▁mentioned	-10.1176
▁address	-10.1183
▁Chairperson	-10.119
▁gathered	-10.1195
▁especially	-10.1195
▁금융	-10.1201
▁overall	-10.1201
▁사이	-10.1207
▁success	-10.1214
▁manufacturing	-10.1218
∼	-10.1218
▁의해	-10.1218
체	-10.1219
▁중이다	-10.122
▁조선	-10.1221
▁says	-10.1223
▁Kwon	-10.1225
▁carry	-10.1228
▁한국에	-10.1232
▁influence	-10.1237
▁새로	-10.1237
▁KT	-10.1246
▁대표가	-10.1247
▁상대로	-10.1254
▁되면	-10.1255
▁들	-10.1256
▁buildings	-10.1261
▁2010	-10.1261
▁actually	-10.1268
▁train	-10.1269
▁심의	-10.1272
▁unit	-10.1277
▁becoming	-10.1278
20	-10.1283
▁지도	-10.1283
▁정치	-10.1285
▁anti	-10.1285
▁search	-10.1293
으면	-10.1294
▁sign	-10.1302
▁Enforcement	-10.1302
▁프랑스	-10.1308
▁recommended	-10.1312
더	-10.1317
▁체험	-10.1318
▁Hee	-10.1319
래	-10.132
based	-10.1321
▁만드는	-10.1321
▁paper	-10.1322
▁owners	-10.1325
등	-10.1327
▁자신	-10.1333
성이	-10.1334
▁themselves	-10.1336
▁classes	-10.1338
▁마을	-10.1348
▁상황을	-10.1348
▁wait	-10.1352
▁responsible	-10.1355
▁지역의	-10.1362
▁Daejeon	-10.1362
▁hair	-10.1368
▁공장	-10.1369
▁스마트폰	-10.1373
▁preparing	-10.1373
▁driver	-10.1373
▁household	-10.1378
▁그들은	-10.138
▁없었다	-10.138
통	-10.1387
▁shown	-10.1395
ki	-10.1397
▁registration	-10.1397
▁Su	-10.1398
▁By	-10.1399
▁park	-10.1402
▁상태	-10.1402
▁ever	-10.1405
▁어린이	-10.1406
▁Women	-10.1407
▁award	-10.1419
▁practice	-10.142
▁forest	-10.142
▁발표한	-10.1423
▁function	-10.1425
▁2011	-10.1426
▁deputy	-10.1429
▁voice	-10.143
사가	-10.1434
▁Complex	-10.1441
▁except	-10.1442
▁높다	-10.1442
▁규정	-10.1443
▁대한민국	-10.1444
▁Federation	-10.1447
▁한국어	-10.1452
▁relatively	-10.1454
▁머리	-10.1457
▁clothes	-10.1457
▁answer	-10.146
▁덧붙였다	-10.1463
▁아래	-10.1463
▁airport	-10.1467
▁증가	-10.1468
▁idea	-10.147
▁여기에	-10.1471
▁이야기를	-10.1475
▁선거	-10.1477
▁도로	-10.1482
▁significant	-10.1487
▁biggest	-10.1504
▁pain	-10.1507
▁consultation	-10.1509
▁file	-10.1514
별로	-10.1514
▁시험	-10.1516
▁Union	-10.1517
▁abroad	-10.1522
out	-10.1525
▁ratio	-10.1528
sik	-10.153
▁촬영	-10.1538
▁언제	-10.1542
이자	-10.1543
▁Go	-10.1545
▁dream	-10.1547
▁records	-10.155
▁foundation	-10.1551
하기도	-10.1555
▁점이	-10.1557
▁These	-10.1561
▁보수	-10.1565
▁prize	-10.1568
했는데	-10.1573
▁nearby	-10.1576
▁suspected	-10.1579
▁팀	-10.1583
E	-10.1584
▁artists	-10.1584
니다	-10.1589
▁의미	-10.1594
▁맞는	-10.1597
▁protect	-10.1601
▁운동	-10.1602
▁않는다	-10.1606
▁bit	-10.1617
▁turn	-10.1619
▁(2)	-10.162
▁fast	-10.1622
▁나와	-10.1624
▁pm	-10.163
▁축제	-10.1632
▁taxi	-10.1634
▁우수	-10.1638
▁적용	-10.1644
▁감독이	-10.1649
▁letter	-10.1651
▁2000	-10.1651
▁150	-10.1654
▁electric	-10.1656
▁registered	-10.166
▁반도체	-10.1661
▁아무	-10.1662
▁investors	-10.1668
▁홍	-10.1673
There	-10.1673
▁career	-10.1678
▁himself	-10.1684
▁Woo	-10.1685
▁location	-10.1685
▁위치한	-10.1688
▁running	-10.1699
기술	-10.1708
▁공공	-10.1709
▁separate	-10.1711
▁H	-10.1712
▁criticism	-10.1715
tae	-10.1718
▁싶어요	-10.1724
줄	-10.1726
규	-10.1728
지도	-10.1729
▁주장	-10.1735
▁expectations	-10.1737
▁놓고	-10.1737
▁삼	-10.174
▁target	-10.1743
▁어려움	-10.1748
▁대표는	-10.1748
▁장관	-10.1751
▁카드	-10.1756
▁있었던	-10.1758
▁시민	-10.1762
▁정부는	-10.1765
▁운영하는	-10.1766
▁huge	-10.177
▁black	-10.177
po	-10.1773
▁팬들	-10.1774
▁출신	-10.1775
▁era	-10.1776
환	-10.1781
▁단지	-10.1782
▁allowed	-10.1788
▁strategy	-10.1789
외	-10.179
▁Joseon	-10.1796
▁white	-10.1796
든	-10.1796
▁학습	-10.18
▁보니	-10.1801
▁업무를	-10.1801
절	-10.1811
▁더불어민주당	-10.1812
▁요즘	-10.1813
▁되지	-10.1814
▁취소	-10.1814
시장	-10.1815
▁adding	-10.182
en	-10.1824
▁힘을	-10.1825
▁사실상	-10.1826
▁조성	-10.1832
▁intention	-10.1835
▁호텔	-10.1835
▁everyone	-10.1836
▁science	-10.1841
환경	-10.1849
▁Are	-10.1854
▁낮은	-10.1857
mm	-10.1862
▁selling	-10.1865
▁includes	-10.1876
▁successful	-10.1878
▁break	-10.1885
▁지금까지	-10.1889
▁싶어	-10.1891
▁(1),	-10.1893
▁조치를	-10.1896
▁보이는	-10.1896
▁호	-10.1899
▁closed	-10.19
jung	-10.1903
▁당신에게	-10.1904
▁별	-10.1906
▁Airport	-10.1906
▁sharing	-10.1909
▁사항은	-10.1915
▁것이에요	-10.1917
▁연속	-10.1922
▁vacation	-10.1928
▁analyzed	-10.1934
▁respectively	-10.1936
▁나서	-10.1937
▁entrusted	-10.1944
▁Deputy	-10.195
▁appointment	-10.195
▁연기	-10.1951
▁피부	-10.1957
하지만	-10.1958
▁질	-10.1958
▁prescribe	-10.1965
▁90	-10.1967
▁nothing	-10.1972
▁From	-10.1973
▁expanding	-10.1974
▁강화	-10.1983
▁원인	-10.1983
▁적	-10.1985
주년	-10.1987
▁목표	-10.1988
▁정확한	-10.1996
▁Art	-10.2005
▁jurisdiction	-10.2008
▁entertainment	-10.2008
▁경찰에	-10.2008
▁wave	-10.2009
▁위원은	-10.2011
▁오히려	-10.2012
▁goes	-10.2013
▁Gyeongsang	-10.2017
▁planned	-10.2017
▁fully	-10.2018
▁meaning	-10.2024
▁zone	-10.2025
▁예방	-10.2029
▁characteristics	-10.2033
▁운영에	-10.2039
▁European	-10.2039
▁broadcast	-10.2047
▁Yu	-10.2049
▁진출	-10.2049
▁northern	-10.2054
▁병원	-10.2058
▁trust	-10.2059
▁결혼	-10.2063
▁elections	-10.2064
▁farmers	-10.2068
▁강원도	-10.2069
행	-10.2077
▁newly	-10.2077
▁platform	-10.2079
됩니다	-10.208
▁hosted	-10.2087
▁강한	-10.2088
▁인도	-10.209
▁clean	-10.2091
목	-10.2092
▁권	-10.2095
▁가격이	-10.2096
▁혁신	-10.2098
각	-10.2103
▁revision	-10.2107
▁복지	-10.2109
▁waiting	-10.2112
▁자연	-10.2112
▁작성	-10.2117
매	-10.2118
▁자금	-10.2118
▁얘기	-10.2119
▁reach	-10.2133
▁joined	-10.2141
▁찾는	-10.2142
▁coffee	-10.2144
후	-10.2145
인지	-10.2147
▁playing	-10.2162
▁notify	-10.2171
▁모여	-10.2174
하려는	-10.2176
▁winning	-10.2177
▁자리	-10.2181
▁War	-10.2182
▁대규모	-10.2192
▁사용할	-10.2192
▁전망	-10.2196
▁recorded	-10.2201
▁Europe	-10.2201
▁뿐	-10.2206
업	-10.2208
▁join	-10.2209
▁tour	-10.2209
▁watching	-10.2211
▁actor	-10.2215
▁introduction	-10.2219
▁becomes	-10.2225
▁이해	-10.2232
am	-10.2233
▁문제는	-10.2233
경제	-10.2235
▁최선	-10.2236
▁published	-10.2239
▁검찰은	-10.224
▁reportedly	-10.224
▁moving	-10.2243
▁Market	-10.2244
월에	-10.2245
▁older	-10.2252
▁supporting	-10.2253
▁maintain	-10.2259
▁bought	-10.2261
W	-10.227
▁lawmakers	-10.2274
▁아니	-10.2279
▁유통	-10.2282
▁cancer	-10.2285
▁hear	-10.2287
이지만	-10.2287
▁presented	-10.2289
▁의사	-10.229
▁인식	-10.2292
▁했습니다	-10.2295
▁점검	-10.2298
▁circumstances	-10.2305
▁range	-10.2311
▁참여하는	-10.2314
▁determine	-10.2315
▁certificate	-10.2315
▁자료	-10.2319
▁ball	-10.2328
▁받지	-10.2328
▁designed	-10.2329
▁rising	-10.2342
▁Village	-10.2347
▁killed	-10.2347
▁multi	-10.2347
▁investigate	-10.2354
▁사람을	-10.2355
▁규모의	-10.2357
기가	-10.2358
▁warrant	-10.2361
▁나도	-10.2364
▁regions	-10.237
▁Currently	-10.2371
▁N	-10.2374
▁활용	-10.2376
▁방침이다	-10.2378
▁우려	-10.238
▁방식으로	-10.2386
▁songs	-10.2388
▁제출	-10.239
주의	-10.2392
▁Social	-10.2393
▁separately	-10.2399
▁최초로	-10.2402
▁Ho	-10.2404
하고자	-10.2406
▁expanded	-10.2408
▁resident	-10.2411
▁등은	-10.2411
▁Wave	-10.2412
▁limit	-10.2412
▁소재	-10.2415
▁broke	-10.2421
▁selection	-10.2422
▁포	-10.243
▁resolution	-10.243
▁유명	-10.2431
▁rental	-10.2436
▁전혀	-10.2437
▁북한이	-10.2439
▁영상	-10.2443
▁improved	-10.2448
▁연장	-10.2448
▁exports	-10.2451
▁Byung	-10.2457
▁provides	-10.2461
▁앞에서	-10.2465
▁dollars	-10.2469
▁선발	-10.2471
▁healthy	-10.2475
▁box	-10.2478
▁Hospital	-10.249
▁exercise	-10.249
▁중앙	-10.2498
한다고	-10.2502
과의	-10.2503
되며	-10.2508
▁담당	-10.2511
증	-10.2512
정보	-10.2518
▁쉽지	-10.2521
mo	-10.2524
▁promoting	-10.2533
▁claimed	-10.2535
▁하여야	-10.2541
▁나오는	-10.2543
▁피해를	-10.2544
▁Re	-10.2548
▁viewers	-10.2551
▁건가요	-10.2552
▁시절	-10.2555
▁보였다	-10.2556
네요	-10.256
▁좋아	-10.2562
V	-10.2563
▁차례	-10.2565
▁남성	-10.2566
▁Project	-10.257
▁eligible	-10.257
자는	-10.257
▁everything	-10.2573
▁competitiveness	-10.2573
범	-10.2575
▁thinking	-10.2585
▁superintendent	-10.2591
나요	-10.2591
▁above	-10.2601
▁counseling	-10.2603
▁위원회의	-10.2607
▁heads	-10.2609
▁2008	-10.2609
ja	-10.261
▁열심히	-10.2611
본	-10.2613
▁고객	-10.2615
▁상승	-10.2616
▁Hye	-10.2631
▁longer	-10.2633
▁formed	-10.2638
▁access	-10.2639
▁advanced	-10.2641
▁기회가	-10.2643
▁provisions	-10.2644
ur	-10.2647
▁improving	-10.265
▁measure	-10.2651
▁나에게	-10.2651
▁눈에	-10.2653
▁brother	-10.2653
분기	-10.2662
▁위해서	-10.2664
▁looks	-10.2666
H	-10.2667
▁suffering	-10.2668
▁connection	-10.2668
▁언론	-10.2672
▁campaign	-10.2672
▁여부를	-10.2673
▁예술	-10.2683
년까지	-10.2686
▁바란다	-10.2689
▁almost	-10.269
▁Thank	-10.2691
▁개최	-10.2692
▁wish	-10.2694
▁민주당	-10.2694
▁겁니다	-10.2695
▁gender	-10.2695
▁담긴	-10.2696
▁supported	-10.2698
▁word	-10.2701
▁screen	-10.2704
날	-10.2708
▁Tourism	-10.271
력	-10.2717
▁예	-10.2718
▁사용하는	-10.2719
▁대통령과	-10.2719
▁appearance	-10.2723
▁fields	-10.2724
▁depending	-10.2725
▁assets	-10.273
▁은행	-10.2731
▁focused	-10.2733
▁served	-10.2735
▁없다고	-10.2737
▁되었다	-10.2738
▁collected	-10.2745
▁elected	-10.2745
▁바탕으로	-10.275
▁maintenance	-10.275
▁agenda	-10.2752
▁meetings	-10.2752
▁caus	-10.2753
▁마음을	-10.2757
▁pension	-10.2762
▁husband	-10.2765
▁정하는	-10.2769
▁젊은	-10.277
▁선택	-10.2773
▁추천	-10.2777
▁적극적으로	-10.2777
▁식사	-10.2787
▁knowledge	-10.2789
▁detailed	-10.279
▁조직	-10.2794
▁매일	-10.2795
▁employee	-10.2795
▁wind	-10.2797
▁시장이	-10.2799
▁눈길	-10.2799
▁lecture	-10.28
▁gap	-10.2805
▁인간	-10.2807
▁주제로	-10.2808
▁못하는	-10.2809
▁ship	-10.2811
▁걱정	-10.2812
▁Church	-10.2815
▁반드시	-10.282
▁있을까요	-10.2821
▁delayed	-10.2823
▁technologies	-10.2824
▁although	-10.2829
▁부과	-10.283
▁Environment	-10.283
▁marketing	-10.283
▁블록체인	-10.2831
▁것처럼	-10.2833
▁Singapore	-10.2838
▁지속적으로	-10.284
▁Sejong	-10.284
▁빠르게	-10.284
▁spring	-10.2841
▁정상	-10.2848
▁singer	-10.2849
▁beauty	-10.2849
▁출시	-10.2852
▁negative	-10.2855
▁Fair	-10.2855
▁이들은	-10.2855
▁경남	-10.2857
▁Seong	-10.2857
▁교류	-10.286
▁notice	-10.2861
▁보여	-10.2861
whose	-10.2864
u	-10.287
장을	-10.2871
▁중국의	-10.2872
▁victim	-10.2874
▁continues	-10.2875
▁Also	-10.2881
▁Jeon	-10.2889
▁factory	-10.2891
암	-10.2892
▁consumer	-10.2896
▁types	-10.29
▁serve	-10.2908
▁birth	-10.2908
▁곧	-10.2912
▁이와	-10.2914
▁경험이	-10.292
▁contribute	-10.292
▁소비	-10.2923
▁completely	-10.2927
▁Most	-10.2929
▁자료를	-10.2929
▁오래	-10.2932
▁League	-10.2938
▁external	-10.2944
▁후에	-10.2944
▁2020	-10.2944
▁warm	-10.2952
▁자리를	-10.2953
▁파	-10.2957
색	-10.2962
▁했어요	-10.2963
▁긴급	-10.2966
▁effective	-10.2968
▁eye	-10.2968
▁principle	-10.2969
▁측은	-10.2969
▁Regard	-10.2972
▁forced	-10.2973
▁영업	-10.2977
▁soccer	-10.2982
▁10%	-10.2982
▁홍콩	-10.2989
▁생각이	-10.2996
▁stocks	-10.2996
▁스포츠	-10.2997
▁술	-10.2999
▁changing	-10.3
▁contest	-10.3001
▁infrastructure	-10.3002
▁table	-10.3002
▁월	-10.3004
▁item	-10.3006
▁프로그램을	-10.3006
▁근무	-10.3009
▁seats	-10.3009
▁앞에	-10.3011
▁lawmaker	-10.3012
▁재정	-10.3019
▁remarks	-10.3022
▁despite	-10.3026
sun	-10.3031
▁관계자	-10.3033
▁County	-10.3037
▁procedures	-10.3039
▁만들	-10.3043
보다는	-10.3047
▁셈이	-10.305
▁mainly	-10.3053
▁지역에	-10.3054
▁피해자	-10.306
▁미국이	-10.306
▁사용자	-10.3062
▁허가	-10.3066
▁보도	-10.307
▁준	-10.3071
▁제일	-10.3076
▁gift	-10.3077
▁emphasized	-10.3077
▁meal	-10.3078
▁modern	-10.3079
▁치료	-10.3082
▁allows	-10.3082
▁Movement	-10.3084
되기	-10.3087
R	-10.3088
▁사이에	-10.3091
▁broadcasting	-10.3093
▁공유	-10.3095
▁이상이	-10.3097
론	-10.3104
▁달러	-10.3112
▁요구	-10.3114
▁studying	-10.3115
▁article	-10.3115
▁제한	-10.3119
▁discussion	-10.3119
▁삼성	-10.3127
와의	-10.3128
▁연간	-10.313
▁specialized	-10.3135
▁본다	-10.3135
▁smart	-10.3136
▁예약	-10.3138
▁최고의	-10.3139
▁가서	-10.3146
h	-10.3147
▁소비자	-10.3149
▁접수	-10.3158
▁developing	-10.3158
▁32	-10.3159
져	-10.316
한국	-10.316
▁screening	-10.3168
▁wide	-10.317
▁Myung	-10.3171
▁넘	-10.3174
▁meters	-10.318
▁지방	-10.318
▁훈련	-10.318
ism	-10.3183
▁있지	-10.3187
▁choose	-10.3191
평	-10.3193
▁무슨	-10.3195
▁methods	-10.3197
▁consecutive	-10.32
▁units	-10.3203
▁택시	-10.3206
▁reflect	-10.3207
▁때까지	-10.3207
덕	-10.3208
대가	-10.3208
▁설계	-10.3211
▁consumption	-10.3211
▁순	-10.3214
▁greatly	-10.3214
▁Mountain	-10.3217
▁화	-10.3219
▁disabilities	-10.3228
성을	-10.3234
▁만약	-10.3237
▁교체	-10.324
b	-10.3242
▁discount	-10.3249
▁independence	-10.325
년이	-10.3251
China	-10.3253
▁photos	-10.3256
▁그러나	-10.3265
▁Employment	-10.327
▁플랫폼	-10.3277
▁안에서	-10.3281
▁허	-10.3281
▁nine	-10.3283
▁ordinary	-10.3286
▁33	-10.3287
▁전환	-10.3292
hye	-10.3295
▁교수	-10.3297
▁직무	-10.3309
였던	-10.331
북	-10.3314
서를	-10.3317
▁fishing	-10.3321
▁배송	-10.3326
ok	-10.3332
▁select	-10.3334
▁설	-10.3336
지를	-10.3336
난	-10.3338
▁제출하여야	-10.3338
▁performed	-10.334
▁변호사	-10.3341
▁grade	-10.3343
age	-10.3348
▁부담	-10.3352
▁Representative	-10.3353
▁surgery	-10.3355
▁promoted	-10.3358
▁leaving	-10.3359
▁중단	-10.3361
▁경쟁력	-10.3362
▁작품	-10.3364
키	-10.3365
▁installation	-10.3367
▁Pyongyang	-10.3372
▁50%	-10.3376
망	-10.3376
▁실시	-10.338
12	-10.338
업체	-10.3381
no	-10.3381
▁비용	-10.3385
▁scope	-10.3388
▁현대	-10.3391
▁참	-10.3394
▁Soo	-10.3396
▁rapidly	-10.3398
▁데이터	-10.3403
▁sleep	-10.3404
▁많아	-10.3405
▁20%	-10.3406
▁suffered	-10.3407
▁하다	-10.3411
▁standing	-10.3411
▁장소	-10.3411
▁entering	-10.3412
▁cash	-10.3414
▁weeks	-10.342
뿐	-10.3421
▁drink	-10.3423
▁육성	-10.3434
▁넘어	-10.3436
명으로	-10.3438
▁library	-10.3439
▁법인	-10.3441
▁door	-10.3448
▁divided	-10.3451
▁나를	-10.3451
▁attract	-10.3456
▁당신을	-10.3457
▁settlement	-10.3459
▁girl	-10.3459
▁그들	-10.3463
▁절차	-10.3463
▁시스템	-10.3465
▁애	-10.3465
▁가정	-10.3471
▁throughout	-10.3472
▁않으면	-10.3472
▁금리	-10.348
▁flight	-10.3482
▁Of	-10.3483
▁choice	-10.3491
▁claim	-10.3492
▁speech	-10.3499
▁ex	-10.3502
▁맞춰	-10.3502
▁abuse	-10.3504
▁petition	-10.3505
채	-10.3506
▁Roh	-10.3507
▁finished	-10.3514
▁북한의	-10.3515
▁prison	-10.3522
▁있다면	-10.3523
뿐만	-10.3525
▁score	-10.3525
▁외부	-10.3527
▁representatives	-10.3527
▁judge	-10.3528
▁대전	-10.3529
▁dramas	-10.3529
▁profits	-10.3544
▁focusing	-10.3545
▁brought	-10.3546
▁상담	-10.3547
▁커피	-10.3551
분의	-10.3551
▁seem	-10.356
▁consist	-10.3562
▁수도권	-10.3564
▁worried	-10.3565
us	-10.3566
▁remaining	-10.3567
▁오늘은	-10.3569
▁대만	-10.357
▁Rules	-10.3573
jeong	-10.3574
▁없어요	-10.358
▁밝힌	-10.358
▁그냥	-10.3582
▁축구	-10.3583
▁weight	-10.3584
▁빠른	-10.3586
▁지원하는	-10.3587
▁severe	-10.3587
▁taxes	-10.3588
▁상대	-10.3592
으로서	-10.3596
▁속에서	-10.3597
▁write	-10.3598
달	-10.36
▁activity	-10.3606
▁참가	-10.3607
학교	-10.3607
▁팔	-10.3608
▁위원회	-10.3609
ting	-10.3612
▁Ulsan	-10.3613
▁exam	-10.3616
하겠습니다	-10.3616
▁academic	-10.3617
▁왔다	-10.3623
안전	-10.3625
▁stable	-10.3627
▁significantly	-10.3629
예	-10.3631
▁eating	-10.3633
▁아침	-10.3639
▁arts	-10.3643
함을	-10.3649
▁전문가들	-10.3655
했으나	-10.3659
▁기준으로	-10.3663
▁잘못	-10.3664
음	-10.3669
▁concern	-10.3679
▁인	-10.368
도시	-10.3681
▁둘	-10.3682
▁사람들은	-10.3682
▁끝난	-10.3685
▁subway	-10.3689
▁accounts	-10.3694
▁제공하는	-10.3694
▁meaningful	-10.3697
▁종합	-10.3697
▁사무	-10.3698
▁paying	-10.3699
▁walk	-10.37
site	-10.3704
▁movies	-10.3706
▁produce	-10.3708
▁소개	-10.3709
▁restaurants	-10.3709
▁preparation	-10.3714
▁busy	-10.3716
▁편	-10.372
▁drop	-10.372
▁ticket	-10.3721
▁cooperate	-10.3724
▁사고가	-10.3724
▁기업의	-10.3726
▁비가	-10.3727
개발	-10.3727
▁Hae	-10.3729
▁Sea	-10.3735
▁push	-10.3746
▁America	-10.3749
▁Last	-10.375
▁못했다	-10.3751
▁400	-10.3751
▁opportunities	-10.3751
▁Games	-10.3752
▁advantage	-10.3753
▁receipt	-10.3753
표	-10.3759
▁Small	-10.3762
▁estimated	-10.3763
▁이내에	-10.3766
▁길	-10.3767
긴	-10.3771
▁rose	-10.3777
▁county	-10.3777
▁Division	-10.3779
▁교육을	-10.3781
▁Don	-10.3781
▁criminal	-10.3786
▁appropriate	-10.3786
▁permission	-10.3787
▁전부	-10.3788
▁Table	-10.38
▁고민	-10.38
▁subsidies	-10.3806
▁금	-10.3808
▁차이가	-10.3814
▁없고	-10.3816
경기	-10.3819
▁가구	-10.3823
곳	-10.3823
▁경북	-10.3825
▁Our	-10.3828
▁Hotel	-10.383
▁연락	-10.383
▁Man	-10.3838
▁추가로	-10.3839
▁Ko	-10.3844
처	-10.3846
▁등에서	-10.3847
▁fish	-10.3849
▁이름을	-10.3849
▁민	-10.3854
jae	-10.3855
▁preliminary	-10.3855
▁Baek	-10.3856
▁대응	-10.3859
▁CCTV	-10.3869
▁전날	-10.387
추	-10.387
▁assault	-10.3877
▁express	-10.388
▁겸	-10.3881
▁아이	-10.3881
ar	-10.3884
▁전기	-10.3885
▁대해서	-10.3887
▁전해졌다	-10.3888
대학	-10.3888
▁먹고	-10.3889
씨의	-10.3891
▁Un	-10.3891
▁deep	-10.3901
▁fan	-10.3904
▁얼마	-10.3905
▁Line	-10.3906
▁참여한	-10.3908
▁Bo	-10.3913
11	-10.3915
▁arrived	-10.3916
▁spend	-10.3917
▁경	-10.392
▁즐길	-10.3924
▁Facebook	-10.3926
▁연결	-10.3927
▁확산	-10.3939
▁교수는	-10.3948
▁monthly	-10.3951
락	-10.3951
nam	-10.3955
▁decline	-10.3957
▁weekend	-10.3961
▁회장이	-10.3963
▁포함	-10.3963
▁이행	-10.3964
원이	-10.3964
line	-10.3965
▁understanding	-10.3967
▁보통	-10.3967
▁예상	-10.3977
▁평화	-10.3978
사회	-10.3978
▁pictures	-10.398
▁수행	-10.398
▁Motor	-10.398
▁45	-10.3985
▁Services	-10.3985
▁Policy	-10.3986
▁More	-10.3987
버	-10.3989
▁accept	-10.399
▁동의	-10.399
▁respond	-10.399
▁하여	-10.4003
▁attending	-10.4003
▁Cha	-10.4004
▁최대한	-10.4005
▁거리	-10.4005
▁recruitment	-10.4005
▁낸	-10.4006
▁dinner	-10.4009
▁shared	-10.401
▁source	-10.4012
▁모바일	-10.4012
▁achieve	-10.4013
▁사장	-10.4013
ist	-10.4018
▁autonomous	-10.4019
▁구축	-10.4025
▁물건	-10.4038
X	-10.404
▁늘	-10.404
▁훨씬	-10.4041
▁결과가	-10.405
▁아동	-10.4052
▁충분히	-10.4054
▁Human	-10.4057
▁그녀	-10.4062
▁코	-10.4064
▁volume	-10.4067
▁기획	-10.4071
▁managed	-10.4074
▁위탁	-10.4075
▁화제	-10.4077
▁venue	-10.4078
▁$	-10.4079
▁상황	-10.4084
▁업계	-10.4086
팀	-10.4086
▁consider	-10.4087
▁twice	-10.4106
▁위에	-10.4113
▁다소	-10.4113
▁thereof	-10.4113
▁acting	-10.4113
▁많았다	-10.4113
대상	-10.4113
▁factors	-10.412
▁Peace	-10.4132
▁과정을	-10.4138
▁변	-10.414
▁65	-10.414
▁시작한	-10.4141
▁시장에서	-10.4143
합	-10.4145
head	-10.4146
운영	-10.4149
15	-10.415
▁혐의를	-10.415
▁email	-10.4151
▁vote	-10.4152
▁보이고	-10.4152
▁electronic	-10.4157
▁판단	-10.4163
▁장비	-10.4167
▁appear	-10.4167
▁nationwide	-10.4167
▁범죄	-10.4168
▁의하여	-10.4169
▁30%	-10.4177
▁시작했다	-10.418
▁34	-10.4182
day	-10.4187
▁북미	-10.4192
▁열고	-10.4197
▁Ju	-10.4206
▁의미가	-10.4206
▁했지만	-10.4206
▁교회	-10.4208
▁성적	-10.4208
▁만들기	-10.4214
▁미국과	-10.4215
▁행사를	-10.4215
▁아름다운	-10.4216
▁Port	-10.4216
▁mountain	-10.422
and	-10.422
▁devices	-10.4222
▁computer	-10.4222
▁apartments	-10.4227
hwa	-10.4228
eun	-10.4233
▁remains	-10.4235
▁디지털	-10.4236
▁double	-10.424
▁정상회담	-10.4243
▁forces	-10.4244
▁Information	-10.4252
▁efficient	-10.4253
▁완화	-10.4264
▁위기	-10.4265
하겠다는	-10.4268
cm	-10.4277
▁contains	-10.4278
▁실	-10.428
▁Agricultural	-10.4282
▁impossible	-10.4282
▁follows	-10.4283
▁revenue	-10.4284
▁감소	-10.4291
▁exchanges	-10.4294
▁gold	-10.4298
▁wants	-10.4298
▁국방부	-10.4298
협의회	-10.4299
▁속에	-10.4299
▁주민들	-10.4303
▁ended	-10.4305
▁recommend	-10.4309
▁협조	-10.4314
▁알려	-10.4317
▁지금은	-10.4318
▁weak	-10.4319
▁혼자	-10.4323
▁reporters	-10.433
▁기대된다	-10.4331
▁세대	-10.4332
▁이용해	-10.4338
▁films	-10.434
▁directors	-10.4343
▁majority	-10.4343
▁인기가	-10.4344
▁Fire	-10.4345
▁계기	-10.4346
▁책	-10.4353
▁보안	-10.4355
▁전달	-10.4365
O	-10.4366
▁decide	-10.4368
년대	-10.4371
▁style	-10.4381
시부터	-10.4383
▁분석이	-10.4385
▁stories	-10.4386
▁digital	-10.4387
▁shop	-10.4388
▁방문해	-10.4395
이번	-10.4404
▁shot	-10.441
North	-10.4413
▁의지	-10.4416
▁지속	-10.442
▁album	-10.4421
▁leadership	-10.4424
▁Recently	-10.4425
▁wrote	-10.4428
ta	-10.443
▁Now	-10.4435
▁decrease	-10.4435
▁기술을	-10.4437
조원	-10.444
▁유치	-10.4441
▁avoid	-10.4441
▁suggested	-10.4446
▁말이	-10.4449
▁의료	-10.445
서비스	-10.4452
윤	-10.4452
시에	-10.4454
▁계획을	-10.4454
찬	-10.4461
▁punishment	-10.4462
▁때마다	-10.4464
13	-10.4466
▁limits	-10.4466
▁drug	-10.4466
▁executives	-10.4467
▁occur	-10.4468
▁들고	-10.4469
▁believed	-10.447
▁생각합니다	-10.4472
▁노동	-10.4473
▁blockchain	-10.4474
▁male	-10.448
▁background	-10.4486
▁라	-10.4487
▁평가를	-10.4494
▁공	-10.4502
▁KBS	-10.4503
▁Museum	-10.4508
▁참석했다	-10.4509
▁길이	-10.451
▁꾸준히	-10.4512
▁difficulty	-10.4513
▁검찰이	-10.4514
▁collect	-10.4515
ma	-10.4517
▁아버지	-10.452
x	-10.4521
▁refund	-10.4522
▁날씨	-10.4523
chan	-10.4526
▁역사	-10.4532
▁filled	-10.4539
▁가까운	-10.4546
지구	-10.4546
▁장관이	-10.4547
▁sex	-10.4554
▁프로젝트	-10.4557
▁0	-10.4559
▁속도	-10.4568
▁strength	-10.4568
▁assessment	-10.4568
19	-10.4572
ty	-10.4575
▁delay	-10.4576
▁호주	-10.4576
마을	-10.4578
▁한국당	-10.4578
▁unable	-10.4581
▁통일	-10.4585
▁서울시	-10.4589
▁안내	-10.4591
▁expects	-10.4592
ive	-10.4595
▁답변	-10.4597
▁concerned	-10.4597
회의	-10.4601
조사	-10.4605
▁여름	-10.4608
▁judges	-10.461
겠습니다	-10.4611
ah	-10.4612
▁anyone	-10.4613
▁tourist	-10.4615
▁있었습니다	-10.4619
▁나머지	-10.4623
▁내에	-10.4625
▁increases	-10.4634
go	-10.4634
▁sentenced	-10.4634
▁mayor	-10.4635
▁뉴욕	-10.4643
▁마음이	-10.4644
▁Could	-10.4644
▁Construction	-10.4649
▁myself	-10.465
▁관세	-10.4652
▁fashion	-10.4663
▁이용할	-10.4665
▁정책을	-10.4667
▁자녀	-10.4676
대학교	-10.4676
▁star	-10.4676
송	-10.4677
▁이달	-10.4687
씩	-10.469
one	-10.4691
▁나선	-10.4693
▁Seok	-10.4694
▁beyond	-10.4696
라며	-10.4699
te	-10.4702
▁Jo	-10.4712
▁missing	-10.4713
▁행사가	-10.4714
▁potential	-10.4722
투자	-10.4727
▁mean	-10.4728
▁상황이다	-10.4731
▁비슷한	-10.4735
▁allegations	-10.4735
▁damaged	-10.4738
▁endeavor	-10.4739
▁수요	-10.4741
▁His	-10.4743
▁소리	-10.4749
함에	-10.475
울	-10.475
▁happened	-10.4751
▁calls	-10.4751
▁Republic	-10.4756
▁plants	-10.4759
▁roads	-10.476
▁prior	-10.476
▁유명한	-10.476
▁규정함을	-10.477
임을	-10.4776
▁시행령	-10.4777
▁wearing	-10.4777
라도	-10.4778
▁2007	-10.4778
▁born	-10.4778
at	-10.4781
▁Former	-10.4781
▁사업에	-10.4782
▁효과를	-10.4785
▁feeling	-10.4785
▁solution	-10.4787
하세요	-10.4792
▁accused	-10.4796
▁diseases	-10.4796
▁expensive	-10.48
▁calling	-10.4801
▁엄마	-10.4803
de	-10.4807
▁figure	-10.4807
억원을	-10.4808
▁순간	-10.4811
▁건축	-10.4812
▁Taiwan	-10.4818
▁revised	-10.4819
▁감	-10.482
▁환자	-10.4822
▁Russian	-10.4823
함으로써	-10.4825
▁cover	-10.4826
▁부위원장	-10.4826
▁가고	-10.4827
기에	-10.4828
▁가야	-10.4828
런	-10.4829
▁smartphone	-10.4831
▁사업이	-10.4833
f	-10.4833
▁retirement	-10.484
▁require	-10.4844
▁Insurance	-10.4852
▁사건이	-10.4853
▁이란	-10.4853
공사	-10.4853
▁explain	-10.4854
▁deposit	-10.4854
▁책을	-10.4857
다면	-10.4858
▁reservation	-10.4858
애	-10.4859
가지	-10.4859
었습니다	-10.4861
▁listen	-10.4868
▁일단	-10.4871
이기	-10.4873
▁association	-10.4875
▁질문	-10.4875
▁asking	-10.4878
▁참석해	-10.4882
▁named	-10.4882
▁운행	-10.4887
▁마련	-10.4889
▁주고	-10.4891
bo	-10.4891
▁때문입니다	-10.4893
▁보기	-10.4893
▁medicine	-10.4895
▁decreased	-10.4895
▁매출	-10.4896
▁소득	-10.49
평가	-10.4905
▁Joon	-10.4907
▁Iran	-10.4914
▁인도네시아	-10.4915
▁핵	-10.4916
▁processing	-10.4918
▁remember	-10.4919
▁farming	-10.4919
▁proceed	-10.4921
▁나오고	-10.4921
까	-10.4927
▁quite	-10.493
▁About	-10.4934
▁Youth	-10.4938
▁BTS	-10.4939
led	-10.4943
▁volunteer	-10.4944
▁부문	-10.4945
jo	-10.4947
다가	-10.4949
▁임금	-10.4956
▁했던	-10.496
▁victory	-10.4962
▁진행된	-10.4966
▁worker	-10.4968
▁강남구	-10.497
As	-10.4971
▁Goyang	-10.4971
▁lawsuit	-10.4973
▁title	-10.4973
▁확보	-10.4976
만명	-10.4976
▁아니냐	-10.4976
▁있습니까	-10.498
▁부분이	-10.4982
▁확인할	-10.4983
ng	-10.4985
하려고	-10.4988
16	-10.499
▁finally	-10.4991
▁기대하고	-10.4991
권을	-10.4992
▁shares	-10.4994
▁temporary	-10.4997
▁camp	-10.4998
▁Organization	-10.4999
월까지	-10.5007
량	-10.5009
▁공부	-10.5011
▁여기서	-10.5012
학년	-10.5012
▁즉시	-10.5013
▁소통	-10.5014
▁열린다	-10.5015
▁Heung	-10.5016
▁이용자	-10.5017
▁싱가포르	-10.5019
▁장은	-10.502
▁task	-10.5022
세요	-10.5023
▁말고	-10.5025
▁conducting	-10.5027
기간	-10.5027
▁가능성	-10.5028
▁enhance	-10.5029
▁신경	-10.5031
▁참석	-10.5033
▁수요가	-10.5034
왕	-10.5039
▁표	-10.5041
▁wear	-10.5042
▁affected	-10.5042
▁사건을	-10.5048
▁별표	-10.5052
▁매장	-10.506
▁intelligence	-10.5061
▁구청장에게	-10.5061
▁residential	-10.5073
대표	-10.5079
▁남아	-10.5081
▁이것	-10.5081
▁seat	-10.5081
호에	-10.5088
▁병	-10.5088
▁되	-10.509
▁주말	-10.509
▁Yi	-10.5102
▁guarantee	-10.5102
▁주가	-10.5103
▁인증	-10.5104
▁고려	-10.5106
정책	-10.5108
▁목	-10.5112
▁부인	-10.5113
▁의혹을	-10.5114
free	-10.5119
▁independent	-10.5121
훈	-10.5124
▁counties	-10.5127
▁생각한다	-10.5132
병원	-10.5133
▁비판	-10.5134
▁시도	-10.5136
▁무엇보다	-10.5137
w	-10.5138
너	-10.5139
▁좋다	-10.514
▁spent	-10.5141
▁attracting	-10.5145
▁38	-10.5145
▁신뢰	-10.5146
▁자체가	-10.5146
▁rooms	-10.5146
계획	-10.5148
▁semiconductor	-10.5149
rs	-10.5149
▁couple	-10.5151
▁사랑	-10.5152
▁Economy	-10.5154
▁capacity	-10.5155
▁snow	-10.5162
▁부서	-10.5167
▁가입	-10.5168
▁노인	-10.5169
▁trees	-10.517
▁처벌	-10.517
▁device	-10.5175
▁crimes	-10.5183
ch	-10.5183
▁시장에	-10.5184
▁Under	-10.5186
▁patient	-10.5188
▁갑자기	-10.519
▁내에서	-10.5195
▁nice	-10.5197
▁briefing	-10.5205
▁선물	-10.5206
▁foreigners	-10.5208
▁개정	-10.5209
▁Ma	-10.521
▁지역에서	-10.5213
▁나올	-10.5215
▁제안	-10.5216
일에	-10.5224
▁complaints	-10.5225
▁fixed	-10.5228
▁수정	-10.5229
▁듯	-10.5229
▁갈등	-10.5233
ga	-10.5233
ry	-10.5234
▁violation	-10.5236
▁걸쳐	-10.525
▁집에서	-10.525
액	-10.5254
▁모두가	-10.5257
▁이들의	-10.5258
▁물품	-10.526
▁상대적으로	-10.5265
▁pro	-10.5268
▁dog	-10.527
▁집행	-10.5281
▁soldiers	-10.5283
co	-10.5287
▁mark	-10.5288
▁컴퓨터	-10.5288
▁스마트	-10.5289
income	-10.529
▁discussions	-10.5294
▁J	-10.5296
▁attack	-10.5298
seong	-10.5299
▁theater	-10.5299
▁하겠습니다	-10.5299
▁Therefore	-10.53
▁Through	-10.5303
▁eco	-10.5303
▁kept	-10.5304
변	-10.5306
▁삶의	-10.5314
▁ranked	-10.5317
▁discussed	-10.532
▁처음이다	-10.5323
▁Due	-10.5324
▁France	-10.5324
▁발생하는	-10.5332
업무	-10.5335
▁여야	-10.5336
▁offer	-10.5339
▁normal	-10.5342
▁씨가	-10.5345
▁회담	-10.5345
▁일부를	-10.5346
▁effort	-10.5349
▁dead	-10.5351
ul	-10.5354
▁extra	-10.536
이었던	-10.536
▁길을	-10.5361
▁German	-10.5361
주는	-10.5362
▁admission	-10.5363
▁stopped	-10.5364
▁resolve	-10.5365
▁confirm	-10.5365
▁Prosecutors	-10.5365
▁현장에서	-10.5365
▁실적	-10.537
▁speak	-10.5381
▁무역	-10.5384
▁전용	-10.5384
▁Energy	-10.5384
▁researcher	-10.5385
▁Securities	-10.5387
▁concept	-10.5387
▁아이들	-10.5387
볼	-10.539
▁공격	-10.5393
▁손을	-10.5393
▁표현	-10.5398
▁baseball	-10.5401
▁lived	-10.5404
▁그들이	-10.5405
▁actors	-10.5407
기관	-10.5408
▁관하여	-10.5408
▁learned	-10.5409
▁입	-10.5409
▁등과	-10.5413
▁임명	-10.5413
▁수수료	-10.5413
▁officers	-10.5416
▁Headquarters	-10.5421
▁역	-10.5422
▁따른다	-10.5422
편	-10.5424
곡	-10.5427
▁한국인	-10.5431
▁exact	-10.5436
▁낮	-10.5436
as	-10.5438
▁handle	-10.544
▁돈	-10.544
▁firm	-10.5441
립	-10.5442
▁Jun	-10.5442
▁유치원	-10.5447
▁suspect	-10.5448
▁drinking	-10.5449
kg	-10.5449
협회	-10.5454
▁센터	-10.5454
▁기반	-10.5455
type	-10.5455
lo	-10.5456
향	-10.5456
▁지지	-10.5457
속	-10.5457
▁mental	-10.5457
17	-10.5458
▁공개된	-10.546
▁begin	-10.546
▁맛	-10.5464
▁듣고	-10.5468
▁commission	-10.5468
▁completion	-10.5475
▁정비	-10.5475
▁license	-10.5476
▁열어	-10.548
결	-10.5484
▁livestock	-10.5484
▁커지고	-10.5486
▁Geun	-10.5487
탄	-10.5487
▁invest	-10.549
▁의견이	-10.5491
▁카	-10.5493
▁reducing	-10.5494
▁index	-10.5497
▁적은	-10.5498
▁대로	-10.5498
▁features	-10.5499
자의	-10.55
▁talking	-10.5504
▁참여해	-10.5505
▁36	-10.5505
▁부탁드립니다	-10.5508
▁characters	-10.5512
▁prosecutor	-10.5513
▁functions	-10.5517
▁alleged	-10.5517
▁마무리	-10.5518
▁원내대표	-10.5524
▁노조	-10.5525
▁남은	-10.5532
▁urgent	-10.5534
작	-10.5535
▁favorite	-10.5536
▁reflected	-10.5536
▁core	-10.5537
▁declaration	-10.5537
▁사상	-10.5538
▁상당	-10.554
▁무료	-10.5544
▁runs	-10.5546
▁기대한다	-10.5547
▁하면서	-10.5551
▁개혁	-10.5563
▁있어야	-10.5568
▁checked	-10.557
▁cell	-10.5573
▁baby	-10.5573
▁debate	-10.5574
▁초기	-10.5578
▁deliver	-10.5579
▁MBC	-10.5583
▁부족한	-10.559
투	-10.5591
▁창출	-10.5593
18	-10.5594
▁kinds	-10.561
▁모델	-10.5613
▁pushed	-10.5616
▁수사를	-10.5619
▁먹는	-10.5621
▁드러났다	-10.5623
▁camera	-10.5629
▁suspicion	-10.5632
dae	-10.5632
▁trustee	-10.5639
▁살고	-10.564
죠	-10.5641
▁parliamentary	-10.5644
▁조치	-10.5645
▁사항	-10.5649
▁ten	-10.565
▁excessive	-10.5653
▁확장	-10.5653
▁치	-10.566
▁alternative	-10.5661
▁대법원	-10.5662
졌다	-10.5663
▁곳	-10.5667
▁scored	-10.5667
▁피해가	-10.5674
▁전남	-10.5674
인이	-10.5678
운동	-10.5679
자를	-10.5681
▁장기	-10.5683
▁할인	-10.5686
▁작가	-10.569
▁사망	-10.5691
way	-10.5694
▁bag	-10.5696
▁반면	-10.5699
▁진행된다	-10.57
▁accepted	-10.5701
▁알게	-10.5702
▁stand	-10.5704
end	-10.5705
▁징계	-10.5706
ling	-10.5714
▁구체적인	-10.5715
▁looked	-10.5715
▁younger	-10.5719
▁Today	-10.572
커	-10.5722
▁sending	-10.5724
▁establishing	-10.5725
▁Middle	-10.5726
▁기록했다	-10.5726
▁integrated	-10.5727
▁Investment	-10.5732
▁secured	-10.5736
▁judicial	-10.5739
▁balance	-10.574
▁suddenly	-10.5741
▁animal	-10.5746
▁씨	-10.5748
▁않아요	-10.5748
▁폭행	-10.5756
▁중심	-10.5762
▁제조	-10.5763
▁square	-10.5764
▁발생했다	-10.5768
▁currency	-10.5773
▁interpreted	-10.5773
▁배출	-10.5774
▁Medical	-10.5777
▁오랜	-10.5778
▁minute	-10.5779
▁저에게	-10.5782
▁공연을	-10.5784
▁중국이	-10.5785
상을	-10.5786
▁EU	-10.5789
▁보장	-10.5794
▁marriage	-10.5794
▁display	-10.5797
▁전력	-10.5798
▁suspended	-10.5798
▁kindergartens	-10.5801
▁지적	-10.5802
▁민원	-10.5804
▁gather	-10.5804
▁injured	-10.5806
▁새롭게	-10.5806
▁캐나다	-10.5808
▁ice	-10.5808
han	-10.5809
▁건립	-10.5809
▁Me	-10.581
▁applying	-10.5811
ized	-10.5815
▁seemed	-10.5817
▁멤버	-10.582
▁painting	-10.5827
▁인수	-10.5827
세대	-10.5828
입	-10.5828
▁Rights	-10.583
25	-10.5836
▁교육감	-10.5839
▁지하철	-10.584
▁시작된	-10.584
▁excluded	-10.5841
서울특별시	-10.5843
▁animals	-10.5843
▁의장	-10.5844
▁했는데	-10.5845
▁politics	-10.5846
▁구속	-10.5849
▁완전히	-10.5851
▁comments	-10.5853
했기	-10.5853
▁systems	-10.5854
있는	-10.5855
▁manner	-10.5858
▁갖춘	-10.5859
▁힘든	-10.586
▁뜻을	-10.5861
▁W	-10.5862
▁농업	-10.5862
▁Team	-10.5864
수가	-10.5864
TV	-10.5865
▁judgment	-10.5869
▁subparagraph	-10.5872
▁극	-10.5876
▁text	-10.5877
▁De	-10.5878
▁ICT	-10.5878
▁출장	-10.5881
▁experienced	-10.5886
▁app	-10.5886
▁Unlike	-10.5887
▁offices	-10.5889
해온	-10.5892
▁interests	-10.5895
됐고	-10.5897
▁net	-10.5904
▁proper	-10.5906
▁walking	-10.5908
▁도서관	-10.5909
▁딸	-10.5909
▁PC	-10.5912
▁승리	-10.5915
▁통신	-10.5916
▁scale	-10.592
▁technical	-10.5922
▁presentation	-10.5922
▁한국과	-10.5923
▁위치	-10.5924
들도	-10.5928
▁electricity	-10.5928
▁vulnerable	-10.5934
▁debt	-10.5935
▁수많은	-10.5936
▁reporter	-10.5938
▁하나요	-10.5941
▁rules	-10.5942
▁발견	-10.5942
▁spirit	-10.5942
▁jointly	-10.5944
▁lunch	-10.5946
▁truth	-10.5947
▁직후	-10.595
생활	-10.5954
▁India	-10.5956
▁밥	-10.5957
▁일제	-10.5959
▁위원장	-10.596
▁담은	-10.596
▁대표적인	-10.5962
▁lots	-10.5968
▁historical	-10.597
▁Your	-10.597
▁입고	-10.597
▁trading	-10.5971
시켜	-10.5971
▁홈페이지	-10.5975
▁operator	-10.5977
wook	-10.5978
▁정한	-10.5979
인가요	-10.5981
료	-10.5984
▁암	-10.5985
▁비용을	-10.5987
▁응	-10.5989
브	-10.5989
▁삶을	-10.5996
▁artificial	-10.6
처리	-10.6
▁town	-10.6001
▁강남	-10.6008
▁surrounding	-10.601
하겠다	-10.601
▁제품이	-10.6013
▁먹을	-10.6013
▁구성된	-10.6015
▁outstanding	-10.6017
▁experiences	-10.6018
▁석	-10.6019
▁practical	-10.602
공원	-10.6022
▁Sam	-10.6023
▁기능을	-10.6024
▁southern	-10.6025
언	-10.6028
▁총리	-10.6028
▁designation	-10.6029
그룹	-10.603
▁확인됐다	-10.6034
▁wall	-10.6035
▁후보	-10.6037
▁guidance	-10.604
▁clearly	-10.604
▁몸	-10.6044
di	-10.6046
▁동영상	-10.6051
▁100%	-10.6058
chul	-10.606
▁마케팅	-10.606
▁행복	-10.6063
▁요리	-10.6065
▁점점	-10.6066
▁관련한	-10.6073
▁좋지	-10.6076
▁Nowon	-10.6078
ted	-10.6079
▁lawyer	-10.6081
▁통화	-10.6089
▁생각을	-10.609
▁논란	-10.6091
▁브라질	-10.6091
▁gradually	-10.6095
▁Not	-10.6095
▁기계	-10.6096
▁받아야	-10.6099
run	-10.6103
▁entry	-10.6103
▁우수한	-10.6104
분쯤	-10.6106
pa	-10.6106
▁추진하는	-10.6108
▁바른미래당	-10.6109
주세요	-10.611
▁품질	-10.6114
ant	-10.6114
출	-10.6114
▁overcome	-10.6115
▁제주도	-10.6117
▁향해	-10.6118
▁Did	-10.6123
▁이벤트	-10.6124
40	-10.6127
▁foot	-10.6127
▁orders	-10.6127
▁X	-10.6128
▁Indonesia	-10.6129
▁Joo	-10.6135
▁이유가	-10.6136
▁책임을	-10.6139
회사	-10.6141
▁지급할	-10.6144
▁태국	-10.6149
▁노래	-10.615
▁respect	-10.615
▁foods	-10.6157
▁전자	-10.6158
▁System	-10.616
▁누구나	-10.6162
▁symptoms	-10.6163
▁주장이	-10.6164
▁else	-10.6164
금융	-10.6166
▁양국	-10.6167
스타	-10.6167
▁되나요	-10.617
▁Hak	-10.6172
▁기타	-10.6173
▁sides	-10.6175
▁requires	-10.6183
▁근거	-10.6187
▁원장	-10.6189
▁rent	-10.6196
▁알려진	-10.62
▁L	-10.6206
24	-10.6207
▁완료	-10.6208
사진	-10.6212
▁일찍	-10.6214
▁White	-10.6217
▁예정	-10.6222
만원을	-10.6222
▁Sa	-10.6226
▁기능	-10.623
▁만한	-10.6236
▁금지	-10.6238
▁이유	-10.6238
▁팬	-10.6245
▁국내외	-10.6247
▁공공기관	-10.6249
격	-10.6249
ol	-10.6249
▁strengthening	-10.625
▁stated	-10.6251
▁innovative	-10.6251
▁표시	-10.6255
점을	-10.6255
▁가까이	-10.6262
▁fresh	-10.6265
▁주민들이	-10.6267
▁Yeon	-10.6267
▁필요하다는	-10.6269
▁참여할	-10.6272
▁realize	-10.6277
니까	-10.6277
품	-10.6277
▁한편	-10.6279
▁의견	-10.6284
▁draw	-10.6284
▁곳에	-10.6285
▁식품	-10.6285
▁via	-10.6287
▁repair	-10.6289
▁sister	-10.629
▁600	-10.6296
▁인력	-10.6297
▁continuously	-10.6301
▁회원	-10.6308
▁특징이다	-10.6308
▁civic	-10.631
J	-10.631
▁기금	-10.6311
▁어렵다	-10.6315
▁혐의	-10.6316
▁입장	-10.6316
에게는	-10.6318
▁인터뷰	-10.632
▁certification	-10.6327
▁falls	-10.6329
me	-10.6332
링	-10.6332
▁천	-10.6337
▁creative	-10.634
▁strongly	-10.634
▁회복	-10.6341
▁확정	-10.6347
▁수원	-10.6347
▁Sohn	-10.635
▁높이	-10.6351
▁track	-10.6353
▁토지	-10.6354
▁점이다	-10.6356
▁plastic	-10.6358
▁regardless	-10.6361
▁경기도와	-10.6363
▁recommendation	-10.6363
▁가능성을	-10.6366
라면	-10.6367
▁당장	-10.6374
▁correct	-10.6376
▁인프라	-10.6377
▁만난	-10.6382
▁저희가	-10.6382
▁대변인	-10.6383
▁route	-10.6387
기로	-10.6389
▁지구	-10.639
▁dispute	-10.6394
▁보상	-10.6397
▁distance	-10.64
14	-10.6403
▁범위	-10.6403
Gu	-10.6406
▁criteria	-10.6406
▁memory	-10.6411
▁철도	-10.6413
▁수술	-10.6415
▁interesting	-10.6417
CEO	-10.6418
말	-10.6421
▁sentence	-10.6425
▁과학	-10.6426
▁사과	-10.6428
▁의혹이	-10.643
▁인정	-10.643
▁conservative	-10.6436
▁Bareunmirae	-10.6437
▁언어	-10.6439
▁stone	-10.6442
▁누가	-10.6447
▁Chungcheong	-10.6447
▁잠	-10.6447
▁크기	-10.6448
▁applicants	-10.6448
kyung	-10.6451
▁committed	-10.6453
▁발표했다	-10.6453
US	-10.6454
▁중요하다	-10.6457
▁주의	-10.6458
삼	-10.6458
▁대체	-10.6458
옥	-10.646
▁incurred	-10.6463
▁Monday	-10.647
▁대기	-10.6476
츠	-10.6481
▁선수들이	-10.6481
▁tickets	-10.6481
▁하락	-10.6482
▁쓴	-10.6484
▁전면	-10.6485
▁이어질	-10.6489
▁장관은	-10.6494
▁위험	-10.6494
▁Civil	-10.6494
▁만날	-10.6495
▁spot	-10.6495
▁install	-10.6496
▁recovery	-10.65
▁Pyeongtaek	-10.65
▁화장품	-10.6501
▁San	-10.6501
▁37	-10.6502
경기도	-10.6505
▁laws	-10.6505
▁Ja	-10.6506
▁부담이	-10.6507
▁chicken	-10.6507
▁ideas	-10.6508
▁스타	-10.6508
▁발급	-10.6509
거리	-10.6511
▁자전거	-10.6514
▁salary	-10.6514
▁meat	-10.6517
주택	-10.6517
친	-10.6517
▁suspension	-10.652
▁machine	-10.6521
▁보관	-10.6524
▁Film	-10.6525
▁김씨	-10.6528
▁Children	-10.6529
▁노력하여야	-10.6533
jong	-10.6535
▁가치	-10.6537
▁평양	-10.6538
▁signs	-10.6541
▁여행을	-10.6542
탈	-10.6545
▁upon	-10.6548
▁독립	-10.655
▁encourage	-10.6554
▁regulation	-10.656
joon	-10.6562
▁approved	-10.6564
▁제외한	-10.6573
▁coast	-10.6573
▁Consider	-10.6574
▁깊은	-10.6577
▁공간	-10.6577
▁노동자	-10.6579
▁okay	-10.6582
▁청	-10.6587
▁둔	-10.6588
▁aimed	-10.6589
▁path	-10.6592
▁상황에	-10.6594
▁occurs	-10.6594
▁끝에	-10.6596
▁그간	-10.66
▁스페인	-10.66
빈	-10.6601
▁그러면	-10.6602
▁희망	-10.6605
▁failure	-10.6605
숙	-10.6606
▁119	-10.6606
▁master	-10.6612
▁thanks	-10.6614
▁remain	-10.6614
called	-10.6615
▁conversation	-10.6616
▁열렸다	-10.662
▁혹은	-10.6624
▁나선다	-10.6625
▁판결	-10.6625
▁Friday	-10.6628
7%	-10.6632
▁Arts	-10.6633
▁tree	-10.6635
▁레	-10.6636
▁교사	-10.6636
▁t	-10.6638
long	-10.6646
▁방법을	-10.6647
▁키	-10.6649
▁Canada	-10.665
▁종료	-10.6655
▁월드컵	-10.6658
▁gets	-10.6664
▁120	-10.6666
▁될까요	-10.6667
▁만들고	-10.6669
▁최소	-10.6669
교회	-10.6671
▁shape	-10.6673
▁롯데	-10.6675
▁그래도	-10.6677
▁subsidize	-10.6678
▁체결	-10.6681
▁ingredients	-10.6682
▁evening	-10.6684
시키는	-10.6689
겠다	-10.6691
▁transactions	-10.6693
▁정한다	-10.6693
be	-10.6693
▁subparagraphs	-10.6694
▁reporting	-10.6704
▁폐지	-10.6706
▁발생할	-10.6711
▁disclosure	-10.6713
▁이번이	-10.6717
▁자산	-10.6717
▁lose	-10.672
▁사례	-10.6721
▁consulting	-10.6723
▁stars	-10.6723
▁regime	-10.6723
▁Australia	-10.6724
▁강력한	-10.6726
▁알려져	-10.6726
▁외에	-10.6729
▁변화가	-10.6733
▁rich	-10.6733
촌	-10.6741
gil	-10.6744
풍	-10.6746
▁cancel	-10.6751
▁보유한	-10.6753
하겠다고	-10.6753
▁drawn	-10.6756
▁corruption	-10.6757
▁false	-10.676
▁다수	-10.6761
▁guide	-10.6764
▁grounds	-10.6768
▁메일	-10.6771
▁save	-10.6771
▁10,000	-10.6777
▁departments	-10.678
▁김문수	-10.6781
▁transaction	-10.6785
50	-10.6787
▁Google	-10.679
▁Ryu	-10.6794
▁겪고	-10.6797
▁homes	-10.6799
ful	-10.68
골	-10.6801
▁enforcement	-10.6803
▁후반	-10.6804
▁통	-10.6807
▁cryptocurrency	-10.6808
▁connected	-10.681
▁적극적인	-10.6811
▁운영을	-10.6811
▁golf	-10.6813
▁암호화폐	-10.6816
▁tasks	-10.6816
위에	-10.6819
명과	-10.6819
of	-10.6824
▁attracted	-10.6824
▁52	-10.6828
▁종	-10.6829
▁setting	-10.6829
▁finance	-10.683
▁수상	-10.6835
▁있을지	-10.6836
▁rescue	-10.684
▁checking	-10.684
▁Just	-10.6847
▁원활	-10.6849
▁시장의	-10.6851
▁되었습니다	-10.6855
▁amid	-10.6856
▁distributed	-10.6859
▁긴	-10.686
▁그린	-10.6861
대를	-10.6865
▁시작으로	-10.6867
▁평소	-10.6869
▁finish	-10.687
▁attitude	-10.6871
▁직업	-10.6871
▁composed	-10.6872
▁Olympics	-10.6875
▁Soon	-10.6877
▁행사는	-10.6882
▁buses	-10.6886
▁청소	-10.6887
▁rural	-10.6888
▁비중이	-10.6893
▁우승	-10.6894
▁frequently	-10.6895
▁damages	-10.6902
▁선수들	-10.6902
▁대책	-10.6902
총	-10.6908
▁외국	-10.6909
▁flow	-10.6909
▁포함해	-10.691
▁expert	-10.691
령	-10.6914
▁childcare	-10.6915
▁심의를	-10.6917
갈	-10.6918
▁Power	-10.6918
▁기자회견	-10.692
▁efficiency	-10.6922
▁‘2018	-10.6923
▁corporations	-10.6923
▁사전에	-10.6926
▁패션	-10.6927
▁주식	-10.693
▁drunk	-10.6931
▁귀	-10.6932
▁보급	-10.6932
▁concluded	-10.6933
하였습니다	-10.6933
ne	-10.6934
▁재난	-10.6941
▁Jeolla	-10.6941
▁꽃	-10.6943
▁의혹	-10.6944
▁unfair	-10.6945
▁네트워크	-10.6946
▁Award	-10.6949
▁Road	-10.695
▁bottom	-10.6953
▁importance	-10.6953
▁자유	-10.6956
▁선언	-10.6958
▁현실	-10.6963
▁eventually	-10.6963
▁도착	-10.6964
활동	-10.6965
담	-10.6966
▁비행기	-10.6967
▁초청	-10.6968
▁발굴	-10.6969
▁tired	-10.697
▁register	-10.697
▁seek	-10.697
일에는	-10.6975
▁멕시코	-10.6977
▁goals	-10.6981
▁ran	-10.6983
▁보낸	-10.6983
▁느낄	-10.6985
▁menu	-10.6988
▁부품	-10.6988
만큼	-10.6989
▁제품은	-10.699
▁기초	-10.699
▁fight	-10.6991
▁실현	-10.6994
ter	-10.6996
▁뉴스	-10.6998
▁폼페이오	-10.6999
국가	-10.7001
▁터키	-10.7003
개를	-10.7003
▁분양	-10.7004
▁나갈	-10.7007
▁justice	-10.7007
▁videos	-10.701
▁사랑을	-10.7016
ton	-10.7018
▁drive	-10.7021
▁일대	-10.7022
▁Da	-10.7023
▁정치적	-10.7027
▁조건	-10.7028
▁essential	-10.7028
▁Cheonan	-10.7029
▁포함된	-10.7031
▁Law	-10.7031
▁cool	-10.7033
▁maximum	-10.7035
학과	-10.7035
▁집단	-10.7037
▁putting	-10.7037
▁국토교통부	-10.7038
▁latest	-10.7038
홍	-10.704
▁Il	-10.7041
▁불이	-10.7042
▁감사합니다	-10.7043
지가	-10.7044
▁loved	-10.7045
▁오른	-10.7047
▁outdoor	-10.7047
▁못해	-10.7049
었던	-10.7049
▁kindergarten	-10.7052
▁rule	-10.7053
▁believes	-10.7054
▁(3)	-10.7056
▁gives	-10.7058
▁징수	-10.7059
▁진술	-10.706
▁와서	-10.706
▁seeing	-10.7061
▁announce	-10.7062
class	-10.7062
▁argued	-10.7068
▁미디어	-10.7071
▁친환경	-10.7071
▁수는	-10.7075
▁Ga	-10.7076
▁obtain	-10.7077
▁섬	-10.708
▁1000	-10.7084
▁운전	-10.7087
▁benefit	-10.7087
21	-10.709
▁listed	-10.7091
▁대북	-10.7099
▁institute	-10.71
▁절대	-10.7106
▁전까지	-10.7109
▁warning	-10.7109
▁강원	-10.7109
▁방안	-10.7114
▁SBS	-10.7116
▁협약	-10.7116
▁아이들이	-10.7117
▁경제적	-10.7118
▁겨울	-10.7123
▁add	-10.7125
▁watched	-10.713
단지	-10.7136
▁국회의원	-10.7136
▁Xi	-10.7139
▁디	-10.7139
▁인권	-10.714
조차	-10.714
▁재판	-10.7142
▁premium	-10.7144
▁39	-10.7152
▁이건	-10.7153
▁achieved	-10.7154
▁심각한	-10.7157
▁메뉴	-10.7158
▁울산	-10.7158
▁간의	-10.7162
▁있음을	-10.7162
▁일은	-10.7165
되었습니다	-10.7168
▁exceed	-10.7171
관련	-10.7172
▁models	-10.7172
▁appeal	-10.7173
▁Mexico	-10.7173
▁상호	-10.7174
▁하게	-10.7175
▁글을	-10.7177
▁1.5	-10.7178
▁청구	-10.7178
▁모집	-10.7179
▁2,000	-10.7181
▁Rule	-10.7184
▁시대	-10.7184
▁문화를	-10.7188
제도	-10.719
▁helped	-10.7193
▁주목된다	-10.7193
▁위로	-10.7195
▁inconvenience	-10.7201
▁musical	-10.7201
▁통과	-10.7208
▁Grand	-10.721
▁운용	-10.7216
80	-10.7217
▁활용해	-10.7218
왔다	-10.7224
▁왕	-10.7227
▁대해서도	-10.7231
▁lines	-10.7232
▁Supervisory	-10.7232
▁sometimes	-10.7235
▁사업은	-10.7243
▁부족	-10.7245
▁bio	-10.7245
▁strike	-10.7245
▁port	-10.7246
▁designate	-10.7247
▁French	-10.7248
▁haven	-10.725
▁placed	-10.7251
▁문제로	-10.7251
▁complaint	-10.7253
▁인정하는	-10.7253
▁용	-10.7254
▁donation	-10.7256
제를	-10.7257
▁officially	-10.7258
▁위촉	-10.7259
▁승인	-10.7261
단계	-10.7266
▁개의	-10.7267
▁causes	-10.7268
▁CJ	-10.7268
▁포장	-10.7268
▁pick	-10.7269
개국	-10.7271
▁시민들이	-10.7279
▁Stadium	-10.7282
▁awareness	-10.7282
▁Rep	-10.7284
없이	-10.7286
▁어린	-10.7288
시킬	-10.7292
▁century	-10.7297
▁고객이	-10.73
▁emerged	-10.7302
▁들어가	-10.7304
▁perfect	-10.7307
▁실험	-10.7311
▁공연이	-10.7313
▁미술	-10.7315
▁광	-10.7319
일간	-10.732
▁wages	-10.7323
~	-10.7325
▁Seongnam	-10.7327
만이	-10.7328
▁형성	-10.7329
▁감독은	-10.7337
자들이	-10.7341
▁island	-10.7342
▁venture	-10.7343
▁Gyeongnam	-10.7346
▁News	-10.7349
▁Family	-10.735
▁suit	-10.7351
▁주소	-10.7352
▁earnest	-10.7353
▁sentiment	-10.7355
은행	-10.7358
▁올해는	-10.7359
▁취지	-10.7364
▁foster	-10.7365
ups	-10.7367
▁잔	-10.737
▁자는	-10.7371
▁기업들	-10.7372
▁장면	-10.7373
▁단속	-10.7375
▁나무	-10.738
▁벌	-10.7381
▁친	-10.7383
▁특수	-10.7383
▁birthday	-10.7383
릴	-10.7388
▁priority	-10.7392
▁affiliated	-10.7397
▁married	-10.7397
▁West	-10.7399
▁doctor	-10.7402
▁scandal	-10.7403
bi	-10.7403
▁Hallyu	-10.7404
▁맞	-10.7404
▁자문	-10.7408
세기	-10.741
▁cosmetics	-10.7413
▁개별	-10.7413
극	-10.7417
▁Saturday	-10.7418
▁아이디어	-10.7422
▁purchased	-10.7422
▁추	-10.7423
▁cooperative	-10.7423
▁뜨거운	-10.7424
▁법안	-10.7424
▁늘고	-10.7424
▁그것이	-10.7425
▁수준	-10.7428
개소	-10.7431
▁우리에게	-10.7432
▁상반기	-10.7435
▁가동	-10.744
▁league	-10.7445
▁맞춤형	-10.7446
▁싶다	-10.7453
▁talent	-10.7456
▁마치	-10.7461
▁분석했다	-10.7461
▁앨범	-10.7466
▁supplement	-10.7467
년에는	-10.7471
▁가면	-10.7476
▁당부했다	-10.7481
연구	-10.7482
▁이사	-10.7483
▁뭐	-10.7483
▁upper	-10.7484
sang	-10.7488
들에	-10.7488
함	-10.7489
▁경기를	-10.7493
▁confidence	-10.7496
▁사례가	-10.75
▁Kakao	-10.7505
성과	-10.7506
▁팀이	-10.7506
▁전략	-10.7511
▁연계	-10.7511
▁캐릭터	-10.7513
▁fuel	-10.7519
▁courses	-10.7524
▁기업들이	-10.7526
겠다는	-10.7527
▁범행	-10.7532
행정	-10.7539
▁계산	-10.754
▁emerging	-10.7542
분야	-10.7542
▁debut	-10.7543
▁names	-10.7545
▁subjects	-10.7546
▁스타트업	-10.7547
이라도	-10.7549
▁border	-10.7549
▁인천광역시	-10.755
▁Speaker	-10.7552
▁보조	-10.7552
▁values	-10.7555
▁상품을	-10.7556
▁diplomatic	-10.7557
▁advice	-10.7559
ni	-10.7559
▁고려해	-10.7563
▁발행	-10.7563
▁Paju	-10.7565
▁그런데	-10.7565
▁challenge	-10.7568
테	-10.7572
▁happen	-10.7573
▁무엇을	-10.7573
tic	-10.7577
▁formulate	-10.7578
myung	-10.7589
▁extended	-10.7602
▁글	-10.7603
▁계기로	-10.7607
▁newspaper	-10.7609
해주세요	-10.7609
▁의결	-10.761
▁Meteorological	-10.7611
▁suitable	-10.7611
▁enjoyed	-10.7614
▁기도	-10.7616
▁차원에서	-10.7618
▁Dynasty	-10.7622
▁firms	-10.7622
▁hurt	-10.7625
▁disciplinary	-10.7625
▁가치를	-10.7626
▁답	-10.7626
▁levels	-10.7627
서는	-10.7632
▁선수가	-10.7634
▁blue	-10.7637
▁번역	-10.7638
▁sectors	-10.7638
▁보존	-10.7639
ad	-10.764
▁passing	-10.7643
▁shipping	-10.7646
퍼	-10.7647
려고	-10.7647
▁진짜	-10.765
▁말씀	-10.765
▁방법으로	-10.765
▁appears	-10.7651
▁여부	-10.7655
▁정리	-10.7657
▁spreading	-10.7658
▁저의	-10.7663
됐지만	-10.7669
▁drugs	-10.767
▁2022	-10.7671
▁fifth	-10.7672
▁confirmation	-10.7675
▁broken	-10.7676
▁지자체	-10.7677
▁올랐다	-10.7677
▁경기가	-10.7682
▁못할	-10.7686
한다면	-10.7686
70	-10.7688
▁tea	-10.7689
▁figures	-10.7691
▁passengers	-10.7692
▁요금	-10.7693
▁communicate	-10.7694
▁equipped	-10.7695
▁Green	-10.7698
▁발송	-10.7699
▁배치	-10.77
▁판	-10.7702
▁곳은	-10.7705
건설	-10.7707
▁보험	-10.7707
▁메시지를	-10.7709
하려면	-10.771
is	-10.771
la	-10.771
▁것인지	-10.7711
▁grades	-10.7711
▁영상을	-10.7716
도로	-10.7719
▁judged	-10.7721
▁extent	-10.7721
항제	-10.7722
됐던	-10.7726
▁Pohang	-10.7727
택	-10.7727
yang	-10.7729
▁individuals	-10.773
▁ready	-10.773
▁expression	-10.7732
▁효율적인	-10.7733
▁48	-10.7735
▁확인하고	-10.7736
jun	-10.7738
▁transferred	-10.7739
▁execution	-10.7739
▁lectures	-10.774
60	-10.7743
▁비즈니스	-10.7747
▁분야에서	-10.7747
▁sharp	-10.7748
soon	-10.775
▁입주	-10.7751
▁slow	-10.7752
▁주차	-10.7753
새	-10.7753
li	-10.7756
▁comfortable	-10.7762
con	-10.7765
▁concentration	-10.7765
▁aware	-10.7765
워	-10.7766
com	-10.7766
▁43	-10.7767
▁양성	-10.7767
▁태풍	-10.7767
▁이어지고	-10.7767
▁storage	-10.7768
▁어린이집	-10.7774
▁돌	-10.7782
▁내고	-10.7783
▁회계	-10.7786
▁책임	-10.7787
▁band	-10.7789
▁곳에서	-10.779
▁operations	-10.7792
시까지	-10.7792
▁수집	-10.7793
▁쓰는	-10.7793
▁stations	-10.7793
▁explanation	-10.7797
ate	-10.7797
▁mouth	-10.7798
▁설명이	-10.7799
▁holidays	-10.7801
▁교환	-10.7804
▁feature	-10.7805
▁British	-10.781
▁forum	-10.781
▁mostly	-10.7811
▁문의	-10.7812
▁올라	-10.7812
▁토	-10.7813
▁증거	-10.7815
▁가득	-10.7819
▁2016,	-10.782
▁sample	-10.782
같은	-10.782
▁불러	-10.7825
▁pollution	-10.7826
▁건축물	-10.7828
▁combined	-10.7833
▁La	-10.7835
▁당일	-10.7837
방송	-10.7837
▁colors	-10.7838
자금	-10.784
▁작년	-10.784
▁unification	-10.7844
▁hospitals	-10.7846
▁treated	-10.7847
▁55	-10.7847
▁공모	-10.785
▁실시한	-10.7855
▁Society	-10.7856
▁꿈	-10.7856
▁demanded	-10.7857
▁설정	-10.7859
▁secret	-10.786
록	-10.7861
▁원래	-10.7861
여개	-10.7861
▁invited	-10.7864
▁가능	-10.7866
▁역량	-10.7866
▁deadline	-10.7868
▁점도	-10.7869
▁Christian	-10.7871
▁complexes	-10.7871
▁host	-10.7875
▁응원	-10.7875
▁와	-10.7877
▁notified	-10.7877
▁이름	-10.7877
사를	-10.788
▁당초	-10.7881
▁applications	-10.7882
▁서류	-10.7885
▁stance	-10.7885
「	-10.7886
▁districts	-10.789
한테	-10.7893
▁기억	-10.7894
▁좋을	-10.7901
됨에	-10.7902
▁suicide	-10.7903
▁Pompeo	-10.7904
▁finding	-10.7906
▁잡고	-10.7907
▁굉장히	-10.7909
▁Bae	-10.7913
▁2006	-10.7916
▁그때	-10.7916
▁단계	-10.7917
▁방법	-10.7919
▁contribution	-10.7922
▁sweet	-10.7922
체험	-10.7924
축	-10.7931
▁혜택을	-10.7931
▁Western	-10.7933
espite	-10.7939
▁comprised	-10.7939
▁페이스북	-10.7943
z	-10.7945
▁recognition	-10.7946
▁arrive	-10.7948
알	-10.7949
▁drew	-10.7951
의회	-10.7954
▁carrying	-10.7954
▁worry	-10.7955
▁Jesus	-10.7959
▁탈	-10.7959
est	-10.796
▁연출	-10.796
▁Ye	-10.796
▁약속	-10.7963
스트	-10.7964
▁지시	-10.7965
▁shooting	-10.7967
▁대폭	-10.797
달러	-10.7973
▁단축	-10.7975
▁injury	-10.7975
시스템	-10.7975
▁SMEs	-10.7976
▁topic	-10.7978
▁smooth	-10.7979
가구	-10.7981
▁가능합니다	-10.7982
▁소송	-10.7984
▁곳으로	-10.7985
▁유출	-10.7992
▁도전	-10.7993
▁조기	-10.7995
▁Be	-10.7998
▁delicious	-10.7999
▁있으나	-10.7999
▁신문	-10.8
여명의	-10.8
▁BMW	-10.8002
▁meals	-10.8003
▁출발	-10.8007
(1	-10.8008
▁actions	-10.8008
▁버	-10.8009
▁샘플	-10.8009
독	-10.801
▁그만큼	-10.8017
▁block	-10.802
▁Company	-10.8024
▁직장	-10.8024
쳐	-10.8025
▁역대	-10.803
▁shops	-10.8032
▁이곳	-10.8034
▁풀	-10.8034
▁공항	-10.8038
▁offered	-10.804
▁allowing	-10.8045
ance	-10.8045
▁눈이	-10.8046
bu	-10.8047
ak	-10.8047
▁학교에	-10.8048
▁flower	-10.8057
▁꿈을	-10.8058
▁Hanwha	-10.8059
▁교	-10.806
예요	-10.8063
▁Shim	-10.8064
▁막	-10.8065
자로	-10.8066
▁museum	-10.8066
▁투표	-10.8068
▁취임	-10.8068
▁치료를	-10.807
▁지원에	-10.8071
▁lowest	-10.8072
▁끌고	-10.8072
▁시선	-10.8078
▁performing	-10.808
▁있으니	-10.808
▁Have	-10.8083
▁claims	-10.8089
▁maintained	-10.809
▁더불어	-10.8091
▁자리에	-10.8097
▁proportion	-10.8097
▁비중	-10.8099
▁국립	-10.81
▁증시	-10.8102
▁재판부	-10.8105
ru	-10.8107
▁flowers	-10.8107
▁mixed	-10.8112
▁파일	-10.8118
▁feelings	-10.8119
▁뿐만	-10.8122
명은	-10.8124
Do	-10.8126
▁그를	-10.8128
▁contracts	-10.8129
▁국내에서	-10.813
▁힘이	-10.8134
▁uses	-10.8136
▁살아	-10.8136
▁새벽	-10.8143
▁면접	-10.8146
▁악화	-10.8147
▁farm	-10.8148
충	-10.8149
▁매각	-10.8151
▁behavior	-10.8155
▁말레이시아	-10.8155
▁아내	-10.8155
▁Seocho	-10.8158
▁Changwon	-10.8159
▁도심	-10.8161
▁이끄는	-10.8162
▁한국을	-10.8162
▁전부터	-10.8166
▁5,000	-10.8167
▁요소	-10.818
비를	-10.8185
▁statutes	-10.8188
▁procedure	-10.8188
되	-10.819
▁현금	-10.819
▁obtained	-10.8191
▁예측	-10.8197
▁공개했다	-10.8201
▁gain	-10.8201
▁개방	-10.8202
▁미치는	-10.8207
▁suspicions	-10.8209
▁cooking	-10.8209
▁부부	-10.8211
▁방법이	-10.8218
▁지하	-10.8218
▁교육부	-10.8219
▁artist	-10.8219
▁articles	-10.8221
▁외교	-10.8223
▁형태	-10.8224
▁contributed	-10.8229
▁conflicts	-10.823
▁요구하는	-10.823
▁여성이	-10.823
Y	-10.8231
하되	-10.8233
▁유엔	-10.8235
▁customized	-10.8237
▁guidelines	-10.8237
▁학생이	-10.8238
▁없어서	-10.824
▁battle	-10.824
▁여의도	-10.8245
▁하나로	-10.8247
▁sad	-10.8248
▁hydrogen	-10.8249
je	-10.8252
▁naturally	-10.8254
▁Operation	-10.8256
um	-10.8257
▁같은데	-10.8258
▁과정	-10.8259
구역	-10.8262
손	-10.8264
▁가게	-10.8264
▁신설	-10.8267
▁안정	-10.8267
▁nearly	-10.8268
▁난민	-10.8268
▁YouTube	-10.8271
ex	-10.8273
▁위원회는	-10.8274
▁cross	-10.8276
▁미만	-10.8278
▁Zone	-10.8278
▁보이지	-10.8282
▁negotiation	-10.8283
돌	-10.8284
▁diverse	-10.8285
▁이제는	-10.8285
하려	-10.8288
▁반환	-10.8293
▁bonds	-10.8294
▁초등학교	-10.8294
▁수용	-10.8295
▁납부	-10.8297
▁검증	-10.8298
▁Yeong	-10.83
▁입은	-10.8308
▁efficiently	-10.8312
▁망	-10.8312
▁시각	-10.8313
▁수능	-10.8314
▁identified	-10.8315
▁phenomenon	-10.8315
▁signing	-10.8319
나무	-10.832
▁들었다	-10.832
▁reply	-10.8322
▁slightly	-10.8322
et	-10.8324
▁ones	-10.8326
▁실행	-10.8328
술	-10.8329
▁그녀가	-10.8329
▁임기	-10.8331
▁전년	-10.8332
▁이사장	-10.8332
▁agree	-10.8334
력이	-10.8334
▁Kwang	-10.8336
▁올린	-10.8337
▁사이에서	-10.8339
▁이유를	-10.834
▁일본의	-10.8345
▁Marine	-10.8347
▁입학	-10.8348
▁Global	-10.8348
▁실무	-10.835
▁개편	-10.835
▁아니면	-10.8351
▁honor	-10.8353
▁통하여	-10.8355
만의	-10.8357
▁represent	-10.8358
▁3,000	-10.836
▁exclusive	-10.8361
Korea	-10.8361
eup	-10.8361
▁Wednesday	-10.8361
▁Yeouido	-10.8365
▁한국은	-10.8368
▁투어	-10.8368
ies	-10.8369
▁수리	-10.8375
▁반영	-10.8375
▁careful	-10.838
▁예정입니다	-10.8387
▁alcohol	-10.8389
▁시간에	-10.839
▁concentrated	-10.8392
▁canceled	-10.8395
▁Academy	-10.8396
▁Gangneung	-10.8396
호선	-10.8399
호서식에	-10.8408
▁Philippines	-10.8411
▁promised	-10.8411
▁ruled	-10.8413
▁자세	-10.8414
▁pushing	-10.8415
▁생각하는	-10.8415
▁수학	-10.8416
호서식의	-10.8419
▁당신과	-10.842
27	-10.8421
▁penalty	-10.8427
▁author	-10.8428
▁전망된다	-10.8429
▁카페	-10.8432
▁초과	-10.8433
기는	-10.8433
▁콘서트	-10.8436
▁시군	-10.8438
▁정부와	-10.8438
▁하였다	-10.8441
▁전망이	-10.8442
▁입을	-10.8447
섭	-10.8447
▁rapid	-10.845
▁aged	-10.8451
▁않게	-10.8452
▁70%	-10.8452
▁찾은	-10.8453
▁싶은데	-10.8453
▁Yun	-10.8454
▁사유가	-10.8455
▁느낌	-10.8458
▁벌써	-10.8459
▁meantime	-10.846
ci	-10.846
▁높아지고	-10.8462
▁점차	-10.8465
▁Apple	-10.8466
90	-10.8468
▁ministry	-10.8471
▁상영	-10.8472
▁봐	-10.8474
▁토대로	-10.8476
per	-10.8477
▁42	-10.8479
▁Sunday	-10.848
▁enterprise	-10.8484
▁Motors	-10.8485
▁요	-10.8486
▁involving	-10.849
▁awarded	-10.8492
▁예산을	-10.8493
▁쓸	-10.8495
▁declared	-10.8498
▁ease	-10.8498
▁convenient	-10.8501
▁대기업	-10.8505
▁Free	-10.8506
▁이어졌다	-10.8506
▁투	-10.8507
▁typhoon	-10.8507
버스	-10.8507
▁위원장의	-10.8507
▁팬들이	-10.851
▁테스트	-10.8511
style	-10.8511
이면	-10.8512
▁football	-10.8515
▁teenagers	-10.8517
▁세부	-10.8519
되도록	-10.852
▁가치가	-10.8521
▁either	-10.8522
▁기부	-10.8523
▁전북	-10.8527
▁진행되는	-10.8528
▁plays	-10.8531
▁점은	-10.8531
▁250	-10.8532
▁떨어진	-10.8532
▁mail	-10.8535
▁시장을	-10.8538
▁stress	-10.8538
▁athletes	-10.8539
▁자원	-10.854
tech	-10.854
▁subsidy	-10.8541
▁Workers	-10.8546
▁wake	-10.8547
▁Music	-10.8547
▁절반	-10.8549
율	-10.8549
AI	-10.8554
▁졸업	-10.8555
▁진료	-10.8557
▁successfully	-10.8557
▁향한	-10.8558
▁고등학교	-10.8559
▁문서	-10.8559
▁Chuseok	-10.856
▁Community	-10.8561
▁아이돌	-10.8564
해도	-10.857
▁지속적인	-10.857
▁aid	-10.8572
▁inevitable	-10.8572
▁무대	-10.8574
▁폐	-10.8578
▁축소	-10.8579
▁자신들	-10.8588
▁배달	-10.859
▁문건	-10.8591
막	-10.8592
by	-10.8592
▁해석	-10.8595
▁결론	-10.8598
신청	-10.86
▁factor	-10.86
▁isn	-10.8603
▁Yongin	-10.8606
▁연주	-10.8606
▁offering	-10.8607
▁closely	-10.8612
▁shareholders	-10.8616
]	-10.8617
▁확인해	-10.862
▁prime	-10.862
▁Ansan	-10.8621
▁통계	-10.8622
▁시기	-10.8624
▁옷	-10.8629
▁exposed	-10.863
패	-10.8633
▁문제에	-10.8634
하신	-10.8635
▁앞둔	-10.8636
▁의미를	-10.8641
▁보유	-10.8643
▁operators	-10.8644
▁규칙	-10.8644
▁80%	-10.8646
▁이메일	-10.8647
▁프로	-10.8647
▁Medium	-10.8649
▁losing	-10.8649
▁숨진	-10.865
▁출석	-10.8653
▁이름이	-10.8654
▁spending	-10.8655
▁managing	-10.8655
▁국회에서	-10.8658
▁하되	-10.8659
▁Yongsan	-10.8661
▁학부모	-10.8663
▁보여주는	-10.8664
▁써	-10.8665
▁현황	-10.8667
▁과제	-10.8667
▁studies	-10.8668
▁풀이된다	-10.8668
▁의원의	-10.8669
▁Forest	-10.8669
▁적지	-10.8669
▁deliberate	-10.867
▁rating	-10.8671
▁plane	-10.8671
▁fiscal	-10.8674
▁engaged	-10.8677
▁폭력	-10.8683
▁40%	-10.8683
▁노사	-10.8683
▁사람에게	-10.8684
슨	-10.8687
▁전반	-10.8691
▁Agriculture	-10.8694
▁늘어난	-10.8694
▁환불	-10.8696
▁정착	-10.8698
▁wedding	-10.8701
밥	-10.8701
▁collapse	-10.8703
▁vision	-10.8704
▁buying	-10.8707
▁나중에	-10.8707
▁mass	-10.8708
▁위협	-10.8708
▁Love	-10.8712
▁dropped	-10.8713
▁생각해	-10.8716
▁클럽	-10.8716
▁승인을	-10.8717
▁직원이	-10.8718
밖에	-10.8719
▁competitive	-10.8721
▁비밀	-10.8721
▁이탈리아	-10.8729
▁2005	-10.873
▁임시	-10.8732
ated	-10.8732
da	-10.8735
▁statistics	-10.8735
▁imposed	-10.8737
▁이용하는	-10.8737
▁DMZ	-10.8738
▁inform	-10.8739
▁bed	-10.8745
▁sluggish	-10.8745
▁소상공인	-10.8746
▁후보가	-10.8747
▁전개	-10.875
▁최초	-10.8752
▁tariffs	-10.8754
▁weapons	-10.8755
ine	-10.8756
▁Would	-10.8757
3%	-10.8759
▁44	-10.8761
▁이용한	-10.8762
▁grown	-10.8764
▁추석	-10.8769
▁dark	-10.8769
▁handed	-10.8769
▁이른바	-10.8771
ce	-10.8772
거래	-10.8773
joo	-10.8776
▁존재	-10.8777
▁pilot	-10.8777
▁개설	-10.8779
▁상처	-10.878
▁불리는	-10.8781
▁높아	-10.8783
▁stability	-10.8784
▁organize	-10.8786
▁식당	-10.879
필	-10.879
▁서류를	-10.8793
28	-10.8796
사업을	-10.8797
▁달하는	-10.8798
▁오픈	-10.8801
▁hiring	-10.8803
▁분리	-10.8807
▁관계를	-10.8807
▁gained	-10.8808
▁올림픽	-10.8808
▁Bureau	-10.881
▁복	-10.8811
▁Brazil	-10.8811
▁기회	-10.8812
▁직	-10.8816
▁찾을	-10.8817
26	-10.8817
▁밖의	-10.882
▁covered	-10.882
▁출연	-10.8822
▁Unification	-10.8823
▁losses	-10.8825
▁remove	-10.8826
▁이것이	-10.8827
▁Mo	-10.8829
▁둔화	-10.8829
▁교수가	-10.8831
▁전시회	-10.8833
▁farms	-10.8834
▁공정위	-10.8835
곤	-10.8836
▁세계적인	-10.8836
▁동물	-10.8837
협력	-10.8837
▁관련하여	-10.8837
▁Temple	-10.8842
▁한국이	-10.8842
▁religious	-10.8844
올	-10.8846
▁army	-10.885
▁분위기	-10.8854
▁resolved	-10.8854
▁funeral	-10.8855
▁안전한	-10.8857
▁surface	-10.8858
▁자격	-10.8861
▁선임	-10.8862
▁국	-10.8863
▁begun	-10.8864
악	-10.8868
▁hike	-10.887
▁100,000	-10.8872
▁충북	-10.8873
▁containing	-10.8874
▁disposal	-10.8875
▁있었지만	-10.8876
▁활용한	-10.8879
▁murder	-10.888
▁비용이	-10.888
▁version	-10.8881
▁powerful	-10.8882
▁Thailand	-10.8882
▁Tokyo	-10.8882
여성	-10.8883
▁향	-10.8887
▁monitoring	-10.8887
▁기술이	-10.8889
▁펀드	-10.8889
▁mutual	-10.8893
▁외에도	-10.8895
▁replace	-10.8897
▁initial	-10.8899
▁tests	-10.89
▁voices	-10.8901
▁Bang	-10.8903
▁노원구	-10.8904
9%	-10.891
▁beer	-10.8911
8%	-10.8916
▁evaluated	-10.8917
▁산하	-10.8917
▁안건	-10.8919
▁cards	-10.892
기구	-10.8922
▁사업의	-10.8925
▁degree	-10.8926
▁semester	-10.8928
▁경기도의	-10.8928
▁행	-10.8929
▁투입	-10.8932
▁소식을	-10.8933
▁dialogue	-10.8934
▁pop	-10.8936
▁반복	-10.8937
▁본격적	-10.8939
bin	-10.894
이기도	-10.8941
▁몽골	-10.8941
▁받게	-10.8943
▁목표로	-10.8945
▁supervision	-10.8947
▁Beijing	-10.8949
▁본격	-10.895
▁Innovation	-10.895
▁engine	-10.8951
▁곡	-10.8952
▁수준의	-10.8953
▁Army	-10.8955
▁했다고	-10.8955
▁bills	-10.896
▁Gyeongsangnam	-10.8961
자에게	-10.8962
▁Board	-10.8967
▁통해서	-10.8971
년도	-10.8976
ia	-10.8978
▁sit	-10.8982
▁생태계	-10.8983
▁cleaning	-10.8986
▁부담을	-10.8988
▁커	-10.8989
▁Amid	-10.8989
▁법령	-10.8992
▁대거	-10.8992
▁옷을	-10.8992
▁Engineering	-10.8994
▁따뜻한	-10.8996
▁catch	-10.8997
▁낼	-10.8999
기준	-10.9002
▁무료로	-10.9002
▁둘러싼	-10.9007
춘	-10.9007
▁dishes	-10.9008
▁desire	-10.9011
▁직원들	-10.9013
▁extension	-10.9013
▁잠시	-10.9016
▁국토부	-10.9017
▁sudden	-10.9018
▁장애	-10.9019
▁찾고	-10.9021
▁마약	-10.9022
▁fear	-10.9022
▁sharply	-10.9022
▁predict	-10.9024
▁easier	-10.9027
▁Vietnamese	-10.9027
▁sky	-10.903
▁비율이	-10.9031
▁자리에서	-10.9031
▁voting	-10.9033
▁Planning	-10.9033
▁가을	-10.9034
0	-10.9035
▁소식이	-10.9037
▁combination	-10.904
▁만들었다	-10.9041
▁행동	-10.9042
▁blocked	-10.9045
▁거주	-10.9054
▁작품을	-10.9054
다른	-10.9054
▁College	-10.9055
▁ecosystem	-10.9055
▁편지	-10.9056
갑	-10.9057
▁기념	-10.9057
so	-10.906
▁해제	-10.906
▁그건	-10.9063
▁Urban	-10.9063
▁제시	-10.9065
보호	-10.9066
▁설치된	-10.9066
▁풍부한	-10.9069
men	-10.9073
▁법적	-10.9075
▁carefully	-10.9076
▁사업자	-10.9078
▁competent	-10.9081
▁satisfaction	-10.9082
▁생각해요	-10.9083
▁대표팀	-10.9084
지방	-10.9085
▁실패	-10.9089
▁뜻	-10.909
▁connect	-10.9091
▁advertising	-10.9093
▁채널	-10.9094
▁강하게	-10.9098
▁영향으로	-10.9104
▁초대	-10.9105
▁회장은	-10.9105
▁litigation	-10.9107
▁증가한	-10.9107
▁fraud	-10.911
▁포인트	-10.9111
▁분위기를	-10.9111
▁Actor	-10.9112
▁시스템을	-10.9112
구조	-10.9113
▁identity	-10.9113
▁질문에	-10.9116
▁돈이	-10.9116
▁행복한	-10.9116
▁실시한다	-10.9117
▁공정	-10.9119
쯤	-10.912
▁가족이	-10.9122
읍	-10.9123
▁suffer	-10.9124
▁Two	-10.9125
▁Gangseo	-10.9126
돈	-10.9127
bong	-10.9127
글	-10.9127
▁drivers	-10.9127
▁조작	-10.9129
▁regard	-10.913
▁의도	-10.9131
경영	-10.9132
▁제조업	-10.9133
▁continuing	-10.9134
▁남성이	-10.9136
▁향상	-10.9137
더라도	-10.9139
▁저도	-10.9144
▁선고	-10.9144
seo	-10.9144
▁실천	-10.9147
▁측이	-10.9148
▁소방	-10.9149
▁gaining	-10.9149
로는	-10.9149
사의	-10.9149
복지	-10.915
▁활약	-10.915
▁지역사회	-10.9151
▁찾기	-10.9152
▁현재까지	-10.9155
▁진행됐다	-10.9155
▁detail	-10.9159
▁마음에	-10.9159
▁Senior	-10.916
▁acts	-10.9162
▁수당	-10.9162
▁결과에	-10.9164
▁결정을	-10.9165
▁channel	-10.9165
▁이유다	-10.9166
▁각자	-10.9167
기금	-10.9167
▁investigated	-10.9168
▁Administrative	-10.9168
▁이중	-10.9169
▁없지만	-10.917
▁부상	-10.9171
▁brands	-10.9172
▁pretty	-10.9174
▁죽	-10.9176
▁긍정적인	-10.9176
▁villages	-10.9179
▁외교부	-10.918
son	-10.9181
▁rejected	-10.9182
▁떠나	-10.9183
▁금감원	-10.9185
▁deem	-10.9186
land	-10.9187
▁asset	-10.9188
▁루	-10.9188
▁Declaration	-10.9189
▁구글	-10.9193
▁아마	-10.9196
▁빈	-10.9196
▁Big	-10.9198
▁lease	-10.9198
▁공동으로	-10.92
▁이전에	-10.92
▁검색	-10.9201
▁Town	-10.9201
▁별로	-10.9212
판매	-10.9214
▁프로그램이	-10.9218
▁aging	-10.9219
35	-10.9222
▁dispatched	-10.9224
▁race	-10.9224
▁보완	-10.9225
kyu	-10.9227
▁publicly	-10.9228
▁이같이	-10.9228
▁charged	-10.9229
ran	-10.923
▁인하	-10.9231
▁형태로	-10.9233
▁시청	-10.9234
▁Cheongju	-10.924
공무원	-10.9242
▁알아	-10.9242
▁측정	-10.9243
▁생일	-10.9245
▁쓰고	-10.9251
▁인공지능	-10.9254
▁옆에	-10.9255
▁Sin	-10.9258
▁Until	-10.9259
▁허용	-10.9259
▁smartphones	-10.9261
▁residence	-10.9262
예술	-10.9266
▁invested	-10.9267
▁데뷔	-10.9269
▁Strategy	-10.9269
▁알려주세요	-10.9269
▁시위	-10.9271
▁Citizens	-10.9271
▁항공	-10.9271
▁성인	-10.9273
▁야	-10.9279
감독	-10.9281
▁introducing	-10.9282
▁realized	-10.9282
▁뛰어난	-10.9283
▁이뤄질	-10.9283
▁downtown	-10.9283
▁완성	-10.9284
건의	-10.9287
▁responded	-10.9289
▁근로자	-10.929
▁모아	-10.9291
▁출산	-10.9292
▁refers	-10.9296
발전	-10.9296
▁extreme	-10.9296
▁연극	-10.9298
▁facing	-10.9298
▁Hyo	-10.9301
▁의회	-10.9302
▁comply	-10.9303
▁경기에서	-10.9304
익	-10.9304
▁쇼핑	-10.9305
▁king	-10.9305
▁부모	-10.9307
▁그게	-10.9307
▁나이	-10.9309
헌	-10.931
▁bureau	-10.931
▁quantity	-10.931
었어요	-10.931
▁receives	-10.931
▁differences	-10.9311
씨를	-10.9313
off	-10.9315
▁법무부	-10.9316
Kim	-10.9317
▁Hwaseong	-10.9317
▁bigger	-10.9317
▁징역	-10.9318
▁amendment	-10.932
▁발전을	-10.932
메	-10.9321
▁카메라	-10.9323
▁touch	-10.9326
▁expenditure	-10.9327
▁감정	-10.9327
▁bags	-10.9328
▁원을	-10.9329
▁유튜브	-10.933
▁학생들의	-10.933
▁2017,	-10.9331
▁바다	-10.9332
스러운	-10.9334
▁entrustment	-10.9335
▁exceeded	-10.9335
▁때도	-10.9335
▁여러분	-10.9338
▁통보	-10.9343
▁Attention	-10.9344
▁주차장	-10.9345
▁덜	-10.9345
지에	-10.9348
▁partner	-10.9348
▁securing	-10.9351
▁후보자	-10.9352
▁제출한	-10.9352
▁지원한다	-10.9352
▁blind	-10.9352
책	-10.9352
▁쌀	-10.9354
▁grand	-10.9355
▁Disaster	-10.9358
▁purchasing	-10.9359
▁mistake	-10.936
▁Housing	-10.9365
▁기상청	-10.9367
▁연휴	-10.9368
▁continuous	-10.9369
▁추진하고	-10.9372
▁Washington	-10.9372
▁Show	-10.9373
▁선정된	-10.9375
때	-10.9378
▁helps	-10.9382
▁capabilities	-10.9385
▁Bridge	-10.9392
▁o	-10.9394
▁legislation	-10.9399
▁images	-10.94
▁봤다	-10.94
▁adjust	-10.94
ial	-10.9401
22	-10.9403
▁힘	-10.9403
▁지원이	-10.9404
▁Myeong	-10.9405
▁폐기	-10.9407
▁detected	-10.9407
▁Especially	-10.9407
▁창	-10.9408
▁turning	-10.9409
▁Le	-10.9409
▁개발한	-10.941
▁aircraft	-10.9413
▁날이	-10.9414
▁entrust	-10.9414
▁사기	-10.9415
됐으며	-10.9415
▁Independence	-10.942
체계	-10.942
▁충남	-10.9423
▁중간	-10.9423
▁현상이	-10.9424
▁originally	-10.9426
▁순위	-10.9427
▁Base	-10.9427
▁payments	-10.9427
▁Street	-10.9428
▁임대	-10.9428
▁둔다	-10.9428
보험	-10.9428
▁개입	-10.9432
▁아시안게임	-10.9432
▁Matters	-10.9433
▁필요합니다	-10.9434
▁acquisition	-10.9435
염	-10.9436
▁requirements	-10.9437
▁바에	-10.9437
▁41	-10.9442
▁imported	-10.9444
▁의무	-10.9444
▁따라서	-10.9449
▁Gyeongbuk	-10.9451
▁singing	-10.9451
▁마치고	-10.9455
▁whenever	-10.9459
▁해소	-10.9463
ck	-10.9466
황	-10.9467
▁지역은	-10.947
▁prosecutors	-10.9474
▁memorial	-10.9475
▁아는	-10.9481
▁Pension	-10.9482
▁Christmas	-10.9483
▁본인	-10.9485
▁troops	-10.9487
갈수록	-10.949
▁Chun	-10.9493
▁recognize	-10.9494
▁exemption	-10.9496
▁바람	-10.9499
oriented	-10.9503
▁경비	-10.9504
▁Other	-10.9505
▁winner	-10.9506
▁utilize	-10.9506
▁tons	-10.9514
돼야	-10.9516
▁gone	-10.9517
▁multiple	-10.9519
▁검찰에	-10.952
렌	-10.9522
ize	-10.9523
cheol	-10.9524
제품	-10.9524
▁관	-10.9526
▁talked	-10.9526
▁bright	-10.9527
▁의심	-10.9527
▁담겨	-10.9535
자원	-10.9535
▁demands	-10.9536
▁page	-10.9542
▁plenary	-10.9545
시킨	-10.9546
▁singers	-10.9546
▁centered	-10.9549
op	-10.9549
▁earthquake	-10.955
▁investments	-10.955
▁supports	-10.955
▁명절	-10.9553
▁medal	-10.9554
▁장치	-10.9555
▁흐름	-10.9556
▁ride	-10.9556
▁gate	-10.956
▁정기	-10.9561
▁대하여는	-10.9564
▁어디	-10.9564
▁agriculture	-10.9566
▁daycare	-10.9567
▁마친	-10.9568
▁filming	-10.9569
▁merchants	-10.9572
▁category	-10.9573
▁특성	-10.9573
보고	-10.9576
검사	-10.9579
▁Tax	-10.9579
ae	-10.958
▁운영할	-10.958
▁dangerous	-10.958
▁brain	-10.958
받은	-10.9581
▁returning	-10.9581
▁체제	-10.9582
▁필리핀	-10.9586
베	-10.9587
▁marine	-10.9587
▁garden	-10.9591
▁reasonable	-10.9593
국제	-10.9593
▁기획재정부	-10.9594
▁휴식	-10.9594
▁dis	-10.9594
▁c	-10.9598
▁여성의	-10.9599
▁tournament	-10.9599
▁숨	-10.9603
▁protest	-10.9608
mun	-10.9608
▁부회장	-10.9611
▁데다	-10.9611
▁추진할	-10.9614
▁rally	-10.9615
▁고발	-10.9618
▁Regional	-10.9618
▁seal	-10.9621
▁Industries	-10.9622
▁아직도	-10.9622
▁제거	-10.9623
▁wasn	-10.9625
▁많고	-10.9625
▁압박	-10.9628
▁1990	-10.9632
▁제정	-10.9632
칠	-10.9635
등급	-10.9635
▁replaced	-10.964
했는지	-10.9649
▁consent	-10.965
▁하반기	-10.9651
▁벗어나	-10.9657
▁방지	-10.9661
▁올려	-10.9661
▁greater	-10.9662
력을	-10.9662
▁찬성	-10.9665
jang	-10.9666
▁citizen	-10.9667
▁내린	-10.9669
▁덕분에	-10.9671
1%	-10.9671
▁researchers	-10.9677
▁않았습니다	-10.9679
▁방문한	-10.968
id	-10.9681
▁거듭	-10.9682
▁경고	-10.9682
▁2015,	-10.9683
▁replacement	-10.9686
▁applicant	-10.9686
▁평가했다	-10.9687
▁raw	-10.9688
이어서	-10.9691
▁경우에	-10.9693
▁window	-10.9696
▁내려	-10.9696
▁linked	-10.9698
▁leisure	-10.9698
▁쪽	-10.9698
▁분야의	-10.97
▁trends	-10.9706
hour	-10.9708
mail	-10.971
▁Malaysia	-10.9713
▁spokesman	-10.9714
▁효율적으로	-10.9714
식을	-10.9715
▁편의	-10.9717
▁favor	-10.9718
▁부정	-10.9719
ang	-10.972
▁simply	-10.9721
▁Hwa	-10.9725
▁태	-10.9725
sook	-10.9728
▁familiar	-10.9729
▁않았지만	-10.9729
▁allowances	-10.973
▁영어를	-10.9731
▁올렸다	-10.9732
▁일자리를	-10.9732
▁thank	-10.9732
▁관내	-10.9732
▁straight	-10.9739
가요	-10.9744
▁Gyeong	-10.9747
▁전망했다	-10.9747
▁Jeollanam	-10.975
▁전쟁	-10.9751
▁본격적으로	-10.9751
▁사유	-10.9753
▁composition	-10.9757
▁affect	-10.9757
▁접	-10.9759
▁helping	-10.9759
▁가방	-10.976
▁fierce	-10.9761
▁모양	-10.9762
우리	-10.9763
▁떨어져	-10.9765
▁noise	-10.9766
▁happiness	-10.9766
▁discrimination	-10.9768
▁Moo	-10.9768
청소년	-10.977
▁behalf	-10.977
▁passenger	-10.977
▁생	-10.9773
▁idol	-10.9778
▁분위기가	-10.9778
혜	-10.9778
▁dismissed	-10.978
▁후원	-10.9781
▁투자자	-10.9783
▁Bu	-10.9783
▁뒤에	-10.9784
▁기간이	-10.9785
▁knew	-10.9785
▁examine	-10.9786
혁	-10.9788
▁쓰	-10.9788
▁전공	-10.9788
▁FC	-10.9789
▁급	-10.979
▁sun	-10.9791
▁Koreas	-10.9801
▁공무원이	-10.9801
▁주거	-10.9803
▁편성	-10.9806
▁행사에	-10.9808
▁revitalize	-10.981
▁나아가	-10.9811
▁municipal	-10.9814
▁맡은	-10.9814
▁합동	-10.9818
▁집회	-10.9819
▁railway	-10.9821
▁handling	-10.9822
▁심리	-10.9823
▁boost	-10.9824
▁provinces	-10.9825
▁cafe	-10.9828
▁상태다	-10.9836
▁shoes	-10.9837
▁이목	-10.9843
견	-10.9846
벌	-10.9852
pyo	-10.9854
▁군사	-10.9855
▁로봇	-10.9856
▁노선	-10.9858
▁relief	-10.9859
대회	-10.9859
마저	-10.9861
▁상장	-10.9863
▁물을	-10.9863
까요	-10.9864
▁specified	-10.9865
▁비리	-10.9865
스포츠	-10.9867
▁뿌리	-10.9872
▁거주하는	-10.9873
▁메시지	-10.9878
▁차지했다	-10.9879
▁ordinance	-10.9879
▁requests	-10.988
▁adults	-10.9882
▁worse	-10.9883
▁진행하고	-10.9883
▁Huawei	-10.9888
▁공원	-10.9889
▁listening	-10.9892
▁성폭력	-10.9892
▁freely	-10.9893
▁empty	-10.9894
ie	-10.9898
▁것이란	-10.9898
▁river	-10.9899
▁unlike	-10.9899
▁friendly	-10.9901
▁leads	-10.9901
」(	-10.9901
Q	-10.9904
▁사용료	-10.9905
▁keen	-10.9908
▁옛	-10.9908
im	-10.9908
▁강제	-10.9909
▁spaces	-10.9909
▁Gi	-10.9911
▁활용할	-10.9912
▁gathering	-10.9914
▁말하는	-10.9915
▁steel	-10.9915
▁관계가	-10.9917
▁안보	-10.9917
▁package	-10.9919
하다는	-10.9921
▁positions	-10.9921
▁재개	-10.9927
(3	-10.9928
사는	-10.9929
employed	-10.993
적이고	-10.993
▁넣어	-10.9931
에만	-10.9933
▁커뮤니티	-10.9934
▁widely	-10.9934
▁예비	-10.9936
ian	-10.9936
▁trouble	-10.9941
▁curriculum	-10.9944
▁code	-10.9945
▁평	-10.9945
▁현상	-10.9946
▁approach	-10.9946
▁맥주	-10.9946
▁총장	-10.9952
▁disappeared	-10.9954
▁wins	-10.9954
▁Only	-10.9956
▁골	-10.9961
how	-10.9964
연구소	-10.9965
▁annually	-10.9965
▁1980	-10.9968
▁bar	-10.9969
▁얼굴	-10.9969
▁별도의	-10.9972
▁urged	-10.9975
▁비교적	-10.9976
▁불안	-10.9981
▁Jongno	-10.9983
▁Military	-10.9983
▁폐기물	-10.9984
▁촉진	-10.9984
▁Plan	-10.9985
▁ranking	-10.9986
▁왜냐하면	-10.9988
해왔다	-10.9988
▁Singer	-10.9996
케	-10.9996
훈련	-10.9998
▁pleasant	-11.0001
▁visits	-11.0003
▁Store	-11.0003
▁수익	-11.0004
▁회사가	-11.0006
제가	-11.0008
ᆞ	-11.001
▁Experts	-11.0013
▁관람	-11.0015
▁차별	-11.0016
▁however	-11.0019
▁wonder	-11.002
▁mutati	-11.0023
아이	-11.0023
ating	-11.0025
▁진행하는	-11.0028
▁도와	-11.003
▁조사됐다	-11.0031
▁격	-11.0031
▁사업장	-11.0038
▁앱	-11.0039
중국	-11.0039
▁현장에	-11.0043
▁recover	-11.0044
▁실시할	-11.0046
시는	-11.0048
▁접근	-11.005
▁Je	-11.0055
▁학생들	-11.0056
▁방향으로	-11.0057
▁탓에	-11.0059
Gun	-11.0059
▁mood	-11.0062
ver	-11.0063
▁경계	-11.0065
는지	-11.0067
▁고려하여	-11.0067
▁정당	-11.0071
▁국민연금	-11.0072
호의	-11.0073
▁sick	-11.0076
▁정확히	-11.0077
▁국민의	-11.0078
▁아이가	-11.0081
▁측	-11.0083
▁memories	-11.0084
including	-11.0085
▁usage	-11.0086
▁smile	-11.0089
▁기반으로	-11.009
대의	-11.0093
▁boat	-11.0093
▁지방자치단체	-11.0094
▁지나	-11.0099
▁여론	-11.0101
500	-11.0102
▁revolution	-11.0105
▁conclusion	-11.0106
IT	-11.0106
▁받기	-11.0107
▁대상자	-11.0109
▁거에요	-11.011
▁처분	-11.0113
▁Bong	-11.0114
▁다리	-11.0114
원을	-11.0117
geun	-11.0119
▁chose	-11.012
▁곳이다	-11.0121
▁relation	-11.0122
▁Before	-11.0124
▁reward	-11.0126
▁문화예술	-11.013
▁골프	-11.013
▁Star	-11.013
▁유일	-11.0131
▁부처	-11.0133
▁기분이	-11.0134
▁선정됐다	-11.0134
▁대책을	-11.0135
▁공동체	-11.0137
▁실내	-11.0137
존	-11.0138
▁succeeded	-11.0139
▁차지하는	-11.014
▁형	-11.0142
▁얻고	-11.0143
▁recording	-11.0144
해주는	-11.0145
▁Ilbo	-11.0145
quality	-11.0145
hyeon	-11.0147
▁임기는	-11.0148
▁대상이	-11.0151
▁운동을	-11.0152
비가	-11.0157
▁없도록	-11.0158
▁동기	-11.0159
▁강의	-11.0159
▁이재명	-11.0164
차례	-11.0164
▁가졌다	-11.0165
▁Each	-11.0165
▁whom	-11.0167
▁dogs	-11.0167
▁온도	-11.017
개가	-11.017
▁Ra	-11.0172
▁그림	-11.0175
▁중요	-11.0176
▁경우는	-11.0179
화를	-11.0181
▁야구	-11.0184
▁starts	-11.0184
축제	-11.0185
▁Saudi	-11.0188
▁Northern	-11.0189
▁달성	-11.0191
시켰다	-11.0191
▁프리미엄	-11.0192
▁출범	-11.0192
▁respondents	-11.0195
▁고양이	-11.0198
▁attendance	-11.0199
▁건강한	-11.0199
위원장	-11.0204
").	-11.0206
▁800	-11.0207
▁grew	-11.021
▁automatically	-11.021
▁시민들	-11.021
▁밀	-11.0212
▁적절한	-11.0217
▁dry	-11.0218
▁배터리	-11.0223
▁지역을	-11.0224
▁Water	-11.0224
▁이틀	-11.0225
▁mom	-11.0225
법인	-11.0226
관광	-11.0228
▁unusual	-11.023
▁securities	-11.0232
▁판단했다	-11.0234
▁이어지는	-11.0234
▁Earlier	-11.024
▁거부	-11.0242
▁peak	-11.0243
▁Koo	-11.0244
▁soft	-11.0246
▁울	-11.0247
▁discovered	-11.025
▁공간을	-11.0254
▁통제	-11.0254
금을	-11.0255
국장	-11.0256
▁진행할	-11.0257
▁감독의	-11.0257
▁Elementary	-11.0262
ent	-11.0266
▁대학생	-11.0267
▁faith	-11.0269
▁Real	-11.0273
▁Li	-11.0273
효	-11.0273
▁협업	-11.0274
▁communities	-11.0277
▁분야에	-11.0278
▁Fisheries	-11.028
▁withdrawal	-11.028
팀이	-11.0282
▁운영하고	-11.0283
▁아기	-11.0283
▁공개한	-11.0285
▁kimchi	-11.0285
▁internet	-11.0285
수사	-11.0286
▁upcoming	-11.0286
▁않아도	-11.029
▁buyers	-11.0291
시키고	-11.0292
▁Control	-11.0293
▁dedicated	-11.0293
▁관광객	-11.0293
▁Shinhan	-11.0294
▁진단	-11.0295
▁Home	-11.0299
▁miss	-11.0299
▁awards	-11.03
▁관할	-11.03
▁46	-11.0302
▁seeking	-11.0303
making	-11.0305
▁Heritage	-11.0308
▁짧은	-11.0308
chi	-11.0309
▁파견	-11.0309
족	-11.0311
▁입법	-11.0316
혁신	-11.0319
려는	-11.0319
▁teaching	-11.0321
공장	-11.0321
▁열었다	-11.0322
▁잇따라	-11.0323
▁Cooperation	-11.0323
▁반응을	-11.0324
▁다음달	-11.0325
걸	-11.0326
▁Command	-11.0329
▁아닙니다	-11.033
▁전기차	-11.0333
혀	-11.0335
▁Those	-11.0335
▁빠진	-11.0335
▁노래를	-11.0338
▁comment	-11.0344
쇼	-11.0345
▁서구	-11.0346
▁재판에	-11.0351
▁개최한다	-11.0354
▁yourself	-11.0354
▁grant	-11.036
▁Spain	-11.0361
세계	-11.0364
▁faster	-11.0365
▁환	-11.0366
하였고	-11.0366
▁Self	-11.0368
겠다고	-11.0369
▁사업비	-11.037
▁충분한	-11.0373
▁사항이	-11.0375
▁부탁	-11.0376
▁일하는	-11.0378
자료	-11.0381
▁기준을	-11.0383
shin	-11.0383
▁Residents	-11.0389
▁votes	-11.0391
▁verification	-11.0391
▁yellow	-11.0391
▁사이트	-11.0392
▁진행될	-11.0392
▁철	-11.0393
▁김치	-11.0394
▁traveling	-11.0395
▁views	-11.0397
▁의사를	-11.0397
있다	-11.0398
』	-11.0399
▁solid	-11.0399
▁Starting	-11.0402
▁절감	-11.0402
▁Thanks	-11.0402
지원센터	-11.0404
▁수사에	-11.0404
▁칼	-11.0405
▁재산	-11.0406
습	-11.0407
▁연습	-11.0408
law	-11.0408
ke	-11.0411
▁달라	-11.0415
농	-11.0416
▁situations	-11.0416
▁나눠	-11.0416
시험	-11.0418
▁고급	-11.0418
서울	-11.042
으나	-11.0422
▁Chi	-11.0426
▁mall	-11.0426
▁증가했다	-11.0429
▁구체적으로	-11.0429
▁그리	-11.043
▁돼요	-11.043
▁패	-11.0431
▁지출	-11.0431
▁appreciate	-11.0433
▁quick	-11.0435
▁상태에서	-11.0436
▁강연	-11.0436
▁없	-11.0436
▁Intelligence	-11.0437
▁flexible	-11.0437
하실	-11.0441
▁누구	-11.0443
▁지연	-11.0443
▁어려울	-11.0444
▁Gyeongsangbuk	-11.0445
▁마이크	-11.045
▁비판했다	-11.045
▁facts	-11.0451
▁불과	-11.0451
▁Hanoi	-11.0452
▁거래소	-11.0453
▁thoughts	-11.0455
▁신고를	-11.0459
▁차단	-11.046
▁Good	-11.0463
▁map	-11.0466
▁height	-11.0474
▁실수	-11.0476
▁steps	-11.0481
▁진입	-11.0481
움	-11.0484
▁수준으로	-11.0486
되거나	-11.0486
▁disclosed	-11.0486
▁writer	-11.0488
▁Care	-11.0489
34	-11.0489
▁underground	-11.0491
▁담당자	-11.0492
▁행사에는	-11.0493
▁regulatory	-11.0494
▁친구들과	-11.0494
량이	-11.0499
▁증가하고	-11.0501
▁사이즈	-11.0502
▁adopted	-11.0502
▁demonstration	-11.0502
▁방북	-11.0502
사고	-11.0504
리그	-11.0505
▁케이팝	-11.0506
▁힘들	-11.0507
▁백악관	-11.0508
▁Head	-11.051
사건	-11.051
▁예능	-11.0511
▁towards	-11.0511
지고	-11.0512
조례	-11.0513
▁기록한	-11.0514
▁선박	-11.0515
win	-11.0516
▁비상	-11.0517
▁Design	-11.0517
▁institutes	-11.052
▁예를	-11.0522
▁점심	-11.0524
▁나설	-11.0525
▁대선	-11.0528
▁consensus	-11.0529
▁질병	-11.0533
▁추진한다	-11.0533
완	-11.0536
▁시범	-11.0538
▁사태	-11.054
▁관측이	-11.0543
▁prefer	-11.0545
▁회	-11.0547
▁받	-11.0547
▁막기	-11.0547
▁donated	-11.0549
▁mission	-11.055
▁자동	-11.055
▁과연	-11.0553
▁어디에	-11.0553
▁professors	-11.0554
▁diagnosis	-11.0555
pil	-11.0555
▁700	-11.0556
▁기대감	-11.0558
▁owned	-11.056
▁leaves	-11.0561
▁St	-11.0561
▁특허	-11.0562
욱	-11.0563
▁조례에	-11.0565
▁corner	-11.0566
▁staying	-11.0566
▁180	-11.0567
▁시책	-11.0569
▁boy	-11.0569
▁박물관	-11.0572
▁담배	-11.0572
개사	-11.0573
▁않지만	-11.0576
▁제품에	-11.0577
회장	-11.0578
▁탄	-11.058
▁auto	-11.0583
▁episode	-11.0588
연구원	-11.0588
▁Po	-11.059
▁복구	-11.0591
▁subordinate	-11.0591
렸다	-11.0591
▁있었고	-11.0592
▁일주일	-11.0593
▁유해	-11.0595
층에	-11.0596
시설을	-11.0596
균	-11.0597
▁agent	-11.0598
▁Valley	-11.0599
▁bereaved	-11.0599
4%	-11.0605
상당히	-11.0605
팅	-11.0606
▁fit	-11.0607
▁actress	-11.0609
▁모르는	-11.0611
▁임원	-11.0612
▁악	-11.0612
▁fill	-11.0613
녀	-11.0614
▁누	-11.0615
년으로	-11.0615
▁법원	-11.0618
Committee	-11.0619
▁때부터	-11.062
▁strengthened	-11.0627
▁경위	-11.0629
▁부진	-11.063
100	-11.0632
▁사진이	-11.0636
▁제공하고	-11.0636
▁취	-11.0637
▁사랑하는	-11.0637
▁복귀	-11.0638
▁favorable	-11.0638
▁이미지	-11.0638
▁노후	-11.0639
정부	-11.064
하면서도	-11.0641
▁침해	-11.0643
▁부여	-11.0646
▁지식	-11.0647
▁합	-11.0649
▁rare	-11.0651
▁Kia	-11.0651
▁제외	-11.0654
der	-11.0656
▁해양	-11.066
비용	-11.0662
▁매체	-11.0663
▁audiences	-11.0667
he	-11.0667
▁음악을	-11.0669
▁unveiled	-11.067
▁북측	-11.0671
▁붙	-11.0671
▁zones	-11.0674
▁collecting	-11.0675
하길	-11.0676
코리아	-11.0677
▁thus	-11.0677
▁interior	-11.0677
▁보조금	-11.0677
▁차이	-11.0679
▁Turkey	-11.0679
▁transport	-11.068
▁Look	-11.0681
person	-11.0682
▁댄스	-11.0683
▁경기도지사가	-11.0684
▁기사	-11.0685
▁식	-11.0686
▁된다는	-11.0688
장과	-11.0691
▁서비스가	-11.0691
▁발언	-11.0696
▁도민	-11.0697
졌습니다	-11.0699
48	-11.07
▁토론	-11.0701
▁promise	-11.0702
▁출근	-11.0703
▁Im	-11.0704
▁현대차	-11.0704
▁서명	-11.0706
▁stadium	-11.0706
▁LA	-11.0707
▁제공할	-11.0707
▁구상	-11.0708
36	-11.071
▁solo	-11.0714
yeol	-11.0716
▁patent	-11.0718
▁지사는	-11.0718
▁compete	-11.0718
과장	-11.072
▁paintings	-11.072
▁2002	-11.0721
▁하는지	-11.0723
▁감시	-11.0725
▁자국	-11.0728
율이	-11.0729
▁지역경제	-11.0729
위원	-11.0731
▁사람들에게	-11.0731
월에는	-11.0731
▁구입	-11.0731
▁stood	-11.0732
▁resignation	-11.0732
▁피의자	-11.0737
▁문학	-11.0738
았다	-11.0738
▁Three	-11.074
▁Exchange	-11.074
▁guess	-11.074
▁illegally	-11.0741
▁lifelong	-11.0743
▁기다리고	-11.0744
▁fruit	-11.0748
전문	-11.0752
▁여권	-11.0753
천만	-11.0753
▁founded	-11.0753
▁대표하는	-11.0754
군이	-11.0754
▁당사자	-11.0756
▁앞으로도	-11.0756
▁되기	-11.0757
▁personality	-11.0758
▁행위	-11.076
시면	-11.0761
▁새해	-11.0763
▁봄	-11.0763
▁효과	-11.0766
▁풍	-11.0768
▁법정	-11.0771
23	-11.0772
▁바꿔	-11.0772
만을	-11.0773
▁이야기가	-11.0774
▁managers	-11.0775
generation	-11.0775
▁갈등이	-11.0778
▁expertise	-11.0779
5,000	-11.0781
▁민족	-11.0782
▁destination	-11.0785
▁logistics	-11.0787
▁가스	-11.0787
▁바이오	-11.0789
POP	-11.0789
▁49	-11.079
▁별도로	-11.0792
수록	-11.0792
▁비교	-11.0794
▁civilian	-11.0794
▁luxury	-11.0795
suk	-11.0796
31	-11.0797
▁purposes	-11.0797
▁맛이	-11.0797
▁KB	-11.0799
▁대부분이	-11.0799
▁중국과	-11.08
원은	-11.0801
▁따	-11.0802
▁보낼	-11.0802
▁사용한	-11.0804
군요	-11.0806
▁가량	-11.0807
머	-11.0807
▁그에	-11.0809
▁음료	-11.0809
▁closing	-11.0811
▁옮겨	-11.0812
▁사고로	-11.0812
▁Joint	-11.0814
▁동료	-11.0817
▁매출이	-11.0818
▁바람이	-11.0819
▁소장	-11.082
▁Rural	-11.0827
▁지사	-11.0827
▁측면에서	-11.0829
▁60%	-11.0829
▁recruit	-11.0829
▁분들이	-11.0829
▁정상회담을	-11.0831
This	-11.0833
▁자유롭게	-11.0835
▁번째로	-11.0835
▁세상	-11.0837
▁voluntary	-11.0837
▁이웃	-11.0838
▁Songpa	-11.0844
▁strategic	-11.0844
▁종로구	-11.0845
▁주기	-11.0845
▁노력이	-11.0846
▁요청할	-11.0846
상의	-11.0849
ous	-11.0849
dang	-11.085
▁냈다	-11.0852
▁화웨이	-11.0853
▁말해	-11.0853
▁범	-11.0854
▁channels	-11.0856
▁상당한	-11.0856
▁Red	-11.0862
▁개봉	-11.0863
대책	-11.0863
▁목숨	-11.0867
▁이르는	-11.0867
?"	-11.0868
▁inspections	-11.087
▁Mun	-11.0872
▁accompanied	-11.0875
▁표준	-11.0875
▁tears	-11.0876
▁관객들	-11.0879
▁문화재	-11.0881
▁단위	-11.0882
▁milk	-11.0883
▁강력	-11.0886
▁뇌	-11.0886
▁학교에서	-11.089
▁코스	-11.0891
▁Forum	-11.0892
▁철거	-11.0893
▁충격	-11.0898
▁mutandis	-11.0899
▁supplied	-11.09
▁시설물	-11.0901
▁violations	-11.0901
▁직원들이	-11.0902
경찰서	-11.0906
원의	-11.0906
▁portion	-11.0908
▁feels	-11.0909
▁기능이	-11.0911
▁했고	-11.0915
▁clubs	-11.0916
▁미국에서	-11.0916
▁forget	-11.0916
▁narrow	-11.0917
▁박근혜	-11.0918
▁hundreds	-11.0919
상담	-11.0919
▁serving	-11.092
▁Analysts	-11.0923
▁쓰레기	-11.0923
▁축하	-11.0926
▁landscape	-11.093
차량	-11.0932
에요	-11.0932
▁한층	-11.0932
▁높이고	-11.0935
rim	-11.0935
▁고양시	-11.0936
▁fake	-11.0937
▁usual	-11.0937
▁광주시	-11.0937
▁climate	-11.0939
▁cancellation	-11.0939
▁wine	-11.094
▁massive	-11.0941
▁네이버	-11.0942
▁sub	-11.0943
폭	-11.0946
▁구단	-11.0946
▁종교	-11.0948
▁Following	-11.0949
▁smoothly	-11.095
▁fallen	-11.095
▁차관	-11.0954
▁역사를	-11.0961
▁함께하는	-11.0962
께	-11.0964
▁단순	-11.0965
▁반응이	-11.0965
▁previously	-11.0967
0%	-11.097
▁Officials	-11.097
▁afraid	-11.0971
▁Another	-11.0971
▁90%	-11.0972
▁flag	-11.0973
▁preventing	-11.0973
▁공동주택	-11.0974
▁disclose	-11.0975
▁좋습니다	-11.098
▁절	-11.098
we	-11.098
슬	-11.0983
▁smoking	-11.0986
주가	-11.0988
▁복합	-11.0988
▁Dream	-11.099
▁관측	-11.099
▁첨단	-11.0991
▁계정	-11.0992
▁세상을	-11.0993
▁remained	-11.0993
▁제공한다	-11.0994
▁겪는	-11.0995
▁자연스럽게	-11.0995
▁의식	-11.0997
▁맞게	-11.0998
▁너희	-11.1001
▁깊이	-11.1003
려면	-11.1004
번째	-11.1004
▁Gwanak	-11.1006
▁독서	-11.1008
▁perspective	-11.1011
▁Girls	-11.1011
▁Bucheon	-11.1012
▁surprised	-11.1014
▁내렸다	-11.1017
▁코치	-11.1019
▁나가	-11.102
▁호응	-11.102
▁능력	-11.1022
작업	-11.1025
누	-11.1026
▁씨는	-11.1027
▁정책이	-11.1027
▁관리를	-11.1027
▁꽤	-11.1028
▁governed	-11.1028
▁Mapo	-11.1029
▁accumulated	-11.1031
▁상위	-11.1031
▁능력을	-11.1031
▁능력이	-11.1032
▁47	-11.1033
되어야	-11.1033
▁heritage	-11.1036
▁Buddhist	-11.1036
▁classified	-11.1036
▁repeatedly	-11.1038
▁영향이	-11.1039
시민	-11.1039
호서식	-11.1039
▁구분	-11.104
관계	-11.1042
▁입원	-11.1044
겠지만	-11.1045
▁chosen	-11.1045
▁Bar	-11.1047
▁Ltd	-11.1049
▁신체	-11.1051
▁Car	-11.1054
▁roof	-11.1057
▁Naver	-11.1057
▁Thursday	-11.1059
▁harassment	-11.106
▁safely	-11.1066
▁공부를	-11.107
▁hidden	-11.1071
▁마음	-11.1071
▁마련됐다	-11.1073
(5	-11.1074
▁줄어들	-11.1077
본부	-11.1077
▁멋진	-11.1077
▁아무리	-11.108
▁장점이	-11.1082
29	-11.1083
▁했다는	-11.1083
▁Twitter	-11.1084
억달러	-11.1086
▁중심의	-11.1087
문을	-11.1087
▁않기	-11.1089
▁배경	-11.109
38	-11.1091
gang	-11.1091
▁formation	-11.1092
▁선생님	-11.1094
▁permanent	-11.1097
▁미래를	-11.1097
▁dollar	-11.1098
▁인원	-11.1099
▁steadily	-11.1101
▁refer	-11.1101
▁Entertainment	-11.1102
톤	-11.1104
▁Dr	-11.1106
▁51	-11.1107
▁조사하고	-11.111
▁removed	-11.1114
▁begins	-11.1117
▁uncomfortable	-11.1117
▁voluntarily	-11.1117
▁shareholder	-11.1118
▁종이	-11.1119
▁belonging	-11.1121
▁deeply	-11.1122
▁말한	-11.1122
▁restrictions	-11.1122
률	-11.1123
▁매주	-11.1125
▁공을	-11.1125
▁phase	-11.1128
▁동일한	-11.1128
▁dish	-11.1128
▁훼손	-11.113
▁복원	-11.1133
가격	-11.1133
▁treat	-11.1133
▁Which	-11.1134
▁Gun	-11.1134
카드	-11.1136
▁Deliberation	-11.1138
▁“(	-11.1138
▁forecast	-11.1139
▁당국	-11.1139
▁studied	-11.1142
▁맡아	-11.1142
▁들어간	-11.1143
▁보입니다	-11.1145
▁쪽으로	-11.1145
▁implementing	-11.1146
▁FTA	-11.1146
▁폐쇄	-11.1151
▁guests	-11.1156
▁anxiety	-11.1158
하다고	-11.1158
▁streets	-11.1159
▁import	-11.1161
단이	-11.1162
▁약간	-11.1165
▁강릉	-11.1166
▁autumn	-11.1166
▁martial	-11.1166
▁권력	-11.1167
33	-11.1169
▁명령	-11.117
계약	-11.1171
▁위험이	-11.1172
▁진행되고	-11.1173
▁certified	-11.1174
▁restoration	-11.1175
▁missile	-11.1176
▁간담회	-11.1182
▁조사한	-11.1185
▁성격	-11.1185
▁25%	-11.1186
▁않다는	-11.1189
▁Who	-11.119
▁무엇인지	-11.1191
▁잡아	-11.1193
▁frequent	-11.1193
▁2004	-11.1193
명에	-11.1196
▁시청자들	-11.1197
▁emotional	-11.1198
▁KBO	-11.1198
▁manipulation	-11.1199
▁반응	-11.1199
습니까	-11.12
▁위원으로	-11.12
▁opponent	-11.12
▁인사를	-11.1201
▁사람들을	-11.1206
▁Once	-11.1206
▁공포	-11.1207
▁내다봤다	-11.1208
▁얻을	-11.1208
▁그렇지	-11.1211
▁언급	-11.1212
▁Hyung	-11.1213
활동을	-11.1213
▁기독교	-11.1213
▁접촉	-11.1213
▁(1	-11.1215
▁Square	-11.1216
▁festivals	-11.1216
▁즐거운	-11.1216
▁command	-11.1219
▁하겠다	-11.1219
▁받는다	-11.122
▁일이다	-11.1222
▁예상되는	-11.1223
▁전화를	-11.1224
▁어머니	-11.1225
45	-11.1228
▁enable	-11.1229
▁soup	-11.1231
▁neighborhood	-11.1232
▁하자	-11.1233
▁비행	-11.1233
▁활동이	-11.1234
▁모으고	-11.1234
▁죄송합니다	-11.1234
▁회사에	-11.1235
▁종류	-11.1236
▁escape	-11.1237
▁중국에서	-11.1238
▁dreams	-11.1238
▁주에	-11.1239
▁과정이	-11.1239
▁불만	-11.1241
▁작동	-11.1242
▁관해	-11.1243
▁이때	-11.1246
▁비판이	-11.1248
▁답했다	-11.1252
▁생긴	-11.1253
▁feet	-11.1254
house	-11.1254
▁extend	-11.1255
▁구간	-11.1256
▁너에게	-11.1256
▁없기	-11.126
심사	-11.1261
▁급격	-11.1263
▁무리	-11.1264
▁servants	-11.1265
규모	-11.1265
▁employed	-11.1266
▁운전자	-11.1269
▁smoke	-11.127
▁내용은	-11.127
▁계획이	-11.1271
▁messages	-11.1272
▁aims	-11.1272
▁없으면	-11.1272
교통	-11.1273
▁선적	-11.1274
▁파티	-11.1277
▁Doosan	-11.1277
▁현행	-11.1277
▁담겼다	-11.1282
▁freedom	-11.1282
되자	-11.1283
sing	-11.1283
2%	-11.1284
▁정의	-11.1289
▁phones	-11.129
▁Maritime	-11.1291
▁graduate	-11.1291
▁뮤지컬	-11.1292
▁expense	-11.1292
ence	-11.1293
▁과목	-11.1294
▁평가가	-11.1298
▁죄송하지만	-11.1299
▁주력	-11.13
▁첨부	-11.1304
▁목적	-11.1308
▁끝	-11.1308
▁이곳에	-11.1308
▁bicycle	-11.1309
▁아이를	-11.1313
조직	-11.1315
원으로	-11.1315
▁supplies	-11.1316
협	-11.1319
압	-11.132
▁principal	-11.1321
v	-11.1321
▁산업혁명	-11.1322
em	-11.1323
계획을	-11.1323
▁adjustment	-11.1323
▁presence	-11.1324
ge	-11.1327
▁cup	-11.1327
▁achievements	-11.1327
▁guard	-11.1328
▁정원	-11.1328
▁틀	-11.1328
▁어려움이	-11.133
▁남편	-11.133
▁주관하는	-11.133
▁assembly	-11.1332
▁소유	-11.1332
▁진실	-11.1333
년을	-11.1335
▁용역	-11.1336
▁issuance	-11.1338
▁중학교	-11.1338
▁routes	-11.1338
▁구민	-11.1342
profit	-11.1343
▁활동에	-11.1344
ba	-11.1344
▁확충	-11.1344
▁시는	-11.1345
▁저장	-11.1351
▁cells	-11.1356
▁천안	-11.1357
▁화가	-11.1358
▁진행한다	-11.1362
▁목사	-11.1363
수를	-11.1366
▁battery	-11.1366
▁것보다	-11.1368
▁미중	-11.1368
▁Mu	-11.1369
되었고	-11.1369
▁Southeast	-11.1372
▁일상	-11.1374
▁Sewol	-11.1374
▁환경부	-11.138
▁keeping	-11.138
▁즉	-11.1383
▁미군	-11.1383
▁multicultural	-11.1384
ui	-11.1385
▁눈물	-11.1385
▁appoint	-11.1387
ko	-11.1388
업계	-11.1392
▁상태로	-11.1397
hun	-11.1397
▁잘못된	-11.1399
▁세트	-11.14
▁momentum	-11.14
▁경우도	-11.1401
▁인터뷰에서	-11.1401
ee	-11.1402
▁guest	-11.1402
▁이상을	-11.1402
쿠	-11.1404
(2	-11.1404
▁Galaxy	-11.1405
▁동네	-11.1408
▁resulting	-11.1408
▁refused	-11.141
▁총리가	-11.1411
▁파악	-11.1416
▁간사	-11.1421
▁fundamental	-11.1423
▁Branch	-11.1425
▁폭발	-11.1427
행위	-11.1432
위가	-11.1436
▁몸을	-11.1437
▁좋겠다	-11.1437
▁봉사	-11.1438
▁Post	-11.1439
▁repeated	-11.1442
▁cited	-11.1442
0,000	-11.1444
▁일정이	-11.1444
▁제기됐다	-11.1447
▁유형	-11.1447
흥	-11.1448
꽃	-11.1449
▁Competition	-11.145
▁feasibility	-11.145
▁한식	-11.1451
▁이곳에서	-11.1453
▁현장을	-11.1455
▁한화	-11.1457
▁특별히	-11.1457
▁wild	-11.1458
▁absence	-11.1459
▁베	-11.1459
▁cake	-11.1459
행사	-11.146
▁명예	-11.1461
▁maintaining	-11.1461
▁Paris	-11.1462
▁matches	-11.1464
▁『	-11.1466
▁violating	-11.1467
▁오랫동안	-11.1467
▁pork	-11.1467
izing	-11.1468
▁방향을	-11.1474
듯	-11.1474
▁disasters	-11.1474
▁selecting	-11.1476
▁인재	-11.1477
인들이	-11.1479
▁invoice	-11.148
▁collapsed	-11.148
▁참여했다	-11.1483
방법	-11.1485
▁홈	-11.1489
▁영화가	-11.1489
▁지분	-11.1491
▁강조	-11.1493
었고	-11.1494
▁Amazon	-11.1495
▁settled	-11.1496
▁2001	-11.1499
가족	-11.1501
▁Jeonju	-11.1502
39	-11.1502
▁늘었다	-11.1506
▁크고	-11.1507
▁품목	-11.1509
▁consult	-11.1509
▁소속사	-11.1512
▁cat	-11.1512
▁작성하여	-11.1513
When	-11.1513
▁이내	-11.1514
장으로	-11.1516
▁이번에는	-11.1516
▁북부	-11.1517
Re	-11.1517
▁supposed	-11.1518
▁존	-11.1519
▁sources	-11.1519
▁opposed	-11.152
▁thoroughly	-11.152
▁Times	-11.1524
▁필수	-11.1526
▁내년에	-11.1527
▁displayed	-11.1534
▁아들	-11.1534
▁peninsula	-11.1535
▁anymore	-11.1536
▁Next	-11.1541
▁제기	-11.1542
▁factories	-11.1544
37	-11.1545
▁Investigation	-11.1546
▁Corp	-11.1547
▁만나는	-11.1548
ber	-11.1548
▁inspect	-11.1548
▁기온이	-11.1551
▁rock	-11.1551
▁solar	-11.1556
▁공간이	-11.1556
▁시행규칙	-11.1559
▁보이	-11.156
▁좋아요	-11.1561
▁때문이에요	-11.1561
▁diet	-11.1563
▁단순히	-11.1563
이라면	-11.1567
▁willingness	-11.157
▁customs	-11.1572
▁형사	-11.1575
▁열차	-11.1575
▁담	-11.1576
▁Future	-11.1577
하니	-11.1579
▁Bio	-11.1582
장치	-11.1582
귀	-11.1582
▁분석한	-11.1583
▁개막	-11.1586
▁이래	-11.1587
▁비전	-11.1589
ung	-11.159
▁Pastor	-11.1592
▁놀이	-11.1595
▁신임	-11.1595
▁문제점	-11.1595
▁최창식	-11.1595
▁리그	-11.1597
▁내는	-11.1597
▁화려한	-11.1599
전자	-11.1601
▁개최했다	-11.1604
ship	-11.1604
▁권리	-11.1604
▁밝혀	-11.1606
▁ID	-11.1606
▁generations	-11.1606
▁환자가	-11.1606
▁산정	-11.1608
▁closer	-11.1609
▁workplace	-11.1609
▁사항에	-11.1612
조정	-11.1613
빙	-11.1614
▁행위를	-11.1614
▁마련했다	-11.1615
▁게임을	-11.1616
▁필	-11.1616
시간이	-11.1618
표를	-11.1622
▁애플	-11.1625
▁장르	-11.1627
▁holds	-11.1628
▁심화	-11.1628
▁방탄소년단	-11.1628
▁고기	-11.1628
함이	-11.1632
▁필요할	-11.1633
시간을	-11.1635
▁동아리	-11.1636
▁형식	-11.1636
▁strategies	-11.1638
름	-11.164
▁한인	-11.1642
jeon	-11.1647
▁자극	-11.1648
▁내내	-11.1648
▁취득	-11.165
▁농촌	-11.1651
▁하거나	-11.1653
▁이내로	-11.1655
도지사	-11.1659
▁주체	-11.166
▁사건의	-11.166
▁발생해	-11.1661
▁enjoying	-11.1663
▁기존에	-11.1667
▁solved	-11.1667
▁John	-11.1667
▁성폭행	-11.1667
▁부분에	-11.1668
대는	-11.1668
▁theory	-11.1668
▁bond	-11.1668
▁세계에서	-11.1669
▁FA	-11.1669
▁Awards	-11.1673
▁열릴	-11.1673
▁Olympic	-11.1677
▁수준이	-11.1677
▁설비	-11.1677
▁결	-11.1678
▁너를	-11.168
▁Asiana	-11.1681
▁마지막으로	-11.1684
▁국무위원장이	-11.1686
▁sauce	-11.169
▁옥	-11.1691
ish	-11.1694
엘	-11.1695
▁bridge	-11.1698
▁Gwangjin	-11.1699
자와	-11.17
▁각국	-11.1702
▁glass	-11.1704
▁celebrate	-11.1708
▁Mike	-11.171
▁진행한	-11.171
▁최신	-11.171
Park	-11.1712
▁Ri	-11.1715
▁며칠	-11.1716
▁과정에	-11.1717
▁사찰	-11.1722
▁ban	-11.1722
▁자가	-11.1724
▁exhibitions	-11.1725
▁identify	-11.1726
ong	-11.1726
침	-11.1727
▁cast	-11.1727
▁면제	-11.1729
bok	-11.1731
관이	-11.1732
▁Prize	-11.1733
▁빛	-11.1737
억원이	-11.1738
[	-11.1738
▁재료	-11.1741
션	-11.1742
▁kilometers	-11.1742
▁pieces	-11.1743
▁Job	-11.1744
▁호에	-11.1747
▁증상	-11.1749
rae	-11.175
▁subsidiary	-11.1751
▁늘어날	-11.1751
▁걸릴	-11.1752
▁aired	-11.1752
▁휴대폰	-11.1753
▁Q	-11.1755
▁countermeasures	-11.1756
▁spicy	-11.176
▁부지	-11.1762
▁75	-11.1764
▁구속영장	-11.1767
▁harmony	-11.1768
▁refugees	-11.177
척	-11.1771
▁호와	-11.1772
▁earnings	-11.1773
200	-11.1779
▁honorary	-11.178
▁되며	-11.1781
▁신발	-11.1781
▁있었는데	-11.1781
▁Yeo	-11.1784
▁준용한다	-11.1786
▁chat	-11.1787
du	-11.1789
(4	-11.1789
▁지원사업	-11.1789
▁핸드폰	-11.1789
▁strange	-11.1791
▁Force	-11.1792
▁시리즈	-11.1792
▁안정적인	-11.1797
▁comfort	-11.1797
▁입금	-11.1799
▁손흥민	-11.18
▁정지	-11.1802
▁진화	-11.1803
▁Summit	-11.1803
▁garbage	-11.1803
▁테니	-11.1805
▁UN	-11.1806
▁발달	-11.1809
▁단독	-11.181
▁counter	-11.1815
▁processed	-11.1815
▁않는다는	-11.1818
▁outcome	-11.182
▁startups	-11.1821
▁아베	-11.1822
▁beat	-11.1822
▁맛있는	-11.1822
▁impose	-11.1823
▁포함하여	-11.1823
▁여유	-11.1824
▁판사	-11.1827
▁정의당	-11.1829
▁주말에	-11.1831
▁조명	-11.1834
▁장이	-11.1835
▁신호	-11.1841
▁먹	-11.1842
▁withdraw	-11.1845
▁학생들은	-11.1847
착	-11.1847
▁서울대	-11.1849
▁판정	-11.185
▁중소	-11.185
▁cream	-11.1852
▁regarded	-11.1853
창업	-11.1856
▁incumbent	-11.1856
▁휴대전화	-11.1857
▁engineering	-11.1861
▁최초의	-11.1861
▁회의에	-11.1862
▁세월호	-11.1864
선을	-11.1865
▁장식	-11.1865
▁charm	-11.1867
례	-11.187
▁joy	-11.1872
▁무역전쟁	-11.1872
▁기업에	-11.1873
▁adult	-11.1873
▁메	-11.1874
▁Abe	-11.188
▁worst	-11.1883
▁admitted	-11.1883
▁경력	-11.1885
과학	-11.1888
밀	-11.1891
▁mandatory	-11.1891
▁struggling	-11.1891
▁스타일	-11.1892
▁마감	-11.1894
▁error	-11.1897
▁데이터를	-11.1902
▁54	-11.1903
▁통상	-11.1903
▁위촉한다	-11.1905
▁Ro	-11.1905
▁draft	-11.1906
▁서초구	-11.1906
▁crackdown	-11.1906
▁2021	-11.1908
▁Chae	-11.191
▁Pro	-11.1911
▁강도	-11.1913
▁찍은	-11.1917
▁Exhibition	-11.1918
▁assaulted	-11.1918
위로	-11.192
▁analyze	-11.192
▁answers	-11.1925
소득	-11.1926
▁시정	-11.1927
▁경쟁이	-11.1927
▁문화가	-11.1927
▁copy	-11.1928
었는데	-11.1928
▁Training	-11.1929
▁기준에	-11.1929
“	-11.193
▁neighbors	-11.1934
사와	-11.1936
guk	-11.1937
▁주제	-11.1938
▁정보가	-11.1941
▁찬	-11.1941
▁Conference	-11.1945
▁exit	-11.1946
▁우주	-11.1946
께서	-11.1947
▁정권	-11.1947
원장	-11.1948
▁south	-11.1948
▁안전관리	-11.1949
▁비율	-11.195
▁위원이	-11.195
▁편의점	-11.1951
▁마련된	-11.1954
▁ships	-11.1958
▁arranged	-11.1958
▁fires	-11.1959
▁주민의	-11.196
▁채택	-11.1962
점이	-11.1963
▁허위	-11.1964
▁만족도	-11.1964
▁GS	-11.1965
▁쇼	-11.1965
스가	-11.1966
▁대법원장	-11.1967
▁기소	-11.1967
▁소관	-11.1967
▁producing	-11.1967
▁준비를	-11.1969
▁채권	-11.197
▁저렴한	-11.1971
▁satisfied	-11.1972
회를	-11.1975
▁risks	-11.1976
▁융자	-11.1977
▁Resources	-11.1978
▁seriously	-11.1978
▁practices	-11.198
▁royal	-11.198
▁진로	-11.1981
▁농	-11.1982
▁winners	-11.1983
생산	-11.1985
▁north	-11.1985
자동차	-11.1986
▁Goryeo	-11.1989
▁hometown	-11.199
▁그럴	-11.199
▁분명히	-11.1991
▁입장이다	-11.1991
▁Framework	-11.1992
까지는	-11.1993
ally	-11.1995
▁dementia	-11.1998
-1	-11.1999
▁controversial	-11.2007
▁timing	-11.2007
▁swimming	-11.2007
▁Club	-11.2007
▁들어갔다	-11.2012
▁주변에	-11.2013
▁연수	-11.2015
하라고	-11.2016
장에	-11.2017
낸	-11.2017
▁하나가	-11.2018
▁출전	-11.2019
전에	-11.202
▁듯한	-11.202
▁보유하고	-11.2021
▁institutional	-11.2022
일이	-11.2022
yeong	-11.2025
▁제목	-11.2025
▁Election	-11.2025
▁POSCO	-11.2025
▁것이라	-11.2026
▁lowered	-11.2027
▁harmful	-11.2028
▁고위	-11.2028
▁라인	-11.2028
▁130	-11.2028
▁informed	-11.2029
▁accurate	-11.2032
해졌다	-11.2032
▁생활을	-11.2033
▁imports	-11.2033
▁Tuesday	-11.2033
람	-11.2036
▁상상	-11.2038
▁critical	-11.2038
▁늦게	-11.204
▁구청장의	-11.2042
▁토요일	-11.2042
▁캠프	-11.2046
pe	-11.2046
00	-11.2046
▁granted	-11.2048
▁fails	-11.2049
▁본인이	-11.205
▁provision	-11.205
에너지	-11.205
안을	-11.2052
▁없었던	-11.2053
▁검사를	-11.2056
▁자율	-11.2057
집니다	-11.2057
▁아프리카	-11.2058
che	-11.2061
부문	-11.2061
▁정식	-11.2061
▁fighting	-11.2063
▁보고서	-11.2064
▁clothing	-11.2064
▁attempt	-11.2065
▁disputes	-11.2067
▁somewhat	-11.207
▁실적이	-11.207
▁Chan	-11.2073
▁Al	-11.2073
Constitutional	-11.2073
▁balanced	-11.2077
▁allowance	-11.2078
능력	-11.2078
▁노출	-11.2078
▁실시간	-11.2079
▁함	-11.2079
▁환영	-11.2081
지로	-11.2082
49	-11.2082
▁농산물	-11.2084
호가	-11.2085
▁smell	-11.2086
▁간사는	-11.2088
▁드론	-11.2088
▁색	-11.2092
▁단원	-11.2093
▁베이징	-11.2094
▁Every	-11.2095
▁양측	-11.2097
▁좋겠어요	-11.2098
▁부분은	-11.2102
▁이뤄진	-11.2105
▁성공적	-11.2105
▁passion	-11.2108
deok	-11.2108
▁투수	-11.2109
▁초반	-11.211
▁맞지	-11.2114
▁유일한	-11.2115
▁kitchen	-11.2115
▁Theater	-11.2115
▁바닥	-11.2116
▁구현	-11.2116
▁어떠한	-11.2117
▁Commerce	-11.2117
300	-11.2121
▁limitations	-11.2122
▁확인한	-11.2122
▁Hana	-11.2124
lu	-11.2124
▁냄새	-11.2124
▁Here	-11.2125
▁무대에	-11.2127
▁많지	-11.2129
▁입지	-11.2129
▁shock	-11.213
▁높이는	-11.2131
▁한복	-11.2132
▁precious	-11.2133
▁Chosun	-11.2134
냈다	-11.2135
▁모임	-11.214
여명	-11.214
▁expiration	-11.2142
▁불편	-11.2145
like	-11.2145
▁바라	-11.2147
▁보여준다	-11.2148
▁적응	-11.2149
family	-11.215
영화	-11.2151
▁inauguration	-11.2151
▁Uzbekistan	-11.2153
99	-11.2154
▁음	-11.2156
▁larger	-11.2157
▁류	-11.2158
Chairman	-11.2159
이야	-11.216
먼	-11.2162
평화	-11.2162
등록	-11.2165
▁발언을	-11.2175
▁강서구	-11.2176
▁지휘	-11.2176
▁삭제	-11.2177
▁모습	-11.2178
▁waves	-11.2178
▁probably	-11.2178
▁Chungnam	-11.218
예산	-11.2181
▁대표이사	-11.2183
▁이상으로	-11.2186
use	-11.2188
세를	-11.2188
▁발견된	-11.2189
으니	-11.219
공간	-11.2191
▁대여	-11.2194
▁perception	-11.2196
▁boyfriend	-11.2196
▁컸다	-11.2197
▁Kookmin	-11.2197
▁Any	-11.2198
▁때가	-11.2198
▁옆	-11.2199
▁아침에	-11.22
▁많아서	-11.22
▁risen	-11.2201
▁thorough	-11.2204
tan	-11.2204
▁Okay	-11.2206
▁폭	-11.2207
▁missed	-11.2211
▁조각	-11.2211
▁원칙으로	-11.2211
해진	-11.2213
▁promising	-11.2215
▁경기도지사	-11.2217
▁물이	-11.2218
진흥	-11.2219
▁미사일	-11.2221
▁국민이	-11.2222
▁태권도	-11.2222
▁regret	-11.2224
▁마세요	-11.2225
55	-11.2226
▁항공기	-11.2228
▁나눔	-11.2228
식품	-11.2228
▁Articles	-11.2228
▁지정된	-11.2231
32	-11.2233
▁요청했다	-11.2236
▁딱	-11.2237
▁그에게	-11.2238
▁압수수색	-11.2238
▁야당	-11.2238
▁Jakarta	-11.2242
▁abundant	-11.2242
▁angry	-11.2242
▁Eui	-11.2244
▁최근에는	-11.2244
▁차량이	-11.2247
▁franchise	-11.225
▁circles	-11.225
인의	-11.2251
▁bread	-11.2252
▁봉	-11.2253
▁일에	-11.2253
gok	-11.2256
▁떨어지는	-11.2257
▁곳을	-11.2258
▁주목	-11.226
▁증상이	-11.226
▁학원	-11.2261
해질	-11.2261
▁percentage	-11.2264
▁조처	-11.2267
장의	-11.2268
▁입시	-11.2268
▁방해	-11.227
▁generated	-11.2272
▁기기	-11.2273
▁충전	-11.2274
게임	-11.2274
44	-11.2275
▁손님	-11.2277
▁insufficient	-11.2279
▁bodies	-11.2279
▁utilizing	-11.2279
▁Protection	-11.2279
▁MC	-11.2283
▁Super	-11.2283
▁가끔	-11.2284
▁구청장	-11.2285
ir	-11.2286
▁particularly	-11.2286
▁bear	-11.2287
arious	-11.2287
▁지닌	-11.2289
여서	-11.2289
▁농도	-11.229
▁주목을	-11.2291
▁부실	-11.2294
▁준수	-11.2297
▁방안이	-11.2297
▁insisted	-11.2298
▁tend	-11.23
▁piece	-11.23
▁Con	-11.2301
▁Unions	-11.2304
▁한강	-11.2305
▁대한항공	-11.2312
▁Guro	-11.2312
▁기업을	-11.2313
▁이뤄졌다	-11.2314
vi	-11.2315
▁코리아	-11.2316
▁Judge	-11.232
▁번호	-11.2324
▁minimize	-11.2325
▁실시하고	-11.2326
▁그렇다면	-11.2326
▁인물	-11.2329
▁Card	-11.2329
하시면	-11.2329
▁이들을	-11.2329
▁금액을	-11.2332
취	-11.2334
▁찍어	-11.2335
노동	-11.2335
▁개선을	-11.2338
▁산림	-11.234
▁note	-11.2341
▁빅데이터	-11.2341
▁개인정보	-11.2341
▁유행	-11.2343
▁의뢰	-11.2343
▁들어서	-11.2344
▁length	-11.2344
▁anger	-11.2346
▁물질	-11.2347
▁사고를	-11.2347
▁JTBC	-11.2349
▁논문	-11.235
▁업종	-11.2353
ster	-11.2354
▁super	-11.2355
감을	-11.2357
▁hate	-11.2359
▁성장을	-11.2359
ti	-11.2361
▁curious	-11.2362
▁앉아	-11.2365
전을	-11.2367
건이	-11.2369
▁청주	-11.2371
▁sitting	-11.2372
▁높게	-11.2374
▁joining	-11.2374
▁건의	-11.2376
▁경제가	-11.2376
▁vegetables	-11.2377
▁humans	-11.2378
▁이익	-11.238
▁협상이	-11.2381
대에	-11.2382
▁나타나	-11.2383
▁매월	-11.2385
▁고정	-11.2387
▁slowdown	-11.239
▁널리	-11.2391
▁partially	-11.2391
▁체육	-11.2392
▁link	-11.2394
▁2.5	-11.2395
▁killing	-11.2396
▁truck	-11.24
른	-11.2403
▁operates	-11.2404
힌	-11.2406
mon	-11.2406
들로	-11.2408
▁temple	-11.2409
about	-11.2409
▁earth	-11.2413
장애인	-11.2416
▁die	-11.2417
▁officio	-11.2418
▁Environmental	-11.2423
▁임직원	-11.2425
▁championship	-11.2427
▁집으로	-11.2428
잔	-11.2428
였습니다	-11.2429
▁세계적으로	-11.2429
▁indicators	-11.2431
▁investigations	-11.2434
▁과일	-11.2435
ca	-11.2437
▁delegation	-11.2437
▁면	-11.2437
gyu	-11.2437
▁특징	-11.2437
▁활발	-11.244
▁exactly	-11.2441
▁나오지	-11.2442
▁자리가	-11.2443
▁states	-11.2443
My	-11.2445
▁내놓은	-11.2446
▁제도를	-11.2446
▁연락을	-11.2447
▁cycle	-11.2451
kyun	-11.2453
▁west	-11.2455
지수	-11.2455
▁folk	-11.2455
하라	-11.2456
▁advertisement	-11.2458
▁하던	-11.2458
▁화면	-11.246
▁convention	-11.2461
▁용인	-11.2463
bak	-11.2464
▁2014,	-11.2465
▁Jeonnam	-11.2466
▁위촉직	-11.2466
▁기관의	-11.2467
▁numbers	-11.247
▁funding	-11.2471
▁manpower	-11.2474
▁effectively	-11.248
고등학교	-11.2481
▁Does	-11.2481
▁분류	-11.2481
▁literature	-11.2484
▁preservation	-11.2484
▁sexually	-11.2484
▁작품이	-11.2485
▁대행	-11.2485
▁가능할	-11.2486
▁급여	-11.2486
규제	-11.2488
섬	-11.2491
88	-11.2492
▁맡고	-11.2493
▁소규모	-11.2494
▁LED	-11.2495
▁농가	-11.2497
▁지명	-11.25
앤	-11.2502
탑	-11.2503
▁출마	-11.2505
▁즐기는	-11.2505
억원으로	-11.2506
▁송금	-11.2507
▁유리	-11.251
▁고양	-11.2511
▁있다며	-11.2511
▁상승세	-11.2513
▁미국에	-11.2513
▁생각하고	-11.2513
▁세금	-11.2515
▁statements	-11.2515
▁earned	-11.2516
▁공인	-11.2518
▁denied	-11.2521
▁박람회	-11.2521
▁당분간	-11.2521
상품	-11.2522
빛	-11.2528
▁내지	-11.2531
▁하노이	-11.2531
▁무려	-11.2533
▁계열사	-11.2533
▁stayed	-11.2535
▁시내	-11.2535
▁높았다	-11.2535
▁시기에	-11.2536
▁않아서	-11.2536
▁Indian	-11.254
▁danger	-11.254
▁collaboration	-11.254
▁colonial	-11.254
▁stages	-11.2541
▁constantly	-11.2542
▁휴가	-11.2542
▁본사	-11.2542
ka	-11.2544
▁보육	-11.2546
개선	-11.2547
▁행보	-11.2549
님	-11.2549
▁offers	-11.2549
▁membership	-11.2551
▁치열한	-11.2554
▁engage	-11.2555
▁축	-11.2556
▁Tour	-11.2557
▁독	-11.2558
▁row	-11.2559
▁대중교통	-11.2559
▁excluding	-11.2563
▁국경	-11.2564
▁reviewing	-11.2566
▁지체	-11.2566
▁관리에	-11.2566
dy	-11.2567
▁Italy	-11.2568
▁Ka	-11.2568
주기	-11.2569
▁시점	-11.2569
▁scholarship	-11.257
▁정책에	-11.2572
▁창원	-11.2572
육	-11.2575
▁consultations	-11.2575
▁누군가	-11.2577
▁Uijeongbu	-11.2578
▁자카르타	-11.2578
▁정도가	-11.2578
▁시민단체	-11.2579
▁선호	-11.2579
▁된다고	-11.2581
▁다음과	-11.2582
▁reviews	-11.2584
▁사유로	-11.2585
▁girlfriend	-11.2585
▁들을	-11.2585
▁주최	-11.259
▁근처에	-11.259
▁상환	-11.259
▁sensitive	-11.2594
분석	-11.2595
▁Airlines	-11.2597
▁assistance	-11.2597
▁temperatures	-11.2597
▁대학교	-11.2597
화가	-11.2597
▁배정	-11.2598
▁Di	-11.2598
▁독특한	-11.2599
▁Gimpo	-11.2599
▁넘치는	-11.2601
▁beach	-11.2601
도서관	-11.2602
▁tuition	-11.2603
▁전해	-11.2603
▁강사	-11.2605
▁alliance	-11.2606
75	-11.2608
▁크리스마스	-11.2609
학습	-11.261
▁드리겠습니다	-11.2612
▁KTX	-11.2612
▁contain	-11.2613
▁만족	-11.2614
▁Members	-11.2616
▁한계가	-11.2616
곳이	-11.2617
▁studio	-11.2617
▁subscription	-11.2617
▁stake	-11.2618
▁특화	-11.2618
▁홀	-11.2621
▁화장실	-11.2624
국민	-11.2624
▁Lunar	-11.2625
분이	-11.2627
▁대중	-11.2628
재단	-11.2629
ative	-11.263
ring	-11.263
▁unexpected	-11.2633
▁친구들	-11.2633
▁uniform	-11.2634
▁격차	-11.2635
▁연구개발	-11.2636
▁소화	-11.2637
▁훌륭한	-11.2639
▁seniors	-11.2639
52	-11.2642
▁glad	-11.2644
▁calculation	-11.2644
▁열기	-11.2645
▁통보하여야	-11.2646
President	-11.2646
▁carbon	-11.2647
▁intended	-11.265
회가	-11.2651
▁소설	-11.2652
▁재배	-11.2652
▁53	-11.2655
▁client	-11.2656
▁임신	-11.2657
▁남녀	-11.2657
인력	-11.2658
▁국민들	-11.2658
▁실질적인	-11.266
▁완전	-11.266
▁Given	-11.2661
▁d	-11.2661
▁teach	-11.2662
▁개통	-11.2664
▁Major	-11.2666
▁Du	-11.2669
▁citing	-11.267
▁Revolution	-11.267
낼	-11.267
▁놀	-11.2672
▁expressing	-11.2673
▁빠져	-11.2673
▁temporarily	-11.2673
▁1970	-11.2676
▁answered	-11.2676
몰	-11.2678
▁시작됐다	-11.268
▁대사	-11.268
400	-11.2681
▁곧바로	-11.2683
▁할지	-11.2683
▁subscribers	-11.2684
▁assigned	-11.2684
▁correction	-11.2688
페	-11.2688
▁않을까	-11.2689
▁녹색	-11.269
▁가질	-11.2691
▁감염	-11.2691
▁업데이트	-11.2692
▁systematic	-11.2693
▁고교	-11.2693
▁지도자	-11.2697
▁사용해	-11.2698
▁전통시장	-11.2699
▁volunteers	-11.2699
▁물류	-11.2701
▁하나님의	-11.2701
▁Winter	-11.2706
세가	-11.2708
▁주관	-11.2709
▁배려	-11.2709
▁pursue	-11.271
▁2003	-11.2711
pi	-11.2711
▁단기	-11.2712
▁참가자	-11.2717
탕	-11.272
▁Wi	-11.2721
▁separated	-11.2722
▁조례에서	-11.2724
▁교육과정	-11.2726
▁이게	-11.2726
▁artistic	-11.2727
▁조언	-11.2728
▁수치	-11.2729
▁터	-11.273
▁상가	-11.273
▁ministries	-11.2731
▁심지어	-11.2731
▁당한	-11.2731
▁도서	-11.2731
▁영화는	-11.2731
▁지위	-11.2733
▁con	-11.2734
▁포항	-11.2735
▁east	-11.2739
다운	-11.274
▁주인	-11.274
▁reflecting	-11.2741
85	-11.2741
▁seminar	-11.2743
▁63	-11.2744
▁faced	-11.2744
▁도쿄	-11.2747
▁중동	-11.2747
seon	-11.2749
▁fostering	-11.2753
▁진행했다	-11.2754
▁땅	-11.2754
▁Coast	-11.2755
hae	-11.2758
▁서울의	-11.2758
▁상생	-11.2759
전이	-11.2759
▁ferry	-11.2759
▁Contest	-11.2759
▁disposition	-11.276
▁Will	-11.2761
▁백화점	-11.2763
▁요청한	-11.2763
▁어려워	-11.2764
▁hearts	-11.2764
▁주민이	-11.2766
▁주도	-11.2767
fledged	-11.2769
▁reveal	-11.277
He	-11.277
토록	-11.277
▁위원회에	-11.277
▁considerable	-11.277
▁다르게	-11.277
ner	-11.2772
▁되도록	-11.2773
▁지원하고	-11.2774
▁stronger	-11.2775
▁모니터링	-11.2776
▁5%	-11.2776
▁영수증	-11.2777
▁struggle	-11.2778
▁sixth	-11.2778
▁제고	-11.2778
Presidential	-11.278
▁곳곳에	-11.2781
▁pitcher	-11.2782
▁VR	-11.2784
▁donations	-11.2785
▁지불	-11.2786
▁기관이	-11.2786
▁scores	-11.2788
▁en	-11.2788
▁Open	-11.279
▁느끼는	-11.2792
▁운송	-11.2792
▁intellectual	-11.2793
시가	-11.2793
▁질환	-11.2794
▁육	-11.2797
▁origin	-11.2799
▁방식	-11.2807
▁advertisements	-11.2807
▁방향	-11.2808
▁visual	-11.281
위는	-11.2812
▁점수	-11.2813
▁만들어진	-11.2815
▁emotions	-11.2823
▁secondary	-11.2823
▁풀어	-11.2824
▁수행할	-11.2824
▁연말	-11.2825
하였으며	-11.2825
▁tension	-11.2825
▁담당하는	-11.2825
▁몸이	-11.2826
싱	-11.2827
▁bid	-11.2828
6%	-11.2829
▁Black	-11.283
▁영향력	-11.283
▁shipment	-11.2831
▁intensive	-11.2831
▁aim	-11.2832
▁촉구했다	-11.2834
▁hire	-11.2834
▁welcome	-11.2836
값	-11.2838
▁정신	-11.2839
▁맞은	-11.284
▁부산시	-11.2841
▁인정되는	-11.2841
▁음식이	-11.2841
▁역사적	-11.2842
▁승	-11.2842
▁reserve	-11.2844
이상	-11.2845
▁원인이	-11.2845
▁원칙	-11.2846
▁academy	-11.2847
▁형태의	-11.2848
▁typical	-11.2849
▁59	-11.2852
▁cutting	-11.2853
▁장점	-11.2854
▁지방선거	-11.2854
hyuk	-11.2858
▁보내는	-11.2859
59	-11.2859
▁시간은	-11.2859
▁추세	-11.2864
▁marks	-11.2867
▁희생	-11.2868
▁붕괴	-11.287
▁두산	-11.287
▁달라고	-11.287
▁직전	-11.2872
▁breaking	-11.2873
▁벌이고	-11.2873
▁beef	-11.2875
▁총선	-11.2875
▁쉬운	-11.2876
▁otherwise	-11.2876
▁발견됐다	-11.2878
문제	-11.2879
▁청원	-11.2884
▁한해	-11.2884
▁작업이	-11.2884
▁Building	-11.2886
▁Gangdong	-11.2887
▁letters	-11.289
▁되길	-11.2893
▁양식	-11.2894
▁사건에	-11.2894
▁heating	-11.2895
▁commander	-11.2895
▁자료에	-11.2895
홀	-11.2896
ut	-11.2896
▁종종	-11.2897
▁김영	-11.2897
▁종목	-11.2898
데다	-11.2898
▁치매	-11.2899
▁세종	-11.2899
▁부대	-11.2899
▁예산이	-11.29
▁기대가	-11.2901
08	-11.2901
▁Ok	-11.2902
물을	-11.2903
▁Africa	-11.2907
▁구역	-11.291
▁Inter	-11.291
▁충돌	-11.2911
▁Except	-11.2912
▁fines	-11.2916
▁cloud	-11.2917
▁언제나	-11.2918
▁기업과	-11.2918
▁총괄	-11.2919
▁Hello	-11.2919
▁경기도내	-11.2921
▁settle	-11.2921
▁easing	-11.2922
▁defeat	-11.2923
▁병원에	-11.2923
▁보인	-11.2923
▁타격	-11.2925
▁해체	-11.2927
General	-11.2929
▁규모로	-11.2929
▁수비	-11.2932
5%	-11.2935
uk	-11.2935
▁sustainable	-11.2936
액이	-11.2937
▁minor	-11.2938
됐다고	-11.2943
▁속도가	-11.2943
▁Heavy	-11.2944
▁Gwang	-11.2946
ya	-11.2947
물질	-11.2948
시티	-11.2957
▁자살	-11.2957
▁noodles	-11.2959
▁이곳은	-11.2961
ron	-11.2961
▁점포	-11.2964
▁대통령을	-11.2964
차전	-11.2965
▁티	-11.2966
▁1998	-11.2966
▁아니지만	-11.2968
구나	-11.2968
▁인생	-11.2968
▁방식을	-11.2969
사랑	-11.2972
▁Like	-11.2972
▁solutions	-11.2974
궁	-11.2975
▁반발	-11.2976
▁Geum	-11.2976
▁succeed	-11.2976
의원	-11.2978
▁공고	-11.298
▁proud	-11.2982
일로	-11.2984
▁움직임	-11.2985
▁쏠리고	-11.2985
▁리더	-11.2991
▁산불	-11.2992
▁pastor	-11.2992
▁증명	-11.2992
▁concrete	-11.2994
▁폭염	-11.2996
▁Lake	-11.2996
▁개정안	-11.2997
▁연구원	-11.2997
▁투자가	-11.2998
▁탑승	-11.2998
받아	-11.2999
▁착용	-11.2999
▁추적	-11.2999
면서도	-11.3
▁논리	-11.3
▁소송을	-11.3001
▁deceased	-11.3004
▁발전에	-11.3004
▁Seon	-11.3005
련	-11.3007
▁analyzing	-11.3007
▁reviewed	-11.3009
▁정황	-11.3011
▁알리는	-11.3012
▁사업으로	-11.3012
▁collective	-11.3012
▁낙	-11.3013
▁엄청난	-11.3014
▁받았습니다	-11.3014
죄	-11.3014
▁restricted	-11.3014
▁수십	-11.3016
▁높이기	-11.3017
▁weapon	-11.3018
▁음식점	-11.302
▁Hu	-11.3022
▁impressive	-11.3024
▁Gyeongju	-11.3024
▁fail	-11.3024
▁violated	-11.3027
장에서	-11.3029
분께	-11.3032
허가	-11.3032
예방	-11.3033
47	-11.3034
▁장면이	-11.3034
▁주지	-11.3036
▁수준을	-11.3038
▁attractions	-11.3039
▁교통사고	-11.304
▁원전	-11.3042
▁남부	-11.3043
▁recession	-11.3043
▁강아지	-11.3043
장비	-11.3044
▁많습니다	-11.3044
▁Transportation	-11.3045
측	-11.3046
팔	-11.3046
식이	-11.3047
▁western	-11.3048
▁scenes	-11.3048
▁expectation	-11.3049
▁오면	-11.3052
▁컨설팅	-11.3054
▁아예	-11.3055
▁되면서	-11.3057
▁마련한	-11.3057
▁식물	-11.3062
▁성경	-11.3062
▁말까지	-11.3063
씨와	-11.3064
▁Library	-11.3065
▁cargo	-11.3066
▁국가가	-11.3066
▁대처	-11.3068
▁abandoned	-11.3068
▁금액	-11.3068
▁부정적	-11.307
▁restore	-11.307
▁wastes	-11.307
▁어렵다는	-11.3071
▁Byeong	-11.3071
▁지수	-11.3072
▁넓은	-11.3073
시쯤	-11.3073
▁여건	-11.3073
chang	-11.3076
▁담아	-11.3078
▁회사는	-11.3079
진이	-11.308
▁colorful	-11.308
▁Great	-11.308
▁회사에서	-11.3082
▁동반	-11.3083
▁참가한	-11.3087
▁interviews	-11.3088
▁GM	-11.3088
face	-11.3091
▁Woori	-11.3091
▁출입	-11.3094
▁실시하는	-11.3094
▁72	-11.3095
학원	-11.3095
▁확인했다	-11.3096
되기도	-11.3096
▁얻어	-11.3099
▁attraction	-11.3099
aged	-11.3101
▁Doo	-11.3101
▁끌었다	-11.3104
▁화성	-11.3106
군의	-11.3108
▁manufacturers	-11.3109
▁손실	-11.3109
▁제시한	-11.3113
▁다섯	-11.3113
▁certificates	-11.3114
▁cook	-11.3115
▁인정할	-11.3116
▁파리	-11.3117
쉬	-11.3117
▁시에	-11.3117
이랑	-11.3118
▁사업이다	-11.3119
▁물량	-11.3119
▁surprise	-11.3119
▁광역	-11.3119
▁이미지를	-11.312
▁Period	-11.3123
▁트위터	-11.3124
▁Brexit	-11.3127
▁subcommittee	-11.3128
mp	-11.313
▁함은	-11.313
▁preferential	-11.3131
▁배우고	-11.3132
전략	-11.3133
▁64	-11.3134
▁회수	-11.3134
▁radio	-11.3138
▁dealing	-11.3143
▁대다수	-11.3143
▁느낌이	-11.3144
▁지사가	-11.3145
선수	-11.3147
▁돌봄	-11.315
▁탄생	-11.3151
률이	-11.3152
▁Shanghai	-11.3153
▁guilty	-11.3153
▁왼쪽	-11.3155
▁기분	-11.3159
▁입력	-11.316
▁일본에서	-11.3161
▁신제품	-11.3162
▁걸어	-11.3162
▁London	-11.3163
▁Myanmar	-11.3163
▁booked	-11.3164
▁차가	-11.3165
▁qualification	-11.317
▁마리	-11.3171
▁적정	-11.3174
▁운영한다	-11.3174
▁Audit	-11.3174
▁아니고	-11.3178
▁계좌	-11.3178
법을	-11.3179
▁graduates	-11.3181
▁Jinju	-11.3181
▁갤럭시	-11.3183
▁calculated	-11.3185
▁democracy	-11.3193
▁56	-11.3195
▁작성한	-11.3196
▁오염	-11.3197
▁novel	-11.3198
▁클	-11.32
건으로	-11.3202
▁자회사	-11.3207
▁기조	-11.3208
▁엔진	-11.3208
▁calm	-11.3211
▁explains	-11.3212
▁생길	-11.3214
▁준다	-11.3219
▁준비한	-11.3219
▁violate	-11.322
▁끝나고	-11.3223
▁전직	-11.3225
▁결정했다	-11.3228
▁파주	-11.3229
▁페스티벌	-11.3229
▁earn	-11.3229
더니	-11.3231
▁보내고	-11.3233
▁pace	-11.3233
했어	-11.3234
겨	-11.3238
▁북미정상회담	-11.3238
맨	-11.3238
박물관	-11.3238
▁텐데	-11.3239
▁맥	-11.3242
▁Property	-11.3244
▁intense	-11.3244
▁둘째	-11.3244
▁최악	-11.3245
▁종사자	-11.3247
▁권고	-11.3247
▁Wang	-11.3247
만한	-11.3247
사항	-11.3248
▁들어가는	-11.3251
▁affiliates	-11.3252
▁선진국	-11.3252
▁한계	-11.3252
▁너무나	-11.3253
▁공감	-11.3253
▁furniture	-11.3254
▁얻은	-11.3254
▁speculation	-11.3254
▁tariff	-11.3254
▁경주	-11.3254
▁손해배상	-11.3257
▁revise	-11.326
▁전주	-11.3263
▁그날	-11.3265
▁늘어나고	-11.3268
웅	-11.3269
▁수석	-11.3269
▁shortly	-11.3269
▁적합한	-11.327
▁resume	-11.3271
▁flat	-11.3271
▁achievement	-11.3271
▁기여	-11.3271
▁kids	-11.3272
▁주최하고	-11.3272
▁indoor	-11.3272
▁내게	-11.3273
하다가	-11.3274
▁revitalization	-11.3274
hi	-11.3275
▁솔루션	-11.3278
▁pending	-11.3279
▁계속해서	-11.3281
▁클라우드	-11.3282
▁Private	-11.3282
▁relocation	-11.3284
체제	-11.3291
▁exist	-11.3294
▁다음에	-11.3295
▁childbirth	-11.3295
▁동생	-11.3295
▁경기북부	-11.3297
▁예산안	-11.3297
▁무죄	-11.3297
▁Y	-11.33
▁이뤄지지	-11.3303
64	-11.3303
▁Yeosu	-11.3305
▁한글	-11.3306
▁England	-11.3307
▁사례를	-11.3309
▁방어	-11.3309
Japan	-11.3311
▁Students	-11.3311
▁페	-11.3313
▁titled	-11.3313
▁달에	-11.3314
▁superior	-11.3314
▁영향	-11.3315
▁분쟁	-11.3315
▁당해	-11.3318
▁가맹점	-11.3318
리는	-11.3318
▁contained	-11.3319
▁rumors	-11.332
▁감면	-11.3322
▁Football	-11.3325
▁Plaza	-11.3325
▁아빠	-11.3325
▁제외하고는	-11.3327
▁요구했다	-11.3333
▁한미	-11.3334
46	-11.3337
▁막을	-11.3337
▁walls	-11.3337
▁인천시	-11.3339
66	-11.3341
하시는	-11.3341
▁끈다	-11.3342
지지	-11.3345
▁대법관	-11.3345
CC	-11.3345
▁Persons	-11.3345
▁Establishment	-11.3346
▁Drug	-11.3346
종합	-11.3346
▁들여	-11.3347
▁어디서	-11.3351
▁모았다	-11.3352
▁밴드	-11.3353
▁가족과	-11.3354
▁marked	-11.3355
▁전문성	-11.3357
▁심한	-11.3358
▁Iranian	-11.3359
▁객실	-11.3359
▁없는데	-11.3359
light	-11.3363
결과	-11.3364
▁밖으로	-11.3365
yo	-11.3365
▁은퇴	-11.3366
▁보지	-11.3368
▁iron	-11.337
▁Jeonbuk	-11.3371
▁incentives	-11.3373
▁consultati	-11.3374
▁가입자	-11.3375
month	-11.3375
▁보전	-11.3376
▁entity	-11.3376
장애	-11.3376
▁왔습니다	-11.3376
▁발생하지	-11.3377
▁곳곳에서	-11.3378
▁promotional	-11.3378
▁evaluate	-11.3384
하더라도	-11.3386
▁software	-11.3387
▁당연히	-11.3387
▁notification	-11.339
▁68	-11.3391
▁cute	-11.3395
회에	-11.3396
▁equality	-11.3398
▁매입	-11.3399
▁정규직	-11.34
▁쇼핑몰	-11.34
▁coal	-11.3404
▁원내대표가	-11.3404
▁Heo	-11.3407
▁취재	-11.3409
▁turns	-11.3411
84	-11.3414
▁생각에	-11.3415
▁무대를	-11.3417
▁psychological	-11.3417
▁crew	-11.3417
▁restructuring	-11.3417
▁대체로	-11.3418
▁equity	-11.342
▁solving	-11.3421
▁sufficient	-11.3423
▁위탁할	-11.3424
▁마찬가지로	-11.3424
▁talented	-11.3425
▁갖추고	-11.3427
-3	-11.3428
▁demanding	-11.3429
▁supporters	-11.343
▁signal	-11.3432
67	-11.3432
▁지상	-11.3432
▁soil	-11.3434
▁workshop	-11.3436
▁미칠	-11.3437
▁monetary	-11.3438
▁nursing	-11.3438
▁opposite	-11.3438
▁당연직	-11.3441
▁융합	-11.3443
▁Her	-11.3444
▁방법은	-11.3445
▁추정	-11.3448
▁노하우	-11.3448
▁중요성	-11.3449
▁scenery	-11.345
틀	-11.345
▁사용하고	-11.3452
▁후속	-11.3452
▁reflects	-11.3453
▁Officer	-11.3455
▁Prosecutor	-11.3456
Japanese	-11.3456
▁Lawmaker	-11.346
▁Gumi	-11.3461
▁Daewoo	-11.3463
대출	-11.3464
▁lights	-11.3464
pyeong	-11.3465
▁84	-11.3465
▁어깨	-11.3466
▁전략을	-11.3467
▁desk	-11.347
▁characterized	-11.347
bang	-11.3471
▁논	-11.3471
▁저소득층	-11.3472
▁Test	-11.3473
▁churches	-11.3473
▁성향	-11.3477
▁쉬	-11.3478
학생	-11.3479
▁Congress	-11.3479
▁tough	-11.3479
▁포상	-11.348
▁강화를	-11.3481
▁아이템	-11.3483
▁체포	-11.349
▁claiming	-11.349
▁성능	-11.3493
▁찾아가	-11.3494
▁‘2019	-11.3495
▁교육청	-11.3496
▁등장	-11.3496
management	-11.3498
▁음주	-11.3498
▁내리	-11.3499
▁confident	-11.35
▁Ban	-11.3502
▁진학	-11.3506
▁formal	-11.3507
finding	-11.3508
▁역할	-11.3512
▁갔다	-11.3513
고용	-11.3513
▁crowded	-11.3513
▁사립유치원	-11.3517
▁finals	-11.3518
▁오른쪽	-11.3521
▁폭로	-11.3526
▁happens	-11.3527
▁성남	-11.3527
ik	-11.3529
클	-11.3529
▁드립니다	-11.3531
▁hub	-11.3531
▁Deok	-11.3532
▁57	-11.3532
▁사퇴	-11.3532
▁dismissal	-11.3532
▁targets	-11.3534
▁다수의	-11.3534
▁이민	-11.3539
▁수탁자	-11.354
공항	-11.3541
▁하나님	-11.3542
▁parks	-11.3542
▁수급	-11.3547
▁pledge	-11.3548
65	-11.3549
▁누적	-11.355
▁지배	-11.3552
▁Prevention	-11.3552
▁Leader	-11.3553
▁sponsored	-11.3556
▁leg	-11.356
▁발주	-11.3561
▁Regulations	-11.3561
43	-11.3562
▁Expressway	-11.3563
▁댓글	-11.3564
선이	-11.3564
▁1999	-11.3565
IC	-11.3569
▁보고서를	-11.357
포럼	-11.357
▁과학기술	-11.357
미국	-11.3572
▁utilization	-11.3573
▁confusion	-11.3573
▁일환으로	-11.3573
사무	-11.3573
▁보면서	-11.3574
▁않았던	-11.3574
개로	-11.3575
▁캠페인	-11.3576
▁reference	-11.3577
▁발사	-11.3579
▁협의회	-11.358
밤	-11.3581
▁Dongdaemun	-11.3584
▁Smart	-11.3585
▁corresponding	-11.3586
▁말할	-11.3586
▁참여하고	-11.3588
▁everyday	-11.3588
▁이끌어	-11.3591
▁후에는	-11.3591
▁유도	-11.3596
▁차세대	-11.3596
▁브렉시트	-11.3597
▁관찰	-11.36
▁갖는	-11.3601
Since	-11.3603
▁assistant	-11.3603
▁helpful	-11.3604
▁전반에	-11.3605
▁Thai	-11.3605
▁motor	-11.3605
▁moves	-11.3607
▁진보	-11.3608
▁pregnant	-11.3615
▁끊임없	-11.3615
▁patrol	-11.3615
▁ratings	-11.3617
▁hired	-11.3619
▁중입니다	-11.3621
▁해상	-11.3621
연구원은	-11.3623
▁20,000	-11.3623
▁resource	-11.3624
EU	-11.3625
▁생존	-11.3625
▁Ambassador	-11.3626
교사	-11.3626
▁선출	-11.3628
▁자본	-11.3629
▁손해	-11.3631
혼	-11.3633
general	-11.3634
Act	-11.3634
▁extraordinary	-11.3636
ryong	-11.3637
▁안전성	-11.3639
▁제기한	-11.3643
mu	-11.3644
▁accommodation	-11.3645
▁택배	-11.3645
▁Spanish	-11.3647
▁FSS	-11.3647
▁조금씩	-11.3648
▁이익을	-11.3649
▁귀사	-11.3649
▁비교해	-11.3652
▁영화제	-11.3652
chairperson	-11.3656
▁manual	-11.3656
▁nervous	-11.3657
▁passage	-11.3658
▁살인	-11.3661
▁makeup	-11.3662
▁살펴보면	-11.3667
▁여지	-11.3669
▁청약	-11.367
▁요구할	-11.367
부가	-11.3673
▁조치가	-11.3675
▁기온	-11.3676
▁showcase	-11.3676
▁이어진	-11.3676
▁이사회	-11.3676
힐	-11.3677
shaped	-11.3677
통신	-11.3678
▁몇몇	-11.3678
▁아티스트	-11.3679
▁소비자가	-11.3679
▁smaller	-11.3681
▁홈런	-11.3682
▁inning	-11.3683
▁Nak	-11.3684
▁robot	-11.3684
▁기자	-11.3684
▁Panmunjom	-11.3689
▁grandmother	-11.3689
▁중국에	-11.369
▁mine	-11.3691
▁대피	-11.3692
공연	-11.3692
▁구청	-11.3692
▁연임	-11.3695
▁curiosity	-11.37
▁Authority	-11.37
▁Bible	-11.3701
▁instructors	-11.3702
▁야외	-11.3702
▁불편을	-11.3703
▁적어	-11.3705
▁모인	-11.3705
▁조절	-11.3706
▁났다	-11.3708
펀드	-11.3708
▁speaking	-11.3709
▁confrontation	-11.371
▁unemployment	-11.371
▁homepage	-11.3711
었지만	-11.3711
▁항공사	-11.3712
신고	-11.3716
▁소형	-11.3719
하자는	-11.372
▁worship	-11.3721
▁fever	-11.3721
▁연금	-11.3721
나는	-11.3722
어서	-11.3727
웨이	-11.3729
▁긍정적	-11.373
▁분노	-11.3731
▁의지가	-11.3732
▁여당	-11.3733
▁acquired	-11.3734
▁charging	-11.3736
▁Chungcheongnam	-11.3743
▁배당	-11.3743
▁나한테	-11.3744
▁비난	-11.3745
▁긴장	-11.3749
▁디스플레이	-11.375
딩	-11.3751
▁Above	-11.3753
▁apology	-11.3753
교류	-11.3756
▁위기에	-11.3759
▁든다	-11.376
▁savings	-11.3762
▁Instead	-11.3765
개혁	-11.3767
▁신용	-11.3768
▁willing	-11.3769
▁faces	-11.3772
▁증가하는	-11.3773
Although	-11.3773
chun	-11.3773
▁서울시가	-11.3773
▁Democracy	-11.3774
용품	-11.3774
▁excited	-11.3774
▁constructed	-11.3775
▁정상화	-11.3782
▁boss	-11.3784
▁정상이	-11.3784
▁확실히	-11.3785
▁승리를	-11.3787
▁팀을	-11.3794
ping	-11.3795
▁impression	-11.3795
▁legislative	-11.3797
▁요인	-11.3799
▁movements	-11.3799
▁중에는	-11.38
elecommunication	-11.3802
▁감축	-11.3802
▁renewable	-11.3806
▁비치	-11.3807
▁음주운전	-11.3808
▁행사로	-11.3808
밭	-11.3811
▁이자	-11.3811
▁distribute	-11.3813
▁부당	-11.3814
▁deficit	-11.3816
▁Reform	-11.3817
▁reconstruction	-11.3817
▁하이	-11.3819
▁요구가	-11.382
▁그래	-11.3822
중인	-11.3822
▁이처럼	-11.3825
▁(2),	-11.3825
▁득점	-11.3826
▁인하여	-11.3826
▁그걸	-11.3827
▁pride	-11.3828
▁unions	-11.3828
▁button	-11.3831
▁메인	-11.3832
▁금요일	-11.3833
▁dress	-11.3834
▁apologize	-11.3835
▁85	-11.3835
▁사정이	-11.3836
▁SUV	-11.3836
▁날짜	-11.3837
▁무릎	-11.3838
▁평생	-11.3839
▁wooden	-11.3839
됐다는	-11.3839
▁방학	-11.3843
▁지금도	-11.3843
하러	-11.3844
▁Game	-11.3846
▁하더라도	-11.3846
혈	-11.3847
▁monitor	-11.3847
▁이슈	-11.3848
▁사건은	-11.385
▁진정	-11.3851
냐	-11.3852
▁소프트웨어	-11.3855
▁과도한	-11.3856
프로그램	-11.3858
▁규칙은	-11.386
▁이주	-11.3861
▁있었어요	-11.3861
▁크	-11.3861
▁thousands	-11.3861
▁처	-11.3862
▁값	-11.3864
감사	-11.3865
▁대표의	-11.3878
▁카카오톡	-11.3881
chon	-11.3883
▁소비자들	-11.3883
▁높고	-11.3887
57	-11.3887
득	-11.3888
▁일고	-11.3888
폰	-11.3889
▁입찰	-11.389
▁거리가	-11.3891
▁꼽힌다	-11.3893
▁법원이	-11.3893
▁한때	-11.3895
▁지켜	-11.3895
▁면적	-11.3897
▁semi	-11.39
기획	-11.3902
▁돼지	-11.3902
▁담고	-11.3903
▁펼쳐	-11.3904
▁매력을	-11.3906
보수	-11.3908
▁공기	-11.3909
▁오류	-11.3911
▁equivalent	-11.3914
▁문자	-11.3914
▁rehabilitation	-11.3915
▁안팎	-11.3917
▁발효	-11.3917
▁신용카드	-11.3918
▁liked	-11.392
98	-11.3921
분에	-11.3923
▁virtual	-11.3925
전에서	-11.3925
68	-11.3926
▁몸에	-11.3926
▁pool	-11.3928
과정	-11.3928
▁가능하며	-11.3928
▁가기	-11.393
▁김씨가	-11.3932
▁숲	-11.3934
▁방식이	-11.3934
▁비정규직	-11.3934
벨	-11.3935
▁그림을	-11.3938
▁적발	-11.394
▁위임	-11.3941
▁witness	-11.3941
▁50,000	-11.3942
으	-11.3943
만으로	-11.3943
▁추진을	-11.3945
▁전담	-11.3947
▁61	-11.3948
▁winds	-11.3949
▁든	-11.395
업체가	-11.395
자산	-11.3951
▁소중한	-11.3951
▁적자	-11.3952
wi	-11.3953
▁밤에	-11.3953
블	-11.3953
▁gifts	-11.3954
▁ultra	-11.3957
▁아마존	-11.3958
▁진정한	-11.3958
▁hole	-11.3964
▁이거	-11.3964
질환	-11.3966
▁지내	-11.3966
ranking	-11.3967
▁advisory	-11.3969
▁차질	-11.3971
▁관리하는	-11.3974
▁재단	-11.3974
▁송파구	-11.3974
▁언급한	-11.3975
인증	-11.3975
▁승용차	-11.3976
▁existence	-11.3977
▁특유의	-11.3979
▁sleeping	-11.3979
▁b	-11.398
minute	-11.398
참	-11.3982
▁이상인	-11.3983
▁행동을	-11.3984
느냐	-11.3984
▁installing	-11.3984
56	-11.3985
▁단어	-11.3988
▁시공	-11.3989
▁graduation	-11.399
▁뷰티	-11.399
▁Actress	-11.3991
79	-11.3993
▁차원의	-11.3993
▁자격증	-11.3994
▁discharge	-11.3996
▁무엇이	-11.3998
▁pray	-11.3998
beom	-11.4
▁고장	-11.4001
▁equal	-11.4003
▁스토리	-11.4005
▁교부	-11.4005
▁북한과	-11.4006
▁상품이	-11.4007
▁서울에서	-11.401
hak	-11.4011
▁음성	-11.4012
▁돕는	-11.4012
▁Official	-11.4012
▁Network	-11.4012
▁경기도에	-11.4013
▁합격	-11.4013
▁hitting	-11.4014
▁이내의	-11.4015
▁안산	-11.4016
▁준공	-11.4016
▁과태료	-11.4018
▁보일	-11.402
▁guaranteed	-11.4021
▁Yeongdeungpo	-11.4023
▁warned	-11.4024
▁우즈베키스탄	-11.4026
▁지원하기	-11.4026
89	-11.4027
▁pharmaceutical	-11.403
▁손상	-11.4031
심의위원회	-11.4033
▁Agreement	-11.4034
▁departure	-11.4034
▁영양	-11.4036
▁Anyang	-11.4037
77	-11.4037
드립니다	-11.4038
▁와인	-11.4038
▁인형	-11.4038
▁Daily	-11.4038
▁attempted	-11.4039
lim	-11.4039
▁친구와	-11.404
▁걸그룹	-11.404
▁조율	-11.4044
▁native	-11.4045
▁automobile	-11.4045
▁티켓	-11.4046
▁succession	-11.4046
▁무기	-11.4048
▁cheering	-11.405
▁politicians	-11.4051
▁돌아가	-11.4053
os	-11.4055
▁f	-11.4055
▁또다시	-11.4056
게요	-11.4056
▁livelihood	-11.4056
▁내야	-11.4057
▁2013,	-11.4059
▁있었다고	-11.4062
▁설명회	-11.4062
▁기여할	-11.4063
▁adjusted	-11.4065
▁iPhone	-11.4067
red	-11.4067
공급	-11.4067
디자인	-11.4068
일본	-11.4071
실적	-11.4074
▁선물을	-11.4075
해지고	-11.4077
▁detention	-11.4078
▁보건복지부	-11.4078
▁여자친구	-11.4078
▁samples	-11.4078
▁friendship	-11.4078
▁테러	-11.4081
▁지표	-11.4081
▁침체	-11.4082
▁된다면	-11.4083
▁오지	-11.4083
치료	-11.4084
▁generally	-11.4084
▁반대로	-11.4084
▁꼽	-11.4085
▁Budget	-11.4089
▁girls	-11.4089
▁chain	-11.409
겸	-11.409
▁북한에	-11.409
되었으며	-11.4091
▁나가는	-11.4094
▁컬러	-11.4095
▁시대에	-11.4096
▁160	-11.4096
▁건조	-11.4097
▁창작	-11.4099
▁unknown	-11.41
▁대해선	-11.4101
▁역할이	-11.4102
▁포스코	-11.4102
▁참고	-11.4102
▁드러냈다	-11.4102
lin	-11.4102
▁Tong	-11.4103
78	-11.4103
wan	-11.4104
▁별도	-11.4104
▁얼굴을	-11.4104
권이	-11.4105
▁소요	-11.4109
▁리스크	-11.411
▁특	-11.411
▁명단	-11.411
▁공단	-11.411
▁Confederation	-11.4111
▁basketball	-11.4111
▁주문한	-11.4112
▁2030	-11.4115
쪽	-11.4115
▁현재는	-11.4116
wing	-11.4116
▁숫자	-11.412
▁표창	-11.4121
▁passport	-11.4122
▁사장이	-11.4123
ability	-11.4123
▁Cheol	-11.4124
시행	-11.4127
▁세운	-11.4127
▁neck	-11.4133
▁mis	-11.4134
clock	-11.4135
▁화물	-11.4136
▁아니라는	-11.4136
▁사실이다	-11.4136
▁사망자	-11.4143
▁judiciary	-11.4144
▁valuable	-11.4145
▁swing	-11.4146
▁지진	-11.4147
▁영장	-11.4147
▁talents	-11.4149
▁부장판사	-11.4149
▁proposals	-11.4152
▁산업단지	-11.4152
▁정부에	-11.4153
86	-11.4153
청년	-11.4154
개월간	-11.4155
▁bathroom	-11.4155
감이	-11.4155
▁하천	-11.4156
▁트렌드	-11.4157
side	-11.4158
▁승부	-11.4159
▁대외	-11.4161
▁배가	-11.4163
▁complicated	-11.4166
▁survival	-11.4166
▁Review	-11.4166
▁등도	-11.4166
마리	-11.4169
▁조화	-11.4171
▁유력	-11.4172
▁부착	-11.4172
검	-11.4172
▁Hanjin	-11.4173
▁재활용	-11.4175
▁Inspection	-11.4177
▁breakfast	-11.4177
▁stepped	-11.4178
io	-11.418
▁도가	-11.4182
▁진전	-11.4183
폐	-11.4186
▁Meanwhile	-11.4188
▁참사	-11.4188
▁비싼	-11.4189
▁1997	-11.419
▁circle	-11.419
심에서	-11.4193
▁향상을	-11.4193
▁accounted	-11.4194
▁기준이	-11.4198
▁치킨	-11.4199
▁창립	-11.42
▁나오	-11.42
▁magazine	-11.4201
▁최소한	-11.4202
▁국가대표	-11.4205
▁stands	-11.4207
▁부총리	-11.4207
▁잡은	-11.4208
governing	-11.4213
▁것들이	-11.4215
▁소식	-11.4216
▁사람과	-11.4221
껏	-11.4222
▁Celsius	-11.4222
▁소리가	-11.4222
▁immediate	-11.4222
▁anywhere	-11.4222
▁유사한	-11.4223
징	-11.4225
▁조금만	-11.4226
ix	-11.4226
rate	-11.4227
▁일어난	-11.4228
▁준비가	-11.423
lecommunications	-11.423
▁발령	-11.423
▁연락이	-11.4233
▁Mongolia	-11.4233
▁아이폰	-11.4233
▁편집	-11.4235
으면서	-11.4239
▁근로시간	-11.4239
▁web	-11.424
To	-11.424
▁일각에서	-11.4243
2)	-11.4243
▁Ham	-11.4243
▁removal	-11.4244
▁prove	-11.4248
▁exceeding	-11.4249
▁추모	-11.4251
▁responses	-11.4252
▁드는	-11.4255
하나	-11.4258
▁날부터	-11.4258
▁성추행	-11.4259
▁빼	-11.4259
동의	-11.426
▁종류의	-11.426
▁영화의	-11.4262
▁진주	-11.4264
▁기다려	-11.4265
▁Both	-11.4265
▁매니저	-11.4266
▁Sweden	-11.4266
▁깜짝	-11.4266
▁것이고	-11.4267
▁고려하면	-11.4268
▁panel	-11.4269
53	-11.427
▁사회의	-11.4273
yu	-11.4274
이지	-11.4275
▁행정안전부	-11.4275
▁celebrities	-11.4278
▁드	-11.4279
▁갖게	-11.4279
▁듣는	-11.4281
▁posting	-11.4282
▁Lu	-11.4285
▁founder	-11.4287
ven	-11.4288
▁가능한가요	-11.429
▁startup	-11.4291
됐습니다	-11.4291
교육을	-11.4292
천여	-11.4294
▁사이의	-11.4295
▁시작해	-11.4295
No	-11.4296
▁점유율	-11.4296
▁예고	-11.4297
school	-11.4302
▁argument	-11.4303
▁portal	-11.4303
▁58	-11.4306
▁극복	-11.4306
story	-11.4306
▁ministers	-11.4306
▁moon	-11.4306
▁cheap	-11.4307
▁뒷	-11.4308
건강	-11.4309
▁뒤늦게	-11.4311
▁object	-11.4313
▁현지에서	-11.4314
▁정상회담이	-11.4314
슈	-11.4315
▁parent	-11.4315
보는	-11.4316
▁펼쳐진다	-11.4316
▁보증	-11.4317
▁고문	-11.4317
▁중점	-11.4321
미가	-11.4321
▁Convention	-11.4323
▁Studies	-11.4323
▁뒤로	-11.4328
안이	-11.433
▁지역이	-11.4331
▁knowing	-11.4333
킹	-11.4334
▁멤버들	-11.4334
▁noted	-11.4335
▁소감	-11.4335
▁확대를	-11.4338
▁이름은	-11.4338
▁수원시	-11.434
hop	-11.4344
▁Seodaemun	-11.4345
▁chronic	-11.4345
▁translation	-11.4345
▁CNN	-11.4345
벽	-11.4346
▁posts	-11.4347
▁convergence	-11.4347
▁그나마	-11.4348
)"	-11.4348
▁잊지	-11.4348
▁plate	-11.4349
over	-11.4351
▁전파	-11.4353
FC	-11.4356
58	-11.4357
▁Tower	-11.4357
▁가능하도록	-11.4358
▁상태를	-11.4359
▁destroyed	-11.4359
▁horse	-11.4359
▁체계	-11.436
▁elements	-11.4361
▁서식	-11.4362
▁소방당국	-11.4362
▁Buk	-11.4362
한국시간	-11.4363
▁명품	-11.4368
▁virtually	-11.437
76	-11.437
▁보러	-11.4372
회의를	-11.4372
▁취약계층	-11.4375
▁잡	-11.4375
▁프로그램은	-11.4376
▁마포구	-11.4377
▁tower	-11.4378
▁아니한다	-11.4379
▁영어로	-11.4379
▁Over	-11.4381
97	-11.4382
▁광진구	-11.4382
ever	-11.4383
▁fat	-11.4384
▁미얀마	-11.4384
buk	-11.4386
▁조리	-11.4386
▁지점	-11.4389
▁Compar	-11.4391
▁내년부터	-11.4392
public	-11.4392
▁아르헨티나	-11.4394
▁지나치	-11.4396
▁아니한	-11.4396
▁(4)	-11.44
▁책임이	-11.4401
▁재고	-11.4402
▁철회	-11.4402
▁혼란	-11.4403
▁connecting	-11.4404
▁고소	-11.4406
▁wood	-11.441
600	-11.441
▁experiencing	-11.4413
▁즐겨	-11.4413
▁UK	-11.4415
▁평택	-11.4416
▁사용하지	-11.4416
▁수행하는	-11.4417
▁입증	-11.4417
▁targeting	-11.4418
▁끝까지	-11.4418
▁Federal	-11.4425
sam	-11.4425
▁30,000	-11.4426
▁지침	-11.4427
▁genre	-11.4428
▁사용이	-11.4428
▁doctors	-11.4431
▁판매하는	-11.4432
▁tight	-11.4433
▁미소	-11.4434
제한	-11.4434
▁species	-11.4436
▁항의	-11.4437
▁신도시	-11.4438
▁Ui	-11.4442
의료	-11.4443
플	-11.4444
▁먹거리	-11.4445
▁경과	-11.4445
▁워싱턴	-11.4446
▁등급	-11.4449
▁couples	-11.4452
▁병원으로	-11.4453
▁근	-11.4454
▁나쁜	-11.4454
▁믿고	-11.4455
▁예전	-11.4456
▁주주	-11.4456
▁대량	-11.4456
▁국무부	-11.4459
▁semiconductors	-11.4464
▁finishing	-11.4464
입니까	-11.4466
°	-11.4467
▁뉴	-11.4469
▁점에	-11.4469
▁Instagram	-11.447
▁시너지	-11.447
▁올바른	-11.4471
▁있거나	-11.4471
▁하니	-11.4476
▁chemical	-11.448
▁세미나	-11.448
ical	-11.448
▁Memorial	-11.4482
▁아울러	-11.4482
▁quarters	-11.4483
년째	-11.4483
▁chart	-11.4485
칸	-11.4486
▁pattern	-11.4486
95	-11.4486
▁달려	-11.4486
▁exchanged	-11.4488
▁Four	-11.4489
▁성분	-11.449
▁suspend	-11.4493
운용	-11.4494
▁봐야	-11.4498
▁고가	-11.4498
▁(3	-11.4499
▁벌인	-11.4499
본부장	-11.4499
▁shortage	-11.45
▁시신	-11.45
▁보며	-11.4502
▁option	-11.4503
▁Credit	-11.4505
▁푸	-11.4507
▁Asset	-11.4507
▁observed	-11.4508
tu	-11.4508
▁건수	-11.4508
전쟁	-11.4509
▁워크숍	-11.451
▁빵	-11.451
▁양산	-11.4514
▁root	-11.4516
▁ate	-11.4516
▁면담	-11.4517
▁도민들	-11.4517
▁headed	-11.4517
▁reign	-11.4517
▁교육이	-11.4518
▁관계자들이	-11.4519
▁예정인	-11.4521
▁조사에	-11.4526
푸	-11.4527
▁가능해	-11.4527
▁correspondent	-11.4528
▁사실은	-11.4529
▁화학	-11.4531
▁에어	-11.4535
▁관심과	-11.4539
▁integration	-11.4543
▁Australian	-11.4544
▁탄핵	-11.4546
▁요건	-11.4547
▁주류	-11.4547
만여	-11.4548
63	-11.4549
▁감안하면	-11.455
▁얘기를	-11.455
▁estimate	-11.4551
▁progressive	-11.4553
▁offline	-11.4555
▁strict	-11.4556
▁도중	-11.4556
▁NC	-11.4556
▁조합	-11.4556
▁공연장	-11.4558
과정에서	-11.4559
▁늘어나는	-11.456
▁하나인	-11.4562
▁이해할	-11.4565
▁조사에서	-11.4566
▁suggest	-11.4566
▁추정된다	-11.4566
▁Gong	-11.4568
▁전형	-11.457
▁높	-11.4572
▁chances	-11.4572
▁좌석	-11.4572
▁기업인	-11.4574
▁clerk	-11.4574
▁취미	-11.4574
▁근처	-11.4574
▁primary	-11.4574
▁커질	-11.4575
▁개인의	-11.4576
point	-11.4576
low	-11.4577
▁때문	-11.4579
▁USD	-11.458
▁분이	-11.4582
▁일본인	-11.4583
▁Rather	-11.4586
▁libraries	-11.4586
▁telephone	-11.4586
▁Gender	-11.4586
▁스트레스	-11.4588
ct	-11.459
▁소녀	-11.4592
줍니다	-11.4593
ai	-11.4593
▁지역으로	-11.4593
▁스크린	-11.4595
▁궁금증	-11.4601
▁pet	-11.4601
▁동원	-11.4603
투어	-11.4605
▁항	-11.4606
▁데는	-11.4607
▁여기는	-11.4608
▁통지	-11.4609
sin	-11.4609
▁관련이	-11.461
▁차기	-11.461
known	-11.4613
▁거기에	-11.4616
인당	-11.4617
▁launching	-11.4618
▁retail	-11.4619
▁인상을	-11.462
▁다행히	-11.4621
▁pen	-11.4622
▁벽	-11.4622
노조	-11.4624
▁110	-11.4624
73	-11.4625
▁성과가	-11.4626
▁자신감	-11.4628
콜	-11.463
▁가로	-11.4631
▁집계됐다	-11.4632
▁꼼꼼	-11.4632
▁높여	-11.4633
▁끝나면	-11.4633
▁먼	-11.4636
▁모습으로	-11.4636
별지	-11.4636
▁시술	-11.4636
▁활력	-11.4636
▁이후에	-11.4637
▁손에	-11.4638
ph	-11.4641
▁보여주고	-11.4641
▁건전	-11.4643
▁2016.	-11.4643
▁플레이	-11.4645
▁diagnosed	-11.4645
▁고속도로	-11.4646
▁맨	-11.4646
▁휴	-11.4648
▁물가	-11.4651
▁경찰과	-11.4651
▁허리	-11.4655
▁스웨덴	-11.4656
중앙	-11.4656
▁Candidate	-11.4658
▁인건비	-11.4659
▁유사	-11.4659
▁200,000	-11.4661
▁cable	-11.4661
▁기간에	-11.4663
▁numerous	-11.4667
▁아까	-11.4667
▁워낙	-11.4667
▁가능성은	-11.4669
▁ancient	-11.467
▁mask	-11.4672
ries	-11.4673
▁당선	-11.4674
리가	-11.4675
▁상담을	-11.4677
▁근로	-11.4677
▁Techno	-11.4679
정치	-11.468
ek	-11.4681
사용	-11.4681
조건	-11.4681
▁특성상	-11.4681
▁최근에	-11.4684
▁상용화	-11.4685
▁식으로	-11.4686
▁saved	-11.4687
800	-11.469
▁극장	-11.4691
▁finalized	-11.4694
점검	-11.4696
▁Talk	-11.4697
▁파괴	-11.47
▁quiet	-11.47
▁112	-11.4702
▁이명박	-11.4702
▁학생들에게	-11.4703
▁math	-11.4703
텍	-11.4703
▁동향	-11.4707
▁성별	-11.4709
▁생태	-11.4709
▁container	-11.4709
▁IP	-11.471
▁태양광	-11.4712
▁해군	-11.4713
▁resistance	-11.4714
ists	-11.4714
▁73	-11.4714
▁소개했다	-11.4715
▁constitutional	-11.4716
▁전국에서	-11.4716
▁unlikely	-11.4717
▁governance	-11.4718
▁이끌	-11.4718
▁안전하게	-11.472
룸	-11.472
dan	-11.472
▁과장	-11.4721
▁유전자	-11.4722
▁사이버	-11.4722
▁자영업자	-11.4722
▁관리가	-11.4723
수는	-11.4724
▁Meeting	-11.4725
▁좋겠습니다	-11.4726
▁경찰청	-11.4727
▁개시	-11.4727
▁lawyers	-11.4727
▁Area	-11.4727
▁mountains	-11.4728
시키기	-11.4729
▁의혹에	-11.473
▁납품	-11.4731
놀이	-11.4731
▁normally	-11.4731
▁interpretation	-11.4731
ology	-11.4731
사업자	-11.4732
▁기업은	-11.4732
▁Communication	-11.4733
▁66	-11.4733
ac	-11.4734
▁거친	-11.4734
ification	-11.4734
▁포기	-11.4734
전문가	-11.4734
경찰	-11.4736
▁배상	-11.4738
▁기대감이	-11.4739
▁attractive	-11.474
▁이른	-11.4741
모델	-11.4742
▁올해부터	-11.4742
▁관악구	-11.4743
▁의장이	-11.4744
▁discussing	-11.4745
▁수거	-11.4746
ier	-11.4747
▁올라가	-11.4748
▁visa	-11.4749
▁들어갈	-11.4749
▁성적이	-11.475
▁slump	-11.475
랜드	-11.4752
▁branches	-11.4753
▁숙소	-11.4755
▁논의를	-11.4756
▁위해선	-11.4758
증권	-11.4759
▁sets	-11.476
▁감성	-11.476
▁bringing	-11.4761
▁실태	-11.4761
▁가격에	-11.4762
▁cheaper	-11.4763
▁인지	-11.4763
▁passes	-11.4765
▁싶지	-11.4765
hyung	-11.4765
▁대가	-11.4766
▁힘들어	-11.4766
▁한데	-11.4769
▁premiums	-11.477
▁Camp	-11.4771
▁수탁자는	-11.4771
▁국가의	-11.4771
▁보고하여야	-11.4771
조선	-11.4773
▁걸려	-11.4773
▁ledger	-11.4774
주고	-11.4775
▁Cheongdo	-11.4775
▁이스라엘	-11.4777
연맹	-11.4777
▁관계자들	-11.4781
▁대통령에게	-11.4782
▁지적도	-11.4782
▁슈퍼	-11.4783
▁heatwave	-11.4785
ide	-11.4785
▁seekers	-11.4786
턴	-11.4786
▁비록	-11.4787
▁organic	-11.4788
▁reaching	-11.4788
▁고용노동부	-11.4789
▁hopes	-11.4792
▁않았다는	-11.4794
▁일본이	-11.4794
▁기쁨	-11.4796
▁forms	-11.4797
▁높였다	-11.4798
▁analysts	-11.4799
심의	-11.48
▁rainy	-11.4803
서비스를	-11.4803
▁아들이	-11.4805
▁Hi	-11.4805
▁오래된	-11.4806
▁사무실	-11.4808
▁philosophy	-11.4808
▁참가해	-11.4809
▁2012,	-11.4809
ite	-11.4811
▁통장	-11.4811
▁competitions	-11.4812
▁partners	-11.4814
▁엘	-11.4814
▁%	-11.4814
▁booth	-11.4814
키로	-11.4814
▁폭이	-11.4816
▁공시	-11.4817
▁thick	-11.4818
▁권리를	-11.4818
▁줄어든	-11.4819
▁연합	-11.4821
▁연구소	-11.4821
▁남긴	-11.4822
54	-11.4826
▁동일	-11.4826
▁Or	-11.4827
▁소집	-11.4827
▁Gang	-11.4829
▁적용한다	-11.4829
▁크지	-11.483
젠	-11.483
06	-11.4833
▁솔로	-11.4834
▁선호하는	-11.4834
▁trials	-11.4834
▁gun	-11.4836
▁포함한다	-11.4837
▁분명	-11.4838
▁내릴	-11.4839
▁일반적으로	-11.4842
▁Jinping	-11.4845
▁위주로	-11.4845
▁철저한	-11.4845
▁퇴근	-11.4846
▁throw	-11.4847
▁heated	-11.4848
▁수익을	-11.4848
▁마주	-11.485
▁풍경	-11.485
▁bottle	-11.485
neighboring	-11.4852
▁아니라고	-11.4856
▁조만간	-11.4856
▁repayment	-11.4856
oh	-11.4857
▁호텔에서	-11.4858
▁praised	-11.4858
▁leaked	-11.4859
▁고객님	-11.4862
결정	-11.4862
▁FTC	-11.4862
▁녹	-11.4866
기관의	-11.4867
▁seizure	-11.4867
▁떠	-11.4868
사업에	-11.4869
▁계	-11.4869
▁Capital	-11.4869
▁infants	-11.4872
▁transition	-11.4876
▁거기	-11.4877
▁흡수	-11.4879
▁철저히	-11.488
▁지방세	-11.488
▁학대	-11.4882
▁extremely	-11.4883
시즌	-11.4884
▁부스	-11.4885
▁62	-11.4885
▁판매가	-11.4886
▁응답자	-11.4888
▁테	-11.4888
▁장에게	-11.4889
▁평생교육	-11.4891
▁dispatch	-11.4891
▁금액이	-11.4896
▁ambassador	-11.4898
▁제약	-11.4899
스는	-11.4899
▁이수	-11.49
▁배경으로	-11.4902
▁다채로	-11.4904
▁검	-11.4904
▁identification	-11.4906
5000	-11.4906
▁인식이	-11.4906
▁홈페이지에	-11.4907
공단	-11.4908
현장	-11.4909
▁부모님	-11.491
▁CSAT	-11.4911
▁감동	-11.4911
▁제게	-11.4911
▁주인공	-11.4914
▁종전선언	-11.4914
▁Chungbuk	-11.4916
상태	-11.4917
▁끼	-11.4919
▁urgently	-11.4921
▁체크	-11.4921
▁국비	-11.4921
변경	-11.4922
할게요	-11.4922
▁경향이	-11.4925
▁좌우	-11.4927
▁threat	-11.4927
▁listing	-11.4928
▁Pay	-11.4928
▁2017.	-11.4929
▁없게	-11.4931
▁임용	-11.4931
▁kill	-11.4931
▁ends	-11.4933
▁하늘	-11.4934
▁개척	-11.4936
▁Gov	-11.4939
▁casualties	-11.4939
▁열려	-11.4942
▁일요일	-11.4943
▁지급한다	-11.4948
don	-11.4948
▁내용에	-11.4949
호텔	-11.4949
▁플라스틱	-11.495
▁부채	-11.4951
▁방문하는	-11.4951
▁silver	-11.4951
▁불가능한	-11.4952
back	-11.4953
받	-11.4954
▁게재	-11.4955
▁pursued	-11.4956
▁차지하고	-11.4957
▁banking	-11.4957
▁필요로	-11.4962
▁inevitably	-11.4963
▁대표와	-11.4963
▁운항	-11.4963
기반	-11.4964
▁흥행	-11.4966
41	-11.4972
▁중국인	-11.4973
▁테이블	-11.4974
▁reorganization	-11.4976
▁tied	-11.4978
▁봉사활동	-11.4978
▁regularly	-11.4979
▁3·1	-11.498
▁교실	-11.498
▁mothers	-11.4982
▁개발에	-11.4982
▁디자이너	-11.4982
▁항목	-11.4983
내용	-11.4987
▁친구들이	-11.4987
▁Wall	-11.4988
관을	-11.4989
▁경찰의	-11.499
▁Emergency	-11.499
▁멀리	-11.4991
▁slowly	-11.4992
▁유럽연합	-11.4993
▁symbol	-11.4993
▁대구시	-11.4993
▁야간	-11.4995
▁reaction	-11.4995
▁자동으로	-11.4996
▁덕	-11.4996
meter	-11.4998
▁locals	-11.4999
▁separation	-11.4999
▁visible	-11.4999
if	-11.5
퍼센트	-11.5
▁advised	-11.5002
▁대리	-11.5005
▁이탈	-11.5006
▁전문가들이	-11.5008
▁경로	-11.5009
로서의	-11.5013
▁출연해	-11.5013
▁resulted	-11.5014
▁코드	-11.5016
▁거라고	-11.5019
▁부천	-11.502
▁북쪽	-11.5021
▁producer	-11.5022
▁존중	-11.5022
87	-11.5022
▁거짓말	-11.5025
▁sounds	-11.5026
능	-11.5027
▁간단한	-11.5027
▁병행	-11.5029
ten	-11.5029
솔	-11.5031
▁investing	-11.5031
▁국어	-11.5032
▁Standards	-11.5032
▁감사를	-11.5033
▁autonomy	-11.5036
▁어쩔	-11.5036
▁원이	-11.5036
▁스튜디오	-11.5039
▁검토하고	-11.504
▁worsening	-11.504
▁불량	-11.5043
▁발의	-11.5045
휴	-11.5046
les	-11.5047
▁몰려	-11.5047
▁패키지	-11.5048
▁혐의가	-11.5048
▁ordinances	-11.5048
▁stomach	-11.5048
▁indicted	-11.5049
▁문장	-11.5049
▁원유	-11.5049
▁1994	-11.5049
▁weekends	-11.5051
조합	-11.5051
▁Los	-11.5052
▁잡지	-11.5055
MA	-11.5055
▁시험을	-11.5057
▁El	-11.5058
것	-11.5059
명에게	-11.5059
엽	-11.5059
▁Gwanghwamun	-11.506
▁시진핑	-11.506
▁Consumer	-11.5062
▁정체	-11.5063
▁verify	-11.5064
▁일하고	-11.5065
▁쾌적	-11.5066
▁줄었다	-11.5066
일과	-11.5067
기와	-11.507
▁principles	-11.5071
▁통지하여야	-11.5073
fe	-11.5073
ors	-11.5074
▁언급했다	-11.5075
▁기차	-11.5076
▁다니는	-11.5078
원에	-11.5078
▁방영	-11.508
▁마련해	-11.508
▁해결하기	-11.5081
▁1%	-11.5082
▁destruction	-11.5084
▁Program	-11.5084
▁인근에	-11.5085
▁영세	-11.5086
▁건너	-11.5086
편의	-11.5088
으로써	-11.509
▁금융위	-11.5093
▁일어나	-11.5094
▁Chamber	-11.5096
▁Media	-11.5097
▁런던	-11.5098
▁경비를	-11.5099
▁기재부	-11.5101
▁그곳	-11.5104
▁signature	-11.5105
제로	-11.5106
▁1,500	-11.5108
▁amazing	-11.5109
죽	-11.511
해줄	-11.511
▁실력	-11.511
▁굴	-11.511
▁purchases	-11.5111
▁체	-11.5112
▁묻는	-11.5113
▁사우디	-11.5114
▁국민들이	-11.5115
▁kick	-11.5115
▁가슴	-11.5116
▁inappropriate	-11.5116
▁포함돼	-11.512
간의	-11.5121
▁sugar	-11.5121
▁inner	-11.5122
▁고시	-11.5123
ory	-11.5124
▁boxes	-11.5124
▁입국	-11.5125
▁서버	-11.5126
▁수주	-11.5127
▁관광지	-11.5128
▁침대	-11.5128
Ma	-11.5128
▁proportional	-11.513
69	-11.513
실에서	-11.5132
▁시가	-11.5132
▁laugh	-11.5133
▁기여한	-11.5133
▁Mokpo	-11.5133
▁ownership	-11.5134
▁Silla	-11.5134
▁특검	-11.5135
자인	-11.5136
▁성장세	-11.5138
▁앞선	-11.514
▁준비하고	-11.514
▁참가자들	-11.5141
▁규정이	-11.5142
▁PD	-11.5144
▁Cheon	-11.5144
▁raises	-11.5145
▁arrival	-11.5145
▁commemorate	-11.5145
▁없나요	-11.5146
▁merger	-11.5148
▁Kindergarten	-11.5148
▁fruits	-11.5148
▁여론이	-11.5149
▁파악하고	-11.5149
▁Indonesian	-11.515
▁민주주의	-11.5151
▁과거에	-11.5152
▁edge	-11.5153
▁immigrants	-11.5155
▁읽	-11.5156
▁월요일	-11.5161
va	-11.5163
군수	-11.5164
▁140	-11.5165
election	-11.5166
▁사안	-11.5166
▁동장	-11.5166
▁글이	-11.5167
▁염	-11.5169
▁관광객이	-11.517
▁정확하게	-11.5171
(19	-11.5171
▁impeachment	-11.5172
▁할머니	-11.5176
▁Communications	-11.5176
▁상시	-11.5177
▁Buddha	-11.5182
▁banned	-11.5182
▁drinks	-11.5184
▁도출	-11.5185
▁증대	-11.5185
▁기각	-11.5187
▁주장하는	-11.5187
▁출제	-11.5187
▁democratic	-11.5188
seop	-11.5188
▁경우를	-11.5191
▁인지도	-11.5192
신문	-11.5193
▁steady	-11.5194
▁Palace	-11.5194
▁riding	-11.5195
▁1995	-11.5196
▁말에	-11.5196
all	-11.5197
▁shoot	-11.5197
▁수영	-11.5201
▁communications	-11.5202
▁concentrate	-11.5203
▁preference	-11.5203
▁enters	-11.5205
▁지장	-11.5205
▁handled	-11.5206
지부	-11.5206
▁노력하겠다	-11.5208
▁arms	-11.5211
▁불가능	-11.5211
▁거로	-11.5212
▁processes	-11.5212
▁networks	-11.5213
방지	-11.5213
▁영상이	-11.5214
▁meets	-11.5214
▁trips	-11.5215
▁성공했다	-11.5215
▁종합적	-11.5215
▁statue	-11.5216
하나요	-11.5216
▁(5	-11.5217
▁knows	-11.5218
▁combines	-11.5219
▁completing	-11.5219
▁Namyangju	-11.5219
▁벨기에	-11.5219
▁신청서를	-11.5221
음을	-11.5222
▁음식은	-11.5223
▁boom	-11.5223
▁largely	-11.5225
▁선보인다	-11.5226
▁encouraged	-11.5228
임에도	-11.5229
▁lyrics	-11.523
▁환경이	-11.5231
▁층	-11.5231
▁shipbuilding	-11.5231
▁useful	-11.5231
▁jumped	-11.5234
▁공모전	-11.5235
▁분석된다	-11.5235
▁신앙	-11.5235
▁우유	-11.5236
▁추정되는	-11.5236
▁locations	-11.5236
치는	-11.5238
▁열람	-11.524
케이	-11.5242
▁declined	-11.5243
▁fix	-11.5244
▁균형	-11.5245
▁휘	-11.5245
▁규명	-11.5245
▁순수	-11.5248
▁personally	-11.5248
▁끝내	-11.5249
pro	-11.525
▁얻었다	-11.525
▁애초	-11.525
민이	-11.5251
▁healing	-11.5251
▁부득이	-11.5252
▁invite	-11.5253
▁junior	-11.5253
▁보도가	-11.5255
▁호흡	-11.5255
▁nor	-11.5255
▁있을까	-11.5256
▁5·18	-11.5256
▁contrary	-11.5256
▁te	-11.5257
▁Siheung	-11.5257
지기	-11.5257
▁fairness	-11.5258
▁그러하지	-11.5259
pped	-11.5261
▁frame	-11.5262
음악	-11.5262
기능	-11.5263
▁인류	-11.5264
▁decisions	-11.5265
▁hits	-11.5265
▁preserve	-11.5265
▁conclude	-11.5265
▁거래가	-11.5268
▁반영된	-11.527
▁지난주	-11.5272
▁안전을	-11.5277
▁다하겠다	-11.5278
▁전원	-11.5278
▁구매할	-11.5279
▁운	-11.5282
▁350	-11.5282
▁refugee	-11.5283
▁내신	-11.5284
▁Along	-11.5285
▁feared	-11.5289
대와	-11.5289
어야	-11.529
유통	-11.5291
▁소년	-11.5292
▁위원장과	-11.5292
▁남쪽	-11.5295
tain	-11.5296
위원회의	-11.5299
▁Forces	-11.5299
라운드	-11.53
▁어디로	-11.5302
▁instructor	-11.5303
▁Concert	-11.5306
▁Pangyo	-11.5306
▁Coach	-11.5306
▁결코	-11.5306
▁포함되어	-11.5307
▁점수를	-11.5308
▁제안했다	-11.531
▁맞고	-11.5312
일자리	-11.5315
▁constant	-11.5316
▁유망	-11.5317
▁즐겁게	-11.5318
▁bidding	-11.5318
▁flavor	-11.532
라인	-11.5321
▁퇴직	-11.5323
▁잡았다	-11.5323
▁directed	-11.5325
▁그저	-11.5326
▁수령	-11.5327
▁국적	-11.5327
▁보건	-11.5327
▁금융기관	-11.5328
만달러	-11.5328
▁다르다	-11.5328
▁카카오	-11.5329
▁김성	-11.533
tro	-11.5331
탁	-11.5332
▁cap	-11.5332
▁(2	-11.5333
dis	-11.5333
▁producers	-11.5336
▁팀의	-11.5336
▁기자가	-11.5338
▁파트너	-11.5341
▁몰	-11.5342
▁outlook	-11.5343
▁남북정상회담	-11.5343
▁인용해	-11.5344
▁연인	-11.5344
▁혼	-11.5347
특	-11.5348
▁결정이	-11.535
▁프로그램에	-11.5351
▁900	-11.5351
▁반등	-11.5353
Chairperson	-11.5353
▁대결	-11.5353
▁contacted	-11.5354
▁퍼	-11.5354
74	-11.5355
주간	-11.5356
▁Embassy	-11.5356
▁Gimhae	-11.5356
▁아무것	-11.5356
▁Manager	-11.5357
▁배울	-11.5357
▁legs	-11.5359
▁캐	-11.5359
▁측의	-11.5361
설비	-11.5363
▁tastes	-11.5363
▁단순한	-11.5364
▁조성을	-11.5364
같이	-11.5365
범죄	-11.5368
▁Pacific	-11.5368
▁오랜만에	-11.5368
차를	-11.5369
▁recall	-11.5369
진다	-11.5369
▁이송	-11.537
▁Second	-11.537
▁국제사회	-11.5371
▁드릴게요	-11.5374
▁회의는	-11.5374
▁벌였다	-11.5374
이니	-11.5374
▁박스	-11.5374
▁회신	-11.5375
▁안전사고	-11.5376
▁tradition	-11.5377
▁개성	-11.5379
▁rank	-11.5379
▁harm	-11.5381
▁sought	-11.5381
▁하락세	-11.5383
관은	-11.5384
연대	-11.5385
▁protecting	-11.5386
통합	-11.5388
▁찾았다	-11.5388
▁objection	-11.5391
▁injuries	-11.5393
▁sessions	-11.5393
▁변수	-11.5393
mer	-11.5394
▁hoped	-11.5394
om	-11.5395
▁대답	-11.5395
▁대단	-11.5397
▁않았다고	-11.5397
▁고통	-11.54
▁준비하는	-11.5403
▁저녁에	-11.5403
▁과세	-11.5404
▁장을	-11.5404
넷	-11.5404
▁closure	-11.5406
▁celebration	-11.5406
▁문화의	-11.5408
▁버전	-11.5409
▁auction	-11.541
▁꺼내	-11.541
▁격려	-11.5412
▁Christ	-11.5413
▁마스크	-11.5416
▁deaths	-11.5417
현재	-11.5417
데이	-11.5418
▁harder	-11.5418
▁조사가	-11.5421
▁움직임이	-11.5421
▁outbreak	-11.5423
▁원인으로	-11.5427
▁Experience	-11.5429
조치	-11.543
▁성장할	-11.5431
▁Guard	-11.5434
▁의류	-11.5436
▁shift	-11.5436
▁netizens	-11.5436
▁주행	-11.5437
하라는	-11.5438
yoon	-11.5438
닝	-11.544
▁thousand	-11.5442
▁차지	-11.5442
▁서면	-11.5443
▁underway	-11.5443
▁submission	-11.5444
▁laughter	-11.5444
▁명칭	-11.5445
리아	-11.5446
▁수상했다	-11.5447
▁실력을	-11.5447
▁안으로	-11.5448
▁비자	-11.5448
▁응답	-11.5449
만명이	-11.5449
gon	-11.545
▁설득	-11.545
▁현직	-11.5453
▁$1	-11.5453
right	-11.5454
▁hang	-11.5455
▁뭔가	-11.5455
▁활동하고	-11.5455
▁수면	-11.5455
▁위주	-11.5455
▁illness	-11.5456
▁Catholic	-11.5456
▁encouraging	-11.5456
▁mention	-11.5458
▁speaker	-11.5459
▁사람으로	-11.5462
▁shoulder	-11.5464
ot	-11.5467
▁Nuclear	-11.5469
▁Taekwondo	-11.5469
▁다문화	-11.5469
▁unclear	-11.5469
▁bulletin	-11.5469
▁법관	-11.547
▁우승을	-11.547
▁Lord	-11.5471
▁생겼다	-11.5471
▁공약	-11.5473
ger	-11.5474
제는	-11.5474
▁의원들이	-11.5477
▁취급	-11.5479
▁좋겠어	-11.548
▁활성화에	-11.5482
▁위에서	-11.5482
▁invitation	-11.5482
▁Yeah	-11.5482
▁유물	-11.5483
▁자세히	-11.5486
▁접속	-11.5488
퇴	-11.5491
ud	-11.5492
▁attorney	-11.5493
▁나이가	-11.5493
▁Sorry	-11.5495
▁말은	-11.5496
▁넌	-11.5498
▁민선	-11.5499
▁당국이	-11.5499
이던	-11.5499
▁clinical	-11.55
▁모습이다	-11.55
▁immigration	-11.5501
▁제시했다	-11.5501
▁떠난	-11.5502
▁조달	-11.5502
▁picked	-11.5504
▁seventh	-11.5504
위험	-11.5505
▁인쇄	-11.5505
▁decreasing	-11.5507
▁unified	-11.5507
▁나서는	-11.551
▁계층	-11.5511
▁counsel	-11.5511
▁기사를	-11.5512
▁Everyone	-11.5512
주민	-11.5516
▁시인	-11.5516
군은	-11.5518
▁남자친구	-11.5519
tr	-11.5522
▁승진	-11.5523
▁업무에	-11.5523
▁ending	-11.5523
직원	-11.5524
▁클래식	-11.5525
▁substances	-11.5527
▁실적을	-11.5527
규정	-11.5529
법이	-11.5529
▁숙박	-11.5529
▁판단이	-11.5531
▁buried	-11.5532
▁reputation	-11.5532
▁juvenile	-11.5533
사항을	-11.5534
▁techniques	-11.5534
sil	-11.5534
▁문화적	-11.5534
▁History	-11.5539
▁수시	-11.5539
▁약속을	-11.5541
▁cameras	-11.5542
핑	-11.5543
▁기증	-11.5543
▁abolition	-11.5545
▁부위	-11.5545
▁Jeollabuk	-11.5545
▁연일	-11.5546
▁(4	-11.5548
▁빗	-11.5551
객	-11.5553
▁조회	-11.5553
priced	-11.5558
▁tonight	-11.5558
▁신속하게	-11.556
▁lifted	-11.5561
▁defined	-11.5563
함과	-11.5563
▁번에	-11.5568
▁SW	-11.5569
▁칠	-11.557
▁여성들이	-11.557
▁밝은	-11.5571
▁realistic	-11.5571
단은	-11.5572
▁5000	-11.5573
▁말이다	-11.5573
▁blocking	-11.5574
▁hip	-11.5574
▁결합	-11.5575
▁흘러	-11.5576
억원에	-11.5578
방안	-11.5579
타운	-11.558
▁구민의	-11.5581
▁걸린	-11.5581
▁널	-11.5583
▁fisheries	-11.5583
▁1996	-11.5585
96	-11.5586
▁threatened	-11.5586
ning	-11.5587
▁춤	-11.5587
▁들은	-11.5587
ser	-11.5588
▁활발한	-11.5589
▁방침	-11.559
▁기무사	-11.5591
▁지원해	-11.5592
드는	-11.5592
▁m	-11.5592
▁미니	-11.5592
▁Such	-11.5592
▁compensate	-11.5593
for	-11.5593
▁신축	-11.5594
investigative	-11.5597
▁Equality	-11.5598
▁해외에서	-11.5598
wa	-11.5599
▁시설이	-11.5599
▁중국은	-11.56
▁높일	-11.5601
▁오늘날	-11.5601
▁Child	-11.5602
▁Dance	-11.5603
▁해결할	-11.5605
ye	-11.5607
▁언니	-11.5607
▁permit	-11.5608
▁discover	-11.5609
▁맡았다	-11.5609
소를	-11.5609
▁위원장을	-11.561
▁의문	-11.5611
pon	-11.5611
hong	-11.5612
▁개발을	-11.5616
▁tens	-11.5617
▁제외하고	-11.5617
▁Well	-11.5617
▁위생	-11.5617
▁sum	-11.5618
▁고개	-11.562
5%)	-11.562
Z	-11.562
▁stream	-11.562
▁정성	-11.562
▁Cooperative	-11.5621
▁partnership	-11.5621
▁scholars	-11.5624
made	-11.5624
▁행사에서	-11.5625
▁수출이	-11.5625
▁chair	-11.5625
스터	-11.5626
▁discharged	-11.5626
▁roles	-11.5627
▁매달	-11.5628
▁모른다	-11.5629
▁신청한	-11.5629
▁철수	-11.563
▁필요성이	-11.5631
규칙	-11.5632
▁주실	-11.5632
▁고향	-11.5632
▁resort	-11.5634
▁scoring	-11.5635
▁systematically	-11.5635
▁감정을	-11.5635
▁300,000	-11.5635
사에	-11.5635
▁structural	-11.5636
▁못했던	-11.5638
den	-11.564
▁rains	-11.564
94	-11.5641
▁기재	-11.5642
▁저감	-11.5646
▁경기장	-11.5647
▁이해가	-11.5647
▁최저	-11.5647
▁Dongjak	-11.5648
▁Southern	-11.5649
▁관리자	-11.5652
▁협회	-11.5654
▁비용은	-11.5657
▁연예인	-11.5659
▁stating	-11.566
학회	-11.5662
▁죄	-11.5663
▁반려동물	-11.5664
었	-11.5666
▁hasn	-11.5668
▁필요해요	-11.5668
베이	-11.5669
▁vessels	-11.5669
▁거대한	-11.567
▁헬기	-11.5671
받았다	-11.5673
▁내역	-11.5673
▁되는데	-11.5674
▁탈퇴	-11.5674
▁1∼2	-11.5674
▁Gunsan	-11.5674
▁Reuters	-11.5676
▁리스트	-11.5677
대교	-11.568
king	-11.5683
▁Vi	-11.5683
▁보냈다	-11.5684
▁높다는	-11.5684
여행	-11.5685
▁붙여	-11.5686
▁grateful	-11.5686
▁dawn	-11.5686
▁exciting	-11.5686
▁issuing	-11.5687
▁profitability	-11.5687
▁Up	-11.5689
▁floors	-11.569
▁좋아합니다	-11.5691
▁survive	-11.5696
▁belt	-11.5698
▁추구	-11.5698
▁늘어나	-11.5698
▁Turkish	-11.5699
▁극대화	-11.5699
▁임무	-11.57
▁전세계	-11.57
▁captured	-11.5702
▁방금	-11.5703
sion	-11.5704
93	-11.5705
▁혜택이	-11.5707
▁2∼3	-11.571
▁67	-11.571
정비	-11.5711
▁김정	-11.5712
▁계단	-11.5712
▁병원에서	-11.5713
드리	-11.5714
▁심장	-11.5716
▁기름	-11.5717
▁간판	-11.5718
▁모습은	-11.5719
▁예정된	-11.572
대응	-11.572
▁레스토랑	-11.5721
▁argue	-11.5721
▁성공한	-11.5721
기기	-11.5724
member	-11.5724
짜리	-11.5727
근로자	-11.5727
▁때보다	-11.5727
항공	-11.5727
시장은	-11.5727
▁할아버지	-11.5727
▁Sure	-11.5728
북한	-11.5729
▁이혼	-11.5729
물이	-11.5729
풀	-11.5729
▁간부	-11.5731
▁양쪽	-11.5732
▁cultures	-11.5733
▁면에서	-11.5736
▁신청할	-11.5738
▁Kaesong	-11.5738
절차를	-11.5738
▁prolonged	-11.5739
▁papers	-11.574
▁Interior	-11.574
대상자	-11.574
▁regeneration	-11.574
war	-11.5742
▁헤	-11.5743
담당	-11.5743
▁Night	-11.5744
▁정황이	-11.5744
▁확보한	-11.5744
따	-11.5746
▁비디오	-11.5746
▁patterns	-11.5747
▁"2018	-11.5747
▁개선이	-11.5747
▁blow	-11.5748
▁보조금을	-11.5748
▁주시면	-11.5749
Lee	-11.575
홀에서	-11.575
▁강경	-11.5751
attached	-11.5751
▁가사	-11.5752
▁appliances	-11.5752
▁합의가	-11.5753
heung	-11.5755
▁저하	-11.5756
▁entrepreneurs	-11.5758
▁그곳에	-11.576
▁재판을	-11.5761
연합	-11.5764
▁shipped	-11.5764
▁전체가	-11.5765
ep	-11.5765
▁산업의	-11.5766
▁좋고	-11.5767
▁1960	-11.5768
▁suggests	-11.5772
었어	-11.5775
▁신라	-11.5776
기간이	-11.5776
▁수색	-11.5777
▁부활	-11.5777
▁안녕하세요	-11.5777
▁Kumho	-11.5778
▁하나는	-11.5779
▁완벽한	-11.5779
▁의료기관	-11.5779
▁뒷받침	-11.5779
2,000	-11.578
▁Burning	-11.5782
▁ordering	-11.5782
▁사회복지	-11.5784
받을	-11.5786
셀	-11.5786
▁designs	-11.5787
▁기구	-11.5788
지면서	-11.5788
▁Suncheon	-11.5793
▁punished	-11.5793
▁Britain	-11.5794
▁automatic	-11.5795
▁오직	-11.5796
▁선보였다	-11.5797
▁정하여	-11.5798
▁mini	-11.5798
▁생명	-11.5799
▁재건축	-11.58
컵	-11.58
▁determination	-11.5803
▁replied	-11.5803
▁treasury	-11.5803
▁하루에	-11.5803
▁대회에서	-11.5804
▁fulfill	-11.5804
▁익	-11.5806
▁자원봉사	-11.5807
▁나타나는	-11.5807
가량	-11.5808
▁권한을	-11.581
▁wouldn	-11.5811
▁spots	-11.5811
▁attacks	-11.5811
▁피해자가	-11.5812
▁오를	-11.5813
참여	-11.5813
▁pure	-11.5815
▁바라는	-11.5818
▁좋아해요	-11.582
▁relatives	-11.582
증을	-11.582
페이	-11.582
▁Te	-11.5821
▁오프라인	-11.5821
▁서식에	-11.5822
▁요구를	-11.5822
▁있었다는	-11.5822
▁간호사	-11.5825
72	-11.5825
AR	-11.5826
▁대비해	-11.5828
▁이용하여	-11.5828
▁재원	-11.5829
▁desirable	-11.5829
▁involvement	-11.583
▁investor	-11.5832
▁complained	-11.5832
▁불편한	-11.5832
▁Book	-11.5835
래도	-11.5836
▁taxation	-11.5836
▁이집트	-11.5837
▁시행에	-11.5838
▁프로젝트를	-11.5839
년의	-11.5841
▁부부가	-11.5841
ler	-11.5841
레이	-11.5842
칼	-11.5843
▁발생하고	-11.5844
▁했을	-11.5844
운영할	-11.5844
▁Dan	-11.5845
▁방송을	-11.5845
▁근거로	-11.5849
▁가요	-11.5851
▁lighting	-11.5852
ped	-11.5852
▁효율적	-11.5852
▁커졌다	-11.5853
▁설치할	-11.5854
▁Arabia	-11.5855
▁맞서	-11.5855
▁초점	-11.5856
▁체류	-11.5857
보고서	-11.5859
▁이외에	-11.5861
▁드릴	-11.5864
▁나면	-11.5865
▁선택한	-11.5866
▁shut	-11.5867
▁petitions	-11.5869
▁featuring	-11.5869
▁바꿀	-11.5869
조사를	-11.5869
0%)	-11.5871
▁mistakes	-11.5875
▁server	-11.5875
▁paragraphs	-11.5876
내가	-11.5876
▁liberal	-11.5876
▁Z	-11.5877
▁강화하고	-11.588
▁왔어요	-11.5882
▁contrast	-11.5882
▁판문점	-11.5883
▁구조조정	-11.5883
구를	-11.5887
▁전액	-11.5889
센터를	-11.589
부서	-11.5892
▁examples	-11.5893
▁Gapyeong	-11.5896
▁대상은	-11.5896
▁분들	-11.5896
▁fly	-11.5896
▁이름으로	-11.5896
▁한다면	-11.5897
업자	-11.5898
▁fried	-11.5898
▁건데	-11.5899
▁말로	-11.5899
▁protected	-11.5899
▁출국	-11.59
▁최적	-11.59
소리	-11.5901
▁포함됐다	-11.5902
▁보여준	-11.5903
▁중복	-11.5906
ub	-11.5906
▁출판	-11.5907
▁예정이라고	-11.5908
환자	-11.5908
▁반대하는	-11.5908
콘	-11.5909
gye	-11.5909
▁productivity	-11.5909
▁Hope	-11.5909
▁acid	-11.591
▁변화에	-11.591
액을	-11.591
▁주재	-11.591
곳을	-11.5912
▁구호	-11.5916
라서	-11.5916
▁해명	-11.5917
▁Anti	-11.5919
▁통일부	-11.5921
▁conservation	-11.5922
▁국민청원	-11.5922
▁창조	-11.5922
▁투쟁	-11.5925
▁체결했다	-11.5928
▁Chul	-11.5928
▁웃음을	-11.593
▁세종시	-11.593
▁정보화	-11.5931
▁뜻이다	-11.5934
▁intervention	-11.5935
▁disability	-11.5935
▁Kwak	-11.5935
▁용산구	-11.5935
▁mediation	-11.5936
▁첫째	-11.5936
▁장기간	-11.5936
(7	-11.5937
▁블랙	-11.594
▁편하게	-11.5942
▁제안한	-11.5942
▁Tottenham	-11.5942
life	-11.5944
▁오고	-11.5946
▁sing	-11.5947
▁이벤트를	-11.5949
▁모델을	-11.5949
▁greenhouse	-11.5949
▁이르면	-11.5949
▁remind	-11.595
▁creates	-11.5951
▁SM	-11.5951
▁발휘	-11.5952
▁급등	-11.5952
▁metal	-11.5953
▁연대	-11.5956
▁배제	-11.5956
▁stabilize	-11.5958
▁nose	-11.596
▁많	-11.5961
▁최소화	-11.5961
▁시민이	-11.5964
잖아	-11.5965
▁Noh	-11.5966
▁experiment	-11.5967
▁성명	-11.5968
▁아픈	-11.5969
▁유지하고	-11.5971
▁시대를	-11.5971
▁막대	-11.5972
비는	-11.5975
regular	-11.5976
▁Pocheon	-11.5977
▁delegated	-11.5977
▁Plant	-11.5985
ard	-11.5986
야말로	-11.5988
▁주시기	-11.5989
▁지역주민	-11.599
za	-11.599
▁Right	-11.599
▁건지	-11.5991
▁민주노총	-11.5992
▁가족들	-11.5992
▁defeated	-11.5994
rin	-11.5995
▁1,2	-11.5995
6%)	-11.5996
면적	-11.5997
▁aspects	-11.5997
이라서	-11.5998
▁만료	-11.5998
▁투기	-11.5999
▁유입	-11.5999
▁footage	-11.6002
▁제작한	-11.6004
▁abortion	-11.6004
▁김종	-11.6006
▁슈	-11.6006
▁logic	-11.6008
▁믿음	-11.601
▁아니야	-11.601
▁아마도	-11.6011
▁Acts	-11.6012
▁견제	-11.6012
.“	-11.6013
▁내수	-11.6015
▁hurry	-11.6015
▁terminal	-11.6017
▁firefighters	-11.6019
금액	-11.6021
▁directions	-11.6023
▁취업자	-11.6023
▁유아	-11.6025
▁출	-11.6026
▁fewer	-11.6026
▁Hyeon	-11.6028
▁참여한다	-11.6029
▁케이크	-11.6029
▁뇌물	-11.603
룡	-11.603
▁guys	-11.603
▁즉각	-11.6031
▁무인	-11.6033
▁급식	-11.6034
▁선보인	-11.6034
▁washing	-11.6035
▁규정한	-11.6036
사무소	-11.6038
▁학	-11.6038
▁제외한다	-11.6038
▁엄	-11.6039
car	-11.6041
▁ecological	-11.6042
▁nights	-11.6043
▁pot	-11.6044
법에	-11.6044
▁열리고	-11.6047
▁중요하다고	-11.6048
▁stored	-11.6048
▁패스트트랙	-11.605
▁선도	-11.605
▁색깔	-11.6051
▁국악	-11.6051
▁3000	-11.6052
▁바람에	-11.6054
▁(1).	-11.6056
▁예수	-11.6059
▁생기는	-11.606
▁벌금	-11.6061
▁공적	-11.6064
상이	-11.6064
▁석유	-11.6066
▁coordination	-11.6068
room	-11.6069
▁심판	-11.6069
▁선생	-11.6071
▁명동	-11.6073
▁만화	-11.6074
▁성실	-11.6078
▁재능	-11.6079
▁성범죄	-11.6079
▁understood	-11.6082
▁나은	-11.6082
▁어르신	-11.6084
하우스	-11.6084
▁guardian	-11.6084
▁찾지	-11.6086
▁읽고	-11.6088
▁강요	-11.6091
▁경제의	-11.6093
▁신인	-11.6095
▁없다면	-11.6095
▁Huh	-11.6095
▁Municipal	-11.6095
▁evil	-11.6095
▁중심이	-11.6096
▁변동	-11.6097
▁있기를	-11.6098
▁여비	-11.6098
▁돌려	-11.61
농업	-11.6101
▁writers	-11.6102
▁집계	-11.6103
▁Press	-11.6103
▁통행	-11.6104
▁상징	-11.6106
▁조항	-11.6107
▁공간으로	-11.6108
▁parliament	-11.6108
▁recruiting	-11.6108
▁Shinsegae	-11.6109
▁technological	-11.6109
▁YG	-11.6109
▁곽	-11.611
▁않았어요	-11.611
▁fault	-11.6111
▁출자	-11.6111
▁saving	-11.6112
▁선택할	-11.6115
▁양승태	-11.6117
▁강동구	-11.6119
▁노동당	-11.6119
목적	-11.612
▁Seungri	-11.612
나란히	-11.6123
▁OLED	-11.6125
중소기업	-11.6126
▁대상을	-11.6129
▁회의에서	-11.6129
▁헌법	-11.6129
▁업무협약	-11.6129
▁살해	-11.613
▁책은	-11.6131
▁배우는	-11.6131
▁적용해	-11.6131
센	-11.6132
▁척	-11.6133
▁일종	-11.6135
▁Hollywood	-11.6136
▁explosion	-11.6136
▁opposing	-11.6136
▁고스란히	-11.6136
IS	-11.6136
째	-11.6138
▁내리는	-11.6138
▁burned	-11.6138
▁정작	-11.6139
▁제품으로	-11.614
▁리더십	-11.6141
▁포상금	-11.6141
▁연다	-11.6141
▁선전	-11.6141
▁개념	-11.6142
▁약화	-11.6143
▁딸이	-11.6143
틴	-11.6146
▁토트넘	-11.6147
▁설립한	-11.6147
▁therapy	-11.6147
▁i	-11.6148
사로	-11.6149
▁내려가	-11.6149
▁dancing	-11.6149
▁처분을	-11.6153
▁1.2	-11.6154
▁testing	-11.6155
▁조사결과	-11.6156
▁sand	-11.6157
▁해주세요	-11.6158
▁신고가	-11.6159
▁경북도	-11.6159
▁classical	-11.6165
▁올리는	-11.6167
▁재미	-11.6168
선거	-11.6169
▁남북관계	-11.617
▁다음날	-11.6171
만원이	-11.6173
▁wealth	-11.6175
▁fare	-11.6175
▁전체의	-11.6176
▁commitment	-11.6177
▁expressions	-11.6179
엔터테인먼트	-11.6179
▁g	-11.618
net	-11.6182
▁희망을	-11.6184
▁승객	-11.6185
▁합의한	-11.6185
▁featured	-11.6185
pre	-11.6185
▁퍼포먼스	-11.6186
▁적어도	-11.6187
▁사회에	-11.6189
ab	-11.619
▁decorated	-11.6191
▁많은데	-11.6192
하였을	-11.6192
▁육군	-11.6193
▁호평	-11.6193
▁인테리어	-11.6194
▁집값	-11.6195
▁결정한다	-11.6196
▁telling	-11.6197
▁너와	-11.6198
▁혁신성장	-11.6201
▁공개됐다	-11.6201
▁최다	-11.6202
▁effectiveness	-11.6202
▁Cabinet	-11.6204
▁연설	-11.6206
▁amounts	-11.6207
▁유족	-11.6208
▁늘어	-11.621
▁경기에	-11.6211
▁콩	-11.6214
▁느끼고	-11.6214
▁통증	-11.6214
▁그러	-11.6214
▁공감대	-11.6216
▁지금의	-11.6216
▁집안	-11.6219
bae	-11.6219
▁메이	-11.6221
▁정책의	-11.6221
▁76	-11.6223
62	-11.6223
▁일반적인	-11.6225
▁businessmen	-11.6225
▁checks	-11.6226
심을	-11.6227
▁연봉	-11.6227
▁관객	-11.6228
▁exceeds	-11.6228
올해	-11.6228
▁하려고	-11.6229
▁내외	-11.6229
▁rebound	-11.623
▁imprisonment	-11.6231
▁unfamiliar	-11.6231
▁기준금리	-11.6231
▁고객의	-11.6233
▁15%	-11.6233
▁Anseong	-11.6234
▁전달했다	-11.6235
▁flood	-11.6236
▁sweat	-11.6237
시설의	-11.6238
▁줄이기	-11.6239
▁KIA	-11.6239
▁월드	-11.624
▁74	-11.6242
▁negligence	-11.6245
▁복잡한	-11.6245
▁preferred	-11.6245
▁한정	-11.6248
▁observation	-11.6248
▁원고	-11.6249
▁cope	-11.625
▁prayer	-11.625
▁동시	-11.6252
▁machines	-11.6252
▁흡연	-11.6254
▁저항	-11.6255
▁결과는	-11.6257
이용	-11.6258
▁싱글	-11.6258
▁고대	-11.626
42	-11.6261
▁중지	-11.6261
▁weekly	-11.6262
▁시상	-11.6262
▁사회적기업	-11.6264
▁71	-11.6265
▁가공	-11.6267
▁그려	-11.6268
▁웹	-11.627
▁auditor	-11.627
▁구성한다	-11.6271
상황	-11.6271
▁간편	-11.6272
▁emissions	-11.6272
▁Eastern	-11.6272
▁coverage	-11.6273
포인트	-11.6275
▁defendant	-11.6276
▁quit	-11.6277
▁lending	-11.6278
▁사진은	-11.628
▁패널	-11.628
gra	-11.628
▁explore	-11.6282
taek	-11.6282
▁driven	-11.6282
▁판결이	-11.6283
▁육아	-11.6283
▁micro	-11.6286
▁Disabled	-11.6286
ft	-11.6286
▁깨	-11.6288
▁4,000	-11.6291
(6	-11.6292
여건	-11.6293
▁구체적	-11.6294
▁예상했다	-11.6294
▁규제가	-11.6296
▁나누고	-11.6298
▁실종	-11.6298
▁chocolate	-11.6299
▁현안	-11.63
▁방문할	-11.6302
▁드라마를	-11.6302
묘	-11.6303
▁도시재생	-11.6304
▁품	-11.6305
▁이걸	-11.6305
▁tools	-11.6306
▁기한	-11.6306
▁제기된다	-11.631
▁트	-11.6311
▁grows	-11.6312
협상	-11.6312
▁scientific	-11.6313
▁luggage	-11.6313
▁남경필	-11.6313
▁힘입어	-11.6313
▁않았고	-11.6313
▁민간인	-11.6314
▁지갑	-11.6316
▁주셔서	-11.6317
chairman	-11.6317
▁충족	-11.6317
▁이해하고	-11.6322
▁감소한	-11.6323
▁500,000	-11.6325
▁게시	-11.6325
롱	-11.6325
▁대립	-11.6326
▁임대료	-11.6326
▁taught	-11.6327
▁이어져	-11.6327
▁simultaneously	-11.6328
▁기상	-11.6329
▁오르는	-11.633
▁Time	-11.633
▁확인된	-11.6331
▁수습	-11.6332
▁자사	-11.6333
7,000	-11.6333
▁무장	-11.6333
▁섬유	-11.6334
기록	-11.6336
▁면세점	-11.6337
▁본부장	-11.634
특별	-11.6341
▁자칫	-11.6341
▁색상	-11.6341
▁산업통상자원부	-11.6343
▁Representatives	-11.6344
▁publication	-11.6345
▁고객들	-11.6345
역사	-11.6346
▁disappear	-11.6346
▁agreements	-11.635
▁쿠	-11.6352
▁Volunteer	-11.6355
▁Previously	-11.6355
▁eggs	-11.6357
량을	-11.6357
▁확정된	-11.6359
700	-11.636
경쟁	-11.636
▁될지	-11.6363
▁금융당국	-11.6365
▁기소된	-11.6367
교실	-11.6368
▁competing	-11.6368
▁Autonomy	-11.6368
▁violent	-11.637
▁강좌	-11.6371
▁일할	-11.6371
이었지만	-11.6373
▁경기도의회	-11.6373
▁채소	-11.6375
였고	-11.6378
▁explaining	-11.6379
▁reverse	-11.6379
DC	-11.6379
▁childhood	-11.6383
ley	-11.6383
화된	-11.6383
▁자라	-11.6383
▁국내에	-11.6384
▁고객에게	-11.6384
▁환자의	-11.6385
▁아니요	-11.6389
▁airline	-11.639
▁횡령	-11.639
▁증언	-11.6391
▁건물이	-11.6392
▁returns	-11.6394
▁transparent	-11.6394
▁Chuncheon	-11.6396
▁소요되는	-11.6397
▁missionary	-11.6397
쳤다	-11.6398
▁Site	-11.6399
▁수차례	-11.6399
▁requesting	-11.64
▁권한	-11.6404
▁부르	-11.6406
▁금융권	-11.6409
인사	-11.641
▁quarantine	-11.641
▁unavoidable	-11.641
▁간에	-11.641
book	-11.641
▁주된	-11.6412
▁nations	-11.6412
▁때문으로	-11.6412
십	-11.6414
▁신흥국	-11.6415
유지	-11.6415
cha	-11.6416
▁상당수	-11.6418
▁십	-11.6419
▁흉기	-11.6422
▁진행해	-11.6424
위원회는	-11.6424
▁매진	-11.6424
▁모양새	-11.6424
▁돕기	-11.6425
▁탄력	-11.6426
공동	-11.6426
▁TF	-11.6428
▁daytime	-11.6428
▁나서고	-11.6429
▁snacks	-11.6429
▁학과	-11.643
수요	-11.6431
▁증진	-11.6438
▁newsletter	-11.6438
▁absolute	-11.6439
▁절차가	-11.6439
▁LH	-11.6439
Me	-11.6439
▁대한민국의	-11.644
▁중독	-11.6441
만원으로	-11.6442
▁한국으로	-11.6446
▁군수	-11.6448
cho	-11.6451
tra	-11.6451
▁Bundang	-11.6452
▁Notwithstanding	-11.6452
총장	-11.6452
▁salt	-11.6455
둔	-11.6459
▁searching	-11.6459
▁사법	-11.6459
▁files	-11.6462
▁노동계	-11.6463
부서의	-11.6463
▁Happy	-11.6463
▁linking	-11.6463
▁mode	-11.6464
홍보	-11.6465
징수	-11.6465
▁이후에도	-11.6465
▁끊이지	-11.6466
▁조별리그	-11.6466
▁성공적인	-11.6466
등을	-11.6467
▁이들에게	-11.6468
▁Traditional	-11.6468
▁근육	-11.6469
가정	-11.6469
▁대전시	-11.6469
▁increasingly	-11.647
▁제공해	-11.647
인천광역시	-11.6471
▁publishing	-11.6471
▁painful	-11.6471
▁Constitution	-11.6474
05	-11.6475
▁rescued	-11.6475
▁협박	-11.6476
▁끌	-11.6479
▁Room	-11.648
▁가려	-11.648
▁없었습니다	-11.6481
▁prospective	-11.6481
▁민주당이	-11.6481
cu	-11.6485
▁agents	-11.6485
▁outlets	-11.6486
▁상관없이	-11.6487
With	-11.6487
▁3.1	-11.6487
금리	-11.6488
▁수소	-11.6488
▁일본에	-11.6489
▁긴밀	-11.649
▁objects	-11.649
▁설치하고	-11.6492
▁사회가	-11.6493
▁골키퍼	-11.6494
▁없던	-11.6495
▁것이었다	-11.6495
▁됐다고	-11.6496
▁사망한	-11.6499
▁정해진	-11.65
▁머	-11.6501
▁restriction	-11.6502
▁석탄	-11.6502
▁Golden	-11.6504
▁millions	-11.6504
▁approve	-11.6504
나라	-11.6504
▁rises	-11.6505
▁필요성을	-11.6505
▁고령	-11.6506
▁cyber	-11.6508
▁midst	-11.6508
▁일시	-11.6508
▁금고	-11.6509
▁소비자들이	-11.651
▁김포	-11.651
국장은	-11.6511
▁exempted	-11.6511
▁hide	-11.6512
▁김용	-11.6514
▁Confucian	-11.6514
▁malls	-11.6515
▁효	-11.6515
▁드러나	-11.6515
▁칸	-11.6517
gyo	-11.6518
▁작용	-11.6518
회는	-11.652
▁audition	-11.652
▁좌	-11.652
▁춤을	-11.6522
▁threw	-11.6522
▁재해	-11.6522
리에	-11.6525
▁doubt	-11.6525
"),	-11.6525
▁전송	-11.6526
▁hosting	-11.6526
▁sport	-11.6527
최근	-11.6527
▁각호의	-11.6528
Mayor	-11.6528
건을	-11.6528
▁financing	-11.653
▁정밀	-11.653
▁relieve	-11.6531
▁정당한	-11.6531
▁marking	-11.6532
▁경우에도	-11.6532
▁aren	-11.6534
▁provisional	-11.6536
▁synergy	-11.6536
▁불거진	-11.6536
▁Nexen	-11.6536
cy	-11.6536
▁depends	-11.6537
▁heading	-11.6538
▁미팅	-11.6539
▁Superintendent	-11.654
의결	-11.6541
▁상해	-11.6541
▁tells	-11.6544
▁상금	-11.6544
▁프	-11.6547
▁Take	-11.6548
▁세계적	-11.6549
▁commemorative	-11.655
▁exposure	-11.655
▁보험료	-11.655
▁자치	-11.6552
▁슬	-11.6554
▁중국을	-11.6555
▁이해관계	-11.6557
▁한쪽	-11.6557
▁성매매	-11.6558
▁갑니다	-11.656
▁분산	-11.656
▁국회가	-11.6561
▁failing	-11.6561
▁의정부	-11.6561
▁burst	-11.6565
▁저기	-11.6565
랩	-11.6567
▁스케줄	-11.6567
▁프리	-11.6568
∼20	-11.6568
▁happening	-11.6569
▁중국어	-11.6569
업무를	-11.6569
용으로	-11.657
Even	-11.657
천만원	-11.657
▁펼치고	-11.6572
▁sight	-11.6573
▁공정한	-11.6575
vo	-11.6575
▁보고서는	-11.6576
리스트	-11.6576
▁말씀을	-11.6578
▁77	-11.6579
▁편이다	-11.6579
▁Yangcheon	-11.6579
▁Broadcasting	-11.6579
▁objective	-11.6582
셔	-11.6583
▁라디오	-11.6587
▁inland	-11.659
▁되기를	-11.6591
▁수백	-11.6592
▁Live	-11.6594
절차	-11.6594
▁내년도	-11.6595
▁세금을	-11.6596
▁연방	-11.6599
▁차장	-11.6599
▁booths	-11.6599
석이	-11.66
gyeong	-11.66
▁publicity	-11.6606
▁문제의	-11.6607
▁반납	-11.6607
▁환율	-11.6609
▁성남시	-11.6609
▁세상에	-11.661
사업의	-11.6612
qui	-11.6612
▁characteristic	-11.6613
▁Electric	-11.6614
▁facilitate	-11.6615
▁메르스	-11.6615
track	-11.6616
▁서부	-11.6617
▁연관	-11.6622
▁nomination	-11.6623
▁합류	-11.6623
ual	-11.6623
▁착공	-11.6626
▁동부	-11.6626
▁Dobong	-11.6628
▁매수	-11.6628
09	-11.6629
▁주간	-11.6631
▁근대	-11.6632
▁fabric	-11.6634
▁애플리케이션	-11.6635
PC	-11.6636
▁인공	-11.6637
▁김경수	-11.6637
재정	-11.6637
▁Pan	-11.6638
▁pack	-11.6639
▁진심으로	-11.6641
▁후보는	-11.6641
어가	-11.6642
▁홀로	-11.6642
▁사정	-11.6643
▁국방	-11.6644
▁결정할	-11.6644
▁소스	-11.6644
▁정체성	-11.6644
▁희망하는	-11.6647
▁소유자	-11.6647
▁문화에	-11.6647
▁rankings	-11.6648
Integrated	-11.6649
▁Argentina	-11.6649
▁categories	-11.6649
▁않다고	-11.665
▁바이어	-11.6651
▁Companies	-11.6653
▁연내	-11.6653
▁국회에	-11.6654
▁정서	-11.6655
▁manufacturer	-11.6656
▁잠깐	-11.6657
seung	-11.6659
▁spoke	-11.6659
▁시청자	-11.666
▁입장이	-11.666
▁belongs	-11.6661
▁birds	-11.6661
▁패배	-11.6661
▁차량에	-11.6661
▁explosive	-11.6663
였어요	-11.6663
▁poet	-11.6664
▁보험사	-11.6664
▁거둔	-11.6664
▁주석	-11.6665
▁넘어서	-11.6666
▁lifestyle	-11.6668
리스	-11.667
▁정치권	-11.667
▁enthusiastic	-11.6671
▁제안을	-11.6672
사들이	-11.6673
▁방치	-11.6673
▁이뤄지는	-11.6675
▁uniforms	-11.6675
▁KOSPI	-11.6678
▁maritime	-11.6678
ator	-11.6678
▁근절	-11.6678
▁업체들이	-11.6678
▁예정이며	-11.668
hy	-11.6681
▁짜	-11.6681
▁Evaluation	-11.6681
▁책이	-11.6686
▁keeps	-11.6687
▁유학	-11.6687
▁나라가	-11.6688
▁넥센	-11.6692
가리	-11.6693
신속한	-11.6694
▁부모가	-11.6694
▁주신	-11.6695
▁서울에	-11.6697
▁functional	-11.6697
▁나누는	-11.6697
▁확실한	-11.6698
▁phrase	-11.6698
▁해안	-11.6699
▁복무	-11.67
명령	-11.67
시기	-11.6702
▁IoT	-11.6703
부산	-11.6704
▁가이드	-11.6705
자들의	-11.6706
직을	-11.6706
▁회의록	-11.6708
지역의	-11.6708
▁데이트	-11.6709
▁forming	-11.6709
▁재발	-11.6709
시고	-11.6711
▁성희롱	-11.6711
▁정치인	-11.6711
▁작	-11.6711
▁경찰관	-11.6712
▁버닝썬	-11.6712
씨에게	-11.6713
▁Best	-11.6713
▁입점	-11.6717
먹	-11.6718
▁수술을	-11.6719
6,000	-11.6719
수입	-11.6719
▁KOSDAQ	-11.672
재산	-11.6721
▁독자	-11.6725
센터가	-11.6727
ray	-11.6727
▁recovered	-11.6729
▁ties	-11.6729
▁걱정이	-11.6729
▁세력	-11.6731
▁위축	-11.6732
▁군인	-11.6732
▁소지	-11.6734
▁상무	-11.6734
▁본인의	-11.6735
▁벌어진	-11.6736
▁보내주세요	-11.6737
▁반전	-11.6737
▁switch	-11.6737
▁개최된다	-11.6738
▁땀	-11.6739
▁김태	-11.6739
▁Though	-11.674
▁Kyu	-11.674
▁journalists	-11.6741
▁2015.	-11.6741
▁전산	-11.6742
체계를	-11.6742
specializing	-11.6743
▁dismiss	-11.6744
▁concerts	-11.6744
4,000	-11.6746
▁exams	-11.6746
▁전국적으로	-11.6747
▁pan	-11.6748
▁Premier	-11.6749
▁contributing	-11.6749
▁Beach	-11.675
▁이루고	-11.6751
▁유포	-11.6752
▁싫어	-11.6753
▁campus	-11.6753
부를	-11.6753
▁경기도에서	-11.6756
▁환승	-11.6756
어져	-11.6758
컬	-11.6759
▁Earth	-11.6764
▁아름다움	-11.6764
▁architecture	-11.6764
심이	-11.6764
▁부작용	-11.6764
룩	-11.6765
▁정면	-11.6765
▁African	-11.6765
지요	-11.6766
▁거죠	-11.6766
▁업체들	-11.6768
▁민주	-11.6769
▁많다는	-11.6769
▁2011,	-11.677
▁예약을	-11.6772
▁rush	-11.6774
▁acquire	-11.6774
▁revealing	-11.6775
▁발목	-11.6776
▁도착한	-11.6776
▁Taiwanese	-11.6778
프로	-11.6778
교육감	-11.6778
▁USA	-11.6778
▁알리고	-11.678
▁방식이다	-11.678
수당	-11.6781
▁prohibited	-11.6782
▁기억이	-11.6782
▁설치한	-11.6783
▁challenges	-11.6783
합니까	-11.6783
▁건강에	-11.6784
▁해석이	-11.6785
▁넣고	-11.6785
초등학교	-11.6785
moon	-11.6789
연합회	-11.6789
집행	-11.6791
▁청사	-11.6791
▁알지	-11.6791
만대	-11.6792
▁Political	-11.6792
계약을	-11.6793
▁flights	-11.6793
▁것이며	-11.6793
▁Chu	-11.6793
▁시작한다	-11.6794
▁Yeoncheon	-11.6794
▁poured	-11.6794
▁Druking	-11.6794
▁해킹	-11.6795
▁취재진	-11.6796
▁살려	-11.6797
▁개성공단	-11.6797
▁영역	-11.6799
▁Living	-11.6799
07	-11.6799
▁테마	-11.6799
▁정규	-11.6802
▁구성원	-11.6802
▁components	-11.6804
▁Suk	-11.6805
▁유지할	-11.6805
곳에	-11.6805
▁PM	-11.6805
▁Angeles	-11.6807
에서부터	-11.6808
▁Nations	-11.6808
▁해석된다	-11.6809
▁attach	-11.6809
▁자원봉사자	-11.681
▁presenting	-11.6811
▁Pe	-11.6812
▁부상을	-11.6812
▁helicopter	-11.6814
▁액션	-11.6814
▁기후변화	-11.6815
▁fired	-11.6817
▁거뒀다	-11.6818
▁세포	-11.6819
아동	-11.682
▁포스터	-11.6822
단을	-11.6822
▁1988	-11.6823
▁상하이	-11.6824
▁wishes	-11.6825
▁주방	-11.6825
government	-11.6827
▁Pa	-11.6828
▁완	-11.6829
▁generate	-11.6832
▁거점	-11.6834
▁지낸	-11.6836
▁지역구	-11.6837
▁선택을	-11.6837
▁들었습니다	-11.6837
▁계절	-11.6838
▁개최한	-11.6839
동에	-11.6839
▁도약	-11.684
정원	-11.684
▁재직	-11.6841
▁끝나는	-11.6842
▁추억	-11.6842
▁경관	-11.6848
▁lie	-11.685
▁자꾸	-11.6851
▁팀장	-11.6851
▁본회의	-11.6851
▁deployed	-11.6853
▁convey	-11.6853
▁쓰지	-11.6854
됐을	-11.6858
▁decade	-11.6858
▁펼쳤다	-11.6861
▁아닐	-11.6861
▁한국에서는	-11.6862
▁Critics	-11.6865
▁electoral	-11.6865
▁Goseong	-11.6866
▁구미	-11.6866
▁일본은	-11.6866
▁herself	-11.687
▁타결	-11.687
▁차로	-11.6871
▁peaceful	-11.6871
▁대사관	-11.6871
our	-11.6875
71	-11.6875
▁날인	-11.6876
▁controlled	-11.6878
▁veterans	-11.6879
▁excavation	-11.6879
▁worldwide	-11.6881
▁학술	-11.6882
▁postponed	-11.6882
▁생각보다	-11.6882
▁동남아	-11.6884
▁proved	-11.6884
▁집권	-11.6885
▁괴	-11.6886
▁달한다	-11.6886
▁지급하는	-11.6887
바이	-11.6887
private	-11.6887
▁Basic	-11.6892
차로	-11.6892
▁사태가	-11.6893
▁자립	-11.6894
▁Statistics	-11.6894
De	-11.6895
▁못하게	-11.6895
▁retired	-11.6896
농가	-11.6898
▁얼굴이	-11.6898
▁마음으로	-11.6899
보세요	-11.6901
8,000	-11.6901
▁개최되는	-11.6902
▁상정	-11.6902
▁줍니다	-11.6903
▁나오기	-11.6904
▁최씨	-11.6905
▁소환	-11.6905
▁Icheon	-11.6906
▁착수	-11.6906
첩	-11.6908
▁depression	-11.6909
▁alert	-11.6909
팀장	-11.6909
▁draws	-11.6911
▁languages	-11.6912
▁influenced	-11.6912
art	-11.6912
▁출신의	-11.6912
▁삶이	-11.6913
▁진흥	-11.6916
시킨다	-11.6917
▁belief	-11.6917
▁결혼식	-11.6917
▁모자	-11.6917
▁수준에	-11.6919
▁Bay	-11.6919
▁designer	-11.692
▁Sha	-11.692
▁목포	-11.6922
▁conversion	-11.6923
▁Their	-11.6924
▁이어가고	-11.6925
▁진영	-11.6926
▁88	-11.6927
▁물에	-11.6928
que	-11.6929
▁기반을	-11.693
▁구정	-11.6931
▁여수	-11.6933
▁태양	-11.6934
▁뛰어	-11.6935
act	-11.6936
인들의	-11.6937
▁파는	-11.6937
▁split	-11.6938
▁ocean	-11.6938
▁잃은	-11.6938
▁diesel	-11.6938
▁Sky	-11.6938
▁described	-11.6939
▁overtime	-11.694
▁가이드라인	-11.694
▁스위스	-11.6943
▁시작할	-11.6946
92	-11.6946
비율	-11.6946
▁공익	-11.6947
sh	-11.695
▁목사는	-11.6951
였지만	-11.6951
▁정할	-11.6951
▁judging	-11.6953
▁sewage	-11.6953
▁끝날	-11.6953
▁편입	-11.6953
▁측에	-11.6954
하기를	-11.6954
▁모범	-11.6955
▁가해자	-11.6955
▁가족들이	-11.6955
▁Bento	-11.6956
1,000	-11.6956
지면	-11.6957
▁모색	-11.6957
▁치유	-11.6958
받는	-11.6959
▁69	-11.6959
▁빌려	-11.6961
▁견해	-11.6961
▁essay	-11.6961
▁오디션	-11.6962
▁제공하기	-11.6962
▁options	-11.6962
▁수업이	-11.6962
Co	-11.6966
▁마시고	-11.6966
▁말하기	-11.6966
▁브	-11.697
▁베네수엘라	-11.697
▁골목	-11.6971
▁wireless	-11.6972
▁stops	-11.6973
짐	-11.6973
▁단일	-11.6973
▁철강	-11.6973
▁confirming	-11.6977
▁세계의	-11.6978
국이	-11.6979
▁대장	-11.6979
3,000	-11.6979
해지는	-11.6979
▁전인	-11.698
놓	-11.6981
▁faithfully	-11.6983
공공	-11.6984
▁줄일	-11.6987
▁lifting	-11.699
▁km	-11.6991
▁이론	-11.6991
SNS	-11.6992
했었다	-11.6994
부정적인	-11.6995
▁영유아	-11.6997
▁frozen	-11.6997
▁wholesale	-11.6997
▁강렬	-11.6998
부에	-11.6998
▁affection	-11.6999
▁propose	-11.7001
▁MOU	-11.7001
▁youths	-11.7005
▁소음	-11.7006
ap	-11.7006
▁그와	-11.7009
▁negotiating	-11.7011
▁irregularities	-11.7011
▁공연은	-11.7012
했으면	-11.7012
있	-11.7013
▁농구	-11.7013
kwon	-11.7013
▁screened	-11.7014
▁시작하는	-11.7015
광고	-11.7017
▁graduated	-11.7018
▁Joong	-11.7018
▁Yangju	-11.7018
▁printing	-11.7019
▁의원들	-11.7021
▁lift	-11.7022
재난	-11.7022
▁powder	-11.7022
▁소득이	-11.7023
▁Kwan	-11.7025
▁bribery	-11.7026
순위	-11.7027
▁어렵게	-11.7028
▁그중	-11.703
▁lay	-11.703
▁relationships	-11.703
▁적립	-11.7035
▁ill	-11.7036
▁infant	-11.7037
▁유발	-11.7037
grade	-11.7037
▁emerge	-11.7037
▁아무도	-11.7039
▁거짓	-11.704
▁오해	-11.704
▁이기	-11.704
▁imposition	-11.7041
▁Garden	-11.7041
▁organizing	-11.7041
▁definitely	-11.7042
당이	-11.7046
달라고	-11.7048
▁논란에	-11.7048
▁Councilor	-11.7049
▁작가가	-11.705
▁ICO	-11.7052
▁deposits	-11.7054
▁Treasury	-11.7056
▁laid	-11.7056
▁광장	-11.7057
▁실정이다	-11.7057
▁여론조사	-11.7058
▁indictment	-11.706
단의	-11.7061
ura	-11.7061
닉	-11.7062
맥	-11.7062
▁줄이고	-11.7063
▁Champions	-11.7063
▁protested	-11.7064
▁merit	-11.7065
▁응시	-11.7067
▁침	-11.7067
▁compromise	-11.7067
▁massage	-11.7067
ear	-11.7068
원에서	-11.7069
▁seasons	-11.707
▁teeth	-11.7072
▁Brazilian	-11.7073
moo	-11.7074
▁historic	-11.7074
▁단위로	-11.7074
▁나누어	-11.7076
▁계약서	-11.708
New	-11.708
▁wonderful	-11.7082
▁실망	-11.7082
▁여부가	-11.7084
▁많을	-11.7085
▁Bus	-11.7085
fi	-11.7085
▁확대하고	-11.7085
▁업그레이드	-11.7085
▁국외	-11.7086
▁과감	-11.7086
▁목적이	-11.7087
▁학업	-11.7088
▁수여	-11.709
이닝	-11.7091
▁tank	-11.7092
▁변신	-11.7093
▁탑	-11.7095
▁초등학생	-11.7096
▁용기	-11.7097
▁획득	-11.71
▁Extension	-11.71
▁아시아나항공	-11.7101
▁1992	-11.7102
▁Fed	-11.7103
▁체력	-11.7103
real	-11.7105
▁선보이는	-11.7105
▁Dokdo	-11.7105
▁나타난	-11.7106
▁대표적	-11.7107
아파트	-11.711
종의	-11.7111
▁않는다면	-11.7113
최	-11.7113
▁musicians	-11.7115
▁goalkeeper	-11.7116
근무	-11.7116
▁더해	-11.7116
▁VIP	-11.7116
▁받으며	-11.7117
▁confessed	-11.7117
▁성격이	-11.7118
▁golden	-11.7118
▁exists	-11.7122
▁buyer	-11.7126
▁전투	-11.7126
좌	-11.7127
준다	-11.7127
▁zero	-11.7127
센터에서	-11.7129
▁romance	-11.713
▁밝혔습니다	-11.7131
▁feed	-11.7131
▁uploaded	-11.7133
분을	-11.7134
▁것들을	-11.7137
▁피자	-11.7137
▁전수	-11.7138
▁workplaces	-11.7139
▁playground	-11.714
▁arm	-11.7141
▁수강	-11.7142
▁올해도	-11.7142
▁동작	-11.7142
▁조심	-11.7143
▁testimony	-11.7145
▁규칙으로	-11.7146
다리	-11.7147
영이	-11.7147
▁라이브	-11.7147
▁꾸	-11.7149
ible	-11.7149
▁대대적	-11.7151
▁dominated	-11.7152
ze	-11.7153
▁occupation	-11.7154
▁임상	-11.7155
▁여부에	-11.7157
▁볼거리	-11.7158
▁Creative	-11.716
▁framework	-11.716
▁읽어	-11.716
▁NH	-11.7161
▁transformed	-11.7163
이었고	-11.7163
▁구경	-11.7163
PM	-11.7164
사업이	-11.7164
▁바라보는	-11.7167
▁삶	-11.7167
▁신분	-11.7168
▁요구한	-11.7169
▁의거	-11.717
피해	-11.717
▁toilet	-11.717
▁신곡	-11.7171
▁observe	-11.7171
ram	-11.7174
▁자랑	-11.7174
▁print	-11.7175
▁California	-11.7175
▁Facilities	-11.7175
▁Mexican	-11.7175
▁호기심	-11.7175
▁국세청	-11.7175
▁machinery	-11.7176
샤	-11.7178
▁니	-11.7179
▁거절	-11.718
▁위치해	-11.7181
▁Yo	-11.7183
▁폭염이	-11.7183
▁이후로	-11.7183
숲	-11.7185
▁증가세	-11.7186
바이오	-11.7186
▁seconds	-11.7187
미터	-11.7188
지역에	-11.7188
▁치즈	-11.7189
▁noteworthy	-11.719
▁무조건	-11.7191
▁천연	-11.7192
▁돼서	-11.7192
▁공무원의	-11.7193
▁restrict	-11.7193
▁theaters	-11.7193
▁Lo	-11.7193
▁resign	-11.7193
▁다이어트	-11.7194
▁설치하는	-11.7194
체육	-11.7195
▁떨어졌다	-11.7195
▁지어	-11.7195
▁입구	-11.7197
허	-11.7197
hu	-11.7197
▁학기	-11.7199
▁보세요	-11.72
▁합병	-11.7202
하시	-11.7203
▁CBS	-11.7204
성은	-11.7205
효과	-11.7206
▁everywhere	-11.7206
▁robots	-11.7207
건축	-11.7208
▁대회에	-11.7209
▁개최된	-11.7209
▁챙겨	-11.7209
▁국정	-11.7212
▁귀가	-11.7212
▁제기된	-11.7215
▁supervise	-11.7217
▁구로구	-11.7217
▁stir	-11.722
▁펴	-11.722
▁valley	-11.722
▁vocational	-11.722
▁prestigious	-11.722
▁대북제재	-11.722
▁capable	-11.7221
▁요리를	-11.7221
▁미술관	-11.7222
굴	-11.7222
03	-11.7223
▁농민	-11.7223
▁waters	-11.7224
lic	-11.7224
▁wash	-11.7224
▁영입	-11.7224
▁Play	-11.7225
▁결성	-11.7225
▁Bas	-11.7228
▁교원	-11.7229
▁시스템이	-11.7229
▁log	-11.723
▁아직까지	-11.7231
▁서민	-11.7231
▁guards	-11.7232
▁Kimchi	-11.7232
급여	-11.7233
▁칭찬	-11.7235
캠프	-11.7236
놓고	-11.7237
▁ages	-11.7237
▁취하고	-11.7238
▁않는다고	-11.7239
▁바이러스	-11.724
▁봐도	-11.7241
▁이성	-11.7242
▁순으로	-11.7244
▁보건소	-11.7247
▁Isn	-11.7247
51	-11.7248
▁숙제	-11.7249
▁sheet	-11.725
▁Osaka	-11.725
▁입장에서	-11.725
▁부르는	-11.7252
▁operational	-11.7253
▁학생의	-11.7255
▁일부가	-11.7257
▁빚	-11.7257
▁CD	-11.7257
▁적발됐다	-11.7258
▁Sol	-11.7258
▁eastern	-11.7259
추진	-11.7262
▁특별법	-11.7262
▁Expo	-11.7263
▁고백	-11.7265
▁leap	-11.7266
▁hotels	-11.727
ities	-11.7273
▁sells	-11.7275
▁저출산	-11.7276
▁lodging	-11.7281
▁recycling	-11.7281
▁흔히	-11.7282
▁참여가	-11.7282
▁반입	-11.7282
▁당직	-11.7283
▁예매	-11.7284
▁가족의	-11.7284
▁protests	-11.7284
2%)	-11.7284
▁프랜차이즈	-11.7285
▁cuts	-11.7289
▁막아	-11.7292
bum	-11.7293
▁토론회	-11.7295
▁transparency	-11.7296
▁dating	-11.7296
▁인원이	-11.7296
다니	-11.7297
▁행위가	-11.7297
▁LNG	-11.7299
▁di	-11.73
▁내놨다	-11.7301
▁rear	-11.7302
교수	-11.7302
▁highway	-11.7305
▁지은	-11.7305
처분	-11.7306
▁중에서도	-11.7307
영상	-11.7307
▁차트	-11.7307
자본	-11.7308
▁영등포구	-11.7308
▁colleagues	-11.7311
▁Furthermore	-11.7311
▁context	-11.7311
▁줄여	-11.7311
▁이른다	-11.7311
▁지붕	-11.7312
▁하세요	-11.7312
▁실시했다	-11.7312
튼	-11.7313
▁남편이	-11.7313
▁무용	-11.7314
▁Ar	-11.7314
▁세워	-11.7316
▁집중되고	-11.7318
▁밀려	-11.7319
4%)	-11.7319
[...]
