<unk>	0
<s>	0
</s>	0
.	-3.31325
▁the	-3.47511
,	-3.56837
▁of	-4.19952
▁and	-4.41569
▁to	-4.44757
▁a	-4.71222
s	-4.74541
▁	-4.74993
▁in	-4.78998
을	-4.91766
-	-4.92634
의	-5.08866
▁is	-5.1157
이	-5.23637
에	-5.29778
▁that	-5.35192
'	-5.35277
가	-5.36239
를	-5.38024
▁for	-5.44649
는	-5.52203
▁on	-5.66549
▁The	-5.68057
▁I	-5.69002
은	-5.70898
▁as	-5.8046
▁be	-5.8338
▁it	-5.83706
▁with	-5.87313
▁was	-5.92666
▁by	-5.9432
▁수	-6.00078
)	-6.03754
▁are	-6.05839
과	-6.06656
▁will	-6.07665
▁"	-6.12098
고	-6.18163
로	-6.18859
도	-6.19636
▁있다	-6.22423
▁at	-6.24866
?	-6.25394
한	-6.32561
에서	-6.3288
▁from	-6.34191
▁you	-6.34674
▁have	-6.38193
으로	-6.42192
일	-6.42361
▁has	-6.42619
▁“	-6.43151
’	-6.44977
▁‘	-6.45044
와	-6.45646
▁which	-6.46798
(	-6.52363
▁not	-6.52746
▁who	-6.53524
▁an	-6.56992
”	-6.57141
▁이	-6.59974
·	-6.6065
▁1	-6.61637
▁this	-6.65582
▁Korea	-6.68254
인	-6.68357
ing	-6.70922
▁but	-6.72187
▁있는	-6.73661
t	-6.74441
th	-6.76484
▁(	-6.7709
▁can	-6.77112
▁등	-6.786
▁or	-6.80347
하는	-6.8079
▁In	-6.8103
▁2	-6.81244
"	-6.827
하고	-6.84767
할	-6.88214
▁said	-6.88384
다	-6.90292
▁It	-6.90395
▁3	-6.9264
▁shall	-6.92712
해	-6.96048
▁year	-6.9632
▁been	-6.9708
▁time	-6.98899
년	-6.98966
▁were	-7.00044
지	-7.0079
▁he	-7.01689
▁한다	-7.04471
▁there	-7.04688
▁한	-7.05587
▁Korean	-7.07766
▁제	-7.09458
▁A	-7.11873
▁Kim	-7.12232
ed	-7.13675
m	-7.13803
▁his	-7.13876
▁so	-7.13991
▁such	-7.14788
."	-7.16221
▁also	-7.16238
▁그	-7.16899
▁after	-7.1778
▁people	-7.17852
▁when	-7.20672
▁more	-7.21468
▁및	-7.2171
▁their	-7.2199
▁they	-7.22751
▁것으로	-7.22854
▁5	-7.23574
만	-7.23807
월	-7.25413
▁4	-7.25812
▁if	-7.26355
▁than	-7.27558
▁first	-7.27755
기	-7.27922
▁about	-7.29215
▁전	-7.30582
▁10	-7.30643
d	-7.31665
▁out	-7.35134
▁head	-7.36099
▁대한	-7.3693
▁we	-7.41551
했다	-7.42163
▁Gyeonggi	-7.4234
▁because	-7.43666
S	-7.46488
▁one	-7.47242
▁Seoul	-7.48519
▁my	-7.49859
▁its	-7.50176
▁위해	-7.53497
시	-7.53892
▁government	-7.55159
된	-7.5549
들이	-7.55913
▁where	-7.56232
▁all	-7.57288
자	-7.57968
▁had	-7.58107
▁may	-7.5848
대	-7.58866
▁up	-7.58868
▁6	-7.60189
▁through	-7.61535
▁public	-7.61929
서	-7.61988
▁중	-7.62546
▁더	-7.63511
▁won	-7.63553
▁last	-7.64303
do	-7.65094
나	-7.65688
▁including	-7.66385
▁것	-7.66938
▁me	-7.67169
▁other	-7.68224
▁This	-7.6882
ly	-7.69353
▁two	-7.69746
에는	-7.70096
▁only	-7.70557
▁due	-7.7121
▁할	-7.71331
▁under	-7.71443
gu	-7.71541
▁따라	-7.71766
▁Gu	-7.71798
▁경우	-7.72351
▁7	-7.7284
▁new	-7.72999
▁한국	-7.73013
▁do	-7.73054
▁North	-7.7315
▁like	-7.73239
,"	-7.74404
면	-7.74603
까지	-7.76349
▁your	-7.7645
/	-7.76497
2	-7.77234
며	-7.77239
하게	-7.7729
▁held	-7.78265
▁U	-7.79064
▁Province	-7.79153
▁day	-7.79321
▁지난	-7.80212
사	-7.80298
게	-7.81233
▁Lee	-7.8181
▁high	-7.82303
개	-7.82554
1	-7.82573
▁companies	-7.82593
▁20	-7.82751
▁over	-7.82971
▁통해	-7.83142
▁내	-7.84336
▁8	-7.84491
▁나는	-7.84773
수	-7.84888
이다	-7.85846
▁National	-7.86073
주	-7.86274
▁no	-7.86552
▁함께	-7.86723
적	-7.86901
▁would	-7.8752
▁김	-7.87725
▁should	-7.879
▁때	-7.88577
▁밝혔다	-7.89682
▁If	-7.89923
er	-7.90252
어	-7.90726
▁them	-7.90802
▁made	-7.90899
▁years	-7.90927
▁As	-7.91164
▁9	-7.91318
에게	-7.91546
▁into	-7.93339
▁many	-7.93452
▁support	-7.93568
▁work	-7.93735
▁local	-7.94237
▁안	-7.9476
▁number	-7.94976
▁market	-7.96863
▁이번	-7.97008
▁company	-7.97031
▁하는	-7.97551
▁between	-7.97554
리	-7.98005
▁business	-7.98686
라	-7.99588
▁30	-8.00022
▁system	-8.00086
▁것이	-8.00171
▁We	-8.00267
▁make	-8.00952
▁있습니다	-8.01094
▁take	-8.01183
in	-8.01386
진	-8.01781
▁even	-8.02654
▁school	-8.03479
▁There	-8.04222
한다	-8.04519
성	-8.04618
▁위한	-8.04777
y	-8.04969
▁많은	-8.05027
▁12	-8.0622
▁since	-8.06231
▁members	-8.06465
▁use	-8.06948
▁while	-8.07216
:	-8.07772
야	-8.07923
하기	-8.08002
▁두	-8.08043
명	-8.08074
▁등을	-8.08273
▁11	-8.083
하지	-8.0833
▁well	-8.08451
▁가장	-8.08454
동	-8.08859
제	-8.08885
입니다	-8.09262
▁President	-8.09571
장	-8.0986
▁Park	-8.09867
화	-8.10097
▁저는	-8.10938
▁다른	-8.11459
▁each	-8.1196
),	-8.12521
▁말했다	-8.12755
▁good	-8.12803
▁go	-8.13164
▁order	-8.14088
상	-8.14472
▁team	-8.14894
▁후	-8.1549
▁것이다	-8.15596
▁being	-8.15904
적인	-8.16486
▁했다	-8.1656
조	-8.16856
▁각	-8.16888
▁her	-8.17068
▁think	-8.17359
st	-8.17887
▁시	-8.17889
▁want	-8.18171
▁management	-8.18787
▁get	-8.19058
▁next	-8.19318
▁expected	-8.19597
▁잘	-8.19793
하여	-8.19901
▁대해	-8.2003
▁during	-8.20106
▁three	-8.20177
▁것은	-8.2025
이라고	-8.20367
▁He	-8.2067
▁place	-8.20818
▁미국	-8.20919
▁some	-8.21981
▁것을	-8.22035
re	-8.2234
▁When	-8.22387
▁K	-8.2339
▁our	-8.23464
▁City	-8.24006
▁project	-8.24197
미	-8.24237
▁서울	-8.24349
▁etc	-8.24365
▁Party	-8.2443
▁Ministry	-8.24661
스	-8.2472
▁같은	-8.2515
▁meeting	-8.25329
차	-8.25341
▁official	-8.25346
▁before	-8.25671
▁any	-8.25742
▁큰	-8.25989
▁우리	-8.2605
▁students	-8.26054
▁various	-8.26226
원	-8.26325
정	-8.26426
al	-8.26716
선	-8.26879
▁15	-8.26908
▁게	-8.26926
▁Article	-8.27027
▁million	-8.27106
e	-8.27226
▁person	-8.2796
▁could	-8.28077
요	-8.28149
▁다음	-8.28624
▁need	-8.28716
에서는	-8.28911
부	-8.29027
▁area	-8.29341
▁necessary	-8.29455
▁또는	-8.29512
하며	-8.29582
ll	-8.3041
▁office	-8.30629
히	-8.30651
▁가운데	-8.30987
▁19	-8.31667
▁police	-8.31689
▁China	-8.31794
비	-8.31886
▁Committee	-8.32239
▁Do	-8.32267
▁second	-8.32457
▁관련	-8.32493
▁Act	-8.32561
될	-8.32925
세	-8.32973
▁same	-8.32988
▁주	-8.33278
▁필요한	-8.33395
▁month	-8.33414
▁case	-8.3342
구	-8.33556
▁know	-8.33687
이나	-8.33782
▁plan	-8.34103
▁what	-8.34433
▁most	-8.34608
되는	-8.3509
▁해	-8.3511
아	-8.35114
▁그는	-8.35365
소	-8.3542
▁now	-8.36288
▁education	-8.36427
▁residents	-8.36558
▁있어	-8.36721
▁used	-8.37312
▁때문에	-8.37344
3	-8.37535
▁Metropolitan	-8.37754
▁days	-8.37808
▁world	-8.38344
▁without	-8.38409
회	-8.38634
▁service	-8.38724
▁South	-8.38885
▁일	-8.39078
산	-8.39377
호	-8.39537
▁다	-8.39791
▁하고	-8.39797
여	-8.40197
▁Government	-8.40577
▁long	-8.40831
▁products	-8.40869
▁re	-8.41251
▁있도록	-8.41553
해야	-8.41848
▁등이	-8.42386
▁former	-8.42432
▁지	-8.42646
▁around	-8.42649
I	-8.42706
▁Center	-8.42923
형	-8.42927
전	-8.42991
▁special	-8.43084
▁information	-8.43147
▁don	-8.4346
▁how	-8.43519
▁industry	-8.43576
▁B	-8.43675
보다	-8.43701
The	-8.43709
신	-8.43859
▁지역	-8.43982
▁right	-8.44151
▁related	-8.44446
▁많이	-8.44507
용	-8.44564
분	-8.4479
▁life	-8.44863
▁small	-8.44913
던	-8.4498
▁You	-8.45191
▁특히	-8.45586
▁뒤	-8.45704
▁따른	-8.45768
▁city	-8.45775
r	-8.4588
▁am	-8.46165
▁18	-8.4623
n	-8.46419
▁just	-8.46549
▁최근	-8.46665
▁event	-8.47196
적으로	-8.47903
▁According	-8.48091
▁이날	-8.48157
▁지난해	-8.48476
▁facilities	-8.48613
▁이후	-8.48789
부터	-8.48893
es	-8.49112
▁development	-8.49445
당	-8.49563
▁saying	-8.49617
ri	-8.4969
▁investigation	-8.49778
▁경기도	-8.49962
▁100	-8.50038
▁children	-8.50429
▁다양한	-8.50433
▁lot	-8.50622
▁다시	-8.51099
▁following	-8.5118
▁country	-8.51431
▁현재	-8.51637
▁billion	-8.51757
▁원	-8.51793
▁center	-8.52015
▁increase	-8.52032
▁much	-8.52148
▁within	-8.52197
▁see	-8.52391
▁이상	-8.52757
▁13	-8.529
▁국내	-8.53229
보	-8.53433
중	-8.53607
she	-8.53904
면서	-8.541
▁period	-8.54192
됐다	-8.54315
▁없는	-8.54333
▁Moon	-8.54379
식	-8.54849
▁있다는	-8.55085
▁16	-8.55744
▁될	-8.55855
▁food	-8.56044
▁제가	-8.56079
a	-8.56176
▁large	-8.56351
치	-8.56409
▁among	-8.56526
▁announced	-8.56542
▁performance	-8.56565
▁end	-8.56969
▁did	-8.57
ve	-8.57103
▁14	-8.57142
▁University	-8.57207
▁비	-8.57422
▁중국	-8.57478
▁On	-8.57508
▁신	-8.5751
▁rate	-8.57583
▁내가	-8.57627
▁against	-8.58018
▁group	-8.58346
▁price	-8.58434
▁올해	-8.58855
▁고	-8.59049
▁모두	-8.59094
▁정	-8.59116
▁미	-8.5922
▁party	-8.59228
▁가	-8.59459
G	-8.59503
하면서	-8.59561
▁사	-8.59611
▁home	-8.59701
▁S	-8.59774
▁very	-8.59937
관	-8.59949
nt	-8.59981
▁직접	-8.60191
니	-8.60331
우	-8.6045
돼	-8.60527
▁process	-8.60549
▁social	-8.60854
▁referred	-8.60983
▁national	-8.61118
들의	-8.61141
▁나	-8.61303
드	-8.61655
▁오	-8.61772
▁구청장은	-8.61866
▁economic	-8.61967
라는	-8.62011
4	-8.6224
dong	-8.62563
라고	-8.62658
▁총	-8.63045
▁fact	-8.6342
▁'	-8.63458
▁total	-8.63751
▁모든	-8.64157
▁Jung	-8.64356
▁보고	-8.64492
▁financial	-8.64792
▁operation	-8.64858
영	-8.6497
▁him	-8.65023
▁whether	-8.6538
▁way	-8.65617
▁위하여	-8.65631
실	-8.65977
▁Jae	-8.66141
하면	-8.66496
▁박	-8.66639
▁At	-8.66809
▁back	-8.66844
▁report	-8.66844
▁help	-8.66875
▁come	-8.67348
▁17	-8.6749
경	-8.67743
▁become	-8.67799
▁지원	-8.67962
▁charge	-8.68303
법	-8.6843
▁attention	-8.68439
▁found	-8.68509
▁going	-8.68651
▁대	-8.68911
▁약	-8.68958
▁등의	-8.69056
위	-8.6911
▁family	-8.69375
하여야	-8.69407
▁좋은	-8.69634
▁말	-8.69734
▁이어	-8.69751
▁budget	-8.6982
▁구	-8.69935
▁policy	-8.69986
A	-8.70089
▁product	-8.70536
마	-8.70577
▁water	-8.7058
▁유	-8.7068
▁cases	-8.70686
▁future	-8.70829
▁difficult	-8.70911
되고	-8.70926
▁C	-8.71198
이하	-8.71234
▁officials	-8.71265
명이	-8.71454
들은	-8.71576
▁Governor	-8.71725
▁those	-8.71819
▁문	-8.71935
▁change	-8.72024
▁working	-8.72256
▁construction	-8.72755
▁따르면	-8.7278
▁이를	-8.73039
ho	-8.73143
에도	-8.73241
합니다	-8.73246
▁part	-8.73266
▁사용	-8.73551
▁25	-8.73711
▁again	-8.73859
▁세계	-8.74048
▁she	-8.7425
▁means	-8.74335
▁every	-8.74357
트	-8.74582
▁power	-8.74751
▁바	-8.74991
연	-8.75189
▁committee	-8.75258
▁데	-8.7527
▁situation	-8.75295
」	-8.75567
▁해당	-8.75589
▁아니라	-8.75678
o	-8.75757
▁Minister	-8.75814
질	-8.75886
▁Office	-8.76147
▁down	-8.76589
▁together	-8.76636
▁24	-8.77071
▁간	-8.77165
▁있을	-8.77192
▁부	-8.77336
▁measures	-8.77355
▁50	-8.77743
▁member	-8.77775
nd	-8.77845
계	-8.78058
▁fire	-8.78218
▁amount	-8.78416
▁「	-8.78424
하	-8.78429
▁없다	-8.78482
▁우리는	-8.78932
국	-8.78952
▁당시	-8.78971
석	-8.79026
▁activities	-8.79248
▁서	-8.79286
▁particular	-8.79676
▁provide	-8.79694
▁양	-8.79778
이라는	-8.79844
억	-8.79851
▁Busan	-8.79915
▁interest	-8.79973
천	-8.80139
들을	-8.80458
▁problem	-8.80515
▁경기	-8.80516
▁reported	-8.80611
▁received	-8.80652
▁오후	-8.80772
▁possible	-8.80897
▁Ordinance	-8.80973
▁best	-8.80991
▁countries	-8.81029
▁set	-8.8106
hereinafter	-8.8116
방	-8.8117
▁운영	-8.81267
지만	-8.81276
▁visit	-8.81305
▁sales	-8.8152
▁다만	-8.81818
▁term	-8.82158
습니다	-8.82497
▁사업	-8.82591
▁조	-8.82595
an	-8.82772
▁경우에는	-8.82818
▁major	-8.82846
▁지금	-8.82983
▁동안	-8.83019
▁Please	-8.83121
▁달	-8.83125
▁Japan	-8.83184
▁private	-8.8341
▁있다고	-8.83509
▁That	-8.83762
▁percent	-8.83763
유	-8.83799
▁때문이다	-8.83911
▁도	-8.83965
▁say	-8.8401
▁시장	-8.84101
▁culture	-8.84234
▁main	-8.84259
▁different	-8.84282
▁matters	-8.84319
▁관한	-8.84331
▁room	-8.84403
▁Assembly	-8.84471
▁교육	-8.84507
▁오늘	-8.84575
We	-8.84651
재	-8.8512
러	-8.85164
▁기	-8.85258
▁women	-8.8538
오	-8.85406
▁너무	-8.8546
▁세	-8.85493
▁어떤	-8.85696
▁areas	-8.85741
▁장	-8.85771
▁give	-8.85958
▁hard	-8.86094
▁director	-8.8613
▁job	-8.8642
▁21	-8.8658
▁된다	-8.86646
▁높은	-8.8673
▁Samsung	-8.86839
▁car	-8.86902
▁game	-8.86904
5	-8.86932
안	-8.87016
▁too	-8.87019
▁새로운	-8.87063
▁만큼	-8.87157
▁experience	-8.87227
▁reason	-8.87249
▁today	-8.87304
▁until	-8.87307
공	-8.87359
D	-8.87432
▁using	-8.87527
▁four	-8.87536
▁based	-8.87545
▁here	-8.87682
▁시간	-8.87757
ers	-8.87831
이라	-8.87837
▁important	-8.87845
▁money	-8.87902
무	-8.88071
▁강	-8.88199
▁Dong	-8.88233
▁건	-8.8832
▁general	-8.88515
▁pay	-8.88585
▁첫	-8.88736
했던	-8.88975
▁않은	-8.89197
▁technology	-8.89206
강	-8.8926
권	-8.89338
▁department	-8.89428
▁growth	-8.89481
▁increased	-8.89603
▁Chinese	-8.89668
▁real	-8.89745
▁able	-8.8985
▁일본	-8.89891
▁이런	-8.89942
▁아	-8.90049
▁모	-8.90183
▁five	-8.90334
g	-8.90377
▁president	-8.90489
▁자	-8.90494
▁foreign	-8.90541
C	-8.90731
▁half	-8.9079
들	-8.90826
▁why	-8.90841
▁합니다	-8.90975
▁경찰	-8.9103
▁Japanese	-8.91151
▁these	-8.91164
물	-8.91198
▁등에	-8.91225
▁workers	-8.91335
▁Education	-8.91347
▁23	-8.9136
▁영화	-8.9137
▁still	-8.91404
▁decided	-8.91427
되어	-8.91452
▁data	-8.9149
포	-8.91561
간	-8.9158
▁US	-8.91751
문	-8.91832
▁media	-8.91875
금	-8.91888
the	-8.91969
▁27	-8.91976
▁came	-8.92137
현	-8.92181
▁관리	-8.92222
▁저	-8.9232
▁당신은	-8.92396
▁볼	-8.92398
▁safety	-8.92417
▁조사	-8.92651
l	-8.92868
▁난	-8.92868
▁E	-8.92999
i	-8.93416
▁줄	-8.93552
▁차	-8.93606
▁left	-8.9367
▁level	-8.9368
모	-8.93701
급	-8.93709
▁province	-8.93738
▁New	-8.93741
▁보	-8.93766
단	-8.93928
▁making	-8.94054
▁또	-8.94083
▁22	-8.94271
▁low	-8.94367
▁house	-8.94386
▁hope	-8.9464
▁국가	-8.95004
민	-8.95304
▁early	-8.9533
▁past	-8.95361
▁us	-8.95378
▁building	-8.95431
▁projects	-8.95511
B	-8.95571
▁재	-8.95609
파	-8.95634
▁off	-8.9572
▁거	-8.9579
▁투자	-8.95846
군	-8.95954
▁당신이	-8.96054
▁Trump	-8.96095
내	-8.96177
▁tax	-8.96286
▁took	-8.96319
▁find	-8.96321
▁show	-8.96431
▁results	-8.96931
▁pursua	-8.96949
▁있었다	-8.96995
▁못	-8.97051
7	-8.9711
▁동	-8.97215
▁40	-8.97261
▁So	-8.97422
rd	-8.97696
▁After	-8.9773
▁2018	-8.97789
배	-8.97807
▁Council	-8.97887
▁진행	-8.97945
her	-8.98123
▁An	-8.9819
▁어떻게	-8.98246
▁military	-8.9833
▁released	-8.98418
▁p	-8.98466
▁않고	-8.9855
▁결과	-8.98788
▁관계자는	-8.98793
▁check	-8.98972
K	-8.9919
▁트럼프	-8.99212
▁then	-8.99213
▁times	-8.99287
▁week	-8.99344
▁What	-8.99347
▁own	-8.99459
k	-8.99551
▁보인다	-8.99766
▁있어요	-8.99928
양	-8.99943
▁issue	-9.00077
▁labor	-9.00205
▁오전	-9.00248
▁26	-9.00437
▁KRW	-9.00476
▁Incheon	-9.00549
▁domestic	-9.00563
▁기업	-9.0061
▁날	-9.00623
▁28	-9.00724
▁선	-9.00834
▁경제	-9.0085
▁site	-9.00899
▁name	-9.01064
르	-9.0117
▁하	-9.01306
▁relevant	-9.01499
▁G	-9.0157
6	-9.01683
▁research	-9.01761
▁오는	-9.01763
▁affairs	-9.01791
▁start	-9.02082
▁설치	-9.02124
해서	-9.02319
▁However	-9.02753
▁health	-9.02763
항에	-9.02769
▁result	-9.0281
▁No	-9.02813
란	-9.02826
▁economy	-9.02915
처럼	-9.03076
il	-9.0316
교	-9.03316
타	-9.03317
▁된	-9.03347
▁investment	-9.03458
on	-9.03806
▁주요	-9.03934
▁cultural	-9.04073
▁있으며	-9.04093
▁네	-9.04106
시간	-9.04109
▁열린	-9.0437
▁per	-9.04471
▁law	-9.04476
▁For	-9.0486
▁called	-9.05096
▁있고	-9.05114
▁없이	-9.05169
▁무	-9.0533
▁좀	-9.05337
▁초	-9.05379
▁반	-9.05425
▁global	-9.05833
▁front	-9.05834
▁plans	-9.05837
▁여러	-9.06026
▁연	-9.06057
▁agreement	-9.06342
▁does	-9.06457
▁must	-9.0651
▁Chairman	-9.0658
▁불	-9.06582
▁environment	-9.06606
▁paragraph	-9.06612
▁대통령이	-9.0674
▁put	-9.06761
")	-9.06811
▁북한	-9.06867
▁Although	-9.06877
엔	-9.06877
▁great	-9.06929
▁일부	-9.06941
▁번	-9.07092
▁Choi	-9.07104
it	-9.07128
▁attached	-9.07249
▁care	-9.07397
▁D	-9.07401
▁citizens	-9.07593
▁Court	-9.07701
▁addition	-9.07734
▁알	-9.07783
ro	-9.07948
▁추가	-9.0804
▁기존	-9.0806
▁chairman	-9.08446
▁Hong	-9.08446
ation	-9.08547
▁current	-9.08621
▁feel	-9.08681
▁받은	-9.08714
청	-9.08846
▁strong	-9.09019
▁Dae	-9.09058
▁young	-9.09252
▁full	-9.09774
▁medical	-9.09791
했습니다	-9.09859
▁Institute	-9.09971
▁My	-9.10021
▁receive	-9.10253
▁prosecution	-9.10406
▁went	-9.10424
▁어느	-9.10428
▁정도	-9.10497
▁already	-9.10594
된다	-9.1065
▁body	-9.10745
는데	-9.10792
▁once	-9.11138
▁Jong	-9.11197
▁provincial	-9.11304
▁사람이	-9.11332
▁established	-9.11389
▁문화	-9.11468
p	-9.11471
▁hours	-9.11472
▁look	-9.11625
▁성	-9.11636
하거나	-9.1164
▁방	-9.11783
▁평가	-9.1186
▁request	-9.12063
▁예정이다	-9.1212
un	-9.12175
▁services	-9.12344
▁설명했다	-9.12634
▁학교	-9.12687
▁court	-9.1276
학	-9.12908
▁un	-9.1296
▁paid	-9.1311
▁필요	-9.13214
▁판매	-9.13215
▁사람	-9.13272
▁top	-9.13301
▁music	-9.13338
▁participate	-9.13366
▁여성	-9.13425
le	-9.13472
▁expenses	-9.1348
역	-9.13566
▁purpose	-9.13649
se	-9.13665
길	-9.1378
or	-9.13858
▁side	-9.14077
▁같이	-9.14368
▁정부	-9.14423
▁확인	-9.14472
▁하나	-9.14475
병	-9.14521
ra	-9.14534
won	-9.14706
▁법	-9.14749
▁play	-9.14811
▁months	-9.14835
종	-9.14912
▁29	-9.14948
▁They	-9.14963
▁self	-9.15
▁cooperation	-9.1503
었다	-9.15064
▁employees	-9.1511
발	-9.15349
되지	-9.15446
min	-9.15459
▁그리고	-9.15589
▁31	-9.15705
점	-9.15716
▁공	-9.15723
▁Association	-9.1575
▁seems	-9.15944
▁소	-9.16003
up	-9.16004
▁마	-9.16082
▁open	-9.16145
▁free	-9.16153
▁state	-9.16222
▁apply	-9.16587
▁대표	-9.16593
▁according	-9.16596
▁send	-9.1663
▁가능성이	-9.16811
데	-9.16833
▁전국	-9.16881
▁create	-9.16897
▁please	-9.16975
▁conducted	-9.17015
▁바로	-9.17033
위원회	-9.1707
ity	-9.17134
▁explained	-9.17149
▁big	-9.17165
▁living	-9.17274
▁Young	-9.17322
▁Cho	-9.17503
▁T	-9.17691
별	-9.17708
▁cannot	-9.17854
▁program	-9.18002
▁May	-9.18082
▁selected	-9.18083
▁love	-9.18285
▁District	-9.18408
했고	-9.18651
항	-9.18704
▁recently	-9.18762
직	-9.18804
▁production	-9.18851
▁date	-9.19014
관리	-9.19057
프	-9.19301
▁남	-9.19375
to	-9.19393
▁당	-9.19433
▁명	-9.19448
▁point	-9.19457
▁training	-9.19597
▁ceremony	-9.19626
9	-9.19878
▁정부가	-9.19934
▁meet	-9.19944
▁both	-9.19983
▁P	-9.19993
생	-9.19998
▁최대	-9.20002
▁있지만	-9.20144
▁호의	-9.20161
ment	-9.20268
▁man	-9.20346
▁morning	-9.20357
▁노	-9.20408
▁application	-9.20468
반	-9.20616
▁prices	-9.20728
▁organizations	-9.20822
▁test	-9.20886
ic	-9.20908
▁live	-9.20996
▁less	-9.21013
▁United	-9.21095
▁Service	-9.21095
▁본	-9.2117
▁contract	-9.21357
▁더욱	-9.21367
려	-9.21583
크	-9.21611
▁대상으로	-9.21688
체	-9.21723
▁trade	-9.21759
자가	-9.21845
▁Democratic	-9.21858
하다	-9.21866
▁prevent	-9.21876
▁배	-9.21911
거	-9.21915
▁Since	-9.22075
▁floor	-9.2211
▁문제가	-9.2212
▁F	-9.22165
▁Han	-9.22628
▁부산	-9.2269
▁payment	-9.22773
▁English	-9.22921
▁popular	-9.23009
▁것입니다	-9.23012
P	-9.23046
▁agency	-9.23079
▁summit	-9.23079
▁field	-9.2313
▁않는	-9.23147
▁away	-9.23258
약	-9.23262
▁along	-9.23374
운	-9.23469
▁got	-9.23505
▁도지사	-9.23691
▁이미	-9.23709
▁받고	-9.23809
태	-9.23843
▁competition	-9.23875
▁정말	-9.23915
온	-9.2395
▁started	-9.23996
ur	-9.24054
▁기술	-9.24133
▁late	-9.24183
▁청와대	-9.24298
▁상	-9.24363
▁representative	-9.24366
린	-9.24378
▁continue	-9.24384
▁administration	-9.24456
▁hold	-9.24478
▁매우	-9.24495
조제	-9.24503
▁생산	-9.24522
▁말한다	-9.24609
.”	-9.24635
▁became	-9.2468
▁old	-9.24696
루	-9.24719
▁cost	-9.24854
▁이용	-9.24881
▁opening	-9.2502
▁어	-9.251
▁taking	-9.25103
▁올	-9.25163
▁visited	-9.25202
▁line	-9.25343
ary	-9.25409
억원	-9.25475
행	-9.25484
▁improve	-9.25497
▁community	-9.25513
▁air	-9.25753
▁income	-9.25846
▁온	-9.25882
▁better	-9.26037
▁de	-9.26071
▁likely	-9.26256
▁administrative	-9.26271
soo	-9.26276
레	-9.26289
▁때에는	-9.26305
▁집	-9.26412
▁welfare	-9.26496
▁Shin	-9.26591
심	-9.26701
jin	-9.26753
▁참여	-9.26881
건	-9.26925
8	-9.27002
T	-9.27161
▁season	-9.27189
F	-9.27191
▁연구	-9.27233
▁계속	-9.27236
▁Gwangju	-9.27277
▁international	-9.2733
지는	-9.2734
일까지	-9.27365
▁Mayor	-9.27406
▁Where	-9.27415
▁non	-9.27672
san	-9.27794
▁당신의	-9.28006
일부터	-9.28044
▁asked	-9.28092
▁another	-9.28141
▁led	-9.2818
▁soon	-9.28181
▁회사	-9.28195
▁피	-9.2821
▁타	-9.28248
하도록	-9.28316
▁우리가	-9.28322
▁발	-9.28514
▁제품	-9.28565
▁World	-9.28607
▁추진	-9.28664
▁leader	-9.28673
▁2016	-9.2868
만원	-9.28745
▁video	-9.28888
▁human	-9.28895
▁demand	-9.28914
U	-9.29052
▁treatment	-9.29055
▁School	-9.29081
▁accident	-9.29149
▁손	-9.2924
이었다	-9.29443
산업	-9.2953
▁물	-9.29628
▁promote	-9.29716
▁시설	-9.29754
▁됐다	-9.29759
▁child	-9.29831
▁생각	-9.30165
▁몇	-9.30207
young	-9.30244
거나	-9.3026
▁organization	-9.30264
지역	-9.30356
▁election	-9.30463
▁book	-9.30489
▁또한	-9.30545
▁rights	-9.30561
▁해외	-9.30602
▁시간이	-9.30681
교육	-9.30704
▁located	-9.30809
▁things	-9.30956
▁third	-9.3108
▁자신의	-9.31089
▁60	-9.31098
▁최	-9.31115
▁history	-9.31166
▁배우	-9.31254
▁damage	-9.31258
▁개발	-9.31277
",	-9.31386
▁북	-9.31498
▁단	-9.31522
▁먼저	-9.31538
▁시작	-9.31583
▁개	-9.31652
▁크게	-9.31841
▁known	-9.3203
박	-9.32066
▁Ji	-9.32083
▁stage	-9.3216
준	-9.32204
▁분	-9.32276
▁되는	-9.32418
▁land	-9.32421
▁showed	-9.32436
▁Group	-9.32478
조에	-9.32538
▁establish	-9.32603
▁security	-9.32634
▁confirmed	-9.32645
▁March	-9.3266
▁Kang	-9.32961
▁space	-9.33041
▁problems	-9.33108
▁환경	-9.33137
▁발생	-9.33168
▁Jeju	-9.3319
▁International	-9.33372
▁조례	-9.33479
▁관심	-9.33494
▁이에	-9.3351
▁war	-9.33585
사업	-9.33624
불	-9.33695
남	-9.33712
시설	-9.33793
▁Commission	-9.33834
▁fine	-9.33856
기를	-9.33859
▁parents	-9.33867
mi	-9.33893
▁With	-9.33903
개월	-9.34035
▁short	-9.3404
노	-9.34064
▁lead	-9.34219
▁아직	-9.34237
▁새	-9.34265
▁들어	-9.3428
▁산	-9.34298
였다	-9.34309
▁서울특별시	-9.34411
▁등으로	-9.3444
▁도시	-9.34484
바	-9.3454
▁caused	-9.34571
에서도	-9.34622
▁began	-9.34669
▁subject	-9.34686
력	-9.34692
si	-9.34797
▁provided	-9.34872
▁국제	-9.34908
승	-9.34937
▁attended	-9.34966
했다고	-9.35013
▁개선	-9.35165
▁design	-9.35201
디	-9.35341
▁만들어	-9.35386
터	-9.3539
▁&	-9.35465
▁TV	-9.35544
▁class	-9.35598
▁didn	-9.35662
▁persons	-9.35773
N	-9.35813
▁added	-9.36022
▁Police	-9.36091
▁갈	-9.36144
▁있나요	-9.3639
▁사항을	-9.36626
▁employment	-9.36666
▁let	-9.36682
▁설명	-9.36732
▁처음	-9.36796
▁position	-9.3688
▁decision	-9.37011
해요	-9.37114
했지만	-9.37158
▁관심이	-9.37169
토	-9.37192
▁How	-9.37246
▁institutions	-9.37335
▁전했다	-9.37339
▁국회	-9.37379
▁Co	-9.37401
▁CEO	-9.37523
▁inspection	-9.37673
▁middle	-9.37715
▁활동	-9.37745
▁군	-9.37769
▁To	-9.37854
▁만	-9.37866
▁previous	-9.38012
year	-9.38055
▁(1)	-9.38067
▁가지	-9.38266
▁region	-9.3828
이에요	-9.38439
▁night	-9.38509
감	-9.38516
▁policies	-9.38607
기업	-9.38684
It	-9.38693
▁수사	-9.38698
▁players	-9.38801
카	-9.38869
▁일이	-9.38889
▁e	-9.3891
문화	-9.39003
▁글로벌	-9.39006
▁political	-9.39067
▁산업	-9.3911
▁society	-9.39117
두	-9.39132
▁문제	-9.39147
▁movie	-9.39194
▁받아	-9.39227
▁ruling	-9.39228
▁value	-9.39233
▁Even	-9.39252
▁사회	-9.39264
▁control	-9.39326
▁계획	-9.39406
▁fans	-9.39418
▁housing	-9.3945
▁co	-9.39514
▁schools	-9.3956
▁quality	-9.39639
c	-9.39679
▁전문	-9.39708
▁집중	-9.39732
초	-9.39747
▁far	-9.39777
▁sent	-9.39929
▁속	-9.39968
▁having	-9.39994
▁가격	-9.40179
▁bus	-9.40207
▁정책	-9.40215
▁보면	-9.40263
▁participated	-9.40289
▁overseas	-9.40441
래	-9.4048
▁minutes	-9.40583
▁살	-9.4064
▁아닌	-9.40725
▁생활	-9.40811
▁Seo	-9.41057
▁서비스	-9.41086
▁차량	-9.4119
ion	-9.41231
▁district	-9.4124
▁외	-9.41258
▁신청	-9.41331
▁actively	-9.41365
▁changed	-9.4139
명의	-9.41401
▁확대	-9.4142
▁음식	-9.41485
▁directly	-9.41625
▁experts	-9.41728
▁스	-9.41749
▁실	-9.41793
▁pointed	-9.4191
▁role	-9.41914
▁little	-9.4211
즈	-9.42115
▁결정	-9.42176
▁opposition	-9.4221
티	-9.42244
▁thought	-9.42318
▁여	-9.4234
▁prepare	-9.42372
▁trial	-9.42396
▁move	-9.42414
▁cause	-9.42465
▁joint	-9.42476
▁그런	-9.42532
▁200	-9.42614
▁그동안	-9.42627
▁열	-9.42635
▁House	-9.42769
▁2017	-9.42811
▁매	-9.42972
Korean	-9.43021
▁Re	-9.4305
씨가	-9.43095
그	-9.43134
▁지급	-9.4322
▁chief	-9.43332
지원	-9.43342
증	-9.43345
▁exchange	-9.43511
철	-9.43519
▁insurance	-9.43558
으며	-9.43664
▁final	-9.4368
▁April	-9.43685
▁보내	-9.43766
희	-9.4379
임	-9.43802
▁store	-9.43833
▁있는데	-9.43886
▁안전	-9.43979
▁promotion	-9.43995
▁역시	-9.44111
▁2019	-9.44148
층	-9.44249
▁대학	-9.44269
▁return	-9.44331
센터	-9.44352
▁card	-9.44374
▁States	-9.44398
▁개인	-9.44408
▁effect	-9.44461
▁중인	-9.44477
하였다	-9.44528
▁그의	-9.44561
▁study	-9.4457
어요	-9.44598
▁업무	-9.44668
▁facility	-9.4471
▁전체	-9.4472
▁six	-9.44743
▁road	-9.44762
번	-9.44771
집	-9.4487
▁입	-9.44933
▁run	-9.45119
▁funds	-9.45265
▁방문	-9.45327
▁completed	-9.45406
▁각종	-9.45425
▁수도	-9.45508
b	-9.45522
▁사람들이	-9.45565
림	-9.45609
▁stock	-9.45612
되면	-9.45626
▁call	-9.45668
▁앞서	-9.45693
▁conditions	-9.45782
▁해요	-9.4581
▁age	-9.45861
▁하지만	-9.45904
▁traditional	-9.45929
▁applied	-9.45977
▁Can	-9.46037
▁기간	-9.46041
▁additional	-9.46088
▁later	-9.46189
작	-9.46278
장은	-9.46517
명을	-9.4652
▁기록	-9.46564
▁raised	-9.46597
▁existing	-9.46679
▁really	-9.4675
▁경기도가	-9.46946
▁face	-9.46962
▁June	-9.46981
▁near	-9.46983
▁하며	-9.47031
▁Yang	-9.47033
▁Sung	-9.47077
▁채	-9.47079
▁always	-9.4708
el	-9.47081
▁given	-9.47133
▁걸	-9.47146
sa	-9.4733
▁공동	-9.47356
▁customers	-9.47393
입	-9.47408
▁jobs	-9.47424
▁발표	-9.4744
▁Liberty	-9.47557
▁trillion	-9.47575
▁Station	-9.47795
▁백	-9.47818
인데	-9.4785
▁나온다	-9.47899
▁others	-9.47911
▁evaluation	-9.47939
▁enjoy	-9.47956
▁revealed	-9.48041
▁Jin	-9.48106
▁Provincial	-9.48165
피	-9.48228
▁Public	-9.48296
단체	-9.48306
▁R	-9.48309
▁news	-9.48339
▁tell	-9.48341
▁businesses	-9.48347
▁과정에서	-9.4841
▁경	-9.48421
▁July	-9.48655
▁친구	-9.48686
▁inter	-9.48706
▁senior	-9.48715
▁2015	-9.48773
▁survey	-9.48866
▁영	-9.48892
되면서	-9.48923
▁일자리	-9.49054
속	-9.4918
▁처리	-9.49239
▁나타났다	-9.49285
▁조성	-9.49439
▁supply	-9.49539
▁각각	-9.49641
▁물론	-9.49662
▁often	-9.49671
▁Sang	-9.49695
▁Jang	-9.49751
▁materials	-9.49823
▁buy	-9.49827
M	-9.49831
▁가지고	-9.49846
able	-9.49859
▁공개	-9.49977
창	-9.50053
▁match	-9.50132
▁But	-9.50185
▁실제	-9.50222
▁우선	-9.50358
▁대비	-9.5044
▁규모	-9.50498
▁response	-9.50498
▁파	-9.50522
▁행사	-9.5062
▁sector	-9.50622
▁Jeong	-9.5075
▁basic	-9.50771
▁해야	-9.50781
▁Min	-9.50818
▁keep	-9.50835
▁art	-9.50893
▁taken	-9.50899
▁least	-9.51085
▁위	-9.51123
▁events	-9.51138
▁seen	-9.51144
랑	-9.51155
매	-9.51209
▁지난달	-9.51351
▁civil	-9.51357
▁그가	-9.51541
▁rather	-9.51554
▁있기	-9.51587
▁hospital	-9.51588
▁것도	-9.51636
년간	-9.51654
▁지정	-9.5176
▁공연	-9.51818
▁industrial	-9.5182
▁emergency	-9.51834
▁share	-9.51864
▁왜	-9.52063
man	-9.52116
저	-9.5212
▁higher	-9.52197
▁account	-9.52202
▁exhibition	-9.5225
▁works	-9.52349
네	-9.52566
▁Supreme	-9.52578
ive	-9.52667
▁student	-9.52727
▁전에	-9.52861
▁주문	-9.52874
▁medium	-9.52938
▁일반	-9.52986
▁사고	-9.53001
▁수출	-9.53058
hyun	-9.53085
▁largest	-9.53107
▁M	-9.53177
▁Bank	-9.53227
▁Yoon	-9.53232
▁예	-9.53303
코	-9.53337
▁도입	-9.5336
▁만에	-9.53444
▁recent	-9.53446
류	-9.53528
▁한다는	-9.53538
통	-9.53584
▁하지	-9.53639
▁Affairs	-9.53645
▁자동차	-9.53707
▁increasing	-9.53712
▁대부분	-9.53723
▁받을	-9.53744
▁wage	-9.53846
na	-9.53855
▁앞으로	-9.53986
▁though	-9.54075
▁compared	-9.54116
▁planning	-9.54167
▁활성화	-9.54312
환	-9.54325
▁easy	-9.54335
▁인기	-9.54341
▁possibility	-9.54432
로부터	-9.54557
&	-9.54558
▁없어	-9.54797
판	-9.54836
▁소속	-9.54917
▁한국의	-9.54921
▁story	-9.54922
되었다	-9.54929
▁영향을	-9.55013
▁준비	-9.55043
이란	-9.55067
▁임	-9.55213
▁operating	-9.55226
▁알고	-9.55233
▁press	-9.55259
▁않았다	-9.5529
▁단체	-9.55299
▁O	-9.55352
▁average	-9.55356
▁Tae	-9.55389
▁Ha	-9.55398
ting	-9.5549
W	-9.55497
▁Financial	-9.555
설	-9.5559
▁review	-9.55597
u	-9.55756
▁인해	-9.55771
ness	-9.5585
10	-9.56007
▁issues	-9.56116
▁있게	-9.56139
▁ago	-9.56392
▁사진	-9.56404
했어요	-9.5641
▁never	-9.56415
▁Form	-9.56461
▁편	-9.5656
▁화	-9.56606
▁Nam	-9.56752
▁게임	-9.56897
▁form	-9.56921
각	-9.57008
▁looking	-9.57124
▁대통령	-9.57186
▁festival	-9.5731
▁노력	-9.57371
▁introduced	-9.57405
time	-9.57416
▁가능한	-9.5744
▁outside	-9.57543
장이	-9.57566
▁fees	-9.57566
▁행정	-9.57578
▁정보	-9.57579
▁phone	-9.57611
▁size	-9.57626
▁regular	-9.57724
▁리	-9.57775
su	-9.57811
▁advance	-9.57836
▁송	-9.57848
▁travel	-9.5788
▁Seung	-9.57911
▁Kyung	-9.57966
▁않아	-9.57967
▁September	-9.57992
▁conference	-9.58012
업	-9.58031
▁구매	-9.58062
열	-9.58101
▁계획이다	-9.58281
▁않을	-9.58287
▁close	-9.58352
▁energy	-9.58431
▁ask	-9.58457
▁costs	-9.58569
▁establishment	-9.58612
▁Festival	-9.58616
▁협력	-9.58644
▁발전	-9.58646
H	-9.58647
▁서로	-9.58648
▁목적으로	-9.58654
▁기대	-9.58674
▁met	-9.58692
▁중심으로	-9.58703
하기로	-9.58705
▁계약	-9.58754
▁expand	-9.58768
at	-9.58784
▁conduct	-9.58831
복	-9.5887
▁Then	-9.58904
다는	-9.58926
근	-9.58962
▁illegal	-9.59244
▁Hyun	-9.59375
▁Asian	-9.59416
▁심	-9.59445
▁leave	-9.59477
▁Hyundai	-9.59562
▁dust	-9.59604
▁감사	-9.59777
▁문재인	-9.59841
▁과거	-9.59853
등	-9.59889
▁eat	-9.59892
▁something	-9.5992
▁이렇게	-9.59936
de	-9.59977
▁삼	-9.59987
▁audit	-9.60005
▁film	-9.6015
▁families	-9.60175
km	-9.60182
▁enough	-9.6021
▁goal	-9.60252
▁key	-9.60259
▁course	-9.60302
▁강조했다	-9.60304
20	-9.60324
▁friends	-9.60405
E	-9.60427
▁해당하는	-9.60437
▁변경	-9.60449
▁understand	-9.60481
▁성장	-9.60488
▁유지	-9.605
▁현장	-9.60566
▁사실	-9.6059
▁develop	-9.60633
▁제공	-9.60649
▁created	-9.60757
평	-9.6081
▁보호	-9.60817
▁officer	-9.60829
ha	-9.60901
▁groups	-9.61026
▁이는	-9.61055
f	-9.61061
▁이야기	-9.61089
▁Some	-9.61092
더	-9.61117
▁러시아	-9.61183
▁되고	-9.6126
백	-9.61276
예	-9.61277
▁여행	-9.61283
▁points	-9.61314
살	-9.61315
▁진	-9.61317
하던	-9.61379
▁cities	-9.6138
▁하루	-9.61386
▁Management	-9.61429
▁고용	-9.61439
▁controversy	-9.61465
▁현지	-9.61479
▁opinions	-9.61488
po	-9.61492
▁시행	-9.61506
기도	-9.61531
외	-9.6156
▁이러한	-9.61586
ma	-9.61614
▁남북	-9.61671
▁complex	-9.61687
▁최고	-9.61727
▁Department	-9.61794
▁두고	-9.61814
▁active	-9.61915
▁Song	-9.61962
en	-9.61963
▁공급	-9.62077
woo	-9.62132
▁Gangwon	-9.62144
sized	-9.62146
▁Provided	-9.62159
L	-9.62168
▁hand	-9.62182
▁spread	-9.62212
도록	-9.62213
▁accordance	-9.62439
▁While	-9.6253
져	-9.62557
ar	-9.62568
▁인터넷	-9.62625
음	-9.62703
▁developed	-9.62746
처	-9.62764
▁너	-9.62765
▁나왔다	-9.62768
▁friend	-9.62788
▁prepared	-9.628
▁present	-9.62802
▁Cheong	-9.62834
으면	-9.62844
▁currently	-9.62849
▁death	-9.62871
▁2014	-9.62896
term	-9.6292
▁선정	-9.62947
▁있어서	-9.62962
▁reduce	-9.62969
▁words	-9.62994
▁우	-9.62995
▁강화	-9.63085
▁growing	-9.63191
▁Agency	-9.6321
▁improvement	-9.63382
▁아파트	-9.63458
▁구성	-9.63636
▁yet	-9.63652
▁도내	-9.63861
▁중요한	-9.63887
▁operate	-9.63891
▁만나	-9.63925
▁제작	-9.64057
▁변화	-9.6407
▁hit	-9.64074
▁afternoon	-9.64166
▁것이라는	-9.64231
)’	-9.64251
te	-9.64282
▁70	-9.64294
▁인사	-9.64324
절	-9.64363
▁역할을	-9.64381
▁documents	-9.6439
▁talk	-9.6442
▁500	-9.64509
▁needed	-9.64598
▁items	-9.6461
▁같다	-9.64619
▁status	-9.64665
▁관계	-9.64676
▁최종	-9.64689
▁method	-9.64693
▁makes	-9.64795
▁leading	-9.64801
▁기관	-9.64826
▁try	-9.64885
▁Trade	-9.64902
▁opinion	-9.64909
▁인	-9.64928
립	-9.6507
hee	-9.65096
ne	-9.65098
▁equipment	-9.65113
▁opened	-9.65117
버	-9.65156
사가	-9.65172
▁vehicle	-9.65198
▁Yes	-9.65309
▁독일	-9.65334
▁round	-9.6536
▁October	-9.65389
장을	-9.65412
▁점	-9.6544
목	-9.65487
난	-9.65614
▁전문가	-9.65617
▁300	-9.65684
▁sports	-9.65772
▁달리	-9.65809
색	-9.65813
▁rise	-9.65896
씨	-9.6591
▁vice	-9.65932
▁expressed	-9.65944
▁content	-9.65945
들에게	-9.66022
▁online	-9.66073
성이	-9.66077
▁SK	-9.66137
▁알려졌다	-9.66151
▁female	-9.66159
▁reform	-9.66263
▁efforts	-9.66266
ul	-9.6632
순	-9.6634
▁manager	-9.66388
us	-9.66401
▁어려운	-9.6645
▁적용	-9.66526
▁Land	-9.66551
▁핵심	-9.66585
▁Administration	-9.66632
▁record	-9.66714
▁programs	-9.66827
R	-9.66889
▁LG	-9.66903
▁She	-9.66924
▁Wa	-9.66932
▁내일	-9.66978
▁tomorrow	-9.67253
gi	-9.67259
▁submit	-9.67296
▁continued	-9.673
▁photo	-9.67331
▁parties	-9.67357
▁getting	-9.67358
▁regulations	-9.67414
▁브랜드	-9.67471
▁그룹	-9.67539
▁starting	-9.67546
다고	-9.67554
광	-9.6757
▁similar	-9.67658
rs	-9.67749
▁건강	-9.67776
출	-9.67781
▁passed	-9.67932
▁sold	-9.68069
▁사업을	-9.68139
▁Internet	-9.68212
▁clear	-9.68231
gun	-9.68286
▁포	-9.68382
▁single	-9.68441
▁written	-9.68496
워	-9.68576
▁secretary	-9.68586
▁홍보	-9.68628
age	-9.68643
▁lack	-9.6868
▁personnel	-9.68696
▁Mr	-9.68758
▁purchase	-9.68794
든	-9.68855
▁들	-9.68994
▁men	-9.68998
결	-9.69019
▁별지	-9.6908
▁체험	-9.69119
▁대하여	-9.69131
▁저희	-9.69225
▁designated	-9.69226
▁governor	-9.69329
▁Yoo	-9.69338
h	-9.69398
ce	-9.69421
▁lower	-9.69477
▁매년	-9.69478
ju	-9.69513
▁주택	-9.69515
▁pre	-9.69543
▁council	-9.69596
▁shows	-9.69644
▁Gangnam	-9.69673
▁personal	-9.69697
▁제대로	-9.69731
▁happy	-9.6976
마다	-9.69803
▁legal	-9.69814
▁traffic	-9.69854
▁상황에서	-9.69868
▁Prime	-9.69892
▁작업	-9.69899
들과	-9.69974
▁believe	-9.70009
▁모습을	-9.70186
▁light	-9.70201
대로	-9.70224
▁버스	-9.70298
▁staff	-9.70326
▁번째	-9.70337
▁마을	-9.70375
▁Electronics	-9.70377
량	-9.70402
▁음악	-9.70492
▁model	-9.70509
▁점을	-9.70547
▁lives	-9.70564
▁Justice	-9.70592
▁university	-9.7061
▁성공	-9.70628
▁피해	-9.70629
▁trip	-9.70663
▁sorry	-9.70713
곡	-9.70769
▁considered	-9.70845
후	-9.70925
▁요청	-9.70929
▁minimum	-9.70933
▁일정	-9.70958
▁조금	-9.70959
▁Health	-9.7099
▁Yong	-9.70996
▁Na	-9.71082
▁authorities	-9.71105
▁받는	-9.71124
▁Se	-9.71158
▁contents	-9.71178
▁회의	-9.71197
▁August	-9.71247
▁told	-9.71359
▁네가	-9.71375
▁경영	-9.71399
▁list	-9.7156
▁transportation	-9.71662
▁Daegu	-9.71671
▁변	-9.71702
▁대회	-9.71708
▁nuclear	-9.71725
▁찾아	-9.71733
▁가족	-9.71745
co	-9.71834
▁village	-9.71905
▁gave	-9.71965
▁방송	-9.71972
▁lost	-9.72047
▁few	-9.72125
주의	-9.72165
▁natural	-9.72256
▁기준	-9.7233
▁신고	-9.72345
▁인천	-9.72371
▁mother	-9.72373
▁needs	-9.7238
▁further	-9.72389
▁ahead	-9.72421
am	-9.72444
▁division	-9.72466
▁January	-9.72542
▁kind	-9.72545
▁이제	-9.72557
30	-9.72573
▁증가	-9.72628
▁included	-9.72645
▁enter	-9.72698
▁estate	-9.72699
▁국민	-9.72742
▁논의	-9.72805
▁정도로	-9.72806
▁implement	-9.72815
환경	-9.72831
▁daily	-9.72892
▁mobile	-9.72912
▁조직	-9.72988
씨는	-9.72988
yeon	-9.73018
▁station	-9.73057
▁State	-9.73061
▁규제	-9.7311
▁Research	-9.73305
▁language	-9.73312
▁oil	-9.73332
▁Chang	-9.73365
▁inside	-9.73379
▁sexual	-9.73407
▁Hwang	-9.73411
▁several	-9.73437
▁특별	-9.73445
▁crisis	-9.73573
▁First	-9.73584
경제	-9.73686
▁capital	-9.73689
▁온라인	-9.73752
▁built	-9.73769
ry	-9.73928
▁위원	-9.73942
▁주민	-9.7411
▁의원	-9.74226
▁Sun	-9.74241
▁heard	-9.74264
성을	-9.74275
▁외국인	-9.74281
▁appointed	-9.74298
▁일을	-9.74306
▁Hall	-9.74347
▁scene	-9.74373
▁Corporation	-9.74378
▁charges	-9.74398
▁얼마나	-9.74404
▁분석	-9.74504
▁fall	-9.74521
▁주변	-9.74624
la	-9.7464
▁청년	-9.74689
▁가진	-9.74731
▁changes	-9.7476
li	-9.74808
▁갖고	-9.74869
▁One	-9.7494
▁됩니다	-9.74956
▁거쳐	-9.74988
한다는	-9.75006
본	-9.75064
O	-9.75108
▁해결	-9.75129
▁내년	-9.75201
▁individual	-9.75202
▁윤	-9.75205
▁vehicles	-9.75332
락	-9.7534
▁가는	-9.75341
▁성과	-9.75517
50	-9.75593
;	-9.75646
▁Si	-9.75651
▁alone	-9.75766
▁거예요	-9.7579
▁schedule	-9.75793
▁평균	-9.75826
기관	-9.75847
서를	-9.75869
▁중구	-9.7588
▁December	-9.75964
▁regional	-9.7606
▁지방	-9.76072
▁song	-9.76077
▁Chung	-9.7609
▁users	-9.76111
했다는	-9.76196
▁황	-9.76218
▁받았다	-9.76236
less	-9.76286
추	-9.76307
규	-9.76328
▁heat	-9.76339
훈	-9.76351
▁사랑	-9.76465
▁seven	-9.76514
▁transfer	-9.76603
▁영어	-9.76661
▁governments	-9.7677
▁목소리	-9.7681
령	-9.76857
old	-9.76932
▁바랍니다	-9.77052
▁인상	-9.77145
▁애	-9.77315
범	-9.77319
▁금융	-9.77391
▁candidate	-9.77464
료	-9.77505
▁감	-9.77514
▁rice	-9.77518
▁Vice	-9.77527
▁bill	-9.77545
▁2013	-9.7757
▁중소기업	-9.77625
▁시험	-9.77637
▁전시	-9.77656
▁interested	-9.77728
∼	-9.77747
▁parking	-9.77761
▁우리나라	-9.77777
In	-9.77778
▁bad	-9.77812
▁November	-9.77829
▁college	-9.77864
▁credit	-9.77868
달	-9.77874
▁선택	-9.77927
▁건물	-9.77993
▁include	-9.77993
▁치	-9.78006
▁문제를	-9.78065
말	-9.78067
▁contact	-9.78071
변	-9.78134
▁standard	-9.78148
▁있던	-9.78345
▁famous	-9.78424
▁H	-9.78454
▁summer	-9.78519
▁불법	-9.78603
▁광주	-9.78823
▁선수	-9.78825
▁학생	-9.78841
년부터	-9.78864
▁장애인	-9.78918
▁같아	-9.78928
▁operated	-9.78945
▁것이라고	-9.78966
▁공공	-9.78978
▁easily	-9.78992
▁action	-9.79007
▁호	-9.79081
▁드라마	-9.79089
▁상승	-9.79108
▁Culture	-9.79118
▁High	-9.79145
▁예산	-9.79198
mo	-9.7921
denuclearization	-9.79219
▁Labor	-9.79283
▁활용	-9.79297
▁그럼	-9.79325
기가	-9.79329
▁이전	-9.79356
▁적	-9.79388
▁agencies	-9.79467
▁관련해	-9.79494
ling	-9.79562
▁구축	-9.79566
▁이동	-9.79608
▁professional	-9.7962
▁regarding	-9.79719
▁terms	-9.79758
▁burden	-9.79761
▁Development	-9.79799
ization	-9.79835
▁대통령은	-9.79904
▁베트남	-9.79936
▁경험	-9.80011
▁deliberation	-9.80026
▁played	-9.80039
▁receiving	-9.8009
▁건설	-9.80134
▁immediately	-9.80182
▁woman	-9.80186
키	-9.80307
▁금	-9.80344
▁혹시	-9.80388
▁post	-9.80395
▁central	-9.80445
▁questions	-9.80467
정책	-9.80544
▁비해	-9.80577
▁업체	-9.80593
▁자신이	-9.8063
▁win	-9.8069
▁심사	-9.8076
ted	-9.80847
네요	-9.8086
▁forward	-9.80868
▁부분	-9.80925
▁opportunity	-9.80949
▁눈	-9.80973
▁cold	-9.81038
▁예술	-9.81072
▁거야	-9.81113
▁carried	-9.81138
▁picture	-9.81195
▁drama	-9.81216
▁cars	-9.81231
▁institution	-9.81317
▁구조	-9.81322
▁근무	-9.81328
졌다	-9.81358
▁청소년	-9.81388
▁communication	-9.8139
ji	-9.81421
▁부동산	-9.8143
▁apartment	-9.81499
▁대신	-9.81529
▁highest	-9.81722
▁남자	-9.81743
▁approval	-9.81783
이고	-9.818
▁개최	-9.81834
▁비핵화	-9.81874
▁issued	-9.81901
▁participation	-9.81963
▁fund	-9.82012
▁youth	-9.82025
▁대형	-9.82042
▁original	-9.82051
이며	-9.8208
▁property	-9.82114
지를	-9.82125
▁Because	-9.82151
▁driving	-9.82178
품	-9.82258
▁이상의	-9.8227
▁Ma	-9.823
▁bank	-9.82314
▁interview	-9.82337
했으며	-9.82366
▁urban	-9.82368
▁heart	-9.82386
▁관광	-9.82417
me	-9.8247
▁relationship	-9.8255
▁Special	-9.8256
et	-9.82585
에선	-9.82598
▁대상	-9.82671
▁restaurant	-9.82743
학교	-9.82764
▁의견을	-9.82821
▁places	-9.8286
▁팔	-9.82907
덕	-9.82937
▁검토	-9.82949
▁대화	-9.82964
▁professor	-9.83024
▁hot	-9.83044
▁details	-9.83051
be	-9.83059
▁pressure	-9.83069
▁pro	-9.83073
▁excellent	-9.83096
▁Island	-9.83101
▁available	-9.83203
▁patients	-9.83251
자는	-9.83263
▁negotiations	-9.83356
cheon	-9.83395
▁prescribed	-9.83397
▁games	-9.83407
론	-9.83415
▁union	-9.83432
ch	-9.83442
▁공무원	-9.83455
▁디자인	-9.83514
▁fee	-9.83605
▁같아요	-9.83682
▁거래	-9.83729
▁poor	-9.83764
▁여자	-9.8377
▁영상	-9.83865
▁사회적	-9.83867
related	-9.8388
no	-9.83913
합	-9.83962
▁concerning	-9.84005
▁done	-9.84006
▁relations	-9.84018
ki	-9.84039
▁father	-9.8405
▁삼성	-9.84062
▁trying	-9.84063
▁disaster	-9.84135
▁많다	-9.84177
▁Director	-9.8419
▁V	-9.84197
sung	-9.84255
▁Among	-9.84263
V	-9.84286
▁모습이	-9.84408
▁Welfare	-9.84458
▁duties	-9.84459
ate	-9.84474
▁N	-9.84484
구청장	-9.84491
▁기본	-9.84491
까	-9.84492
▁parts	-9.84499
▁아니	-9.84506
▁정부의	-9.84533
▁되어	-9.84538
▁팀	-9.8467
▁Support	-9.84685
▁우려	-9.84719
▁standards	-9.84729
▁consumers	-9.84767
▁God	-9.84778
▁추	-9.84787
▁risk	-9.84797
▁사실을	-9.8482
▁”	-9.84827
▁도로	-9.84894
▁못한	-9.84932
▁전통	-9.85003
▁자체	-9.85009
▁감소	-9.85054
▁submitted	-9.85055
▁조정	-9.85056
▁수립	-9.85057
out	-9.85069
조의	-9.85134
김	-9.85229
▁considering	-9.85238
lo	-9.85282
▁actual	-9.85333
▁등록	-9.85407
▁drawing	-9.85436
여명이	-9.85505
▁February	-9.85531
▁wanted	-9.85536
▁규정에	-9.85618
▁Security	-9.85686
▁대해서는	-9.85703
▁내용을	-9.85805
▁trend	-9.85805
▁사건	-9.85815
▁마련	-9.85909
▁현	-9.85923
▁2012	-9.86002
▁Su	-9.86019
▁전화	-9.86033
봉	-9.86093
▁없습니다	-9.86158
ist	-9.86165
▁민간	-9.86183
▁조선	-9.86217
▁talks	-9.8623
▁그것	-9.86249
▁전망이다	-9.86375
▁coming	-9.86379
▁검찰	-9.86382
▁밤	-9.8639
▁executive	-9.86425
담	-9.86495
ok	-9.8652
▁자리	-9.86529
as	-9.86577
▁quickly	-9.86629
pop	-9.86647
go	-9.86664
▁제출	-9.86679
채	-9.86747
▁정치	-9.86906
▁session	-9.86911
▁꼭	-9.86918
▁프로그램	-9.86937
▁holding	-9.86955
▁필요하다고	-9.86969
▁mind	-9.87024
▁Let	-9.87027
▁learning	-9.87038
ism	-9.87055
▁제도	-9.87156
▁And	-9.87197
x	-9.87214
▁Foundation	-9.87219
▁performances	-9.87219
▁하면	-9.87244
▁경기도는	-9.87323
▁determined	-9.87328
▁takes	-9.87399
▁sense	-9.87421
▁type	-9.8746
릴	-9.87467
▁검사	-9.87467
위를	-9.8748
▁쉽게	-9.87537
▁analysis	-9.87577
▁적극	-9.87586
▁worth	-9.87641
▁시즌	-9.87678
▁법률	-9.8768
>	-9.87802
▁hall	-9.8781
▁결과를	-9.87874
ci	-9.87885
▁commercial	-9.87888
▁Local	-9.87922
ru	-9.88031
▁Day	-9.88054
▁전환	-9.88103
▁certain	-9.88118
▁presidential	-9.88148
▁concert	-9.8818
▁만든	-9.88221
▁비롯해	-9.88226
▁brand	-9.88227
▁impact	-9.883
▁showing	-9.88378
▁지원을	-9.88382
▁board	-9.88441
▁마지막	-9.88499
▁진출	-9.88538
▁운동	-9.88564
▁광고	-9.88657
▁examination	-9.88661
▁주세요	-9.88664
▁learn	-9.88665
▁corporate	-9.88692
▁Won	-9.88773
▁Mi	-9.88828
▁Russia	-9.88895
▁doing	-9.88929
▁수입	-9.88979
하자	-9.88984
▁crime	-9.89003
▁chairperson	-9.89053
▁De	-9.89115
▁stop	-9.89124
▁민	-9.8913
w	-9.89138
▁향후	-9.89145
ta	-9.89225
▁가수	-9.89244
▁base	-9.89249
▁goods	-9.89301
▁reduced	-9.89432
▁교통	-9.89445
▁beautiful	-9.89483
▁Fund	-9.89509
ng	-9.89584
▁내용	-9.89596
북	-9.89617
▁teams	-9.89655
▁질	-9.89672
▁은행	-9.8968
▁예상	-9.89707
▁watch	-9.89713
▁상품	-9.89757
▁나라	-9.89781
▁SNS	-9.89848
▁disease	-9.89857
▁deal	-9.89877
▁유럽	-9.89893
▁미세먼지	-9.89937
▁nation	-9.89964
▁작은	-9.90058
▁좋아	-9.90075
기술	-9.9018
▁작성	-9.90258
ni	-9.90296
브	-9.90325
▁넘	-9.90362
편	-9.90421
▁발생한	-9.90504
▁식	-9.90522
▁implementation	-9.90575
▁structure	-9.90656
울	-9.90701
▁경쟁	-9.90709
▁<	-9.90744
▁도는	-9.90753
▁앞	-9.90805
▁distribution	-9.90806
▁sea	-9.90817
▁정보를	-9.90818
▁공식	-9.90827
날	-9.90851
▁80	-9.90852
시장	-9.90858
항의	-9.90878
▁fell	-9.90893
▁eyes	-9.90949
Pop	-9.90999
▁metropolitan	-9.91006
▁households	-9.91008
▁점검	-9.91016
암	-9.91017
하는데	-9.91034
▁심의	-9.91065
▁보도했다	-9.91177
▁길	-9.91185
▁주장	-9.91196
▁attend	-9.9122
▁Woo	-9.91223
월부터	-9.91268
▁doesn	-9.91283
▁stores	-9.9131
언	-9.91327
▁matter	-9.91353
긴	-9.91362
▁잠	-9.91382
표	-9.91388
▁자유한국당	-9.914
▁적이	-9.91453
▁취소	-9.9148
▁read	-9.91488
▁실제로	-9.91557
▁direct	-9.9158
▁자기	-9.91586
level	-9.91597
▁organized	-9.91599
조사	-9.91632
▁안에	-9.91658
▁Science	-9.91659
▁industries	-9.91683
▁Sa	-9.91811
▁스스로	-9.91848
▁활동을	-9.9185
ti	-9.91874
▁waste	-9.91968
▁saw	-9.91988
▁여기	-9.92043
망	-9.92069
▁앞두고	-9.92106
▁도움이	-9.92107
▁연기	-9.92108
▁있는지	-9.92132
병원	-9.92134
▁중에서	-9.92139
▁취업	-9.9214
▁build	-9.92171
테	-9.92171
ia	-9.92182
▁에너지	-9.92196
ty	-9.92203
▁Technology	-9.92223
▁자연	-9.92243
▁dance	-9.92272
▁청	-9.92368
▁대통령의	-9.92393
▁한다고	-9.9243
▁제품을	-9.92433
했을	-9.92454
▁centers	-9.92461
▁수업	-9.92519
▁true	-9.92529
▁might	-9.92553
▁부담	-9.92659
▁produced	-9.92695
▁이유로	-9.92706
▁followed	-9.92714
▁felt	-9.92789
스트	-9.928
▁document	-9.92884
▁시민	-9.92896
▁위반	-9.92928
▁되	-9.92929
격	-9.92929
▁statement	-9.9294
▁movement	-9.93031
bu	-9.93049
▁series	-9.9305
▁교	-9.93057
▁Oh	-9.93074
▁sanctions	-9.93158
▁혐의로	-9.93178
▁Cup	-9.93188
▁church	-9.93219
너	-9.93222
▁hearing	-9.9323
▁그녀는	-9.93309
개발	-9.93318
▁소개	-9.9336
▁하는데	-9.93363
▁당신	-9.93368
▁신규	-9.93378
▁thing	-9.93397
▁중앙	-9.93417
▁담당	-9.93467
▁required	-9.93514
▁Ki	-9.93521
▁설립	-9.93546
▁agricultural	-9.93573
▁leaders	-9.93587
▁직원	-9.93623
▁loan	-9.93665
▁순	-9.93717
개의	-9.93751
▁concerns	-9.93796
▁규정	-9.9382
인지	-9.93912
▁종합	-9.93932
▁예정	-9.93971
▁population	-9.94004
▁촬영	-9.94039
▁반대	-9.94139
▁영국	-9.94151
경기	-9.94172
현지시간	-9.94207
▁전달	-9.9422
▁raise	-9.94249
▁것에	-9.94261
▁필요하다	-9.94294
▁skin	-9.94345
tic	-9.94364
▁없었다	-9.94412
▁delivery	-9.9448
▁manage	-9.94485
▁제주	-9.94492
▁않다	-9.94495
▁통합	-9.9451
▁항상	-9.94549
▁Go	-9.94593
▁failed	-9.94624
▁Lotte	-9.94679
▁논란이	-9.94699
▁peace	-9.94719
▁caught	-9.94798
▁의미	-9.94798
운영	-9.94828
▁곳이	-9.94829
▁관	-9.94881
▁허	-9.9493
▁구청장이	-9.94932
▁협상	-9.94946
▁아시아	-9.94984
▁어제	-9.95071
▁Transport	-9.95101
di	-9.95116
▁message	-9.95217
▁미래	-9.9525
▁ground	-9.9531
▁minister	-9.9544
▁Defense	-9.95502
▁cut	-9.95547
▁ordered	-9.95622
▁목표	-9.95641
▁wife	-9.95646
▁명이	-9.95678
▁역	-9.95704
▁여전히	-9.95744
▁예방	-9.95744
▁direction	-9.95772
▁콘텐츠	-9.95791
▁Industrial	-9.95856
▁미국의	-9.95873
▁통한	-9.95889
▁동시에	-9.95891
▁이들	-9.95961
▁포함	-9.96053
▁권	-9.96103
했는데	-9.96105
▁son	-9.96191
▁위해서는	-9.96206
▁sites	-9.96214
est	-9.96219
▁종	-9.96236
▁anti	-9.96244
▁launched	-9.96257
myeon	-9.96279
▁공사	-9.96295
▁perform	-9.96323
▁대출	-9.96342
▁victims	-9.96361
▁대한민국	-9.96423
▁common	-9.96432
▁거의	-9.96455
▁release	-9.96463
▁installed	-9.96491
송	-9.96496
▁Business	-9.96502
▁Secretary	-9.96502
▁atmosphere	-9.96502
▁홍	-9.96513
▁scheduled	-9.96537
▁incident	-9.96546
▁difficulties	-9.96616
▁나섰다	-9.96625
투	-9.96627
▁strengthen	-9.96655
▁자료	-9.96694
▁Asia	-9.96698
▁books	-9.96756
▁호텔	-9.9678
▁Is	-9.96797
▁Cultural	-9.96817
▁협의	-9.96821
▁resources	-9.96829
▁대구	-9.96867
▁한류	-9.96994
▁아이	-9.97019
▁moment	-9.9702
▁educational	-9.97053
▁분야	-9.97069
▁People	-9.9708
▁Economic	-9.97086
▁question	-9.97107
▁enterprises	-9.97237
▁스마트폰	-9.97268
▁맞	-9.97277
▁behind	-9.97292
▁회장	-9.97295
▁최저임금	-9.97297
If	-9.97312
▁합의	-9.97391
렸다	-9.97416
▁club	-9.97442
▁whole	-9.97446
팀	-9.97453
▁카	-9.97462
자를	-9.97468
▁benefits	-9.9748
seok	-9.97515
▁entrance	-9.9754
▁대응	-9.97554
▁가능하다	-9.97641
▁토	-9.97647
▁hands	-9.97731
ent	-9.9775
▁Yu	-9.9787
▁서비스를	-9.97905
▁temperature	-9.97907
▁rest	-9.97934
▁결제	-9.97937
▁삼성전자	-9.97951
▁Ho	-9.97969
충	-9.97981
▁grow	-9.98062
으로부터	-9.9815
▁시도	-9.98154
▁의원이	-9.98209
▁color	-9.98232
하기도	-9.98389
▁중단	-9.98408
▁나의	-9.98425
▁제한	-9.98444
▁markets	-9.98491
▁reality	-9.98543
▁한반도	-9.98593
▁상태	-9.98606
▁below	-9.98617
▁창업	-9.98652
▁선거	-9.98705
▁국	-9.9871
▁fourth	-9.98763
ad	-9.98764
▁reduction	-9.98789
▁tried	-9.98811
원이	-9.98836
▁고객	-9.98883
취	-9.9889
▁극	-9.98903
았다	-9.98919
기에	-9.98925
ated	-9.98962
▁수가	-9.98994
지고	-9.99063
▁Son	-9.99065
▁Safety	-9.99141
▁돼	-9.99157
▁위원장은	-9.99165
▁왕	-9.99173
애	-9.99216
▁개정	-9.99223
▁돌	-9.99234
▁AI	-9.99274
▁writing	-9.99279
▁해서	-9.99288
▁그래서	-9.99307
자의	-9.99344
▁우수	-9.9939
▁view	-9.99416
▁참	-9.99489
▁화재	-9.99532
▁elderly	-9.99555
▁participating	-9.99596
local	-9.99619
▁anniversary	-9.99622
ant	-9.99671
▁현대	-9.99691
▁비롯한	-9.99696
지도	-9.99734
▁falling	-9.99931
정보	-10.0001
▁instead	-10.0005
숙	-10.0012
▁인근	-10.0015
▁맞아	-10.0017
▁감독	-10.0018
탄	-10.0022
▁protection	-10.0023
7%	-10.0024
▁weather	-10.0031
ter	-10.0032
▁의원은	-10.0033
한다고	-10.0034
▁내부	-10.0048
▁보다	-10.0052
▁귀	-10.0055
▁entire	-10.0057
극	-10.0058
yong	-10.006
▁영업	-10.006
▁progress	-10.0061
▁headquarters	-10.0061
▁positive	-10.0062
▁Promotion	-10.0064
▁shopping	-10.0064
▁기업이	-10.0067
▁itself	-10.0069
z	-10.007
▁export	-10.0073
이지만	-10.0077
▁taste	-10.0078
▁accounting	-10.0081
공사	-10.009
▁condition	-10.0092
▁인한	-10.0096
과의	-10.0103
▁평	-10.0105
▁싶습니다	-10.0106
▁얘기	-10.0107
▁evidence	-10.0108
deemed	-10.0111
▁annual	-10.0119
▁예약	-10.0123
▁Vietnam	-10.0124
▁외부	-10.0126
▁commissioned	-10.0131
▁raising	-10.0133
▁혁신	-10.0135
▁image	-10.0143
▁원하는	-10.0143
▁결국	-10.0145
▁암	-10.0145
▁한번	-10.0146
▁참석한	-10.0147
▁died	-10.015
▁entered	-10.0152
0,000	-10.0161
▁introduce	-10.0162
▁Many	-10.0163
▁generation	-10.0164
▁bring	-10.0169
▁이것은	-10.017
런	-10.0171
▁filed	-10.0173
독	-10.0177
▁추천	-10.0177
▁sure	-10.0178
▁Ahn	-10.018
▁보는	-10.0181
▁requested	-10.0184
▁earlier	-10.0185
▁character	-10.0186
▁예산의	-10.0193
▁appeared	-10.0193
▁mid	-10.0195
▁복지	-10.02
▁공장	-10.0201
▁실시	-10.0204
▁participants	-10.0205
▁사람은	-10.0214
▁occurred	-10.0214
나요	-10.0215
▁focus	-10.0215
플	-10.0219
▁요	-10.0228
▁specific	-10.0232
0	-10.0236
▁지원할	-10.0245
▁duty	-10.0245
ke	-10.0245
▁winter	-10.0246
▁skills	-10.0246
▁Air	-10.025
하지만	-10.0255
▁unique	-10.0258
▁말을	-10.0258
▁accidents	-10.0261
▁선발	-10.0264
▁지적	-10.0265
ol	-10.027
▁인도	-10.0271
▁highly	-10.0273
▁safe	-10.0277
▁부과	-10.0281
▁코	-10.0281
안전	-10.0286
▁의한	-10.0288
▁제재	-10.0289
▁반영	-10.0291
▁목	-10.0291
id	-10.0295
▁열리는	-10.0303
seong	-10.0307
▁environmental	-10.0307
▁상담	-10.0307
▁theme	-10.0308
대회	-10.0311
▁wrong	-10.0313
!	-10.0323
▁직	-10.0328
년에	-10.033
▁상황이	-10.033
▁stay	-10.0332
▁user	-10.0334
▁채용	-10.0336
▁알려	-10.0345
▁표현	-10.0347
▁Kong	-10.0353
▁universities	-10.0355
▁이해	-10.0356
▁rain	-10.0356
▁책	-10.0364
▁병	-10.0364
▁타고	-10.037
돌	-10.0371
▁player	-10.0372
▁network	-10.0373
▁beginning	-10.0374
▁언론	-10.0376
▁기획	-10.0383
▁launch	-10.0385
별로	-10.0387
볼	-10.0387
▁요구	-10.0387
▁Central	-10.0389
ies	-10.0391
▁Donald	-10.04
per	-10.0404
▁만들	-10.0405
▁plant	-10.0407
▁넘는	-10.041
▁그렇게	-10.0413
▁Germany	-10.0415
▁eight	-10.0416
▁houses	-10.0416
도시	-10.0423
▁넘어	-10.0425
▁yesterday	-10.0426
mm	-10.0429
▁Industry	-10.0437
▁인구	-10.0438
hwan	-10.0438
▁재정	-10.0438
▁특별한	-10.0439
▁Foreign	-10.0442
▁website	-10.0442
업체	-10.0445
▁이하	-10.0445
▁secure	-10.0446
니다	-10.0456
▁stressed	-10.0457
▁어린이	-10.0462
▁ex	-10.0462
pa	-10.0466
▁hotel	-10.0469
▁solve	-10.0471
▁comes	-10.0471
▁낮	-10.0472
▁involved	-10.0473
▁Blue	-10.048
▁이들이	-10.0484
scale	-10.049
▁All	-10.0493
▁Bo	-10.0502
▁지적했다	-10.0503
▁Year	-10.0504
▁내용이	-10.0505
▁사이	-10.0511
▁chance	-10.0525
▁프랑스	-10.0527
▁collection	-10.0534
is	-10.0545
▁도널드	-10.0547
▁자주	-10.0547
▁남성	-10.0548
X	-10.055
▁Chief	-10.0553
▁주는	-10.0558
▁quarter	-10.0566
친	-10.0568
▁anything	-10.0568
▁owner	-10.0575
▁rates	-10.0577
um	-10.0583
▁expansion	-10.0584
▁ball	-10.0587
하고자	-10.0591
▁사진을	-10.0592
▁도움	-10.0594
▁across	-10.0595
▁degrees	-10.0598
▁아동	-10.0599
led	-10.0603
▁이유는	-10.0606
이라며	-10.0607
▁수행	-10.0612
왕	-10.0613
▁없다는	-10.0615
▁step	-10.0616
▁명의	-10.0623
▁집에	-10.0628
▁hour	-10.0636
▁유통	-10.0637
▁제안	-10.0637
▁Lim	-10.0642
ja	-10.0643
▁visitors	-10.0645
▁2009	-10.0647
▁ways	-10.0652
▁red	-10.0652
▁Infrastructure	-10.0652
▁train	-10.0655
▁사람들	-10.0655
▁agreed	-10.0658
▁아래	-10.0659
▁speed	-10.066
▁하기	-10.0661
ver	-10.0664
▁example	-10.0666
▁$	-10.0668
▁비판	-10.0669
▁아주	-10.067
되며	-10.0674
▁intends	-10.0675
▁conflict	-10.0677
▁loans	-10.068
hwa	-10.069
▁internal	-10.0691
▁보수	-10.07
▁수밖에	-10.0705
▁김정은	-10.0709
▁creating	-10.0712
▁사전	-10.0712
▁범위에서	-10.0712
▁육성	-10.0715
▁발견	-10.0716
▁worked	-10.0722
▁상황	-10.0722
▁holiday	-10.0724
▁해도	-10.073
▁나서	-10.0731
▁visiting	-10.0733
▁variety	-10.0734
축	-10.0739
▁카드	-10.0739
▁달러	-10.0744
향	-10.0745
▁빨리	-10.0748
▁위원장이	-10.0752
▁창출	-10.0754
▁의료	-10.0755
권을	-10.0758
bi	-10.076
▁판단	-10.0763
▁tourism	-10.0765
▁violence	-10.0772
▁heavy	-10.0778
▁W	-10.0779
▁American	-10.0781
▁축구	-10.0785
▁주로	-10.0793
평가	-10.0795
▁gas	-10.0796
ir	-10.0811
▁Finance	-10.0814
▁reasons	-10.0814
▁크다	-10.0818
▁저녁	-10.082
▁지속	-10.0824
▁address	-10.0828
▁축제	-10.0828
▁usually	-10.0829
’(	-10.0832
커	-10.0838
▁조치	-10.0842
▁sale	-10.0845
ex	-10.0855
▁때는	-10.0858
▁pass	-10.0859
ang	-10.0859
▁학생들이	-10.086
▁posted	-10.0863
ized	-10.0876
사를	-10.088
▁별	-10.088
▁보여	-10.0887
▁clean	-10.0887
▁reading	-10.0889
▁General	-10.0893
찬	-10.0894
▁basis	-10.0894
▁좋아하는	-10.0904
갈	-10.0906
▁f	-10.0906
▁더불어민주당	-10.0908
▁안내	-10.0908
▁act	-10.0908
익	-10.0913
▁없을	-10.0913
▁같습니다	-10.0913
▁현실	-10.0924
주는	-10.0926
▁difference	-10.0927
▁비용	-10.0928
▁월	-10.094
▁우려가	-10.0943
▁이번에	-10.0945
율	-10.0946
▁investigating	-10.0947
▁complete	-10.0949
ong	-10.0953
▁ability	-10.0954
▁중에	-10.0955
▁implemented	-10.0956
▁green	-10.0959
▁follow	-10.0962
▁authority	-10.0964
▁t	-10.0967
▁defense	-10.0968
▁1,000	-10.0972
▁dream	-10.0973
▁자신	-10.098
▁역사	-10.0982
▁teacher	-10.0985
▁ensure	-10.0989
계획	-10.1
▁popularity	-10.1003
▁입장을	-10.1014
▁delivered	-10.1014
▁turned	-10.1016
▁따로	-10.1018
링	-10.1026
▁protect	-10.1029
줄	-10.103
▁dis	-10.1031
▁properly	-10.1037
way	-10.1037
▁teachers	-10.1037
▁warrant	-10.104
▁York	-10.104
▁지도	-10.1044
▁East	-10.1044
▁주장했다	-10.1049
▁사실이	-10.1054
▁2010	-10.1063
11	-10.1066
▁친	-10.1068
▁proposed	-10.1069
▁천	-10.1069
▁관련된	-10.1073
▁Professor	-10.1073
곳	-10.1075
▁announcement	-10.1076
▁tourists	-10.1077
▁전망	-10.108
▁sound	-10.1081
▁Food	-10.1084
▁설	-10.1088
▁학습	-10.1088
됩니다	-10.1089
▁disabled	-10.109
▁fast	-10.109
수가	-10.1091
▁조례는	-10.1092
▁연락	-10.1095
분기	-10.1101
▁절	-10.1101
▁coach	-10.1102
▁force	-10.1102
▁소재	-10.1103
▁J	-10.1108
함을	-10.1118
▁intention	-10.1118
ak	-10.112
▁branch	-10.112
▁Suwon	-10.112
▁공유	-10.112
다면	-10.1122
▁돈을	-10.1128
▁arrest	-10.1128
로서	-10.1138
습	-10.114
▁turn	-10.1141
▁serious	-10.1142
▁couldn	-10.1145
▁limited	-10.115
▁마무리	-10.1153
▁점에서	-10.1158
막	-10.1161
▁convenience	-10.1162
▁35	-10.1163
▁prevention	-10.1164
▁가정	-10.1171
▁통	-10.1173
hoon	-10.1177
대가	-10.1177
▁시절	-10.1178
▁머리	-10.1181
▁airport	-10.1182
▁profit	-10.1184
▁확산	-10.1187
풍	-10.12
▁street	-10.1203
▁During	-10.1211
▁소비	-10.1217
25	-10.1219
책	-10.1222
▁병원	-10.1226
▁시스템	-10.123
▁Decree	-10.1231
▁나와	-10.1233
▁creation	-10.1233
▁toward	-10.1236
▁corporation	-10.1239
▁2020	-10.1243
▁정상	-10.1243
보다는	-10.1246
▁career	-10.125
▁compensation	-10.1251
▁치료	-10.1256
▁우리의	-10.1257
▁처음으로	-10.1257
▁L	-10.1259
▁2011	-10.126
▁경찰이	-10.1262
40	-10.1264
▁불구하고	-10.1265
▁elementary	-10.1265
손	-10.1269
대학교	-10.1279
협회	-10.1282
▁있으면	-10.1284
▁원인	-10.1285
점을	-10.1287
▁voice	-10.1288
기간	-10.129
▁daughter	-10.1291
▁broadcast	-10.1301
▁의해	-10.1304
▁hair	-10.1306
▁청구	-10.1308
▁많아	-10.1318
▁범죄	-10.1319
▁Eun	-10.1321
이자	-10.1323
▁fair	-10.1323
ating	-10.1332
회의	-10.1333
균	-10.1335
▁King	-10.1336
▁customer	-10.1336
▁success	-10.1339
▁effects	-10.1339
▁하락	-10.1346
12	-10.1346
▁메	-10.1349
▁통과	-10.1359
▁forest	-10.1362
▁한국에서	-10.137
▁blood	-10.1372
▁서울시	-10.1374
▁Be	-10.1376
▁한국어	-10.1379
▁discuss	-10.1386
하려는	-10.1388
운동	-10.139
▁결혼	-10.1395
▁것과	-10.1396
▁보장	-10.1398
▁담	-10.1402
▁너는	-10.1405
▁criticized	-10.1406
▁출신	-10.1406
▁하나에	-10.1408
▁innovation	-10.1411
▁요즘	-10.1413
쳐	-10.1414
▁material	-10.1424
▁Life	-10.1428
one	-10.1431
▁않도록	-10.1434
▁comprehensive	-10.1435
▁candidates	-10.1442
▁search	-10.1443
자로	-10.1445
▁소통	-10.1447
▁차례	-10.1447
▁newly	-10.145
서비스	-10.145
▁민주당	-10.1456
겠습니다	-10.1456
▁predicted	-10.1458
▁예상된다	-10.1459
▁완화	-10.1465
jo	-10.1465
▁숨	-10.1469
▁Peninsula	-10.1469
▁몸	-10.1469
▁award	-10.1474
▁arrested	-10.1475
▁break	-10.1475
▁연장	-10.1476
▁맞는	-10.148
▁나온	-10.1481
▁가구	-10.1486
▁giving	-10.1487
▁pain	-10.1489
인이	-10.1496
▁criticism	-10.1499
▁Koreans	-10.1501
사회	-10.1503
▁someone	-10.1507
▁foundation	-10.151
▁nature	-10.1511
은행	-10.1515
▁(2)	-10.1517
세요	-10.1524
▁인식	-10.1529
▁c	-10.1531
▁reports	-10.1531
▁era	-10.1534
▁않습니다	-10.1535
▁교회	-10.1536
▁밖에	-10.1537
▁campaign	-10.1543
▁준	-10.1544
거리	-10.1546
▁paper	-10.1552
friendly	-10.1553
▁아니다	-10.1559
▁미리	-10.156
▁section	-10.1561
▁풍	-10.1562
▁appointment	-10.1564
▁발표한	-10.1567
▁Market	-10.157
▁responsibility	-10.1573
▁proposal	-10.1579
▁moved	-10.1581
▁수도권	-10.1586
▁Sports	-10.1589
▁IT	-10.1592
▁포함한	-10.1593
jeong	-10.1594
▁audience	-10.1594
▁특정	-10.1595
▁banks	-10.1608
회사	-10.1609
▁simple	-10.1609
▁expect	-10.1612
▁providing	-10.1612
▁엄마	-10.1618
▁loss	-10.1624
례	-10.1625
▁아무	-10.1627
▁생	-10.1634
▁warm	-10.1635
▁sell	-10.1638
▁signed	-10.1641
▁교수	-10.1643
▁fun	-10.1644
▁방안을	-10.1658
▁의사	-10.1662
▁장관	-10.1663
패	-10.1663
▁부족	-10.1665
▁Cha	-10.1668
션	-10.1669
▁reached	-10.167
▁physical	-10.1673
▁단지	-10.1681
▁Why	-10.1682
▁위치	-10.1686
▁접수	-10.1687
▁KT	-10.1687
▁참가	-10.1689
▁determine	-10.1689
와의	-10.1689
nam	-10.169
▁allow	-10.1691
▁효과가	-10.1693
골	-10.1694
8%	-10.1694
▁그것은	-10.1695
▁작품	-10.1698
▁sign	-10.17
con	-10.1701
▁War	-10.1705
▁returned	-10.1709
대상	-10.1711
▁black	-10.1715
▁consideration	-10.1721
▁maintain	-10.1722
▁어려움	-10.1723
▁River	-10.1723
▁의견	-10.1726
▁그대로	-10.1729
탈	-10.173
▁완료	-10.1732
▁access	-10.1735
▁못하고	-10.1737
▁기회를	-10.1738
▁recognized	-10.1742
▁유명	-10.1744
▁mentioned	-10.1746
메	-10.1747
▁되었다	-10.1752
▁싶은	-10.1753
and	-10.1756
필	-10.1759
day	-10.176
▁피부	-10.1761
▁뿐	-10.1764
▁Chairperson	-10.1765
▁especially	-10.1765
▁gathered	-10.1767
▁overall	-10.1771
▁science	-10.1772
라도	-10.1782
▁한국에	-10.1782
▁출시	-10.1783
▁manufacturing	-10.1787
▁wish	-10.1787
▁아버지	-10.1789
▁소비자	-10.1792
▁screen	-10.1792
▁carry	-10.1795
▁Kwon	-10.1797
13	-10.1799
▁influence	-10.1802
▁중이다	-10.1803
4%	-10.1806
▁할인	-10.1812
▁새로	-10.1813
씩	-10.1816
▁Jo	-10.1819
hi	-10.1822
▁unit	-10.1823
▁않는다	-10.1824
▁사는	-10.1825
▁Ra	-10.1832
▁상대로	-10.1832
활동	-10.1837
ful	-10.1837
▁대표가	-10.184
▁actually	-10.1842
▁동의	-10.1846
▁becoming	-10.1848
▁향	-10.1848
함	-10.1854
based	-10.187
▁Enforcement	-10.1873
▁bit	-10.1876
▁says	-10.1877
으로서	-10.1878
▁특	-10.1882
Y	-10.1885
▁recommended	-10.1885
▁Hee	-10.1886
▁만드는	-10.1888
▁tour	-10.1889
비를	-10.1897
▁강원도	-10.1903
▁buildings	-10.1906
▁themselves	-10.1906
line	-10.1909
▁classes	-10.1911
▁사무	-10.1913
▁wait	-10.1914
▁By	-10.1918
▁household	-10.192
▁owners	-10.1922
▁되면	-10.1922
▁driver	-10.1922
▁Daejeon	-10.1923
▁responsible	-10.1924
▁승리	-10.1927
op	-10.1932
▁preparing	-10.1943
▁싶어	-10.1944
▁park	-10.1949
▁상황을	-10.195
▁그들은	-10.1957
▁practice	-10.1964
▁위탁	-10.1966
▁태	-10.1967
▁registration	-10.1968
▁shown	-10.1969
▁white	-10.1969
▁환자	-10.197
▁Women	-10.1977
▁function	-10.1978
▁관계자	-10.1979
▁자금	-10.1991
▁지역의	-10.1995
▁대규모	-10.1996
▁ever	-10.1997
빈	-10.1997
▁answer	-10.1998
▁deputy	-10.1999
▁except	-10.2006
▁인정	-10.2008
▁고려	-10.2009
▁Complex	-10.2011
▁높다	-10.2013
▁Federation	-10.2017
▁idea	-10.202
▁훈련	-10.2022
▁relatively	-10.2024
▁clothes	-10.2027
▁limit	-10.2028
▁덧붙였다	-10.2033
▁Ro	-10.2042
▁기억	-10.2044
24	-10.2045
▁가입	-10.2047
▁공부	-10.2048
▁도착	-10.2052
▁significant	-10.2053
▁consultation	-10.2056
▁file	-10.2059
▁지지	-10.2059
되기	-10.2062
▁보도	-10.2065
15	-10.2065
▁회	-10.2066
▁Union	-10.2066
▁회복	-10.2071
com	-10.2073
▁이야기를	-10.2073
▁biggest	-10.2074
▁vacation	-10.2077
▁접	-10.2079
움	-10.208
▁책임	-10.2081
▁직무	-10.2082
▁Po	-10.2087
▁모여	-10.2089
▁resolution	-10.2089
▁걱정	-10.2092
▁abroad	-10.2092
▁여기에	-10.2095
▁contest	-10.2096
▁ratio	-10.2102
▁쓰	-10.2105
▁언제	-10.211
▁상대	-10.2113
ance	-10.2114
▁정상회담	-10.2115
▁prize	-10.2116
▁exercise	-10.2119
sik	-10.2122
주택	-10.2123
tae	-10.2133
▁사용자	-10.2135
ine	-10.2144
그룹	-10.2145
▁업계	-10.2146
▁nearby	-10.2146
도로	-10.2147
▁suspected	-10.2151
록	-10.2151
han	-10.2157
▁records	-10.216
▁artists	-10.2168
▁연결	-10.2172
▁행복	-10.2173
▁Are	-10.2175
기는	-10.2183
J	-10.2183
▁taxi	-10.2184
액	-10.2185
▁These	-10.2185
▁전자	-10.2186
▁교체	-10.2188
▁노동	-10.2194
상을	-10.2196
▁letter	-10.22
▁pm	-10.2203
▁지적이	-10.221
▁2000	-10.2217
▁electric	-10.2227
There	-10.2228
▁150	-10.2229
▁registered	-10.223
▁location	-10.2231
▁복	-10.2232
▁반도체	-10.2234
▁Seong	-10.2241
▁광	-10.2241
▁investors	-10.2243
▁감독이	-10.2246
▁점이	-10.2246
총	-10.2246
▁피해자	-10.2252
▁himself	-10.2254
▁running	-10.2267
▁90	-10.2274
▁wave	-10.2274
▁separate	-10.2274
▁최선	-10.2278
퍼	-10.2281
▁target	-10.2281
발전	-10.229
16	-10.2293
▁싶어요	-10.2295
▁위치한	-10.2311
▁expectations	-10.2314
▁notify	-10.2316
▁되지	-10.2317
▁Baek	-10.2321
▁플랫폼	-10.2322
▁인간	-10.2323
▁있었던	-10.2328
▁놓고	-10.233
▁Project	-10.2334
▁대표는	-10.2335
▁huge	-10.234
▁기념	-10.2341
▁정부는	-10.2351
▁둘	-10.2353
▁공격	-10.2356
▁strategy	-10.2359
▁allowed	-10.2361
▁select	-10.2363
▁Joseon	-10.2364
▁소득	-10.2365
조원	-10.2371
▁운영하는	-10.2376
▁trust	-10.2377
▁막	-10.2378
▁multi	-10.2378
▁connection	-10.238
공원	-10.238
▁늘	-10.2385
▁죽	-10.2386
▁순간	-10.2386
▁보니	-10.2388
▁업무를	-10.2395
▁프로젝트	-10.2397
▁사실상	-10.2399
▁adding	-10.2403
▁Sam	-10.2404
▁everyone	-10.2406
▁전기	-10.2407
뿐	-10.2409
▁맞춰	-10.2411
▁팬들	-10.2414
투자	-10.2414
▁모델	-10.2416
▁힘을	-10.2417
▁(1),	-10.2424
▁Art	-10.2424
▁라	-10.2425
ous	-10.2428
▁table	-10.2434
▁appearance	-10.2437
▁selling	-10.2443
▁낮은	-10.2445
▁successful	-10.2446
▁지금까지	-10.2458
▁위해서	-10.246
▁레	-10.2462
함으로써	-10.2463
jung	-10.2473
▁당신에게	-10.2476
▁Airport	-10.2476
▁closed	-10.2479
▁includes	-10.2481
▁sharing	-10.2482
▁보이는	-10.2486
▁사항은	-10.2487
▁것이에요	-10.2489
▁연속	-10.2492
▁잘못	-10.2493
▁조치를	-10.2496
▁벌	-10.2496
▁고민	-10.2502
▁analyzed	-10.2505
▁respectively	-10.2506
▁만약	-10.2514
▁entrusted	-10.2517
▁Deputy	-10.2518
염	-10.2523
▁gap	-10.2526
2%	-10.2528
▁석	-10.2529
▁prescribe	-10.2532
▁nothing	-10.2542
▁From	-10.2544
한국	-10.2545
▁choice	-10.2548
▁expanding	-10.2552
츠	-10.2553
죠	-10.2555
▁롯데	-10.2556
▁북미	-10.2557
im	-10.2559
협의회	-10.2559
하겠다는	-10.256
▁Hye	-10.2565
스타	-10.2566
3%	-10.2568
▁정확한	-10.2569
land	-10.2569
자들이	-10.2569
촌	-10.257
▁노래	-10.257
▁Man	-10.257
▁평화	-10.2571
▁zone	-10.2577
▁jurisdiction	-10.2578
▁entertainment	-10.2578
▁Gyeongsang	-10.2581
▁오히려	-10.2581
▁밀	-10.2584
▁창	-10.2584
▁planned	-10.2585
▁goes	-10.2592
▁meaning	-10.26
▁Ja	-10.2602
▁위원은	-10.2602
▁배출	-10.2603
▁fully	-10.2606
▁characteristics	-10.2608
▁European	-10.2609
▁금지	-10.2612
▁노인	-10.2615
▁설계	-10.2617
▁northern	-10.2624
▁platform	-10.2626
▁경찰에	-10.2627
ster	-10.2633
▁버	-10.264
▁farmers	-10.2641
▁Mo	-10.2645
▁consider	-10.2651
하세요	-10.2663
▁hosted	-10.2664
주년	-10.2667
bo	-10.267
▁건축	-10.2675
▁나에게	-10.2677
▁revision	-10.2677
▁거리	-10.2681
▁Un	-10.2682
▁waiting	-10.2687
대표	-10.269
▁elections	-10.2691
▁reach	-10.2692
▁지나	-10.2695
▁agenda	-10.2697
▁젊은	-10.2701
▁가격이	-10.2708
새	-10.2709
▁강한	-10.2711
▁운영에	-10.2713
▁coffee	-10.2713
씨의	-10.2714
▁joined	-10.2715
ee	-10.2718
▁찾는	-10.2734
▁직업	-10.2735
▁Ko	-10.2738
▁허가	-10.2742
▁playing	-10.2744
▁꽃	-10.2745
력이	-10.2748
력을	-10.2749
▁winning	-10.2749
ence	-10.2752
00	-10.2763
▁join	-10.2769
▁Europe	-10.2772
▁아침	-10.2776
▁actor	-10.2778
▁recorded	-10.2778
▁사용할	-10.2781
▁택시	-10.2785
▁watching	-10.2788
▁Singapore	-10.2791
▁introduction	-10.2791
견	-10.2798
니까	-10.2804
▁교류	-10.2805
▁receipt	-10.2807
▁published	-10.2811
▁moving	-10.2811
▁검찰은	-10.2817
▁문제는	-10.2818
head	-10.282
처리	-10.282
▁reportedly	-10.282
▁수정	-10.2824
▁확보	-10.2825
▁older	-10.2828
▁bought	-10.2831
ga	-10.2835
son	-10.2838
▁홍콩	-10.2841
찰	-10.2849
▁ship	-10.2851
▁hear	-10.2857
가지	-10.2858
ge	-10.2861
▁cancer	-10.2862
었습니다	-10.2862
▁certificate	-10.2863
▁lawmakers	-10.2864
윤	-10.2865
악	-10.2866
▁수요	-10.2866
▁presented	-10.2867
▁supporting	-10.2867
명으로	-10.2868
▁행	-10.2871
슨	-10.2874
▁infrastructure	-10.2875
▁eye	-10.2877
▁circumstances	-10.2878
▁들어가	-10.2881
▁range	-10.2888
▁criminal	-10.2889
▁결	-10.2894
▁자유	-10.2901
▁골	-10.2903
▁becomes	-10.2904
▁오래	-10.2905
▁참여하는	-10.2905
▁caus	-10.2906
▁전부	-10.2906
▁designed	-10.2909
▁rising	-10.2912
▁생각이	-10.2913
▁Village	-10.2916
▁wind	-10.2918
▁killed	-10.2918
▁investigate	-10.2922
▁이상이	-10.2924
▁답	-10.2925
기로	-10.2925
▁받지	-10.2925
▁규모의	-10.2936
▁Currently	-10.294
▁gift	-10.2945
▁의장	-10.2946
▁했습니다	-10.2947
▁방침이다	-10.2948
▁사람을	-10.2951
▁broke	-10.2957
▁방식으로	-10.2957
▁법인	-10.296
▁resident	-10.296
▁Social	-10.296
▁장소	-10.2964
▁긴급	-10.2965
▁separately	-10.2972
▁최초로	-10.2975
▁나도	-10.2976
▁왔다	-10.2977
▁배송	-10.2978
18	-10.2981
▁Wave	-10.2983
▁키	-10.2986
▁expanded	-10.2986
▁장비	-10.299
▁selection	-10.2992
▁regions	-10.2995
▁songs	-10.2995
▁임명	-10.2996
▁recommend	-10.2996
▁Thank	-10.3002
▁rental	-10.3007
▁Church	-10.3008
▁말씀	-10.3009
▁전혀	-10.3009
금융	-10.3011
▁경남	-10.3012
hye	-10.3019
▁score	-10.3025
▁Byung	-10.3026
▁improved	-10.3027
▁표	-10.3027
대학	-10.3034
▁victim	-10.3035
▁wide	-10.3035
▁등은	-10.3036
▁매일	-10.3037
▁운행	-10.3039
▁CCTV	-10.3045
▁dollars	-10.3048
▁notice	-10.305
▁healthy	-10.305
▁external	-10.3053
▁위험	-10.3055
▁box	-10.3057
족	-10.3058
▁exports	-10.3059
▁Hospital	-10.306
▁앞에서	-10.3062
년까지	-10.3064
▁북한이	-10.3066
▁screening	-10.3081
▁낸	-10.3084
▁drop	-10.3087
▁희망	-10.3098
side	-10.3098
▁쉽지	-10.3099
▁promoting	-10.3101
▁답변	-10.3105
▁claimed	-10.3109
시는	-10.3111
▁사례	-10.3111
▁피해를	-10.3113
하겠습니다	-10.3117
▁건가요	-10.312
▁나오는	-10.3122
▁확정	-10.3124
▁곧	-10.3127
▁viewers	-10.3128
월에	-10.3129
▁매장	-10.3129
▁임금	-10.313
▁보였다	-10.313
▁provides	-10.313
▁얼마	-10.3132
▁회원	-10.3137
▁붙	-10.3137
▁Jeon	-10.3138
ba	-10.3139
▁eligible	-10.314
▁everything	-10.3143
▁competitiveness	-10.3143
▁풀	-10.3149
▁사장	-10.3152
벌	-10.3157
년대	-10.3159
▁Ju	-10.316
▁superintendent	-10.3162
보험	-10.3168
▁above	-10.3171
▁counseling	-10.3174
▁스포츠	-10.3178
▁열심히	-10.3181
▁2008	-10.3193
▁thinking	-10.3195
▁위원회의	-10.3195
▁measure	-10.3196
지가	-10.3197
▁사용하는	-10.3197
▁도전	-10.32
▁brother	-10.32
있는	-10.3203
버스	-10.3206
▁대만	-10.3212
▁advanced	-10.3216
▁longer	-10.3217
▁보안	-10.3219
▁improving	-10.322
▁provisions	-10.3222
▁제기	-10.3222
▁본다	-10.3223
▁formed	-10.3224
▁기회가	-10.3224
▁셈이	-10.3225
다가	-10.3228
▁위촉	-10.3229
▁동물	-10.3232
▁제일	-10.324
▁suffering	-10.3242
▁논란	-10.3243
▁보기	-10.3245
▁여부를	-10.3247
▁공공기관	-10.3251
▁word	-10.3252
▁almost	-10.3255
▁바란다	-10.3259
님	-10.3261
▁겁니다	-10.3262
▁gender	-10.3262
▁눈에	-10.3263
sun	-10.3264
▁담긴	-10.3266
▁Yeong	-10.3269
▁내려	-10.3269
▁Tourism	-10.328
pe	-10.3289
17	-10.3291
▁하여야	-10.3292
▁depending	-10.3296
0%	-10.3298
▁후에	-10.3301
▁이와	-10.3305
▁focused	-10.3309
▁looks	-10.3309
▁대통령과	-10.3309
▁supported	-10.331
▁pension	-10.331
▁0	-10.3311
▁served	-10.3311
▁assets	-10.3311
▁없다고	-10.3317
▁겸	-10.3318
▁maintenance	-10.3319
▁elected	-10.3319
만명	-10.3319
▁collected	-10.332
▁바탕으로	-10.3321
올	-10.3325
▁못했다	-10.3326
식을	-10.3327
▁탈	-10.333
19	-10.3332
▁husband	-10.3333
대를	-10.3336
▁Me	-10.3336
▁범위	-10.3338
▁글	-10.334
▁실무	-10.334
▁employee	-10.3342
▁이란	-10.3342
▁sleep	-10.3346
▁철	-10.3346
▁judge	-10.3346
▁lecture	-10.3347
▁적극적으로	-10.335
▁가능	-10.3354
▁마음을	-10.3356
▁knowledge	-10.3358
▁detailed	-10.3362
▁collect	-10.3363
▁fields	-10.3363
▁Of	-10.3364
▁speech	-10.3365
름	-10.3368
▁참석	-10.3377
▁눈길	-10.3377
ie	-10.338
▁grade	-10.3385
위원	-10.3386
▁주제로	-10.3386
▁appropriate	-10.3388
▁반드시	-10.339
▁있을까요	-10.3392
▁technologies	-10.3394
▁변호사	-10.3394
▁인증	-10.3397
▁정하는	-10.3397
▁although	-10.3397
▁delayed	-10.3397
▁singer	-10.3397
▁Environment	-10.3399
▁블록체인	-10.3403
▁것처럼	-10.3404
▁절차	-10.3404
▁Sejong	-10.3408
▁빠르게	-10.3409
▁못하는	-10.341
ca	-10.341
▁지속적으로	-10.341
▁smart	-10.3411
함에	-10.3411
▁spring	-10.3412
▁beauty	-10.342
▁negative	-10.3421
▁Fair	-10.3423
업무	-10.3423
▁식사	-10.3423
14	-10.3423
▁체결	-10.3425
협	-10.3426
▁con	-10.3428
▁serve	-10.3432
겠다	-10.3439
▁consumer	-10.3443
▁2007	-10.3444
▁술	-10.3446
▁32	-10.3447
▁marketing	-10.3449
▁이들은	-10.3449
site	-10.3451
▁Also	-10.3451
학년	-10.3452
혜	-10.3453
건설	-10.3454
▁농	-10.3455
▁중국의	-10.346
▁factory	-10.3461
▁star	-10.3464
▁한국인	-10.3469
▁birth	-10.3481
▁시장이	-10.3482
관계	-10.3483
▁contribute	-10.3487
▁Ga	-10.349
▁유치	-10.3495
▁types	-10.3497
▁Most	-10.3497
▁meetings	-10.3498
▁strength	-10.35
▁completely	-10.35
제를	-10.3506
▁photos	-10.3506
▁continues	-10.351
▁League	-10.3512
서는	-10.3514
▁딸	-10.3514
▁principle	-10.3516
시에	-10.3519
▁accept	-10.3523
▁자료를	-10.3525
▁단계	-10.3525
▁push	-10.3528
▁cooperate	-10.353
▁effective	-10.3534
▁경험이	-10.3535
▁망	-10.3535
▁cash	-10.3538
▁Regard	-10.354
▁자리를	-10.3545
▁측은	-10.355
▁claim	-10.3551
▁물건	-10.3551
▁soccer	-10.3552
▁데이터	-10.3557
▁forced	-10.3557
▁lawmaker	-10.356
▁10%	-10.356
▁changing	-10.3566
▁패	-10.3567
▁item	-10.357
▁부문	-10.3571
▁급	-10.3573
eun	-10.3576
▁했어요	-10.3586
▁프로그램을	-10.3588
▁mayor	-10.3589
▁despite	-10.3596
▁heads	-10.3599
▁remarks	-10.36
▁prison	-10.3605
▁County	-10.3607
▁seats	-10.3608
복지	-10.3611
▁형성	-10.3615
▁기반	-10.3616
▁Sea	-10.3616
▁style	-10.3616
▁stocks	-10.362
▁출발	-10.362
폐	-10.3621
▁procedures	-10.3622
ide	-10.3623
▁있	-10.3631
▁mainly	-10.3635
jae	-10.3637
▁meal	-10.3645
▁modern	-10.3646
▁emphasized	-10.3648
▁경북	-10.3652
▁Movement	-10.3654
▁Hae	-10.3659
▁article	-10.3663
▁앞에	-10.3663
▁St	-10.3664
▁walk	-10.3665
▁돈	-10.3667
▁discussion	-10.3668
▁broadcasting	-10.3669
생활	-10.3671
▁배치	-10.3672
낸	-10.3679
▁allows	-10.3679
했기	-10.3681
▁이유	-10.3682
▁소송	-10.3682
▁우승	-10.3683
▁snow	-10.3684
▁외국	-10.3686
▁전쟁	-10.3688
▁사이에	-10.3689
▁폐	-10.369
ton	-10.3695
▁studying	-10.3696
년이	-10.3696
▁후보	-10.3698
▁venue	-10.3698
▁대해서	-10.3698
▁곳	-10.37
▁인도네시아	-10.3702
삼	-10.3702
▁연간	-10.3703
렌	-10.3705
▁specialized	-10.3709
▁consist	-10.3709
▁갈등	-10.3712
침	-10.3715
▁성적	-10.3716
▁rose	-10.372
9%	-10.3722
▁여름	-10.3725
▁최고의	-10.3727
▁대전	-10.3729
▁album	-10.3731
▁가서	-10.3736
▁developing	-10.3739
▁Myung	-10.374
였던	-10.3745
▁reflect	-10.3745
▁meters	-10.3756
▁미국이	-10.3759
▁베	-10.376
▁choose	-10.3761
분야	-10.3761
▁기능	-10.3762
▁잔	-10.3765
▁무슨	-10.3766
▁consecutive	-10.3768
▁express	-10.3771
▁있지	-10.3777
▁consumption	-10.3779
▁Roh	-10.3782
▁Mountain	-10.3787
▁때까지	-10.3789
▁greatly	-10.3793
▁discount	-10.3793
1%	-10.3796
옥	-10.3797
▁disabilities	-10.3798
▁금리	-10.3799
▁units	-10.38
China	-10.3801
▁fish	-10.3805
▁독립	-10.3806
▁autonomous	-10.3812
▁methods	-10.3815
▁independence	-10.382
택	-10.3829
▁통일	-10.383
cm	-10.3835
농	-10.3836
▁그러나	-10.3836
▁Employment	-10.3839
지구	-10.384
▁개혁	-10.3841
v	-10.3844
글	-10.3847
▁nine	-10.385
▁씨	-10.3851
wi	-10.3851
▁ordinary	-10.3854
▁bar	-10.3857
vi	-10.3861
27	-10.3867
▁입장	-10.3868
▁전날	-10.3869
화를	-10.3872
▁respond	-10.3875
마을	-10.3877
▁호주	-10.3879
▁울	-10.388
세대	-10.3886
▁강남	-10.3887
em	-10.3889
va	-10.3892
▁fishing	-10.3896
▁야	-10.3897
▁통신	-10.3899
▁33	-10.39
▁지역에	-10.39
▁제주도	-10.39
▁Representative	-10.3902
▁Soo	-10.3902
▁Human	-10.3908
▁제출하여야	-10.3909
▁폭행	-10.3912
▁performed	-10.3915
▁곡	-10.3916
하신	-10.3918
▁자녀	-10.3924
▁Don	-10.3925
▁surgery	-10.3926
▁용	-10.3927
▁이행	-10.3928
▁leaving	-10.3929
6%	-10.3932
▁Organization	-10.3937
▁installation	-10.3937
▁promoted	-10.3938
▁Pyongyang	-10.394
▁lawsuit	-10.394
홍	-10.3944
▁50%	-10.3948
▁경쟁력	-10.3949
▁살아	-10.3952
▁delay	-10.3958
▁처벌	-10.396
▁scope	-10.3965
▁디	-10.3965
▁drink	-10.3966
▁rapidly	-10.397
분의	-10.3972
제품	-10.3976
▁suffered	-10.398
▁따	-10.3981
▁중요	-10.3985
▁20%	-10.3985
▁wear	-10.3987
▁향상	-10.399
▁entering	-10.3991
들도	-10.3992
chan	-10.3992
▁회담	-10.3993
▁안에서	-10.3998
▁standing	-10.3999
ck	-10.3999
▁맛	-10.4
▁센터	-10.4003
21	-10.4004
시키는	-10.4005
▁girl	-10.4005
로는	-10.4006
▁petition	-10.4008
▁library	-10.4009
하려고	-10.4012
▁door	-10.4013
▁속도	-10.4016
▁attract	-10.4017
▁판	-10.4017
▁분양	-10.4019
▁주민들	-10.402
▁터	-10.402
▁divided	-10.4021
▁장기	-10.4021
▁settlement	-10.4028
▁flight	-10.4034
▁스타	-10.4034
ship	-10.4036
▁weak	-10.4036
▁당신을	-10.4041
▁throughout	-10.4044
▁않으면	-10.4046
전을	-10.4051
▁vote	-10.4065
성과	-10.407
▁abuse	-10.4071
▁꿈	-10.4072
거래	-10.4072
▁La	-10.4074
뿐만	-10.4075
▁전략	-10.4083
▁weeks	-10.4085
▁계	-10.4087
▁finished	-10.4087
▁북한의	-10.4087
▁표시	-10.4088
▁Le	-10.4088
▁악화	-10.409
▁하여	-10.4095
▁나를	-10.4099
▁뭐	-10.4099
른	-10.4106
라면	-10.4107
▁일상	-10.4109
▁seem	-10.4111
▁대기업	-10.4115
▁이내에	-10.4115
▁brought	-10.4116
▁협조	-10.4116
▁하다	-10.4122
▁focusing	-10.4122
▁커피	-10.4125
▁worried	-10.4135
▁즐길	-10.4135
▁dramas	-10.4139
▁remaining	-10.4141
▁제시	-10.4142
금을	-10.4143
▁profits	-10.4144
▁medicine	-10.4144
▁공간	-10.4149
▁밝힌	-10.415
▁품질	-10.415
▁그냥	-10.4152
▁없어요	-10.4153
▁severe	-10.4153
칠	-10.4154
▁빠른	-10.4154
▁오늘은	-10.4155
▁Rules	-10.4157
▁폭	-10.4158
▁taxes	-10.4163
▁exam	-10.4164
▁바다	-10.4164
▁수준	-10.4165
▁write	-10.4167
▁representatives	-10.4168
▁weight	-10.4169
▁발굴	-10.4171
▁activity	-10.4173
▁Line	-10.418
▁Ulsan	-10.4181
▁팬	-10.4183
80	-10.4184
착	-10.4185
▁존재	-10.4186
업계	-10.4187
▁computer	-10.4187
▁academic	-10.4189
▁수수료	-10.419
▁주도	-10.4191
▁속에서	-10.4194
이번	-10.4195
▁정리	-10.4196
▁stable	-10.4197
교회	-10.4197
▁사망	-10.42
▁significantly	-10.4202
▁background	-10.4205
했으나	-10.4208
▁지원하는	-10.4208
▁있다면	-10.4209
▁eating	-10.421
▁deliver	-10.4212
▁전용	-10.4218
▁concern	-10.4218
ally	-10.4219
▁시작했다	-10.4219
▁집행	-10.4222
에게는	-10.4223
▁이벤트	-10.4225
▁male	-10.4225
하겠다	-10.4228
▁합	-10.4232
▁Peace	-10.4236
▁기준으로	-10.4241
ut	-10.4242
▁America	-10.4247
▁seat	-10.4247
▁요리	-10.4248
만큼	-10.4248
▁마케팅	-10.4255
▁끝난	-10.4256
▁모바일	-10.4256
der	-10.4257
▁produce	-10.4257
▁사람들은	-10.4258
▁subway	-10.4259
▁캐나다	-10.4259
▁preparation	-10.4262
▁길이	-10.4266
▁meaningful	-10.4267
▁ticket	-10.4269
▁디지털	-10.4271
협력	-10.4273
▁arts	-10.4273
▁camp	-10.428
▁격	-10.4287
▁빈	-10.4288
▁봉	-10.4288
▁실적	-10.429
▁busy	-10.4291
ian	-10.4292
▁paying	-10.4292
▁위기	-10.4295
▁보관	-10.4296
▁advantage	-10.4301
▁제공하는	-10.4306
▁electronic	-10.4309
▁노조	-10.4309
▁독	-10.4311
▁입주	-10.4314
수를	-10.4315
▁Last	-10.4316
팅	-10.4318
▁restaurants	-10.4319
▁opportunities	-10.4321
달러	-10.4321
자에게	-10.4322
▁세대	-10.4323
▁사고가	-10.4324
▁취	-10.4324
▁accounts	-10.4325
연구	-10.4327
▁Games	-10.433
▁pictures	-10.4333
▁Small	-10.4333
▁estimated	-10.4335
▁전반	-10.4336
▁refund	-10.4337
▁소리	-10.4338
▁fan	-10.4338
▁movies	-10.4339
▁듯	-10.434
▁400	-10.434
▁보험	-10.434
▁county	-10.4346
▁Division	-10.4349
▁기업의	-10.4351
60	-10.4352
▁permission	-10.4357
존	-10.4357
왔다	-10.4359
▁화제	-10.4359
▁assessment	-10.4367
▁교육감	-10.4367
법인	-10.4369
mun	-10.4371
▁Table	-10.4371
▁스마트	-10.4374
▁subsidies	-10.4376
▁사과	-10.4377
▁매출	-10.4378
▁없	-10.4384
da	-10.4393
▁의지	-10.4396
▁차이가	-10.4396
▁없고	-10.4397
▁부서	-10.4399
▁Hotel	-10.44
사는	-10.4402
▁Our	-10.4403
▁발행	-10.4404
▁무엇보다	-10.4404
▁의심	-10.4404
소득	-10.4406
▁출석	-10.441
▁환	-10.4412
▁deep	-10.4417
▁preliminary	-10.4424
ung	-10.4424
었던	-10.4427
▁이름을	-10.443
▁title	-10.4433
▁서류	-10.4434
▁원내대표	-10.4436
▁추가로	-10.4437
▁교육을	-10.4439
▁assault	-10.4439
률	-10.4444
▁유치원	-10.4447
완	-10.4453
▁Da	-10.4453
▁출연	-10.4454
▁운전	-10.4455
효	-10.4456
▁Je	-10.4456
받은	-10.4459
▁전해졌다	-10.4459
ah	-10.4462
▁의혹	-10.4471
▁먹고	-10.4472
▁전문가들	-10.4472
26	-10.4475
▁비가	-10.4475
▁기사	-10.4476
행정	-10.4481
▁방법	-10.4483
▁spend	-10.4483
▁계산	-10.4485
▁arrived	-10.4488
▁Facebook	-10.4495
▁도서관	-10.4495
▁그들	-10.4496
정부	-10.4501
▁app	-10.4501
▁repair	-10.4503
run	-10.4505
▁참여한	-10.4505
황	-10.4506
▁weekend	-10.4509
▁부여	-10.4511
▁형	-10.4516
red	-10.4518
▁행동	-10.4518
▁avoid	-10.4519
감독	-10.4523
▁decline	-10.4524
▁교수는	-10.4529
▁Motor	-10.4529
▁무역	-10.453
려고	-10.453
▁먹	-10.453
▁보통	-10.4535
▁허용	-10.4537
▁monthly	-10.4541
▁speak	-10.4542
▁중심	-10.4542
▁prior	-10.4542
이기	-10.4542
▁이달	-10.4543
▁fresh	-10.4545
▁좋다	-10.4548
▁understanding	-10.4549
▁양국	-10.4551
▁Fire	-10.4553
▁Policy	-10.4555
▁대법원	-10.4555
▁More	-10.4559
du	-10.456
▁선물	-10.456
▁source	-10.4564
▁34	-10.4565
ities	-10.4568
▁회장이	-10.457
▁license	-10.4573
▁recruitment	-10.4576
▁attending	-10.4576
▁dinner	-10.4579
▁Under	-10.458
▁achieve	-10.458
▁컴퓨터	-10.4582
▁shared	-10.4588
▁45	-10.459
~	-10.4591
▁respect	-10.4597
리는	-10.4598
▁최대한	-10.4598
▁mountain	-10.4599
kg	-10.46
▁신뢰	-10.4607
king	-10.4609
▁훨씬	-10.4611
▁국방부	-10.4612
ner	-10.4619
▁작가	-10.4619
▁충분히	-10.4624
▁위원회	-10.4626
▁등에서	-10.463
▁결과가	-10.4631
▁Services	-10.4631
▁민원	-10.4633
▁그녀	-10.4634
▁메뉴	-10.4636
▁volume	-10.4636
▁rent	-10.4636
▁싱가포르	-10.4643
vo	-10.4645
▁managed	-10.4647
▁물품	-10.465
▁65	-10.4651
▁His	-10.4652
개국	-10.4653
냈다	-10.4654
▁대기	-10.4658
▁shop	-10.4659
▁협약	-10.4669
▁twice	-10.4676
▁내에서	-10.4676
▁guarantee	-10.468
▁투	-10.468
▁thereof	-10.4683
▁acting	-10.469
해온	-10.4692
▁많았다	-10.4693
▁다소	-10.4694
▁일단	-10.4694
감을	-10.4695
주세요	-10.4697
▁절반	-10.4698
▁appear	-10.4704
▁factors	-10.4704
▁힘	-10.4705
ac	-10.4709
▁volunteer	-10.4716
문을	-10.4717
▁혐의를	-10.472
▁email	-10.4721
▁완	-10.4722
▁과정을	-10.4727
▁기금	-10.4729
▁면	-10.4731
▁보이고	-10.4734
▁town	-10.4736
▁nationwide	-10.4737
che	-10.4739
▁의하여	-10.4742
▁시작한	-10.4749
▁30%	-10.4753
dae	-10.477
▁그림	-10.4772
▁방문해	-10.4777
mp	-10.478
▁아름다운	-10.4782
▁Port	-10.4787
갑	-10.4787
▁이용자	-10.479
▁캐릭터	-10.4795
▁열고	-10.4797
▁의미가	-10.4797
▁Heung	-10.4802
▁반복	-10.4802
▁double	-10.4804
클	-10.4805
ize	-10.4806
▁만들기	-10.4807
▁규칙	-10.481
▁않	-10.4812
▁devices	-10.4812
임을	-10.4815
▁행사를	-10.482
▁Information	-10.4823
▁listen	-10.4823
▁remains	-10.4828
▁efficient	-10.4829
▁응	-10.4831
▁revenue	-10.4832
▁apartments	-10.484
사의	-10.4841
▁거부	-10.4843
▁g	-10.4844
▁Mu	-10.4845
인가요	-10.4846
▁위에	-10.4848
▁미국과	-10.4851
▁stand	-10.4852
▁Agricultural	-10.4852
▁impossible	-10.4852
chi	-10.4853
욱	-10.4856
▁contains	-10.4857
▁이것	-10.4858
▁path	-10.4859
As	-10.4859
▁forces	-10.4861
▁했지만	-10.4866
▁인력	-10.4867
▁gold	-10.4868
▁대책	-10.4868
▁figure	-10.4869
▁시장에서	-10.4873
▁상당	-10.4873
척	-10.4874
▁presentation	-10.4876
▁Al	-10.4876
tro	-10.4881
▁방안	-10.4883
▁follows	-10.4885
구역	-10.4892
부서	-10.4893
▁정비	-10.4894
▁혼자	-10.4895
▁질문	-10.4897
ish	-10.4902
▁ended	-10.4902
▁지금은	-10.4903
▁기대된다	-10.4905
공무원	-10.4906
▁올라	-10.4906
by	-10.491
▁가치	-10.4911
▁전남	-10.4913
▁decide	-10.4913
▁majority	-10.4916
▁조건	-10.4916
▁인기가	-10.4917
▁통화	-10.4922
▁reporters	-10.4922
▁크기	-10.4924
▁ten	-10.4926
▁exchanges	-10.4926
▁Seok	-10.4927
▁식당	-10.4931
end	-10.4931
▁징수	-10.4931
▁직후	-10.4932
구조	-10.4933
▁인수	-10.4933
▁기초	-10.4935
▁속에	-10.4936
▁mean	-10.4937
▁수술	-10.4937
▁관세	-10.4947
▁모집	-10.4948
▁수원	-10.4953
▁후반	-10.4954
녀	-10.4956
▁stories	-10.4956
▁digital	-10.4956
▁파악	-10.4956
▁노동자	-10.4957
▁commission	-10.4957
▁text	-10.496
▁의회	-10.4961
▁dead	-10.4961
North	-10.4962
▁films	-10.4963
▁finance	-10.4965
▁shot	-10.4965
▁이용해	-10.4971
▁지자체	-10.4976
ial	-10.498
▁decrease	-10.498
▁멤버	-10.4981
국가	-10.4982
▁부인	-10.4985
술	-10.4986
▁사건이	-10.4988
▁Now	-10.4988
자금	-10.4991
▁식품	-10.4991
시부터	-10.4993
▁Recently	-10.4994
▁leadership	-10.4995
yang	-10.4997
▁wrote	-10.4998
▁말고	-10.5006
▁총리	-10.5009
▁해소	-10.5012
▁drug	-10.5014
▁occur	-10.5016
▁suggested	-10.5018
▁계기	-10.5022
▁directors	-10.5025
▁confirm	-10.5027
▁punishment	-10.5032
▁때마다	-10.5036
▁마음	-10.5036
련	-10.504
▁국회의원	-10.5041
하다는	-10.5044
▁blockchain	-10.5044
▁생각합니다	-10.5045
▁believed	-10.5046
▁도와	-10.5048
▁취지	-10.5056
▁나무	-10.5057
▁회계	-10.5059
▁기술을	-10.5061
▁들고	-10.5062
▁attack	-10.5062
▁와	-10.5067
▁핵	-10.5067
▁KBS	-10.5068
▁limits	-10.5073
▁Museum	-10.5078
▁executives	-10.5078
▁예측	-10.5079
량이	-10.5082
▁꾸준히	-10.5082
▁참석했다	-10.5086
시켜	-10.5086
사진	-10.5087
▁difficulty	-10.5093
▁track	-10.5096
▁wants	-10.5096
카드	-10.5101
▁시기	-10.5104
섭	-10.5106
▁계획을	-10.5106
학과	-10.5107
▁filled	-10.5109
▁먹는	-10.5111
▁즉시	-10.5111
▁가까운	-10.5116
▁말이	-10.5117
▁검찰이	-10.5119
28	-10.512
▁진술	-10.512
▁한국당	-10.5124
▁쓴	-10.5125
압	-10.5127
▁sex	-10.5133
▁guide	-10.5143
▁display	-10.5146
▁장관이	-10.515
▁평가를	-10.515
▁멕시코	-10.5153
▁unable	-10.5153
▁공모	-10.5154
▁친환경	-10.5155
▁징계	-10.5156
▁재난	-10.5157
▁supplement	-10.5159
▁tourist	-10.5163
om	-10.5168
▁concerned	-10.5172
▁나올	-10.5174
하겠다고	-10.5178
비가	-10.5183
▁anyone	-10.5184
▁lose	-10.5189
▁있었습니다	-10.5189
▁expects	-10.5193
▁나머지	-10.5193
▁roads	-10.5196
men	-10.5197
▁뉴욕	-10.52
▁날씨	-10.5202
▁host	-10.5205
▁sentenced	-10.5207
▁그때	-10.5207
행사	-10.5209
▁Sin	-10.521
▁judges	-10.5211
▁handle	-10.5214
▁Could	-10.5214
▁Construction	-10.5219
▁myself	-10.5219
▁fashion	-10.5225
▁승인	-10.5228
▁normal	-10.523
억원을	-10.5233
▁가야	-10.5236
▁Pro	-10.5238
나무	-10.5244
▁위협	-10.525
▁이용할	-10.525
▁확장	-10.5252
▁옷	-10.5253
▁부탁	-10.5256
▁전면	-10.5262
일에	-10.5262
호에	-10.5263
겠다는	-10.5264
▁beyond	-10.5266
▁나선	-10.5267
TV	-10.5268
▁extra	-10.5269
▁자세	-10.5275
▁시군	-10.5279
▁missing	-10.5286
▁출전	-10.5287
단지	-10.5289
▁정책을	-10.529
▁potential	-10.5292
칭	-10.5292
▁nice	-10.5292
▁열어	-10.53
▁debate	-10.53
▁마음이	-10.5303
▁surrounding	-10.5305
▁순위	-10.5305
▁상황이다	-10.5308
▁allegations	-10.5309
▁endeavor	-10.5309
▁비슷한	-10.5312
▁행사가	-10.5314
▁인권	-10.5315
cu	-10.5317
▁damaged	-10.5318
▁실현	-10.5319
70	-10.5319
▁악	-10.5319
제도	-10.532
▁설정	-10.5321
▁spirit	-10.5322
물을	-10.5322
▁happened	-10.5324
▁Republic	-10.5325
▁토지	-10.5331
▁강남구	-10.5331
▁아들	-10.5332
▁solution	-10.5335
자원	-10.5336
▁신경	-10.5337
▁운용	-10.5338
라며	-10.534
▁규정함을	-10.534
▁index	-10.5344
▁시행령	-10.5345
▁유명한	-10.5347
일간	-10.535
▁feeling	-10.5353
▁wearing	-10.5353
▁manner	-10.5353
▁달라	-10.5354
▁born	-10.5354
▁Former	-10.5354
▁지식	-10.5355
seo	-10.5356
▁plants	-10.5365
▁increases	-10.5367
▁accused	-10.5367
▁Ba	-10.5368
▁expensive	-10.537
▁효과를	-10.537
킹	-10.5372
▁항	-10.5377
▁smartphone	-10.5379
▁calling	-10.5384
▁calls	-10.5385
▁Taiwan	-10.5387
▁주소	-10.5388
▁cover	-10.5388
▁require	-10.5389
점이	-10.5389
▁revised	-10.539
▁Russian	-10.5392
▁explain	-10.5394
500	-10.5401
▁reservation	-10.5405
▁diseases	-10.5408
▁retirement	-10.5409
개소	-10.5412
▁부위원장	-10.5413
▁진입	-10.5413
위에	-10.5414
▁비상	-10.5417
▁응원	-10.5419
▁deposit	-10.5422
▁Insurance	-10.5422
▁association	-10.5423
▁배경	-10.5426
적이고	-10.5428
▁노선	-10.543
슬	-10.5446
▁그러	-10.5448
▁포장	-10.5455
▁반면	-10.5456
▁PC	-10.5457
▁cell	-10.5458
ran	-10.5458
▁대변인	-10.5459
▁proceed	-10.546
▁여야	-10.5463
▁때문입니다	-10.5463
▁named	-10.5466
▁decreased	-10.5468
▁떠나	-10.5472
▁밥	-10.5474
됐고	-10.5475
스가	-10.5477
으나	-10.5482
단이	-10.5482
▁asking	-10.5483
▁참석해	-10.5485
▁remember	-10.5485
시킬	-10.5485
pi	-10.5488
▁farming	-10.5493
▁가고	-10.5494
▁Iran	-10.5494
▁나오고	-10.5496
▁책을	-10.5496
▁38	-10.55
▁quite	-10.55
해도	-10.5501
▁압박	-10.5502
▁Youth	-10.5503
혁	-10.5503
▁concept	-10.5503
▁About	-10.5505
▁대중	-10.5506
▁San	-10.5508
▁BTS	-10.5511
▁Joon	-10.5517
▁대표팀	-10.5518
▁processing	-10.552
세를	-10.5523
▁Yi	-10.5523
▁구속	-10.5531
▁victory	-10.5532
▁주말	-10.5537
▁내에	-10.5538
혈	-10.5539
▁worker	-10.554
▁judgment	-10.5541
▁루	-10.5541
▁Goyang	-10.5541
기준	-10.5542
▁사업에	-10.5544
▁사업이	-10.5544
▁진행된	-10.555
▁있습니까	-10.555
블	-10.5551
▁동영상	-10.5555
▁아니냐	-10.5558
▁분석이	-10.5566
▁temporary	-10.5568
▁finally	-10.5568
▁task	-10.557
▁확인할	-10.5574
▁기대하고	-10.5578
sang	-10.5578
▁태국	-10.5579
겨	-10.558
▁가능성	-10.5585
▁여기서	-10.5587
▁부분이	-10.5588
▁연출	-10.5588
▁enhance	-10.5595
US	-10.5601
월까지	-10.5603
▁열린다	-10.5603
▁firm	-10.5606
▁conducting	-10.5609
가요	-10.5612
▁폐지	-10.5613
▁affected	-10.5615
▁별표	-10.5617
▁시장에	-10.5621
▁납부	-10.5621
▁수요가	-10.5624
▁보상	-10.5624
▁사항	-10.5625
▁shares	-10.5626
▁사건을	-10.5627
▁제조	-10.5627
가격	-10.5628
들에	-10.5628
▁intelligence	-10.563
▁구청장에게	-10.5632
▁가게	-10.5638
use	-10.564
▁master	-10.5643
▁승	-10.5643
▁mental	-10.5644
▁residential	-10.5645
시스템	-10.5645
▁높이	-10.5646
스러운	-10.5647
▁X	-10.5656
▁근거	-10.5656
▁태풍	-10.5657
▁선수들	-10.5659
▁연계	-10.5664
free	-10.5668
▁과학	-10.5668
▁shape	-10.567
▁충격	-10.567
▁주거	-10.5672
▁했던	-10.5673
▁스페인	-10.5681
▁independent	-10.5684
▁바른미래당	-10.569
▁특수	-10.5692
▁새벽	-10.5693
▁semiconductor	-10.5696
▁의견이	-10.5696
쪽	-10.5697
▁counties	-10.5697
▁자산	-10.5699
▁couple	-10.5699
알	-10.5701
▁의혹을	-10.5703
▁아내	-10.5708
▁투입	-10.5709
▁spent	-10.5711
▁남아	-10.5718
tu	-10.5718
▁strike	-10.572
▁학	-10.572
▁attracting	-10.5721
▁device	-10.5723
▁Economy	-10.5724
▁capacity	-10.5726
▁판결	-10.5728
▁주고	-10.5729
▁자체가	-10.5732
▁foot	-10.5733
연구소	-10.5734
▁생각한다	-10.5735
▁건립	-10.5737
▁먹을	-10.574
▁patient	-10.5746
▁상호	-10.5747
▁지구	-10.5752
▁의결	-10.5754
공간	-10.5755
▁분위기	-10.5757
▁농업	-10.5758
▁trees	-10.5758
▁한편	-10.576
▁갑자기	-10.576
▁주의	-10.5761
35	-10.5768
▁seek	-10.5769
▁전력	-10.5774
▁전까지	-10.5775
보호	-10.5776
▁briefing	-10.5777
▁프로	-10.5779
▁오른	-10.578
▁violation	-10.5782
되	-10.5786
▁foreigners	-10.5786
으	-10.5787
▁만난	-10.579
▁집단	-10.5791
단계	-10.5792
▁crimes	-10.5797
▁장은	-10.5797
해주세요	-10.5798
▁dog	-10.58
▁fixed	-10.58
▁b	-10.5804
이었던	-10.5805
▁투표	-10.5807
▁alleged	-10.581
▁complaints	-10.5813
▁브라질	-10.582
▁걸쳐	-10.582
▁위원장	-10.583
▁draw	-10.5831
▁공항	-10.5832
▁mark	-10.5832
연구원	-10.5833
하다고	-10.5835
▁상대적으로	-10.5836
▁자문	-10.5838
income	-10.5839
▁rooms	-10.5843
▁theater	-10.5847
▁언어	-10.5849
▁모두가	-10.5851
▁미만	-10.5852
기금	-10.5856
장에서	-10.5856
▁soldiers	-10.5858
▁band	-10.5859
개선	-10.586
▁Not	-10.5862
▁cancel	-10.5866
▁주가	-10.5867
ron	-10.5869
▁Therefore	-10.5869
▁failure	-10.587
ice	-10.587
▁eco	-10.5872
▁kept	-10.5874
▁Through	-10.5875
하려	-10.5875
▁이들의	-10.5876
▁집에서	-10.5877
▁en	-10.5885
치는	-10.5887
▁discussions	-10.5891
▁ranked	-10.5892
▁France	-10.5893
▁Due	-10.5894
▁불편	-10.5895
▁discussed	-10.5896
▁지역에서	-10.5896
▁처음이다	-10.5896
▁삶의	-10.5897
▁effort	-10.5897
축제	-10.5899
▁활약	-10.5906
▁하겠습니다	-10.5907
▁평양	-10.5908
▁admission	-10.5911
▁일부를	-10.5913
uk	-10.5914
▁자전거	-10.5915
▁36	-10.5919
▁technical	-10.592
▁시대	-10.5922
▁add	-10.5923
▁무료	-10.5925
▁처	-10.5926
▁German	-10.5926
▁Li	-10.5927
▁미술	-10.5928
▁baby	-10.5929
▁resolve	-10.5932
▁stopped	-10.5934
▁offer	-10.5942
▁생명	-10.5942
▁port	-10.5943
▁researcher	-10.5943
▁Prosecutors	-10.5945
없이	-10.5951
▁Energy	-10.5952
▁Securities	-10.5957
▁practical	-10.5957
▁발생하는	-10.596
mer	-10.5963
▁나이	-10.5964
톤	-10.597
▁baseball	-10.5971
▁비행기	-10.5971
▁겨울	-10.5974
▁후원	-10.5974
▁artificial	-10.5975
▁이곳	-10.5977
▁구성된	-10.5979
▁참여해	-10.5981
▁관하여	-10.5982
▁현장에서	-10.5983
▁lived	-10.5983
▁chicken	-10.5985
▁learned	-10.5987
▁Headquarters	-10.5989
지지	-10.599
▁suspect	-10.5992
whose	-10.5992
▁재판	-10.5994
ap	-10.5997
▁길을	-10.6
▁전시회	-10.6002
▁따른다	-10.6002
▁sub	-10.6003
▁exact	-10.6003
됐던	-10.6005
type	-10.6006
▁actors	-10.6007
▁Jun	-10.6008
▁suit	-10.6009
▁wall	-10.6012
▁begin	-10.6017
▁행위	-10.6017
▁drinking	-10.6023
ae	-10.6023
밀	-10.6025
▁밝혀	-10.6026
▁체	-10.6031
▁씨가	-10.6031
▁그들이	-10.6032
지방	-10.6034
▁교사	-10.6037
▁공개된	-10.6038
he	-10.6039
▁듣고	-10.6043
▁카페	-10.6044
▁completion	-10.6045
▁register	-10.6046
▁officers	-10.6048
▁약속	-10.6049
본부	-10.605
▁invest	-10.6051
▁제품이	-10.6053
▁livestock	-10.6054
▁직장	-10.6054
▁encourage	-10.6056
▁Geun	-10.6057
▁커지고	-10.6058
▁prosecutor	-10.6061
▁bio	-10.6063
▁관람	-10.6064
▁reducing	-10.6064
▁증	-10.6067
▁rich	-10.6068
기구	-10.607
힌	-10.6071
tra	-10.6072
▁손을	-10.6075
▁종료	-10.6075
의회	-10.6077
▁부탁드립니다	-10.6078
▁언급	-10.6081
▁초기	-10.6081
▁사상	-10.6082
▁features	-10.6086
▁지시	-10.6086
▁talking	-10.6086
▁historical	-10.6088
세기	-10.6091
만원을	-10.6095
▁이름	-10.6097
▁적은	-10.61
▁urgent	-10.6101
▁경제적	-10.6103
▁아이들	-10.6104
▁declaration	-10.6106
▁favorite	-10.6106
▁EU	-10.6108
▁reflected	-10.6111
▁core	-10.6111
가구	-10.6111
▁불안	-10.6112
we	-10.6112
▁낙	-10.6116
sion	-10.6117
▁수용	-10.6117
▁functions	-10.6119
▁섬	-10.612
▁characters	-10.6122
▁있어야	-10.613
▁드	-10.6131
je	-10.6133
▁기대한다	-10.6135
돈	-10.6136
▁cool	-10.6137
▁인천광역시	-10.6143
▁뉴스	-10.6146
▁MBC	-10.6148
▁역량	-10.6148
개를	-10.6151
▁월드컵	-10.6154
▁수상	-10.6157
진다	-10.6157
▁남은	-10.6158
▁checked	-10.616
▁아이디어	-10.6167
▁차지	-10.6175
▁과정	-10.6177
▁혐의	-10.6178
▁suspicion	-10.6179
▁camera	-10.618
▁연주	-10.6187
폭	-10.6188
▁save	-10.6189
▁앨범	-10.619
▁runs	-10.6191
▁pushed	-10.6191
▁부족한	-10.6193
▁드러났다	-10.6193
▁pick	-10.6195
▁누	-10.6198
dy	-10.6198
long	-10.62
▁appeal	-10.62
▁부품	-10.62
싱	-10.6204
jong	-10.6204
▁trustee	-10.6206
▁bag	-10.6206
▁alternative	-10.6208
케	-10.6212
▁곳에	-10.6213
▁등과	-10.6213
▁parliamentary	-10.6214
▁correct	-10.6216
▁excessive	-10.6219
▁결론	-10.6221
▁justice	-10.6226
▁대로	-10.6226
지에	-10.6227
▁절대	-10.623
▁수집	-10.6231
▁육	-10.6232
▁수사를	-10.6232
▁attitude	-10.6233
청장	-10.6233
▁졸업	-10.624
▁kinds	-10.6241
▁살고	-10.6241
인들이	-10.6242
▁scored	-10.6242
회를	-10.6244
걸	-10.6248
▁피해가	-10.6249
▁교환	-10.6252
▁기부	-10.6254
자와	-10.6265
▁알게	-10.6266
제가	-10.6268
▁유엔	-10.6274
▁통보	-10.6275
ning	-10.6276
▁accepted	-10.6277
▁진행된다	-10.628
▁구체적인	-10.6286
▁Today	-10.6287
Gu	-10.629
▁battle	-10.629
▁그리	-10.629
▁animal	-10.6294
▁Middle	-10.6295
▁integrated	-10.6296
▁정당	-10.6297
▁younger	-10.6299
▁Investment	-10.63
는지	-10.6301
▁looked	-10.6302
원은	-10.6302
ring	-10.6303
▁balance	-10.6307
▁암호화폐	-10.631
▁judicial	-10.631
낼	-10.6311
▁establishing	-10.6311
▁secured	-10.6311
▁suddenly	-10.6312
▁sending	-10.6314
▁페	-10.6318
▁auto	-10.6319
▁않아요	-10.6321
▁대체	-10.6325
▁remain	-10.6328
아이	-10.6329
신청	-10.633
측	-10.6331
▁발언	-10.6333
▁square	-10.6336
▁minute	-10.6337
▁증거	-10.6337
▁dispute	-10.6337
리가	-10.634
방송	-10.6341
▁보이	-10.6342
▁currency	-10.6343
▁bright	-10.6343
▁interpreted	-10.6345
▁발급	-10.6347
▁Medical	-10.6347
▁오랜	-10.6349
▁단속	-10.6352
▁만족	-10.6356
▁기계	-10.6358
▁기타	-10.636
▁작	-10.636
▁marriage	-10.6362
▁gather	-10.6366
▁기록했다	-10.6367
더라도	-10.6369
▁suspended	-10.6371
▁기회	-10.6374
▁목적	-10.6375
▁painting	-10.6376
▁injured	-10.6376
▁새롭게	-10.6376
▁저에게	-10.6379
▁inform	-10.6379
deok	-10.638
혀	-10.6385
▁메일	-10.6386
▁kindergartens	-10.639
관광	-10.6391
▁땅	-10.6391
서울특별시	-10.6392
▁seemed	-10.6392
so	-10.6395
▁잡	-10.6396
▁공연을	-10.6398
▁축하	-10.64
▁applying	-10.64
▁Ca	-10.6404
▁이어질	-10.6407
▁사태	-10.6407
▁Rights	-10.6408
▁excluded	-10.6412
▁politics	-10.6415
▁놓	-10.6415
▁공정	-10.6418
체험	-10.6418
▁Pa	-10.6419
▁시작된	-10.6419
▁subparagraph	-10.642
▁지하철	-10.6421
▁완전히	-10.6421
하려면	-10.6422
치를	-10.6423
▁갖춘	-10.6429
▁Team	-10.6431
▁개별	-10.6431
▁발생했다	-10.6431
▁힘든	-10.6431
▁하면서	-10.6432
까요	-10.6432
▁finding	-10.6433
빙	-10.6434
▁했는데	-10.6434
▁animals	-10.6435
▁comments	-10.6436
kyung	-10.6437
▁노사	-10.6441
장과	-10.6443
▁뜻을	-10.6443
5%	-10.6446
▁광주시	-10.6447
▁휴	-10.6448
▁Grand	-10.6449
▁fight	-10.6452
▁Unlike	-10.6454
gil	-10.6456
관이	-10.6456
▁ICT	-10.6457
▁도민	-10.6458
▁봄	-10.6466
rim	-10.6467
▁ice	-10.6468
▁Just	-10.647
▁종목	-10.6472
▁불러	-10.6472
▁experienced	-10.6473
▁출장	-10.6474
▁proper	-10.6474
▁터키	-10.6475
▁o	-10.6477
▁debt	-10.6478
22	-10.6482
▁중국이	-10.6483
▁강사	-10.6484
▁walking	-10.6484
▁퍼	-10.6486
▁2006	-10.6489
▁net	-10.6493
chul	-10.6495
▁고발	-10.6496
▁electricity	-10.6499
▁reporter	-10.6501
▁behavior	-10.6502
▁vulnerable	-10.6502
▁유출	-10.6502
ai	-10.6504
▁수많은	-10.6506
어서	-10.6506
▁의뢰	-10.6507
위원장	-10.6508
▁주인공	-10.6508
▁홈페이지	-10.6508
tech	-10.6509
▁문의	-10.6512
▁India	-10.6515
▁lunch	-10.6516
▁truth	-10.6517
▁부상	-10.6517
▁affect	-10.6522
▁jointly	-10.6523
▁operator	-10.6523
회장	-10.6526
▁초과	-10.6527
▁scale	-10.6527
▁하나요	-10.6532
▁Civil	-10.6536
▁rules	-10.6537
▁대표적인	-10.6539
▁trading	-10.6541
wa	-10.6544
탕	-10.6544
▁어머니	-10.6549
▁어디	-10.655
▁Your	-10.655
wook	-10.655
▁drive	-10.6551
헌	-10.6552
▁강원	-10.6555
됐지만	-10.6556
▁부지	-10.6564
▁국립	-10.6565
▁museum	-10.6566
▁담은	-10.6568
▁일제	-10.6575
재단	-10.6576
▁보낸	-10.6577
쿠	-10.6578
람	-10.658
▁삶을	-10.6582
ding	-10.6585
▁후보자	-10.6587
▁outstanding	-10.6588
조차	-10.659
▁입고	-10.6591
▁검증	-10.6593
레이	-10.6594
▁southern	-10.6595
▁비용을	-10.6597
▁한국과	-10.6599
▁designation	-10.6599
상담	-10.66
▁league	-10.66
인의	-10.6605
▁interests	-10.6605
▁기능을	-10.6609
▁장애	-10.661
▁guidance	-10.661
work	-10.6612
▁explanation	-10.6615
▁철도	-10.6616
▁clearly	-10.6617
▁남편	-10.6619
▁확인됐다	-10.6621
▁Yeon	-10.6627
▁lawyer	-10.6627
▁100%	-10.6634
▁점점	-10.6638
▁쓸	-10.664
▁정한	-10.6642
▁Nowon	-10.6647
▁좋지	-10.6649
▁agree	-10.665
▁Bu	-10.6651
안을	-10.6651
쯤	-10.6653
▁해제	-10.6655
▁무대	-10.6655
▁musical	-10.6657
▁di	-10.666
▁개편	-10.6661
▁구간	-10.6664
▁gradually	-10.6665
▁구입	-10.6665
▁부모	-10.6667
▁받아야	-10.6668
▁entry	-10.6669
▁benefit	-10.6671
▁announce	-10.6672
▁finish	-10.6674
분쯤	-10.6676
▁있을지	-10.6678
▁Hak	-10.668
▁커	-10.6683
▁구분	-10.6684
▁overcome	-10.6685
▁offices	-10.6688
▁달성	-10.6689
▁우수한	-10.6692
▁Indonesia	-10.6696
▁둔	-10.6697
▁arrive	-10.6697
▁정치적	-10.67
문제	-10.67
▁가득	-10.6702
▁Joo	-10.6704
off	-10.6705
▁현상	-10.6713
화가	-10.6713
▁관련한	-10.6716
▁experiences	-10.6719
-1	-10.6721
▁Did	-10.6721
한테	-10.6722
▁이유가	-10.6723
감사	-10.6729
▁System	-10.6729
▁golf	-10.6729
▁추진하는	-10.673
▁lots	-10.6731
▁누구나	-10.6734
▁else	-10.6734
▁필리핀	-10.6734
▁symptoms	-10.6736
▁지급할	-10.6736
▁systems	-10.6736
▁숙	-10.6739
▁outdoor	-10.6741
▁되나요	-10.6744
▁스타트업	-10.6745
대책	-10.6747
▁개입	-10.6747
▁지연	-10.675
▁근	-10.6752
▁청소	-10.6753
▁김씨	-10.6758
▁향해	-10.6758
▁부정	-10.6759
fe	-10.6759
▁책임을	-10.6762
▁unfair	-10.6765
차례	-10.6768
ten	-10.6768
▁일대	-10.6771
▁가을	-10.6772
▁requires	-10.6778
▁알려진	-10.6779
▁모양	-10.678
▁White	-10.6784
▁주식	-10.6784
▁일찍	-10.6784
▁군사	-10.6784
▁원활	-10.6793
검사	-10.6795
▁어린이집	-10.6796
춘	-10.6798
▁부진	-10.68
ab	-10.6803
▁의식	-10.6804
율이	-10.6804
▁생각을	-10.6807
▁37	-10.6808
베	-10.6811
▁2022	-10.6813
▁안건	-10.6813
곤	-10.6814
lu	-10.6819
▁innovative	-10.6819
▁국내외	-10.682
▁rule	-10.6823
▁안정	-10.6826
▁strengthening	-10.6829
▁stated	-10.6834
▁가까이	-10.6836
▁sister	-10.6838
벽	-10.6841
▁포함해	-10.6844
▁realize	-10.6844
▁sides	-10.6847
90	-10.686
▁파일	-10.686
▁필요하다는	-10.6862
▁주민들이	-10.6863
▁참여할	-10.6864
▁공감	-10.6868
▁주차	-10.6871
▁continuously	-10.6873
▁via	-10.6874
▁문건	-10.6876
▁civic	-10.688
▁특징이다	-10.688
한다면	-10.6881
▁만한	-10.6882
▁인터뷰	-10.6883
▁600	-10.6884
▁어렵다	-10.6884
▁doctor	-10.6886
▁선언	-10.6888
▁미디어	-10.6894
폰	-10.6894
▁certification	-10.6895
▁border	-10.6895
▁실험	-10.6906
장으로	-10.6908
▁creative	-10.691
▁Xi	-10.6911
▁recommendation	-10.6911
▁foods	-10.6912
▁전북	-10.6915
▁Saturday	-10.6915
▁Di	-10.6917
▁종교	-10.6918
▁Sohn	-10.692
▁카메라	-10.6922
▁strongly	-10.6922
▁Gyeong	-10.6927
으니	-10.693
▁plastic	-10.6931
▁regardless	-10.6931
▁점이다	-10.6932
▁가능성을	-10.6934
▁route	-10.6935
틀	-10.6937
▁긴	-10.6937
▁trouble	-10.6946
▁출	-10.6951
선을	-10.6951
주가	-10.6952
▁인프라	-10.6954
▁falls	-10.6956
▁경기도와	-10.6957
▁저희가	-10.6962
▁그린	-10.6962
of	-10.6963
CEO	-10.6967
▁비교	-10.6968
▁다수	-10.697
▁sentence	-10.6971
▁distance	-10.6973
ka	-10.6973
▁orders	-10.6976
▁criteria	-10.6976
▁기자	-10.6978
▁공원	-10.6979
▁memory	-10.6983
▁conservative	-10.6985
▁Green	-10.6989
ical	-10.699
▁초청	-10.6991
▁venture	-10.6992
▁자격	-10.6994
위가	-10.6994
▁입학	-10.6995
▁당장	-10.6996
▁false	-10.6997
▁브	-10.6998
▁지하	-10.7004
▁보조	-10.7005
23	-10.7006
▁내리	-10.7007
▁Bareunmirae	-10.7007
▁stone	-10.7007
▁사안	-10.7012
원의	-10.7012
▁환불	-10.7013
▁보완	-10.7014
경기도	-10.7016
▁신설	-10.7016
▁interesting	-10.7017
▁효과	-10.7017
▁Chungcheong	-10.7017
▁committed	-10.7023
▁중요하다	-10.7023
▁작년	-10.7027
▁실천	-10.7028
▁형태	-10.703
되었습니다	-10.7032
▁incurred	-10.7033
▁applicants	-10.7034
let	-10.7036
흥	-10.7036
▁누가	-10.7038
▁Monday	-10.7038
▁spot	-10.7038
▁coast	-10.704
▁의혹이	-10.7049
▁발표했다	-10.705
▁지출	-10.7055
▁오픈	-10.7057
▁install	-10.7057
▁보급	-10.7057
▁가동	-10.7061
▁debut	-10.7064
▁만날	-10.7066
▁교육부	-10.7066
▁장면	-10.7068
▁Pyeongtaek	-10.7069
▁machine	-10.7069
▁장관은	-10.7071
▁recovery	-10.7071
▁화장품	-10.7073
ig	-10.7074
▁해석	-10.7076
▁tickets	-10.708
▁선수들이	-10.7084
▁salary	-10.7084
▁scandal	-10.7084
▁suspension	-10.7089
▁비난	-10.709
▁방지	-10.709
객	-10.7092
▁Film	-10.7095
▁스타일	-10.7096
▁시각	-10.71
▁meat	-10.71
▁Children	-10.7101
▁pop	-10.7103
▁노력하여야	-10.7105
관련	-10.7105
▁regulation	-10.7111
▁ideas	-10.7114
▁매체	-10.7116
이면	-10.7118
▁체육	-10.7118
▁방향	-10.712
▁정기	-10.7122
▁upon	-10.7127
▁역할	-10.713
▁approved	-10.7133
joon	-10.7134
ving	-10.7135
▁Con	-10.7139
hu	-10.714
100	-10.714
▁foster	-10.7145
▁깊은	-10.7147
▁Consider	-10.7147
▁제외한	-10.715
▁signs	-10.715
죄	-10.7151
ber	-10.7152
▁okay	-10.7152
que	-10.7157
▁여행을	-10.7159
▁좋을	-10.7159
▁aimed	-10.7161
les	-10.7162
called	-10.7163
▁conversation	-10.7164
▁119	-10.7165
▁Rep	-10.7169
▁떠	-10.717
수록	-10.7171
사와	-10.7173
▁그러면	-10.7178
▁slow	-10.718
▁tree	-10.718
Re	-10.7184
하되	-10.7184
▁52	-10.7186
능	-10.7186
▁2005	-10.719
▁hurt	-10.719
▁laws	-10.7191
▁occurs	-10.7191
▁열렸다	-10.7195
▁혹은	-10.7196
jun	-10.7197
▁Friday	-10.7199
▁thanks	-10.72
률이	-10.72
▁나선다	-10.7201
▁fear	-10.7202
▁선임	-10.7204
▁끝에	-10.7205
호선	-10.7205
▁과제	-10.7207
▁그간	-10.7211
▁상황에	-10.7211
▁양성	-10.7211
▁Il	-10.7212
▁개방	-10.7212
▁120	-10.7213
훈련	-10.7217
예술	-10.7219
명과	-10.722
▁Canada	-10.722
▁신문	-10.7222
상품	-10.7228
▁부담이	-10.7231
▁상반기	-10.7233
▁될까요	-10.7238
▁방법을	-10.7239
▁Arts	-10.7241
▁author	-10.7242
었고	-10.7243
▁최소	-10.7244
▁subsidize	-10.7245
장의	-10.7246
▁나가	-10.725
▁amid	-10.7251
▁그래도	-10.7251
▁이건	-10.7251
▁만들고	-10.7255
▁ingredients	-10.7257
▁Soon	-10.726
▁말레이시아	-10.7261
▁취임	-10.7268
▁개의	-10.7269
▁concentration	-10.7271
izing	-10.7273
▁Base	-10.7275
▁package	-10.7275
▁주장이	-10.7281
▁transactions	-10.7284
▁disclosure	-10.7284
▁정한다	-10.7287
▁subparagraphs	-10.7287
▁forecast	-10.7288
▁뜻	-10.7293
▁Australia	-10.7293
▁regime	-10.7293
▁consulting	-10.7296
▁발생할	-10.7297
▁communicate	-10.7298
▁알려져	-10.7299
▁대북	-10.7299
▁강력한	-10.7301
▁mis	-10.7302
▁사업장	-10.7303
▁reporting	-10.731
▁시점	-10.731
▁접근	-10.7316
▁분야에서	-10.7316
시민	-10.7319
▁favor	-10.7321
▁evening	-10.7322
▁누구	-10.7324
▁범	-10.7326
▁drawn	-10.7327
▁corruption	-10.733
▁10,000	-10.733
▁보유한	-10.7331
▁많	-10.7331
▁transaction	-10.7333
▁놀	-10.7338
▁stars	-10.734
▁garden	-10.7341
▁News	-10.7347
qui	-10.7348
▁변화가	-10.7349
▁원장	-10.7349
▁Ryu	-10.7349
▁구민	-10.735
▁김문수	-10.7351
리그	-10.7356
▁plane	-10.7357
▁웃	-10.7359
▁높아	-10.7359
▁Law	-10.7359
▁Google	-10.736
▁겪고	-10.7367
▁불이	-10.7368
행위	-10.737
▁enforcement	-10.7373
전문	-10.7375
▁cryptocurrency	-10.7378
▁데뷔	-10.7378
mb	-10.7379
▁connected	-10.7379
예요	-10.738
만이	-10.738
▁법안	-10.7383
▁적극적인	-10.7383
▁평소	-10.7387
▁원래	-10.7388
읍	-10.7388
드리	-10.7389
▁grounds	-10.7398
▁setting	-10.7399
▁알아	-10.7399
▁attracted	-10.74
▁외에	-10.7403
특	-10.7406
▁rescue	-10.7408
▁제거	-10.7409
▁관객	-10.741
▁tasks	-10.7413
참	-10.7418
▁요소	-10.7421
▁것인지	-10.7422
해왔다	-10.7424
▁earnest	-10.7426
일에는	-10.7426
▁차이	-10.7427
▁클럽	-10.7427
▁distributed	-10.7429
▁역대	-10.743
▁개설	-10.7431
200	-10.7431
보고	-10.7434
▁secret	-10.7436
(2	-10.7436
▁checking	-10.7437
▁composed	-10.7442
▁샘플	-10.7442
▁문서	-10.7443
▁재개	-10.7445
▁반발	-10.7445
▁Gi	-10.7449
▁flow	-10.745
▁되었습니다	-10.7452
▁expert	-10.7457
▁rural	-10.7458
▁Olympics	-10.7458
▁마치	-10.746
▁homes	-10.746
▁buses	-10.746
▁bed	-10.7466
▁frequently	-10.7467
검	-10.7468
▁비중이	-10.7471
▁차단	-10.7471
▁시장의	-10.7475
▁뉴	-10.7476
▁운영을	-10.7477
▁시작으로	-10.7478
사업을	-10.7478
여성	-10.7478
▁증시	-10.7478
▁기자회견	-10.7481
▁지방자치단체	-10.7482
▁Power	-10.7485
▁childcare	-10.7485
▁departments	-10.7489
▁상장	-10.7489
Do	-10.7489
▁행사는	-10.749
쇼	-10.7493
▁특성	-10.7494
▁efficiency	-10.7494
▁‘2018	-10.7497
▁drunk	-10.75
▁세부	-10.75
▁examine	-10.7501
▁Award	-10.7502
▁concluded	-10.7504
▁패션	-10.7504
▁반환	-10.7505
▁심의를	-10.7507
하였습니다	-10.7508
▁콘서트	-10.751
▁Jeolla	-10.7511
대의	-10.7513
▁gets	-10.7513
▁상영	-10.7513
밥	-10.7514
▁고등학교	-10.7518
▁Road	-10.7518
▁색	-10.7519
sta	-10.752
▁bottom	-10.7523
▁importance	-10.7523
▁네트워크	-10.7524
▁통계	-10.7525
▁측정	-10.7525
▁이번이	-10.7527
▁사전에	-10.7527
때	-10.7529
시까지	-10.7533
▁eventually	-10.7533
▁corporations	-10.7534
에만	-10.7538
▁자원	-10.7538
▁menu	-10.7539
▁tired	-10.7541
음을	-10.7544
공단	-10.7551
부가	-10.7551
▁이사	-10.7552
mon	-10.7553
▁느낄	-10.7555
▁페이스북	-10.7556
▁민족	-10.7559
▁힘들	-10.7564
▁damages	-10.7564
▁폼페이오	-10.757
▁desire	-10.757
▁인생	-10.7572
▁ran	-10.7576
▁murder	-10.7577
▁올린	-10.7578
pro	-10.7582
▁재판부	-10.7586
▁제품은	-10.7586
▁구글	-10.759
▁울산	-10.759
▁essential	-10.7598
▁kindergarten	-10.7599
▁Cheonan	-10.7599
▁나갈	-10.7601
▁maximum	-10.7604
▁국토교통부	-10.7604
▁포함된	-10.7605
▁본사	-10.7606
▁putting	-10.7608
으면서	-10.7608
▁typhoon	-10.7609
▁빛	-10.7609
▁김영	-10.761
class	-10.761
원을	-10.7611
▁latest	-10.7612
▁감사합니다	-10.7614
myung	-10.762
▁goals	-10.762
▁(3)	-10.7623
▁aid	-10.7624
▁이미지	-10.7625
▁39	-10.7625
▁번역	-10.7627
▁번호	-10.7628
▁loved	-10.763
▁와서	-10.7633
지로	-10.7637
▁obtain	-10.7638
듯	-10.7639
ot	-10.764
▁argued	-10.7641
▁찬	-10.7641
누	-10.7641
▁못해	-10.7643
▁dry	-10.7643
▁보존	-10.7646
▁institute	-10.7648
▁아이돌	-10.765
▁쓰레기	-10.7653
▁1000	-10.7654
▁warning	-10.7655
▁어려워	-10.7659
▁재산	-10.7667
▁완성	-10.7669
▁smile	-10.7669
▁옥	-10.7671
▁촉진	-10.7672
▁Hwa	-10.7672
▁seeing	-10.7675
gang	-10.7675
▁videos	-10.7676
ible	-10.7677
▁SBS	-10.768
▁sweet	-10.768
▁진단	-10.7684
페	-10.7685
▁listed	-10.7686
ction	-10.7686
▁believes	-10.7691
▁사랑을	-10.7692
▁premium	-10.7693
lic	-10.7694
▁Vi	-10.7694
▁아이들이	-10.7698
▁받	-10.7702
호가	-10.7702
▁stress	-10.7704
▁watched	-10.771
▁exceed	-10.7711
soon	-10.7714
밖에	-10.7714
▁통제	-10.7716
cent	-10.7722
▁탄	-10.7724
▁훼손	-10.7724
Q	-10.7726
▁achieved	-10.7728
▁있음을	-10.7732
▁심각한	-10.7733
▁Rule	-10.7733
시켰다	-10.7734
수사	-10.7735
▁Mexico	-10.7741
sh	-10.7745
▁국민연금	-10.7747
▁inconvenience	-10.7748
▁앱	-10.7749
▁음	-10.775
납	-10.7751
▁봐	-10.7753
조정	-10.7754
▁폐기물	-10.7755
장에	-10.7755
▁2,000	-10.7755
시험	-10.7755
tor	-10.7756
▁헤	-10.7761
▁틀	-10.7762
▁옮겨	-10.7763
▁주목된다	-10.7764
▁면접	-10.7765
▁1.5	-10.7768
▁외교	-10.7768
됨에	-10.777
▁학부모	-10.7773
득	-10.7775
▁지역사회	-10.7775
▁gives	-10.7776
▁측	-10.7776
▁기여	-10.7777
▁기업들	-10.7785
▁주차장	-10.7787
▁소방	-10.7788
▁국토부	-10.7788
▁글을	-10.7789
▁수는	-10.7792
째	-10.7794
▁helped	-10.7795
▁sometimes	-10.7796
꽃	-10.7797
머	-10.7801
▁난민	-10.7801
▁complaint	-10.7802
▁Supervisory	-10.7802
▁대해서도	-10.7805
▁항공	-10.7806
▁models	-10.7806
▁문화를	-10.7809
▁종류	-10.7811
▁donation	-10.7811
▁주관	-10.7813
ups	-10.7817
▁채널	-10.7817
▁designate	-10.7818
▁French	-10.7819
신고	-10.7822
▁현금	-10.7828
▁폭발	-10.7832
▁정착	-10.7832
▁CJ	-10.7832
▁포기	-10.7833
비용	-10.7833
▁위로	-10.7837
▁Wi	-10.7837
하시면	-10.7839
▁인정하는	-10.784
▁서명	-10.7843
▁문제로	-10.7843
▁suffer	-10.7848
ability	-10.7852
▁Stadium	-10.7852
공항	-10.7852
▁awareness	-10.7852
▁간의	-10.7853
▁어린	-10.7856
▁alcohol	-10.7857
명은	-10.7858
▁officially	-10.7859
▁placed	-10.7861
▁활용해	-10.7868
▁century	-10.7869
시키고	-10.787
▁emerged	-10.7871
▁시민들이	-10.7874
▁perfect	-10.7875
wing	-10.7882
▁사업은	-10.7883
▁칼	-10.7884
tion	-10.7885
▁railway	-10.7885
▁벗어나	-10.7887
▁가면	-10.7889
▁Seongnam	-10.7897
jang	-10.7899
ft	-10.7901
io	-10.7904
년도	-10.7904
▁Gyeongnam	-10.7914
▁lines	-10.7915
▁Music	-10.7915
▁haven	-10.7918
혁신	-10.7918
▁감독은	-10.7919
▁regard	-10.7921
▁Family	-10.7922
▁Ye	-10.7924
▁sentiment	-10.7925
▁거듭	-10.7925
▁일은	-10.7925
▁causes	-10.7925
▁기도	-10.7926
년에는	-10.7926
oc	-10.7926
▁West	-10.7926
국장	-10.793
ct	-10.7931
판매	-10.7935
▁island	-10.7938
이라도	-10.7938
▁올해는	-10.7939
▁도심	-10.794
▁mutual	-10.7941
▁고객이	-10.7946
▁주제	-10.7947
▁유도	-10.7949
▁충북	-10.7953
▁birthday	-10.7953
시가	-10.7955
▁priority	-10.7963
▁married	-10.7964
▁성인	-10.7966
▁풀어	-10.7966
▁cooperative	-10.7968
▁affiliated	-10.7968
▁wages	-10.797
▁Hallyu	-10.7975
국제	-10.7985
▁cosmetics	-10.7987
▁시민들	-10.7988
▁la	-10.7989
ator	-10.799
▁뜨거운	-10.7992
▁talent	-10.8
▁purchased	-10.8001
▁block	-10.8003
▁공연이	-10.8003
▁클	-10.8003
▁늘고	-10.8006
▁Car	-10.8007
개혁	-10.8009
▁맞춤형	-10.801
군이	-10.8019
▁Real	-10.8019
▁싶다	-10.8019
▁blue	-10.8021
▁근로자	-10.8021
chon	-10.8022
회가	-10.8024
▁선고	-10.8029
▁함	-10.8029
「	-10.8031
ler	-10.8032
이기도	-10.8032
▁우리에게	-10.8032
▁운	-10.8033
▁참고	-10.8035
▁전개	-10.8035
냐	-10.8041
▁비밀	-10.8041
▁분석했다	-10.8042
shi	-10.8043
▁제외	-10.8045
세가	-10.8047
▁나타나	-10.8048
▁당부했다	-10.8052
작업	-10.806
▁upper	-10.806
시설을	-10.8062
ory	-10.8063
▁confidence	-10.8067
▁Kakao	-10.8072
어야	-10.8074
사건	-10.8075
관은	-10.8075
▁경기를	-10.8082
▁fuel	-10.8083
▁조기	-10.8084
▁Ri	-10.8084
sing	-10.8087
▁방법이	-10.8088
엘	-10.8089
▁idol	-10.8089
▁마리	-10.8092
▁Inter	-10.8093
▁offering	-10.8094
▁인물	-10.8094
▁실패	-10.8094
▁사례가	-10.8097
▁범행	-10.8106
▁임대	-10.8106
▁emerging	-10.8112
▁이사장	-10.8112
▁happen	-10.8112
▁Sunday	-10.8113
▁challenge	-10.8113
▁cross	-10.8115
▁기업들이	-10.8116
▁수학	-10.812
▁Speaker	-10.8123
▁전공	-10.8128
▁그것이	-10.8128
▁금감원	-10.8129
▁advice	-10.8129
▁diplomatic	-10.813
▁들었다	-10.8131
▁farm	-10.8134
▁Paju	-10.8135
▁그런데	-10.8136
▁생각해	-10.8137
▁무엇을	-10.8143
▁formulate	-10.8146
▁Z	-10.8146
▁Would	-10.8146
▁예비	-10.8146
ub	-10.8147
▁reward	-10.8148
▁화면	-10.8149
hyeon	-10.815
여개	-10.8156
▁상품을	-10.8157
▁newspaper	-10.8157
37	-10.8158
려는	-10.8158
▁방식	-10.8159
선수	-10.8159
▁끝	-10.8166
상황	-10.8166
▁courses	-10.8167
▁출산	-10.8169
▁48	-10.8171
표를	-10.8173
▁extended	-10.8175
▁Meteorological	-10.8181
▁suitable	-10.8182
▁계기로	-10.8183
▁tea	-10.8183
▁주목	-10.8184
▁부부	-10.8186
ik	-10.8188
겠다고	-10.8188
eup	-10.8189
▁차원에서	-10.8192
▁Dynasty	-10.8192
▁expenditure	-10.8192
▁disciplinary	-10.8192
▁enjoyed	-10.8199
▁가치를	-10.8201
▁자는	-10.8201
▁흐름	-10.8203
▁진짜	-10.8204
bin	-10.8206
▁못할	-10.8209
감이	-10.821
▁커뮤니티	-10.8211
▁비즈니스	-10.8215
▁shipping	-10.8216
▁Myeong	-10.8216
▁굴	-10.8217
▁고려해	-10.8217
귀	-10.8219
국민	-10.8219
만의	-10.822
▁subjects	-10.8223
▁passing	-10.8223
▁firms	-10.8224
▁values	-10.8224
▁등장	-10.8226
▁소상공인	-10.8227
▁존	-10.8232
▁방법으로	-10.8233
▁현황	-10.8233
항제	-10.8234
▁선수가	-10.8238
▁fifth	-10.8239
전이	-10.824
▁여부	-10.8241
▁spreading	-10.8244
▁confirmation	-10.8246
▁수여	-10.8247
▁broken	-10.8248
▁팀이	-10.8249
▁appears	-10.8252
▁법정	-10.8252
▁names	-10.8253
딩	-10.8255
▁올랐다	-10.8255
▁체제	-10.8257
▁Tax	-10.8258
▁강제	-10.8259
허가	-10.826
▁나아가	-10.826
▁equipped	-10.8262
dang	-10.8263
▁race	-10.8265
▁earthquake	-10.8268
▁drugs	-10.8268
▁발송	-10.827
▁모아	-10.8274
▁직원들	-10.8278
▁곳은	-10.828
▁passengers	-10.828
▁expression	-10.8281
▁메시지를	-10.8284
씨를	-10.8284
▁포인트	-10.8287
▁차별	-10.8289
▁sectors	-10.8289
▁편성	-10.829
▁extent	-10.8291
▁요금	-10.8293
house	-10.8294
▁경기가	-10.8296
▁judged	-10.8296
▁figures	-10.8296
▁Pohang	-10.8297
▁복합	-10.8301
▁얼굴	-10.8303
▁ready	-10.8305
▁효율적인	-10.8305
됐으며	-10.8306
▁artist	-10.8307
▁execution	-10.8308
ors	-10.8309
▁transferred	-10.8309
대에	-10.8314
서울	-10.8314
▁sharp	-10.8316
▁사유	-10.8316
▁(1	-10.8318
▁2016,	-10.8319
▁농가	-10.8319
▁부산시	-10.832
▁grades	-10.8322
▁매각	-10.8323
힐	-10.8326
▁수능	-10.833
▁comfortable	-10.8332
▁이어지고	-10.8336
▁transport	-10.8337
▁lease	-10.8337
▁storage	-10.8338
▁확인하고	-10.8339
▁하게	-10.8341
▁levels	-10.8342
▁가방	-10.8344
우리	-10.8344
▁lectures	-10.8346
▁Bae	-10.8346
▁feature	-10.835
▁aware	-10.8352
▁하늘	-10.8353
▁영상을	-10.8354
▁Kwang	-10.8357
29	-10.8359
▁나눠	-10.8361
▁sample	-10.8368
같은	-10.8369
▁금액	-10.837
▁individuals	-10.8371
자료	-10.8371
▁바람	-10.8374
▁드러나	-10.8376
▁mouth	-10.8378
▁British	-10.8379
웅	-10.8384
▁저의	-10.8384
통신	-10.8387
45	-10.839
▁55	-10.8391
▁줄어들	-10.8393
▁version	-10.8396
▁pollution	-10.8396
▁특징	-10.8398
how	-10.8399
▁시간에	-10.84
전자	-10.8401
▁amendment	-10.8402
▁combined	-10.8404
코리아	-10.8405
▁녹	-10.8407
▁폭염	-10.8407
▁mostly	-10.841
▁실행	-10.8411
공연	-10.8411
하실	-10.8414
▁괜찮	-10.8414
▁건축물	-10.8415
▁unification	-10.8415
▁노출	-10.8417
▁곳에서	-10.8417
▁holidays	-10.8418
▁Christian	-10.842
▁treated	-10.842
▁sad	-10.8422
▁빼	-10.8422
▁권리	-10.8422
▁질문에	-10.8423
▁Society	-10.8426
pil	-10.8426
사항	-10.8427
▁깨	-10.8428
ag	-10.8429
▁forum	-10.843
▁계좌	-10.8431
▁돌아가	-10.8431
▁심리	-10.8434
과학	-10.8434
▁invited	-10.8435
▁stations	-10.8435
▁Actor	-10.8437
▁deadline	-10.8438
▁실시한	-10.8441
▁complexes	-10.8445
▁demanded	-10.8446
▁수리	-10.8446
등급	-10.8449
▁당초	-10.8454
▁notified	-10.8454
▁stance	-10.8455
▁colors	-10.8459
▁당일	-10.8464
▁점도	-10.8464
▁지사	-10.8466
▁contribution	-10.847
▁빚	-10.8471
▁마이크	-10.8471
▁Pompeo	-10.8473
▁suicide	-10.8473
공장	-10.8474
▁메시지	-10.8475
▁Hyo	-10.8475
▁모임	-10.8476
▁기술이	-10.8477
랐	-10.8478
▁굉장히	-10.8479
식이	-10.8482
전에	-10.849
▁필	-10.8491
▁잡고	-10.8493
▁사업자	-10.8495
▁혜택을	-10.8495
▁쓰는	-10.8497
ep	-10.8498
lin	-10.8501
▁import	-10.8503
▁Western	-10.8503
▁내고	-10.8504
원으로	-10.8504
▁hospitals	-10.8504
▁기재	-10.8505
▁거주	-10.8505
espite	-10.8509
▁comprised	-10.851
▁의도	-10.8511
▁recognition	-10.8515
▁쪽	-10.8517
개가	-10.8519
▁worry	-10.8521
▁drew	-10.8521
▁써	-10.8522
주기	-10.8524
▁능력	-10.8526
▁Jesus	-10.8527
▁ecosystem	-10.8527
ging	-10.8527
▁honor	-10.8529
over	-10.8529
▁carrying	-10.8533
▁대폭	-10.8535
있다	-10.8539
▁sluggish	-10.8539
▁shooting	-10.854
▁쌓	-10.8542
▁처분	-10.8542
께서	-10.8544
▁injury	-10.8545
되자	-10.8546
▁smooth	-10.8546
▁43	-10.8548
▁단축	-10.8549
▁SMEs	-10.855
▁Ta	-10.8551
▁districts	-10.8552
▁가능합니다	-10.8553
활동을	-10.8554
▁곳으로	-10.8555
있	-10.8558
▁operations	-10.8558
yeol	-10.8562
▁applications	-10.8565
▁delicious	-10.8569
▁BMW	-10.8569
(1	-10.857
▁있으나	-10.8571
▁분리	-10.8571
▁touch	-10.8572
▁재료	-10.8574
▁임원	-10.8575
었어요	-10.8578
진이	-10.8581
▁topic	-10.8581
▁테스트	-10.8581
ward	-10.8583
▁출범	-10.8584
▁담당자	-10.8585
5,000	-10.8586
ud	-10.8588
▁그만큼	-10.8589
턴	-10.8591
▁Company	-10.8593
▁ride	-10.8597
체계	-10.8598
▁Gwang	-10.8605
교통	-10.8606
▁채택	-10.8607
▁meals	-10.8609
여명의	-10.8611
▁개념	-10.8611
가족	-10.8613
장애인	-10.8613
32	-10.8614
▁flower	-10.8614
▁offered	-10.8615
▁싶	-10.8618
▁allowing	-10.8623
▁mail	-10.8623
ries	-10.8624
▁잡아	-10.8624
▁임시	-10.8625
함이	-10.8626
돼야	-10.8626
▁확인해	-10.8627
▁유튜브	-10.8629
▁강조	-10.8629
▁Hanwha	-10.8629
▁42	-10.863
▁충남	-10.8632
▁Star	-10.8635
법을	-10.8636
▁shops	-10.8637
▁아시안게임	-10.8638
▁Shim	-10.8638
▁surface	-10.8641
▁Yun	-10.8642
▁actions	-10.8642
▁lowest	-10.8644
▁map	-10.8647
▁치료를	-10.8648
▁끌고	-10.8648
▁sp	-10.8649
▁Have	-10.8651
▁뇌	-10.8652
▁토론	-10.8655
▁열정	-10.8655
사고	-10.8656
▁더불어	-10.8659
ite	-10.8663
▁performing	-10.8665
▁꿈을	-10.8665
번째	-10.8667
▁비중	-10.8667
▁눈이	-10.8668
▁상처	-10.8668
▁maintained	-10.8669
▁mixed	-10.8681
▁rock	-10.8681
▁있으니	-10.8681
겠지만	-10.8683
▁가슴	-10.8696
▁code	-10.8698
▁flowers	-10.8699
▁proportion	-10.87
▁claims	-10.8701
▁그를	-10.871
▁entrust	-10.8711
▁화장실	-10.8712
최	-10.8712
의원	-10.8719
▁feelings	-10.872
점검	-10.8722
▁시범	-10.8722
▁Seocho	-10.8723
▁뿐만	-10.8727
▁Changwon	-10.8729
▁법적	-10.873
▁competitive	-10.873
▁이끄는	-10.8732
▁지켜	-10.8736
▁학교에	-10.8736
먹	-10.8736
▁procedure	-10.8737
▁gain	-10.8741
▁정원	-10.8741
▁se	-10.8742
▁지불	-10.8742
▁취득	-10.8745
방법	-10.8747
▁통해서	-10.8749
▁자극	-10.8753
려면	-10.8757
▁5,000	-10.8758
▁올림픽	-10.8759
▁obtained	-10.8765
▁statutes	-10.8765
▁전부터	-10.8772
결과	-10.8772
▁담겨	-10.8775
▁첨부	-10.8776
주민	-10.8777
▁맞이	-10.8778
관을	-10.8781
▁생각하는	-10.8784
▁cooking	-10.8786
▁dark	-10.8786
▁시선	-10.8791
▁미치는	-10.8792
▁promise	-10.8792
▁힘이	-10.8793
▁유리	-10.8795
par	-10.8795
▁없어서	-10.8799
▁공개했다	-10.8799
상의	-10.8799
과장	-10.8803
▁대학교	-10.8804
▁쇼핑	-10.8804
▁수석	-10.8804
▁contributed	-10.8804
▁customized	-10.8805
▁suspicions	-10.8807
ny	-10.8809
▁기상청	-10.8809
사랑	-10.8811
▁혼	-10.8812
▁guidelines	-10.8812
▁여의도	-10.8812
▁넣어	-10.8813
▁초대	-10.8814
▁덜	-10.8815
▁찬성	-10.8815
▁hydrogen	-10.8818
▁조작	-10.8823
▁요구하는	-10.8823
▁Operation	-10.8824
▁학생이	-10.8826
소를	-10.8826
▁둔화	-10.8827
▁articles	-10.8827
▁같은데	-10.8828
▁YouTube	-10.8828
▁negotiation	-10.8829
▁naturally	-10.8832
CC	-10.8835
▁시청자들	-10.8836
▁하나로	-10.8837
▁지원에	-10.8839
계획을	-10.8839
▁contracts	-10.884
▁유해	-10.8841
심사	-10.8844
▁nearly	-10.8848
▁Zone	-10.8849
▁시위	-10.8849
▁diverse	-10.8855
▁야당	-10.8859
▁conflicts	-10.8859
핑	-10.886
▁charm	-10.8861
▁여당	-10.8862
▁이제는	-10.8863
시행	-10.8864
궁	-10.8865
▁보이지	-10.8869
▁Lu	-10.887
계약	-10.887
gra	-10.8872
▁초등학교	-10.8873
▁위원회는	-10.8873
▁밑	-10.8875
ven	-10.8877
▁bonds	-10.888
▁자리에	-10.888
▁Bong	-10.8881
▁쌀	-10.8885
▁identified	-10.8885
▁phenomenon	-10.8885
▁efficiently	-10.8886
호의	-10.8891
▁reply	-10.8891
▁야구	-10.8892
▁slightly	-10.8893
갔	-10.8898
AI	-10.8898
▁signing	-10.8898
▁represent	-10.8901
▁그녀가	-10.8901
Korea	-10.8909
▁기소	-10.8912
rea	-10.8912
ger	-10.8913
shin	-10.8915
▁총괄	-10.8916
▁Marine	-10.8918
▁Global	-10.8921
ya	-10.8921
▁destination	-10.8922
▁exclusive	-10.8924
과정	-10.8925
▁여성이	-10.8925
▁Love	-10.8926
▁이유를	-10.8927
▁통하여	-10.8929
▁3,000	-10.8929
▁gathering	-10.8932
▁Wednesday	-10.8932
치료	-10.8934
청소년	-10.8935
▁Yeouido	-10.8935
▁국내에서	-10.8936
▁아니면	-10.8937
▁옆	-10.8938
▁일본의	-10.8941
▁connect	-10.8943
▁careful	-10.8945
▁bear	-10.8949
▁차관	-10.8952
▁복귀	-10.8954
▁예정입니다	-10.8962
▁mission	-10.8963
▁concentrated	-10.8963
군요	-10.8965
▁여러분	-10.8966
▁투어	-10.8966
▁Academy	-10.8966
▁백악관	-10.8966
▁Gangneung	-10.8966
시킨	-10.8968
▁predict	-10.897
▁canceled	-10.8971
몰	-10.8971
▁유입	-10.8973
▁입은	-10.8976
▁상징	-10.8979
▁hike	-10.8979
▁sc	-10.8984
시간을	-10.8984
▁Philippines	-10.8984
▁promised	-10.8985
300	-10.8985
▁ruled	-10.8987
호서식에	-10.8987
호서식의	-10.8989
▁모색	-10.8991
겠어요	-10.8991
cing	-10.8992
act	-10.8993
▁pushing	-10.8993
▁Ex	-10.8996
▁penalty	-10.8997
▁당사자	-10.8998
▁전망된다	-10.9001
▁사이에서	-10.9003
31	-10.9004
드는	-10.9004
law	-10.9006
▁한국을	-10.9007
▁당신과	-10.9011
▁법원	-10.9013
▁덕	-10.9014
▁않게	-10.9016
ery	-10.9016
▁rapid	-10.9018
▁건의	-10.9019
혼	-10.9019
▁Bang	-10.9019
▁대선	-10.9021
▁총장	-10.9022
▁싶은데	-10.9022
▁70%	-10.9023
식품	-10.9028
▁누군가	-10.9029
▁벌써	-10.9029
▁사유가	-10.9029
▁트	-10.9029
▁로봇	-10.9029
▁meantime	-10.903
▁enterprise	-10.903
▁찾은	-10.9031
▁높아지고	-10.9035
▁정부와	-10.9037
▁Apple	-10.9037
▁본인	-10.9037
▁점차	-10.904
▁ministry	-10.9041
리아	-10.9044
▁계정	-10.9046
부서의	-10.9046
▁토대로	-10.9048
36	-10.9048
▁임기	-10.9049
라인	-10.905
탁	-10.905
▁시청	-10.9051
▁느낌	-10.9052
되도록	-10.9052
▁대학생	-10.9053
▁대사	-10.9055
▁전망이	-10.9056
▁전년	-10.9059
▁떨어진	-10.906
▁ease	-10.906
▁involving	-10.906
style	-10.906
▁grant	-10.906
cha	-10.906
▁박물관	-10.9062
경영	-10.9062
▁바이오	-10.9068
▁하였다	-10.9068
▁convenient	-10.9068
▁declared	-10.9068
▁관광객	-10.907
▁awarded	-10.9071
▁Chun	-10.9073
▁현행	-10.9077
▁이어졌다	-10.9078
▁seal	-10.9079
▁teenagers	-10.9079
▁uses	-10.9079
▁44	-10.9079
▁불과	-10.908
▁파견	-10.908
▁Free	-10.9081
▁위원장의	-10.9084
▁football	-10.9085
▁250	-10.9088
▁Motors	-10.9089
▁either	-10.9092
▁aged	-10.9094
신문	-10.9094
▁예고	-10.91
▁예산을	-10.9101
▁팬들이	-10.9102
▁산불	-10.9102
▁Che	-10.9103
▁받기	-10.9106
▁추석	-10.911
▁subsidy	-10.911
▁충돌	-10.9111
▁Workers	-10.9111
▁한국은	-10.9113
▁가치가	-10.9114
▁athletes	-10.9115
ative	-10.9115
▁wake	-10.9117
▁활용한	-10.9119
이야	-10.9121
▁연휴	-10.9121
▁사용료	-10.9124
해진	-10.9125
▁설치된	-10.9126
He	-10.9126
전략	-10.9127
▁Community	-10.9129
▁Chuseok	-10.913
▁진행되는	-10.9132
▁successfully	-10.9132
받는	-10.9135
기록	-10.9136
이어서	-10.9136
▁Hu	-10.9136
▁franchise	-10.9142
▁inevitable	-10.9142
▁지속적인	-10.9142
▁감정	-10.9143
nu	-10.9144
▁진료	-10.9145
▁원칙	-10.9146
▁축소	-10.9147
▁정신	-10.915
▁factor	-10.9151
▁캐	-10.9155
▁배달	-10.9156
타운	-10.9158
▁medal	-10.9159
▁점은	-10.9159
실적	-10.9161
▁tournament	-10.9161
▁생일	-10.9162
었지만	-10.9166
▁시장을	-10.9166
▁regret	-10.9168
▁prime	-10.9168
▁몽골	-10.9168
▁좋겠다	-10.917
▁보유	-10.9172
▁합동	-10.9173
▁초반	-10.9174
▁Yongin	-10.9179
리를	-10.918
▁사기	-10.9181
bong	-10.9182
▁마감	-10.9183
▁관내	-10.9184
]	-10.9187
▁본격	-10.9188
▁closely	-10.9191
▁잠시	-10.9192
ick	-10.9193
▁Ansan	-10.9193
까지는	-10.9193
▁착용	-10.9195
▁exposed	-10.92
파크	-10.9201
38	-10.9201
▁shareholders	-10.9203
▁Du	-10.9203
▁이전에	-10.9204
▁앞둔	-10.9206
▁품목	-10.921
cy	-10.9211
▁이메일	-10.9211
▁돌아	-10.9212
상태	-10.9216
물이	-10.9217
▁80%	-10.9218
▁Medium	-10.9219
▁losing	-10.9219
▁입을	-10.9225
▁solid	-10.9225
▁managing	-10.9226
▁숨진	-10.9227
슈	-10.9227
▁신호	-10.9228
▁한정	-10.9228
▁수당	-10.9228
▁rating	-10.923
▁Yongsan	-10.9231
▁spending	-10.9232
▁의미를	-10.9232
▁deliberate	-10.9233
▁plays	-10.9234
랜	-10.9234
▁향한	-10.9236
▁studies	-10.9238
▁풀이된다	-10.9238
▁Forest	-10.924
▁operators	-10.9243
▁fiscal	-10.9244
▁부회장	-10.9247
▁engaged	-10.9249
▁d	-10.925
▁늘어난	-10.9254
▁corner	-10.9257
었	-10.9258
금리	-10.9258
▁mass	-10.926
▁40%	-10.926
ph	-10.926
스는	-10.926
▁티	-10.926
▁성폭력	-10.9261
▁Agriculture	-10.9264
▁제정	-10.9264
▁홈	-10.9265
▁하되	-10.9268
▁grand	-10.927
▁collapse	-10.927
▁Mun	-10.9272
▁wedding	-10.9272
▁보여주는	-10.9275
▁나중에	-10.9277
▁국회에서	-10.9277
▁sun	-10.928
▁사람에게	-10.928
▁dropped	-10.9283
▁폭력	-10.9287
▁Other	-10.9289
▁문제에	-10.9291
랜드	-10.9292
▁의원의	-10.9292
▁vision	-10.9293
▁정권	-10.9295
▁buying	-10.9295
▁이탈리아	-10.9296
▁이슈	-10.9302
▁statistics	-10.9302
▁imposed	-10.9308
▁승인을	-10.931
▁DMZ	-10.9313
▁organize	-10.9313
▁최초	-10.9314
▁고소	-10.9314
▁fill	-10.9316
▁자신들	-10.9318
▁이름이	-10.9322
▁내린	-10.9324
▁적지	-10.9324
장치	-10.9325
위는	-10.9326
잡	-10.9327
hak	-10.9327
▁boost	-10.9329
▁직원이	-10.933
시면	-10.9331
▁grown	-10.9334
▁tariffs	-10.9338
▁후보가	-10.9339
▁weapons	-10.9339
▁이른바	-10.9341
joo	-10.9344
▁보조금	-10.9347
▁pilot	-10.9347
▁stability	-10.9354
▁중간	-10.9354
대는	-10.9358
▁이용하는	-10.936
▁댓글	-10.936
▁handed	-10.9362
▁뒤에	-10.9368
▁한인	-10.937
▁특허	-10.9371
▁hiring	-10.9373
진흥	-10.9374
▁수십	-10.9375
▁Brazil	-10.9379
▁불리는	-10.938
▁Bureau	-10.938
▁gained	-10.9382
▁구단	-10.9383
▁검색	-10.9384
▁서류를	-10.9385
▁지휘	-10.9387
▁테	-10.9387
▁입법	-10.9389
풀	-10.9389
▁밖의	-10.939
▁불가능	-10.9391
▁covered	-10.9392
▁leisure	-10.9393
▁unusual	-10.9393
▁remove	-10.9393
▁Unification	-10.9393
홀	-10.9396
▁losses	-10.9397
ral	-10.9399
▁놀이	-10.94
면서도	-10.9401
▁찾을	-10.9402
▁기독교	-10.9404
▁국민의	-10.9405
▁Temple	-10.9412
▁religious	-10.9412
▁여유	-10.9413
지수	-10.9417
▁관련하여	-10.9417
▁세계적인	-10.9418
▁blind	-10.9419
▁army	-10.9421
ever	-10.9422
▁교수가	-10.9425
▁지점	-10.9425
▁funeral	-10.9425
▁이것이	-10.9426
하면서도	-10.9427
▁관계를	-10.9428
▁휴식	-10.9428
▁집회	-10.9428
▁독서	-10.9428
▁resolved	-10.9428
▁flag	-10.943
▁begun	-10.9431
▁증가한	-10.9433
▁farms	-10.9433
▁일어나	-10.9436
▁deem	-10.9438
▁대상자	-10.9439
▁공정위	-10.9439
▁달하는	-10.944
▁형사	-10.9441
선거	-10.9443
▁떨어져	-10.9443
▁disposal	-10.9445
▁있었지만	-10.9446
▁containing	-10.9447
▁100,000	-10.9448
▁powerful	-10.9451
▁Thailand	-10.9452
▁Tokyo	-10.9452
▁끼	-10.9452
▁크	-10.9459
▁multiple	-10.946
▁추세	-10.946
▁monitoring	-10.9463
▁노원구	-10.9465
▁replace	-10.9465
▁initial	-10.9467
▁이용한	-10.9471
▁opponent	-10.9471
▁외에도	-10.9472
▁미군	-10.9472
34	-10.9476
▁안전한	-10.9476
▁degree	-10.9477
▁강의	-10.9478
▁펀드	-10.948
ping	-10.948
▁진화	-10.9482
▁코스	-10.9482
▁경계	-10.9487
▁evaluated	-10.949
현장	-10.9493
▁산하	-10.9494
▁명예	-10.9495
▁semester	-10.9498
▁engine	-10.9498
▁장점	-10.95
마저	-10.9501
▁받게	-10.9502
▁dialogue	-10.9504
▁soft	-10.9507
▁실내	-10.9512
▁소식을	-10.9514
▁Beijing	-10.9517
▁Innovation	-10.9517
▁supervision	-10.9517
졌습니다	-10.9518
▁제출한	-10.9518
▁경기도의	-10.952
▁올려	-10.9522
▁경우에	-10.9523
▁Army	-10.9524
▁입증	-10.9525
▁Dr	-10.9527
▁voices	-10.953
▁Gyeongsangnam	-10.9531
▁Amid	-10.9531
▁Board	-10.9537
미국	-10.9537
▁목표로	-10.9539
▁비용이	-10.9546
▁연극	-10.9547
▁법령	-10.9549
▁출입	-10.955
건의	-10.955
▁catch	-10.9551
▁단어	-10.9551
▁학생들	-10.9552
▁Q	-10.9553
▁쉬	-10.9554
▁생태계	-10.9556
▁골프	-10.9557
Z	-10.9557
▁sit	-10.9557
▁수준의	-10.9557
▁2004	-10.9561
▁경비	-10.9562
▁Engineering	-10.9564
▁생존	-10.9564
교육청	-10.9566
▁cleaning	-10.9566
▁근로	-10.9566
ko	-10.9567
49	-10.9569
▁따뜻한	-10.957
▁isn	-10.9572
▁대거	-10.9573
▁둘러싼	-10.9577
휴	-10.9578
▁dishes	-10.9579
▁질환	-10.9579
▁무료로	-10.958
▁k	-10.958
55	-10.9581
▁narrow	-10.9582
▁extension	-10.9583
▁straight	-10.9583
맨	-10.9584
IT	-10.9584
▁이끌어	-10.9585
▁sudden	-10.9585
▁마약	-10.9587
▁imp	-10.9589
▁cards	-10.959
프로그램	-10.959
▁sky	-10.959
학생	-10.9592
▁세금	-10.9593
▁sharply	-10.9595
▁easier	-10.9597
▁voting	-10.9597
▁옷을	-10.9597
▁Vietnamese	-10.9597
▁찾고	-10.9597
▁사무실	-10.9598
fo	-10.9603
▁Planning	-10.9604
▁협업	-10.9604
해주는	-10.9605
ear	-10.9605
▁bills	-10.9607
▁분쟁	-10.9607
▁사업의	-10.961
▁combination	-10.961
▁tests	-10.961
다른	-10.9613
▁비율이	-10.9616
▁revitalize	-10.9617
fa	-10.9619
▁blocked	-10.9619
▁College	-10.9623
▁주력	-10.9624
▁만들었다	-10.9626
자동차	-10.9627
▁부담을	-10.9629
▁눈물	-10.9629
▁Urban	-10.963
▁한화	-10.9633
ui	-10.9637
▁이웃	-10.964
▁낼	-10.9643
▁bridge	-10.9643
▁river	-10.9645
▁Care	-10.9645
▁그건	-10.9645
▁풍부한	-10.9646
46	-10.9646
체육	-10.9647
▁carefully	-10.9649
▁satisfaction	-10.965
▁actress	-10.965
▁작품을	-10.9651
▁탄생	-10.9651
▁competent	-10.9652
▁41	-10.9652
▁소식이	-10.9656
▁생각해요	-10.9657
yeong	-10.9659
tter	-10.9661
▁advertising	-10.9663
린다	-10.9664
▁vi	-10.9666
▁자리에서	-10.9667
▁들어서	-10.9668
군의	-10.967
▁자랑	-10.9673
▁Chi	-10.9675
mail	-10.9676
▁signal	-10.9676
▁엄	-10.9676
▁fraud	-10.9677
▁litigation	-10.9677
▁경기도지사	-10.968
(3	-10.9681
팀이	-10.9682
▁영향으로	-10.9682
▁identity	-10.9683
▁강하게	-10.9684
▁Two	-10.9691
줬	-10.9692
▁회장은	-10.9695
▁Im	-10.9696
▁municipal	-10.9697
콘	-10.9698
▁Gangseo	-10.9698
▁분위기를	-10.9698
됐다고	-10.9698
차량	-10.9698
▁제조업	-10.9701
▁detail	-10.9703
▁continuing	-10.9704
▁fierce	-10.9706
▁cook	-10.9706
▁검	-10.9708
▁행복한	-10.9709
▁channel	-10.9711
노동	-10.9712
▁과목	-10.9712
▁영향	-10.9716
▁familiar	-10.9717
▁현재까지	-10.972
▁무리	-10.972
▁권력	-10.9721
육	-10.9722
▁Mar	-10.9723
라운드	-10.9723
▁gaining	-10.9724
▁해양	-10.9725
▁시스템을	-10.9727
Kim	-10.9728
사무	-10.9729
▁찾기	-10.973
ea	-10.973
▁외교부	-10.9731
▁업종	-10.9731
▁Senior	-10.9732
▁super	-10.9732
▁실시한다	-10.9734
▁측이	-10.9737
▁Administrative	-10.9737
▁진행됐다	-10.9741
▁없지만	-10.9742
▁이유다	-10.9742
▁investigated	-10.9743
▁pretty	-10.9744
▁돈이	-10.9744
▁drivers	-10.9745
▁asset	-10.9745
방식	-10.9746
▁충전	-10.9748
베이	-10.9748
▁긍정적인	-10.9749
▁말해	-10.975
▁2002	-10.9753
▁rejected	-10.9753
▁시설물	-10.9753
▁가족이	-10.9756
▁Declaration	-10.9757
os	-10.976
▁표준	-10.9761
▁숲	-10.9764
▁탑승	-10.9765
▁sick	-10.9765
▁남성이	-10.9766
▁Big	-10.9767
느냐	-10.9768
ight	-10.9768
▁환영	-10.9768
▁Town	-10.9771
▁아마	-10.9772
▁인재	-10.9776
▁revolution	-10.9778
▁문제점	-10.9779
▁소장	-10.978
▁Home	-10.9781
▁저도	-10.9781
kyu	-10.9783
▁가졌다	-10.9783
▁했다고	-10.9784
▁acts	-10.9787
▁공동으로	-10.979
gen	-10.9791
▁이같이	-10.9791
지면서	-10.9792
▁dispatched	-10.9796
▁날이	-10.9798
▁Ne	-10.9799
앤	-10.9799
▁ones	-10.98
접	-10.98
ren	-10.9803
▁brands	-10.9807
▁Cheongju	-10.981
▁형태로	-10.9811
▁경고	-10.9812
▁사이즈	-10.9815
tan	-10.9816
▁Moo	-10.9817
▁stadium	-10.9818
나는	-10.9819
여명	-10.982
▁Until	-10.9825
▁villages	-10.9826
▁인공지능	-10.9826
▁반응	-10.9828
▁charged	-10.983
▁마음에	-10.983
▁투자자	-10.983
▁recruit	-10.9831
▁2017,	-10.9832
▁heritage	-10.9832
▁residence	-10.9832
▁결합	-10.9833
▁긴장	-10.9834
eng	-10.9837
▁결과에	-10.9837
▁이중	-10.9837
▁Strategy	-10.9839
▁본격적	-10.984
▁알려주세요	-10.984
▁시정	-10.9847
▁invested	-10.9847
▁Citizens	-10.9849
▁쓰고	-10.9849
▁인하	-10.9851
▁introducing	-10.9852
▁downtown	-10.9853
▁뛰어난	-10.9853
ology	-10.9853
▁이뤄질	-10.9853
셨	-10.9853
▁결정을	-10.9854
▁시책	-10.9857
▁realized	-10.9858
▁Plan	-10.9858
ned	-10.986
▁프로그램이	-10.9861
▁extreme	-10.9861
▁신용	-10.9862
게요	-10.9865
▁smartphones	-10.9865
▁facing	-10.9866
▁responded	-10.9867
▁publicly	-10.9868
▁beer	-10.987
▁왔	-10.987
만한	-10.9875
▁comply	-10.9877
전에서	-10.9878
▁cat	-10.9878
▁자율	-10.9879
▁법무부	-10.9879
▁bureau	-10.988
▁quantity	-10.988
▁aging	-10.9881
시티	-10.9883
▁Hwaseong	-10.9887
▁bigger	-10.9888
▁refers	-10.9889
▁파티	-10.989
▁징역	-10.9892
▁캠페인	-10.9894
▁편지	-10.9895
▁관할	-10.9897
▁별로	-10.9898
▁partner	-10.9898
▁pleasant	-10.99
▁entrustment	-10.9901
tr	-10.9904
▁다리	-10.9904
▁옆에	-10.9904
▁mistake	-10.9907
▁학생들의	-10.9909
▁exceeded	-10.991
▁올라가	-10.9912
▁한국이	-10.9914
▁Attention	-10.9914
▁smoke	-10.9914
▁당국	-10.9914
▁애플	-10.9915
pped	-10.9916
seon	-10.9917
▁플	-10.9917
▁fit	-10.9918
▁모습	-10.9918
▁Hi	-10.9918
내는	-10.992
▁securing	-10.9921
▁바라	-10.9921
▁동반	-10.9921
▁구현	-10.9925
▁그게	-10.9927
▁Disaster	-10.9928
▁purchasing	-10.9928
▁하반기	-10.9929
▁bags	-10.993
pon	-10.993
▁Housing	-10.9934
▁permanent	-10.9934
▁differences	-10.9935
▁continuous	-10.9937
▁높	-10.9937
33	-10.994
사무소	-10.994
▁Washington	-10.9941
쳤	-10.9941
▁Show	-10.9942
▁청원	-10.9945
▁analyze	-10.9948
▁추정	-10.9949
▁늦어	-10.9955
▁capabilities	-10.9955
▁개봉	-10.9958
칙	-10.9958
선이	-10.9959
▁분류	-10.9961
▁adjust	-10.9961
▁준다	-10.9962
▁Bridge	-10.9963
▁legislation	-10.9969
▁소유	-10.9969
▁선출	-10.9973
▁Especially	-10.9976
▁detected	-10.998
▁Job	-10.998
▁발전을	-10.9983
▁aircraft	-10.9983
rate	-10.9984
▁추진하고	-10.9986
▁Independence	-10.999
▁perspective	-10.999
기지	-10.9991
▁turning	-10.9991
▁질병	-10.9993
▁Street	-10.9996
▁뿌리	-10.9997
▁때도	-10.9997
▁king	-10.9997
▁경기에서	-10.9997
▁폐기	-10.9998
▁제약	-10.9998
습니까	-10.9999
▁둔다	-11.0001
▁지원한다	-11.0003
▁acquisition	-11.0003
▁Matters	-11.0003
▁originally	-11.0005
▁필요합니다	-11.0007
▁이목	-11.0009
▁선정된	-11.0012
▁고급	-11.0012
▁requirements	-11.0012
했어	-11.0013
▁봤다	-11.0015
▁방북	-11.0017
▁Gyeongbuk	-11.0018
ual	-11.0019
▁imported	-11.002
▁Ka	-11.002
항공	-11.0022
렬	-11.0022
권이	-11.0024
▁singing	-11.0025
ray	-11.0027
▁images	-11.0028
ple	-11.0031
▁마치고	-11.0031
▁whenever	-11.0032
▁receives	-11.0034
▁recognize	-11.004
▁선박	-11.0045
▁memorial	-11.0045
▁winner	-11.005
▁Christmas	-11.0052
▁troops	-11.0052
▁Pension	-11.0052
▁싸	-11.0053
▁심화	-11.0054
ists	-11.0057
39	-11.0058
person	-11.0063
▁comfort	-11.0065
▁exemption	-11.0067
book	-11.0068
oriented	-11.0073
▁utilize	-11.0073
로운	-11.0076
▁prosecutors	-11.0077
ern	-11.0078
▁peak	-11.008
▁따라서	-11.008
갈수록	-11.0089
중국	-11.009
지원센터	-11.0091
▁증명	-11.0091
▁의무	-11.0092
▁개발한	-11.0093
▁gone	-11.0094
cheol	-11.0094
▁꼽	-11.0096
▁page	-11.0097
row	-11.0103
▁오른쪽	-11.0104
▁아는	-11.0104
▁노후	-11.0105
▁각자	-11.0107
▁부모님	-11.0108
44	-11.0108
▁진실	-11.011
▁talked	-11.0111
▁plenary	-11.0115
▁지역은	-11.0117
조선	-11.0118
▁진로	-11.012
▁머	-11.012
했	-11.0121
▁지명	-11.0123
sis	-11.0123
▁정의	-11.0125
▁tons	-11.0126
▁명절	-11.0126
▁payments	-11.0126
▁푸	-11.0126
▁자동	-11.0128
▁다음달	-11.013
▁대하여는	-11.0132
▁문화예술	-11.0132
▁agriculture	-11.0136
▁gate	-11.0136
▁목사	-11.0137
▁바꿔	-11.0138
▁daycare	-11.0138
▁patent	-11.014
디자인	-11.0142
▁마친	-11.0142
▁검찰에	-11.0143
▁여론	-11.0143
▁category	-11.0143
▁종이	-11.0145
▁protest	-11.0147
ification	-11.0147
▁Dan	-11.0147
▁merchants	-11.0149
▁선생님	-11.0149
▁dangerous	-11.015
▁brain	-11.0152
군수	-11.0152
▁당선	-11.0155
▁효	-11.0156
▁marine	-11.0157
▁filming	-11.0158
▁singers	-11.0159
ard	-11.0161
▁reasonable	-11.0163
▁기획재정부	-11.0164
▁Design	-11.0164
▁호응	-11.0164
ue	-11.0169
리스	-11.017
▁부처	-11.0172
▁returning	-11.0173
▁학원	-11.0174
▁centered	-11.0175
AR	-11.0179
됐다는	-11.0182
▁2015,	-11.0183
▁rally	-11.0185
▁Regional	-11.0186
▁간담회	-11.0186
▁농촌	-11.0186
▁공기	-11.0187
▁helps	-11.0189
▁현대차	-11.0191
ze	-11.0191
▁Industries	-11.0192
▁현상이	-11.0192
했는지	-11.0198
48	-11.0199
따	-11.0199
pping	-11.0201
▁가스	-11.0202
▁아직도	-11.0202
▁1990	-11.0202
▁운영할	-11.0205
▁가량	-11.0208
해질	-11.0212
▁많고	-11.0212
▁replaced	-11.0213
▁landscape	-11.0213
예산	-11.0213
▁서울대	-11.0214
▁추진할	-11.0216
▁citizen	-11.0217
부를	-11.0219
point	-11.0219
▁consent	-11.0221
▁여성의	-11.0221
집니다	-11.0222
▁principal	-11.0225
되기도	-11.0225
▁면제	-11.0227
▁demands	-11.0229
▁단독	-11.0229
▁지원이	-11.0232
▁연습	-11.0232
▁applicant	-11.0233
▁데다	-11.0233
▁강연	-11.0235
▁바에	-11.024
께	-11.0244
▁발달	-11.0244
보건	-11.0244
▁greater	-11.0246
기와	-11.0247
▁window	-11.0248
▁덕분에	-11.0249
▁혼란	-11.025
▁않았습니다	-11.025
일이	-11.025
이라면	-11.0251
▁miss	-11.0252
실에서	-11.0254
▁strategic	-11.0256
▁replacement	-11.0257
yo	-11.0258
▁Water	-11.0259
car	-11.0261
▁낳	-11.0264
hour	-11.0267
59	-11.0268
▁현안	-11.027
▁침	-11.0271
gye	-11.0274
win	-11.0274
▁linked	-11.0275
▁분야의	-11.0277
▁raw	-11.0278
light	-11.0278
증을	-11.0278
▁응답	-11.0278
▁investments	-11.0279
▁원을	-11.028
▁Malaysia	-11.028
하라고	-11.0283
▁교부	-11.0284
▁spokesman	-11.0284
▁축	-11.0285
조사를	-11.0286
▁researchers	-11.0286
▁효율적으로	-11.0288
▁simply	-11.0291
▁방문한	-11.0293
▁pray	-11.0296
▁않았지만	-11.03
▁올렸다	-11.0301
평화	-11.0303
67	-11.0303
▁영어를	-11.0306
▁담아	-11.0307
▁일자리를	-11.0307
▁평가했다	-11.0308
▁조절	-11.0308
▁진행한다	-11.0309
▁일주일	-11.031
▁쇼	-11.0312
웠다	-11.0313
▁w	-11.0314
▁주기	-11.0316
▁allowances	-11.0317
fer	-11.0318
▁passenger	-11.0319
▁조명	-11.0319
▁Jeollanam	-11.032
▁comp	-11.0321
▁장르	-11.0323
▁본격적으로	-11.0325
▁전망했다	-11.0327
▁composition	-11.0327
▁장치	-11.0327
▁침해	-11.0329
▁입지	-11.033
▁discrimination	-11.0334
▁happiness	-11.0334
▁noise	-11.0337
▁behalf	-11.034
▁fruit	-11.034
▁wild	-11.0341
▁thank	-11.0341
low	-11.0341
제한	-11.0341
▁height	-11.0343
가량	-11.0347
sook	-11.0347
▁dismissed	-11.0352
▁주최	-11.0355
▁knew	-11.0355
▁즉	-11.0356
▁안보	-11.0358
▁Red	-11.036
▁trends	-11.036
▁필수	-11.036
pyo	-11.0362
▁대부분이	-11.037
▁분위기가	-11.0372
▁소집	-11.0373
위로	-11.0376
게임	-11.0376
▁cafe	-11.0377
▁어디서	-11.0377
ants	-11.0377
▁helping	-11.0378
세계	-11.0379
하니	-11.0384
▁adjustment	-11.0384
▁고위	-11.0384
▁맡은	-11.0384
해지고	-11.0385
▁wasn	-11.0389
자들의	-11.039
▁monitor	-11.0393
▁handling	-11.0394
놀이	-11.0395
▁attempt	-11.0398
back	-11.04
ded	-11.0402
▁감시	-11.0404
솔	-11.0406
▁belonging	-11.0411
▁shoes	-11.0412
▁Lo	-11.0413
▁상태다	-11.0413
스포츠	-11.0413
field	-11.0414
▁내렸다	-11.0415
▁기간이	-11.0416
▁직전	-11.0421
▁ordinance	-11.0427
▁relief	-11.0427
▁건조	-11.0427
경찰서	-11.0429
▁저장	-11.043
▁한글	-11.043
▁작동	-11.0433
▁specified	-11.0435
rn	-11.0435
▁편의	-11.0437
▁장식	-11.0442
▁휘	-11.0444
▁제목	-11.0446
▁아기	-11.0449
▁worse	-11.0451
▁거주하는	-11.0451
▁Huawei	-11.0456
▁공무원이	-11.0457
▁구청장	-11.0463
▁empty	-11.0464
회관	-11.0464
」(	-11.0464
▁한식	-11.0466
▁unlike	-11.0467
▁행사에	-11.0469
▁대처	-11.0471
▁listening	-11.0471
▁신체	-11.0471
▁Bio	-11.0473
▁것이란	-11.0473
▁영역	-11.0474
▁keen	-11.0478
employed	-11.0478
▁crackdown	-11.0478
▁할머니	-11.0478
▁왼쪽	-11.0478
▁freely	-11.0479
▁차지했다	-11.048
▁adults	-11.048
▁영양	-11.048
▁소관	-11.0481
▁옛	-11.0484
▁steel	-11.0485
밤	-11.0487
▁체포	-11.0488
lar	-11.049
시대	-11.0492
▁동생	-11.0493
▁접촉	-11.0494
▁활용할	-11.0494
▁가시	-11.0496
▁Koo	-11.0496
64	-11.0496
▁점심	-11.0498
조직	-11.0498
▁link	-11.0501
부문	-11.0504
▁approach	-11.0507
▁아빠	-11.0508
▁진행하고	-11.0509
▁widely	-11.0509
스를	-11.0512
▁않기	-11.0512
▁curriculum	-11.0514
생산	-11.0515
gg	-11.0515
▁류	-11.0517
▁FC	-11.0517
▁되기	-11.052
sure	-11.0521
ile	-11.0522
▁관계가	-11.0524
▁counter	-11.0526
▁다니	-11.0529
▁disappeared	-11.0529
▁friendly	-11.0532
치고	-11.0533
▁forget	-11.0534
77	-11.0535
▁guard	-11.0535
▁맥주	-11.0537
자인	-11.0538
▁temple	-11.0539
▁1980	-11.0539
리에	-11.054
▁수익	-11.0541
▁annually	-11.0542
▁별도의	-11.0542
▁recover	-11.0543
▁extend	-11.0545
▁urged	-11.0546
▁Only	-11.0547
▁dish	-11.0547
컬	-11.0549
▁Military	-11.0551
▁ranking	-11.0551
▁비교적	-11.0551
▁화웨이	-11.0551
▁운전자	-11.0553
▁Jongno	-11.0555
▁급증	-11.0557
66	-11.0558
▁왜냐하면	-11.0558
▁Head	-11.0563
▁Singer	-11.0566
▁공동주택	-11.0567
▁Store	-11.0573
▁제공한다	-11.0575
▁provinces	-11.0575
▁동기	-11.0576
경찰	-11.0578
▁말하는	-11.0579
ᆞ	-11.058
▁Experts	-11.058
▁시내	-11.058
▁첨단	-11.0583
분이	-11.0584
▁wonder	-11.0586
▁however	-11.059
사업자	-11.0592
▁leads	-11.0592
▁spaces	-11.0597
▁폭로	-11.0599
▁requests	-11.0601
cre	-11.0603
▁통상	-11.0603
▁wins	-11.0603
탑	-11.0604
등록	-11.0605
▁비리	-11.0607
▁부르	-11.0607
▁제공하고	-11.0608
▁positions	-11.0609
▁shipment	-11.0612
▁물질	-11.0613
미가	-11.0614
▁회사가	-11.0614
자리	-11.0615
▁조사됐다	-11.0615
▁준수	-11.0616
▁보낼	-11.0619
▁Bar	-11.0619
▁supports	-11.0622
▁강력	-11.0622
▁impose	-11.0625
▁판사	-11.0627
Gun	-11.0629
▁mutati	-11.063
▁실시할	-11.0631
▁mood	-11.0632
연맹	-11.0632
including	-11.0634
▁boat	-11.0636
▁방향으로	-11.064
▁소화	-11.0642
조치	-11.0643
단은	-11.0644
▁탓에	-11.0646
하라	-11.0647
▁정확히	-11.0648
hun	-11.0653
▁memories	-11.0654
▁cur	-11.0654
▁새해	-11.0655
▁usage	-11.0659
▁cons	-11.0662
▁행보	-11.0667
대출	-11.0671
▁타격	-11.0671
▁relation	-11.0671
하우스	-11.0672
▁기반으로	-11.0672
▁나오	-11.0672
▁진행하는	-11.0674
au	-11.0675
▁conclusion	-11.0676
ped	-11.0678
▁피의자	-11.0679
▁모르는	-11.0683
").	-11.0684
▁Good	-11.0684
▁거에요	-11.0684
▁chose	-11.0689
▁Before	-11.0691
▁합격	-11.0693
▁고려하여	-11.0694
▁Ilbo	-11.0695
▁곳이다	-11.0695
▁draft	-11.0698
quality	-11.0698
jeon	-11.0698
▁46	-11.07
▁협의회	-11.07
▁김치	-11.0701
geun	-11.0705
▁Leader	-11.0705
▁diet	-11.0707
자산	-11.0707
▁아이가	-11.0709
▁유발	-11.0709
▁얻고	-11.0713
▁succeeded	-11.0713
▁기분이	-11.0713
▁입원	-11.0714
gok	-11.0715
▁임기는	-11.0717
제로	-11.0718
▁phase	-11.072
▁산정	-11.0722
▁물을	-11.0723
▁열차	-11.0725
사로	-11.0727
▁정식	-11.0727
▁없도록	-11.0729
▁채권	-11.0732
▁이재명	-11.0733
▁recording	-11.0733
릭	-11.0735
▁성폭행	-11.0735
generation	-11.0736
▁Each	-11.0736
▁선정됐다	-11.0741
▁동네	-11.0741
▁경우는	-11.0744
65	-11.0746
▁공동체	-11.0746
▁흔들	-11.0747
▁자본	-11.0747
트를	-11.0747
▁차지하는	-11.0748
▁assembly	-11.075
▁대책을	-11.075
도지사	-11.0756
▁간사	-11.0757
▁Saudi	-11.0757
▁royal	-11.0757
기획	-11.0758
tain	-11.0758
회의를	-11.0762
▁온도	-11.0762
▁Northern	-11.0762
▁celebrate	-11.0763
▁프리미엄	-11.0763
▁respondents	-11.0765
▁2021	-11.0765
▁attendance	-11.0766
▁운동을	-11.0769
▁하자	-11.077
징	-11.0772
조례	-11.0773
▁dogs	-11.0773
▁현장에	-11.0774
▁이어지는	-11.0777
▁고양이	-11.0777
▁grew	-11.078
▁automatically	-11.078
혹	-11.078
▁유일	-11.0783
쳤다	-11.0786
▁ban	-11.0786
▁배터리	-11.0787
규모	-11.0789
▁visits	-11.079
센터에서	-11.079
▁것보다	-11.0793
▁적절한	-11.0794
▁재배	-11.0795
▁frequent	-11.0798
▁mom	-11.0802
▁800	-11.0802
▁securities	-11.0802
▁미국에서	-11.0803
았	-11.0803
년을	-11.0803
스터	-11.0804
▁이틀	-11.0805
▁건강한	-11.0807
▁대상이	-11.081
▁Earlier	-11.081
▁whom	-11.0811
빛	-11.0812
▁늘었다	-11.0812
▁담배	-11.0814
▁천안	-11.0816
▁enable	-11.0819
케이	-11.0819
▁discovered	-11.0822
▁진행될	-11.0822
ier	-11.0823
영화	-11.0824
비는	-11.0831
▁Qu	-11.0831
▁Elementary	-11.0832
▁판단했다	-11.0832
▁관측	-11.0838
▁진행할	-11.0838
층에	-11.0839
되거나	-11.0842
▁재단	-11.0843
▁바람이	-11.0843
▁Ham	-11.0844
▁Fisheries	-11.0847
▁communities	-11.0847
▁봉사	-11.0848
▁withdrawal	-11.085
▁감독의	-11.085
making	-11.0853
yu	-11.0853
잔	-11.0854
▁kimchi	-11.0855
▁internet	-11.0856
▁upcoming	-11.0856
갔다	-11.0859
▁Control	-11.0862
▁dedicated	-11.0862
▁Shinhan	-11.0865
right	-11.0866
▁분야에	-11.0866
bak	-11.0867
▁우주	-11.0867
▁몰	-11.0868
▁faith	-11.087
▁않아도	-11.0871
▁공간을	-11.0873
▁빠져	-11.0875
▁buyers	-11.0876
▁Bi	-11.0876
명에	-11.0877
▁Heritage	-11.0878
▁짧은	-11.0878
▁seeking	-11.0879
▁임직원	-11.088
▁하겠다	-11.0881
bit	-11.0884
▁ad	-11.0884
묘	-11.0884
▁dress	-11.0885
▁smell	-11.0885
▁압수수색	-11.0885
▁comment	-11.0888
▁열었다	-11.0891
▁잇따라	-11.0893
▁Cooperation	-11.0893
고용	-11.0894
▁teaching	-11.0895
▁Command	-11.0895
ition	-11.0897
▁ma	-11.0897
▁문학	-11.0899
▁Those	-11.09
▁아닙니다	-11.09
▁공개한	-11.0904
용품	-11.0905
▁박람회	-11.0906
▁반응을	-11.0906
▁전기차	-11.0907
▁빠진	-11.0908
▁운영하고	-11.0909
십	-11.0917
▁받는다	-11.0922
하였고	-11.0924
▁yourself	-11.0924
▁starts	-11.0927
chang	-11.0928
▁지역을	-11.0928
▁단순	-11.0929
만을	-11.093
▁Spain	-11.0931
이용	-11.0931
▁Self	-11.0933
▁좌	-11.0933
▁주변에	-11.0934
▁awards	-11.0935
▁노래를	-11.0939
▁수비	-11.0939
들로	-11.0939
▁faster	-11.0941
▁선도	-11.0941
▁사이트	-11.0942
(5	-11.0943
▁충분한	-11.0947
ff	-11.0952
▁자국	-11.0953
▁재판에	-11.0953
▁녹색	-11.0954
▁전담	-11.0954
▁뒷	-11.0956
받고	-11.0957
▁verification	-11.0961
▁yellow	-11.0961
증권	-11.0961
▁의사를	-11.0965
▁Residents	-11.0966
』	-11.0969
▁seminar	-11.0969
ium	-11.0969
▁도쿄	-11.0969
▁Starting	-11.0974
▁인원	-11.0974
-3	-11.0974
▁emotional	-11.0975
▁refer	-11.0976
▁mall	-11.0977
센	-11.0981
▁서구	-11.0984
▁사항이	-11.0985
창업	-11.0985
▁묵	-11.0986
▁traveling	-11.0986
민이	-11.0987
▁기준을	-11.0991
▁북부	-11.0991
▁돼요	-11.0992
▁드리	-11.0997
▁die	-11.0998
▁컨설팅	-11.0999
▁절감	-11.1
▁appreciate	-11.1
▁구체적으로	-11.1002
▁quick	-11.1002
▁위임	-11.1004
▁Intelligence	-11.1007
▁flexible	-11.1007
To	-11.1008
▁Geum	-11.1008
의료	-11.1011
▁votes	-11.1012
더니	-11.1013
수는	-11.1013
▁어려울	-11.1014
▁Gyeongsangbuk	-11.1015
▁편의점	-11.1017
▁융자	-11.1019
▁novel	-11.1021
▁Hanoi	-11.1022
액이	-11.1022
푸	-11.1023
▁Thanks	-11.1024
▁개최한다	-11.1024
▁소요	-11.1032
둥	-11.1035
47	-11.1035
▁끝내	-11.1036
▁사용한	-11.1036
iv	-11.1037
▁비판했다	-11.1038
▁views	-11.104
▁writer	-11.1041
사항을	-11.1041
▁연말	-11.1043
시장은	-11.1046
▁수치	-11.1046
▁표창	-11.1047
▁걸려	-11.1049
억달러	-11.1049
▁투수	-11.105
▁demonstration	-11.1051
하길	-11.1051
이드	-11.1051
▁삭제	-11.1053
▁라인	-11.1053
PS	-11.1054
▁권고	-11.1056
▁단기	-11.1057
▁거래소	-11.1058
▁상태에서	-11.1058
▁disclosed	-11.1059
▁명시	-11.1062
▁신고를	-11.1062
▁underground	-11.1063
▁이때	-11.1065
▁regulatory	-11.1066
▁adult	-11.1066
▁친구들과	-11.1069
▁KB	-11.1069
▁수준으로	-11.107
▁행사에는	-11.1073
▁adopted	-11.1073
▁케이팝	-11.1076
▁예능	-11.1077
▁공포	-11.1078
치가	-11.1079
▁일하는	-11.108
if	-11.1081
▁바꾸	-11.1082
▁(2	-11.1082
▁막기	-11.1085
▁무기	-11.1086
▁prefer	-11.1086
43	-11.1089
번호	-11.1089
▁사업비	-11.109
▁chair	-11.109
▁LA	-11.1091
▁세종	-11.1091
▁적발	-11.1095
▁증가하고	-11.1097
▁consensus	-11.1099
▁나설	-11.11
▁각국	-11.1102
학습	-11.1105
▁수사에	-11.111
▁180	-11.1112
▁베이징	-11.1114
▁매입	-11.1119
답	-11.1119
차를	-11.112
응	-11.1121
▁institutes	-11.1121
▁diagnosis	-11.1122
▁donated	-11.1124
▁과연	-11.1124
▁steps	-11.1125
▁증가했다	-11.1126
▁700	-11.1131
▁늦게	-11.1133
▁boy	-11.1134
욕	-11.1135
▁빠지	-11.1136
값	-11.1136
▁episode	-11.1136
▁부실	-11.1137
셔	-11.1139
bok	-11.1139
▁towards	-11.114
rang	-11.114
▁thoughts	-11.1142
전문가	-11.1143
장애	-11.1144
먼	-11.1144
본부장	-11.1144
▁2003	-11.1145
▁succeed	-11.1145
▁beat	-11.1147
▁않지만	-11.1148
▁비율	-11.1149
▁staying	-11.115
▁소설	-11.1153
▁agent	-11.1156
안이	-11.1158
었는데	-11.1158
▁subordinate	-11.1161
▁중요성	-11.1162
뜨	-11.1162
상당히	-11.1164
▁있었고	-11.1166
단의	-11.1166
Committee	-11.1168
▁bereaved	-11.1169
▁Valley	-11.1169
원장	-11.1174
▁owned	-11.1174
▁묘	-11.1177
ip	-11.1177
52	-11.118
▁손실	-11.1181
400	-11.1181
규정	-11.1181
▁복구	-11.1182
졌고	-11.1185
▁리그	-11.1186
받	-11.1186
ious	-11.1186
▁전해	-11.1188
지며	-11.1188
▁Ar	-11.1189
val	-11.1189
▁정의당	-11.119
▁기대감	-11.1191
▁지배	-11.1191
▁하노이	-11.1192
▁보육	-11.1194
den	-11.1195
▁종로구	-11.1197
▁어디에	-11.1197
vers	-11.1198
엽	-11.1199
셀	-11.12
랄	-11.12
▁중국에서	-11.1202
▁professors	-11.1202
▁기록한	-11.1204
▁슬	-11.1207
▁예를	-11.1207
FC	-11.1208
▁copy	-11.1208
▁때부터	-11.1208
▁favorable	-11.1209
▁strengthened	-11.121
▁situations	-11.1217
소리	-11.1217
▁관측이	-11.1219
▁rare	-11.1219
▁Kia	-11.122
▁손흥민	-11.1221
▁조례에	-11.1221
▁공약	-11.1222
▁기원	-11.1223
▁추진한다	-11.123
▁leaves	-11.1231
▁실수	-11.1232
천만	-11.1233
tal	-11.1236
▁북측	-11.1237
▁지방선거	-11.124
▁unveiled	-11.1241
▁이내	-11.1242
▁공간이	-11.1242
▁사랑하는	-11.1242
되어야	-11.1245
▁발주	-11.1246
▁interior	-11.1247
▁Turkey	-11.1247
▁핸드폰	-11.1247
▁thus	-11.1247
▁Look	-11.1248
▁체계	-11.1248
여서	-11.1254
드립니다	-11.1255
▁총선	-11.1258
▁collecting	-11.1258
bal	-11.126
▁mo	-11.126
hae	-11.1263
▁댄스	-11.1263
구나	-11.1264
suk	-11.1266
사용	-11.1266
rt	-11.1268
▁고향	-11.1268
▁비전	-11.1269
▁경기도지사가	-11.127
▁꺼	-11.1273
▁출근	-11.1273
▁강릉	-11.1275
▁49	-11.1278
▁불만	-11.1283
▁광역	-11.1285
▁동료	-11.1285
▁compete	-11.1285
▁된다는	-11.1286
ble	-11.1287
ix	-11.1289
▁찍	-11.1289
NA	-11.129
▁용역	-11.1292
인력	-11.1293
▁audiences	-11.1294
▁추락	-11.1296
fu	-11.1296
▁zones	-11.1296
▁solo	-11.1299
▁facts	-11.1299
기능	-11.13
▁stood	-11.1302
▁사람들에게	-11.1302
▁resignation	-11.1302
▁지역경제	-11.1304
▁지사는	-11.1305
▁제공할	-11.1307
qua	-11.1309
▁guess	-11.131
석이	-11.131
▁Exchange	-11.131
철도	-11.1312
▁서비스가	-11.1312
▁착	-11.1312
▁Three	-11.1312
주고	-11.1313
▁lifelong	-11.1313
▁47	-11.1315
▁음악을	-11.1315
참여	-11.132
▁구상	-11.1321
69	-11.1321
▁illegally	-11.1323
▁paintings	-11.1325
clock	-11.1326
능력	-11.1326
pre	-11.1328
▁기다리고	-11.1329
▁personality	-11.133
▁계획이	-11.133
▁변동	-11.133
받을	-11.1331
▁51	-11.1332
▁제품에	-11.1333
▁찍어	-11.1334
▁입력	-11.1337
▁앞으로도	-11.1342
년으로	-11.1343
▁civilian	-11.1343
▁사진이	-11.1346
▁개인정보	-11.1348
▁expertise	-11.1349
▁산업혁명	-11.1349
2)	-11.135
▁들여	-11.1352
월에는	-11.1353
▁달려	-11.1357
▁logistics	-11.1357
?"	-11.1357
▁득점	-11.1359
▁음료	-11.1363
리고	-11.1364
▁luxury	-11.1365
▁대표하는	-11.1365
▁별도로	-11.1365
▁stake	-11.1366
POP	-11.1369
▁founded	-11.137
▁여권	-11.1372
▁휴대전화	-11.1373
▁냉	-11.1375
guk	-11.1376
이상	-11.1379
▁closing	-11.1381
▁Joint	-11.1381
▁north	-11.1381
This	-11.1382
위원회의	-11.1383
지기	-11.1386
▁뛰어	-11.1387
죽	-11.1388
정신	-11.139
빌	-11.139
다운	-11.1395
▁ch	-11.1395
▁Rural	-11.1397
▁중소	-11.14
▁root	-11.1401
▁환경부	-11.1401
▁중국과	-11.1401
▁갈등이	-11.1403
▁voluntary	-11.1405
▁subcommittee	-11.1405
▁자유롭게	-11.1405
600	-11.1405
▁60%	-11.1407
▁대표이사	-11.1414
rin	-11.1414
▁Songpa	-11.1415
800	-11.1415
ified	-11.1415
하나	-11.1418
받아	-11.1419
▁사고로	-11.1419
▁무역전쟁	-11.1421
▁가끔	-11.1421
▁Who	-11.1422
니아	-11.1423
Ma	-11.1424
▁매출이	-11.1426
▁번째로	-11.1427
▁이야기가	-11.143
조건	-11.1431
▁강서구	-11.1433
▁맛이	-11.1436
▁목숨	-11.1437
연구원은	-11.1437
▁이르는	-11.1439
▁strange	-11.1439
▁정상회담을	-11.1439
▁요청할	-11.1439
▁정지	-11.144
▁문화재	-11.1441
▁박사	-11.1441
▁상당한	-11.1443
▁분들이	-11.1443
▁accompanied	-11.1444
▁선적	-11.1446
▁하는지	-11.1448
▁측면에서	-11.1449
▁대법원장	-11.1451
▁managers	-11.1451
▁channels	-11.1452
▁milk	-11.1452
ions	-11.1453
▁세상	-11.1456
▁고양시	-11.1458
▁경위	-11.1458
교육을	-11.1459
롱	-11.1459
▁multicultural	-11.1461
▁tears	-11.1462
▁철거	-11.1462
담당	-11.1464
▁Forum	-11.1464
안정	-11.1466
▁분명	-11.1466
▁mutandis	-11.1468
▁supplied	-11.1468
▁perception	-11.1469
▁밟	-11.147
like	-11.1474
▁활발	-11.1478
▁숙소	-11.1479
▁portion	-11.148
▁serving	-11.1485
fi	-11.1485
▁chat	-11.1489
▁대행	-11.1489
량을	-11.1491
▁Analysts	-11.1493
▁고정	-11.1495
▁hundreds	-11.1496
여행	-11.1496
▁단위	-11.1496
▁박근혜	-11.1497
▁영화제	-11.1498
▁비행	-11.15
▁fake	-11.1501
▁자가	-11.1504
▁usual	-11.1506
▁직원들이	-11.1507
▁걸어	-11.1507
▁Gang	-11.1508
▁climate	-11.1509
▁cancellation	-11.1509
▁네이버	-11.1509
▁violations	-11.1509
▁massive	-11.151
▁높이고	-11.1514
▁Following	-11.1517
▁한층	-11.1517
hy	-11.1518
렸	-11.152
▁갔다	-11.1521
▁fallen	-11.1521
▁단원	-11.1522
▁gun	-11.1522
▁smoothly	-11.1523
였습니다	-11.1524
▁김정	-11.1524
▁비치	-11.1526
도서관	-11.1528
해졌다	-11.1528
▁고교	-11.1529
▁purposes	-11.153
▁좋았	-11.1531
56	-11.1533
▁냈다	-11.1534
▁Ban	-11.1535
▁맞게	-11.1538
▁minor	-11.154
▁afraid	-11.1541
▁Another	-11.1541
▁disclose	-11.1542
▁남녀	-11.1543
ces	-11.1545
웠	-11.1548
▁90%	-11.1549
▁좋습니다	-11.155
▁wine	-11.1551
▁previously	-11.1551
동의	-11.1553
▁이정	-11.1556
▁clubs	-11.1556
▁오르	-11.1556
▁Officials	-11.1557
▁disappear	-11.1557
▁chemical	-11.1557
▁horse	-11.1557
▁감염	-11.1557
▁너희	-11.1558
▁상업	-11.1562
▁세상을	-11.1562
▁Dream	-11.1564
▁겪는	-11.1565
▁자연스럽게	-11.1565
▁smoking	-11.1566
▁완전	-11.1567
▁학교에서	-11.1567
▁노력이	-11.1568
▁inspections	-11.1569
▁역사를	-11.1569
종합	-11.1569
▁remained	-11.157
▁Gwanak	-11.1573
▁깊이	-11.1573
ay	-11.1574
▁서초구	-11.1575
▁preventing	-11.1577
여건	-11.1577
▁기능이	-11.1578
MA	-11.1578
▁Bucheon	-11.1582
▁받았	-11.1583
▁개막	-11.1583
업체가	-11.1585
▁surprised	-11.1587
법이	-11.1588
념	-11.1589
회에	-11.1592
▁Girls	-11.1592
▁아이템	-11.1598
▁꽤	-11.1598
호서식	-11.1598
▁governed	-11.1598
▁accumulated	-11.1599
▁Mapo	-11.16
▁세트	-11.1602
▁Buddhist	-11.1606
▁fulfill	-11.1606
▁classified	-11.1606
규제	-11.1609
▁repeatedly	-11.161
▁움직임	-11.1611
▁상위	-11.1611
직원	-11.1611
▁“(	-11.1612
▁사법	-11.1613
▁Ltd	-11.1614
for	-11.1616
▁chosen	-11.1616
간다	-11.1617
meter	-11.1618
▁Gun	-11.162
▁물류	-11.1621
▁roof	-11.1622
▁코치	-11.1622
body	-11.1622
▁거론	-11.1624
▁주지	-11.1624
쉬	-11.1625
▁Naver	-11.1626
시간이	-11.1629
▁harassment	-11.163
뉴	-11.163
▁Thursday	-11.1632
▁임신	-11.1633
▁Every	-11.1635
▁pastor	-11.1635
▁능력을	-11.1635
▁prove	-11.1638
▁hidden	-11.1638
당한	-11.1639
▁유행	-11.1641
▁beach	-11.1642
사들이	-11.1642
▁safely	-11.1644
▁permit	-11.1646
▁멋진	-11.1648
콜	-11.1649
▁dollar	-11.165
▁마련됐다	-11.1652
▁feels	-11.1652
▁상상	-11.1653
▁Twitter	-11.1654
▁아무리	-11.1656
▁struggle	-11.1656
▁그럴	-11.1659
▁formation	-11.1661
▁반응이	-11.1663
▁plate	-11.1664
▁engage	-11.1664
연합회	-11.1665
▁shareholder	-11.1666
▁함께하는	-11.1666
▁능력이	-11.167
▁중심의	-11.167
▁공부를	-11.1671
▁Entertainment	-11.1671
▁steadily	-11.1671
몬	-11.1671
▁적응	-11.1671
▁방해	-11.1673
보는	-11.1674
▁다르다	-11.1676
▁생긴	-11.1676
상이	-11.1676
lor	-11.1677
▁극복	-11.1678
▁Super	-11.1681
▁느	-11.1683
▁태도	-11.1685
▁색상	-11.1685
것	-11.1685
▁관리를	-11.1686
▁uncomfortable	-11.1687
▁voluntarily	-11.1687
▁removed	-11.1687
▁미래를	-11.1687
▁workshop	-11.1688
룸	-11.1689
ser	-11.1691
▁과장	-11.1695
▁흘러	-11.1695
▁본회의	-11.1696
▁Yeo	-11.1696
▁deeply	-11.1697
겠	-11.1697
▁홀	-11.1698
▁최저	-11.17
▁상생	-11.1702
▁읽	-11.1702
▁treat	-11.1703
▁Which	-11.1704
▁Deliberation	-11.1704
▁들어간	-11.1704
보수	-11.1705
▁restrictions	-11.1705
▁극장	-11.1706
▁동일한	-11.1708
▁쪽으로	-11.1708
▁매주	-11.1711
▁studied	-11.1712
▁맡아	-11.1712
▁토론회	-11.1712
▁복원	-11.1713
▁야외	-11.1713
ye	-11.1714
▁했고	-11.1714
▁Does	-11.1714
IC	-11.1715
▁나왔	-11.1718
건이	-11.1719
▁h	-11.1723
▁missile	-11.1724
▁begins	-11.1726
▁폐쇄	-11.1727
되었고	-11.1728
▁anxiety	-11.1728
▁조사하고	-11.1729
▁유형	-11.173
개사	-11.1731
▁죄	-11.1732
준다	-11.1732
▁보입니다	-11.1732
▁FTA	-11.1732
▁희	-11.1733
▁씨는	-11.1734
▁관객들	-11.1735
틴	-11.1736
▁autumn	-11.1736
▁martial	-11.1736
pl	-11.1737
▁Southeast	-11.1737
▁implementing	-11.1739
▁최소화	-11.1739
▁주에	-11.174
▁restoration	-11.1745
▁certified	-11.1746
▁guests	-11.1747
▁영향이	-11.175
▁진행되고	-11.1751
ham	-11.1752
하시	-11.1753
짜리	-11.1754
에요	-11.1755
▁명령	-11.1756
▁25%	-11.1761
▁무엇인지	-11.1761
▁조합	-11.1763
▁않다는	-11.1767
▁manipulation	-11.1769
▁약간	-11.1771
▁KBO	-11.1773
75	-11.1773
sol	-11.1773
▁Hyung	-11.1774
▁역사적	-11.1775
멘	-11.1777
▁accommodation	-11.1778
▁내다봤다	-11.1778
▁얻을	-11.1778
▁command	-11.1778
▁Once	-11.1778
▁그렇지	-11.1779
▁성격	-11.1779
기관의	-11.1781
▁사람들을	-11.1781
▁존중	-11.1782
▁Square	-11.1786
▁즐거운	-11.1786
▁위원으로	-11.1786
▁정책이	-11.1787
▁손상	-11.1787
▁합류	-11.1788
▁streets	-11.1791
▁evaluate	-11.1793
▁솔	-11.1795
▁boom	-11.1796
▁이루	-11.1798
▁맞지	-11.1799
논	-11.18
▁consult	-11.18
▁soup	-11.1802
▁studio	-11.1802
▁모으고	-11.1802
▁neighborhood	-11.1802
▁죄송합니다	-11.1804
▁collective	-11.1804
▁escape	-11.1804
▁벽	-11.1807
▁게재	-11.181
▁말한	-11.181
▁했다는	-11.1813
▁관해	-11.1813
▁출마	-11.1813
54	-11.1815
face	-11.1817
잉	-11.1817
▁subscription	-11.1819
▁예상되는	-11.182
▁Com	-11.1822
▁시신	-11.1822
▁한미	-11.1822
프로	-11.1823
▁위험이	-11.1825
▁minimize	-11.1825
▁Ok	-11.1826
rae	-11.1826
▁급격	-11.1827
▁defeat	-11.1828
eo	-11.1828
건강	-11.1828
▁성향	-11.1829
▁인사를	-11.1829
▁너에게	-11.1829
▁feet	-11.1831
▁전화를	-11.1833
▁graduate	-11.1834
▁북미정상회담	-11.1836
▁pursue	-11.1837
원에	-11.1837
▁일이다	-11.1838
▁치매	-11.1839
자에	-11.184
▁expense	-11.184
▁servants	-11.1843
첩	-11.1844
▁valuable	-11.1844
▁Doosan	-11.1845
▁없으면	-11.1845
▁몰려	-11.1849
ration	-11.185
룡	-11.1851
▁심장	-11.1851
▁담겼다	-11.1852
▁freedom	-11.1852
▁답했다	-11.1853
데이	-11.1856
▁bicycle	-11.1857
▁견	-11.1859
▁Maritime	-11.1861
▁aims	-11.1861
▁employed	-11.1862
▁내용은	-11.1864
▁뮤지컬	-11.1865
▁Chan	-11.1866
▁없기	-11.1866
▁대법관	-11.1869
▁죄송하지만	-11.1869
▁미중	-11.187
▁전문성	-11.1873
좌	-11.1874
근무	-11.1874
▁중학교	-11.1874
멸	-11.1876
▁shift	-11.1878
▁cup	-11.1878
씨와	-11.188
▁supplies	-11.1886
▁잊	-11.1886
▁Card	-11.1887
▁정치권	-11.1888
profit	-11.1892
▁dreams	-11.1893
▁argument	-11.1894
▁presence	-11.1894
▁포함하여	-11.1894
▁festivals	-11.1895
▁열기	-11.1896
젠	-11.1897
▁괴	-11.1899
▁조사한	-11.1903
▁proud	-11.1903
▁맥	-11.1905
(4	-11.1908
▁issuance	-11.191
장비	-11.191
▁확충	-11.1911
▁성능	-11.1912
▁achievements	-11.1915
▁주관하는	-11.1916
▁messages	-11.1917
질환	-11.1924
환자	-11.1924
▁퇴	-11.1929
▁않았	-11.1936
▁아이를	-11.1937
▁battery	-11.1938
구가	-11.1939
당이	-11.1939
▁연합	-11.1939
시설의	-11.1943
▁formal	-11.1944
▁intellectual	-11.1944
▁routes	-11.1944
▁Sewol	-11.1945
▁텐데	-11.1945
▁어려움이	-11.1945
▁appoint	-11.1948
▁guest	-11.195
dis	-11.195
▁회사에	-11.1951
▁과정이	-11.1954
▁note	-11.1955
41	-11.1955
리지	-11.196
▁Open	-11.1961
▁crack	-11.1961
▁활동이	-11.1963
art	-11.1966
재산	-11.1968
절차	-11.1968
▁phones	-11.197
▁momentum	-11.1971
▁기다리	-11.1971
물질	-11.1971
▁주민의	-11.1972
▁cells	-11.1976
▁Galaxy	-11.1976
▁잘못된	-11.1977
▁교육청	-11.1979
▁인터뷰에서	-11.1981
▁ID	-11.1981
▁refused	-11.1982
분석	-11.1983
▁비판이	-11.1983
▁keeping	-11.1984
▁FA	-11.1986
▁아프	-11.199
▁fundamental	-11.199
업자	-11.1992
war	-11.1992
컵	-11.1993
▁상태로	-11.1995
▁Branch	-11.1995
▁이상을	-11.1998
▁총리가	-11.2
08	-11.2001
▁cake	-11.2002
▁south	-11.2003
▁이곳에	-11.2004
▁cited	-11.2012
▁repeated	-11.2013
MS	-11.2014
57	-11.2016
58	-11.2017
▁resulting	-11.2017
▁Competition	-11.202
▁feasibility	-11.202
▁제기됐다	-11.2021
▁시민단체	-11.2022
▁Pre	-11.2024
▁absence	-11.2029
▁Paris	-11.2029
▁특별히	-11.2031
▁symbol	-11.2033
▁계열사	-11.2036
▁경우도	-11.2036
쾌	-11.2036
▁livelihood	-11.2037
▁violating	-11.2037
▁오랫동안	-11.2037
▁pork	-11.2037
▁평가가	-11.2037
▁『	-11.2038
▁matches	-11.204
▁들어오	-11.2042
▁침체	-11.2043
▁서식	-11.2043
▁하이	-11.2044
교류	-11.2045
▁Hana	-11.2045
▁invoice	-11.2045
▁maintaining	-11.2046
더라	-11.2046
시키기	-11.2048
▁Y	-11.2049
▁assistant	-11.205
ach	-11.205
마리	-11.2051
▁한계	-11.2053
▁collapsed	-11.2054
IS	-11.2055
▁격려	-11.2056
▁면적	-11.2059
▁selecting	-11.2061
port	-11.2061
When	-11.2062
페이	-11.2062
▁Amazon	-11.2062
▁현장을	-11.2063
▁묻	-11.2065
▁주재	-11.2065
웨이	-11.2067
소가	-11.2068
▁settled	-11.2068
▁2001	-11.207
곳이	-11.207
음악	-11.2071
▁Jeonju	-11.2072
▁tend	-11.2073
▁배려	-11.2074
▁ba	-11.2074
▁얻어	-11.2075
▁일정이	-11.2077
▁것이라	-11.2077
수당	-11.2078
▁대여	-11.2079
▁Post	-11.2084
▁단장	-11.2086
▁몸을	-11.2086
사에	-11.2086
▁작성하여	-11.2087
▁supposed	-11.2088
aged	-11.209
▁크고	-11.2091
▁opposed	-11.2092
▁thoroughly	-11.2092
▁지분	-11.2093
▁두산	-11.2093
▁Corp	-11.2095
▁승부	-11.2095
▁공을	-11.2095
학원	-11.2095
▁방향을	-11.2097
▁수탁자	-11.2098
▁한강	-11.21
▁inspect	-11.2101
▁Next	-11.2101
▁장점이	-11.2103
▁peninsula	-11.2105
▁anymore	-11.2106
▁이곳에서	-11.2106
▁NC	-11.2108
▁Times	-11.2108
▁이번에는	-11.2109
▁상환	-11.211
▁displayed	-11.2113
▁운송	-11.2113
▁Investigation	-11.2114
▁magazine	-11.2114
▁factories	-11.2114
▁활동에	-11.2122
▁나오지	-11.2122
▁필요할	-11.2122
▁시행규칙	-11.2123
▁남부	-11.2124
▁참여했다	-11.2125
▁disasters	-11.213
▁좋아요	-11.2132
▁때문이에요	-11.2132
▁solar	-11.2132
맥	-11.2132
▁Future	-11.2132
고등학교	-11.2132
▁기온이	-11.2133
▁인지	-11.2133
▁단순히	-11.2133
▁상가	-11.2135
▁sources	-11.2136
▁willingness	-11.214
▁Audit	-11.2141
연합	-11.2142
닥	-11.2144
▁소속사	-11.2146
BC	-11.2147
튼	-11.2147
▁손해	-11.2149
회는	-11.215
DI	-11.2151
▁수준이	-11.2152
▁이래	-11.2155
▁Pastor	-11.2157
▁UN	-11.2157
▁workplace	-11.2159
구를	-11.216
▁화가	-11.2161
▁customs	-11.2163
▁최창식	-11.2165
▁만나는	-11.217
▁indoor	-11.2171
▁영화가	-11.2171
▁양식	-11.2172
▁지표	-11.2173
▁화려한	-11.2174
▁신임	-11.218
▁pen	-11.2181
▁희생	-11.2182
mu	-11.2183
▁closer	-11.2185
ure	-11.2185
▁shortage	-11.2186
cho	-11.2186
▁방탄소년단	-11.2188
▁성실	-11.219
▁가능할	-11.2191
▁Koreas	-11.2192
gon	-11.2199
▁uniform	-11.2199
▁성별	-11.22
▁느껴	-11.2201
▁부총리	-11.2202
▁length	-11.2203
▁assist	-11.2203
▁선호	-11.2208
시고	-11.2208
▁strategies	-11.2208
장관	-11.2209
았습니다	-11.2209
▁형식	-11.2209
공급	-11.221
▁그에	-11.2211
▁스토리	-11.2211
▁통행	-11.2212
▁사용해	-11.2215
▁환자가	-11.2216
▁bond	-11.2217
연대	-11.2218
▁동아리	-11.222
▁세미나	-11.2222
▁tri	-11.2224
▁Olympic	-11.2225
▁그래	-11.2228
▁부당	-11.2231
▁이내로	-11.2232
▁John	-11.2234
▁헤어	-11.2235
▁사항에	-11.2236
▁행위를	-11.2237
▁방침	-11.2237
스의	-11.2238
롭	-11.2238
ink	-11.2239
▁너를	-11.2239
▁내내	-11.2239
▁cheap	-11.2239
▁institutional	-11.2242
중인	-11.2245
▁열릴	-11.2246
▁solved	-11.2247
buk	-11.2247
▁모인	-11.2248
▁earth	-11.2249
▁게임을	-11.225
▁개성	-11.2251
▁포항	-11.2252
▁여건	-11.2254
▁사건의	-11.2254
▁75	-11.2254
▁Asiana	-11.2255
▁generations	-11.2256
▁시는	-11.2257
▁에어	-11.2257
wan	-11.2258
님이	-11.2259
▁sauce	-11.226
▁국무위원장이	-11.226
▁enjoying	-11.226
Park	-11.2263
▁Abe	-11.2264
▁Gwangjin	-11.227
억원이	-11.227
▁마지막으로	-11.227
▁때문	-11.2273
▁glass	-11.2275
▁프	-11.2278
▁Awards	-11.2278
화된	-11.2279
▁빌	-11.2279
▁청약	-11.2281
▁Mike	-11.2282
▁사찰	-11.2282
▁hate	-11.2283
▁최신	-11.2285
▁sufficient	-11.2286
▁크리스마스	-11.2286
▁며칠	-11.2286
88	-11.2287
[	-11.2287
▁주체	-11.2288
▁mine	-11.229
▁Seon	-11.2291
▁identify	-11.2291
▁가로	-11.2291
▁마련했다	-11.2294
▁전원	-11.2297
sin	-11.2297
단을	-11.2297
에너지	-11.2297
료를	-11.2298
▁부스	-11.2299
▁Prize	-11.2303
▁삶	-11.2303
▁궁금증	-11.2305
킬	-11.2306
▁개최했다	-11.2307
▁과태료	-11.2309
▁cast	-11.2312
▁kilometers	-11.2312
섬	-11.2313
▁설비	-11.2315
▁Any	-11.2316
My	-11.2319
med	-11.2319
▁El	-11.232
▁subsidiary	-11.2321
▁휴대폰	-11.2321
▁증상	-11.2321
▁늘어날	-11.2321
▁부정적	-11.2322
tation	-11.2323
▁구속영장	-11.2323
▁걸릴	-11.2324
▁stick	-11.2325
협약	-11.2327
▁spicy	-11.233
▁진행한	-11.2332
▁분석한	-11.2333
▁pieces	-11.2333
▁countermeasures	-11.2334
▁54	-11.2335
▁교통사고	-11.2337
ress	-11.2337
▁과정에	-11.2338
▁harmony	-11.2338
▁sensitive	-11.2341
▁발생해	-11.2348
▁높이는	-11.2348
▁honorary	-11.2348
▁방치	-11.2349
되었으며	-11.2349
▁세계에서	-11.235
▁earnings	-11.235
▁aired	-11.2352
▁코리아	-11.2352
▁있었는데	-11.2353
▁junior	-11.2356
▁준용한다	-11.2356
▁refugees	-11.2356
▁백화점	-11.2358
▁ha	-11.2359
▁holds	-11.2359
▁신발	-11.2359
▁항목	-11.2359
▁부분에	-11.2362
간의	-11.2365
▁테니	-11.2365
▁이해관계	-11.2366
인들의	-11.2367
▁outcome	-11.2369
▁Force	-11.237
▁안정적인	-11.2371
▁Summit	-11.2373
▁folk	-11.2373
▁garbage	-11.2373
bang	-11.2373
▁풍경	-11.2376
▁만들어진	-11.2377
▁전세	-11.2378
shaped	-11.2382
▁시리즈	-11.2386
▁올리	-11.2387
허	-11.2389
No	-11.2389
▁파리	-11.2391
▁입금	-11.2391
데다	-11.2391
▁오염	-11.2391
▁아베	-11.2393
▁않는다는	-11.2395
▁배정	-11.2395
부지사	-11.24
▁호와	-11.24
▁고통	-11.2401
pt	-11.2403
▁startups	-11.2408
▁하나님	-11.2409
▁지원사업	-11.2411
▁판정	-11.2411
▁withdraw	-11.2413
▁연수	-11.2414
arious	-11.2415
▁exhibitions	-11.2416
닝	-11.2416
▁cream	-11.2417
▁호에	-11.242
▁자살	-11.2421
cal	-11.2423
▁학생들은	-11.2425
▁허위	-11.2426
▁incumbent	-11.2426
얼	-11.2427
▁김종	-11.2428
▁세월호	-11.2429
동이	-11.2429
▁regarded	-11.243
▁engineering	-11.243
▁최초의	-11.2431
위원회는	-11.2439
▁내는	-11.244
▁창원	-11.244
▁processed	-11.244
▁Her	-11.244
room	-11.2442
▁주석	-11.2444
▁joy	-11.2445
▁개통	-11.2445
▁error	-11.2445
▁동참	-11.2446
▁내년에	-11.2451
95	-11.2452
아동	-11.2452
▁worst	-11.2452
▁이재	-11.2453
▁admitted	-11.2453
급여	-11.2454
▁mandatory	-11.2461
▁struggling	-11.2461
▁고용노동부	-11.2461
▁안팎	-11.2462
▁받으	-11.2463
▁명칭	-11.2463
정이	-11.2464
▁엘	-11.2465
▁blow	-11.2467
▁데이터를	-11.2468
▁만료	-11.2469
pyeong	-11.2469
어가	-11.2473
▁되며	-11.2473
▁났	-11.2473
▁공시	-11.2474
▁하거나	-11.2474
▁일본에서	-11.2474
▁Chae	-11.2475
▁적어	-11.2475
▁공고	-11.2475
▁캠프	-11.2476
take	-11.2477
▁맛있는	-11.2479
▁위촉한다	-11.2479
▁확인했다	-11.2482
pen	-11.2484
▁맨	-11.2486
▁theory	-11.2488
▁Exhibition	-11.2488
▁kick	-11.249
▁그려	-11.2493
홀에서	-11.2496
▁assaulted	-11.2497
▁작용	-11.2497
법에	-11.2497
▁Training	-11.2499
▁Area	-11.2503
ps	-11.2504
낭	-11.2505
▁부채	-11.2505
대장	-11.2506
▁objective	-11.2506
▁늦	-11.2507
▁찍은	-11.2507
dan	-11.251
▁발령	-11.251
▁경력	-11.2511
▁130	-11.2512
▁neighbors	-11.2513
▁쿠	-11.2514
▁Conference	-11.2515
▁superior	-11.2515
▁먹어	-11.2518
▁exit	-11.2518
▁따르	-11.2523
▁arranged	-11.2527
큐	-11.2527
“	-11.2527
▁확인한	-11.2528
트리	-11.2528
▁Ni	-11.2528
▁생태	-11.2528
▁회의에	-11.2532
넷	-11.2532
차가	-11.2532
▁bomb	-11.2533
board	-11.2535
▁감면	-11.2535
▁생겼	-11.2537
▁무시	-11.2538
▁마련된	-11.2538
▁분노	-11.2539
▁토요일	-11.254
68	-11.2541
▁저렴한	-11.2541
▁satisfied	-11.2542
▁producing	-11.2542
▁주말에	-11.2543
▁만족도	-11.2545
▁이뤄진	-11.255
▁승용차	-11.255
▁품	-11.2551
▁Resources	-11.2553
▁GS	-11.2554
▁덮	-11.2554
▁seriously	-11.2555
▁식물	-11.2556
gan	-11.2557
▁티켓	-11.2557
▁answers	-11.2558
▁Goryeo	-11.2559
▁Framework	-11.2559
▁hometown	-11.256
▁꺾	-11.256
▁분명히	-11.2562
칸	-11.2563
▁마주	-11.2565
▁입장이다	-11.2567
don	-11.2568
▁기업에	-11.2568
▁dementia	-11.2568
▁정보가	-11.2572
▁니	-11.2573
처분	-11.2575
▁문화가	-11.2576
▁Club	-11.2577
▁controversial	-11.2577
▁timing	-11.2577
▁swimming	-11.2577
▁할지	-11.2578
촉	-11.258
밭	-11.2581
▁winners	-11.2581
▁배제	-11.2581
주를	-11.2583
▁harmful	-11.2586
▁아마존	-11.2586
▁rebound	-11.2586
▁소식	-11.2587
▁argue	-11.2588
▁들어갔다	-11.259
▁준비를	-11.259
▁강도	-11.2591
▁페스티벌	-11.2593
▁안전관리	-11.2593
▁보유하고	-11.2595
▁Election	-11.2595
▁POSCO	-11.2595
▁주주	-11.2595
▁ships	-11.2595
▁provision	-11.2597
▁기준에	-11.2598
▁accurate	-11.2599
▁이끌	-11.26
▁informed	-11.2601
▁경쟁이	-11.2602
▁음성	-11.2603
▁critical	-11.2605
▁Tuesday	-11.2606
▁위원이	-11.2609
▁준공	-11.261
▁practices	-11.2613
▁lowered	-11.2615
▁듯한	-11.2615
range	-11.2616
범죄	-11.2617
▁tight	-11.2618
만으로	-11.2619
▁showcase	-11.2622
▁공인	-11.2623
▁손님	-11.2624
▁정규직	-11.2624
▁granted	-11.2624
▁없었던	-11.2624
▁영장	-11.2626
▁allowance	-11.2626
▁구청장의	-11.2628
▁산림	-11.2633
▁아프리카	-11.2633
럽	-11.2633
▁주인	-11.2634
▁하나가	-11.2634
스코	-11.2634
▁clothing	-11.2635
하자는	-11.2639
졌	-11.2639
▁보고서	-11.2639
▁fails	-11.264
▁somewhat	-11.264
85	-11.2641
▁밝	-11.2643
▁요인	-11.2645
▁risks	-11.2646
▁본인이	-11.2646
▁deficit	-11.2649
▁지진	-11.2649
텔	-11.2651
▁balanced	-11.2652
▁미팅	-11.2653
▁fighting	-11.2654
▁실시간	-11.2654
▁origin	-11.2655
방향	-11.2655
▁드론	-11.2657
▁양측	-11.2659
▁검사를	-11.2661
▁imports	-11.2663
수의	-11.2664
▁간사는	-11.2665
▁좋겠어요	-11.2669
토록	-11.267
▁농산물	-11.267
모델	-11.2672
확	-11.2673
릉	-11.2674
▁포럼	-11.2679
▁passion	-11.2679
방안	-11.268
lim	-11.2682
율을	-11.2684
▁confident	-11.2685
노조	-11.2685
▁Commerce	-11.2685
▁kitchen	-11.2685
▁Theater	-11.2685
▁disputes	-11.2686
▁바닥	-11.2689
▁소지	-11.2689
▁어떠한	-11.2689
▁실적이	-11.2691
▁shock	-11.2692
▁파주	-11.2692
▁냄새	-11.2694
▁iron	-11.2694
▁유일한	-11.2694
▁Like	-11.2695
▁Ya	-11.2697
▁limitations	-11.2697
짜	-11.2698
▁미칠	-11.2698
제는	-11.2699
family	-11.2699
▁부분은	-11.2701
za	-11.2701
▁기존에	-11.2702
▁Here	-11.2702
▁Chosun	-11.2703
▁precious	-11.2703
Constitutional	-11.2706
Chairman	-11.2708
▁스트레스	-11.2711
▁expiration	-11.2712
▁statue	-11.2712
▁어깨	-11.2713
▁칠	-11.2713
▁갤럭시	-11.2715
▁재활용	-11.2718
99	-11.2718
럼	-11.272
텐	-11.2721
▁Uzbekistan	-11.2721
▁inauguration	-11.2721
▁보여준다	-11.2721
▁날짜	-11.2722
▁결승	-11.2722
통합	-11.2726
▁tank	-11.273
▁진주	-11.2731
내용	-11.2731
▁국방	-11.2734
▁많지	-11.2735
▁추모	-11.2736
▁플레이	-11.2737
gyu	-11.2737
▁진보	-11.2741
▁larger	-11.2744
▁sh	-11.2746
▁probably	-11.2748
▁Chungnam	-11.275
▁무대에	-11.2753
왔	-11.2758
▁꾸	-11.2763
▁m	-11.2764
▁Kookmin	-11.2767
▁컸다	-11.2767
▁boyfriend	-11.2769
대와	-11.277
▁계절	-11.277
▁했	-11.2771
▁thorough	-11.2771
▁stream	-11.2773
▁많아서	-11.2773
▁늘어나	-11.2774
▁조각	-11.2775
▁Okay	-11.2776
▁짜	-11.2777
▁risen	-11.2777
▁tough	-11.2777
났다	-11.2778
▁Wang	-11.2781
▁promising	-11.2785
▁태권도	-11.2785
▁Revolution	-11.2785
▁missed	-11.2786
▁제고	-11.2787
▁쇼핑몰	-11.2789
▁한복	-11.279
▁원칙으로	-11.2792
펀드	-11.2793
▁손해배상	-11.2794
▁실종	-11.2795
▁미사일	-11.2795
▁정체	-11.2796
▁발언을	-11.2797
▁소녀	-11.2797
▁생활을	-11.2797
▁마세요	-11.2797
ged	-11.2798
몽	-11.28
DC	-11.28
▁끌	-11.2804
심을	-11.2807
▁fires	-11.2809
▁이상으로	-11.2809
life	-11.281
▁딱	-11.2811
▁Jakarta	-11.2812
▁abundant	-11.2812
▁angry	-11.2812
SA	-11.2814
▁항공기	-11.2814
▁이주	-11.2814
▁Eui	-11.2814
▁나눔	-11.2815
▁waves	-11.2816
▁카카오	-11.2817
박물관	-11.2818
성장	-11.282
▁posting	-11.282
▁음주운전	-11.2822
▁bread	-11.2822
군은	-11.2823
▁parent	-11.2823
▁마시	-11.2823
▁조처	-11.2829
▁최근에는	-11.283
▁impression	-11.2831
▁이민	-11.2834
▁관계자들	-11.2836
PA	-11.2837
▁percentage	-11.2838
▁circles	-11.2838
▁switch	-11.284
개로	-11.2844
▁generated	-11.2844
▁감성	-11.2846
벨	-11.2846
▁insufficient	-11.2849
▁Protection	-11.2849
▁bodies	-11.2849
▁utilizing	-11.2849
▁염	-11.2849
▁동원	-11.285
일로	-11.2852
▁대외	-11.2852
▁piece	-11.2853
▁증상이	-11.2853
▁논	-11.2853
▁지정된	-11.2856
▁학술	-11.2858
▁지닌	-11.2859
▁발사	-11.2863
▁전파	-11.2863
체제	-11.2863
▁공익	-11.2863
▁insisted	-11.2871
▁배상	-11.2873
▁대리	-11.2875
▁laugh	-11.2878
회담	-11.2878
song	-11.2882
인권	-11.2884
▁대한항공	-11.2885
▁떨어지는	-11.2885
▁particularly	-11.2885
▁아침에	-11.2886
▁Judge	-11.2886
▁곳을	-11.2887
▁농도	-11.2888
ect	-11.2893
▁요청했다	-11.2895
▁발견된	-11.2895
지면	-11.2897
부에	-11.2897
▁그렇다면	-11.2897
▁탄력	-11.2898
▁이뤄졌다	-11.2898
▁생각에	-11.2898
▁Guro	-11.2899
▁주목을	-11.2902
▁2.5	-11.2903
▁그에게	-11.2904
▁빅데이터	-11.2905
▁부장판사	-11.2906
▁국민이	-11.2911
▁입시	-11.2912
버리	-11.2913
▁JTBC	-11.2914
진흥원	-11.2914
으로써	-11.2915
▁논문	-11.2915
▁실시하고	-11.2922
▁스웨덴	-11.2923
▁anger	-11.2926
▁robot	-11.2929
포럼	-11.2931
▁창작	-11.2932
▁curious	-11.2932
▁발효	-11.2934
▁등급	-11.2935
드리겠습니다	-11.2936
▁펼쳐	-11.2937
▁Unions	-11.2939
▁Kyo	-11.2939
▁지원하기	-11.2939
▁sitting	-11.2942
▁사고를	-11.2944
스크	-11.2945
▁높게	-11.2947
▁truck	-11.2948
▁고양	-11.2951
▁차량이	-11.2952
▁MC	-11.2952
▁금액을	-11.2955
▁vegetables	-11.2955
▁joining	-11.2957
▁측면	-11.2957
▁값	-11.2957
about	-11.2959
▁제시한	-11.2959
▁slowdown	-11.296
▁partially	-11.2962
▁널리	-11.2963
▁기업을	-11.2963
나라	-11.2964
▁앉아	-11.2966
▁Black	-11.2966
lan	-11.2968
▁때가	-11.2968
▁수백	-11.2968
▁테이블	-11.2968
정비	-11.2969
▁killing	-11.297
▁매월	-11.297
▁확신	-11.2971
▁이수	-11.2971
▁이들을	-11.2972
▁빅	-11.2973
농업	-11.2977
0.0	-11.2978
계약을	-11.2978
▁일어난	-11.2979
퇴	-11.298
▁이익	-11.2981
활	-11.2983
▁officio	-11.2988
▁트렌드	-11.2988
▁Cooperative	-11.2988
▁낮아	-11.2993
▁Environmental	-11.2997
▁championship	-11.2997
▁이자	-11.2998
rmal	-11.2999
어를	-11.3
▁매달	-11.3003
▁doubt	-11.3004
▁advertisement	-11.3004
▁알려주	-11.3006
air	-11.3006
▁delegation	-11.3007
▁indicators	-11.3009
▁리더	-11.301
▁청주	-11.3011
특별	-11.3011
▁exactly	-11.3016
▁세계적으로	-11.3016
ow	-11.3016
hop	-11.3016
▁조항	-11.302
예방	-11.302
해줄	-11.3023
▁과일	-11.3024
▁전액	-11.3024
기의	-11.3024
▁경찰관	-11.3025
▁소수	-11.3025
▁신용카드	-11.3026
kyun	-11.3026
ise	-11.3029
▁convention	-11.303
▁방안이	-11.3032
하러	-11.3033
▁파업	-11.3034
▁Jeonnam	-11.3036
▁위촉직	-11.3037
▁협상이	-11.3041
▁na	-11.3041
▁내놓은	-11.3042
▁제도를	-11.3043
▁시상식	-11.3043
▁고기	-11.3043
▁일시	-11.3044
▁pool	-11.3045
▁manpower	-11.3045
▁매매	-11.3045
▁집으로	-11.3046
heung	-11.3047
▁cycle	-11.3048
BA	-11.305
엄	-11.305
▁Consumer	-11.3051
▁경제가	-11.3053
▁literature	-11.3053
▁preservation	-11.3053
▁LED	-11.3054
▁effectively	-11.3056
▁고장	-11.3057
사업에	-11.3058
▁funding	-11.3061
rk	-11.3063
▁맡고	-11.3063
▁인공	-11.3064
▁소규모	-11.3064
▁sexually	-11.3066
▁부착	-11.3067
place	-11.3069
▁대장	-11.3072
▁동장	-11.3072
▁않아서	-11.3072
▁성장을	-11.3073
▁좌석	-11.3073
▁guardian	-11.3076
98	-11.3077
▁내놓	-11.3077
▁GM	-11.3078
▁연락을	-11.3078
▁든	-11.3079
▁2014,	-11.3079
▁지역주민	-11.3079
▁west	-11.308
sil	-11.3083
▁보험료	-11.3084
▁비슷	-11.3085
▁자리가	-11.3085
EU	-11.3088
▁이사회	-11.3088
▁earned	-11.3089
▁operates	-11.3089
▁선사	-11.309
▁용인	-11.309
▁취약	-11.3091
▁denied	-11.3091
▁퍼포먼스	-11.3091
▁당분간	-11.3092
▁발휘	-11.3092
억원으로	-11.3096
▁송금	-11.3097
▁기각	-11.3098
▁개선을	-11.3101
▁포스코	-11.3101
▁fix	-11.3103
머니	-11.3103
TO	-11.3105
골을	-11.3106
산업의	-11.3109
▁danger	-11.311
▁collaboration	-11.311
▁colonial	-11.311
▁무려	-11.311
▁humans	-11.3112
▁즐기는	-11.3113
▁constantly	-11.3113
▁인정받	-11.3114
▁높았다	-11.3115
▁장이	-11.3117
▁Book	-11.3117
▁재무	-11.3118
▁scholarship	-11.3118
▁급여	-11.3118
▁성사	-11.3119
▁대단	-11.3119
▁stayed	-11.312
텍	-11.312
▁작품이	-11.3122
▁도중	-11.3122
ens	-11.3122
nce	-11.3123
▁membership	-11.3123
▁부대	-11.3124
▁founder	-11.3125
서에	-11.3128
▁대중교통	-11.3129
▁Indian	-11.313
▁Tour	-11.3133
▁치열한	-11.3135
▁당해	-11.3135
▁이승	-11.3136
▁실력	-11.3137
▁Italy	-11.3139
▁국경	-11.314
▁excluding	-11.314
▁생각하고	-11.3141
sk	-11.3143
▁엔진	-11.3145
▁지수	-11.3146
uck	-11.3146
편의	-11.3146
▁Uijeongbu	-11.3148
▁자카르타	-11.3148
▁contain	-11.315
▁Buk	-11.315
비율	-11.3155
센터를	-11.3156
▁짓	-11.3157
▁girlfriend	-11.3158
▁넘치는	-11.3158
▁멀	-11.316
▁reviewing	-11.3162
chun	-11.3164
school	-11.3166
▁Gimpo	-11.3167
▁stamp	-11.3167
▁tuition	-11.3167
▁Airlines	-11.3167
▁assistance	-11.3167
▁preference	-11.3167
▁사유로	-11.3167
▁금요일	-11.3168
▁지체	-11.3168
▁누적	-11.3168
교사	-11.317
▁독특한	-11.3171
▁statements	-11.3172
▁offers	-11.3172
부의	-11.3173
▁alliance	-11.3176
▁찾아가	-11.3176
▁친구들	-11.3177
됐습니다	-11.3177
▁빌려	-11.3177
▁KTX	-11.3179
▁하던	-11.3179
하다가	-11.3181
▁근처에	-11.3182
▁있다며	-11.3186
기기	-11.3186
▁숙박	-11.319
▁Members	-11.3192
▁한계가	-11.3194
President	-11.3195
▁Lunar	-11.3195
▁기관의	-11.3196
▁메이	-11.3198
▁unexpected	-11.32
▁states	-11.3201
▁귀사	-11.3203
▁client	-11.3204
트가	-11.3204
끼	-11.3205
▁휴가	-11.3205
▁물이	-11.3206
▁가기	-11.3206
▁row	-11.3208
▁된다고	-11.3208
▁구역	-11.3209
▁인천시	-11.3211
▁consultations	-11.3212
▁훌륭한	-11.3212
▁흥	-11.3213
▁calculation	-11.3214
▁glad	-11.3214
▁뒷받침	-11.3214
▁상승세	-11.3216
▁정도가	-11.3217
▁오지	-11.3217
▁통보하여야	-11.3218
▁연구개발	-11.3219
▁충족	-11.3219
▁intended	-11.322
▁carbon	-11.322
▁문자	-11.3221
▁기조	-11.3223
▁ambassador	-11.3224
▁teach	-11.3225
▁Given	-11.3225
▁manual	-11.3225
▁실질적인	-11.3231
▁retail	-11.3233
▁Major	-11.3233
▁citing	-11.3233
책을	-11.3234
▁드리겠습니다	-11.3235
이던	-11.3236
부는	-11.3237
▁배당	-11.324
▁temporarily	-11.3243
▁subscribers	-11.3243
▁해상	-11.3246
우는	-11.3247
▁1970	-11.3248
▁다음과	-11.3249
▁temperatures	-11.325
▁correction	-11.3251
▁Articles	-11.3252
▁곧바로	-11.3253
▁expressing	-11.3255
▁assigned	-11.3256
▁시기에	-11.3257
▁answered	-11.3258
▁않을까	-11.3259
▁파트너	-11.326
▁유사	-11.326
▁격차	-11.3261
▁업데이트	-11.3262
▁systematic	-11.3263
▁거기	-11.3263
▁53	-11.3264
▁융합	-11.3266
▁전통시장	-11.3269
▁63	-11.327
중앙	-11.327
▁stages	-11.3272
▁Winter	-11.3272
▁예전	-11.3275
ological	-11.3276
팔	-11.328
▁동일	-11.3281
▁하나님의	-11.3281
▁reviews	-11.3281
▁가질	-11.3282
하시는	-11.3283
▁접속	-11.3284
▁시작됐다	-11.3286
▁법원행정처	-11.3291
▁택배	-11.3292
스와	-11.3293
▁Wan	-11.3293
▁소년	-11.3297
▁artistic	-11.3299
▁조언	-11.3299
▁교육과정	-11.33
▁arise	-11.33
ably	-11.33
07	-11.33
▁ministries	-11.3301
▁심지어	-11.3301
▁separated	-11.3301
ley	-11.3302
▁중동	-11.3302
▁위축	-11.3303
▁충	-11.3304
▁수급	-11.3307
▁음식점	-11.3308
▁끝나	-11.3308
▁reveal	-11.3309
▁포착	-11.331
▁국무총리	-11.331
▁색깔	-11.331
▁증진	-11.3312
▁세워	-11.3314
성은	-11.3315
쟁	-11.3315
기한	-11.3316
▁cr	-11.3318
▁Coast	-11.332
▁당연직	-11.332
▁내지	-11.3322
▁passage	-11.3322
▁특화	-11.3322
▁east	-11.3322
▁reflecting	-11.3323
▁시사	-11.3323
▁object	-11.3325
▁micro	-11.3325
▁조례에서	-11.3329
ryong	-11.3329
건으로	-11.3329
▁Contest	-11.3329
▁ferry	-11.3329
▁disposition	-11.333
▁호소	-11.3331
▁volunteers	-11.3332
▁pitcher	-11.3332
▁fostering	-11.3333
▁faced	-11.3334
gar	-11.3337
fledged	-11.3339
▁영수증	-11.3339
▁입국	-11.3339
▁signature	-11.3339
▁모니터링	-11.3339
▁정책에	-11.334
기반	-11.334
▁considerable	-11.3341
국이	-11.3341
▁다르게	-11.3342
▁참가자	-11.3342
▁cheer	-11.3342
▁li	-11.3344
uch	-11.3344
▁seniors	-11.3347
▁sixth	-11.3348
sam	-11.3349
▁소방당국	-11.3349
▁머물	-11.335
▁곳곳에	-11.3351
세포	-11.3351
▁지내	-11.3351
▁긍정적	-11.3353
자들은	-11.3354
ties	-11.3356
교육감	-11.3358
▁위원회에	-11.3361
▁화성	-11.3364
▁stronger	-11.3364
▁belt	-11.3364
서비스를	-11.3366
실을	-11.3368
▁tension	-11.337
gyo	-11.337
▁investigations	-11.3371
▁진학	-11.3371
▁업	-11.3372
▁드러내	-11.3373
▁visual	-11.3373
▁차트	-11.3375
▁Will	-11.3375
▁VR	-11.3377
▁되도록	-11.3377
cation	-11.3378
▁차질	-11.3386
▁reserve	-11.3388
▁toilet	-11.3388
▁분들	-11.3391
▁느끼는	-11.3392
▁영화는	-11.3392
▁탑재	-11.3393
▁donations	-11.3393
하였으며	-11.3395
▁72	-11.3396
옹	-11.3397
▁획득	-11.3397
▁bid	-11.3397
▁secondary	-11.3397
▁미국에	-11.3398
▁advertisements	-11.34
▁welcome	-11.34
▁hire	-11.34
▁기다려	-11.3401
▁intensive	-11.3401
▁없는데	-11.3403
▁주민이	-11.3403
▁emotions	-11.3404
▁착수	-11.3405
▁server	-11.3408
sup	-11.3409
▁cable	-11.341
▁촉구했다	-11.341
▁모자	-11.3411
▁수행할	-11.3415
ov	-11.3415
▁인정되는	-11.3416
▁academy	-11.3417
▁typical	-11.3417
▁Or	-11.3418
▁영향력	-11.3419
▁cutting	-11.342
▁지원하고	-11.3424
▁사건에	-11.3424
▁관리에	-11.3425
▁모른다	-11.3426
hyuk	-11.3427
▁Deok	-11.3429
요금	-11.3429
▁조심	-11.343
▁서울의	-11.3431
▁담당하는	-11.3431
킨	-11.3432
▁flavor	-11.3434
▁붕괴	-11.3436
pan	-11.3436
▁형태의	-11.3436
▁싫어	-11.3437
▁scores	-11.3438
▁이게	-11.3442
▁승객	-11.3442
경이	-11.3443
▁창조	-11.3444
Presidential	-11.3444
▁otherwise	-11.3446
▁pet	-11.3446
▁쉬운	-11.3447
았던	-11.3449
▁도서	-11.3449
▁벌이고	-11.3449
▁입찰	-11.3452
▁beef	-11.3454
▁hearts	-11.3454
▁Building	-11.3456
▁퇴근	-11.3456
84	-11.3457
▁Gangdong	-11.3458
▁59	-11.3458
▁5%	-11.3458
our	-11.3459
▁시간은	-11.3459
▁cloud	-11.3464
▁보여주	-11.3467
▁지도자	-11.3467
▁되길	-11.3469
▁종종	-11.347
▁화물	-11.3472
▁Africa	-11.3473
▁commander	-11.3475
▁발견됐다	-11.3475
▁진행했다	-11.3477
mate	-11.3477
General	-11.3477
▁breaking	-11.3478
▁적절	-11.348
▁기차	-11.3482
▁Second	-11.3484
▁고령	-11.3484
▁워싱턴	-11.3485
▁easing	-11.3485
▁Hello	-11.3485
▁달라고	-11.3485
▁marks	-11.3485
EC	-11.3486
▁맞은	-11.3486
▁대구시	-11.3488
▁경기도내	-11.3488
▁Except	-11.3488
▁settle	-11.3489
▁언제나	-11.349
▁공적	-11.349
▁선생	-11.3491
품을	-11.3494
▁진전	-11.3495
▁interpretation	-11.3495
심의위원회	-11.3496
▁기기	-11.3497
▁익	-11.3502
▁앉	-11.3503
▁sustainable	-11.3505
part	-11.3506
▁heating	-11.3506
▁음주	-11.3507
▁strict	-11.351
▁성명	-11.3511
▁월드	-11.3512
▁일에	-11.3513
둔	-11.3513
mar	-11.3514
▁Heavy	-11.3514
▁행정안전부	-11.3514
▁aim	-11.3516
학자	-11.3516
▁슈퍼	-11.3516
▁suspend	-11.3516
▁몸이	-11.3518
유통	-11.3519
▁속도가	-11.3519
▁순서	-11.3522
76	-11.3522
app	-11.3522
▁당한	-11.3523
▁가능해	-11.3523
▁오면	-11.3523
▁가사	-11.3526
maker	-11.3527
▁discharge	-11.3528
▁letters	-11.3528
▁해체	-11.3529
▁점수	-11.3529
form	-11.3531
▁개정안	-11.3531
결정	-11.3535
▁1998	-11.3537
▁noodles	-11.3537
▁광진구	-11.3537
tric	-11.3537
▁규모로	-11.3538
▁다음에	-11.354
▁보내는	-11.3541
▁아니지만	-11.3541
▁김용	-11.3543
분께	-11.3543
▁Ui	-11.3544
껏	-11.3544
▁Har	-11.3544
함과	-11.3545
▁이곳은	-11.3546
public	-11.3546
▁무엇이	-11.3546
▁요청한	-11.3548
▁준비한	-11.3549
▁점포	-11.355
▁Pi	-11.3553
춤	-11.3554
리스트	-11.3554
▁타이	-11.3555
▁시대에	-11.3555
이랑	-11.3557
▁쏠리고	-11.3558
였고	-11.3559
▁작업이	-11.3559
▁보인	-11.3561
청년	-11.3563
▁미소	-11.3563
▁부위	-11.3564
▁concrete	-11.3564
▁fail	-11.3564
▁기업과	-11.3566
▁weapon	-11.3566
칼	-11.3567
▁정황	-11.3568
▁Lake	-11.3568
▁병원에	-11.3568
▁기대가	-11.3568
절차를	-11.357
mul	-11.3571
▁semi	-11.3573
정치	-11.3573
ev	-11.3573
▁방식을	-11.3573
즐	-11.3573
▁analyzing	-11.3574
▁deceased	-11.3574
▁받았습니다	-11.3576
▁논리	-11.3577
▁추적	-11.3582
▁burn	-11.3583
▁Meeting	-11.3583
▁엄청난	-11.3584
해지는	-11.3586
▁tall	-11.3587
오는	-11.3589
▁떨어지	-11.3589
▁64	-11.359
▁restricted	-11.3591
▁수영	-11.3592
▁예산이	-11.3592
▁지켜보	-11.3593
▁solutions	-11.3593
▁impressive	-11.3593
▁Gyeongju	-11.3595
▁대통령을	-11.3595
▁Byeong	-11.3597
▁높이기	-11.3598
▁expectation	-11.36
▁violated	-11.36
▁reviewed	-11.3602
▁motor	-11.3604
▁boss	-11.3604
공동	-11.3605
업소	-11.3609
▁음식이	-11.361
▁observation	-11.3613
▁recession	-11.3613
▁western	-11.3613
▁강아지	-11.3613
▁많습니다	-11.3616
▁Transportation	-11.3618
▁증언	-11.3624
▁뷰티	-11.3626
▁인형	-11.3627
▁자료에	-11.3628
▁원인이	-11.3628
줬다	-11.3628
▁대피	-11.3628
▁attractions	-11.363
▁아예	-11.3631
▁중점	-11.3631
▁Library	-11.3633
▁abandoned	-11.3637
▁restore	-11.3638
▁cargo	-11.3639
왔던	-11.3639
▁어렵다는	-11.3642
▁소송을	-11.3643
▁넓은	-11.3643
▁레스토랑	-11.3643
▁Great	-11.3643
▁colorful	-11.3644
둘	-11.3645
▁차세대	-11.3647
▁attraction	-11.3648
▁성경	-11.3648
▁요건	-11.3651
▁말까지	-11.3652
맛	-11.3656
이니	-11.3659
▁보전	-11.366
▁듣는	-11.366
▁장면이	-11.3661
시쯤	-11.3661
▁설명회	-11.3661
▁사업으로	-11.3662
▁수준을	-11.3663
▁국민들	-11.3664
78	-11.3664
드릴게요	-11.3665
▁비교해	-11.3666
▁멀리	-11.3667
캠프	-11.3668
▁56	-11.3669
▁Woori	-11.367
▁알리는	-11.3671
꾼	-11.3671
▁Class	-11.3672
▁경기장	-11.3672
▁끌었다	-11.3674
▁마련한	-11.3675
▁느낌이	-11.3676
센터가	-11.3677
차전	-11.3677
▁fines	-11.3678
일자리	-11.3678
▁투자가	-11.3679
▁참가한	-11.3681
▁다섯	-11.3683
▁초점	-11.3684
▁트위터	-11.3684
▁매수	-11.3686
▁surprise	-11.3686
▁numbers	-11.3687
▁수량	-11.3687
서가	-11.3688
▁원전	-11.3688
▁인정할	-11.3689
▁행정부	-11.369
▁Brexit	-11.3693
▁Period	-11.3693
▁뭔가	-11.3693
▁근육	-11.3694
▁manufacturers	-11.3694
▁Gov	-11.3696
▁회사는	-11.3697
재판	-11.3698
▁preferential	-11.3698
▁빵	-11.37
▁(3	-11.3701
▁radio	-11.3701
▁함은	-11.3703
보증	-11.3703
▁Fa	-11.3704
▁실시하는	-11.3705
beom	-11.3706
입니까	-11.3707
▁Doo	-11.371
지의	-11.3711
▁사업이다	-11.3711
▁이미지를	-11.3713
°	-11.3713
▁대다수	-11.3713
앙	-11.3716
▁슈	-11.3716
▁qualification	-11.3717
▁못한다	-11.3717
ering	-11.3718
▁Shanghai	-11.3723
▁guilty	-11.3723
안에	-11.3724
▁믿음	-11.3724
학회	-11.3724
▁설득	-11.3726
▁문구	-11.3728
▁신제품	-11.3728
부산	-11.3728
▁끈	-11.3729
▁들을	-11.373
▁적정	-11.3731
▁pack	-11.3733
▁Myanmar	-11.3733
▁London	-11.3733
▁죽음	-11.3733
▁scenes	-11.3734
▁돌봄	-11.3735
위험	-11.3736
▁조리	-11.3736
▁dealing	-11.3736
▁회수	-11.3736
▁Jinju	-11.3738
이즈	-11.3739
▁알아보	-11.3739
▁물량	-11.374
▁싸움	-11.374
▁돌파	-11.3741
ivity	-11.3742
▁헌	-11.3742
▁배우고	-11.3744
▁찾	-11.3745
▁지사가	-11.3746
심의	-11.3746
▁시공	-11.3746
▁wastes	-11.3747
▁자회사	-11.3748
▁certificates	-11.3749
▁기관이	-11.375
▁유망	-11.375
▁기분	-11.375
▁수렴	-11.3753
▁늘어	-11.3754
▁살인	-11.3754
▁넣	-11.3755
▁사회복지	-11.3756
▁calculated	-11.3756
▁회사에서	-11.376
▁간편	-11.3761
▁예배	-11.3763
yn	-11.3763
▁국무장관	-11.3763
▁조회	-11.3764
▁호흡	-11.3764
▁다이	-11.3765
▁감동	-11.3765
▁시작해	-11.3765
▁booked	-11.3766
▁democracy	-11.3766
체가	-11.3767
들어	-11.3771
▁출국	-11.3772
▁당직	-11.3773
현이	-11.3775
▁발전에	-11.3777
사장	-11.3777
▁아니고	-11.3778
▁graduates	-11.3778
정지	-11.3778
De	-11.3778
▁calm	-11.3779
렉	-11.378
▁tradition	-11.3783
▁pace	-11.3783
▁fare	-11.3786
▁leg	-11.3786
▁compensate	-11.3786
▁재직	-11.3787
▁violate	-11.3787
▁생길	-11.3787
▁objection	-11.3788
▁interviews	-11.3788
▁만났	-11.3789
Ho	-11.3791
▁종전선언	-11.3794
▁earn	-11.3795
top	-11.3795
▁피곤	-11.3795
▁po	-11.3798
▁tariff	-11.3798
▁57	-11.3804
▁끝나고	-11.3805
▁한해	-11.3805
센터는	-11.3807
▁해안	-11.381
▁흥행	-11.3811
▁끌어	-11.3813
▁Property	-11.3814
▁intense	-11.3814
▁둘째	-11.3814
▁컨	-11.3816
▁최악	-11.3816
▁감각	-11.3817
▁선진국	-11.3819
연수	-11.3819
▁achievement	-11.3821
▁furniture	-11.3824
▁얻은	-11.3824
대상자	-11.3824
▁speculation	-11.3824
▁일원	-11.3825
42	-11.3825
▁창립	-11.3826
▁revise	-11.3827
▁fat	-11.3829
▁affiliates	-11.3831
▁explains	-11.3832
▁너무나	-11.3832
▁전직	-11.3834
▁국가가	-11.3837
▁resume	-11.3838
▁지위	-11.3838
기간이	-11.3838
무역	-11.384
▁Yeosu	-11.384
▁revitalization	-11.3844
▁클라우드	-11.3844
▁근로시간	-11.3844
▁pending	-11.3845
경쟁	-11.3846
▁convey	-11.3846
▁늘어나고	-11.3847
▁그날	-11.3847
▁취급	-11.3848
▁아티스트	-11.3848
담당관	-11.3849
▁주최하고	-11.385
▁민주	-11.385
▁exist	-11.385
▁적합한	-11.385
▁솔루션	-11.3852
▁계속해서	-11.3854
▁연금	-11.3854
▁relocation	-11.3854
▁미얀마	-11.3854
▁Private	-11.3855
▁무죄	-11.3857
▁shortly	-11.3859
Japan	-11.386
▁종사자	-11.3862
▁경기북부	-11.3863
였	-11.3864
▁ultra	-11.3864
▁childbirth	-11.3865
53	-11.3865
▁운영한다	-11.3866
▁불가	-11.3867
▁환율	-11.3867
▁보내고	-11.3868
▁kids	-11.3868
▁option	-11.387
▁보건복지부	-11.387
▁Heo	-11.387
테크	-11.3871
▁물가	-11.3872
▁없었	-11.3873
▁England	-11.3875
▁terminal	-11.3875
ek	-11.3875
점으로	-11.3878
▁Yo	-11.388
▁경주	-11.388
▁내게	-11.3882
국의	-11.3883
oh	-11.3885
▁편집	-11.3885
시즌	-11.3885
▁Media	-11.3886
▁공연장	-11.3888
▁예산안	-11.3888
▁68	-11.3889
▁이뤄지지	-11.389
▁믿	-11.389
▁가맹점	-11.3891
▁titled	-11.3892
▁되면서	-11.3893
▁contained	-11.3893
▁Students	-11.3894
▁Football	-11.3895
▁Plaza	-11.3895
06	-11.3896
▁제외하고는	-11.3896
▁춤	-11.3899
아가	-11.3901
▁rumors	-11.3901
인증	-11.3902
▁균형	-11.3903
▁Persons	-11.3905
천만원	-11.3907
▁dispatch	-11.3908
▁flat	-11.3908
▁사례를	-11.3908
▁달아	-11.3912
▁wood	-11.3914
▁Establishment	-11.3915
▁Drug	-11.3916
▁끈다	-11.3918
▁모았다	-11.3921
▁전역	-11.3923
▁객실	-11.3926
▁Iranian	-11.3929
에겐	-11.3932
하더라도	-11.3932
▁연령	-11.3932
▁방어	-11.3933
month	-11.3933
▁marked	-11.3933
tel	-11.3934
▁무관	-11.3935
삭	-11.3936
▁은퇴	-11.3936
▁Jeonbuk	-11.3936
▁밖으로	-11.3936
▁파괴	-11.3937
▁성남	-11.3938
▁지상	-11.3942
▁밴드	-11.3943
89	-11.3944
▁들어가는	-11.3944
▁entity	-11.3946
▁가해자	-11.395
▁전후	-11.3952
▁incentives	-11.3952
▁software	-11.3957
▁promotional	-11.3957
▁당연히	-11.3958
▁곳곳에서	-11.3959
씨에게	-11.396
▁야간	-11.3961
▁Daewoo	-11.3962
▁높여	-11.3963
09	-11.3963
▁walls	-11.3963
▁84	-11.3965
▁frame	-11.3967
▁요구했다	-11.3967
▁가족과	-11.3968
▁notification	-11.3968
▁관장	-11.3968
od	-11.3969
▁equality	-11.3969
▁본격화	-11.3969
istic	-11.397
▁케이	-11.397
한국시간	-11.397
▁고문	-11.3973
▁metal	-11.3974
▁누리	-11.3975
▁켜	-11.3976
픽	-11.3977
▁특검	-11.3977
▁태양광	-11.3978
net	-11.3979
▁attractive	-11.3979
▁취재	-11.3979
ming	-11.398
▁왔습니다	-11.398
▁관광지	-11.3981
▁급등	-11.3982
할게요	-11.3982
▁alley	-11.3982
▁coal	-11.3986
▁이기	-11.3986
▁thick	-11.3987
▁equity	-11.3987
▁restructuring	-11.3987
▁psychological	-11.3987
▁crew	-11.3987
상은	-11.3988
경비	-11.3989
▁마포구	-11.399
▁cute	-11.399
▁치킨	-11.3995
▁solving	-11.3996
▁원내대표가	-11.3996
▁막을	-11.3996
▁발생하지	-11.3998
▁김성	-11.3999
sen	-11.4
▁마찬가지로	-11.4001
▁대체로	-11.4001
▁talented	-11.4002
▁Prosecutor	-11.4004
▁무대를	-11.4004
Japanese	-11.4005
▁갖추고	-11.4005
▁bl	-11.4005
닉	-11.4007
▁adapt	-11.4007
▁monetary	-11.4008
▁nursing	-11.4008
▁opposite	-11.4008
금액	-11.4008
▁작성한	-11.4009
▁차가	-11.4011
▁위탁할	-11.4011
▁supporters	-11.4012
▁결정했다	-11.4013
타워	-11.4017
▁노하우	-11.4018
hang	-11.4018
▁쥐	-11.4019
되지만	-11.402
▁테러	-11.4021
▁scenery	-11.4021
▁이뤄	-11.4027
ari	-11.4028
▁Lawmaker	-11.4029
▁금융기관	-11.403
▁stands	-11.403
▁남쪽	-11.4031
▁대량	-11.4032
▁방법은	-11.4033
▁심한	-11.4034
▁Gumi	-11.4034
▁후속	-11.4035
▁greeting	-11.4035
역에서	-11.4036
▁모범	-11.4036
▁demanding	-11.4036
▁몰아	-11.4038
▁Championship	-11.4039
▁desk	-11.404
▁가요	-11.404
▁characterized	-11.4041
▁soil	-11.4041
story	-11.4042
▁저소득층	-11.4042
You	-11.4044
86	-11.4044
듯이	-11.4045
management	-11.4046
▁publication	-11.4047
▁Test	-11.4048
▁churches	-11.4048
▁Congress	-11.4049
투어	-11.4054
finding	-11.4057
▁방영	-11.4057
▁증권	-11.4057
분을	-11.4058
▁그중	-11.4059
호텔	-11.4064
▁‘2019	-11.4066
지게	-11.4071
▁Officer	-11.4072
tle	-11.4074
▁claiming	-11.4074
▁En	-11.4074
▁항의	-11.4075
ute	-11.4077
▁사립유치원	-11.4081
인에게	-11.4081
▁포상	-11.4081
▁전략을	-11.4082
▁turns	-11.4083
▁reflects	-11.4085
▁전주	-11.4086
▁crowded	-11.4087
▁김태	-11.409
▁pledge	-11.4091
▁비싸	-11.4092
▁편리	-11.4093
맞	-11.4097
▁fault	-11.4101
▁hub	-11.4102
▁다수의	-11.4102
▁harm	-11.4102
▁dismissal	-11.4103
▁사퇴	-11.4103
▁애초	-11.4106
북한	-11.4108
일본	-11.4109
cl	-11.4109
당국	-11.411
▁illness	-11.4112
▁힘들어	-11.4112
▁사용하고	-11.4114
협상	-11.4117
elecommunication	-11.4122
▁Prevention	-11.4122
▁송파구	-11.4123
▁적자	-11.4124
▁재능	-11.4125
96	-11.4129
▁출동	-11.4129
▁Expressway	-11.4133
▁귀국	-11.4133
▁sponsored	-11.4133
하나요	-11.4135
▁1999	-11.4135
▁happens	-11.4137
일과	-11.4137
하였을	-11.4138
▁건전	-11.4138
금이	-11.4139
▁지원금	-11.414
컨	-11.4141
▁Regulations	-11.4141
▁shoot	-11.4141
▁utilization	-11.4143
▁confusion	-11.4143
▁일환으로	-11.4143
▁reference	-11.4144
▁Smart	-11.4144
▁흐	-11.4145
▁않았던	-11.4146
▁cap	-11.4146
▁유아	-11.4149
잖아	-11.4151
샤	-11.4151
Since	-11.4151
▁드립니다	-11.4153
▁Dongdaemun	-11.4154
▁보고서를	-11.4154
▁변수	-11.4155
▁corresponding	-11.4157
▁everyday	-11.4159
▁PD	-11.4163
▁이어진	-11.4164
▁브렉시트	-11.4164
▁관찰	-11.4166
▁강화를	-11.417
▁과학기술	-11.417
▁뛰	-11.4172
▁Over	-11.4172
▁helpful	-11.4172
▁resource	-11.4172
기간을	-11.4174
▁대결	-11.4174
▁납품	-11.4175
▁Thai	-11.4175
▁targets	-11.4176
AT	-11.4176
▁lights	-11.4182
ram	-11.4182
general	-11.4183
▁살해	-11.4185
▁pregnant	-11.4185
▁끊임없	-11.4185
▁쾌적	-11.4185
▁탄핵	-11.4185
▁patrol	-11.4186
▁parks	-11.4186
▁침대	-11.4187
▁보면서	-11.4189
▁보지	-11.4191
▁hired	-11.4192
▁61	-11.4193
붙	-11.4193
▁상품이	-11.4194
▁Ambassador	-11.4196
▁후에는	-11.4196
우스	-11.4199
액을	-11.42
▁말할	-11.42
▁참여하고	-11.42
sul	-11.4201
등을	-11.4203
chairperson	-11.4204
▁크지	-11.4206
▁extraordinary	-11.4206
▁20,000	-11.4208
영이	-11.421
▁체크	-11.421
▁이익을	-11.4216
▁Spanish	-11.4217
▁stabilize	-11.4217
▁대안	-11.4217
리티	-11.4217
▁갖는	-11.4218
장에게	-11.4218
▁FSS	-11.4218
▁flood	-11.4218
▁떠난	-11.4218
▁조금씩	-11.4219
bum	-11.422
▁ratings	-11.4223
▁만화	-11.4223
딜	-11.4225
잠	-11.4225
▁ca	-11.4226
▁가입자	-11.4226
▁par	-11.4226
▁테마	-11.4226
▁중입니다	-11.4227
▁nervous	-11.4227
Act	-11.4229
▁김상	-11.423
▁서버	-11.4233
▁makeup	-11.4234
▁살펴보면	-11.4236
▁finals	-11.4236
지부	-11.4236
700	-11.4237
▁Camp	-11.4238
▁연예인	-11.4238
▁기온	-11.4238
not	-11.424
▁Nak	-11.4241
사실	-11.4242
었을	-11.4247
all	-11.4248
▁몇몇	-11.4248
▁구청	-11.4248
할지	-11.4252
▁소비자가	-11.4255
▁국정	-11.4256
▁정보화	-11.4257
▁게시	-11.4259
▁Panmunjom	-11.4259
▁grandmother	-11.4259
▁요구할	-11.4259
94	-11.426
▁홈런	-11.426
▁떨	-11.4261
▁걸리	-11.4264
▁consultati	-11.4265
짓	-11.4266
▁유학	-11.4267
▁공중	-11.4267
ku	-11.4268
▁belief	-11.427
▁curiosity	-11.427
▁Authority	-11.427
촉진	-11.427
▁강경	-11.4272
▁Bible	-11.4274
▁전반에	-11.4276
▁연임	-11.4279
▁confrontation	-11.4281
▁homepage	-11.4281
▁unemployment	-11.4281
▁해주	-11.4282
▁퇴직	-11.4283
▁일본인	-11.4285
부분	-11.4287
▁Dis	-11.4287
폐기물	-11.4289
set	-11.4289
▁instructors	-11.4291
▁attorney	-11.4291
▁worship	-11.4291
▁smaller	-11.4291
▁fever	-11.4292
▁북쪽	-11.4293
▁집계	-11.4295
cor	-11.4296
▁speaking	-11.4298
▁charging	-11.4301
▁소형	-11.4301
▁항공사	-11.4302
∼1	-11.4302
동에	-11.4305
▁acquired	-11.4306
다니	-11.4309
▁Chungcheongnam	-11.4313
▁벌금	-11.4313
▁조치가	-11.4314
▁의지가	-11.4314
▁나한테	-11.4316
Although	-11.4322
▁Above	-11.4323
▁apology	-11.4323
▁수거	-11.4324
▁커질	-11.4326
gin	-11.4328
wn	-11.433
▁기간에	-11.4331
내고	-11.4332
멜	-11.4333
▁Instead	-11.4333
▁바뀌	-11.4334
바이오	-11.4334
▁체력	-11.4335
▁셀	-11.4335
74	-11.4336
▁nor	-11.4337
51	-11.4338
▁디스플레이	-11.4338
▁moves	-11.4338
▁교실	-11.4341
ture	-11.4342
▁Democracy	-11.4344
▁excited	-11.4344
가스	-11.4347
▁든다	-11.4348
▁constructed	-11.4349
▁savings	-11.4349
▁inning	-11.4349
▁Reform	-11.435
▁불편을	-11.4354
▁재원	-11.4354
▁만남	-11.4355
정의	-11.4356
▁확실히	-11.4357
실에	-11.4363
었어	-11.4363
▁위기에	-11.4363
집행	-11.4365
▁legislative	-11.4365
bs	-11.4367
▁감축	-11.4368
▁발의	-11.4368
없는	-11.4369
대응	-11.4371
▁ta	-11.4373
▁renewable	-11.4376
▁rear	-11.4377
▁친구들이	-11.4378
▁정상화	-11.4379
▁distribute	-11.438
▁reconstruction	-11.4387
900	-11.4391
▁콩	-11.4397
▁달에	-11.4397
▁났다	-11.4397
▁pride	-11.4398
▁곁	-11.4399
코드	-11.4399
▁소환	-11.4399
▁Pay	-11.44
키로	-11.4401
▁apologize	-11.4402
▁열려	-11.4402
▁안전성	-11.4402
▁서울시가	-11.4403
▁Game	-11.4403
▁winds	-11.4403
▁연설	-11.4404
▁그걸	-11.4404
OS	-11.4407
▁(2),	-11.4408
사례	-11.4408
▁무릎	-11.4408
▁런던	-11.4408
▁승리를	-11.4409
▁wooden	-11.4409
▁인하여	-11.4409
▁진정	-11.441
▁hang	-11.441
▁증가하는	-11.4411
▁button	-11.4412
▁SUV	-11.4412
▁이처럼	-11.4415
▁85	-11.4416
▁소프트웨어	-11.4419
▁merit	-11.4419
▁임용	-11.442
▁좌우	-11.4422
▁매력	-11.4423
▁prayer	-11.4424
방지	-11.4425
▁먼	-11.4425
▁도민들	-11.4425
▁과도한	-11.443
트로	-11.443
▁hat	-11.4431
▁촉구	-11.4433
▁있었어요	-11.4433
▁사정이	-11.4433
▁평생	-11.4435
▁메인	-11.4435
▁하더라도	-11.4437
late	-11.4437
▁유물	-11.4437
민의	-11.4437
▁제기한	-11.4437
▁방학	-11.4438
chu	-11.4438
▁관악구	-11.4439
▁추억	-11.4439
직을	-11.444
셋	-11.4441
▁이집트	-11.4441
▁Techno	-11.4441
▁사건은	-11.4441
gro	-11.4442
ori	-11.4443
▁남겨	-11.4443
보장	-11.4443
▁중에는	-11.4444
▁지금도	-11.4449
뢰	-11.4449
▁요구가	-11.4449
▁thousands	-11.445
룩	-11.4451
▁resort	-11.4451
▁카카오톡	-11.4451
▁몰랐	-11.4453
▁시에	-11.4453
ifi	-11.4454
nal	-11.4455
▁허리	-11.4457
▁꼽힌다	-11.4462
▁청사	-11.4462
▁partnership	-11.4463
▁규칙은	-11.4463
위원회를	-11.4463
시아	-11.4465
▁행사로	-11.4466
▁movements	-11.4467
▁한때	-11.4469
▁높고	-11.4473
▁Fe	-11.4473
▁classroom	-11.4474
▁정상이	-11.4475
wol	-11.448
ack	-11.4482
▁오류	-11.4483
▁equivalent	-11.4484
▁rehabilitation	-11.4484
▁리스트	-11.4484
혔다	-11.4486
▁현지인들	-11.4487
음에도	-11.4487
▁디자이너	-11.4488
▁병역	-11.4488
▁불량	-11.4489
▁팀을	-11.449
▁virtual	-11.449
61	-11.4491
▁갖	-11.4493
▁진흥	-11.4495
▁organic	-11.4496
▁Out	-11.4497
▁화학	-11.4497
▁가능하며	-11.4502
▁faces	-11.4504
▁매력을	-11.4506
▁생겨	-11.4506
▁witness	-11.4506
으려	-11.4507
▁묻는	-11.4507
▁비정규직	-11.4507
ica	-11.4508
▁법원이	-11.4508
▁unions	-11.4509
▁돕는	-11.4509
▁뜨	-11.4512
ranking	-11.4513
▁거리가	-11.4515
투표	-11.4516
론이	-11.4517
▁Fi	-11.4517
시키	-11.4517
▁김씨가	-11.4517
▁clinic	-11.4518
▁surge	-11.452
▁기본계획	-11.4521
▁im	-11.4522
▁중국에	-11.4523
▁소중한	-11.4524
ign	-11.4524
된다는	-11.4527
▁phrase	-11.4527
원과	-11.4528
보고서	-11.4528
▁담고	-11.4529
minute	-11.4529
▁주행	-11.4531
▁이거	-11.4532
심이	-11.4532
▁진정한	-11.4534
dam	-11.4535
▁existence	-11.4538
▁advisory	-11.4541
드려	-11.4543
▁복잡	-11.4543
▁버전	-11.4543
▁hole	-11.4544
▁대표의	-11.4545
63	-11.4546
▁김동	-11.4548
▁특유의	-11.4549
▁남자친구	-11.4549
▁arm	-11.4552
▁차장	-11.4554
▁50,000	-11.4555
▁돼지	-11.4555
dle	-11.4556
재정	-11.4557
ura	-11.4557
sha	-11.4558
▁graduation	-11.456
▁스크린	-11.456
▁Official	-11.456
▁Actress	-11.4563
▁installing	-11.4564
▁sleeping	-11.4565
▁자격증	-11.4567
했으면	-11.4568
▁보일	-11.4569
ey	-11.457
▁사로잡	-11.457
▁부득이	-11.4571
▁recall	-11.4574
▁차원의	-11.4579
느	-11.4579
▁equal	-11.458
▁Network	-11.4582
▁58	-11.4583
조합	-11.4583
분에	-11.4585
▁hitting	-11.4586
▁월요일	-11.4587
my	-11.4588
이라서	-11.4588
▁그림을	-11.459
▁빗	-11.459
▁레이	-11.4591
▁쌍	-11.4592
▁해군	-11.4592
▁언급한	-11.4592
셔야	-11.4592
▁이내의	-11.4593
▁Yeongdeungpo	-11.4593
▁일으키	-11.4593
▁automobile	-11.4594
▁내외	-11.4594
▁warned	-11.4594
책임	-11.4594
▁우즈베키스탄	-11.4597
▁guaranteed	-11.4599
▁튀	-11.46
So	-11.46
▁재미	-11.4601
▁이상인	-11.4602
▁pharmaceutical	-11.4603
▁윤리	-11.4603
▁Agreement	-11.4604
▁departure	-11.4604
▁Daily	-11.4606
05	-11.4607
▁gifts	-11.4608
하라는	-11.4609
▁고객님	-11.4609
심에서	-11.461
▁Anyang	-11.4611
▁걸그룹	-11.4611
▁초래	-11.4613
▁liked	-11.4615
▁native	-11.4615
▁attempted	-11.4616
성의	-11.4616
▁관리하는	-11.4618
▁succession	-11.4618
)"	-11.4619
∼20	-11.462
▁부각	-11.4625
▁또다시	-11.4626
87	-11.4626
로서의	-11.4626
▁lay	-11.4628
▁cheering	-11.4628
▁행동을	-11.463
▁politicians	-11.463
▁혈	-11.4633
▁연구원	-11.4634
▁수상자	-11.4635
care	-11.4635
▁친구와	-11.4636
▁iPhone	-11.4637
▁sweat	-11.4637
▁즉각	-11.4638
▁adjusted	-11.4638
겸	-11.4638
▁유연	-11.464
놓	-11.464
▁거세	-11.4641
▁드는	-11.4641
▁조화	-11.4641
레스	-11.4645
▁와인	-11.4646
▁기여할	-11.4647
▁detention	-11.4648
▁chain	-11.4648
▁여자친구	-11.4648
보면	-11.4648
▁160	-11.4648
▁그랬	-11.4649
▁realistic	-11.4649
▁friendship	-11.4649
ates	-11.465
ening	-11.4653
천여	-11.4655
▁문장	-11.4655
▁예정인	-11.4658
ify	-11.4658
▁Budget	-11.4659
▁컬러	-11.4659
윈	-11.4661
사업의	-11.4663
▁선물을	-11.4665
▁조율	-11.4665
▁넘어서	-11.4666
▁있었다고	-11.4667
▁안산	-11.4668
▁수면	-11.4669
▁드러냈다	-11.467
▁리스크	-11.467
▁unknown	-11.4671
graph	-11.4671
▁내야	-11.4672
▁2013,	-11.4675
▁보냈	-11.4675
▁싶었	-11.4675
Ch	-11.4675
97	-11.4676
▁박스	-11.4676
원에서	-11.4677
▁Tong	-11.4678
▁Confederation	-11.4681
▁basketball	-11.4681
▁Cheol	-11.4681
▁몸에	-11.4683
▁대답	-11.4683
▁북한과	-11.4684
▁잇	-11.4685
▁generally	-11.4686
▁강좌	-11.4686
▁국비	-11.4686
상에	-11.4687
▁김현	-11.4688
▁samples	-11.4689
▁숫자	-11.4689
▁별도	-11.4689
이스	-11.4692
▁neck	-11.4692
줘	-11.4692
▁passport	-11.4692
▁2030	-11.4692
▁맞서	-11.4693
▁마스크	-11.4693
▁여지	-11.4694
▁반대로	-11.4694
▁소유자	-11.4695
▁현재는	-11.4695
지와	-11.4697
▁얼굴을	-11.4698
made	-11.4699
▁대해선	-11.4699
br	-11.47
▁추진을	-11.4701
▁된다면	-11.4701
▁면세점	-11.4702
▁언	-11.4703
cc	-11.4704
▁세운	-11.4705
iz	-11.4707
▁산책	-11.4708
▁judiciary	-11.4714
▁아니라는	-11.4714
규칙	-11.4714
▁없애	-11.4715
priced	-11.4715
▁방식이	-11.4716
▁일고	-11.4718
▁집안	-11.4722
▁girls	-11.4723
ade	-11.4723
▁사실이다	-11.4723
▁헌법	-11.4725
▁swing	-11.4725
▁bathroom	-11.4725
셔서	-11.4727
산업단지	-11.4731
연금	-11.4733
▁complicated	-11.4736
▁survival	-11.4736
73	-11.4736
▁유력	-11.4736
▁Review	-11.4736
▁신인	-11.4737
개월간	-11.4738
▁circle	-11.4738
▁수시	-11.4739
▁Sim	-11.474
건을	-11.4742
▁Hanjin	-11.4745
▁가져다	-11.4746
에게도	-11.4746
▁Inspection	-11.4747
▁breakfast	-11.4747
▁stepped	-11.4748
0%)	-11.4749
▁하천	-11.475
기본법	-11.475
박람회	-11.475
▁봐야	-11.4754
▁Work	-11.4755
▁Meanwhile	-11.4758
▁비싼	-11.4759
▁1997	-11.4761
▁흔	-11.4761
▁talents	-11.4762
ST	-11.4763
▁사장이	-11.4766
공동체	-11.4766
▁예선	-11.4766
▁응시	-11.4768
▁산업단지	-11.4768
▁Mon	-11.4772
건축	-11.4772
▁위생	-11.4772
Mo	-11.4772
▁명단	-11.4775
인과	-11.4778
▁유족	-11.4778
▁국가대표	-11.4778
시장에서	-11.4781
▁것들이	-11.4781
▁지역이	-11.4784
▁최소한	-11.4785
PC	-11.4786
▁immediate	-11.4787
iti	-11.4787
governing	-11.4788
▁압	-11.4789
▁서울에서	-11.4789
▁북한에	-11.4789
▁Celsius	-11.4792
▁accounted	-11.4792
▁anywhere	-11.4793
gy	-11.4795
▁소리가	-11.4795
▁주문한	-11.4796
▁무용	-11.4799
▁Mongolia	-11.4799
▁조금만	-11.48
▁harvest	-11.4803
▁proposals	-11.4804
▁아이폰	-11.4804
▁leak	-11.4804
▁기상	-11.4805
▁유사한	-11.4805
탐	-11.4807
ced	-11.481
▁Dam	-11.481
차로	-11.4812
▁오해	-11.4813
79	-11.4813
▁removal	-11.4814
AN	-11.4816
▁유기	-11.4817
▁panel	-11.4818
▁소비자들	-11.482
▁능	-11.4822
▁헬	-11.4823
▁잡은	-11.4824
수원	-11.4825
▁성추행	-11.4825
▁성공적	-11.4826
▁부활	-11.4827
▁신앙	-11.4827
▁exceeding	-11.4828
▁상금	-11.4828
바이	-11.4829
▁국어	-11.4834
▁Sweden	-11.4836
▁깜짝	-11.4836
▁민주노총	-11.4836
▁나가는	-11.4839
▁매니저	-11.4839
▁날부터	-11.484
wer	-11.484
▁startup	-11.4841
▁향상을	-11.4841
▁전형	-11.4841
▁맞추	-11.4843
▁첫날	-11.4843
▁web	-11.4844
기업의	-11.4844
▁고려하면	-11.4844
만달러	-11.4846
SS	-11.4846
▁celebrities	-11.4848
aving	-11.4848
Me	-11.4851
▁Both	-11.4852
▁갖게	-11.4852
▁재해	-11.4853
▁사망자	-11.4856
▁에이	-11.4856
▁일각에서	-11.4857
▁기준이	-11.4858
▁참사	-11.4858
▁참가자들	-11.486
▁연방	-11.486
graphic	-11.486
▁가능한가요	-11.4861
▁Cheon	-11.4863
▁점유율	-11.4864
▁이탈	-11.4866
▁기술력	-11.4867
▁종류의	-11.4871
ency	-11.4872
cle	-11.4872
ec	-11.4874
줍니다	-11.4875
봤	-11.4876
▁portal	-11.4876
▁수원시	-11.4876
▁사람과	-11.4877
▁honest	-11.4881
▁뒤늦게	-11.4881
▁스케줄	-11.4881
▁Christ	-11.4884
▁pattern	-11.4885
핀	-11.4886
▁기업인	-11.4887
▁펼쳐진다	-11.4887
▁신라	-11.4888
ox	-11.4888
스럽	-11.4889
▁정규	-11.4889
▁독립운동	-11.4889
▁준비가	-11.4891
▁Convention	-11.4893
▁Studies	-11.4893
태평양	-11.4893
▁moon	-11.4894
재난	-11.4895
▁사이의	-11.4901
▁과세	-11.4903
▁섭취	-11.4904
▁연락이	-11.4906
▁Per	-11.4907
▁기증	-11.4907
▁sing	-11.4911
▁Am	-11.4914
SI	-11.4915
▁CNN	-11.4915
▁Seodaemun	-11.4915
▁chronic	-11.4915
▁convergence	-11.4915
▁translation	-11.4915
▁supervise	-11.4915
▁추산	-11.4917
▁그나마	-11.4921
▁보냈다	-11.4923
▁치열	-11.4923
년의	-11.4923
▁$1	-11.4924
▁sheet	-11.4924
▁이름은	-11.4927
▁Tower	-11.4927
▁Arabia	-11.4928
▁잊지	-11.4929
▁가능하도록	-11.493
hong	-11.4931
7%)	-11.4932
▁destroyed	-11.4933
▁명품	-11.4936
▁정부에	-11.4939
▁elements	-11.494
▁73	-11.4942
▁김민	-11.4942
▁virtually	-11.4943
▁상태를	-11.4944
망을	-11.4946
▁내년부터	-11.4948
▁배가	-11.4948
▁시인	-11.4948
▁취약계층	-11.4951
▁보증	-11.4953
▁중독	-11.4953
▁것이고	-11.4955
▁보러	-11.4956
정원	-11.4956
▁아르헨티나	-11.4961
▁등도	-11.4962
▁수행하는	-11.4963
▁아니한다	-11.4964
rap	-11.4964
lt	-11.4964
▁유포	-11.4965
▁Compar	-11.4965
▁설문조사	-11.4966
▁거기에	-11.4966
▁좋	-11.4966
▁(4)	-11.4968
▁밤에	-11.497
BI	-11.497
나갈	-11.497
대한	-11.4971
놓고	-11.4972
▁엔	-11.4972
故	-11.4972
동안	-11.4973
▁발간	-11.4973
▁pure	-11.4974
member	-11.4975
▁genre	-11.4976
▁역할이	-11.4977
▁선포	-11.4977
▁지나치	-11.4977
▁영어로	-11.4979
▁간부	-11.498
▁이송	-11.498
▁공단	-11.4981
▁responses	-11.4981
▁프로그램은	-11.4982
▁connecting	-11.4983
▁experiencing	-11.4983
▁즐겨	-11.4983
랭	-11.4983
▁transparent	-11.4983
용으로	-11.4986
▁연관	-11.4988
▁하니	-11.4989
▁정상회담이	-11.499
▁ministers	-11.499
▁현지에서	-11.4992
▁끝까지	-11.4992
수준	-11.4993
▁Federal	-11.4995
▁ring	-11.4997
▁철회	-11.4997
▁기업은	-11.4998
vis	-11.4998
▁사회의	-11.4999
▁막아	-11.4999
▁상대방	-11.4999
유치원	-11.5
▁UK	-11.5
▁110	-11.5
▁영화의	-11.5002
▁targeting	-11.5004
ook	-11.5005
▁흡연	-11.5006
▁species	-11.5006
▁knowing	-11.5009
▁j	-11.501
실이	-11.501
▁먹거리	-11.5012
▁수주	-11.5013
▁연구소	-11.5013
▁66	-11.5014
▁선두	-11.5016
▁지침	-11.5017
▁mu	-11.5017
▁위법	-11.5017
▁dump	-11.5018
▁나쁜	-11.5018
▁아니한	-11.5018
bb	-11.5018
▁평택	-11.502
팩	-11.502
▁확대를	-11.5022
폭이	-11.5023
▁30,000	-11.5026
▁hero	-11.5026
▁코드	-11.5028
▁chart	-11.5029
bor	-11.5029
▁국무부	-11.5029
▁Sha	-11.503
▁tower	-11.5033
전형	-11.5034
다리	-11.5034
▁흉기	-11.5034
▁병원으로	-11.5035
▁2016.	-11.5035
▁신도시	-11.5036
▁나누	-11.5036
▁행사장	-11.5038
▁믿고	-11.504
▁Instagram	-11.504
▁올바른	-11.504
▁시너지	-11.504
ES	-11.5042
▁있거나	-11.5043
▁finishing	-11.5046
가락	-11.5046
랩	-11.5046
전쟁	-11.5047
▁사용하지	-11.5048
져야	-11.505
▁급식	-11.505
▁Memorial	-11.5052
▁아울러	-11.5052
▁Four	-11.5054
▁defendant	-11.5054
CE	-11.5055
vol	-11.5056
운용	-11.506
혔	-11.506
▁도가	-11.506
▁물어보	-11.5063
▁doctors	-11.5065
▁금고	-11.5065
▁세우	-11.5065
년째	-11.5066
▁remind	-11.5067
▁정해	-11.5068
핵	-11.5068
관에서	-11.5069
부터는	-11.507
▁Credit	-11.5075
▁워크숍	-11.5075
▁stir	-11.5075
▁판문점	-11.5076
▁통계청	-11.5076
▁USD	-11.5077
▁mini	-11.5078
▁couples	-11.5078
▁posts	-11.5078
▁Asset	-11.5079
▁observed	-11.508
▁드러난	-11.508
▁건너	-11.508
▁exchanged	-11.5081
▁판매하는	-11.5082
▁뒤로	-11.5083
▁supervisor	-11.5083
▁서면	-11.5083
깃	-11.5085
▁면담	-11.5088
중심	-11.5089
▁reign	-11.5089
▁semiconductors	-11.5089
▁표정	-11.5089
▁알리	-11.509
▁벌인	-11.5091
됐을	-11.5091
과정에서	-11.5092
▁멤버들	-11.5094
▁estimate	-11.5097
계의	-11.5097
▁correspondent	-11.5098
▁주어	-11.5102
하기를	-11.5103
▁줄여	-11.5104
▁ill	-11.5104
▁성분	-11.5104
▁suggest	-11.5105
안보	-11.5105
▁가려	-11.5105
▁양산	-11.5106
▁저기	-11.5107
▁보며	-11.5107
▁integration	-11.5109
▁근처	-11.5111
▁progressive	-11.5113
lecommunications	-11.5114
▁구성원	-11.5115
▁연봉	-11.5115
▁Gong	-11.5116
▁Australian	-11.5117
▁동력	-11.5119
▁경기도에	-11.5121
▁pedestrian	-11.5121
▁김해	-11.5124
▁offline	-11.5126
▁여론조사	-11.5126
▁회의에서	-11.5126
▁관계자들이	-11.5127
▁감안하면	-11.5127
▁들려	-11.5127
▁doll	-11.5127
▁재고	-11.5129
▁math	-11.5129
▁석유	-11.5131
▁sacrifice	-11.5132
▁챙겨	-11.5132
▁보건소	-11.5134
▁실망	-11.5136
▁그곳	-11.5137
▁경과	-11.5138
▁유전자	-11.5139
▁문제의	-11.514
▁추정된다	-11.514
▁웃음	-11.5141
▁땀	-11.5142
▁clerk	-11.5144
▁primary	-11.5144
▁이해할	-11.5144
▁고백	-11.5146
▁quarters	-11.5146
▁전세계	-11.5147
▁주류	-11.5148
지역의	-11.5148
만여	-11.5148
▁취미	-11.5149
▁수료	-11.515
▁급속	-11.515
gyeong	-11.5151
▁집권	-11.5152
▁관심과	-11.5152
▁얘기를	-11.5155
▁libraries	-11.5156
▁인스타그램	-11.5156
▁Rather	-11.5156
▁telephone	-11.5156
▁인쇄	-11.5156
▁Gender	-11.5156
▁착공	-11.516
▁서양	-11.516
known	-11.5161
▁관리자	-11.5163
▁금융감독원	-11.5167
▁하나인	-11.5167
기자	-11.5168
▁사실은	-11.5169
▁poll	-11.5174
설계	-11.5175
콤	-11.5177
▁자사	-11.5177
▁세력	-11.5181
▁코너	-11.5183
OC	-11.5183
▁Hope	-11.5184
올림픽	-11.5186
했었다	-11.5187
▁소감	-11.5188
▁늘어나는	-11.5189
▁pig	-11.519
▁뼈	-11.519
▁자원봉사자	-11.5191
▁다행히	-11.5192
시킨다	-11.5192
▁여기는	-11.5194
▁사정	-11.5196
▁꼼꼼	-11.5202
▁지방세	-11.5204
설비	-11.5205
▁책임이	-11.5206
▁집계됐다	-11.5208
▁launching	-11.5209
▁시술	-11.521
▁112	-11.5212
▁층	-11.5213
듀	-11.5214
▁Catholic	-11.5214
▁평생교육	-11.5214
▁모습으로	-11.5216
▁diagnosed	-11.5217
MO	-11.522
▁mask	-11.522
▁활력	-11.5223
▁데는	-11.5224
▁Candidate	-11.5225
▁ancient	-11.5225
▁인건비	-11.5225
별지	-11.5227
▁거두	-11.5227
▁보여주고	-11.5227
▁발목	-11.5231
▁매출액	-11.5231
▁개인의	-11.5231
▁입구	-11.5233
▁거절	-11.5234
▁고속도로	-11.5234
▁numerous	-11.5237
▁워낙	-11.5237
▁상세	-11.524
▁chances	-11.524
서류	-11.5243
▁200,000	-11.5243
▁아까	-11.5243
▁가능성은	-11.5243
▁계시	-11.5243
▁sat	-11.5243
▁자신감	-11.5244
소송	-11.5245
▁성과가	-11.5246
▁다녀	-11.5247
▁액	-11.5248
▁아쉬움	-11.5249
▁옮기	-11.5249
▁받아들여	-11.5249
머리	-11.5251
예정	-11.5252
▁꼬	-11.5254
근로	-11.5254
▁차기	-11.5255
▁특성상	-11.5255
중소기업	-11.5257
▁이영	-11.5258
under	-11.5259
호를	-11.5259
▁상용화	-11.526
▁container	-11.526
시를	-11.526
▁Talk	-11.526
영상	-11.5263
tes	-11.5264
▁힘들다	-11.5265
▁판매가	-11.5265
▁saved	-11.5265
▁기름	-11.5265
▁finalized	-11.5266
▁quiet	-11.5267
역사	-11.527
겁	-11.5271
하시고	-11.5271
▁점에	-11.5272
▁이명박	-11.5272
▁주민등록	-11.5273
▁학생들에게	-11.5274
pel	-11.5275
▁갖춰	-11.5276
▁인상을	-11.5276
▁constitutional	-11.5276
미터	-11.5277
▁신축	-11.5278
ctor	-11.5278
▁발매	-11.5279
▁Communication	-11.5279
▁자영업자	-11.528
헤	-11.528
▁얼	-11.5282
dent	-11.5282
▁하원	-11.5283
▁knee	-11.5284
▁governance	-11.5284
▁끝나면	-11.5284
▁resistance	-11.5284
▁loud	-11.5284
▁label	-11.5284
협의체	-11.5284
▁playground	-11.5285
▁의존	-11.5288
▁지역으로	-11.5289
▁unlikely	-11.5291
▁경찰과	-11.5291
▁willing	-11.5293
문학	-11.5295
▁대립	-11.5295
▁shelter	-11.5295
▁mode	-11.5296
▁좋겠습니다	-11.5297
▁김포	-11.5297
▁동향	-11.5298
▁경찰청	-11.5298
▁통지	-11.5298
▁highway	-11.53
▁연인	-11.5303
켓	-11.5304
▁개시	-11.5304
관의	-11.5305
수로	-11.5306
▁안전하게	-11.5306
▁인류	-11.5307
▁normally	-11.5308
▁사이버	-11.5309
▁IP	-11.5312
▁계약서	-11.5313
hen	-11.5313
▁소개했다	-11.5317
▁들어갈	-11.5318
▁Ocean	-11.5319
▁slump	-11.5319
uc	-11.532
▁visa	-11.5321
▁예수님	-11.5323
▁중국인	-11.5324
star	-11.5324
▁headed	-11.5325
▁62	-11.5325
브리	-11.5326
▁branches	-11.5327
▁이른	-11.5328
▁기대감이	-11.5332
▁응급	-11.5332
▁discussing	-11.5333
▁restrict	-11.5334
▁섬유	-11.5335
▁cheaper	-11.5336
▁Guard	-11.5338
hyung	-11.5339
▁passes	-11.534
▁조사에서	-11.5342
▁상담을	-11.5342
▁이스라엘	-11.5343
▁ledger	-11.5344
▁거친	-11.5345
▁낮추	-11.5345
▁2017.	-11.5346
▁생기	-11.5347
▁조사에	-11.5348
군에	-11.5348
▁Cheongdo	-11.5348
▁lawyers	-11.5349
▁보고하여야	-11.5349
▁식으로	-11.535
▁bringing	-11.5351
▁수탁자는	-11.5351
▁전국에서	-11.5353
▁heatwave	-11.5354
▁패널	-11.5355
▁seekers	-11.5358
▁내수	-11.5358
▁extinguish	-11.5358
eum	-11.5359
▁NH	-11.5359
▁쏟아	-11.5361
인당	-11.5361
ject	-11.5361
▁비록	-11.5361
▁booth	-11.5362
▁철학	-11.5363
▁자립	-11.5364
▁실태	-11.5364
▁대통령에게	-11.5365
▁mountains	-11.5366
▁기쁨	-11.5366
▁면허	-11.5367
▁바이어	-11.5368
▁높였다	-11.5368
▁crowd	-11.537
▁올해부터	-11.537
부장	-11.537
미술	-11.5371
천명	-11.5372
▁fa	-11.5373
▁reaching	-11.5374
▁analysts	-11.5374
▁줄어든	-11.5375
uff	-11.5375
▁본선	-11.5376
▁무상	-11.5376
램	-11.5377
기업이	-11.5378
▁philosophy	-11.5378
거든요	-11.5379
▁rainy	-11.538
▁않았다는	-11.538
ware	-11.5381
자본	-11.5382
▁사연	-11.5383
▁오래된	-11.5384
▁의혹에	-11.5384
▁싶지	-11.5385
lay	-11.5385
클럽	-11.5387
▁에스	-11.5387
▁premiums	-11.5387
▁지목	-11.5387
▁위해선	-11.5388
▁논의를	-11.5388
▁압력	-11.539
▁du	-11.5391
▁거치	-11.5391
▁샤	-11.5392
▁Child	-11.5392
pr	-11.5394
▁남긴	-11.5395
▁참가해	-11.5397
펜	-11.5398
▁지적도	-11.5398
▁bottle	-11.5398
▁한데	-11.5399
콘텐츠	-11.5399
▁occupation	-11.5399
이었지만	-11.5401
▁shut	-11.5402
▁취재진	-11.5402
상으로	-11.5403
봐	-11.5405
▁성적이	-11.5405
▁affection	-11.5405
▁짐	-11.5406
wang	-11.5407
져서	-11.5407
▁%	-11.541
▁throw	-11.5411
▁빙	-11.5412
▁바이	-11.5412
▁권리를	-11.5413
▁개관	-11.5413
▁의장이	-11.5413
봉투	-11.5413
▁ritual	-11.5414
▁철저한	-11.5414
추진	-11.5414
▁건수	-11.5414
▁선호하는	-11.5414
▁강요	-11.5414
▁Jinping	-11.5415
▁수익을	-11.5416
▁일반적으로	-11.5417
▁위주로	-11.5418
▁채워	-11.5419
sim	-11.5421
▁partners	-11.5421
▁기울	-11.5422
▁내릴	-11.5423
▁(5	-11.5423
▁지지율	-11.5423
▁솔로	-11.5424
부담	-11.5425
▁조만간	-11.5426
▁포함한다	-11.5426
▁없게	-11.5426
▁2012,	-11.5426
▁FTC	-11.5426
▁repayment	-11.5427
굴	-11.543
▁praised	-11.5431
▁leaked	-11.5434
▁사용이	-11.5434
▁organ	-11.5437
▁abnormal	-11.5437
71	-11.5437
▁Capital	-11.5437
▁seizure	-11.5437
▁관리가	-11.5439
▁feed	-11.544
▁적용한다	-11.5441
▁transition	-11.5444
5000	-11.5445
찌	-11.5446
▁자치	-11.5447
우가	-11.5447
▁효율적	-11.5448
보세요	-11.5449
▁의문	-11.5449
▁철저히	-11.5449
▁흡수	-11.5449
▁쟁점	-11.545
수행	-11.545
▁quit	-11.5452
▁adopt	-11.5452
색이	-11.5452
판을	-11.5453
▁적립	-11.5453
▁교육이	-11.5454
▁구체적	-11.5457
▁extremely	-11.5457
▁infants	-11.546
▁일요일	-11.5461
▁현실화	-11.5463
시설이	-11.5465
▁heated	-11.5468
▁Te	-11.5468
인구	-11.5472
Po	-11.5473
▁CSAT	-11.5473
▁identification	-11.5473
▁threat	-11.5475
▁kill	-11.5475
▁다채로	-11.5475
▁flu	-11.5476
변경	-11.5476
▁서부	-11.5479
2018	-11.5481
률을	-11.5482
▁한쪽	-11.5485
▁아니라고	-11.5485
▁긴밀	-11.5486
▁Chungbuk	-11.5486
▁noted	-11.5487
▁올랐	-11.5489
▁수익성	-11.5495
ient	-11.5496
▁이걸	-11.5497
▁urgently	-11.5497
▁margin	-11.5497
▁배경으로	-11.5498
▁시상	-11.55
cus	-11.55
▁개척	-11.55
▁블랙	-11.5501
8,000	-11.5504
▁고가	-11.5506
▁위상	-11.5509
▁casualties	-11.5509
▁고의	-11.5511
▁팀장	-11.5511
▁가격에	-11.5512
▁미니	-11.5512
▁경향이	-11.5513
▁App	-11.5515
▁호텔에서	-11.5516
▁이후에	-11.5516
어져	-11.5518
umb	-11.5518
▁분이	-11.552
▁학대	-11.552
▁silver	-11.5521
▁sum	-11.5522
▁플라스틱	-11.5523
▁Republican	-11.5525
▁listing	-11.5526
▁edge	-11.5526
▁pursued	-11.5531
▁시세	-11.5532
▁폴	-11.5533
▁useful	-11.5533
▁inevitably	-11.5533
▁바뀐	-11.5533
▁forms	-11.5534
▁펴	-11.5534
▁운항	-11.5536
▁홈페이지에	-11.5537
▁exception	-11.5539
요원	-11.5539
▁치르	-11.5541
▁Confucian	-11.5541
▁통장	-11.5543
▁맛있	-11.5543
비와	-11.5543
어로	-11.5543
님께서	-11.5544
▁reaction	-11.5544
▁장에게	-11.5545
▁에어컨	-11.5545
▁reorganization	-11.5546
▁차지하고	-11.5548
▁count	-11.5548
▁수요일	-11.5548
▁3·1	-11.555
▁tied	-11.555
▁전산	-11.5551
▁페이지	-11.5554
▁봉사활동	-11.5554
▁banking	-11.5554
▁틈	-11.5557
▁Emergency	-11.5557
▁미뤄	-11.5557
▁유럽연합	-11.5558
lip	-11.5558
▁성범죄	-11.5559
CO	-11.5559
real	-11.556
▁소음	-11.5561
neighboring	-11.5561
3,000	-11.5561
▁수소	-11.5561
▁지급한다	-11.5561
▁불가능한	-11.5563
▁regularly	-11.5566
▁slowly	-11.5568
▁수색	-11.5568
▁separation	-11.5569
▁visible	-11.5569
퍼센트	-11.5571
▁제게	-11.5571
▁말에	-11.5571
▁경찰의	-11.5572
▁자동으로	-11.5573
▁producer	-11.5574
순위	-11.5574
▁성남시	-11.5574
▁advised	-11.5575
결제	-11.5575
의결	-11.5575
▁일본이	-11.5577
지급	-11.5577
▁functional	-11.5578
grade	-11.5579
▁방문하는	-11.558
▁explore	-11.5581
SO	-11.5582
화와	-11.5583
▁미친	-11.5583
▁대표와	-11.5584
▁거점	-11.5586
▁trials	-11.5587
▁응답자	-11.5587
▁poster	-11.5589
▁인식이	-11.5589
▁신중	-11.5593
▁이슬람	-11.5593
▁간단한	-11.5594
▁inspector	-11.5594
▁거짓말	-11.5594
주간	-11.5595
▁변신	-11.5595
▁장학금	-11.5595
▁국면	-11.5596
▁동행	-11.5597
편이	-11.5597
4,000	-11.5597
▁Sp	-11.5599
▁거라고	-11.5601
▁competitions	-11.5602
▁병행	-11.5604
▁SM	-11.5604
▁autonomy	-11.5606
▁어쩔	-11.5606
▁줄었다	-11.5608
실장	-11.5608
▁파손	-11.5609
▁동작	-11.5609
사인	-11.561
▁경우를	-11.561
▁폭이	-11.5611
93	-11.5612
▁investing	-11.5613
▁worsening	-11.5613
▁관련이	-11.5613
▁Standards	-11.5613
▁스튜디오	-11.5614
▁아들이	-11.5615
city	-11.5616
룰	-11.5616
▁기무사	-11.5616
▁곤	-11.5617
이닝	-11.5617
▁필요로	-11.5618
▁stomach	-11.5618
ino	-11.5619
▁indicted	-11.5619
▁1994	-11.5621
▁금융권	-11.5621
(19	-11.5621
▁패키지	-11.5621
ob	-11.5622
▁해결하기	-11.5625
▁scar	-11.5626
▁혐의가	-11.5629
▁verify	-11.563
▁Gwanghwamun	-11.563
▁시진핑	-11.563
▁140	-11.5631
▁비자	-11.5631
▁전문가들이	-11.5632
▁resulted	-11.5633
▁proportional	-11.5633
▁repeat	-11.5634
▁최근에	-11.5634
▁기념식	-11.5635
▁출연해	-11.5636
▁원유	-11.5636
라서	-11.5637
▁국가의	-11.5637
ire	-11.5638
▁salt	-11.5639
성에	-11.5639
▁검토하고	-11.5641
pp	-11.5642
▁Ed	-11.5642
▁금융위	-11.5642
bae	-11.5643
▁통지하여야	-11.5644
▁detect	-11.5645
▁Wall	-11.5646
▁국장	-11.5647
▁영세	-11.5648
▁생계	-11.5649
▁들어온	-11.5651
▁가족들	-11.5652
▁destruction	-11.5654
▁ordinances	-11.5654
▁Program	-11.5654
▁투기	-11.5657
▁hopes	-11.5658
zz	-11.5658
해준다	-11.566
인사	-11.566
이지	-11.5665
▁부천	-11.5665
▁Chamber	-11.5666
▁불리	-11.5666
▁경비를	-11.567
지역에	-11.5671
▁손에	-11.5671
▁1,500	-11.5673
집을	-11.5674
▁내용에	-11.5675
국장은	-11.5676
괴	-11.5677
▁갖추	-11.5677
▁경유	-11.5678
▁amazing	-11.5679
▁violent	-11.5679
▁사우디	-11.5679
▁언급했다	-11.5679
광장	-11.568
▁Fed	-11.568
운전	-11.5681
▁sets	-11.5683
▁Gr	-11.5683
▁감사를	-11.5684
▁준비하고	-11.5686
▁inappropriate	-11.5686
▁weekends	-11.5687
▁한창	-11.5687
▁mothers	-11.5689
▁까	-11.5689
▁sugar	-11.5691
▁홀로	-11.5692
▁비공개	-11.5693
▁물어	-11.5694
▁담보	-11.5695
▁잡지	-11.5695
▁읽어	-11.5696
▁기재부	-11.5696
j	-11.5697
▁sounds	-11.5697
▁곽	-11.5698
▁boxes	-11.5698
학적	-11.5698
rac	-11.5699
ution	-11.5702
▁scientific	-11.5703
▁Mokpo	-11.5703
▁ownership	-11.5704
▁Silla	-11.5705
▁logic	-11.5705
▁자라	-11.5706
▁가져	-11.5708
▁운영위원회	-11.571
▁국민들이	-11.571
▁칸	-11.5711
▁금액이	-11.5712
▁총회	-11.5713
▁principles	-11.5715
election	-11.5715
음이	-11.5715
▁Kindergarten	-11.5715
▁arrival	-11.5715
▁commemorate	-11.5715
▁essay	-11.5715
▁merger	-11.5715
▁없나요	-11.5717
▁앞선	-11.5717
▁Ku	-11.572
hyang	-11.5722
▁됐	-11.5722
스카	-11.5723
▁Indonesian	-11.5723
▁연대	-11.5723
▁대가	-11.5728
▁근대	-11.573
팀장	-11.573
▁immigrants	-11.5732
금지	-11.5733
▁Sal	-11.5736
▁경로	-11.5736
▁민주주의	-11.5739
▁differ	-11.5739
▁impeachment	-11.574
▁마련해	-11.574
ao	-11.574
▁접목	-11.5742
▁광장	-11.5742
▁불어	-11.5743
▁정확하게	-11.5743
▁포함돼	-11.5745
정보를	-11.5748
▁여론이	-11.5749
▁시험을	-11.575
▁파악하고	-11.5751
▁Buddha	-11.5752
▁democratic	-11.5752
▁banned	-11.5752
시기	-11.5753
▁평창	-11.5756
ns	-11.5758
5%)	-11.576
seop	-11.576
▁riding	-11.5761
▁wire	-11.5762
▁도출	-11.5763
▁Palace	-11.5764
▁steady	-11.5764
▁fruits	-11.5766
▁건데	-11.5767
▁1995	-11.5768
▁출제	-11.5769
▁te	-11.5769
▁Communications	-11.5769
▁영광	-11.5769
▁concentrate	-11.577
피해	-11.577
gging	-11.5772
▁상시	-11.5772
AS	-11.5773
▁관광객이	-11.5774
곳을	-11.5774
▁인지도	-11.5775
▁고시	-11.5775
▁bowl	-11.5777
임에도	-11.5778
선언	-11.5783
톱	-11.5783
▁많았	-11.5784
▁handled	-11.5786
▁우유	-11.5787
▁completing	-11.5789
▁Namyangju	-11.5789
▁벨기에	-11.5789
DA	-11.5791
▁총재	-11.5793
6,000	-11.5793
▁주장하는	-11.5797
▁주위	-11.5797
▁선보인다	-11.5801
▁combines	-11.5801
▁shipbuilding	-11.5801
인천광역시	-11.5802
▁열람	-11.5803
▁중순	-11.5804
▁processes	-11.5804
▁도약	-11.5806
▁신청서를	-11.5806
▁encouraged	-11.5806
▁노력하겠다	-11.5807
▁블	-11.5807
봐야	-11.5807
▁jumped	-11.5808
▁개발에	-11.5809
▁거래가	-11.5809
▁분석된다	-11.581
▁healing	-11.5814
▁lyrics	-11.5814
▁밀집	-11.5815
▁규명	-11.5816
ional	-11.5816
▁wa	-11.5816
9,000	-11.5818
▁invite	-11.5819
▁declined	-11.5822
▁다니는	-11.5822
▁fabric	-11.5822
▁순수	-11.5823
▁놀라	-11.5823
▁추정되는	-11.5824
▁drinks	-11.5825
세로	-11.5825
▁arms	-11.5826
▁얻었다	-11.5826
▁5·18	-11.5826
▁contrary	-11.5826
▁refugee	-11.5826
▁raises	-11.5827
스쿨	-11.5827
▁Siheung	-11.5827
▁일하고	-11.5827
▁있을까	-11.5828
▁fairness	-11.5829
▁공모전	-11.583
▁Los	-11.5831
▁preserve	-11.5832
▁conclude	-11.5832
▁purchases	-11.5832
▁Kyu	-11.5834
▁1%	-11.5835
▁inner	-11.5836
층이	-11.5836
▁증대	-11.5838
▁그러하지	-11.5838
▁아르바이트	-11.5838
콩	-11.5839
▁personally	-11.5839
▁합쳐	-11.584
▁의자	-11.584
▁수령	-11.5842
▁사라지	-11.5844
▁인근에	-11.5844
▁largely	-11.5845
드라마	-11.5847
▁결혼식	-11.5848
시장이	-11.5848
▁Along	-11.5849
겠어	-11.585
▁찾으	-11.5851
▁substitute	-11.5851
▁적합	-11.5851
▁instructor	-11.5851
▁보도가	-11.5852
▁print	-11.5856
▁음식은	-11.5856
▁350	-11.586
▁내신	-11.5861
▁학기	-11.5862
▁(4	-11.5863
▁defect	-11.5863
▁공시가격	-11.5864
▁초등학생	-11.5865
▁lo	-11.5866
▁지난주	-11.5866
▁벌어진	-11.5867
▁feared	-11.587
명령	-11.5871
▁기여한	-11.5872
▁크리스	-11.5872
▁많을	-11.5872
▁Ru	-11.5874
▁점수를	-11.5874
▁구매할	-11.5875
Ju	-11.5875
▁비디오	-11.5876
▁Concert	-11.5876
▁Pangyo	-11.5876
▁Coach	-11.5877
▁결코	-11.5878
▁정성	-11.5879
▁위원장과	-11.5883
▁규정이	-11.5883
▁constant	-11.5884
▁networks	-11.5885
▁initiative	-11.5888
▁즐겁게	-11.5888
▁bidding	-11.5889
▁tip	-11.5889
▁locations	-11.5891
면적	-11.5892
▁Non	-11.5892
내가	-11.5893
겐	-11.5893
▁성장세	-11.5895
▁잡았다	-11.5896
▁어디로	-11.5896
▁bi	-11.5897
정책을	-11.5899
▁장려	-11.59
▁communications	-11.59
▁다이어트	-11.5901
▁유관기관	-11.5901
▁Forces	-11.5901
▁보험사	-11.5901
▁협회	-11.5902
Chairperson	-11.5902
▁포함되어	-11.5903
▁Suk	-11.5908
만명이	-11.5912
▁다하겠다	-11.5912
zi	-11.5913
▁outlook	-11.5913
▁남북정상회담	-11.5913
▁인용해	-11.5915
▁거로	-11.5917
▁확	-11.592
▁널	-11.592
▁enters	-11.5922
▁그저	-11.5924
▁directed	-11.5925
▁웹	-11.5925
▁Embassy	-11.5926
▁Gimhae	-11.5926
▁Manager	-11.5926
▁잠깐	-11.5926
▁아무것	-11.5926
었으며	-11.5927
▁도구	-11.5929
▁producers	-11.593
▁지원해	-11.593
▁배울	-11.5931
의견	-11.5931
▁국제사회	-11.5931
▁탁	-11.5932
▁성공했다	-11.5933
▁가공	-11.5933
▁elder	-11.5934
심사를	-11.5934
▁trips	-11.5935
▁싫	-11.5936
▁오랜만에	-11.5938
▁심의회	-11.5939
Co	-11.594
▁반등	-11.5941
쓰	-11.5941
수익	-11.5942
▁정밀	-11.5943
됐는데	-11.5943
육성	-11.5943
▁벌였다	-11.5946
▁단순한	-11.5947
▁contacted	-11.5949
▁강동구	-11.5951
▁멈추	-11.5951
▁sought	-11.5951
▁900	-11.5952
▁회신	-11.5952
▁석탄	-11.5952
▁회의는	-11.5955
▁안전사고	-11.5956
▁Pacific	-11.5956
▁rank	-11.5958
(20	-11.5958
▁맞고	-11.5959
▁legs	-11.5959
▁효율	-11.5962
렴	-11.5962
▁injuries	-11.5963
장소	-11.5965
▁측의	-11.5967
▁선배	-11.5967
회계	-11.5968
작품	-11.5968
▁환호	-11.5971
▁ends	-11.5971
명에게	-11.5972
▁국적	-11.5972
▁제안했다	-11.5972
▁찾았다	-11.5973
▁closure	-11.5976
▁celebration	-11.5977
점에서	-11.598
▁protecting	-11.598
roll	-11.5982
cer	-11.5982
▁기자가	-11.5983
▁척	-11.5984
▁Pe	-11.5985
▁글이	-11.5986
렸습니다	-11.5986
▁Experience	-11.5988
▁인적	-11.5989
▁bra	-11.5989
체계를	-11.599
▁thousand	-11.599
▁출판	-11.5992
신도시	-11.5992
▁outbreak	-11.5993
xi	-11.5993
▁움직이	-11.5995
▁꺼내	-11.5995
▁보건	-11.5995
▁hits	-11.5997
mal	-11.5998
▁않았다고	-11.5998
현재	-11.6
▁표면	-11.6001
▁영상이	-11.6003
▁(6	-11.6004
박스	-11.6005
▁콜	-11.6006
▁공통	-11.6006
▁가리	-11.6006
▁hoped	-11.6007
yoon	-11.6007
▁67	-11.6007
동물	-11.6008
였지만	-11.6009
▁의류	-11.601
▁친절	-11.6011
▁invitation	-11.6011
방위	-11.6012
▁netizens	-11.6012
▁Press	-11.6014
▁submission	-11.6014
▁ate	-11.6014
▁speaker	-11.6014
▁laughter	-11.6014
▁원인으로	-11.6015
▁프로그램에	-11.6016
버린	-11.6016
▁harder	-11.602
▁mention	-11.602
▁bo	-11.6021
▁underway	-11.6021
▁드릴게요	-11.6022
▁환경이	-11.6023
▁meets	-11.6025
▁반영된	-11.6026
▁encouraging	-11.6026
▁liberal	-11.6026
▁entertain	-11.6026
nic	-11.6026
▁늘려	-11.6031
▁팀의	-11.6031
▁mix	-11.6031
GB	-11.6031
▁더해	-11.6034
3%)	-11.6036
▁decisions	-11.6036
▁실력을	-11.6039
▁Nuclear	-11.6039
▁Taekwondo	-11.6039
▁unclear	-11.6039
▁기구	-11.604
▁bulletin	-11.604
▁현직	-11.6041
▁auction	-11.6042
▁신분	-11.6042
▁Lord	-11.6042
회에서	-11.6043
드릴	-11.6043
▁움직임이	-11.6043
▁다문화	-11.6045
비로	-11.6045
▁목포	-11.6045
▁준비하는	-11.6048
양이	-11.605
night	-11.6051
▁좋겠어	-11.6051
▁Yeah	-11.6052
ana	-11.6052
▁주신	-11.6052
협정	-11.6054
▁돌아오	-11.6054
▁법관	-11.6056
▁자세히	-11.6059
▁성장할	-11.606
▁tastes	-11.606
사업이	-11.606
▁Shi	-11.6061
▁proceeding	-11.6061
륜	-11.6064
▁목요일	-11.6064
▁Sorry	-11.6065
▁용기	-11.6066
▁shoulder	-11.6066
해지면서	-11.6066
▁학부모들	-11.6067
▁예전에	-11.607
▁입장이	-11.6071
▁입점	-11.6071
농가	-11.6073
▁사람으로	-11.6073
▁immigration	-11.6073
▁넌	-11.6073
▁seventh	-11.6074
▁hip	-11.6074
▁clinical	-11.6074
ina	-11.6074
▁counsel	-11.6076
▁decreasing	-11.6077
▁Everyone	-11.6077
▁unified	-11.6079
▁Joong	-11.6079
▁목록	-11.6079
▁민선	-11.6079
▁juvenile	-11.6079
▁모습이다	-11.608
▁수상했다	-11.608
▁하락세	-11.608
▁활동하고	-11.608
▁조달	-11.6081
▁의원들이	-11.6081
▁Take	-11.6082
van	-11.6085
▁picked	-11.6085
▁sessions	-11.6087
릿	-11.6088
▁Electric	-11.609
▁클래식	-11.609
72	-11.6091
▁승진	-11.6091
▁당국이	-11.6093
La	-11.6094
▁그만	-11.6095
▁일상생활	-11.6096
▁육군	-11.6097
▁군산	-11.6098
har	-11.61
▁buried	-11.6102
▁reputation	-11.6102
▁History	-11.6102
억원에	-11.6103
금은	-11.6104
▁나서는	-11.6104
▁조사가	-11.6105
▁measurement	-11.6106
▁내역	-11.6106
졌지만	-11.6107
▁관행	-11.6107
▁생겼다	-11.6108
▁나이가	-11.6109
▁안전을	-11.6109
▁log	-11.611
lle	-11.611
▁substances	-11.6113
▁우승을	-11.6113
▁탓	-11.6113
▁Wal	-11.6114
▁문화의	-11.6115
▁abolition	-11.6115
▁infection	-11.6115
특위	-11.6115
▁Jeollabuk	-11.6115
된다면	-11.6116
▁계층	-11.6118
▁흑	-11.6118
cheong	-11.6119
▁열풍	-11.6119
▁가이드	-11.6119
▁techniques	-11.6121
▁미래에	-11.6122
▁뇌물	-11.6124
▁제시했다	-11.6125
▁실적을	-11.6126
▁defined	-11.6131
▁신속하게	-11.6131
▁누르	-11.6131
티브	-11.6132
▁lifted	-11.6135
폴	-11.6137
▁걸린	-11.6137
▁견인	-11.6138
▁붙여	-11.6139
롬	-11.6141
For	-11.6141
▁sand	-11.6141
▁도모	-11.6143
▁tonight	-11.6144
▁십	-11.6144
▁deaths	-11.6144
down	-11.6145
▁2∼3	-11.6145
▁약속을	-11.6149
생활을	-11.6149
Un	-11.615
▁SW	-11.615
▁전투	-11.615
▁fisheries	-11.6153
▁finger	-11.6154
▁공략	-11.6154
log	-11.6154
▁기사를	-11.6155
▁Such	-11.6155
▁blocking	-11.6155
▁1996	-11.6156
▁threatened	-11.6158
▁시가	-11.6158
▁5000	-11.6162
▁거라	-11.6163
investigative	-11.6166
▁investigator	-11.6166
▁pad	-11.6167
▁일반인	-11.6167
▁노무현	-11.6167
▁언니	-11.6168
▁Equality	-11.6168
▁위에서	-11.6169
▁discover	-11.6169
▁pot	-11.617
▁cameras	-11.6171
▁Play	-11.6171
▁복무	-11.6172
▁위원장을	-11.6173
▁활발한	-11.6173
▁오늘날	-11.6174
▁밝은	-11.6175
▁조용	-11.6176
▁pan	-11.6178
▁말이다	-11.6179
▁slogan	-11.6179
▁divorce	-11.6179
▁Dance	-11.6179
총회	-11.6182
▁높일	-11.6183
▁맡았다	-11.6184
▁금품	-11.6185
▁긴장감	-11.6185
▁저녁에	-11.6186
▁여성들이	-11.6187
공유	-11.6195
▁목적이	-11.6196
지사	-11.6198
▁discharged	-11.62
▁제외하고	-11.6201
▁religion	-11.6205
▁scoring	-11.6205
▁structural	-11.6205
▁무인	-11.6205
▁systematically	-11.6205
▁Pan	-11.6205
taek	-11.6206
▁scholars	-11.6207
대비	-11.6208
▁300,000	-11.6208
▁Well	-11.621
▁연일	-11.6211
▁못했던	-11.6211
▁감정을	-11.6212
▁해결할	-11.6212
▁구민의	-11.6213
▁안으로	-11.6213
high	-11.6215
▁띄	-11.6216
des	-11.6216
▁날아	-11.6217
▁Dongjak	-11.6217
▁Kingdom	-11.6218
▁말은	-11.6218
▁주방	-11.622
▁ending	-11.6221
▁71	-11.6221
▁exhibit	-11.6221
낙	-11.6222
▁Southern	-11.6222
엠	-11.6222
▁1∼2	-11.6222
▁중국은	-11.6223
▁줘	-11.6227
▁wheel	-11.6228
▁필요성이	-11.6228
유지	-11.6228
컷	-11.623
▁반려동물	-11.623
▁stating	-11.6231
▁철수	-11.6232
ER	-11.6233
종의	-11.6234
▁사법부	-11.6237
▁조성을	-11.6238
렇	-11.6242
▁불가피	-11.6242
▁즐기	-11.6242
▁필요해요	-11.6242
▁수질	-11.6243
▁Reuters	-11.6243
▁split	-11.6243
▁바르	-11.6244
▁탈퇴	-11.6244
▁Gunsan	-11.6245
▁거대한	-11.6246
▁활성화에	-11.6247
가정	-11.6252
▁주시	-11.6253
▁높다는	-11.6253
▁대비해	-11.6254
월드	-11.6255
▁주실	-11.6255
▁비용은	-11.6255
▁vessels	-11.6255
승인	-11.6255
▁exciting	-11.6256
▁grateful	-11.6256
▁dawn	-11.6256
▁issuing	-11.6257
▁profitability	-11.6257
▁팝	-11.6259
▁판단이	-11.6261
대교	-11.6261
cip	-11.6262
▁survive	-11.6263
▁tens	-11.6263
▁공방	-11.6265
▁좋아합니다	-11.6265
확인	-11.6267
▁저감	-11.6267
▁Turkish	-11.6269
▁극대화	-11.6269
▁임무	-11.627
부모	-11.627
▁벤처	-11.6271
웨	-11.6272
설이	-11.6274
▁이해가	-11.6274
길이	-11.6275
▁captured	-11.6276
▁때보다	-11.6276
렸고	-11.6277
▁나면	-11.6277
▁추구	-11.6279
▁양상	-11.628
∼6	-11.6282
▁powder	-11.6282
▁패턴	-11.6283
cover	-11.6283
▁되는데	-11.6284
▁Sky	-11.6284
▁매진	-11.6285
tent	-11.6286
▁방금	-11.6286
▁정수	-11.6286
▁양쪽	-11.6286
▁혜택이	-11.6287
징수	-11.6287
▁업무에	-11.6288
▁peaceful	-11.6289
▁자원봉사	-11.629
▁통일부	-11.6294
▁결의	-11.6295
법원	-11.6296
▁비롯	-11.6297
▁할아버지	-11.6297
attached	-11.63
립니다	-11.6301
▁국정원	-11.6301
▁예수	-11.6302
▁계단	-11.6302
▁소외	-11.6303
▁간판	-11.6303
Lee	-11.6305
▁모습은	-11.6305
▁결정이	-11.6307
▁prolonged	-11.6308
▁Kaesong	-11.6308
▁Night	-11.6309
▁Interior	-11.631
▁예정된	-11.631
▁이혼	-11.6311
▁Sure	-11.6312
(7	-11.6312
▁regeneration	-11.6312
▁헬기	-11.6312
ban	-11.6313
총장	-11.6314
2,000	-11.6316
▁재발	-11.6318
▁개발을	-11.6319
▁빨라	-11.632
공개	-11.6321
샷	-11.6321
geo	-11.6321
▁방송된	-11.6323
sia	-11.6324
▁Bay	-11.6327
▁resign	-11.6327
▁병원에서	-11.6329
▁rains	-11.6331
▁appliances	-11.6331
▁"2018	-11.6331
▁만든다	-11.6333
▁제보	-11.6333
▁compromise	-11.6334
▁entrepreneurs	-11.6334
▁shipped	-11.6335
▁신청한	-11.6335
▁정황이	-11.6335
▁억제	-11.6335
ON	-11.6338
▁Report	-11.6338
▁보조금을	-11.6339
▁도와주	-11.634
▁1960	-11.6342
▁대부	-11.6343
▁patterns	-11.6343
▁좋고	-11.6345
근로자	-11.6346
▁Kumho	-11.6347
▁안녕하세요	-11.6347
▁주시면	-11.635
▁종전	-11.635
▁완벽한	-11.6352
fin	-11.6352
▁Burning	-11.6357
▁신청할	-11.6357
공학	-11.6357
▁수출이	-11.6359
▁automatic	-11.636
▁재판을	-11.636
[...]
