<unk>	0
<s>	0
</s>	0
▁t	-0
he	-1
▁a	-2
in	-3
▁the	-4
on	-5
re	-6
▁s	-7
er	-8
▁o	-9
at	-10
▁w	-11
en	-12
an	-13
▁c	-14
it	-15
▁p	-16
or	-17
is	-18
ed	-19
▁of	-20
▁b	-21
▁f	-22
es	-23
▁an	-24
al	-25
ing	-26
▁in	-27
ar	-28
ion	-29
▁to	-30
ou	-31
▁m	-32
ic	-33
▁and	-34
▁d	-35
as	-36
ent	-37
ro	-38
le	-39
▁h	-40
▁th	-41
▁re	-42
il	-43
ct	-44
▁e	-45
▁I	-46
om	-47
ation	-48
▁be	-49
▁이	-50
ve	-51
▁is	-52
st	-53
▁l	-54
▁T	-55
▁있	-56
▁n	-57
id	-58
ce	-59
▁S	-60
un	-61
▁g	-62
▁1	-63
ol	-64
▁for	-65
im	-66
ut	-67
▁that	-68
et	-69
▁A	-70
▁C	-71
▁on	-72
ly	-73
ment	-74
으로	-75
us	-76
ch	-77
ur	-78
▁2	-79
▁수	-80
▁K	-81
ore	-82
ot	-83
ad	-84
ay	-85
ers	-86
▁The	-87
▁대	-88
▁y	-89
에서	-90
▁wh	-91
▁사	-92
ong	-93
▁pro	-94
ir	-95
ig	-96
am	-97
▁지	-98
▁it	-99
▁st	-100
▁as	-101
ill	-102
ith	-103
▁P	-104
ul	-105
th	-106
▁he	-107
ow	-108
▁con	-109
▁with	-110
▁한	-111
▁G	-112
ter	-113
▁M	-114
ver	-115
▁ex	-116
▁것	-117
el	-118
▁가	-119
▁com	-120
▁기	-121
▁전	-122
oun	-123
▁su	-124
니다	-125
▁was	-126
▁그	-127
▁at	-128
▁are	-129
하는	-130
em	-131
est	-132
ge	-133
▁경	-134
ec	-135
▁sh	-136
▁by	-137
▁시	-138
if	-139
했다	-140
op	-141
▁제	-142
iv	-143
ies	-144
art	-145
ial	-146
pp	-147
os	-148
ra	-149
▁있다	-150
ate	-151
res	-152
▁will	-153
all	-154
▁H	-155
ort	-156
▁등	-157
ist	-158
▁D	-159
ity	-160
▁you	-161
ess	-162
▁보	-163
ect	-164
▁"	-165
▁위	-166
▁정	-167
ld	-168
▁v	-169
▁Kore	-170
▁al	-171
ear	-172
▁J	-173
ive	-174
ere	-175
her	-176
oc	-177
▁주	-178
하고	-179
▁ha	-180
ak	-181
▁In	-182
du	-183
oo	-184
ud	-185
▁아	-186
▁나	-187
▁or	-188
ang	-189
▁공	-190
▁W	-191
rom	-192
▁3	-193
▁다	-194
um	-195
▁중	-196
▁B	-197
▁자	-198
ice	-199
▁N	-200
and	-201
ee	-202
▁ch	-203
ant	-204
▁r	-205
▁관	-206
ain	-207
▁from	-208
▁20	-209
▁comp	-210
end	-211
▁인	-212
▁have	-213
ac	-214
ab	-215
iz	-216
▁not	-217
▁일	-218
▁부	-219
igh	-220
ich	-221
▁“	-222
▁has	-223
▁‘	-224
▁exp	-225
▁L	-226
▁un	-227
▁F	-228
▁E	-229
▁which	-230
이다	-231
▁ne	-232
▁de	-233
▁(	-234
ure	-235
▁who	-236
▁하	-237
▁whe	-238
qu	-239
▁내	-240
ous	-241
▁pl	-242
▁res	-243
▁me	-244
ast	-245
▁조	-246
▁상	-247
ri	-248
ye	-249
▁le	-250
ult	-251
▁Ch	-252
age	-253
▁구	-254
습니다	-255
ance	-256
▁wor	-257
▁inc	-258
▁국	-259
▁sa	-260
▁해	-261
ated	-262
▁있는	-263
들이	-264
▁year	-265
▁this	-266
ry	-267
00	-268
ary	-269
▁can	-270
▁의	-271
▁소	-272
▁go	-273
gh	-274
are	-275
▁오	-276
▁도	-277
der	-278
▁Y	-279
▁Korea	-280
ff	-281
▁U	-282
▁모	-283
▁but	-284
ime	-285
use	-286
▁O	-287
cc	-288
▁비	-289
▁5	-290
▁어	-291
▁여	-292
ip	-293
▁고	-294
▁우	-295
▁서	-296
▁R	-297
ard	-298
▁sp	-299
▁유	-300
out	-301
▁않	-302
ue	-303
▁미	-304
ould	-305
up	-306
ident	-307
▁ab	-308
ung	-309
fter	-310
ction	-311
ber	-312
▁4	-313
▁Se	-314
▁개	-315
vern	-316
▁ad	-317
▁se	-318
▁때	-319
▁연	-320
ough	-321
ase	-322
ans	-323
▁발	-324
ark	-325
▁int	-326
▁선	-327
ition	-328
ust	-329
▁없	-330
하여	-331
▁당	-332
▁off	-333
▁man	-334
ire	-335
▁신	-336
▁im	-337
orm	-338
▁It	-339
ens	-340
ap	-341
▁part	-342
에는	-343
▁said	-344
ight	-345
▁dis	-346
▁cont	-347
▁만	-348
한다	-349
▁j	-350
▁예	-351
▁한다	-352
ag	-353
▁마	-354
▁k	-355
▁문	-356
ince	-357
port	-358
ome	-359
▁따	-360
▁최	-361
▁방	-362
our	-363
▁shall	-364
lic	-365
▁ag	-366
yeong	-367
▁통	-368
ount	-369
▁so	-370
에게	-371
▁per	-372
▁tr	-373
▁been	-374
▁app	-375
▁there	-376
ub	-377
▁bec	-378
▁안	-379
▁말	-380
per	-381
▁were	-382
▁time	-383
ie	-384
ae	-385
ost	-386
▁생	-387
▁영	-388
ign	-389
▁거	-390
ound	-391
지만	-392
이라	-393
od	-394
▁교	-395
ational	-396
ide	-397
▁한국	-398
▁강	-399
▁ev	-400
▁pre	-401
ther	-402
▁실	-403
ood	-404
▁pe	-405
ations	-406
so	-407
▁201	-408
▁동	-409
▁work	-410
▁김	-411
▁ar	-412
▁te	-413
▁진	-414
▁Korean	-415
▁저	-416
▁out	-417
▁we	-418
▁after	-419
▁바	-420
ake	-421
ine	-422
."	-423
▁현	-424
vernment	-425
rov	-426
ople	-427
▁장	-428
ame	-429
▁Kim	-430
▁많	-431
form	-432
vel	-433
ke	-434
ell	-435
▁Th	-436
ren	-437
▁성	-438
▁As	-439
▁his	-440
▁6	-441
▁such	-442
ities	-443
mit	-444
까지	-445
ib	-446
▁also	-447
▁경기	-448
air	-449
▁세	-450
ence	-451
ding	-452
▁무	-453
og	-454
irst	-455
▁people	-456
▁when	-457
erv	-458
▁10	-459
act	-460
ru	-461
▁compan	-462
▁받	-463
▁Gyeong	-464
었다	-465
▁결	-466
ause	-467
▁rec	-468
▁head	-469
▁att	-470
ree	-471
▁than	-472
ical	-473
▁en	-474
▁they	-475
▁more	-476
low	-477
▁확	-478
▁및	-479
▁their	-480
▁inv	-481
▁지난	-482
▁것으로	-483
lud	-484
▁불	-485
▁cl	-486
se	-487
▁do	-488
one	-489
▁추	-490
ace	-491
▁pr	-492
▁대한	-493
▁분	-494
▁재	-495
lo	-496
▁if	-497
▁us	-498
▁노	-499
부터	-500
▁first	-501
면서	-502
적으로	-503
▁pol	-504
▁acc	-505
▁about	-506
che	-507
▁am	-508
▁더	-509
ict	-510
int	-511
duct	-512
▁계	-513
▁7	-514
▁day	-515
적인	-516
▁같	-517
gi	-518
ions	-519
▁prov	-520
▁필	-521
pt	-522
▁특	-523
ress	-524
▁원	-525
ublic	-526
▁경우	-527
▁감	-528
▁설	-529
▁참	-530
erson	-531
ook	-532
▁cons	-533
ors	-534
ass	-535
ike	-536
▁reg	-537
▁스	-538
ade	-539
▁남	-540
ile	-541
ject	-542
▁위해	-543
ish	-544
ose	-545
▁우리	-546
다는	-547
▁차	-548
하기	-549
ced	-550
▁회	-551
▁supp	-552
ual	-553
▁its	-554
▁includ	-555
▁under	-556
enter	-557
▁act	-558
▁알	-559
▁imp	-560
ious	-561
▁되	-562
▁건	-563
ents	-564
mer	-565
lect	-566
▁적	-567
able	-568
▁매	-569
ning	-570
ach	-571
어요	-572
▁up	-573
ia	-574
▁gr	-575
▁new	-576
▁Gyeonggi	-577
▁반	-578
rough	-579
inist	-580
red	-581
하게	-582
▁운	-583
▁my	-584
oul	-585
▁학	-586
▁because	-587
▁행	-588
된다	-589
▁government	-590
ool	-591
▁8	-592
ative	-593
▁offic	-594
▁fin	-595
▁입	-596
▁배	-597
▁sub	-598
▁필요	-599
▁후	-600
▁ro	-601
▁올	-602
mitt	-603
▁one	-604
▁Prov	-605
▁Seoul	-606
▁bus	-607
▁직	-608
▁invest	-609
▁열	-610
oon	-611
▁mem	-612
장은	-613
▁sec	-614
▁Com	-615
▁할	-616
▁출	-617
very	-618
ased	-619
▁all	-620
▁other	-621
▁과	-622
▁St	-623
ok	-624
▁may	-625
▁단	-626
ack	-627
들의	-628
ating	-629
▁사람	-630
gu	-631
anc	-632
oint	-633
old	-634
▁public	-635
iff	-636
▁좋	-637
uc	-638
illion	-639
▁rel	-640
▁like	-641
resident	-642
▁where	-643
▁through	-644
다고	-645
iness	-646
▁19	-647
000	-648
▁won	-649
▁loc	-650
▁요	-651
▁9	-652
chool	-653
▁서울	-654
ail	-655
▁over	-656
▁tw	-657
▁had	-658
▁partic	-659
ater	-660
▁들	-661
ond	-662
▁밝	-663
장이	-664
▁각	-665
ory	-666
▁qu	-667
▁포	-668
orth	-669
▁평	-670
▁당신	-671
▁청	-672
▁dec	-673
ite	-674
도록	-675
enc	-676
▁stud	-677
row	-678
▁person	-679
rop	-680
▁작	-681
▁Un	-682
ink	-683
▁또	-684
▁경기도	-685
▁mark	-686
▁sc	-687
▁mo	-688
▁last	-689
hed	-690
tern	-691
),	-692
▁them	-693
▁sy	-694
do	-695
own	-696
▁Gu	-697
▁diff	-698
con	-699
입니다	-700
▁활	-701
위원	-702
▁co	-703
iss	-704
▁em	-705
▁including	-706
▁Go	-707
됐다	-708
▁때문	-709
▁high	-710
ution	-711
velop	-712
ild	-713
hen	-714
▁함	-715
▁따라	-716
▁mon	-717
▁지원	-718
,"	-719
▁ref	-720
▁This	-721
gan	-722
ina	-723
ized	-724
dust	-725
▁금	-726
ts	-727
▁two	-728
▁oper	-729
▁높	-730
▁only	-731
man	-732
들은	-733
ep	-734
▁support	-735
▁bet	-736
▁가능	-737
▁점	-738
▁fe	-739
▁due	-740
▁official	-741
get	-742
▁지역	-743
▁report	-744
▁incre	-745
ular	-746
합니다	-747
▁ra	-748
▁your	-749
▁두	-750
▁North	-751
▁규	-752
▁달	-753
ivers	-754
▁집	-755
▁물	-756
▁comm	-757
ected	-758
▁inst	-759
we	-760
su	-761
▁business	-762
▁이번	-763
ph	-764
▁count	-765
▁북	-766
▁것이	-767
stem	-768
하지	-769
uring	-770
▁market	-771
mittee	-772
▁kn	-773
▁la	-774
oup	-775
▁He	-776
▁하는	-777
▁미국	-778
▁사업	-779
ural	-780
,000	-781
▁held	-782
▁통해	-783
▁sm	-784
elf	-785
und	-786
▁serv	-787
▁외	-788
▁char	-789
▁심	-790
▁pur	-791
▁no	-792
▁Province	-793
ied	-794
ific	-795
▁호	-796
av	-797
▁op	-798
abl	-799
▁rep	-800
▁Ar	-801
▁법	-802
▁판	-803
▁school	-804
▁est	-805
▁피	-806
▁못	-807
▁게	-808
▁tra	-809
▁meet	-810
▁Lee	-811
▁V	-812
ility	-813
▁bu	-814
▁관련	-815
▁pos	-816
▁vis	-817
ecial	-818
▁should	-819
▁companies	-820
▁col	-821
▁product	-822
▁함께	-823
▁역	-824
▁검	-825
ks	-826
▁med	-827
▁project	-828
▁앞	-829
irect	-830
ention	-831
ures	-832
▁증	-833
▁des	-834
▁나는	-835
gr	-836
▁목	-837
ise	-838
conom	-839
▁대해	-840
되는	-841
▁명	-842
혔다	-843
▁would	-844
ven	-845
▁say	-846
▁위원	-847
ll	-848
▁National	-849
▁develop	-850
▁ann	-851
▁사용	-852
▁conf	-853
에서는	-854
▁처	-855
▁산	-856
▁30	-857
▁프	-858
▁system	-859
bers	-860
▁11	-861
▁화	-862
reat	-863
xt	-864
rit	-865
▁num	-866
▁need	-867
▁rece	-868
는데	-869
▁years	-870
▁month	-871
olog	-872
tic	-873
▁투	-874
icult	-875
here	-876
▁If	-877
ered	-878
▁아니	-879
▁업	-880
▁새	-881
▁dep	-882
▁12	-883
▁파	-884
▁밝혔다	-885
▁add	-886
▁made	-887
▁임	-888
te	-889
ments	-890
자가	-891
▁any	-892
erm	-893
▁plan	-894
▁local	-895
사를	-896
eren	-897
▁문제	-898
▁car	-899
▁협	-900
▁get	-901
이라고	-902
▁want	-903
agement	-904
ener	-905
▁into	-906
▁many	-907
cer	-908
ju	-909
▁민	-910
rib	-911
ob	-912
ates	-913
ract	-914
▁간	-915
기를	-916
ange	-917
▁양	-918
ited	-919
사가	-920
▁play	-921
▁진행	-922
▁맞	-923
통령	-924
ian	-925
▁ins	-926
▁200	-927
▁show	-928
ided	-929
▁number	-930
▁fac	-931
▁hous	-932
ics	-933
▁드	-934
▁even	-935
▁again	-936
▁good	-937
ween	-938
▁There	-939
으며	-940
▁min	-941
sib	-942
ety	-943
▁company	-944
ization	-945
▁perform	-946
▁between	-947
▁대통령	-948
▁취	-949
▁indust	-950
ience	-951
▁team	-952
▁particip	-953
▁초	-954
oung	-955
▁fol	-956
ording	-957
▁박	-958
▁make	-959
resent	-960
장을	-961
▁변	-962
▁disc	-963
▁총	-964
ily	-965
▁생각	-966
▁환	-967
▁정부	-968
▁lead	-969
▁dr	-970
▁child	-971
ord	-972
▁잘	-973
inc	-974
▁exper	-975
ax	-976
way	-977
ize	-978
▁너	-979
ese	-980
▁있습니다	-981
ason	-982
▁eff	-983
day	-984
▁We	-985
▁있어	-986
▁체	-987
▁운영	-988
▁이상	-989
plo	-990
▁since	-991
▁15	-992
▁중국	-993
▁members	-994
▁많은	-995
ices	-996
▁investig	-997
▁mat	-998
▁var	-999
에도	-1000
▁ed	-1001
▁take	-1002
▁some	-1003
▁prom	-1004
▁종	-1005
▁본	-1006
ble	-1007
ally	-1008
ency	-1009
원이	-1010
▁했다	-1011
▁del	-1012
▁follow	-1013
▁관계	-1014
▁start	-1015
▁use	-1016
들을	-1017
▁위한	-1018
▁An	-1019
▁resp	-1020
ck	-1021
▁ph	-1022
▁등을	-1023
▁대표	-1024
▁President	-1025
fore	-1026
▁econom	-1027
하다	-1028
▁think	-1029
ife	-1030
▁기업	-1031
자는	-1032
▁soc	-1033
▁right	-1034
▁다음	-1035
▁while	-1036
▁ent	-1037
ank	-1038
▁fam	-1039
▁trans	-1040
iew	-1041
outh	-1042
▁direct	-1043
▁음	-1044
aking	-1045
▁well	-1046
성이	-1047
▁교육	-1048
▁가장	-1049
▁Je	-1050
ove	-1051
ital	-1052
urn	-1053
았다	-1054
▁requ	-1055
▁이어	-1056
▁Park	-1057
▁rele	-1058
apan	-1059
▁cre	-1060
ings	-1061
idents	-1062
하여야	-1063
▁저는	-1064
보다	-1065
olit	-1066
wn	-1067
▁다른	-1068
▁데	-1069
lement	-1070
▁che	-1071
ick	-1072
▁each	-1073
ock	-1074
▁order	-1075
▁organ	-1076
▁담	-1077
iving	-1078
▁establ	-1079
chn	-1080
▁말했다	-1081
세요	-1082
ower	-1083
▁her	-1084
▁Part	-1085
▁구청	-1086
▁시간	-1087
urren	-1088
▁could	-1089
▁En	-1090
ron	-1091
ward	-1092
하며	-1093
ful	-1094
▁ass	-1095
inistr	-1096
▁Tr	-1097
ared	-1098
▁rev	-1099
▁Act	-1100
les	-1101
ute	-1102
▁know	-1103
ilities	-1104
▁educ	-1105
▁cult	-1106
▁sur	-1107
▁ear	-1108
▁det	-1109
ission	-1110
▁시작	-1111
▁것이다	-1112
▁lar	-1113
▁들어	-1114
ticle	-1115
였다	-1116
▁살	-1117
▁main	-1118
▁같은	-1119
▁Wh	-1120
ind	-1121
▁근	-1122
▁fact	-1123
▁Ass	-1124
▁being	-1125
▁pay	-1126
ty	-1127
etrop	-1128
지는	-1129
▁광	-1130
inistry	-1131
olitan	-1132
▁Japan	-1133
▁On	-1134
won	-1135
졌다	-1136
amp	-1137
etropolitan	-1138
tain	-1139
▁뒤	-1140
ministr	-1141
▁special	-1142
cess	-1143
ecess	-1144
ting	-1145
리는	-1146
ision	-1147
ams	-1148
▁management	-1149
회의	-1150
▁str	-1151
사는	-1152
▁하나	-1153
▁next	-1154
▁did	-1155
▁expected	-1156
▁don	-1157
▁prev	-1158
▁것은	-1159
ection	-1160
▁aut	-1161
▁찾	-1162
▁grow	-1163
▁during	-1164
▁손	-1165
nam	-1166
▁three	-1167
▁싶	-1168
▁확인	-1169
▁ind	-1170
▁When	-1171
▁것을	-1172
▁comple	-1173
▁dist	-1174
▁end	-1175
▁약	-1176
▁Sh	-1177
▁bl	-1178
▁our	-1179
▁result	-1180
▁rem	-1181
▁place	-1182
기업	-1183
이나	-1184
▁치	-1185
▁크	-1186
▁open	-1187
tc	-1188
▁law	-1189
리를	-1190
지고	-1191
거나	-1192
▁announ	-1193
하면	-1194
artment	-1195
해야	-1196
erest	-1197
▁necess	-1198
wang	-1199
ister	-1200
▁inter	-1201
▁see	-1202
▁City	-1203
▁long	-1204
ases	-1205
20	-1206
▁fore	-1207
▁참여	-1208
▁경찰	-1209
uation	-1210
▁before	-1211
▁Party	-1212
▁etc	-1213
▁inform	-1214
▁Ministry	-1215
▁ac	-1216
▁second	-1217
▁번	-1218
ants	-1219
rict	-1220
iversity	-1221
시간	-1222
기가	-1223
▁친	-1224
▁contin	-1225
▁이용	-1226
▁students	-1227
▁발생	-1228
▁큰	-1229
▁타	-1230
▁meeting	-1231
▁various	-1232
대로	-1233
arm	-1234
its	-1235
▁most	-1236
lease	-1237
▁call	-1238
▁줄	-1239
운데	-1240
ives	-1241
▁point	-1242
라고	-1243
▁준	-1244
stru	-1245
▁group	-1246
hip	-1247
▁design	-1248
▁Article	-1249
▁million	-1250
▁상황	-1251
▁interest	-1252
▁언	-1253
pr	-1254
▁br	-1255
rd	-1256
▁cor	-1257
▁polic	-1258
▁걸	-1259
ew	-1260
센터	-1261
▁emplo	-1262
▁sit	-1263
ather	-1264
▁또는	-1265
ancial	-1266
▁국내	-1267
▁necessary	-1268
▁sal	-1269
명이	-1270
▁Con	-1271
airman	-1272
리가	-1273
▁area	-1274
blem	-1275
▁결과	-1276
리고	-1277
▁ca	-1278
▁gu	-1279
지를	-1280
▁every	-1281
cheon	-1282
▁합	-1283
▁promot	-1284
▁가운데	-1285
▁100	-1286
▁만들	-1287
사업	-1288
▁office	-1289
▁hel	-1290
▁problem	-1291
▁real	-1292
▁필요한	-1293
▁China	-1294
▁세계	-1295
▁네	-1296
▁아이	-1297
▁문화	-1298
uch	-1299
lection	-1300
▁18	-1301
▁police	-1302
▁Do	-1303
▁Committee	-1304
▁aff	-1305
▁just	-1306
▁same	-1307
▁프로	-1308
▁하고	-1309
▁now	-1310
por	-1311
ave	-1312
ft	-1313
ries	-1314
▁편	-1315
▁difficult	-1316
riend	-1317
ret	-1318
▁그는	-1319
▁gener	-1320
▁set	-1321
▁창	-1322
med	-1323
alth	-1324
▁case	-1325
▁이후	-1326
ved	-1327
위원회	-1328
▁what	-1329
tal	-1330
라는	-1331
▁카	-1332
▁채	-1333
▁따른	-1334
▁표	-1335
▁자신	-1336
▁world	-1337
lear	-1338
▁look	-1339
raph	-1340
되고	-1341
▁adv	-1342
▁경제	-1343
▁속	-1344
▁돌	-1345
▁lot	-1346
▁help	-1347
▁다양	-1348
▁농	-1349
▁You	-1350
▁해당	-1351
▁충	-1352
chnolog	-1353
▁Min	-1354
▁날	-1355
▁지금	-1356
▁days	-1357
▁사회	-1358
▁복	-1359
▁residents	-1360
▁how	-1361
duc	-1362
par	-1363
▁최근	-1364
▁education	-1365
▁넘	-1366
▁visit	-1367
▁트	-1368
▁올해	-1369
▁prof	-1370
▁found	-1371
cent	-1372
▁process	-1373
이라는	-1374
▁used	-1375
▁논	-1376
▁13	-1377
비스	-1378
▁때문에	-1379
▁Acc	-1380
성을	-1381
▁Metropolitan	-1382
▁곳	-1383
기관	-1384
▁예정	-1385
▁전문	-1386
▁opp	-1387
▁event	-1388
eration	-1389
▁term	-1390
uss	-1391
▁보고	-1392
▁without	-1393
▁될	-1394
▁rest	-1395
ived	-1396
oy	-1397
▁현재	-1398
▁알려	-1399
▁own	-1400
▁했	-1401
▁독	-1402
▁buil	-1403
vernor	-1404
▁possib	-1405
▁South	-1406
ient	-1407
earch	-1408
▁sign	-1409
▁완	-1410
▁등이	-1411
▁추진	-1412
read	-1413
▁pass	-1414
lain	-1415
▁제품	-1416
▁small	-1417
ering	-1418
▁ret	-1419
시아	-1420
▁products	-1421
▁met	-1422
▁service	-1423
▁메	-1424
서는	-1425
▁Government	-1426
urrent	-1427
▁differen	-1428
▁지난해	-1429
나요	-1430
▁일본	-1431
iber	-1432
▁tax	-1433
ished	-1434
▁사실	-1435
▁있도록	-1436
ium	-1437
▁삼	-1438
정을	-1439
cil	-1440
ourt	-1441
▁식	-1442
▁있을	-1443
ef	-1444
iron	-1445
▁대상	-1446
▁former	-1447
▁16	-1448
▁Cho	-1449
▁around	-1450
▁compet	-1451
The	-1452
기에	-1453
▁모두	-1454
▁job	-1455
▁'	-1456
▁14	-1457
▁concer	-1458
▁information	-1459
ecut	-1460
▁industry	-1461
▁way	-1462
▁승	-1463
▁설명	-1464
▁Al	-1465
▁related	-1466
▁back	-1467
ism	-1468
airs	-1469
▁많이	-1470
gy	-1471
erred	-1472
ense	-1473
▁food	-1474
▁dem	-1475
화를	-1476
▁pop	-1477
iation	-1478
inance	-1479
▁meas	-1480
ten	-1481
▁cr	-1482
▁특히	-1483
yung	-1484
▁city	-1485
▁Center	-1486
▁life	-1487
iod	-1488
▁According	-1489
alk	-1490
▁him	-1491
▁북한	-1492
▁house	-1493
▁activ	-1494
▁bro	-1495
▁학생	-1496
하면서	-1497
력을	-1498
▁conduct	-1499
▁온	-1500
▁늘	-1501
▁Pro	-1502
aj	-1503
ork	-1504
▁Bus	-1505
als	-1506
▁import	-1507
ouncil	-1508
▁wee	-1509
▁Dae	-1510
▁이날	-1511
▁접	-1512
ters	-1513
들에게	-1514
▁development	-1515
▁commun	-1516
struction	-1517
▁토	-1518
▁facilities	-1519
omen	-1520
▁기대	-1521
abor	-1522
viron	-1523
▁25	-1524
▁fi	-1525
▁How	-1526
으면	-1527
lected	-1528
▁폭	-1529
uk	-1530
imes	-1531
학교	-1532
other	-1533
원을	-1534
osp	-1535
ale	-1536
led	-1537
▁saying	-1538
▁At	-1539
▁May	-1540
▁먹	-1541
▁국가	-1542
▁다양한	-1543
▁children	-1544
▁investigation	-1545
ended	-1546
▁축	-1547
▁다시	-1548
ving	-1549
▁Re	-1550
▁있다는	-1551
vironment	-1552
▁계획	-1553
▁par	-1554
▁consid	-1555
▁country	-1556
▁following	-1557
▁정도	-1558
▁large	-1559
▁within	-1560
oth	-1561
▁없는	-1562
▁50	-1563
▁addition	-1564
▁much	-1565
▁enter	-1566
▁리	-1567
▁별	-1568
▁reason	-1569
▁Gang	-1570
스트	-1571
▁효	-1572
▁increase	-1573
▁center	-1574
ually	-1575
leg	-1576
▁administr	-1577
duction	-1578
osed	-1579
▁이유	-1580
▁누	-1581
▁hand	-1582
▁Off	-1583
ted	-1584
cept	-1585
▁향	-1586
▁down	-1587
ised	-1588
▁제가	-1589
▁커	-1590
ional	-1591
▁period	-1592
ems	-1593
▁관심	-1594
▁시장	-1595
▁Moon	-1596
▁책	-1597
dong	-1598
에요	-1599
▁billion	-1600
ump	-1601
▁care	-1602
ior	-1603
▁17	-1604
ope	-1605
▁ob	-1606
▁fil	-1607
▁(1	-1608
▁오늘	-1609
인이	-1610
▁설치	-1611
▁saf	-1612
▁항	-1613
▁태	-1614
ively	-1615
ently	-1616
chnology	-1617
stit	-1618
▁직접	-1619
▁bel	-1620
상을	-1621
▁pros	-1622
▁among	-1623
▁announced	-1624
▁내가	-1625
▁home	-1626
▁절	-1627
▁instit	-1628
ances	-1629
▁눈	-1630
▁내용	-1631
▁University	-1632
▁performance	-1633
ath	-1634
▁inf	-1635
▁포함	-1636
▁she	-1637
▁social	-1638
로운	-1639
▁against	-1640
emb	-1641
▁def	-1642
incial	-1643
▁president	-1644
she	-1645
▁national	-1646
원은	-1647
usp	-1648
▁홍	-1649
ival	-1650
▁four	-1651
▁party	-1652
▁에	-1653
▁형	-1654
자의	-1655
▁rate	-1656
▁관리	-1657
ternational	-1658
이고	-1659
▁순	-1660
atic	-1661
▁bo	-1662
▁very	-1663
▁reported	-1664
▁제공	-1665
▁조사	-1666
ried	-1667
▁ask	-1668
▁price	-1669
니까	-1670
▁Ye	-1671
▁평가	-1672
▁sum	-1673
▁referred	-1674
used	-1675
▁Hy	-1676
▁stand	-1677
▁establish	-1678
르면	-1679
▁주민	-1680
▁힘	-1681
▁코	-1682
해서	-1683
▁사항	-1684
▁fl	-1685
교육	-1686
▁Jung	-1687
▁구청장은	-1688
rove	-1689
▁연구	-1690
gest	-1691
▁fire	-1692
시설	-1693
▁win	-1694
ined	-1695
ajor	-1696
ached	-1697
▁Dong	-1698
▁pres	-1699
되어	-1700
ched	-1701
uture	-1702
▁art	-1703
udget	-1704
ining	-1705
▁current	-1706
원의	-1707
▁활동	-1708
▁request	-1709
▁권	-1710
▁total	-1711
▁Che	-1712
▁respon	-1713
▁susp	-1714
ner	-1715
duced	-1716
▁공개	-1717
▁모든	-1718
▁범	-1719
aly	-1720
▁week	-1721
ug	-1722
▁financial	-1723
▁등의	-1724
▁난	-1725
ai	-1726
ilit	-1727
orts	-1728
▁whether	-1729
hing	-1730
▁come	-1731
▁intro	-1732
▁갖	-1733
▁chang	-1734
▁위하여	-1735
▁check	-1736
들과	-1737
ivate	-1738
▁operation	-1739
▁economic	-1740
▁cost	-1741
▁모습	-1742
▁있었	-1743
).	-1744
▁feel	-1745
ruct	-1746
▁기술	-1747
기도	-1748
▁power	-1749
▁방문	-1750
ness	-1751
ustom	-1752
ever	-1753
자를	-1754
▁class	-1755
▁air	-1756
eep	-1757
▁피해	-1758
▁어려	-1759
▁Jae	-1760
▁effect	-1761
▁24	-1762
▁끝	-1763
agraph	-1764
ination	-1765
ists	-1766
ages	-1767
mission	-1768
▁국민	-1769
ov	-1770
레이	-1771
▁room	-1772
ds	-1773
▁water	-1774
▁going	-1775
▁disp	-1776
▁갈	-1777
▁become	-1778
겠습니다	-1779
▁progr	-1780
▁얼	-1781
▁참석	-1782
▁개발	-1783
▁마련	-1784
그램	-1785
▁군	-1786
▁이를	-1787
▁안전	-1788
▁버	-1789
▁영화	-1790
▁attention	-1791
▁디	-1792
▁family	-1793
▁coop	-1794
의를	-1795
▁though	-1796
▁cases	-1797
▁좋은	-1798
이하	-1799
▁war	-1800
▁budget	-1801
▁building	-1802
▁officials	-1803
▁policy	-1804
▁Man	-1805
▁foreign	-1806
▁major	-1807
▁mus	-1808
▁ve	-1809
▁eas	-1810
▁정보	-1811
uty	-1812
▁벌	-1813
력이	-1814
▁does	-1815
pe	-1816
▁사이	-1817
▁없다	-1818
ged	-1819
▁prot	-1820
▁나타	-1821
ral	-1822
▁different	-1823
▁state	-1824
til	-1825
관리	-1826
ief	-1827
▁Han	-1828
▁charge	-1829
장의	-1830
▁된다	-1831
▁low	-1832
line	-1833
▁sol	-1834
▁처음	-1835
▁cap	-1836
▁particular	-1837
▁De	-1838
▁those	-1839
embly	-1840
▁future	-1841
▁질	-1842
▁학교	-1843
▁working	-1844
▁account	-1845
식을	-1846
▁applic	-1847
▁Governor	-1848
도가	-1849
iety	-1850
▁ext	-1851
▁정책	-1852
▁occ	-1853
▁book	-1854
▁construction	-1855
▁않는	-1856
기는	-1857
▁따르면	-1858
▁첫	-1859
에서도	-1860
처럼	-1861
▁ful	-1862
▁amount	-1863
ality	-1864
▁implement	-1865
▁change	-1866
▁sent	-1867
▁글	-1868
▁발표	-1869
io	-1870
▁베	-1871
alf	-1872
▁중요	-1873
부가	-1874
itiz	-1875
▁form	-1876
▁조례	-1877
ctions	-1878
▁friend	-1879
▁means	-1880
▁New	-1881
▁Is	-1882
▁US	-1883
though	-1884
왔다	-1885
▁Ex	-1886
▁느	-1887
omm	-1888
▁represent	-1889
▁health	-1890
ending	-1891
▁브	-1892
▁big	-1893
▁percent	-1894
▁서비스	-1895
ix	-1896
▁허	-1897
ising	-1898
hor	-1899
▁오후	-1900
iven	-1901
▁past	-1902
ified	-1903
▁improve	-1904
▁아니라	-1905
▁custom	-1906
vers	-1907
▁21	-1908
oney	-1909
ony	-1910
▁용	-1911
ature	-1912
▁situation	-1913
gether	-1914
▁together	-1915
▁fund	-1916
reen	-1917
▁사건	-1918
ification	-1919
지가	-1920
사의	-1921
ex	-1922
▁Minister	-1923
▁Gwang	-1924
▁빠	-1925
▁post	-1926
▁measures	-1927
▁40	-1928
bal	-1929
▁environment	-1930
▁Office	-1931
land	-1932
▁mid	-1933
▁continu	-1934
수가	-1935
ately	-1936
▁결정	-1937
the	-1938
akes	-1939
▁너무	-1940
▁좋아	-1941
ired	-1942
▁allow	-1943
▁증가	-1944
gency	-1945
tle	-1946
▁전망	-1947
▁hard	-1948
▁aud	-1949
▁우리는	-1950
▁Mar	-1951
▁「	-1952
ces	-1953
▁사진	-1954
▁great	-1955
▁strong	-1956
▁ser	-1957
▁member	-1958
문화	-1959
▁hour	-1960
해요	-1961
▁당시	-1962
▁happ	-1963
▁시행	-1964
▁23	-1965
▁sk	-1966
▁cent	-1967
me	-1968
▁분석	-1969
▁activities	-1970
▁기록	-1971
oh	-1972
▁여러	-1973
▁투자	-1974
▁run	-1975
▁committee	-1976
▁level	-1977
▁규정	-1978
▁측	-1979
rdinance	-1980
▁급	-1981
▁금융	-1982
단체	-1983
▁Busan	-1984
.5	-1985
stand	-1986
▁tour	-1987
지역	-1988
▁explain	-1989
▁볼	-1990
▁best	-1991
▁issu	-1992
▁prep	-1993
은행	-1994
▁received	-1995
ata	-1996
▁있다고	-1997
urity	-1998
▁pursu	-1999
▁neg	-2000
▁pat	-2001
▁jud	-2002
inafter	-2003
▁possible	-2004
회를	-2005
▁provide	-2006
▁countries	-2007
▁cer	-2008
▁27	-2009
▁sales	-2010
▁산업	-2011
이는	-2012
elfare	-2013
san	-2014
▁dom	-2015
▁부산	-2016
▁다만	-2017
▁면	-2018
▁병	-2019
duce	-2020
ins	-2021
▁예산	-2022
▁판매	-2023
▁Assembly	-2024
▁여성	-2025
▁준비	-2026
했다고	-2027
hereinafter	-2028
ugh	-2029
ines	-2030
▁업무	-2031
▁경우에는	-2032
.”	-2033
▁있었다	-2034
▁동안	-2035
▁신청	-2036
▁Ordinance	-2037
▁For	-2038
amsung	-2039
▁Please	-2040
▁보내	-2041
ric	-2042
▁dam	-2043
▁private	-2044
했던	-2045
▁Sec	-2046
▁추가	-2047
▁That	-2048
▁로	-2049
▁lo	-2050
▁test	-2051
금을	-2052
ulation	-2053
▁때문이다	-2054
회가	-2055
▁matters	-2056
인다	-2057
▁agree	-2058
▁fun	-2059
▁22	-2060
▁areas	-2061
▁일부	-2062
itions	-2063
hy	-2064
▁정상	-2065
▁관한	-2066
▁개최	-2067
atch	-2068
ier	-2069
sid	-2070
▁confir	-2071
▁employ	-2072
aren	-2073
▁열린	-2074
주시	-2075
▁구성	-2076
▁cond	-2077
ody	-2078
ilitary	-2079
▁실시	-2080
utes	-2081
▁culture	-2082
▁women	-2083
▁val	-2084
uman	-2085
▁어떤	-2086
ned	-2087
▁young	-2088
iol	-2089
▁친구	-2090
vant	-2091
▁기준	-2092
je	-2093
씨가	-2094
▁않은	-2095
겠다	-2096
ey	-2097
ressed	-2098
▁bas	-2099
ho	-2100
▁fall	-2101
▁높은	-2102
▁Samsung	-2103
▁만큼	-2104
▁give	-2105
▁today	-2106
▁here	-2107
▁sim	-2108
▁새로운	-2109
▁특별	-2110
▁dra	-2111
▁based	-2112
▁요구	-2113
▁director	-2114
▁된	-2115
▁using	-2116
▁until	-2117
ger	-2118
ront	-2119
omet	-2120
inese	-2121
▁Educ	-2122
▁insp	-2123
▁crit	-2124
▁환경	-2125
▁demand	-2126
▁important	-2127
▁money	-2128
▁popular	-2129
▁확대	-2130
▁list	-2131
▁experience	-2132
▁move	-2133
▁too	-2134
▁공동	-2135
▁지적	-2136
ospital	-2137
인을	-2138
▁등에	-2139
▁profess	-2140
▁받아	-2141
lobal	-2142
▁equ	-2143
가는	-2144
ecution	-2145
서를	-2146
특별	-2147
▁store	-2148
▁these	-2149
▁game	-2150
estival	-2151
▁Su	-2152
▁technology	-2153
▁expand	-2154
▁able	-2155
▁영향	-2156
We	-2157
▁growth	-2158
▁공연	-2159
▁전국	-2160
▁increased	-2161
▁Chinese	-2162
났다	-2163
▁28	-2164
페이	-2165
▁put	-2166
▁general	-2167
▁old	-2168
▁이런	-2169
▁길	-2170
▁이미	-2171
▁sing	-2172
▁합니다	-2173
itizens	-2174
▁26	-2175
▁Gr	-2176
hib	-2177
▁department	-2178
▁쓰	-2179
▁five	-2180
▁잡	-2181
▁let	-2182
▁top	-2183
ars	-2184
▁why	-2185
▁half	-2186
치를	-2187
rial	-2188
▁workers	-2189
▁Japanese	-2190
▁Res	-2191
ceed	-2192
▁expens	-2193
▁still	-2194
▁Education	-2195
▁decided	-2196
▁가격	-2197
▁지방	-2198
uclear	-2199
▁left	-2200
▁2018	-2201
▁data	-2202
yeon	-2203
관이	-2204
sue	-2205
estic	-2206
▁present	-2207
▁라	-2208
▁leg	-2209
▁writ	-2210
▁Council	-2211
▁중심	-2212
▁프로그램	-2213
▁막	-2214
도를	-2215
▁record	-2216
▁당신은	-2217
▁safety	-2218
aster	-2219
▁Ad	-2220
▁검찰	-2221
▁가족	-2222
▁과정	-2223
▁예상	-2224
▁viol	-2225
항에	-2226
▁국제	-2227
▁lit	-2228
wan	-2229
▁times	-2230
▁near	-2231
▁came	-2232
▁지급	-2233
▁애	-2234
▁도시	-2235
▁author	-2236
person	-2237
app	-2238
제로	-2239
료를	-2240
기로	-2241
▁projects	-2242
▁최대	-2243
▁opin	-2244
으나	-2245
럼프	-2246
▁hope	-2247
▁discuss	-2248
▁making	-2249
▁철	-2250
oll	-2251
▁then	-2252
▁Chung	-2253
▁ord	-2254
▁Serv	-2255
▁fiel	-2256
▁시민	-2257
yang	-2258
aid	-2259
▁대학	-2260
▁province	-2261
▁Eng	-2262
▁analy	-2263
RW	-2264
▁행정	-2265
ociation	-2266
▁land	-2267
▁삼성	-2268
▁free	-2269
▁낮	-2270
▁사고	-2271
산업	-2272
▁early	-2273
hic	-2274
▁Te	-2275
▁After	-2276
▁어떻	-2277
ple	-2278
▁행사	-2279
▁emer	-2280
▁took	-2281
▁apply	-2282
▁당신이	-2283
자들이	-2284
▁백	-2285
▁Trump	-2286
지원	-2287
ouse	-2288
▁results	-2289
▁exc	-2290
inal	-2291
▁hig	-2292
어나	-2293
▁보여	-2294
▁rul	-2295
▁lear	-2296
▁Pol	-2297
ify	-2298
▁hol	-2299
▁pursuant	-2300
▁consum	-2301
▁My	-2302
▁배우	-2303
▁press	-2304
▁감사	-2305
asing	-2306
den	-2307
▁기존	-2308
▁개선	-2309
ocr	-2310
▁월	-2311
▁stat	-2312
▁활용	-2313
▁선정	-2314
▁야	-2315
▁Jong	-2316
▁trad	-2317
했습니다	-2318
sc	-2319
▁않았	-2320
▁hist	-2321
▁election	-2322
▁1,	-2323
가요	-2324
▁div	-2325
com	-2326
jin	-2327
▁Sp	-2328
▁어떻게	-2329
▁송	-2330
▁패	-2331
▁return	-2332
장에서	-2333
▁military	-2334
ocu	-2335
▁released	-2336
▁Dem	-2337
▁골	-2338
▁않고	-2339
대표	-2340
▁폐	-2341
▁mov	-2342
▁media	-2343
▁관계자는	-2344
▁contract	-2345
▁proper	-2346
▁manag	-2347
hes	-2348
▁lim	-2349
ructure	-2350
▁제출	-2351
▁트럼프	-2352
안을	-2353
상이	-2354
▁ur	-2355
▁감독	-2356
▁시설	-2357
▁선수	-2358
▁paragraph	-2359
▁organiz	-2360
▁혐	-2361
위를	-2362
▁마음	-2363
lish	-2364
▁있어요	-2365
▁charact	-2366
ivil	-2367
▁polit	-2368
▁ap	-2369
▁오전	-2370
▁KRW	-2371
랜드	-2372
▁인정	-2373
▁Incheon	-2374
계획	-2375
▁What	-2376
장에	-2377
▁expect	-2378
▁2016	-2379
▁ty	-2380
▁고객	-2381
▁vehic	-2382
ieve	-2383
",	-2384
osition	-2385
▁purp	-2386
▁의견	-2387
▁exch	-2388
ges	-2389
▁labor	-2390
▁short	-2391
▁응	-2392
▁entr	-2393
▁계속	-2394
▁find	-2395
▁relevant	-2396
▁site	-2397
nd	-2398
▁수도	-2399
제를	-2400
▁최고	-2401
▁오는	-2402
▁휴	-2403
▁affairs	-2404
hold	-2405
201	-2406
▁즐	-2407
▁그러	-2408
▁read	-2409
▁생산	-2410
▁않아	-2411
▁issue	-2412
▁quest	-2413
▁prop	-2414
▁docu	-2415
▁name	-2416
▁elect	-2417
▁자유	-2418
ration	-2419
▁극	-2420
▁Sup	-2421
▁domestic	-2422
cast	-2423
aterial	-2424
명의	-2425
▁찾아	-2426
▁지속	-2427
▁규모	-2428
었습니다	-2429
▁소비	-2430
기술	-2431
▁However	-2432
▁tem	-2433
▁economy	-2434
ames	-2435
▁기간	-2436
▁vol	-2437
reng	-2438
ash	-2439
▁phot	-2440
stitute	-2441
▁이야	-2442
▁prevent	-2443
▁music	-2444
▁주요	-2445
▁Shin	-2446
인의	-2447
▁install	-2448
▁Co	-2449
▁cultural	-2450
▁plans	-2451
▁있으며	-2452
▁인터	-2453
ik	-2454
▁research	-2455
.1	-2456
▁investment	-2457
▁같아	-2458
mber	-2459
▁요청	-2460
▁분야	-2461
▁만들어	-2462
▁try	-2463
aring	-2464
▁called	-2465
▁잠	-2466
▁있고	-2467
▁citizens	-2468
▁적용	-2469
▁29	-2470
명을	-2471
▁좀	-2472
부는	-2473
not	-2474
▁이뤄	-2475
▁flo	-2476
▁streng	-2477
ird	-2478
▁global	-2479
▁보인다	-2480
▁부분	-2481
장과	-2482
▁buy	-2483
ards	-2484
되지	-2485
utions	-2486
▁우려	-2487
30	-2488
nel	-2489
▁팀	-2490
▁must	-2491
▁Chairman	-2492
▁나온	-2493
▁front	-2494
joy	-2495
▁후보	-2496
▁생활	-2497
▁Pr	-2498
▁몰	-2499
dict	-2500
▁foc	-2501
▁Although	-2502
▁news	-2503
▁테	-2504
ets	-2505
▁relations	-2506
렇게	-2507
▁발전	-2508
▁31	-2509
▁exam	-2510
▁대통령이	-2511
▁사랑	-2512
▁attached	-2513
crib	-2514
▁agreement	-2515
▁appoint	-2516
까요	-2517
동안	-2518
▁Hong	-2519
▁나오	-2520
ible	-2521
▁건강	-2522
▁그것	-2523
▁material	-2524
▁eval	-2525
ling	-2526
▁떨	-2527
어서	-2528
ccess	-2529
▁경쟁	-2530
소년	-2531
▁Choi	-2532
▁전체	-2533
▁film	-2534
vey	-2535
▁Court	-2536
ready	-2537
ones	-2538
▁vide	-2539
▁없이	-2540
ons	-2541
▁받은	-2542
▁super	-2543
렸다	-2544
▁ren	-2545
rol	-2546
특별시	-2547
▁노동	-2548
▁corpor	-2549
dle	-2550
부를	-2551
▁공공	-2552
연구	-2553
▁판단	-2554
pl	-2555
work	-2556
▁mor	-2557
▁Am	-2558
▁enjoy	-2559
▁그녀	-2560
erem	-2561
▁less	-2562
▁live	-2563
▁외국	-2564
ension	-2565
▁view	-2566
▁비롯	-2567
▁chairman	-2568
▁hold	-2569
▁treat	-2570
▁상태	-2571
이에요	-2572
▁medical	-2573
▁full	-2574
▁참가	-2575
ocratic	-2576
▁아직	-2577
도로	-2578
andid	-2579
ros	-2580
▁went	-2581
EO	-2582
▁어느	-2583
iet	-2584
▁services	-2585
▁적극	-2586
yees	-2587
▁already	-2588
▁body	-2589
▁prosecution	-2590
▁의미	-2591
▁강조	-2592
▁해외	-2593
▁once	-2594
retary	-2595
▁park	-2596
▁인천	-2597
▁Dep	-2598
▁study	-2599
▁hours	-2600
스템	-2601
▁success	-2602
▁방송	-2603
▁provincial	-2604
▁established	-2605
회담	-2606
▁Dist	-2607
▁콘	-2608
한국	-2609
▁Institute	-2610
less	-2611
▁hot	-2612
▁공무	-2613
ides	-2614
▁spec	-2615
▁sl	-2616
▁노력	-2617
▁고려	-2618
▁관광	-2619
▁60	-2620
▁예정이다	-2621
▁수사	-2622
▁according	-2623
urance	-2624
▁side	-2625
마트	-2626
▁Jun	-2627
▁귀	-2628
대가	-2629
▁mod	-2630
▁road	-2631
airperson	-2632
.2	-2633
하거나	-2634
▁vict	-2635
▁purch	-2636
▁떠	-2637
▁주장	-2638
▁바로	-2639
▁설명했다	-2640
정이	-2641
▁regard	-2642
ffic	-2643
▁방법	-2644
▁months	-2645
▁Can	-2646
")	-2647
했고	-2648
ically	-2649
▁이해	-2650
▁paid	-2651
cement	-2652
ember	-2653
▁receive	-2654
▁expenses	-2655
▁천	-2656
for	-2657
▁Ind	-2658
ocal	-2659
▁season	-2660
하려	-2661
oot	-2662
aim	-2663
주의	-2664
▁개인	-2665
reme	-2666
.,	-2667
하다고	-2668
원에	-2669
▁팬	-2670
스를	-2671
▁They	-2672
▁Indust	-2673
▁2017	-2674
▁subject	-2675
▁appl	-2676
▁human	-2677
▁purpose	-2678
▁review	-2679
▁효과	-2680
▁사람이	-2681
▁같이	-2682
eremony	-2683
▁beg	-2684
부분	-2685
▁mar	-2686
ator	-2687
▁employees	-2688
▁먼	-2689
▁self	-2690
▁cooperation	-2691
▁pain	-2692
ortun	-2693
▁fail	-2694
▁그리고	-2695
시는	-2696
물을	-2697
mitted	-2698
inary	-2699
▁수준	-2700
ption	-2701
▁seems	-2702
▁talk	-2703
▁그런	-2704
밖에	-2705
환경	-2706
▁일반	-2707
▁더욱	-2708
▁av	-2709
▁court	-2710
▁spe	-2711
▁share	-2712
▁determ	-2713
동차	-2714
▁어린	-2715
▁consult	-2716
aek	-2717
▁program	-2718
erence	-2719
체가	-2720
▁hospital	-2721
▁joint	-2722
▁send	-2723
▁블	-2724
▁가능성이	-2725
ipp	-2726
이터	-2727
ead	-2728
▁paren	-2729
▁conducted	-2730
▁여행	-2731
▁explained	-2732
▁farm	-2733
▁please	-2734
▁bre	-2735
▁Cult	-2736
▁living	-2737
주는	-2738
▁participate	-2739
리에	-2740
aken	-2741
▁Young	-2742
▁Jin	-2743
▁detail	-2744
min	-2745
시에	-2746
▁성공	-2747
▁집중	-2748
▁Ju	-2749
▁Association	-2750
▁떨어	-2751
▁reve	-2752
▁led	-2753
라도	-2754
▁cannot	-2755
▁create	-2756
개월	-2757
▁소속	-2758
▁exist	-2759
▁selected	-2760
▁정말	-2761
▁Yang	-2762
▁Rep	-2763
▁아닌	-2764
▁남북	-2765
eas	-2766
▁District	-2767
.3	-2768
▁sex	-2769
▁받고	-2770
▁love	-2771
iver	-2772
▁플	-2773
▁돌아	-2774
▁차량	-2775
▁recently	-2776
▁production	-2777
이었다	-2778
됩니다	-2779
▁laun	-2780
▁몇	-2781
▁지정	-2782
▁sect	-2783
▁핵	-2784
▁prices	-2785
▁국회	-2786
하도록	-2787
▁got	-2788
▁정부가	-2789
▁subsid	-2790
▁po	-2791
▁쉽	-2792
정보	-2793
▁ceremony	-2794
iting	-2795
▁training	-2796
▁호의	-2797
▁답	-2798
az	-2799
▁district	-2800
▁organizations	-2801
aw	-2802
▁있지만	-2803
▁악	-2804
▁grad	-2805
▁전문가	-2806
▁candid	-2807
진다	-2808
▁both	-2809
▁상품	-2810
▁morning	-2811
▁강화	-2812
head	-2813
▁Yong	-2814
▁무엇	-2815
▁2015	-2816
▁신고	-2817
hod	-2818
일까지	-2819
케이	-2820
▁United	-2821
ises	-2822
▁만나	-2823
▁Cheong	-2824
▁해결	-2825
ging	-2826
▁application	-2827
be	-2828
▁bur	-2829
▁일자	-2830
▁199	-2831
▁recomm	-2832
▁exhib	-2833
▁대상으로	-2834
제가	-2835
▁맡	-2836
▁문제가	-2837
▁왜	-2838
▁얻	-2839
점을	-2840
▁Democratic	-2841
스가	-2842
irc	-2843
▁Service	-2844
▁Since	-2845
orrow	-2846
▁존	-2847
▁broad	-2848
▁previous	-2849
▁육	-2850
sel	-2851
orld	-2852
의회	-2853
▁도지	-2854
▁character	-2855
▁되는	-2856
▁occur	-2857
iqu	-2858
avor	-2859
▁정치	-2860
ream	-2861
지에	-2862
▁away	-2863
▁것입니다	-2864
Kore	-2865
▁English	-2866
▁엄	-2867
▁civil	-2868
▁agency	-2869
▁얼마	-2870
▁summit	-2871
▁floor	-2872
▁along	-2873
▁조성	-2874
▁el	-2875
수를	-2876
orn	-2877
▁payment	-2878
▁Sa	-2879
사와	-2880
▁경험	-2881
▁역할	-2882
동을	-2883
▁started	-2884
자인	-2885
▁tal	-2886
이가	-2887
▁Form	-2888
식이	-2889
일부터	-2890
억원	-2891
aker	-2892
▁청와	-2893
▁travel	-2894
izing	-2895
▁긴	-2896
대를	-2897
▁매우	-2898
주세요	-2899
▁말한다	-2900
▁arr	-2901
이트	-2902
자로	-2903
ured	-2904
▁became	-2905
▁remain	-2906
▁competition	-2907
조에	-2908
화가	-2909
▁dram	-2910
▁line	-2911
씨는	-2912
▁reveal	-2913
움을	-2914
▁understand	-2915
ha	-2916
▁taking	-2917
업을	-2918
▁visited	-2919
oss	-2920
마다	-2921
▁mean	-2922
▁0	-2923
ways	-2924
▁continue	-2925
주당	-2926
▁스타	-2927
▁ben	-2928
rest	-2929
▁trade	-2930
ergy	-2931
▁method	-2932
ivid	-2933
▁community	-2934
▁부담	-2935
▁representative	-2936
▁펼	-2937
조제	-2938
▁keep	-2939
cy	-2940
▁date	-2941
icultural	-2942
▁field	-2943
▁이에	-2944
▁claim	-2945
▁distrib	-2946
▁머	-2947
▁No	-2948
▁So	-2949
▁better	-2950
▁likely	-2951
▁때에는	-2952
▁회의	-2953
sang	-2954
▁administrative	-2955
임을	-2956
▁tar	-2957
▁accident	-2958
▁성장	-2959
▁prescrib	-2960
▁late	-2961
▁welfare	-2962
self	-2963
enior	-2964
▁turn	-2965
▁주문	-2966
▁critic	-2967
▁administration	-2968
적이	-2969
aur	-2970
▁separ	-2971
▁우리가	-2972
ene	-2973
▁맛	-2974
.4	-2975
▁cour	-2976
itional	-2977
50	-2978
opp	-2979
▁opening	-2980
▁의혹	-2981
▁Gwangju	-2982
▁구매	-2983
치는	-2984
▁night	-2985
▁international	-2986
▁Where	-2987
▁돈	-2988
▁이것	-2989
▁작품	-2990
ored	-2991
▁대부분	-2992
▁당신의	-2993
▁앞으로	-2994
▁(2	-2995
acher	-2996
▁sold	-2997
▁희	-2998
rug	-2999
▁net	-3000
▁유지	-3001
illage	-3002
▁soon	-3003
▁Mayor	-3004
▁asked	-3005
▁another	-3006
▁Commission	-3007
네요	-3008
▁확보	-3009
▁rights	-3010
▁World	-3011
▁돼	-3012
▁놓	-3013
개발	-3014
▁Kang	-3015
▁tell	-3016
▁Nam	-3017
▁풍	-3018
▁비용	-3019
▁Cor	-3020
▁pract	-3021
구청	-3022
▁income	-3023
▁song	-3024
.6	-3025
▁overs	-3026
▁School	-3027
▁보도	-3028
ross	-3029
▁드러	-3030
기간	-3031
▁sell	-3032
▁men	-3033
경제	-3034
시장	-3035
▁그래	-3036
▁leader	-3037
ball	-3038
▁제기	-3039
사에	-3040
▁Air	-3041
사회	-3042
▁현지	-3043
복지	-3044
▁뉴	-3045
▁등으로	-3046
▁somet	-3047
▁final	-3048
▁계약	-3049
▁제작	-3050
ran	-3051
시가	-3052
ients	-3053
▁또한	-3054
by	-3055
▁non	-3056
ogn	-3057
▁communic	-3058
▁내년	-3059
▁things	-3060
▁video	-3061
▁coun	-3062
.8	-3063
요일	-3064
▁appear	-3065
▁이름	-3066
▁works	-3067
▁자신의	-3068
▁located	-3069
▁담당	-3070
▁기관	-3071
▁시간이	-3072
▁third	-3073
었던	-3074
▁organization	-3075
▁history	-3076
▁trial	-3077
ecutive	-3078
로벌	-3079
▁터	-3080
▁먼저	-3081
리아	-3082
▁현대	-3083
soo	-3084
▁problems	-3085
ves	-3086
itive	-3087
선을	-3088
▁크게	-3089
▁known	-3090
비를	-3091
side	-3092
.7	-3093
▁고용	-3094
nov	-3095
10	-3096
▁damage	-3097
▁negot	-3098
만원	-3099
▁showed	-3100
▁six	-3101
▁beh	-3102
▁70	-3103
▁침	-3104
▁의원	-3105
▁Group	-3106
▁됐다	-3107
▁regul	-3108
▁security	-3109
▁confirmed	-3110
▁중소	-3111
▁den	-3112
▁TV	-3113
▁서울특별시	-3114
▁March	-3115
▁attract	-3116
▁circ	-3117
인데	-3118
▁클	-3119
▁수출	-3120
▁사무	-3121
▁Liber	-3122
atural	-3123
▁stage	-3124
했지만	-3125
▁survey	-3126
전에	-3127
라인	-3128
▁persons	-3129
전을	-3130
idence	-3131
rovers	-3132
▁International	-3133
▁논란	-3134
▁풀	-3135
혁신	-3136
ends	-3137
▁저희	-3138
▁키	-3139
iding	-3140
▁Song	-3141
▁parents	-3142
aces	-3143
▁둘	-3144
▁징	-3145
▁orig	-3146
▁With	-3147
▁혐의	-3148
▁몸	-3149
iday	-3150
▁contrib	-3151
되면	-3152
▁eng	-3153
imum	-3154
▁Pl	-3155
ability	-3156
▁처리	-3157
▁캐	-3158
정책	-3159
▁wa	-3160
▁caused	-3161
▁space	-3162
▁탄	-3163
▁began	-3164
▁&	-3165
감을	-3166
▁Jeju	-3167
▁provided	-3168
▁clear	-3169
▁attended	-3170
▁kind	-3171
▁황	-3172
소를	-3173
▁treatment	-3174
young	-3175
▁household	-3176
르는	-3177
▁conn	-3178
▁promote	-3179
▁거래	-3180
rast	-3181
▁didn	-3182
▁pict	-3183
했어요	-3184
▁resol	-3185
▁fine	-3186
▁우선	-3187
▁교수	-3188
지로	-3189
▁보호	-3190
urch	-3191
관은	-3192
▁added	-3193
▁spread	-3194
▁card	-3195
▁complex	-3196
▁Eu	-3197
▁선택	-3198
▁suff	-3199
▁deb	-3200
▁schools	-3201
ury	-3202
▁사항을	-3203
▁Police	-3204
▁있나요	-3205
▁혼	-3206
▁draw	-3207
▁음악	-3208
되었다	-3209
verage	-3210
▁deliber	-3211
▁부족	-3212
▁장애	-3213
▁가능한	-3214
▁institutions	-3215
했다는	-3216
▁employment	-3217
시키	-3218
이며	-3219
▁높아	-3220
▁famil	-3221
계를	-3222
▁조금	-3223
▁전시	-3224
하다는	-3225
cher	-3226
▁러	-3227
▁CEO	-3228
▁전했다	-3229
▁far	-3230
▁Just	-3231
▁Fin	-3232
illeg	-3233
▁opportun	-3234
meric	-3235
▁middle	-3236
▁관심이	-3237
▁position	-3238
▁cert	-3239
세를	-3240
▁decision	-3241
.9	-3242
▁품	-3243
재인	-3244
mun	-3245
▁jo	-3246
▁contain	-3247
업체	-3248
▁업체	-3249
Ch	-3250
▁Pe	-3251
▁light	-3252
▁Be	-3253
▁sem	-3254
oice	-3255
hern	-3256
▁않을	-3257
▁여기	-3258
▁players	-3259
▁일이	-3260
atory	-3261
time	-3262
▁inspection	-3263
epend	-3264
yong	-3265
▁와	-3266
▁policies	-3267
▁그의	-3268
▁camp	-3269
▁혹	-3270
▁bea	-3271
▁압	-3272
▁recogn	-3273
▁responsib	-3274
▁region	-3275
▁wr	-3276
▁음식	-3277
year	-3278
▁글로벌	-3279
%)	-3280
els	-3281
▁도입	-3282
▁영어	-3283
▁transf	-3284
▁fans	-3285
▁restaur	-3286
▁society	-3287
▁illeg	-3288
▁Reg	-3289
ories	-3290
▁윤	-3291
▁Even	-3292
함을	-3293
▁quality	-3294
mp	-3295
▁스마트	-3296
▁appe	-3297
▁benef	-3298
▁재판	-3299
▁발견	-3300
It	-3301
▁활성	-3302
rip	-3303
▁close	-3304
▁자리	-3305
다면	-3306
▁having	-3307
▁controvers	-3308
▁이루	-3309
치가	-3310
▁보면	-3311
▁watch	-3312
▁movie	-3313
▁participated	-3314
▁minutes	-3315
view	-3316
▁상승	-3317
▁overseas	-3318
buk	-3319
▁밀	-3320
▁이제	-3321
▁individ	-3322
음을	-3323
▁물론	-3324
정부	-3325
▁housing	-3326
▁놀	-3327
드는	-3328
트를	-3329
thing	-3330
▁teacher	-3331
▁broadcast	-3332
▁우수	-3333
▁공간	-3334
ats	-3335
▁ach	-3336
▁대비	-3337
pril	-3338
▁검토	-3339
▁focus	-3340
라마	-3341
▁bill	-3342
▁changed	-3343
▁ruling	-3344
▁actively	-3345
▁experts	-3346
▁Administr	-3347
▁base	-3348
▁supply	-3349
▁directly	-3350
▁있는데	-3351
▁탈	-3352
▁Ge	-3353
▁pointed	-3354
▁House	-3355
▁민간	-3356
arters	-3357
fact	-3358
ys	-3359
▁소개	-3360
▁control	-3361
▁숨	-3362
▁과거	-3363
▁little	-3364
▁단체	-3365
움이	-3366
▁hit	-3367
▁mob	-3368
▁그동안	-3369
ternal	-3370
▁victim	-3371
let	-3372
▁opposition	-3373
▁role	-3374
▁others	-3375
▁increasing	-3376
ban	-3377
▁Sung	-3378
▁political	-3379
▁thought	-3380
▁청와대	-3381
▁chief	-3382
istics	-3383
▁value	-3384
▁삶	-3385
회는	-3386
한다는	-3387
%,	-3388
▁coll	-3389
▁미래	-3390
겠다는	-3391
자에게	-3392
illed	-3393
▁Asian	-3394
▁교통	-3395
eng	-3396
▁arrest	-3397
보고	-3398
▁transport	-3399
▁April	-3400
▁States	-3401
▁납	-3402
구가	-3403
▁key	-3404
▁approv	-3405
▁cause	-3406
▁공급	-3407
예요	-3408
▁역시	-3409
인지	-3410
▁2019	-3411
▁하며	-3412
과의	-3413
▁뜻	-3414
▁하루	-3415
하기로	-3416
aff	-3417
▁Chang	-3418
▁miss	-3419
▁작성	-3420
▁tom	-3421
▁cle	-3422
ternet	-3423
▁중인	-3424
▁주변	-3425
▁(1)	-3426
▁funds	-3427
▁regular	-3428
▁exchange	-3429
▁facility	-3430
가를	-3431
▁해요	-3432
▁ris	-3433
▁insurance	-3434
▁Sang	-3435
Korean	-3436
irl	-3437
▁er	-3438
aper	-3439
▁natural	-3440
of	-3441
가가	-3442
▁dev	-3443
▁범위	-3444
▁사람들이	-3445
angu	-3446
단이	-3447
▁경기도가	-3448
▁직원	-3449
▁friends	-3450
▁레	-3451
go	-3452
▁conditions	-3453
ring	-3454
▁하지만	-3455
▁completed	-3456
▁각종	-3457
cl	-3458
▁대하여	-3459
하였	-3460
▁Seo	-3461
▁구조	-3462
reet	-3463
▁2014	-3464
주택	-3465
▁prepare	-3466
▁age	-3467
▁nation	-3468
▁jobs	-3469
▁concern	-3470
▁제주	-3471
▁Russ	-3472
▁audit	-3473
자와	-3474
▁applied	-3475
▁Jang	-3476
ison	-3477
▁later	-3478
▁인사	-3479
▁individual	-3480
▁additional	-3481
▁invol	-3482
하지만	-3483
ountain	-3484
스로	-3485
▁stock	-3486
▁conven	-3487
▁주목	-3488
▁raised	-3489
▁really	-3490
▁existing	-3491
▁아파	-3492
한다고	-3493
▁그가	-3494
▁논의	-3495
원에서	-3496
▁Seung	-3497
▁June	-3498
▁Americ	-3499
▁customers	-3500
▁해야	-3501
▁always	-3502
▁given	-3503
▁match	-3504
▁청년	-3505
는지	-3506
▁합의	-3507
점이	-3508
▁앞서	-3509
▁Elect	-3510
ipment	-3511
▁반영	-3512
▁수행	-3513
atives	-3514
조사	-3515
▁vot	-3516
▁leaders	-3517
▁dise	-3518
▁regist	-3519
▁Liberty	-3520
하였다	-3521
▁어렵	-3522
▁face	-3523
되면서	-3524
▁기본	-3525
CT	-3526
▁revealed	-3527
▁industrial	-3528
▁한다는	-3529
▁Station	-3530
▁Provincial	-3531
로부터	-3532
▁businesses	-3533
▁Public	-3534
▁commission	-3535
▁어린이	-3536
▁전통	-3537
▁express	-3538
medi	-3539
▁Bl	-3540
adem	-3541
▁July	-3542
▁block	-3543
▁mom	-3544
▁events	-3545
는다	-3546
▁traditional	-3547
▁trillion	-3548
▁번째	-3549
rel	-3550
▁나라	-3551
정은	-3552
전히	-3553
▁제외	-3554
▁언제	-3555
▁prepar	-3556
▁sw	-3557
irth	-3558
▁infl	-3559
▁often	-3560
▁promotion	-3561
▁materials	-3562
ession	-3563
▁가지	-3564
권을	-3565
▁pus	-3566
▁가지고	-3567
▁senior	-3568
▁각각	-3569
▁인도	-3570
ufact	-3571
▁알고	-3572
▁Don	-3573
▁문재인	-3574
▁smart	-3575
그룹	-3576
BS	-3577
▁Sept	-3578
▁tre	-3579
▁death	-3580
▁But	-3581
▁국무	-3582
▁predict	-3583
인은	-3584
▁ban	-3585
▁Jeong	-3586
▁flow	-3587
▁전에	-3588
▁Seong	-3589
▁기능	-3590
▁entrust	-3591
▁ground	-3592
▁것도	-3593
▁ide	-3594
대에	-3595
(1	-3596
rastructure	-3597
▁Aff	-3598
tion	-3599
▁Ji	-3600
▁자연	-3601
road	-3602
ources	-3603
ober	-3604
▁taken	-3605
▁실제	-3606
ators	-3607
▁300	-3608
▁끌	-3609
woo	-3610
▁mult	-3611
▁한국의	-3612
▁과정에서	-3613
▁회사	-3614
▁least	-3615
▁es	-3616
▁seen	-3617
년간	-3618
계가	-3619
▁Tae	-3620
▁지난달	-3621
ened	-3622
▁response	-3623
ault	-3624
▁빨	-3625
▁하지	-3626
▁경찰은	-3627
▁screen	-3628
▁sector	-3629
▁500	-3630
co	-3631
▁rather	-3632
▁attend	-3633
▁경영	-3634
▁나온다	-3635
ploy	-3636
▁emergency	-3637
▁Econom	-3638
▁story	-3639
▁sug	-3640
▁higher	-3641
▁착	-3642
▁연락	-3643
▁건설	-3644
▁lack	-3645
▁변경	-3646
▁어디	-3647
▁협력	-3648
▁becom	-3649
학생	-3650
▁울	-3651
▁위치	-3652
▁Fr	-3653
▁차지	-3654
ayed	-3655
▁Supreme	-3656
나라	-3657
▁award	-3658
▁방식	-3659
▁선거	-3660
▁암	-3661
▁host	-3662
▁촉	-3663
▁만에	-3664
▁medium	-3665
▁accept	-3666
▁largest	-3667
▁signific	-3668
▁이는	-3669
▁volun	-3670
▁exhibition	-3671
aged	-3672
▁Comp	-3673
▁Yoon	-3674
안전	-3675
ences	-3676
▁받을	-3677
▁자동차	-3678
▁recent	-3679
▁advance	-3680
자들의	-3681
▁student	-3682
▁인터넷	-3683
▁Affairs	-3684
▁없어	-3685
▁mess	-3686
▁전달	-3687
erman	-3688
▁의료	-3689
▁basic	-3690
▁홈	-3691
▁compared	-3692
gress	-3693
▁planning	-3694
▁겪	-3695
▁나타났다	-3696
▁z	-3697
스타	-3698
▁언론	-3699
▁easy	-3700
▁improv	-3701
rope	-3702
▁뛰	-3703
▁possibility	-3704
hyun	-3705
▁도지사는	-3706
ues	-3707
일을	-3708
▁올라	-3709
▁begin	-3710
redit	-3711
▁issues	-3712
대상	-3713
▁기획	-3714
▁러시아	-3715
▁80	-3716
▁Oct	-3717
▁이러	-3718
▁eat	-3719
물이	-3720
ening	-3721
▁이동	-3722
▁영향을	-3723
▁비판	-3724
▁위험	-3725
운영	-3726
aily	-3727
게요	-3728
▁evaluation	-3729
term	-3730
▁operating	-3731
emed	-3732
orry	-3733
▁manufact	-3734
▁Fore	-3735
▁maintain	-3736
▁Le	-3737
▁Financial	-3738
▁wage	-3739
yo	-3740
▁negoti	-3741
quarters	-3742
▁목표	-3743
▁않았다	-3744
원으로	-3745
도시	-3746
▁never	-3747
▁드라마	-3748
▁있게	-3749
▁effic	-3750
▁vac	-3751
vest	-3752
oring	-3753
▁complete	-3754
서의	-3755
▁Jan	-3756
▁무역	-3757
문을	-3758
▁아무	-3759
▁상당	-3760
▁게임	-3761
▁구축	-3762
▁looking	-3763
▁fees	-3764
장으로	-3765
lege	-3766
시면	-3767
▁행복	-3768
▁Bank	-3769
▁contact	-3770
▁홍보	-3771
립니다	-3772
▁trip	-3773
sw	-3774
▁사례	-3775
-1	-3776
▁시스템	-3777
▁Jeon	-3778
▁costs	-3779
▁introduced	-3780
▁근로	-3781
▁fem	-3782
▁대법	-3783
undai	-3784
▁Trans	-3785
▁Europe	-3786
cell	-3787
▁mother	-3788
▁석	-3789
▁최종	-3790
들도	-3791
friend	-3792
▁Then	-3793
▁감소	-3794
bs	-3795
▁Sc	-3796
▁Sun	-3797
▁September	-3798
▁Z	-3799
성과	-3800
▁bank	-3801
▁서로	-3802
▁유명	-3803
▁이내	-3804
▁festival	-3805
▁계획이다	-3806
▁사회적	-3807
▁average	-3808
▁청소년	-3809
▁인해	-3810
▁tren	-3811
▁decre	-3812
▁ago	-3813
▁팔	-3814
▁energy	-3815
▁expl	-3816
▁fre	-3817
▁체험	-3818
▁목적으로	-3819
▁지나	-3820
▁중심으로	-3821
▁groups	-3822
▁respect	-3823
▁few	-3824
urther	-3825
▁정확	-3826
냈다	-3827
▁council	-3828
▁phone	-3829
BC	-3830
▁심의	-3831
cial	-3832
▁기다	-3833
있는	-3834
lementary	-3835
안이	-3836
pect	-3837
▁Or	-3838
anguage	-3839
▁되고	-3840
▁중앙	-3841
po	-3842
▁repl	-3843
▁주택	-3844
도의	-3845
sh	-3846
▁택	-3847
디어	-3848
▁Festival	-3849
▁institution	-3850
▁brand	-3851
▁성과	-3852
▁Hyundai	-3853
)’	-3854
▁dust	-3855
▁decl	-3856
이란	-3857
▁위촉	-3858
▁Hyun	-3859
bo	-3860
▁불가	-3861
▁불법	-3862
▁이렇게	-3863
▁Kyung	-3864
▁밤	-3865
너지	-3866
▁cut	-3867
▁정상회담	-3868
▁points	-3869
.0	-3870
▁Gyeongsang	-3871
km	-3872
▁해당하는	-3873
텐츠	-3874
▁something	-3875
▁families	-3876
▁enough	-3877
▁deal	-3878
ronics	-3879
▁makes	-3880
ilar	-3881
▁German	-3882
▁공유	-3883
생활	-3884
▁Some	-3885
▁ident	-3886
▁Yes	-3887
▁2013	-3888
▁leave	-3889
▁도로	-3890
▁숙	-3891
▁created	-3892
▁opinions	-3893
촬영	-3894
▁heart	-3895
eb	-3896
▁봉	-3897
▁두고	-3898
▁나서	-3899
▁accord	-3900
▁lower	-3901
지방	-3902
icy	-3903
▁wind	-3904
arter	-3905
▁quick	-3906
▁goal	-3907
▁course	-3908
▁강조했다	-3909
▁대응	-3910
지도	-3911
▁cities	-3912
▁significant	-3913
osing	-3914
▁Management	-3915
▁현장	-3916
▁controversy	-3917
량이	-3918
▁Dec	-3919
▁ce	-3920
▁이러한	-3921
▁하여	-3922
건을	-3923
▁officer	-3924
▁근무	-3925
▁위탁	-3926
▁meaning	-3927
▁되어	-3928
▁innov	-3929
oman	-3930
wa	-3931
▁뿐	-3932
▁comb	-3933
▁port	-3934
uge	-3935
forcement	-3936
velopment	-3937
▁ste	-3938
▁clean	-3939
▁break	-3940
별로	-3941
▁시험	-3942
▁strate	-3943
▁붙	-3944
하던	-3945
▁bat	-3946
".	-3947
▁Department	-3948
▁active	-3949
▁answ	-3950
▁Provided	-3951
▁outside	-3952
▁공정	-3953
지막	-3954
위가	-3955
▁cur	-3956
to	-3957
pecial	-3958
▁accordance	-3959
▁While	-3960
르게	-3961
ague	-3962
▁illegal	-3963
augh	-3964
▁words	-3965
▁lawm	-3966
▁developed	-3967
▁퇴	-3968
▁꾸	-3969
▁prepared	-3970
▁currently	-3971
uary	-3972
어난	-3973
action	-3974
NS	-3975
▁complain	-3976
atis	-3977
▁유럽	-3978
▁Gangwon	-3979
▁immedi	-3980
▁기념	-3981
▁growing	-3982
▁상대	-3983
▁agr	-3984
▁마을	-3985
▁전해	-3986
▁Aug	-3987
▁Med	-3988
▁Agency	-3989
▁보이	-3990
▁인상	-3991
▁수요	-3992
▁중소기업	-3993
▁establishment	-3994
lier	-3995
업이	-3996
▁size	-3997
encies	-3998
vert	-3999
▁효율	-4000
▁heat	-4001
▁yet	-4002
▁enterpr	-4003
▁SK	-4004
▁interview	-4005
▁중요한	-4006
▁documents	-4007
스는	-4008
▁소방	-4009
▁자료	-4010
noon	-4011
▁conference	-4012
▁도내	-4013
▁강원	-4014
▁도착	-4015
▁분위	-4016
▁역할을	-4017
▁부모	-4018
▁것이라는	-4019
▁afternoon	-4020
▁items	-4021
rup	-4022
▁needed	-4023
인들이	-4024
▁question	-4025
규모	-4026
ians	-4027
금이	-4028
머니	-4029
sis	-4030
▁”	-4031
▁꿈	-4032
▁drink	-4033
▁있기	-4034
▁최초	-4035
▁이곳	-4036
소가	-4037
훈련	-4038
▁trust	-4039
▁Q	-4040
▁leading	-4041
akers	-4042
▁status	-4043
▁Em	-4044
▁제시	-4045
anced	-4046
국의	-4047
avy	-4048
▁많아	-4049
▁본격	-4050
▁operate	-4051
구를	-4052
▁opened	-4053
회에	-4054
just	-4055
▁일자리	-4056
▁san	-4057
▁수립	-4058
통신	-4059
▁컨	-4060
▁마지막	-4061
▁견	-4062
ester	-4063
▁찍	-4064
▁받았	-4065
▁October	-4066
▁거쳐	-4067
▁광주	-4068
▁round	-4069
▁programs	-4070
rist	-4071
ishing	-4072
약을	-4073
hee	-4074
ches	-4075
▁아파트	-4076
▁youth	-4077
▁sports	-4078
▁관심을	-4079
▁그룹	-4080
부에	-4081
fort	-4082
▁opinion	-4083
▁현실	-4084
ietnam	-4085
▁analyz	-4086
불어	-4087
uted	-4088
▁deg	-4089
▁suggest	-4090
▁online	-4091
▁expressed	-4092
▁vice	-4093
▁efforts	-4094
▁겨	-4095
jong	-4096
었고	-4097
습니까	-4098
▁vehicle	-4099
▁cal	-4100
▁사업을	-4101
gun	-4102
▁조선	-4103
ills	-4104
arant	-4105
트남	-4106
otion	-4107
▁reform	-4108
구청장	-4109
irector	-4110
▁198	-4111
교통	-4112
ky	-4113
▁target	-4114
icial	-4115
▁책임	-4116
ware	-4117
▁equipment	-4118
▁능	-4119
▁alleg	-4120
▁Land	-4121
▁핵심	-4122
▁알려졌다	-4123
then	-4124
▁개정	-4125
▁설립	-4126
▁Administration	-4127
▁LG	-4128
동산	-4129
▁Corpor	-4130
sized	-4131
▁rise	-4132
ays	-4133
▁Trade	-4134
▁respond	-4135
지면서	-4136
de	-4137
like	-4138
ners	-4139
▁regulations	-4140
ah	-4141
▁To	-4142
▁continued	-4143
▁manager	-4144
▁등록	-4145
▁tomorrow	-4146
▁추천	-4147
▁예술	-4148
▁starting	-4149
▁getting	-4150
▁parties	-4151
▁submit	-4152
▁station	-4153
▁브랜드	-4154
▁호텔	-4155
▁pet	-4156
▁content	-4157
▁가까	-4158
enced	-4159
▁Yeong	-4160
▁sever	-4161
▁죽	-4162
pport	-4163
▁similar	-4164
당이	-4165
▁shows	-4166
▁그렇	-4167
▁passed	-4168
▁넘어	-4169
▁받는	-4170
▁최저	-4171
▁walk	-4172
▁왔	-4173
▁깊	-4174
▁Internet	-4175
등학교	-4176
onom	-4177
▁내려	-4178
▁수입	-4179
▁혁신	-4180
▁나왔다	-4181
eneral	-4182
무를	-4183
▁Vietnam	-4184
ground	-4185
▁written	-4186
이어	-4187
리스	-4188
서비스	-4189
▁녹	-4190
▁secretary	-4191
▁운동	-4192
▁2,	-4193
▁Mr	-4194
▁personnel	-4195
incip	-4196
inder	-4197
ruit	-4198
감이	-4199
ample	-4200
▁needs	-4201
▁얘	-4202
▁있어서	-4203
▁enc	-4204
▁별지	-4205
▁2012	-4206
▁격	-4207
dule	-4208
▁capital	-4209
▁어려운	-4210
▁조직	-4211
▁lect	-4212
▁ship	-4213
ducing	-4214
거래	-4215
드를	-4216
▁governments	-4217
▁holiday	-4218
▁designated	-4219
▁lives	-4220
▁점을	-4221
▁relationship	-4222
(2	-4223
▁매년	-4224
▁tast	-4225
▁belie	-4226
▁strengthen	-4227
mercial	-4228
▁연결	-4229
▁cooper	-4230
oura	-4231
ological	-4232
이를	-4233
ervation	-4234
섰다	-4235
자치	-4236
▁Gangnam	-4237
▁갑	-4238
▁제대로	-4239
▁personal	-4240
rior	-4241
▁독일	-4242
▁지도	-4243
▁cris	-4244
▁happy	-4245
si	-4246
urs	-4247
▁female	-4248
ude	-4249
▁모습을	-4250
opping	-4251
▁늦	-4252
now	-4253
▁excell	-4254
▁conflic	-4255
▁한류	-4256
▁contents	-4257
▁보유	-4258
▁cance	-4259
▁collect	-4260
려고	-4261
없이	-4262
ibr	-4263
▁선보	-4264
▁202	-4265
▁staff	-4266
▁Electronics	-4267
▁independ	-4268
▁싶은	-4269
▁네가	-4270
▁강남	-4271
▁제한	-4272
▁university	-4273
▁club	-4274
▁색	-4275
▁sorry	-4276
▁워	-4277
▁considered	-4278
조의	-4279
▁gain	-4280
empt	-4281
▁관련해	-4282
▁minimum	-4283
▁temper	-4284
율이	-4285
▁Health	-4286
▁첨	-4287
▁authorities	-4288
ecause	-4289
▁August	-4290
부의	-4291
두고	-4292
▁legal	-4293
▁photo	-4294
▁궁	-4295
▁She	-4296
▁told	-4297
elt	-4298
▁일을	-4299
ipl	-4300
증을	-4301
▁내일	-4302
▁노래	-4303
▁같다	-4304
▁purchase	-4305
▁더불어	-4306
▁model	-4307
▁denuclear	-4308
▁sche	-4309
ape	-4310
▁인근	-4311
국이	-4312
▁acqu	-4313
▁nuclear	-4314
bu	-4315
rate	-4316
▁Daegu	-4317
관을	-4318
▁improvement	-4319
▁ahead	-4320
▁charges	-4321
ula	-4322
▁비핵	-4323
▁eld	-4324
▁lost	-4325
▁electric	-4326
하자	-4327
▁제안	-4328
▁만든	-4329
▁gave	-4330
▁transportation	-4331
▁정도로	-4332
▁Justice	-4333
▁changes	-4334
▁진출	-4335
▁아래	-4336
▁베트남	-4337
osal	-4338
▁further	-4339
▁January	-4340
▁Dis	-4341
▁included	-4342
ops	-4343
▁대형	-4344
▁종합	-4345
▁Yoo	-4346
활동	-4347
▁Hall	-4348
lim	-4349
▁reduce	-4350
▁believe	-4351
▁daily	-4352
▁single	-4353
▁평균	-4354
▁대신	-4355
▁rain	-4356
지지	-4357
▁resident	-4358
ift	-4359
▁Transport	-4360
행을	-4361
▁estate	-4362
▁village	-4363
ential	-4364
▁부탁	-4365
▁Prime	-4366
▁sexual	-4367
▁mobile	-4368
▁Hwang	-4369
다가	-4370
▁ut	-4371
ili	-4372
겠다고	-4373
▁First	-4374
분이	-4375
세먼	-4376
▁crisis	-4377
▁several	-4378
▁bad	-4379
▁Research	-4380
▁기반	-4381
▁birth	-4382
▁built	-4383
랍니다	-4384
cember	-4385
▁influ	-4386
▁traffic	-4387
▁말씀	-4388
품을	-4389
▁State	-4390
▁둔	-4391
위에	-4392
▁매출	-4393
▁믿	-4394
▁language	-4395
▁mer	-4396
수의	-4397
▁heard	-4398
▁standard	-4399
식에	-4400
▁appointed	-4401
▁건물	-4402
▁됩니다	-4403
▁모델	-4404
▁얼마나	-4405
ender	-4406
▁vehicles	-4407
운동	-4408
회에서	-4409
▁즉	-4410
ald	-4411
In	-4412
yle	-4413
▁Soc	-4414
▁experi	-4415
hest	-4416
ovember	-4417
▁갖고	-4418
▁위반	-4419
▁rank	-4420
▁은	-4421
irm	-4422
▁안정	-4423
▁unf	-4424
▁자체	-4425
▁은행	-4426
▁표현	-4427
▁왕	-4428
agn	-4429
▁users	-4430
▁가는	-4431
▁One	-4432
하는데	-4433
▁hall	-4434
사로	-4435
▁fell	-4436
▁Corporation	-4437
년부터	-4438
▁Ph	-4439
▁oil	-4440
▁그럼	-4441
▁alone	-4442
▁거예요	-4443
화에	-4444
▁쪽	-4445
▁governor	-4446
▁scene	-4447
leb	-4448
▁doll	-4449
▁December	-4450
▁princip	-4451
▁넣	-4452
▁slow	-4453
대의	-4454
차를	-4455
▁step	-4456
▁Inf	-4457
▁Christ	-4458
▁transfer	-4459
▁수가	-4460
▁regional	-4461
장에게	-4462
▁사망	-4463
세가	-4464
▁fair	-4465
▁기자	-4466
▁보험	-4467
▁하락	-4468
▁carry	-4469
▁목소	-4470
▁아시아	-4471
▁소득	-4472
book	-4473
chedul	-4474
▁schedule	-4475
▁And	-4476
▁wear	-4477
istic	-4478
▁달리	-4479
▁외국인	-4480
▁High	-4481
▁바랍니다	-4482
▁누구	-4483
▁inj	-4484
ports	-4485
▁온라인	-4486
▁professional	-4487
come	-4488
▁문제를	-4489
▁dire	-4490
었어요	-4491
▁Fed	-4492
▁대구	-4493
▁$	-4494
▁terms	-4495
▁이전	-4496
▁공무원	-4497
▁interested	-4498
▁rice	-4499
▁favor	-4500
▁peace	-4501
rew	-4502
▁출신	-4503
▁Vice	-4504
나는	-4505
으니	-4506
▁parking	-4507
▁serious	-4508
ique	-4509
▁November	-4510
▁Feb	-4511
▁anim	-4512
▁exceed	-4513
iful	-4514
▁대책	-4515
▁burden	-4516
▁자유한국	-4517
▁credit	-4518
더라도	-4519
▁pub	-4520
▁예방	-4521
▁공식	-4522
▁있던	-4523
▁Cl	-4524
▁loss	-4525
▁candidate	-4526
ne	-4527
▁moment	-4528
▁inside	-4529
▁상황에서	-4530
▁famous	-4531
▁certain	-4532
ton	-4533
광역	-4534
▁것이라고	-4535
▁places	-4536
▁seven	-4537
▁충분	-4538
▁Won	-4539
▁시간을	-4540
임금	-4541
▁대한민	-4542
▁Sing	-4543
▁operated	-4544
개의	-4545
겠어요	-4546
▁include	-4547
▁힘들	-4548
▁easily	-4549
▁cars	-4550
에선	-4551
▁죄	-4552
▁stay	-4553
▁summer	-4554
gart	-4555
▁규제	-4556
▁division	-4557
사고	-4558
항의	-4559
▁가진	-4560
▁쇼	-4561
스터	-4562
▁됐	-4563
▁Culture	-4564
▁듣	-4565
하고자	-4566
▁action	-4567
▁agencies	-4568
▁대통령은	-4569
▁전략	-4570
phas	-4571
▁Now	-4572
▁출연	-4573
▁pen	-4574
▁regarding	-4575
▁recommend	-4576
▁Labor	-4577
▁questions	-4578
▁점검	-4579
▁대중	-4580
▁played	-4581
fully	-4582
▁Development	-4583
▁document	-4584
▁commercial	-4585
▁caus	-4586
▁유치	-4587
년에	-4588
▁God	-4589
▁이상의	-4590
▁poor	-4591
▁pref	-4592
▁ver	-4593
▁avail	-4594
pecially	-4595
▁receiving	-4596
드리	-4597
▁일정	-4598
indergart	-4599
▁비교	-4600
▁immediately	-4601
▁Cont	-4602
▁woman	-4603
▁우리나라	-4604
▁schedul	-4605
스크	-4606
▁전화	-4607
▁toward	-4608
▁혹시	-4609
pid	-4610
▁confirm	-4611
관계	-4612
롭게	-4613
으로써	-4614
▁di	-4615
uties	-4616
▁progress	-4617
▁깨	-4618
▁color	-4619
거리	-4620
▁cra	-4621
▁자신이	-4622
▁영상	-4623
받은	-4624
▁방향	-4625
▁opportunity	-4626
▁거야	-4627
abilities	-4628
전자	-4629
소득	-4630
▁carried	-4631
적을	-4632
▁games	-4633
▁central	-4634
▁협의	-4635
rehen	-4636
기의	-4637
erc	-4638
▁작은	-4639
▁safe	-4640
달러	-4641
▁비해	-4642
▁케이	-4643
현지	-4644
▁aim	-4645
▁Cent	-4646
▁취업	-4647
▁정신	-4648
▁highest	-4649
▁구체	-4650
▁issued	-4651
▁건축	-4652
▁중구	-4653
▁parts	-4654
▁emphas	-4655
▁takes	-4656
▁가져	-4657
▁촬영	-4658
▁Because	-4659
▁항공	-4660
▁property	-4661
▁reflect	-4662
▁driving	-4663
▁지하	-4664
사항	-4665
abled	-4666
▁protect	-4667
▁communication	-4668
▁살아	-4669
▁의견을	-4670
▁forward	-4671
▁participation	-4672
▁방침	-4673
▁urban	-4674
▁apartment	-4675
▁치료	-4676
▁시청	-4677
▁구속	-4678
경찰	-4679
utiful	-4680
▁Special	-4681
▁부동산	-4682
▁dest	-4683
▁bring	-4684
▁상담	-4685
▁approval	-4686
▁discl	-4687
▁details	-4688
이기	-4689
▁patients	-4690
르고	-4691
▁파악	-4692
ruary	-4693
▁취소	-4694
▁퍼	-4695
▁negotiations	-4696
▁바람	-4697
▁Island	-4698
▁drama	-4699
치고	-4700
공무	-4701
▁흐	-4702
▁수익	-4703
▁희망	-4704
▁available	-4705
▁deliberation	-4706
▁창업	-4707
▁Found	-4708
▁정부의	-4709
▁autom	-4710
▁picture	-4711
▁prescribed	-4712
▁excellent	-4713
yes	-4714
▁gl	-4715
▁restaurant	-4716
▁흔	-4717
▁같아요	-4718
▁univers	-4719
▁수상	-4720
▁standards	-4721
▁done	-4722
량을	-4723
▁Def	-4724
▁사실을	-4725
▁trying	-4726
▁이야기	-4727
▁concerning	-4728
여명이	-4729
reed	-4730
수록	-4731
▁professor	-4732
▁foot	-4733
▁father	-4734
▁performances	-4735
▁plant	-4736
▁sym	-4737
▁받았다	-4738
▁sound	-4739
▁consumers	-4740
▁Among	-4741
▁union	-4742
astic	-4743
▁cold	-4744
▁하면	-4745
▁goods	-4746
라이	-4747
▁original	-4748
40	-4749
▁씨	-4750
▁duties	-4751
▁Welfare	-4752
▁국토	-4753
▁필요가	-4754
▁제조	-4755
▁콘텐츠	-4756
▁확정	-4757
artments	-4758
▁achieve	-4759
▁tick	-4760
rehens	-4761
▁girl	-4762
▁90	-4763
▁페	-4764
related	-4765
▁티	-4766
▁teams	-4767
일에	-4768
단을	-4769
▁deep	-4770
▁Sm	-4771
▁평화	-4772
▁내용을	-4773
▁disaster	-4774
▁submitted	-4775
▁통신	-4776
들에	-4777
leep	-4778
▁wanted	-4779
▁Support	-4780
▁싱	-4781
▁bar	-4782
▁talks	-4783
▁considering	-4784
▁잔	-4785
▁fee	-4786
▁빈	-4787
▁Lot	-4788
insula	-4789
▁공격	-4790
▁Ab	-4791
▁불편	-4792
▁profit	-4793
▁35	-4794
▁concent	-4795
▁이하	-4796
도는	-4797
▁actual	-4798
▁반대	-4799
▁대해서는	-4800
▁sea	-4801
▁February	-4802
▁하는데	-4803
▁access	-4804
▁아름	-4805
▁select	-4806
▁celeb	-4807
하겠다	-4808
▁Security	-4809
지의	-4810
ley	-4811
▁경기도는	-4812
▁X	-4813
▁많다	-4814
▁compens	-4815
▁지원을	-4816
▁젊	-4817
▁알아	-4818
▁corre	-4819
▁Rec	-4820
erly	-4821
▁mut	-4822
▁proced	-4823
▁소송	-4824
over	-4825
▁대해서	-4826
▁주관	-4827
▁board	-4828
stitution	-4829
▁prior	-4830
▁읽	-4831
▁없습니다	-4832
▁가수	-4833
▁선발	-4834
care	-4835
▁못한	-4836
보험	-4837
▁전망이다	-4838
와의	-4839
rim	-4840
▁Ah	-4841
▁coming	-4842
차가	-4843
▁common	-4844
▁except	-4845
▁여자	-4846
했을	-4847
▁통합	-4848
unic	-4849
▁Director	-4850
▁결과를	-4851
▁quickly	-4852
▁움	-4853
▁ball	-4854
usion	-4855
▁holding	-4856
▁필요하다고	-4857
▁꼭	-4858
▁낙	-4859
▁learning	-4860
igence	-4861
▁(3	-4862
jeong	-4863
▁college	-4864
서에	-4865
▁ens	-4866
▁executive	-4867
▁determined	-4868
만큼	-4869
전이	-4870
▁접수	-4871
평가	-4872
isions	-4873
트가	-4874
▁좌	-4875
▁시즌	-4876
▁Let	-4877
▁쉽게	-4878
호서	-4879
▁법률	-4880
▁waste	-4881
▁형태	-4882
mosp	-4883
▁analysis	-4884
▁worth	-4885
▁condition	-4886
▁Foundation	-4887
포츠	-4888
ery	-4889
▁session	-4890
▁전환	-4891
▁conc	-4892
▁export	-4893
▁Si	-4894
▁doing	-4895
▁한다고	-4896
useum	-4897
▁disapp	-4898
▁text	-4899
▁mind	-4900
orthern	-4901
▁presidential	-4902
▁주세요	-4903
▁trend	-4904
▁showing	-4905
▁KT	-4906
▁impact	-4907
jeon	-4908
pite	-4909
▁pack	-4910
▁Local	-4911
노동	-4912
▁광고	-4913
ought	-4914
스러	-4915
▁firm	-4916
▁조정	-4917
ental	-4918
▁launch	-4919
성에	-4920
▁저녁	-4921
어야	-4922
▁대출	-4923
▁Russia	-4924
▁chairperson	-4925
pop	-4926
투자	-4927
ots	-4928
▁atmosp	-4929
▁centers	-4930
▁안에	-4931
▁흥	-4932
▁green	-4933
▁향후	-4934
▁ant	-4935
▁과학	-4936
리그	-4937
관의	-4938
▁걱	-4939
▁화재	-4940
ivery	-4941
▁내부	-4942
▁비롯해	-4943
이오	-4944
▁hon	-4945
▁bran	-4946
▁reduced	-4947
▁사유	-4948
egr	-4949
ev	-4950
▁기억	-4951
어를	-4952
▁도는	-4953
▁가능하다	-4954
vention	-4955
▁beautiful	-4956
ropri	-4957
▁type	-4958
▁페이	-4959
▁risk	-4960
▁dou	-4961
▁SNS	-4962
행정	-4963
isher	-4964
했는데	-4965
▁미세먼	-4966
▁corporate	-4967
가지	-4968
▁거주	-4969
60	-4970
▁여름	-4971
▁잇	-4972
관광	-4973
▁crime	-4974
▁결혼	-4975
▁stores	-4976
ume	-4977
heon	-4978
▁입장	-4979
▁abs	-4980
▁정보를	-4981
▁eyes	-4982
▁모습이	-4983
▁이루어	-4984
▁찬	-4985
▁pun	-4986
▁quarter	-4987
▁소재	-4988
▁맞아	-4989
▁Fund	-4990
▁mention	-4991
한테	-4992
▁suspic	-4993
▁활동을	-4994
oms	-4995
▁Tour	-4996
리지	-4997
▁확산	-4998
▁듯	-4999
▁아침	-5000
일이	-5001
▁복지	-5002
▁households	-5003
▁전기	-5004
상의	-5005
▁concert	-5006
▁Sy	-5007
▁역사	-5008
▁dead	-5009
ulated	-5010
예술	-5011
했으며	-5012
▁빌	-5013
▁hands	-5014
▁<	-5015
기준	-5016
▁규정에	-5017
▁존재	-5018
CO	-5019
▁Prof	-5020
결과	-5021
▁network	-5022
▁doesn	-5023
▁implementation	-5024
▁발생한	-5025
▁프로젝	-5026
iveness	-5027
대한	-5028
▁예약	-5029
▁제품을	-5030
▁stop	-5031
▁metropolitan	-5032
월부터	-5033
▁pressure	-5034
▁disease	-5035
▁실제로	-5036
▁적이	-5037
▁phys	-5038
▁distribution	-5039
icon	-5040
▁structure	-5041
▁All	-5042
▁대통령의	-5043
▁drawing	-5044
▁organized	-5045
▁보도했다	-5046
비가	-5047
▁아동	-5048
구의	-5049
tainment	-5050
스의	-5051
▁industries	-5052
ups	-5053
ights	-5054
▁최소	-5055
▁limit	-5056
▁entire	-5057
롯데	-5058
반기	-5059
▁도움이	-5060
▁스스로	-5061
▁자유한국당	-5062
▁counsel	-5063
되며	-5064
iversary	-5065
▁Wa	-5066
▁것에	-5067
▁saw	-5068
▁fig	-5069
▁앞두고	-5070
▁북미	-5071
▁displ	-5072
▁잘못	-5073
▁markets	-5074
▁언급	-5075
down	-5076
▁norm	-5077
▁Technology	-5078
▁보조	-5079
진이	-5080
▁matter	-5081
▁미국의	-5082
▁나선	-5083
▁rapid	-5084
▁이유로	-5085
▁might	-5086
▁produced	-5087
▁채용	-5088
▁true	-5089
▁followed	-5090
level	-5091
pped	-5092
▁Saf	-5093
▁red	-5094
▁adjust	-5095
님이	-5096
장애	-5097
▁felt	-5098
▁academ	-5099
▁Are	-5100
rap	-5101
▁pot	-5102
▁변호	-5103
▁cho	-5104
igation	-5105
▁Oh	-5106
▁series	-5107
hood	-5108
▁그녀는	-5109
▁혐의로	-5110
▁sanctions	-5111
ught	-5112
리의	-5113
▁bri	-5114
▁speed	-5115
▁church	-5116
▁concerns	-5117
▁발언	-5118
▁완료	-5119
▁움직	-5120
▁estim	-5121
ployment	-5122
▁신규	-5123
▁required	-5124
▁agricultural	-5125
보는	-5126
▁Mot	-5127
▁출시	-5128
건이	-5129
단의	-5130
▁2010	-5131
▁encoura	-5132
▁statement	-5133
▁봐	-5134
실을	-5135
▁coup	-5136
▁Day	-5137
▁sure	-5138
▁movement	-5139
상에	-5140
▁hy	-5141
▁달러	-5142
▁sites	-5143
urrency	-5144
▁integr	-5145
▁기여	-5146
▁Cup	-5147
▁tas	-5148
▁없었다	-5149
광역시	-5150
주민	-5151
▁금액	-5152
▁thing	-5153
▁명이	-5154
▁2011	-5155
▁줄어	-5156
▁sense	-5157
cle	-5158
▁delivery	-5159
▁가입	-5160
반도	-5161
▁항상	-5162
▁loan	-5163
▁exerc	-5164
▁활성화	-5165
▁failed	-5166
▁Me	-5167
▁learn	-5168
earcher	-5169
이크	-5170
▁dism	-5171
▁assault	-5172
민주당	-5173
▁공부	-5174
▁advert	-5175
▁거의	-5176
▁데이터	-5177
▁구청장이	-5178
▁caught	-5179
▁중에서	-5180
수는	-5181
▁Prom	-5182
▁경우가	-5183
스럽	-5184
▁ordered	-5185
▁protection	-5186
▁원내	-5187
▁sett	-5188
ji	-5189
이라며	-5190
▁논란이	-5191
▁웃	-5192
▁King	-5193
▁Na	-5194
▁raise	-5195
▁manage	-5196
▁필요하다	-5197
▁Defense	-5198
▁lif	-5199
▁민주당	-5200
▁fast	-5201
▁wife	-5202
▁Industrial	-5203
서울	-5204
▁어제	-5205
▁여전히	-5206
▁drug	-5207
▁build	-5208
▁victims	-5209
-2	-5210
▁동시에	-5211
▁require	-5212
luded	-5213
▁위해서는	-5214
▁부과	-5215
▁books	-5216
▁owners	-5217
▁헌	-5218
ograph	-5219
▁갔	-5220
진흥	-5221
▁나의	-5222
구하고	-5223
rees	-5224
met	-5225
▁독립	-5226
▁forest	-5227
▁launched	-5228
aughter	-5229
▁minister	-5230
▁message	-5231
분을	-5232
▁괜	-5233
▁scheduled	-5234
▁특징	-5235
▁installed	-5236
▁남자	-5237
▁Business	-5238
▁Secretary	-5239
금융	-5240
▁서류	-5241
▁specific	-5242
▁작업	-5243
▁direction	-5244
▁difficulties	-5245
▁젊은	-5246
▁resources	-5247
▁도와	-5248
aving	-5249
▁서울시	-5250
▁봤	-5251
▁체결	-5252
▁hom	-5253
cheong	-5254
▁Bo	-5255
▁Cultural	-5256
▁atmosphere	-5257
▁educational	-5258
하기도	-5259
▁서비스를	-5260
▁obtain	-5261
▁guarant	-5262
urning	-5263
▁enterprises	-5264
▁population	-5265
▁화장	-5266
▁typ	-5267
▁benefits	-5268
OS	-5269
▁통한	-5270
▁Jeoll	-5271
▁wide	-5272
▁efficient	-5273
▁object	-5274
해주	-5275
▁interp	-5276
▁People	-5277
▁스마트폰	-5278
▁의원이	-5279
▁behind	-5280
▁장애인	-5281
ably	-5282
▁proceed	-5283
iel	-5284
▁AI	-5285
▁incident	-5286
oud	-5287
chol	-5288
정에	-5289
▁고민	-5290
▁규칙	-5291
▁guid	-5292
▁그림	-5293
▁ten	-5294
▁whole	-5295
▁function	-5296
▁certific	-5297
▁seek	-5298
reg	-5299
▁smo	-5300
▁비핵화	-5301
▁Lotte	-5302
▁반응	-5303
자에	-5304
▁업계	-5305
▁Koreans	-5306
▁경남	-5307
▁남아	-5308
▁comprehens	-5309
atisf	-5310
▁보다	-5311
▁오래	-5312
▁Son	-5313
endent	-5314
▁examination	-5315
atively	-5316
▁attack	-5317
If	-5318
▁Profess	-5319
irt	-5320
▁등장	-5321
▁deemed	-5322
▁주차	-5323
▁fourth	-5324
▁변화	-5325
▁뜨	-5326
▁전반	-5327
▁below	-5328
▁reality	-5329
▁Agr	-5330
paragraph	-5331
▁Il	-5332
▁Ins	-5333
▁temperature	-5334
▁Mark	-5335
▁tried	-5336
▁reduction	-5337
▁갈등	-5338
하세요	-5339
▁위원장은	-5340
atform	-5341
▁search	-5342
▁바라	-5343
▁롯데	-5344
▁Asia	-5345
acy	-5346
▁wrong	-5347
inated	-5348
인으로	-5349
▁subparagraph	-5350
ansion	-5351
▁Safety	-5352
발전	-5353
▁옷	-5354
Pop	-5355
▁util	-5356
본부	-5357
▁rat	-5358
기와	-5359
▁그래서	-5360
자들은	-5361
▁bag	-5362
▁딸	-5363
▁약속	-5364
▁prosecut	-5365
▁elderly	-5366
▁Ul	-5367
▁프랑	-5368
▁Eun	-5369
▁participating	-5370
aries	-5371
▁remark	-5372
▁consider	-5373
▁anniversary	-5374
선거	-5375
▁캠	-5376
▁오른	-5377
▁bit	-5378
드립니다	-5379
▁전자	-5380
▁falling	-5381
▁사전	-5382
▁비롯한	-5383
ously	-5384
▁말을	-5385
▁유통	-5386
▁entrance	-5387
▁Science	-5388
▁의원은	-5389
대학교	-5390
▁Pre	-5391
ighb	-5392
현지시간	-5393
▁Bu	-5394
▁이사	-5395
▁score	-5396
▁instead	-5397
▁외교	-5398
▁skin	-5399
▁곧	-5400
률이	-5401
▁영국	-5402
위는	-5403
ode	-5404
▁민주	-5405
▁심사	-5406
standing	-5407
▁kindergart	-5408
▁techn	-5409
구역	-5410
진을	-5411
▁해서	-5412
▁weather	-5413
▁headquarters	-5414
▁않다	-5415
▁운전	-5416
▁나와	-5417
▁펼쳐	-5418
멤버	-5419
▁장기	-5420
pro	-5421
▁모르	-5422
▁인한	-5423
▁제도	-5424
▁itself	-5425
▁intention	-5426
▁accounting	-5427
local	-5428
▁shopping	-5429
▁요즘	-5430
uck	-5431
▁괜찮	-5432
▁국방	-5433
▁accidents	-5434
▁harm	-5435
경기	-5436
oid	-5437
vere	-5438
▁싶습니다	-5439
aching	-5440
▁디자인	-5441
마을	-5442
▁예산의	-5443
▁positive	-5444
▁없을	-5445
▁토론	-5446
▁annual	-5447
▁이끌	-5448
ishment	-5449
▁commissioned	-5450
▁dream	-5451
▁raising	-5452
▁한번	-5453
전문	-5454
▁원하는	-5455
▁사람은	-5456
ulate	-5457
▁entered	-5458
▁결국	-5459
▁died	-5460
▁comes	-5461
ule	-5462
▁이것은	-5463
light	-5464
▁‘201	-5465
▁grand	-5466
▁Invest	-5467
ires	-5468
itude	-5469
▁싸	-5470
▁houses	-5471
가고	-5472
▁Many	-5473
▁requested	-5474
▁참석한	-5475
▁filed	-5476
널드	-5477
▁Promotion	-5478
aced	-5479
▁꼽	-5480
▁제재	-5481
었는데	-5482
▁Ahn	-5483
▁earlier	-5484
▁appeared	-5485
▁superv	-5486
문이	-5487
▁participants	-5488
공사	-5489
▁보는	-5490
▁지원할	-5491
▁rates	-5492
’(	-5493
▁cell	-5494
▁sens	-5495
ao	-5496
▁occurred	-5497
린다	-5498
rant	-5499
▁관객	-5500
▁밖	-5501
▁gas	-5502
▁이들이	-5503
▁끊	-5504
▁frequ	-5505
▁skills	-5506
▁Environment	-5507
▁highly	-5508
▁센터	-5509
athe	-5510
▁duty	-5511
▁cong	-5512
청은	-5513
ament	-5514
▁장소	-5515
▁넘는	-5516
70	-5517
▁관람	-5518
▁통과	-5519
▁introduce	-5520
디오	-5521
struct	-5522
▁의한	-5523
▁나섰다	-5524
au	-5525
▁솔	-5526
▁자기	-5527
ource	-5528
phone	-5529
▁hearing	-5530
▁궁금	-5531
▁기업이	-5532
▁지지	-5533
▁ways	-5534
raw	-5535
ronic	-5536
▁Pen	-5537
▁har	-5538
겼다	-5539
▁타고	-5540
▁volunte	-5541
▁자녀	-5542
izes	-5543
▁advant	-5544
▁차례	-5545
▁release	-5546
원과	-5547
▁얼굴	-5548
었지만	-5549
격을	-5550
ane	-5551
▁winter	-5552
▁Kong	-5553
ocks	-5554
▁image	-5555
stances	-5556
▁restrict	-5557
▁universities	-5558
▁혜	-5559
iers	-5560
▁mass	-5561
▁son	-5562
▁beginning	-5563
▁주는	-5564
로는	-5565
▁Central	-5566
▁argu	-5567
▁evidence	-5568
▁user	-5569
▁술	-5570
esterday	-5571
▁webs	-5572
▁Ha	-5573
▁그렇게	-5574
▁Donald	-5575
▁obs	-5576
▁특별한	-5577
▁Germany	-5578
osure	-5579
▁eight	-5580
체육	-5581
▁yesterday	-5582
▁잃	-5583
▁달라	-5584
▁위해서	-5585
▁Pyeong	-5586
my	-5587
▁circum	-5588
▁Industry	-5589
▁소통	-5590
▁Foreign	-5591
▁player	-5592
▁없다는	-5593
▁stressed	-5594
ibility	-5595
단은	-5596
심을	-5597
▁명의	-5598
▁Art	-5599
▁벌어	-5600
▁멤버	-5601
▁재정	-5602
▁사진을	-5603
▁involved	-5604
대책	-5605
▁쉬	-5606
정한	-5607
▁열리는	-5608
▁대체	-5609
▁link	-5610
▁evalu	-5611
▁unique	-5612
allen	-5613
▁때는	-5614
▁Year	-5615
▁exchang	-5616
년이	-5617
selves	-5618
▁융	-5619
isory	-5620
▁recruit	-5621
19	-5622
▁Pros	-5623
금의	-5624
▁reasons	-5625
seok	-5626
▁Blue	-5627
▁collection	-5628
▁헤	-5629
aign	-5630
▁지적했다	-5631
▁덧	-5632
▁Chief	-5633
▁sleep	-5634
▁address	-5635
▁box	-5636
▁도널드	-5637
▁hotel	-5638
▁degrees	-5639
▁competit	-5640
▁indic	-5641
yu	-5642
▁anything	-5643
쳤다	-5644
▁poll	-5645
▁Economic	-5646
▁해도	-5647
▁이유는	-5648
▁generation	-5649
▁자주	-5650
myeon	-5651
▁대한민국	-5652
▁loans	-5653
▁across	-5654
▁곳이	-5655
보다는	-5656
▁범죄	-5657
ibrary	-5658
▁chance	-5659
▁expansion	-5660
▁아마	-5661
,”	-5662
▁owner	-5663
▁내놓	-5664
▁Commun	-5665
▁2009	-5666
▁visitors	-5667
▁gather	-5668
▁Baek	-5669
band	-5670
▁agreed	-5671
▁worked	-5672
▁Infrastructure	-5673
협력	-5674
▁Lim	-5675
다운	-5676
▁아주	-5677
▁무료	-5678
▁조치	-5679
▁주로	-5680
▁intends	-5681
aration	-5682
▁있는지	-5683
▁bal	-5684
▁comfort	-5685
▁배송	-5686
▁visiting	-5687
▁고양	-5688
▁김정은	-5689
▁상황이	-5690
scale	-5691
▁suit	-5692
▁train	-5693
프로	-5694
▁비슷	-5695
▁whose	-5696
▁범위에서	-5697
▁internal	-5698
▁위원장이	-5699
▁writing	-5700
▁creating	-5701
길을	-5702
han	-5703
▁cook	-5704
▁수밖에	-5705
▁인간	-5706
▁secure	-5707
▁By	-5708
▁variety	-5709
서관	-5710
▁축구	-5711
▁빨리	-5712
▁창출	-5713
▁warm	-5714
▁example	-5715
▁가정	-5716
▁pers	-5717
▁tourism	-5718
▁중단	-5719
▁1,000	-5720
대학	-5721
▁heavy	-5722
▁platform	-5723
▁violence	-5724
▁졸	-5725
bum	-5726
amed	-5727
식의	-5728
ology	-5729
▁prem	-5730
도에	-5731
hwan	-5732
인과	-5733
▁American	-5734
▁150	-5735
▁보건	-5736
▁중에	-5737
▁집에	-5738
으로는	-5739
▁32	-5740
▁학생들이	-5741
▁neighb	-5742
▁usually	-5743
▁Finance	-5744
과학	-5745
안에	-5746
▁내용이	-5747
▁measure	-5748
▁mountain	-5749
주가	-5750
▁메시	-5751
▁theme	-5752
이자	-5753
atures	-5754
▁posted	-5755
▁environmental	-5756
aps	-5757
▁우리의	-5758
셔서	-5759
intendent	-5760
500	-5761
▁sud	-5762
arp	-5763
보호	-5764
▁안내	-5765
▁tit	-5766
▁black	-5767
▁우려가	-5768
▁sudden	-5769
▁33	-5770
▁ke	-5771
▁basis	-5772
urities	-5773
▁assess	-5774
ledge	-5775
▁더불어민주당	-5776
ivered	-5777
▁ability	-5778
▁같습니다	-5779
▁긍	-5780
▁접근	-5781
▁sale	-5782
▁inspect	-5783
▁researcher	-5784
18	-5785
▁implemented	-5786
▁Tw	-5787
▁investigating	-5788
dern	-5789
elligence	-5790
▁teachers	-5791
▁주최	-5792
wide	-5793
▁hur	-5794
▁taste	-5795
▁덕	-5796
▁입장을	-5797
▁도민	-5798
▁enh	-5799
▁authority	-5800
연합	-5801
부와	-5802
(3	-5803
▁rout	-5804
▁technolog	-5805
▁popularity	-5806
▁따로	-5807
▁reading	-5808
선이	-5809
▁조례는	-5810
▁turned	-5811
▁delivered	-5812
▁difference	-5813
▁tourists	-5814
gle	-5815
atched	-5816
▁autonom	-5817
olution	-5818
▁discount	-5819
▁properly	-5820
att	-5821
▁dog	-5822
만이	-5823
door	-5824
▁관련된	-5825
드가	-5826
▁학습	-5827
▁옮	-5828
▁log	-5829
▁남성	-5830
▁겁	-5831
▁proposed	-5832
▁돈을	-5833
▁Conf	-5834
13	-5835
▁IT	-5836
▁Food	-5837
▁Head	-5838
▁lecture	-5839
▁disabled	-5840
▁출석	-5841
▁York	-5842
▁엔	-5843
▁couldn	-5844
▁홍콩	-5845
▁solve	-5846
▁비중	-5847
▁tele	-5848
ott	-5849
▁Ki	-5850
▁마무	-5851
▁컴	-5852
▁덧붙	-5853
▁이들	-5854
▁dig	-5855
▁Suwon	-5856
▁Col	-5857
▁경찰이	-5858
▁counter	-5859
거운	-5860
물의	-5861
▁force	-5862
▁interpret	-5863
▁branch	-5864
▁limited	-5865
12	-5866
▁것과	-5867
▁청구	-5868
▁우승	-5869
년을	-5870
▁축제	-5871
▁주장했다	-5872
명으로	-5873
▁Jose	-5874
▁reports	-5875
랫폼	-5876
지와	-5877
▁aware	-5878
▁선고	-5879
most	-5880
▁effects	-5881
▁prevention	-5882
omp	-5883
▁넓	-5884
▁시절	-5885
▁대회	-5886
▁모여	-5887
▁투입	-5888
▁원내대표	-5889
문에	-5890
▁defense	-5891
리기	-5892
▁좋아하는	-5893
▁맥	-5894
서가	-5895
씨의	-5896
지사	-5897
▁죄송	-5898
seong	-5899
ares	-5900
iring	-5901
▁During	-5902
▁단계	-5903
▁경북	-5904
시스템	-5905
▁관광객	-5906
▁Chungcheong	-5907
▁배경	-5908
▁처음으로	-5909
▁2020	-5910
▁correct	-5911
▁긍정	-5912
sy	-5913
ship	-5914
▁불구하고	-5915
▁elementary	-5916
▁벗	-5917
▁이번에	-5918
▁General	-5919
▁Decree	-5920
▁얘기	-5921
▁부정	-5922
▁coach	-5923
▁주도	-5924
▁street	-5925
▁사실이	-5926
▁init	-5927
▁Professor	-5928
▁지켜	-5929
▁하기	-5930
▁convenience	-5931
▁candidates	-5932
▁Des	-5933
▁cry	-5934
▁corporation	-5935
세대	-5936
ert	-5937
▁회원	-5938
▁36	-5939
urrently	-5940
만의	-5941
▁블록	-5942
부모	-5943
quare	-5944
▁너는	-5945
erve	-5946
▁둘러	-5947
ohn	-5948
▁염	-5949
gent	-5950
▁publ	-5951
IS	-5952
▁protest	-5953
내는	-5954
unk	-5955
▁선생	-5956
▁국회의	-5957
▁늘어나	-5958
▁blood	-5959
▁겨울	-5960
권이	-5961
▁버스	-5962
▁daughter	-5963
▁Represent	-5964
▁2008	-5965
▁compensation	-5966
▁engine	-5967
onst	-5968
rain	-5969
othes	-5970
plex	-5971
▁newly	-5972
▁criticized	-5973
▁최저임금	-5974
iconduct	-5975
▁섬	-5976
river	-5977
▁website	-5978
▁customer	-5979
inate	-5980
▁depos	-5981
▁App	-5982
분의	-5983
▁판결	-5984
▁않도록	-5985
하겠습니다	-5986
▁ensure	-5987
▁comprehensive	-5988
사에서	-5989
▁East	-5990
▁하나에	-5991
▁공모	-5992
▁creation	-5993
▁predicted	-5994
▁Aut	-5995
▁emb	-5996
해도	-5997
▁brother	-5998
▁arrested	-5999
▁옆	-6000
▁점에서	-6001
▁대화	-6002
chi	-6003
▁추정	-6004
▁banks	-6005
▁giving	-6006
산을	-6007
▁Peninsula	-6008
▁에너지	-6009
▁criticism	-6010
정상	-6011
▁주말	-6012
▁Not	-6013
▁someone	-6014
▁Law	-6015
▁영업	-6016
▁nature	-6017
orter	-6018
▁않습니다	-6019
▁아니다	-6020
오는	-6021
▁campaign	-6022
▁says	-6023
▁미리	-6024
▁mach	-6025
▁comput	-6026
▁Stud	-6027
▁한국에	-6028
▁moved	-6029
▁responsibility	-6030
▁되었다	-6031
▁배출	-6032
▁방안을	-6033
▁포함한	-6034
▁reven	-6035
▁satisf	-6036
▁38	-6037
▁Sports	-6038
▁특정	-6039
▁calc	-6040
가족	-6041
대회	-6042
▁이재	-6043
▁tempor	-6044
▁지역의	-6045
▁예상된다	-6046
▁buildings	-6047
▁providing	-6048
▁통보	-6049
idge	-6050
감독	-6051
▁엄마	-6052
▁외부	-6053
▁conflict	-6054
석이	-6055
adium	-6056
rated	-6057
▁signed	-6058
에게는	-6059
ropriate	-6060
▁section	-6061
ffee	-6062
▁그것은	-6063
▁효과가	-6064
friendly	-6065
므로	-6066
▁아버	-6067
▁이벤	-6068
▁재미	-6069
hoon	-6070
▁reached	-6071
▁proposal	-6072
▁dance	-6073
▁Why	-6074
▁장면	-6075
▁paper	-6076
▁physical	-6077
▁announcement	-6078
▁audience	-6079
ables	-6080
chan	-6081
▁마무리	-6082
▁appro	-6083
▁returned	-6084
시고	-6085
▁나가	-6086
▁못하고	-6087
▁스트	-6088
hwa	-6089
lia	-6090
▁기회를	-6091
athered	-6092
ourn	-6093
▁대표가	-6094
▁그대로	-6095
▁사는	-6096
▁repe	-6097
항공	-6098
▁recognized	-6099
▁느끼	-6100
▁비행	-6101
luding	-6102
▁되면	-6103
▁mentioned	-6104
▁Chairperson	-6105
▁쏟	-6106
리와	-6107
일로	-6108
▁뉴욕	-6109
▁중이다	-6110
▁있으면	-6111
▁fight	-6112
▁쌓	-6113
▁카드	-6114
sung	-6115
▁gathered	-6116
▁새로	-6117
room	-6118
▁Count	-6119
▁especially	-6120
▁회계	-6121
▁execut	-6122
▁overall	-6123
▁(1),	-6124
랐다	-6125
▁소유	-6126
▁의해	-6127
▁manufacturing	-6128
▁겸	-6129
▁단순	-6130
arily	-6131
amer	-6132
▁푸	-6133
▁34	-6134
▁상대로	-6135
▁notice	-6136
eral	-6137
▁Kwon	-6138
▁elig	-6139
▁한국에서	-6140
ses	-6141
▁3,	-6142
▁장관	-6143
▁rad	-6144
▁실무	-6145
▁actually	-6146
▁북한이	-6147
formation	-6148
▁망	-6149
▁becoming	-6150
▁탑	-6151
ees	-6152
isl	-6153
▁상황을	-6154
▁연장	-6155
emor	-6156
▁않는다	-6157
iled	-6158
▁Enforcement	-6159
개를	-6160
▁심각	-6161
▁recommended	-6162
▁simple	-6163
▁교류	-6164
▁신뢰	-6165
ying	-6166
liament	-6167
▁만드는	-6168
▁강력	-6169
▁Iran	-6170
▁withd	-6171
▁innovation	-6172
umb	-6173
▁반도	-6174
▁그들은	-6175
▁heads	-6176
▁발굴	-6177
▁themselves	-6178
▁hear	-6179
▁classes	-6180
사무	-6181
▁바탕	-6182
으로부터	-6183
▁mot	-6184
신청	-6185
어가	-6186
▁걱정	-6187
▁table	-6188
▁익	-6189
▁결제	-6190
▁responsible	-6191
ler	-6192
▁연기	-6193
▁preparing	-6194
TS	-6195
▁대전	-6196
▁싶어	-6197
based	-6198
중앙	-6199
▁Hee	-6200
▁시장은	-6201
스코	-6202
▁shown	-6203
▁ever	-6204
na	-6205
▁훈련	-6206
게임	-6207
▁등은	-6208
▁exact	-6209
▁기초	-6210
▁수업	-6211
시를	-6212
▁밖에	-6213
▁이야기를	-6214
▁Women	-6215
▁입주	-6216
▁대규모	-6217
대는	-6218
▁발표한	-6219
▁deputy	-6220
금은	-6221
위로	-6222
▁unit	-6223
▁Daejeon	-6224
▁weak	-6225
▁driver	-6226
▁벤	-6227
제품	-6228
mon	-6229
▁records	-6230
▁consideration	-6231
▁Complex	-6232
▁맞는	-6233
round	-6234
인가요	-6235
▁relatively	-6236
▁clothes	-6237
▁빼	-6238
담당	-6239
ipped	-6240
▁홈페이	-6241
’,	-6242
학과	-6243
▁45	-6244
▁대법원	-6245
▁stri	-6246
었어	-6247
▁만족	-6248
▁assist	-6249
▁프리	-6250
11	-6251
▁회복	-6252
▁swe	-6253
▁덧붙였다	-6254
▁affili	-6255
▁practice	-6256
▁이란	-6257
▁boy	-6258
▁hair	-6259
▁biggest	-6260
▁medic	-6261
▁sharp	-6262
▁Federation	-6263
▁수도권	-6264
되기	-6265
▁voice	-6266
▁시도	-6267
▁Sam	-6268
▁These	-6269
▁abroad	-6270
▁contest	-6271
이지만	-6272
▁gradu	-6273
▁Organ	-6274
▁airport	-6275
▁끼	-6276
isc	-6277
적이고	-6278
▁비상	-6279
▁높다	-6280
▁challen	-6281
아가	-6282
▁intens	-6283
▁fix	-6284
▁occup	-6285
▁normal	-6286
▁artists	-6287
▁answer	-6288
▁idea	-6289
▁보수	-6290
▁수탁	-6291
arding	-6292
ects	-6293
▁consultation	-6294
으면서	-6295
▁lic	-6296
▁nearby	-6297
▁suspected	-6298
함으로써	-6299
▁wait	-6300
▁Union	-6301
화된	-6302
▁jur	-6303
▁Aust	-6304
▁file	-6305
▁brief	-6306
▁행동	-6307
▁슬	-6308
갔다	-6309
국제	-6310
pon	-6311
▁들어가	-6312
▁분명	-6313
▁인터뷰	-6314
▁pm	-6315
▁끝나	-6316
▁convers	-6317
▁Prosecut	-6318
▁꽃	-6319
▁pick	-6320
▁2000	-6321
협회	-6322
▁severe	-6323
▁foundation	-6324
2,	-6325
▁Market	-6326
▁검사	-6327
ming	-6328
▁notify	-6329
미래	-6330
bit	-6331
fect	-6332
▁ess	-6333
▁대표는	-6334
estern	-6335
ush	-6336
▁investors	-6337
히려	-6338
▁registered	-6339
aves	-6340
▁정부는	-6341
▁qual	-6342
▁Child	-6343
화폐	-6344
▁통일	-6345
▁registration	-6346
▁Ro	-6347
▁Yeon	-6348
▁Republic	-6349
▁River	-6350
▁prize	-6351
였던	-6352
▁himself	-6353
▁월드	-6354
▁한반도	-6355
▁extra	-6356
▁running	-6357
▁업무를	-6358
▁advantage	-6359
구에	-6360
▁회담	-6361
▁Pa	-6362
▁letter	-6363
▁expectations	-6364
mm	-6365
역을	-6366
▁놓고	-6367
▁싶어요	-6368
▁wall	-6369
▁lun	-6370
There	-6371
▁보니	-6372
▁불가능	-6373
분기	-6374
▁fr	-6375
▁사라	-6376
▁플랫폼	-6377
▁Hu	-6378
▁taxi	-6379
▁career	-6380
oses	-6381
▁국립	-6382
▁있었던	-6383
▁셈	-6384
▁점이	-6385
▁expert	-6386
▁Project	-6387
tenance	-6388
▁location	-6389
심히	-6390
lymp	-6391
▁감독이	-6392
▁huge	-6393
▁includes	-6394
▁여론	-6395
▁수술	-6396
▁petition	-6397
▁allowed	-6398
▁낸	-6399
▁꾸준	-6400
▁힘을	-6401
▁strategy	-6402
▁슈	-6403
▁Joseon	-6404
국은	-6405
고를	-6406
ori	-6407
ruption	-6408
▁adding	-6409
iculture	-6410
리로	-6411
men	-6412
워크	-6413
CTV	-6414
▁순간	-6415
▁소비자	-6416
▁semiconduct	-6417
iary	-6418
▁낮은	-6419
▁묻	-6420
체인	-6421
▁혜택	-6422
▁everyone	-6423
▁맞춰	-6424
▁Tai	-6425
▁gold	-6426
받고	-6427
▁threat	-6428
▁조치를	-6429
▁rail	-6430
▁운영하는	-6431
▁지금까지	-6432
▁프랑스	-6433
실에서	-6434
▁Olymp	-6435
▁selling	-6436
냐는	-6437
▁동물	-6438
▁공사	-6439
▁당연	-6440
▁closed	-6441
ules	-6442
▁프로젝트	-6443
림픽	-6444
▁warrant	-6445
▁successful	-6446
▁출발	-6447
isdict	-6448
가의	-6449
▁사항은	-6450
eria	-6451
▁elections	-6452
▁science	-6453
▁sharing	-6454
사들이	-6455
▁것이에요	-6456
하신	-6457
▁becomes	-6458
▁재난	-6459
▁ter	-6460
▁연속	-6461
관에서	-6462
▁보이는	-6463
sik	-6464
식품	-6465
월에	-6466
▁revital	-6467
상은	-6468
▁자치	-6469
amily	-6470
▁analyzed	-6471
▁반도체	-6472
▁respectively	-6473
▁entrusted	-6474
되었	-6475
▁gen	-6476
▁멀	-6477
의가	-6478
▁white	-6479
▁separate	-6480
kay	-6481
▁Deputy	-6482
▁이른	-6483
격이	-6484
▁dismiss	-6485
▁expanding	-6486
▁위원은	-6487
▁위치한	-6488
▁star	-6489
▁From	-6490
▁nothing	-6491
케팅	-6492
▁긴급	-6493
▁운영에	-6494
▁만약	-6495
rought	-6496
irit	-6497
▁빅	-6498
▁자원	-6499
▁국정	-6500
▁era	-6501
▁땅	-6502
로서	-6503
▁War	-6504
▁정확한	-6505
stant	-6506
성장	-6507
점에서	-6508
▁suppl	-6509
▁되지	-6510
mar	-6511
▁goes	-6512
▁fully	-6513
▁jurisdict	-6514
▁오히려	-6515
▁경찰에	-6516
▁cross	-6517
▁planned	-6518
▁appointment	-6519
▁characteristics	-6520
▁refund	-6521
▁excess	-6522
▁임명	-6523
▁찾는	-6524
▁수원	-6525
resh	-6526
iance	-6527
▁anti	-6528
법을	-6529
기관의	-6530
형을	-6531
▁ratio	-6532
15	-6533
처리	-6534
▁강한	-6535
apore	-6536
▁northern	-6537
jung	-6538
▁farmers	-6539
▁vacation	-6540
포르	-6541
▁신용	-6542
▁인식	-6543
하려는	-6544
▁냉	-6545
iplom	-6546
▁hosted	-6547
▁modern	-6548
▁mis	-6549
▁당신에게	-6550
▁이와	-6551
▁Hye	-6552
▁수수	-6553
▁인기를	-6554
▁했습니다	-6555
▁Tra	-6556
▁zone	-6557
▁Award	-6558
annel	-6559
▁prescribe	-6560
려면	-6561
겠지만	-6562
▁waiting	-6563
rog	-6564
▁Her	-6565
▁agend	-6566
▁사용할	-6567
▁imm	-6568
▁joined	-6569
▁playing	-6570
▁reach	-6571
▁주고	-6572
▁문제는	-6573
▁사람을	-6574
▁influence	-6575
상으로	-6576
▁52	-6577
▁임대	-6578
usband	-6579
▁winning	-6580
▁supporting	-6581
▁provides	-6582
전쟁	-6583
▁가격이	-6584
▁사실상	-6585
▁Taiwan	-6586
▁지자	-6587
▁해소	-6588
▁histor	-6589
▁연계	-6590
성은	-6591
▁recorded	-6592
▁검찰은	-6593
▁Da	-6594
▁secret	-6595
▁watching	-6596
▁크다	-6597
▁regions	-6598
▁viewers	-6599
호를	-6600
▁농업	-6601
▁lawmakers	-6602
▁introduction	-6603
▁belong	-6604
▁receip	-6605
페인	-6606
▁Singapore	-6607
상공	-6608
▁주거	-6609
▁sun	-6610
▁entertainment	-6611
▁나누	-6612
▁폐기	-6613
▁교체	-6614
▁노인	-6615
▁규모의	-6616
▁Airport	-6617
▁reportedly	-6618
▁곡	-6619
▁published	-6620
▁밝혀	-6621
▁doct	-6622
tae	-6623
▁모집	-6624
▁gra	-6625
▁crim	-6626
▁moving	-6627
▁편의	-6628
▁older	-6629
▁meetings	-6630
▁Met	-6631
▁cat	-6632
▁스포츠	-6633
▁뭐	-6634
주고	-6635
▁bought	-6636
▁제일	-6637
▁fost	-6638
▁원칙	-6639
iles	-6640
▁coffee	-6641
▁-	-6642
병원	-6643
▁이상이	-6644
▁아시	-6645
▁정기	-6646
▁songs	-6647
이야	-6648
년까지	-6649
▁surpr	-6650
▁presented	-6651
ror	-6652
▁하여야	-6653
▁SM	-6654
▁European	-6655
▁circumstances	-6656
▁자율	-6657
하겠다는	-6658
지털	-6659
▁(2)	-6660
▁designed	-6661
chang	-6662
께서	-6663
▁참여하는	-6664
당한	-6665
▁65	-6666
▁옥	-6667
▁나도	-6668
▁actor	-6669
▁subsc	-6670
▁rising	-6671
▁attempt	-6672
',	-6673
itation	-6674
▁killed	-6675
드시	-6676
▁후에	-6677
▁demonst	-6678
gery	-6679
▁브라	-6680
▁Currently	-6681
란다	-6682
▁증거	-6683
▁exports	-6684
▁하나님	-6685
▁방침이다	-6686
▁뇌	-6687
▁pit	-6688
자기	-6689
▁prison	-6690
용을	-6691
▁보장	-6692
ureau	-6693
▁Social	-6694
▁determine	-6695
▁400	-6696
▁separately	-6697
▁최초로	-6698
▁expanded	-6699
▁monit	-6700
▁혼자	-6701
▁cop	-6702
▁jurisdiction	-6703
wh	-6704
▁늘어	-6705
▁selection	-6706
려는	-6707
▁certificate	-6708
▁전혀	-6709
▁rental	-6710
▁improved	-6711
▁dollars	-6712
▁broke	-6713
▁honor	-6714
▁성폭	-6715
중에	-6716
▁looks	-6717
ashion	-6718
▁surround	-6719
▁피해를	-6720
▁싱가	-6721
order	-6722
▁뒷	-6723
프라	-6724
uel	-6725
▁전남	-6726
▁Int	-6727
ranch	-6728
▁CCTV	-6729
▁camer	-6730
▁healthy	-6731
메라	-6732
호가	-6733
▁근거	-6734
▁여기에	-6735
▁Byung	-6736
cont	-6737
▁Hospital	-6738
▁resolution	-6739
▁강원도	-6740
▁Br	-6741
▁매일	-6742
ticles	-6743
iency	-6744
▁cover	-6745
▁Thank	-6746
inner	-6747
anger	-6748
▁오랜	-6749
▁커피	-6750
▁중국의	-6751
▁Wave	-6752
▁위원회의	-6753
▁claimed	-6754
▁thinking	-6755
▁promoting	-6756
▁답변	-6757
okes	-6758
▁fields	-6759
▁흘	-6760
▁건가요	-6761
▁휴대	-6762
공항	-6763
chain	-6764
▁consist	-6765
.5%	-6766
▁대북	-6767
▁wave	-6768
▁방식으로	-6769
▁뮤	-6770
▁lawy	-6771
시켜	-6772
우는	-6773
oes	-6774
▁사법	-6775
▁eligible	-6776
▁exercise	-6777
▁Hw	-6778
▁drop	-6779
▁everything	-6780
▁competitiveness	-6781
ED	-6782
hye	-6783
alled	-6784
해를	-6785
▁쏟아	-6786
▁Hot	-6787
▁시장이	-6788
드릴	-6789
▁돕	-6790
▁Woo	-6791
▁eye	-6792
▁incon	-6793
▁More	-6794
▁above	-6795
lex	-6796
▁대변	-6797
eneration	-6798
만을	-6799
▁완성	-6800
▁열심히	-6801
▁Hae	-6802
▁전용	-6803
▁기회가	-6804
ampions	-6805
▁formed	-6806
▁provisions	-6807
▁longer	-6808
yn	-6809
리카	-6810
회사	-6811
▁ec	-6812
▁관측	-6813
▁여부를	-6814
▁cancer	-6815
▁advanced	-6816
이드	-6817
위원회의	-6818
▁smooth	-6819
▁앉	-6820
▁replace	-6821
▁investigate	-6822
▁Pyong	-6823
▁없다고	-6824
▁improving	-6825
▁counseling	-6826
▁supported	-6827
네시아	-6828
에서의	-6829
▁미술	-6830
▁Last	-6831
▁부문	-6832
▁있으	-6833
▁중간	-6834
▁나에게	-6835
▁Plan	-6836
▁earn	-6837
▁revision	-6838
▁continues	-6839
▁노조	-6840
▁almost	-6841
구조	-6842
▁겁니다	-6843
▁parliament	-6844
80	-6845
분에	-6846
▁담긴	-6847
▁assets	-6848
▁바른	-6849
▁사용하는	-6850
outhern	-6851
rec	-6852
목을	-6853
행이	-6854
▁임시	-6855
▁선물	-6856
▁의결	-6857
▁wish	-6858
▁Tourism	-6859
bass	-6860
▁Village	-6861
▁Indones	-6862
▁빛	-6863
▁마음을	-6864
▁served	-6865
▁focused	-6866
▁depending	-6867
▁대기	-6868
▁측면	-6869
▁Work	-6870
▁connection	-6871
iment	-6872
세계	-6873
한다면	-6874
▁elected	-6875
▁나오는	-6876
▁collected	-6877
▁schol	-6878
olf	-6879
▁바탕으로	-6880
▁gap	-6881
▁maintenance	-6882
조합	-6883
seo	-6884
▁첨부	-6885
명과	-6886
▁Per	-6887
▁이들은	-6888
▁Cons	-6889
운드	-6890
ties	-6891
▁join	-6892
▁husband	-6893
▁불과	-6894
▁photos	-6895
▁marketing	-6896
▁Move	-6897
▁적극적으로	-6898
roll	-6899
▁(4	-6900
▁retire	-6901
▁types	-6902
▁detailed	-6903
▁appearance	-6904
▁구민	-6905
▁esc	-6906
리한	-6907
▁정하는	-6908
sible	-6909
▁주제로	-6910
▁ded	-6911
▁knowledge	-6912
▁suffering	-6913
ially	-6914
▁살펴	-6915
자치단체	-6916
▁것처럼	-6917
▁Church	-6918
▁agenda	-6919
▁반드시	-6920
▁있을까요	-6921
ilding	-6922
▁delayed	-6923
▁technologies	-6924
▁미국이	-6925
▁했어요	-6926
▁pension	-6927
▁although	-6928
▁금지	-6929
▁액	-6930
내고	-6931
▁빠르게	-6932
▁지속적으로	-6933
▁Sejong	-6934
▁stocks	-6935
▁Ne	-6936
▁beauty	-6937
▁도움을	-6938
▁의사	-6939
▁바뀌	-6940
▁earth	-6941
심의	-6942
▁자료를	-6943
▁inconven	-6944
▁인증	-6945
▁2007	-6946
▁받지	-6947
▁judge	-6948
▁Jo	-6949
▁employee	-6950
스에	-6951
▁Also	-6952
▁factory	-6953
▁못하는	-6954
위원장	-6955
▁일어나	-6956
ull	-6957
▁반발	-6958
▁ven	-6959
▁자리를	-6960
▁프로그램을	-6961
▁불안	-6962
▁Fair	-6963
amb	-6964
udd	-6965
cho	-6966
▁hum	-6967
▁singer	-6968
유치	-6969
해보	-6970
▁ple	-6971
(5	-6972
▁한국어	-6973
▁Most	-6974
▁diplom	-6975
▁completely	-6976
▁altern	-6977
▁Austral	-6978
▁negative	-6979
eech	-6980
▁strength	-6981
건설	-6982
▁측은	-6983
▁37	-6984
▁인기	-6985
▁콘서	-6986
▁deliver	-6987
제는	-6988
▁mist	-6989
▁seats	-6990
▁external	-6991
청이	-6992
▁forced	-6993
▁consumer	-6994
▁사태	-6995
▁경험이	-6996
▁adop	-6997
ugg	-6998
▁effective	-6999
년대	-7000
▁max	-7001
char	-7002
▁soccer	-7003
▁word	-7004
질이	-7005
▁앞에서	-7006
들로	-7007
이지	-7008
▁serve	-7009
▁changing	-7010
았던	-7011
▁diagn	-7012
▁range	-7013
▁Regarding	-7014
▁procedures	-7015
aem	-7016
▁Ho	-7017
▁유일	-7018
▁의무	-7019
스러운	-7020
▁allows	-7021
▁remarks	-7022
▁조사를	-7023
▁spot	-7024
▁League	-7025
▁seem	-7026
방송	-7027
실이	-7028
▁최고의	-7029
▁눈에	-7030
같이	-7031
imb	-7032
sun	-7033
▁despite	-7034
bol	-7035
▁County	-7036
▁싱가포르	-7037
▁channel	-7038
▁평양	-7039
▁mainly	-7040
구는	-7041
▁주인	-7042
▁caf	-7043
▁gender	-7044
▁bond	-7045
▁item	-7046
▁루	-7047
됐다고	-7048
▁grant	-7049
▁methods	-7050
▁infrastructure	-7051
1,	-7052
▁졸업	-7053
▁쇼핑	-7054
▁brok	-7055
▁lawmaker	-7056
▁emphasized	-7057
▁Mus	-7058
▁설계	-7059
house	-7060
▁cash	-7061
▁전쟁	-7062
있다	-7063
▁평소	-7064
▁Port	-7065
▁strug	-7066
▁시각	-7067
▁concept	-7068
▁studying	-7069
어도	-7070
ux	-7071
▁할인	-7072
▁talent	-7073
▁snow	-7074
▁broadcasting	-7075
나다	-7076
▁모양	-7077
니스	-7078
▁meal	-7079
▁units	-7080
▁legisl	-7081
▁연간	-7082
▁인도네시아	-7083
▁specialized	-7084
건의	-7085
TA	-7086
▁라이	-7087
▁principle	-7088
▁developing	-7089
enture	-7090
차례	-7091
▁bab	-7092
표를	-7093
▁album	-7094
▁weeks	-7095
▁meters	-7096
기고	-7097
anks	-7098
▁생각이	-7099
▁Movement	-7100
▁superintendent	-7101
경을	-7102
▁군사	-7103
▁discussion	-7104
봉사	-7105
▁선언	-7106
irae	-7107
▁관계자	-7108
▁균	-7109
▁쿠	-7110
자동차	-7111
▁article	-7112
▁무슨	-7113
공동	-7114
▁형성	-7115
▁gift	-7116
▁track	-7117
산물	-7118
▁greatly	-7119
▁consecutive	-7120
▁Myung	-7121
IC	-7122
▁개혁	-7123
▁Mountain	-7124
▁Face	-7125
▁resc	-7126
▁종류	-7127
▁집행	-7128
▁차별	-7129
actions	-7130
▁screening	-7131
▁하다	-7132
▁disabilities	-7133
▁causing	-7134
▁consumption	-7135
ivision	-7136
▁govern	-7137
수수	-7138
▁식품	-7139
taek	-7140
iture	-7141
▁가서	-7142
▁alleged	-7143
▁공항	-7144
▁나를	-7145
▁해석	-7146
분야	-7147
ivity	-7148
fficient	-7149
▁independence	-7150
▁남편	-7151
▁다가	-7152
▁그러나	-7153
▁페이스	-7154
25	-7155
▁Employment	-7156
▁폭염	-7157
해주세요	-7158
overy	-7159
▁born	-7160
▁체육	-7161
▁북한의	-7162
▁ordinary	-7163
jo	-7164
공간	-7165
퓨터	-7166
▁전날	-7167
▁진술	-7168
▁cool	-7169
ifying	-7170
lus	-7171
▁완화	-7172
atically	-7173
▁때까지	-7174
▁fresh	-7175
▁Canad	-7176
uth	-7177
▁이행	-7178
점으로	-7179
▁suc	-7180
▁delay	-7181
력과	-7182
▁수는	-7183
카드	-7184
▁동일	-7185
▁Ear	-7186
▁fishing	-7187
▁premium	-7188
▁신속	-7189
▁확실	-7190
▁spring	-7191
▁representatives	-7192
China	-7193
▁Phil	-7194
로를	-7195
▁가득	-7196
▁보였다	-7197
군이	-7198
▁납부	-7199
▁Start	-7200
▁performed	-7201
단지	-7202
ancing	-7203
▁제출하여야	-7204
지자	-7205
▁memor	-7206
▁promoted	-7207
▁당신을	-7208
▁surgery	-7209
(4	-7210
▁leaving	-7211
팀이	-7212
upp	-7213
▁자동	-7214
▁국무위원	-7215
▁lawsu	-7216
▁prelim	-7217
▁Pyongyang	-7218
▁사람의	-7219
▁초과	-7220
▁미세먼지	-7221
▁있다면	-7222
체를	-7223
▁처벌	-7224
▁불러	-7225
▁rapidly	-7226
▁entering	-7227
스와	-7228
▁택시	-7229
ube	-7230
▁생태	-7231
▁scope	-7232
▁suffered	-7233
▁일으	-7234
이션	-7235
▁dramas	-7236
▁strateg	-7237
방을	-7238
보가	-7239
업무	-7240
tery	-7241
▁succeed	-7242
▁오늘은	-7243
▁divers	-7244
▁분양	-7245
▁library	-7246
▁바란다	-7247
▁resign	-7248
▁맺	-7249
씨를	-7250
율을	-7251
호의	-7252
quality	-7253
▁shoot	-7254
▁conserv	-7255
▁divided	-7256
comm	-7257
▁셈이다	-7258
▁profits	-7259
▁의심	-7260
상황	-7261
▁throughout	-7262
이에	-7263
load	-7264
▁교육을	-7265
any	-7266
▁KB	-7267
ancy	-7268
▁않으면	-7269
▁비가	-7270
바일	-7271
▁Yu	-7272
▁arts	-7273
icious	-7274
함에	-7275
하려고	-7276
▁대통령과	-7277
▁기업의	-7278
▁Representative	-7279
▁불이	-7280
▁speech	-7281
▁Roh	-7282
As	-7283
▁10%	-7284
▁finished	-7285
지면	-7286
▁Net	-7287
▁쉽지	-7288
▁대기업	-7289
▁standing	-7290
▁Rules	-7291
▁movies	-7292
▁focusing	-7293
▁surv	-7294
▁appeal	-7295
▁flight	-7296
▁comment	-7297
▁accounts	-7298
▁brought	-7299
ki	-7300
▁Cheon	-7301
▁육성	-7302
▁choice	-7303
▁39	-7304
▁즐길	-7305
▁Att	-7306
▁worried	-7307
시코	-7308
▁없어요	-7309
▁그냥	-7310
▁밝힌	-7311
▁학부모	-7312
▁door	-7313
▁빠른	-7314
▁197	-7315
▁taxes	-7316
▁remaining	-7317
받는	-7318
▁restaurants	-7319
이번	-7320
▁느낌	-7321
organ	-7322
▁nine	-7323
▁눈길을	-7324
▁activity	-7325
▁pictures	-7326
▁eating	-7327
▁fra	-7328
년도	-7329
▁Ulsan	-7330
▁사고가	-7331
▁lat	-7332
▁grade	-7333
▁significantly	-7334
umn	-7335
▁ill	-7336
산이	-7337
계획을	-7338
▁사람들은	-7339
▁background	-7340
▁짧	-7341
jae	-7342
▁고위	-7343
▁Mal	-7344
정의	-7345
▁Human	-7346
▁지원하는	-7347
▁왔다	-7348
점에	-7349
ivest	-7350
▁stable	-7351
▁특수	-7352
았습니다	-7353
▁Ac	-7354
인들의	-7355
▁음식을	-7356
▁Peace	-7357
▁ir	-7358
▁paying	-7359
▁마케팅	-7360
제도	-7361
▁wants	-7362
hae	-7363
▁끝난	-7364
▁어머니	-7365
료가	-7366
적이다	-7367
▁디지털	-7368
▁Soo	-7369
▁ing	-7370
▁virt	-7371
▁탓	-7372
증이	-7373
▁수정	-7374
▁가야	-7375
▁computer	-7376
단에	-7377
▁accomp	-7378
arb	-7379
▁busy	-7380
▁choose	-7381
▁인권	-7382
14	-7383
했으나	-7384
gment	-7385
▁자세	-7386
▁weap	-7387
▁Games	-7388
수로	-7389
▁정의	-7390
▁협조	-7391
▁Life	-7392
▁spirit	-7393
ze	-7394
사업을	-7395
▁관하여	-7396
▁Fire	-7397
▁installation	-7398
▁본다	-7399
mi	-7400
▁Gim	-7401
ivestock	-7402
▁보안	-7403
▁곳곳	-7404
exic	-7405
▁opportunities	-7406
명에	-7407
▁Of	-7408
▁베이	-7409
▁협상	-7410
▁Small	-7411
▁estimated	-7412
▁Services	-7413
▁객	-7414
▁origin	-7415
트워크	-7416
▁못했다	-7417
▁vill	-7418
▁county	-7419
▁produce	-7420
간의	-7421
▁preparation	-7422
TV	-7423
▁인공	-7424
▁추가로	-7425
▁ticket	-7426
▁잇따	-7427
▁차이가	-7428
▁다니	-7429
where	-7430
▁엘	-7431
▁이름을	-7432
▁있지	-7433
멕시코	-7434
▁Enter	-7435
▁Division	-7436
▁subsidies	-7437
회견	-7438
▁거부	-7439
▁opt	-7440
▁성과를	-7441
▁없고	-7442
▁속에서	-7443
▁tariff	-7444
하되	-7445
iced	-7446
▁제공하는	-7447
▁multi	-7448
▁receipt	-7449
▁settlement	-7450
rs	-7451
▁강제	-7452
▁무엇보다	-7453
▁Our	-7454
▁permission	-7455
▁탐	-7456
▁push	-7457
▁wonder	-7458
계의	-7459
acity	-7460
▁weight	-7461
▁preliminary	-7462
▁fal	-7463
▁결과가	-7464
카오	-7465
▁게시	-7466
법인	-7467
▁회장이	-7468
스토	-7469
웠다	-7470
▁먹고	-7471
aith	-7472
▁Im	-7473
▁취약	-7474
ears	-7475
▁Brit	-7476
coming	-7477
▁meaningful	-7478
ossible	-7479
▁rating	-7480
용이	-7481
ido	-7482
▁교수는	-7483
▁이내에	-7484
준다	-7485
▁Bra	-7486
▁참여한	-7487
▁어려움을	-7488
▁arrived	-7489
당을	-7490
ids	-7491
▁써	-7492
▁contribute	-7493
iences	-7494
▁Facebook	-7495
계약	-7496
▁부여	-7497
▁억	-7498
▁등에서	-7499
▁rose	-7500
▁기준으로	-7501
▁monthly	-7502
EC	-7503
▁bott	-7504
▁전해졌다	-7505
▁adult	-7506
Th	-7507
▁기재	-7508
▁이달	-7509
itness	-7510
▁아프	-7511
나무	-7512
▁보통	-7513
ayer	-7514
US	-7515
▁배치	-7516
▁실적	-7517
▁50%	-7518
▁최대한	-7519
▁훨	-7520
▁avoid	-7521
▁coast	-7522
▁mayor	-7523
▁응답	-7524
▁전부	-7525
▁이익	-7526
공무원	-7527
자원	-7528
▁Policy	-7529
▁attending	-7530
eun	-7531
▁공공기관	-7532
unicip	-7533
▁speak	-7534
릭터	-7535
▁prec	-7536
▁지역에	-7537
액이	-7538
▁shared	-7539
▁cooperate	-7540
▁directors	-7541
▁autonomous	-7542
민이	-7543
▁컴퓨터	-7544
▁Exp	-7545
▁sil	-7546
절한	-7547
▁정리	-7548
▁활발	-7549
▁renew	-7550
▁Line	-7551
전거	-7552
▁Mexic	-7553
▁weekend	-7554
▁욕	-7555
대에서	-7556
▁volunt	-7557
AT	-7558
▁법인	-7559
▁했지만	-7560
▁criminal	-7561
▁세종	-7562
▁훨씬	-7563
▁understanding	-7564
no	-7565
생을	-7566
▁Jud	-7567
▁Hotel	-7568
osis	-7569
▁recruitment	-7570
▁충분히	-7571
▁가치	-7572
▁메뉴	-7573
▁managed	-7574
▁Motor	-7575
▁과정을	-7576
▁proport	-7577
▁appropriate	-7578
▁recon	-7579
▁factors	-7580
▁사과	-7581
ateg	-7582
▁삼성전	-7583
▁Coop	-7584
bok	-7585
▁다소	-7586
▁앞에	-7587
이너	-7588
5,	-7589
▁withdraw	-7590
▁감안	-7591
시키는	-7592
▁지하철	-7593
▁source	-7594
▁apartments	-7595
iate	-7596
▁Kak	-7597
▁town	-7598
▁페이스북	-7599
▁twice	-7600
ificial	-7601
▁thereof	-7602
▁카페	-7603
▁행사를	-7604
▁혐의를	-7605
▁Table	-7606
▁exchanges	-7607
▁20%	-7608
트는	-7609
▁콜	-7610
당의	-7611
▁동의	-7612
evit	-7613
▁deleg	-7614
▁Par	-7615
▁acting	-7616
▁안에서	-7617
호에	-7618
실에	-7619
▁fan	-7620
▁보이고	-7621
▁venue	-7622
▁의미가	-7623
▁forces	-7624
▁방안	-7625
▁향상	-7626
▁email	-7627
▁Mid	-7628
▁지금은	-7629
rote	-7630
▁지적이	-7631
stitutional	-7632
▁열고	-7633
▁캐나다	-7634
▁devices	-7635
▁increases	-7636
▁틀	-7637
▁achie	-7638
▁nationwide	-7639
▁이탈	-7640
▁빚	-7641
▁정비	-7642
▁Budd	-7643
vent	-7644
▁의하여	-7645
▁films	-7646
▁liter	-7647
▁inevit	-7648
▁remains	-7649
▁follows	-7650
▁시작한	-7651
뿐만	-7652
▁인기가	-7653
▁America	-7654
▁guarantee	-7655
PO	-7656
▁기술을	-7657
▁실질	-7658
▁vote	-7659
▁기자회견	-7660
▁reb	-7661
▁electronic	-7662
▁앨	-7663
▁기상	-7664
▁캐릭터	-7665
▁아름다운	-7666
▁반복	-7667
▁너의	-7668
▁대만	-7669
▁mix	-7670
▁fish	-7671
스탄	-7672
.9%	-7673
▁개편	-7674
▁느껴	-7675
face	-7676
억원을	-7677
▁Under	-7678
icken	-7679
▁enhance	-7680
▁contains	-7681
▁다르	-7682
▁feature	-7683
▁멋	-7684
▁계획을	-7685
라며	-7686
▁Information	-7687
.-	-7688
▁soft	-7689
▁reporters	-7690
▁crow	-7691
▁절반	-7692
▁허용	-7693
▁ended	-7694
▁academic	-7695
▁subscri	-7696
▁impossible	-7697
▁Agricultural	-7698
▁write	-7699
▁일상	-7700
▁dinner	-7701
▁subway	-7702
back	-7703
ield	-7704
▁사이에	-7705
▁repeated	-7706
▁말고	-7707
▁그것을	-7708
oration	-7709
▁뿌	-7710
▁보관	-7711
16	-7712
▁흡	-7713
다른	-7714
명은	-7715
웨이	-7716
함이	-7717
▁ath	-7718
▁Seok	-7719
선언	-7720
해진	-7721
atur	-7722
▁Tur	-7723
주를	-7724
▁id	-7725
▁majority	-7726
▁수용	-7727
▁guest	-7728
▁executives	-7729
▁reject	-7730
▁revenue	-7731
시험	-7732
재를	-7733
▁nar	-7734
orough	-7735
▁주시	-7736
▁직후	-7737
▁Every	-7738
cm	-7739
느냐	-7740
▁아시안	-7741
▁abuse	-7742
ram	-7743
▁평가를	-7744
정상회담	-7745
▁Sw	-7746
스럽게	-7747
af	-7748
지에서	-7749
▁limits	-7750
▁stories	-7751
▁bed	-7752
▁예비	-7753
책을	-7754
▁Heung	-7755
site	-7756
▁나타나	-7757
▁emot	-7758
▁쏠	-7759
임이	-7760
▁wel	-7761
라면	-7762
▁절차	-7763
▁지키	-7764
요일에	-7765
orks	-7766
▁선호	-7767
▁실패	-7768
illing	-7769
▁categ	-7770
▁ingred	-7771
▁Recently	-7772
▁leadership	-7773
▁걷	-7774
하우	-7775
▁문을	-7776
.7%	-7777
▁속에	-7778
▁적발	-7779
▁wrote	-7780
▁reward	-7781
질을	-7782
▁전면	-7783
▁모바일	-7784
igious	-7785
▁faith	-7786
▁decide	-7787
▁suggested	-7788
▁김영	-7789
▁들고	-7790
▁발급	-7791
▁Geum	-7792
unicipal	-7793
:30	-7794
ression	-7795
▁decline	-7796
▁벽	-7797
버스	-7798
▁때마다	-7799
17	-7800
▁believed	-7801
▁정책을	-7802
▁검찰이	-7803
▁Comm	-7804
▁shot	-7805
▁생각합니다	-7806
▁암호	-7807
▁KBS	-7808
▁blockchain	-7809
전한	-7810
.4%	-7811
hol	-7812
지사가	-7813
조정	-7814
▁기대된다	-7815
▁warning	-7816
erved	-7817
▁journ	-7818
▁digital	-7819
▁expects	-7820
목이	-7821
▁decrease	-7822
▁difficulty	-7823
재단	-7824
▁(5	-7825
▁구입	-7826
▁예측	-7827
▁Museum	-7828
▁꾸준히	-7829
▁앱	-7830
▁Chun	-7831
▁따뜻	-7832
만원을	-7833
훼손	-7834
▁hop	-7835
▁filled	-7836
레스	-7837
ulner	-7838
▁offer	-7839
▁judges	-7840
▁mission	-7841
히는	-7842
▁즉시	-7843
▁rob	-7844
▁쓴	-7845
공원	-7846
▁말이	-7847
▁위에	-7848
이라도	-7849
▁shop	-7850
▁Did	-7851
.6%	-7852
▁cy	-7853
▁Hol	-7854
▁newsp	-7855
대문	-7856
영화	-7857
▁spend	-7858
.3%	-7859
▁직무	-7860
▁male	-7861
▁calls	-7862
▁장관이	-7863
▁path	-7864
보면	-7865
4,	-7866
▁충남	-7867
osan	-7868
▁멕시코	-7869
▁unfair	-7870
▁행사가	-7871
▁style	-7872
▁encourage	-7873
▁친환경	-7874
▁unable	-7875
▁Inter	-7876
▁danger	-7877
FA	-7878
sts	-7879
▁concerned	-7880
▁나머	-7881
▁나올	-7882
▁꺼	-7883
플레이	-7884
▁anyone	-7885
▁arch	-7886
▁있었습니다	-7887
▁뽑	-7888
▁광역	-7889
▁그때	-7890
▁이용할	-7891
▁sentenced	-7892
▁assessment	-7893
▁시작했다	-7894
▁이용해	-7895
▁Could	-7896
생이	-7897
신을	-7898
▁내에	-7899
▁일단	-7900
▁roads	-7901
▁myself	-7902
▁Construction	-7903
▁갖추	-7904
▁했던	-7905
▁plants	-7906
3,	-7907
wha	-7908
많은	-7909
▁가까운	-7910
위원회가	-7911
▁News	-7912
overed	-7913
뮤니	-7914
▁quant	-7915
같은	-7916
▁발행	-7917
▁상호	-7918
▁Exper	-7919
▁display	-7920
ij	-7921
▁휘	-7922
▁diseases	-7923
▁위협	-7924
전에서	-7925
▁소요	-7926
.2%	-7927
▁원활	-7928
yond	-7929
▁crack	-7930
▁바다	-7931
▁beyond	-7932
▁병원	-7933
동이	-7934
▁상황이다	-7935
▁volume	-7936
▁fashion	-7937
▁tourist	-7938
▁missing	-7939
▁디자	-7940
▁울산	-7941
▁potential	-7942
▁allegations	-7943
zil	-7944
▁촉구	-7945
▁damaged	-7946
▁봄	-7947
▁모아	-7948
▁인수	-7949
meas	-7950
▁비슷한	-7951
▁ende	-7952
▁목적	-7953
▁leak	-7954
프트	-7955
▁유명한	-7956
▁지자체	-7957
opped	-7958
▁든	-7959
▁법무	-7960
▁실현	-7961
▁His	-7962
▁최선을	-7963
▁하면서	-7964
North	-7965
음이	-7966
.8%	-7967
▁가고	-7968
▁나왔	-7969
▁효과를	-7970
▁happened	-7971
osmet	-7972
▁perfect	-7973
점은	-7974
시부터	-7975
▁명예	-7976
▁책을	-7977
식과	-7978
의료	-7979
▁규정함을	-7980
▁wearing	-7981
▁기금	-7982
▁표시	-7983
▁시행령	-7984
iated	-7985
▁참석했다	-7986
▁index	-7987
▁nom	-7988
▁guard	-7989
▁기부	-7990
▁초청	-7991
▁4,	-7992
▁바꾸	-7993
▁장은	-7994
▁Gun	-7995
▁rooms	-7996
▁instruct	-7997
▁방문해	-7998
하겠다고	-7999
▁accused	-8000
▁calling	-8001
기구	-8002
▁종료	-8003
으로서	-8004
ivic	-8005
oday	-8006
군요	-8007
▁Former	-8008
▁빠져	-8009
▁shares	-8010
100	-8011
▁celebr	-8012
▁feeling	-8013
▁revised	-8014
▁혈	-8015
과정	-8016
ster	-8017
협의회	-8018
mark	-8019
▁끌어	-8020
▁진입	-8021
▁밥	-8022
▁맞춤	-8023
▁평생	-8024
▁Youth	-8025
개가	-8026
어로	-8027
▁사업이	-8028
▁asking	-8029
▁expensive	-8030
▁punishment	-8031
▁진행된	-8032
▁블록체인	-8033
▁solution	-8034
▁피부	-8035
번째	-8036
▁반면	-8037
▁축하	-8038
▁회장	-8039
▁카메라	-8040
▁false	-8041
▁Insurance	-8042
▁PC	-8043
▁named	-8044
▁processing	-8045
▁민원	-8046
▁흐름	-8047
▁figure	-8048
▁여야	-8049
▁코스	-8050
트로	-8051
하시	-8052
▁nice	-8053
▁sympt	-8054
▁때문입니다	-8055
▁decreased	-8056
▁히	-8057
tes	-8058
▁30%	-8059
▁smartphone	-8060
해온	-8061
▁체계	-8062
▁확인할	-8063
▁seat	-8064
▁double	-8065
성도	-8066
원들이	-8067
▁retirement	-8068
▁사건을	-8069
경영	-8070
시켰	-8071
▁당부	-8072
6,	-8073
▁나오고	-8074
ipping	-8075
▁부인	-8076
▁징수	-8077
areun	-8078
riage	-8079
▁Fil	-8080
▁많았다	-8081
▁farming	-8082
▁thorough	-8083
▁reservation	-8084
▁압박	-8085
▁BTS	-8086
▁About	-8087
▁개막	-8088
▁quite	-8089
▁폴	-8090
▁그곳	-8091
▁debt	-8092
▁모두가	-8093
까지는	-8094
▁sister	-8095
▁association	-8096
리핀	-8097
▁vulner	-8098
▁동영	-8099
▁victory	-8100
▁medicine	-8101
CC	-8102
cing	-8103
▁마음이	-8104
▁48	-8105
▁통화	-8106
▁Goyang	-8107
▁그들의	-8108
▁기대하고	-8109
▁있습니까	-8110
▁willing	-8111
됐고	-8112
소는	-8113
▁finally	-8114
당은	-8115
▁196	-8116
▁systems	-8117
에만	-8118
▁수요가	-8119
▁temporary	-8120
▁island	-8121
군의	-8122
식으로	-8123
시행	-8124
▁worker	-8125
▁conducting	-8126
▁43	-8127
▁재산	-8128
▁연출	-8129
▁일제	-8130
▁작가	-8131
만으로	-8132
▁stress	-8133
주로	-8134
▁volunteer	-8135
▁penal	-8136
▁Del	-8137
리며	-8138
어진	-8139
▁가게	-8140
▁등과	-8141
▁뛰어	-8142
▁lawsuit	-8143
▁affected	-8144
▁endeavor	-8145
이스	-8146
▁crypt	-8147
▁title	-8148
▁advertise	-8149
200	-8150
바이오	-8151
▁extreme	-8152
▁의혹을	-8153
▁법원	-8154
▁crimes	-8155
▁listen	-8156
고가	-8157
소에	-8158
▁떠나	-8159
▁별표	-8160
▁구청장에게	-8161
▁intelligence	-8162
ios	-8163
▁자격	-8164
▁자체가	-8165
▁바른미래	-8166
▁residential	-8167
▁근처	-8168
▁습	-8169
▁샘	-8170
▁풍부	-8171
aemun	-8172
관에	-8173
▁먹을	-8174
▁태풍	-8175
▁규모가	-8176
▁task	-8177
▁command	-8178
활동을	-8179
racy	-8180
▁이들의	-8181
oking	-8182
▁instru	-8183
▁master	-8184
▁공감	-8185
▁unlike	-8186
▁scholars	-8187
▁exclus	-8188
▁Joon	-8189
▁transl	-8190
보를	-8191
▁rein	-8192
▁trees	-8193
▁Bareun	-8194
규직	-8195
▁그린	-8196
▁새벽	-8197
phoon	-8198
▁counties	-8199
▁씨가	-8200
▁일부를	-8201
▁사업에	-8202
▁attracting	-8203
종합	-8204
▁Sea	-8205
▁spent	-8206
부서의	-8207
▁600	-8208
▁else	-8209
▁capacity	-8210
미가	-8211
▁사건이	-8212
위원회는	-8213
▁Economy	-8214
▁권한	-8215
▁좋을	-8216
▁한편	-8217
▁건립	-8218
▁챙	-8219
▁직업	-8220
▁complaints	-8221
위의	-8222
지기	-8223
▁통계	-8224
mical	-8225
▁Brazil	-8226
▁ep	-8227
asion	-8228
근로	-8229
시킨	-8230
우고	-8231
agers	-8232
▁갑자기	-8233
▁ones	-8234
▁foreigners	-8235
.1%	-8236
▁계산	-8237
▁120	-8238
▁가르	-8239
▁만난	-8240
건강	-8241
트에	-8242
펀드	-8243
▁기소	-8244
▁creat	-8245
▁헬	-8246
▁사상	-8247
▁discussions	-8248
▁semiconductor	-8249
등록	-8250
협의	-8251
▁apprec	-8252
▁해양	-8253
▁하겠습니다	-8254
▁fixed	-8255
▁lunch	-8256
ocation	-8257
▁Russian	-8258
▁참석해	-8259
▁incur	-8260
▁sn	-8261
▁손을	-8262
▁후반	-8263
▁자본	-8264
▁device	-8265
▁offices	-8266
▁officers	-8267
▁홀	-8268
▁걸쳐	-8269
▁시범	-8270
▁patient	-8271
가에	-8272
상담	-8273
액을	-8274
▁repair	-8275
받아	-8276
▁길을	-8277
▁크리스	-8278
▁band	-8279
▁connect	-8280
▁운행	-8281
▁상대적으로	-8282
▁Kakao	-8283
▁soldiers	-8284
▁보기	-8285
▁폭행	-8286
▁세부	-8287
▁Organization	-8288
▁부분이	-8289
재가	-8290
▁삶의	-8291
▁Through	-8292
key	-8293
▁먹는	-8294
iable	-8295
▁Therefore	-8296
▁violation	-8297
▁그들이	-8298
▁Oper	-8299
▁kept	-8300
▁ranked	-8301
▁폭발	-8302
▁처음이다	-8303
▁discussed	-8304
▁actors	-8305
aint	-8306
more	-8307
개혁	-8308
▁상징	-8309
heast	-8310
place	-8311
▁초기	-8312
▁미국과	-8313
지원센터	-8314
▁Prosecutors	-8315
▁작용	-8316
지게	-8317
▁인력	-8318
▁runs	-8319
▁independent	-8320
kg	-8321
건축	-8322
▁orders	-8323
했기	-8324
▁meant	-8325
▁단지	-8326
▁교육감	-8327
▁merch	-8328
▁내에서	-8329
▁stopped	-8330
▁theater	-8331
▁곤	-8332
off	-8333
▁설명이다	-8334
▁remember	-8335
▁직장	-8336
▁Due	-8337
권의	-8338
asty	-8339
▁Energy	-8340
income	-8341
▁lived	-8342
▁Securities	-8343
▁practical	-8344
부장	-8345
션을	-8346
▁운용	-8347
▁characters	-8348
▁자금	-8349
▁learned	-8350
▁baseball	-8351
관과	-8352
▁비밀	-8353
▁애플	-8354
isheries	-8355
비는	-8356
▁대로	-8357
▁물품	-8358
uting	-8359
▁예고	-8360
▁effort	-8361
시오	-8362
▁EU	-8363
ocracy	-8364
▁deposit	-8365
▁functions	-8366
▁Headquarters	-8367
도와	-8368
▁42	-8369
free	-8370
▁여기서	-8371
▁admission	-8372
▁lots	-8373
▁55	-8374
▁capt	-8375
▁drinking	-8376
▁미안	-8377
▁Official	-8378
공단	-8379
▁열어	-8380
▁이슈	-8381
▁자전거	-8382
imate	-8383
▁features	-8384
▁잊	-8385
▁남은	-8386
▁적은	-8387
aling	-8388
▁France	-8389
스티	-8390
▁물어	-8391
▁공개된	-8392
▁수사를	-8393
▁kinds	-8394
▁mental	-8395
▁듣고	-8396
▁Tax	-8397
▁abol	-8398
▁explan	-8399
▁pret	-8400
▁completion	-8401
▁커지고	-8402
▁Superv	-8403
▁talking	-8404
률을	-8405
월까지	-8406
▁목소리가	-8407
▁광주시	-8408
elong	-8409
mirae	-8410
▁reducing	-8411
▁interests	-8412
▁인구	-8413
▁있어야	-8414
merce	-8415
처가	-8416
▁저렴	-8417
allyu	-8418
▁발생하는	-8419
MW	-8420
규칙	-8421
연을	-8422
jun	-8423
▁영화를	-8424
▁부탁드립니다	-8425
▁가을	-8426
▁좋다	-8427
▁kil	-8428
▁따른다	-8429
▁core	-8430
▁drunk	-8431
ither	-8432
▁reflected	-8433
▁고령	-8434
▁수집	-8435
▁지시	-8436
▁한국인	-8437
▁urgent	-8438
▁suspect	-8439
rep	-8440
▁개별	-8441
점검	-8442
▁Ag	-8443
▁checked	-8444
▁commemor	-8445
▁던	-8446
raft	-8447
▁stab	-8448
▁livestock	-8449
심이	-8450
▁조건	-8451
▁foods	-8452
▁Af	-8453
▁월드컵	-8454
▁briefing	-8455
▁shock	-8456
▁corres	-8457
▁cosmet	-8458
90	-8459
IT	-8460
개선	-8461
▁카카오	-8462
▁MBC	-8463
▁bul	-8464
▁pan	-8465
▁부족한	-8466
▁prosecutor	-8467
연금	-8468
▁부회	-8469
일에는	-8470
pass	-8471
▁살고	-8472
sidering	-8473
▁공연을	-8474
aging	-8475
▁pushed	-8476
▁symbol	-8477
▁호주	-8478
▁어려워	-8479
▁중국이	-8480
▁덜	-8481
▁기온	-8482
▁앨범	-8483
▁eco	-8484
▁의견이	-8485
▁baby	-8486
▁couple	-8487
회계	-8488
▁거듭	-8489
▁마이크	-8490
▁시장에	-8491
▁Geun	-8492
▁flag	-8493
24	-8494
king	-8495
thening	-8496
▁결론	-8497
ightly	-8498
▁experiences	-8499
ny	-8500
▁짓	-8501
▁공장	-8502
▁악화	-8503
▁touch	-8504
▁parliamentary	-8505
▁Inst	-8506
▁cryptoc	-8507
▁싫	-8508
학을	-8509
▁피해가	-8510
arden	-8511
▁excessive	-8512
▁scored	-8513
▁resolve	-8514
ui	-8515
▁교환	-8516
▁취임	-8517
▁hyd	-8518
▁몽	-8519
▁달성	-8520
▁철저	-8521
▁알게	-8522
▁참여해	-8523
▁vers	-8524
운용	-8525
isted	-8526
▁behav	-8527
▁Christian	-8528
nes	-8529
▁주식	-8530
▁했는데	-8531
▁print	-8532
▁인천광역시	-8533
▁sending	-8534
제에	-8535
▁유엔	-8536
▁looked	-8537
▁accepted	-8538
▁suspicion	-8539
▁establishing	-8540
아이	-8541
자리	-8542
▁커뮤니	-8543
▁류	-8544
▁웹	-8545
▁도전	-8546
▁절대	-8547
▁같은데	-8548
▁시작된	-8549
▁줄어들	-8550
▁구체적인	-8551
▁license	-8552
신이	-8553
▁신경	-8554
▁전년	-8555
조사를	-8556
▁Sub	-8557
체험	-8558
▁ju	-8559
chul	-8560
▁아이디어	-8561
▁Mi	-8562
▁조합	-8563
▁camera	-8564
▁younger	-8565
▁integrated	-8566
▁liqu	-8567
▁secured	-8568
▁암호화폐	-8569
▁worry	-8570
▁judicial	-8571
▁manufacture	-8572
▁Goo	-8573
▁Today	-8574
▁Middle	-8575
▁assign	-8576
▁suddenly	-8577
연이	-8578
▁않아요	-8579
rogen	-8580
▁stead	-8581
▁thank	-8582
▁kindergartens	-8583
▁이외	-8584
aches	-8585
▁국토교통	-8586
aturday	-8587
겠어	-8588
셔야	-8589
예산	-8590
eed	-8591
▁단속	-8592
▁Mon	-8593
▁handle	-8594
▁finding	-8595
▁favorite	-8596
국민	-8597
▁solid	-8598
장애인	-8599
▁드리	-8600
▁currency	-8601
▁interpreted	-8602
지구	-8603
▁자랑	-8604
▁투표	-8605
▁animals	-8606
▁applying	-8607
업계	-8608
▁기타	-8609
▁협약	-8610
▁열린다	-8611
▁Medical	-8612
▁Ui	-8613
enger	-8614
해가	-8615
▁임금	-8616
▁doub	-8617
▁진행된다	-8618
cri	-8619
▁suspended	-8620
▁convenient	-8621
▁alternative	-8622
▁뜻을	-8623
▁새롭게	-8624
▁Rights	-8625
▁injured	-8626
▁나무	-8627
▁집에서	-8628
▁animal	-8629
▁seemed	-8630
▁comments	-8631
▁Koreas	-8632
▁이어질	-8633
▁Ste	-8634
▁ele	-8635
▁minute	-8636
▁하나의	-8637
pective	-8638
▁패션	-8639
▁excluded	-8640
학년	-8641
▁브라질	-8642
▁생각한다	-8643
▁politics	-8644
▁Spe	-8645
▁완전히	-8646
사한	-8647
▁골프	-8648
▁포기	-8649
▁ICT	-8650
▁prob	-8651
pyeong	-8652
▁accur	-8653
▁갖춘	-8654
▁참고	-8655
▁힘든	-8656
▁Bang	-8657
▁teen	-8658
▁declaration	-8659
▁experienced	-8660
▁비용을	-8661
▁칼	-8662
교회	-8663
재산	-8664
▁Grand	-8665
▁dischar	-8666
▁44	-8667
▁gets	-8668
▁rules	-8669
▁Unlike	-8670
AN	-8671
▁유출	-8672
iling	-8673
▁painting	-8674
▁sides	-8675
▁refuge	-8676
▁흔들	-8677
▁pleas	-8678
▁walking	-8679
범죄	-8680
▁터키	-8681
자들을	-8682
▁고발	-8683
▁하나요	-8684
서울특별시	-8685
시설을	-8686
iors	-8687
질환	-8688
▁잠시	-8689
type	-8690
▁시대	-8691
▁아내	-8692
▁technical	-8693
시민	-8694
▁노출	-8695
▁연습	-8696
▁스타트	-8697
▁electricity	-8698
로가	-8699
▁수많은	-8700
▁judgment	-8701
▁의뢰	-8702
▁주인공	-8703
▁jointly	-8704
면을	-8705
▁담은	-8706
▁기능을	-8707
▁묘	-8708
허가	-8709
▁정한	-8710
lines	-8711
▁대표적인	-8712
▁truth	-8713
드리겠습니다	-8714
끄는	-8715
▁타이	-8716
▁Person	-8717
▁금리	-8718
▁생각을	-8719
▁Your	-8720
▁manner	-8721
법이	-8722
▁이메	-8723
▁관련한	-8724
니아	-8725
았고	-8726
재정	-8727
ampionship	-8728
▁짐	-8729
uri	-8730
▁5,	-8731
▁삶을	-8732
elines	-8733
▁Civil	-8734
▁historical	-8735
ynasty	-8736
▁담겨	-8737
▁보낸	-8738
▁vulnerable	-8739
▁presentation	-8740
gence	-8741
▁reporter	-8742
▁accum	-8743
▁museum	-8744
시킬	-8745
▁trading	-8746
▁artificial	-8747
▁케	-8748
▁downt	-8749
여성	-8750
명한	-8751
wook	-8752
▁구성된	-8753
▁outstanding	-8754
평화	-8755
▁진단	-8756
heung	-8757
▁southern	-8758
ero	-8759
▁India	-8760
▁Investment	-8761
▁드러났다	-8762
▁clearly	-8763
fin	-8764
▁catch	-8765
▁쓸	-8766
▁operator	-8767
자금	-8768
학습	-8769
▁fif	-8770
▁위원회	-8771
▁San	-8772
▁mag	-8773
▁announce	-8774
국가	-8775
수사	-8776
▁요리	-8777
▁square	-8778
▁적합	-8779
▁후원	-8780
▁삼성전자	-8781
▁flu	-8782
▁받아야	-8783
▁책임을	-8784
▁surrounding	-8785
▁점점	-8786
되자	-8787
▁출범	-8788
▁우수한	-8789
▁Team	-8790
▁필요하다는	-8791
▁guidance	-8792
▁하게	-8793
▁이유가	-8794
paren	-8795
▁Nowon	-8796
▁gradually	-8797
▁유튜	-8798
▁shut	-8799
▁entry	-8800
분쯤	-8801
테크	-8802
▁에어	-8803
▁Val	-8804
▁diss	-8805
▁mall	-8806
holders	-8807
▁musical	-8808
▁requires	-8809
▁designation	-8810
▁소상공	-8811
▁지급할	-8812
▁한국과	-8813
▁sad	-8814
▁여러분	-8815
▁폼	-8816
▁안타	-8817
▁Indonesia	-8818
▁이번이	-8819
▁attra	-8820
▁conver	-8821
▁완벽	-8822
▁입고	-8823
▁기대한다	-8824
bassad	-8825
▁guide	-8826
▁manip	-8827
제한	-8828
▁Hak	-8829
▁lawyer	-8830
사진	-8831
▁개입	-8832
인에게	-8833
▁SME	-8834
▁지역에서	-8835
치지	-8836
▁출입	-8837
▁풀이	-8838
▁김문	-8839
▁누구나	-8840
▁대표팀	-8841
▁되나요	-8842
▁System	-8843
▁symptoms	-8844
▁필리핀	-8845
▁golf	-8846
▁falls	-8847
▁register	-8848
ES	-8849
▁laws	-8850
부서	-8851
우드	-8852
▁만한	-8853
▁budgetary	-8854
받을	-8855
DA	-8856
공개	-8857
▁Mond	-8858
농업	-8859
iar	-8860
▁승인	-8861
▁trou	-8862
▁어린이집	-8863
▁추진하는	-8864
▁득	-8865
▁lik	-8866
▁borrow	-8867
▁삭	-8868
▁다녀	-8869
▁엄청	-8870
▁일찍	-8871
▁주민들이	-8872
▁Yi	-8873
▁Mong	-8874
▁debate	-8875
▁말레이	-8876
▁blue	-8877
▁stated	-8878
▁strengthening	-8879
▁참여할	-8880
▁window	-8881
▁공직	-8882
▁인물	-8883
▁국내외	-8884
자들에게	-8885
lowing	-8886
▁bid	-8887
소로	-8888
파크	-8889
▁Joo	-8890
▁옛	-8891
exp	-8892
▁저희가	-8893
▁homes	-8894
▁개의	-8895
▁아르	-8896
▁가능성을	-8897
▁가구	-8898
▁고통	-8899
▁좋지	-8900
▁spons	-8901
▁끈	-8902
▁싶은데	-8903
iberation	-8904
▁ice	-8905
▁경기도와	-8906
▁현장에서	-8907
▁balance	-8908
▁continuously	-8909
과는	-8910
rab	-8911
▁그려	-8912
▁특징이다	-8913
▁trustee	-8914
▁품질	-8915
심사	-8916
▁검색	-8917
▁구분	-8918
▁음주	-8919
▁나머지	-8920
iform	-8921
▁White	-8922
문은	-8923
잖아	-8924
▁그리	-8925
▁선임	-8926
▁실험	-8927
▁일어	-8928
▁civic	-8929
▁재무	-8930
▁태국	-8931
▁미디어	-8932
phones	-8933
▁innovative	-8934
▁전북	-8935
▁Pal	-8936
▁strongly	-8937
석을	-8938
▁점이다	-8939
itizen	-8940
▁Saturday	-8941
나가	-8942
▁부서	-8943
▁종교	-8944
▁ult	-8945
▁Sohn	-8946
▁자신을	-8947
ellow	-8948
등급	-8949
제의	-8950
아시아	-8951
이라면	-8952
▁regardless	-8953
▁i	-8954
대와	-8955
연구원	-8956
▁interesting	-8957
▁만들기	-8958
▁여행을	-8959
▁marriage	-8960
dom	-8961
▁길이	-8962
▁밝히	-8963
works	-8964
▁immig	-8965
▁departments	-8966
▁119	-8967
andal	-8968
▁mart	-8969
▁tickets	-8970
▁overcome	-8971
▁당선	-8972
▁보상	-8973
▁활성화를	-8974
▁ideas	-8975
▁cancel	-8976
▁doctor	-8977
▁applicants	-8978
▁법령	-8979
▁memory	-8980
▁향해	-8981
▁알려진	-8982
▁운영을	-8983
fight	-8984
▁defe	-8985
▁Malays	-8986
▁criteria	-8987
▁획	-8988
▁수강	-8989
경기도	-8990
▁누가	-8991
▁일주	-8992
▁via	-8993
▁100%	-8994
Gu	-8995
▁그를	-8996
▁recommendation	-8997
IN	-8998
향을	-8999
▁signs	-9000
▁굴	-9001
hel	-9002
run	-9003
yeo	-9004
▁신설	-9005
▁실천	-9006
engers	-9007
었을	-9008
bre	-9009
hab	-9010
▁bi	-9011
▁보완	-9012
▁환불	-9013
▁psy	-9014
▁장관은	-9015
rench	-9016
▁amend	-9017
▁Bareunmirae	-9018
ded	-9019
▁지출	-9020
▁필수	-9021
ompe	-9022
ius	-9023
▁committed	-9024
만에	-9025
시의	-9026
cks	-9027
▁보급	-9028
▁제품이	-9029
▁선수들이	-9030
▁dispute	-9031
▁incurred	-9032
▁오픈	-9033
▁시장의	-9034
kyung	-9035
omb	-9036
▁봉사	-9037
ohol	-9038
neung	-9039
CEO	-9040
▁치열	-9041
▁fer	-9042
eor	-9043
▁여의	-9044
조차	-9045
▁만날	-9046
▁아쉬	-9047
음에도	-9048
▁gre	-9049
▁대부분의	-9050
▁sentence	-9051
▁드릴	-9052
▁시군	-9053
▁자산	-9054
▁허가	-9055
▁recovery	-9056
▁Pyeongtaek	-9057
inite	-9058
regular	-9059
▁Adv	-9060
개국	-9061
법에	-9062
▁비난	-9063
▁occurs	-9064
▁salary	-9065
주시면	-9066
Japan	-9067
▁Arts	-9068
종의	-9069
▁Children	-9070
안은	-9071
▁교회	-9072
▁scen	-9073
▁2016,	-9074
▁노력하여야	-9075
▁hor	-9076
▁저에게	-9077
▁upon	-9078
▁exem	-9079
▁rent	-9080
7,	-9081
기금	-9082
단계	-9083
▁지배	-9084
cohol	-9085
되었습니다	-9086
지며	-9087
▁북부	-9088
▁총괄	-9089
▁중요하다	-9090
영업	-9091
ote	-9092
페이오	-9093
communic	-9094
iplinary	-9095
▁approved	-9096
▁stone	-9097
▁thanks	-9098
▁방법을	-9099
▁scale	-9100
▁곳에	-9101
▁깊은	-9102
▁레이	-9103
▁의혹이	-9104
▁chicken	-9105
▁okay	-9106
상품	-9107
▁위원장	-9108
▁제외한	-9109
▁aimed	-9110
▁dro	-9111
▁10,000	-9112
▁그러면	-9113
▁Pompe	-9114
▁혹은	-9115
▁regulation	-9116
▁이건	-9117
▁wid	-9118
▁Friday	-9119
▁machine	-9120
▁subparagraphs	-9121
▁노원	-9122
▁촉진	-9123
▁arm	-9124
right	-9125
▁transactions	-9126
joon	-9127
▁boo	-9128
▁wood	-9129
▁gives	-9130
▁stars	-9131
▁damages	-9132
▁discrim	-9133
처를	-9134
▁기울	-9135
▁변화가	-9136
졌습니다	-9137
▁만들고	-9138
itime	-9139
▁rare	-9140
▁phen	-9141
▁grounds	-9142
▁지구	-9143
▁Pan	-9144
▁Canada	-9145
▁Forest	-9146
▁Bar	-9147
▁그녀의	-9148
Se	-9149
▁검증	-9150
▁그래도	-9151
▁될까요	-9152
▁suspension	-9153
▁ingredients	-9154
관련	-9155
됐던	-9156
bed	-9157
▁사우	-9158
▁연예	-9159
었다고	-9160
▁Philipp	-9161
▁reporting	-9162
▁발생할	-9163
년에는	-9164
▁amid	-9165
▁failure	-9166
▁춤	-9167
▁늘어난	-9168
▁Partic	-9169
ER	-9170
▁갤	-9171
▁사장	-9172
called	-9173
▁말레이시아	-9174
▁strike	-9175
▁conservative	-9176
▁훌	-9177
▁불거	-9178
▁자문	-9179
리즈	-9180
비용	-9181
▁부진	-9182
▁이틀	-9183
▁상반기	-9184
▁tree	-9185
-3	-9186
봤다	-9187
▁외에	-9188
▁certification	-9189
tr	-9190
유의	-9191
▁강력한	-9192
▁핸	-9193
icro	-9194
▁Mat	-9195
▁알려져	-9196
▁46	-9197
▁떨어진	-9198
▁인프라	-9199
▁fraud	-9200
▁Australia	-9201
▁consulting	-9202
▁출산	-9203
상에서	-9204
erent	-9205
▁videos	-9206
▁compr	-9207
▁tasks	-9208
▁creative	-9209
계층	-9210
ousand	-9211
▁route	-9212
▁굉	-9213
▁오르	-9214
▁정한다	-9215
▁프리미	-9216
myung	-9217
▁drawn	-9218
ym	-9219
졌고	-9220
▁높이	-9221
▁meat	-9222
▁shape	-9223
▁종사	-9224
▁Sum	-9225
▁goals	-9226
AI	-9227
▁간의	-9228
ulations	-9229
5%	-9230
식은	-9231
▁행사는	-9232
줍니다	-9233
▁보유한	-9234
asters	-9235
▁mur	-9236
▁되었습니다	-9237
▁Google	-9238
▁forecast	-9239
시다	-9240
▁겪고	-9241
▁식당	-9242
▁1.5	-9243
▁발표했다	-9244
▁Monday	-9245
▁널	-9246
인트	-9247
▁제거	-9248
속도로	-9249
▁아이돌	-9250
▁적극적인	-9251
▁checking	-9252
▁connected	-9253
▁enforcement	-9254
▁corporations	-9255
▁데뷔	-9256
▁원래	-9257
▁Est	-9258
▁fat	-9259
▁cryptocurrency	-9260
aters	-9261
▁lose	-9262
employ	-9263
certain	-9264
▁conversation	-9265
▁지휘	-9266
▁클럽	-9267
▁flood	-9268
▁attracted	-9269
9,	-9270
ole	-9271
▁Film	-9272
피언	-9273
▁장비	-9274
▁심의를	-9275
황을	-9276
▁vo	-9277
▁refer	-9278
▁Olympics	-9279
PG	-9280
▁구간	-9281
▁한국을	-9282
▁시작으로	-9283
중한	-9284
▁김문수	-9285
▁어렵다	-9286
▁laugh	-9287
▁collabor	-9288
▁transaction	-9289
▁개설	-9290
▁부총	-9291
okesman	-9292
▁earnest	-9293
▁distributed	-9294
▁시장에서	-9295
▁phenomen	-9296
MZ	-9297
▁샘플	-9298
▁역대	-9299
▁지연	-9300
▁제품은	-9301
▁dark	-9302
▁destro	-9303
▁believes	-9304
▁composed	-9305
쪽으로	-9306
▁왼	-9307
방이	-9308
▁끝에	-9309
▁시내	-9310
▁Sin	-9311
▁확인해	-9312
▁buses	-9313
▁Academ	-9314
▁비중이	-9315
▁사전에	-9316
▁하반기	-9317
▁rich	-9318
▁rural	-9319
▁지방자치단체	-9320
li	-9321
효과	-9322
▁고등학교	-9323
▁frequently	-9324
재판	-9325
▁finance	-9326
ja	-9327
▁까	-9328
▁evening	-9329
▁realize	-9330
(6	-9331
▁관세	-9332
▁save	-9333
▁plastic	-9334
▁subsidize	-9335
▁상장	-9336
▁efficiency	-9337
▁확장	-9338
▁Was	-9339
▁uniform	-9340
▁childcare	-9341
▁쌍	-9342
니터	-9343
▁사랑을	-9344
▁Green	-9345
▁상영	-9346
▁열렸다	-9347
icide	-9348
▁네트워크	-9349
▁‘2018	-9350
▁concluded	-9351
▁Considering	-9352
▁반환	-9353
▁Sund	-9354
▁narrow	-9355
▁attitude	-9356
▁거리	-9357
▁부담이	-9358
▁Camp	-9359
댓글	-9360
▁Road	-9361
▁lines	-9362
든지	-9363
▁YouT	-9364
▁constant	-9365
▁importance	-9366
▁민족	-9367
▁Girl	-9368
▁UN	-9369
▁나갈	-9370
▁corruption	-9371
▁eventually	-9372
선수	-9373
▁문화를	-9374
▁확인됐다	-9375
▁tired	-9376
교류	-9377
▁연말	-9378
▁선생님	-9379
▁굉장	-9380
▁김성	-9381
▁일은	-9382
▁전력	-9383
▁강남구	-9384
-0	-9385
▁느낄	-9386
▁포함된	-9387
▁fier	-9388
▁flex	-9389
▁models	-9390
long	-9391
▁clos	-9392
▁seeing	-9393
▁confident	-9394
▁쓰레	-9395
▁부위원	-9396
▁witness	-9397
uff	-9398
▁주의	-9399
정으로	-9400
▁올해는	-9401
▁폼페이오	-9402
▁구글	-9403
▁손흥	-9404
▁250	-9405
▁Soon	-9406
▁causes	-9407
kn	-9408
일은	-9409
▁단독	-9410
▁기록했다	-9411
▁아이들이	-9412
챔피언	-9413
▁loved	-9414
▁latest	-9415
▁essential	-9416
독교	-9417
gang	-9418
▁친구가	-9419
▁maximum	-9420
▁putting	-9421
▁감사합니다	-9422
▁typhoon	-9423
▁쌀	-9424
성의	-9425
▁finish	-9426
없는	-9427
▁사업은	-9428
▁menu	-9429
▁Jeolla	-9430
▁보존	-9431
▁어울	-9432
ogue	-9433
▁Ryu	-9434
▁전까지	-9435
▁2,000	-9436
역이	-9437
▁특허	-9438
▁1000	-9439
undred	-9440
ulating	-9441
▁bottom	-9442
▁평택	-9443
▁도서관	-9444
ensive	-9445
▁Power	-9446
▁argued	-9447
면에	-9448
▁dry	-9449
▁nurs	-9450
▁listed	-9451
▁justice	-9452
▁상황에	-9453
▁방지	-9454
▁증권	-9455
▁ran	-9456
▁공익	-9457
▁간담	-9458
▁wages	-9459
▁Cheonan	-9460
▁글을	-9461
▁당사	-9462
▁발달	-9463
▁drive	-9464
▁battle	-9465
▁regret	-9466
▁SBS	-9467
▁dial	-9468
▁outdoor	-9469
▁멈	-9470
▁coord	-9471
∼2	-9472
화로	-9473
wol	-9474
▁uses	-9475
▁watched	-9476
미를	-9477
보건	-9478
▁초대	-9479
▁stra	-9480
유가	-9481
▁리더	-9482
▁rum	-9483
▁들어서	-9484
▁rule	-9485
ued	-9486
▁있음을	-9487
employed	-9488
▁achieved	-9489
▁provision	-9490
▁훼손	-9491
스에서	-9492
▁심각한	-9493
▁names	-9494
▁kindergarten	-9495
참여	-9496
▁minim	-9497
▁helped	-9498
소의	-9499
▁자는	-9500
▁스페인	-9501
증권	-9502
화와	-9503
part	-9504
▁경기를	-9505
itect	-9506
▁Mexico	-9507
8,	-9508
▁면접	-9509
▁징역	-9510
▁경제적	-9511
▁아니냐는	-9512
▁distance	-9513
▁명확	-9514
eorological	-9515
직원	-9516
amework	-9517
2)	-9518
▁옮겨	-9519
근혜	-9520
orage	-9521
▁주목된다	-9522
amples	-9523
gn	-9524
티브	-9525
▁대해서도	-9526
▁depart	-9527
▁placed	-9528
▁성남	-9529
▁수비	-9530
▁Tem	-9531
▁levels	-9532
건에	-9533
책임	-9534
향이	-9535
▁블랙	-9536
▁채널	-9537
▁sometimes	-9538
하이	-9539
▁가로	-9540
▁비즈	-9541
▁양성	-9542
▁체크	-9543
▁disclosure	-9544
▁officially	-9545
▁operations	-9546
▁Supervisory	-9547
▁Any	-9548
nings	-9549
joo	-9550
▁194	-9551
▁Fol	-9552
▁가까이	-9553
▁시민들이	-9554
▁haven	-9555
▁문제로	-9556
▁포함해	-9557
▁컸	-9558
▁관할	-9559
▁받아들	-9560
ystem	-9561
▁French	-9562
▁multip	-9563
사인	-9564
oke	-9565
▁CJ	-9566
▁정착	-9567
▁인정하는	-9568
▁포장	-9569
▁sky	-9570
▁institute	-9571
동의	-9572
형이	-9573
▁와서	-9574
▁감독은	-9575
▁Rule	-9576
▁regime	-9577
▁센	-9578
aved	-9579
▁rescue	-9580
▁Stadium	-9581
▁subjects	-9582
▁awareness	-9583
▁작년	-9584
▁alcohol	-9585
▁century	-9586
▁똑	-9587
일간	-9588
▁부품	-9589
▁Corp	-9590
▁values	-9591
▁emerged	-9592
료는	-9593
AR	-9594
▁밝혔	-9595
power	-9596
▁boost	-9597
▁courses	-9598
▁맨	-9599
십시오	-9600
▁donation	-9601
▁complaint	-9602
▁벗어나	-9603
▁못해	-9604
소에서	-9605
▁construct	-9606
▁환자	-9607
사항을	-9608
▁West	-9609
▁Family	-9610
▁Seongnam	-9611
▁Gyeongnam	-9612
량의	-9613
▁낮아	-9614
▁경기가	-9615
▁remo	-9616
▁partners	-9617
fl	-9618
돼야	-9619
▁입학	-9620
inter	-9621
upper	-9622
val	-9623
▁Independ	-9624
▁극복	-9625
ohang	-9626
됨에	-9627
soon	-9628
이면	-9629
▁충북	-9630
▁작업을	-9631
▁stre	-9632
▁birthday	-9633
ask	-9634
yed	-9635
▁들어간	-9636
▁본격적인	-9637
▁Super	-9638
▁priority	-9639
▁affiliated	-9640
▁수여	-9641
▁married	-9642
▁accompan	-9643
대출	-9644
▁누군	-9645
▁늘고	-9646
▁Hallyu	-9647
▁sectors	-9648
▁cosmetics	-9649
▁메이	-9650
▁Wed	-9651
▁상품을	-9652
▁부상	-9653
▁생긴	-9654
됐다는	-9655
됐지만	-9656
역에서	-9657
▁대학생	-9658
▁할머니	-9659
▁purchased	-9660
▁거론	-9661
▁내다	-9662
▁말해	-9663
▁연령	-9664
▁경험을	-9665
▁고객이	-9666
▁minor	-9667
:00	-9668
▁2022	-9669
sa	-9670
설팅	-9671
▁개방	-9672
going	-9673
▁댓글	-9674
class	-9675
▁pil	-9676
▁맞춤형	-9677
▁사례가	-9678
▁veget	-9679
▁현금	-9680
데이터	-9681
bassador	-9682
▁venture	-9683
가능	-9684
▁전공	-9685
▁인하	-9686
▁뜨거운	-9687
▁제외하고	-9688
▁scandal	-9689
▁괴	-9690
▁공연이	-9691
▁내고	-9692
▁올려	-9693
▁시상	-9694
▁기업들이	-9695
▁fierce	-9696
▁모으	-9697
▁경기도의	-9698
▁분석했다	-9699
▁confidence	-9700
▁만남	-9701
▁노력을	-9702
ography	-9703
▁happen	-9704
▁천안	-9705
여명의	-9706
선의	-9707
항제	-9708
▁그간	-9709
▁저의	-9710
known	-9711
▁clin	-9712
▁wors	-9713
eter	-9714
▁idol	-9715
▁passion	-9716
이버	-9717
▁집단	-9718
▁최우	-9719
lying	-9720
▁expend	-9721
세기	-9722
▁선수가	-9723
▁burn	-9724
▁upper	-9725
시티	-9726
▁생각해	-9727
osystem	-9728
▁당부했다	-9729
▁firms	-9730
▁emerging	-9731
▁금감	-9732
▁응원	-9733
▁그런데	-9734
▁harass	-9735
▁individuals	-9736
son	-9737
▁급격	-9738
▁표준	-9739
▁화려	-9740
▁활용해	-9741
▁cooperative	-9742
▁applications	-9743
▁밑	-9744
▁샤	-9745
▁싶다	-9746
▁무엇을	-9747
▁appears	-9748
▁49	-9749
▁Es	-9750
▁Ko	-9751
▁못할	-9752
▁가치를	-9753
▁Paju	-9754
▁Dan	-9755
▁바이오	-9756
▁Would	-9757
▁띄	-9758
▁재활	-9759
▁계기로	-9760
▁발생했다	-9761
▁drugs	-9762
apt	-9763
▁영상을	-9764
▁paint	-9765
▁텐	-9766
▁사로	-9767
▁enjoyed	-9768
▁extended	-9769
지능	-9770
▁pled	-9771
▁자원봉사	-9772
▁revers	-9773
▁figures	-9774
▁stations	-9775
▁grades	-9776
▁suitable	-9777
▁hospitals	-9778
pa	-9779
isure	-9780
▁Meteorological	-9781
hop	-9782
▁경고	-9783
▁바이	-9784
▁실시간	-9785
▁throw	-9786
▁Dynasty	-9787
▁districts	-9788
▁disciplinary	-9789
▁조기	-9790
▁태양	-9791
판매	-9792
▁진짜	-9793
aped	-9794
▁tend	-9795
▁커뮤니티	-9796
▁passing	-9797
▁behavior	-9798
▁lectures	-9799
▁spreading	-9800
▁passengers	-9801
SS	-9802
▁가맹	-9803
▁특성	-9804
▁Myeong	-9805
▁shipping	-9806
ari	-9807
▁보육	-9808
▁이웃	-9809
▁집계	-9810
▁불가피	-9811
▁inconvenience	-9812
객이	-9813
아야	-9814
▁곳은	-9815
istan	-9816
▁king	-9817
▁바른미래당	-9818
DP	-9819
이한	-9820
▁마치	-9821
▁스토	-9822
▁출전	-9823
하려면	-9824
▁holidays	-9825
▁메시지를	-9826
▁debut	-9827
▁fifth	-9828
▁Strate	-9829
주에	-9830
추진	-9831
obile	-9832
▁advice	-9833
▁newspaper	-9834
esus	-9835
라스	-9836
▁당장	-9837
▁유도	-9838
▁이민	-9839
ommod	-9840
▁broken	-9841
▁colors	-9842
▁thousand	-9843
ney	-9844
▁복합	-9845
▁질병	-9846
▁earthqu	-9847
▁equipped	-9848
▁발송	-9849
▁anx	-9850
프로그램	-9851
▁diplomatic	-9852
▁hurt	-9853
율은	-9854
▁대학교	-9855
▁Speaker	-9856
▁benefit	-9857
▁가면	-9858
▁tro	-9859
▁Afric	-9860
▁judged	-9861
▁league	-9862
신고	-9863
▁Innov	-9864
27	-9865
▁플레이	-9866
▁효율적인	-9867
▁Pohang	-9868
▁대행	-9869
▁매체	-9870
▁사립	-9871
▁수능	-9872
▁정치적	-9873
▁setting	-9874
재생	-9875
▁Analy	-9876
▁Stand	-9877
building	-9878
▁transferred	-9879
▁질문	-9880
▁inqu	-9881
▁ready	-9882
평등	-9883
▁매각	-9884
▁pra	-9885
▁epis	-9886
▁wild	-9887
▁confirmation	-9888
IA	-9889
연맹	-9890
▁일정을	-9891
하나	-9892
▁하늘	-9893
▁이어지고	-9894
▁extent	-9895
기기	-9896
▁차단	-9897
▁forum	-9898
▁border	-9899
▁comfortable	-9900
▁좁	-9901
수와	-9902
▁artist	-9903
▁감염	-9904
▁설정	-9905
▁시기	-9906
▁한국은	-9907
▁mouth	-9908
▁이르	-9909
입니까	-9910
▁화장품	-9911
▁Kwang	-9912
▁mostly	-9913
▁47	-9914
▁나눠	-9915
▁손님	-9916
져야	-9917
▁foster	-9918
▁expression	-9919
▁Tok	-9920
우가	-9921
▁노후	-9922
▁저희는	-9923
▁British	-9924
경이	-9925
▁뮤지	-9926
▁tim	-9927
▁bright	-9928
청소년	-9929
▁actions	-9930
▁contracts	-9931
▁Yun	-9932
▁Mongol	-9933
▁concentration	-9934
▁계열	-9935
▁계좌	-9936
▁손해	-9937
▁종전	-9938
duces	-9939
▁과학기술	-9940
▁combined	-9941
▁난민	-9942
▁strugg	-9943
▁demanded	-9944
▁pollution	-9945
▁Car	-9946
▁treated	-9947
").	-9948
iscal	-9949
▁확인하고	-9950
이사	-9951
▁점도	-9952
▁Society	-9953
▁unification	-9954
▁뚜	-9955
감사	-9956
▁철도	-9957
▁팀이	-9958
▁jump	-9959
▁invited	-9960
▁execution	-9961
▁explanation	-9962
▁세월	-9963
▁여성이	-9964
▁Engine	-9965
▁storage	-9966
▁complexes	-9967
▁컬	-9968
▁Communic	-9969
▁notified	-9970
▁당초	-9971
▁유리	-9972
uggish	-9973
▁Rev	-9974
▁lux	-9975
▁실시한	-9976
issions	-9977
uations	-9978
시키고	-9979
ledged	-9980
▁affect	-9981
▁잡고	-9982
▁혜택을	-9983
letes	-9984
▁meals	-9985
▁부장	-9986
▁나선다	-9987
▁굉장히	-9988
▁Pompeo	-9989
▁accommod	-9990
▁이끌어	-9991
▁sweet	-9992
북부	-9993
▁동반	-9994
▁종목	-9995
▁폐지	-9996
▁bra	-9997
▁indict	-9998
▁니	-9999
트너	-10000
▁일본의	-10001
ousing	-10002
▁보냈	-10003
▁올린	-10004
▁enth	-10005
▁Western	-10006
▁수영	-10007
▁지원에	-10008
board	-10009
nesday	-10010
▁shops	-10011
▁carrying	-10012
▁comprised	-10013
▁recognition	-10014
▁바꿔	-10015
▁성적	-10016
▁부모님	-10017
▁사로잡	-10018
▁drew	-10019
▁감정	-10020
▁징계	-10021
▁방법으로	-10022
▁Jesus	-10023
▁ecosystem	-10024
로구	-10025
▁단축	-10026
▁대폭	-10027
▁SMEs	-10028
사용	-10029
▁sluggish	-10030
▁긴장	-10031
▁돌파	-10032
▁상위	-10033
▁주어	-10034
▁bicy	-10035
▁injury	-10036
▁꿈을	-10037
▁수시	-10038
▁기다려	-10039
▁치료를	-10040
▁5,000	-10041
▁가능합니다	-10042
▁시장을	-10043
▁mail	-10044
▁claims	-10045
▁contribution	-10046
21	-10047
기한	-10048
▁unve	-10049
▁BMW	-10050
▁anc	-10051
▁wed	-10052
▁그만큼	-10053
▁있으나	-10054
▁challenge	-10055
▁delicious	-10056
arr	-10057
loom	-10058
▁Cha	-10059
수도	-10060
▁Aud	-10061
▁테스트	-10062
권에	-10063
usi	-10064
▁195	-10065
onent	-10066
▁arrive	-10067
▁가동	-10068
▁분위기	-10069
vious	-10070
▁우리에게	-10071
▁deadline	-10072
▁피해자	-10073
▁Company	-10074
▁allowing	-10075
▁feelings	-10076
▁채택	-10077
▁Bae	-10078
craft	-10079
▁offered	-10080
▁개념	-10081
aded	-10082
▁cast	-10083
▁flowers	-10084
▁바닥	-10085
▁실태	-10086
▁designate	-10087
▁2017,	-10088
▁벨	-10089
▁짜	-10090
우리	-10091
▁급증	-10092
▁눈이	-10093
▁유튜브	-10094
pping	-10095
▁Shim	-10096
▁사람들의	-10097
▁Hanwha	-10098
▁performing	-10099
더니	-10100
번에	-10101
▁수석	-10102
▁권고	-10103
▁티켓	-10104
▁lowest	-10105
▁sample	-10106
▁한국당	-10107
▁Xi	-10108
▁maintained	-10109
▁방탄	-10110
▁쓰는	-10111
▁그것이	-10112
law	-10113
ishes	-10114
▁conflicts	-10115
▁끌고	-10116
2018	-10117
▁기술이	-10118
▁glass	-10119
▁journal	-10120
▁무역전쟁	-10121
▁mixed	-10122
▁전문가들은	-10123
▁stance	-10124
주도	-10125
▁합동	-10126
▁ign	-10127
▁계약을	-10128
▁전부터	-10129
uction	-10130
▁articles	-10131
상과	-10132
▁복잡	-10133
▁수학	-10134
▁고려해	-10135
▁pattern	-10136
▁formulate	-10137
ilk	-10138
▁가슴	-10139
▁Yeou	-10140
▁suspicions	-10141
▁들여	-10142
▁슈퍼	-10143
▁있으니	-10144
바이	-10145
▁올림픽	-10146
▁greet	-10147
▁north	-10148
▁topic	-10149
▁실내	-10150
▁앉아	-10151
면서도	-10152
▁곳으로	-10153
▁plays	-10154
▁합격	-10155
▁이제는	-10156
▁한국이	-10157
idden	-10158
▁사회복지	-10159
▁Changwon	-10160
▁보인	-10161
▁생명	-10162
▁지불	-10163
under	-10164
일과	-10165
▁41	-10166
▁활약	-10167
▁statutes	-10168
eek	-10169
▁백악	-10170
▁취득	-10171
▁해주	-10172
▁결승	-10173
▁자극	-10174
▁위원회는	-10175
▁hundred	-10176
주차	-10177
▁취재	-10178
▁obtained	-10179
▁집을	-10180
▁Gwan	-10181
시설의	-10182
ites	-10183
▁변화를	-10184
▁2006	-10185
기지	-10186
▁breat	-10187
▁cooking	-10188
▁년	-10189
rat	-10190
▁기계	-10191
look	-10192
력에	-10193
모델	-10194
▁반려	-10195
▁조작	-10196
illa	-10197
▁이끄는	-10198
useok	-10199
▁3,000	-10200
▁Command	-10201
▁municipal	-10202
▁guidelines	-10203
▁contributed	-10204
검사	-10205
비아	-10206
▁전개	-10207
▁isn	-10208
stain	-10209
▁간단	-10210
▁미치는	-10211
▁Bong	-10212
▁customized	-10213
▁학교에	-10214
▁recover	-10215
가스	-10216
▁계기가	-10217
▁fuel	-10218
▁bonds	-10219
▁naturally	-10220
▁문의	-10221
▁챔피언	-10222
▁hydrogen	-10223
▁procedure	-10224
▁우즈	-10225
▁그녀가	-10226
▁하나로	-10227
▁nearly	-10228
▁stabil	-10229
▁enthusi	-10230
▁supports	-10231
▁입은	-10232
▁초등학교	-10233
▁핸드	-10234
▁차원에서	-10235
▁tight	-10236
드러	-10237
▁이유를	-10238
water	-10239
▁copy	-10240
iciary	-10241
의원	-10242
시까지	-10243
▁시설을	-10244
▁요구하는	-10245
▁Seocho	-10246
▁diverse	-10247
트의	-10248
▁김동	-10249
▁추세	-10250
ellect	-10251
▁YouTube	-10252
▁뿐만	-10253
▁원인	-10254
erior	-10255
▁예산을	-10256
▁efficiently	-10257
사랑	-10258
▁identified	-10259
▁꼬	-10260
만한	-10261
yeol	-10262
▁shooting	-10263
▁slightly	-10264
판을	-10265
▁인지	-10266
▁증명	-10267
▁차를	-10268
등학생	-10269
▁들었다	-10270
▁recru	-10271
선에	-10272
▁강릉	-10273
▁입을	-10274
▁호소	-10275
▁통해서	-10276
▁Buddh	-10277
▁apolog	-10278
▁reorgan	-10279
▁suicide	-10280
▁proportion	-10281
ips	-10282
▁ang	-10283
vered	-10284
▁Have	-10285
▁negotiation	-10286
러스	-10287
oph	-10288
▁통하여	-10289
▁팬들이	-10290
TE	-10291
▁뒤에	-10292
▁분석이	-10293
▁Motors	-10294
▁Wednesday	-10295
▁경비	-10296
▁연주	-10297
▁정당	-10298
됐으며	-10299
▁fear	-10300
▁Yeouido	-10301
▁phenomenon	-10302
호서식의	-10303
▁Cong	-10304
▁aged	-10305
FC	-10306
▁재개	-10307
▁지식	-10308
▁체포	-10309
rene	-10310
measures	-10311
▁exclusive	-10312
가로	-10313
▁복귀	-10314
호서식에	-10315
▁예정입니다	-10316
▁careful	-10317
▁signing	-10318
▁굳	-10319
리오	-10320
▁농촌	-10321
▁아니면	-10322
▁canceled	-10323
▁concentrated	-10324
류를	-10325
▁유입	-10326
▁quot	-10327
▁landsc	-10328
▁Academy	-10329
자료	-10330
▁더해	-10331
▁2015,	-10332
▁pregn	-10333
▁pushing	-10334
▁Philippines	-10335
TC	-10336
▁박물	-10337
▁응급	-10338
▁사유가	-10339
▁있을지	-10340
▁Prot	-10341
▁ruled	-10342
▁promised	-10343
▁마찬	-10344
▁모색	-10345
▁직원이	-10346
andon	-10347
▁공개했다	-10348
uration	-10349
▁신분	-10350
▁생각하는	-10351
진은	-10352
▁분리	-10353
▁위원장의	-10354
▁penalty	-10355
▁Gangneung	-10356
▁스타트업	-10357
▁진행되는	-10358
▁흉	-10359
▁Ur	-10360
▁로봇	-10361
▁점은	-10362
▁찾은	-10363
zz	-10364
배를	-10365
▁않게	-10366
wo	-10367
▁대리	-10368
▁가치가	-10369
inces	-10370
▁dedic	-10371
▁벌써	-10372
▁점차	-10373
▁창의	-10374
▁힘이	-10375
▁했다고	-10376
▁gate	-10377
▁높아지고	-10378
▁franch	-10379
▁Despite	-10380
▁meantime	-10381
▁남녀	-10382
▁다행	-10383
▁머물	-10384
▁토대로	-10385
▁전망된다	-10386
▁Global	-10387
▁ministry	-10388
▁융자	-10389
▁입법	-10390
▁하였다	-10391
▁형사	-10392
▁사업의	-10393
▁awarded	-10394
▁straight	-10395
aug	-10396
▁모니터	-10397
apers	-10398
▁involving	-10399
∼3	-10400
▁깔	-10401
▁pitcher	-10402
▁declared	-10403
▁neighbor	-10404
리적	-10405
▁파견	-10406
▁현행	-10407
▁lab	-10408
▁coal	-10409
▁teenagers	-10410
▁communicate	-10411
오염	-10412
▁인생	-10413
Korea	-10414
▁football	-10415
직을	-10416
▁의원의	-10417
▁either	-10418
▁height	-10419
▁athletes	-10420
조원	-10421
▁54	-10422
▁산불	-10423
▁상임	-10424
▁uncertain	-10425
▁선진	-10426
였습니다	-10427
28	-10428
▁연휴	-10429
▁충돌	-10430
되도록	-10431
▁시간에	-10432
▁의미를	-10433
▁Sunday	-10434
▁Workers	-10435
▁subsidy	-10436
▁sentiment	-10437
▁53	-10438
하시는	-10439
▁Music	-10440
▁tests	-10441
▁successfully	-10442
▁왜냐	-10443
etition	-10444
▁Chuseok	-10445
▁Community	-10446
▁operators	-10447
주기	-10448
체의	-10449
▁녹색	-10450
▁지속적인	-10451
▁shareholders	-10452
St	-10453
이던	-10454
▁Wo	-10455
▁해제	-10456
▁없어서	-10457
▁주장이	-10458
▁inevitable	-10459
▁내리	-10460
ading	-10461
ching	-10462
▁tourn	-10463
경쟁	-10464
▁배달	-10465
▁서초	-10466
▁연합	-10467
▁Mun	-10468
메달	-10469
폐기	-10470
▁실행	-10471
▁하되	-10472
gers	-10473
▁Apple	-10474
▁CN	-10475
▁건의	-10476
▁몽골	-10477
▁방탄소년	-10478
▁Based	-10479
▁댄	-10480
▁양국	-10481
▁초반	-10482
▁아시안게임	-10483
▁Yongin	-10484
▁closely	-10485
▁경상	-10486
▁기회	-10487
이기도	-10488
▁관내	-10489
▁번역	-10490
▁산림	-10491
▁승인을	-10492
위원회를	-10493
▁cards	-10494
▁exposed	-10495
놀이	-10496
테인	-10497
▁앞둔	-10498
▁어떠	-10499
▁국회의원	-10500
▁Ansan	-10501
아리	-10502
▁국민의	-10503
▁(6	-10504
▁과태	-10505
스티벌	-10506
▁정부와	-10507
ivals	-10508
▁unus	-10509
▁Medium	-10510
▁enterprise	-10511
▁흑	-10512
하셨	-10513
▁용인	-10514
▁관계를	-10515
ilater	-10516
▁managing	-10517
▁돋	-10518
교육청	-10519
▁elim	-10520
▁losing	-10521
▁100,000	-10522
▁offering	-10523
▁숨진	-10524
력으로	-10525
▁Red	-10526
▁obl	-10527
laration	-10528
▁studies	-10529
월드	-10530
▁연방	-10531
▁풀이된다	-10532
iration	-10533
▁buying	-10534
▁engaged	-10535
pen	-10536
▁분쟁	-10537
▁전망이	-10538
▁학생이	-10539
▁fiscal	-10540
▁넥	-10541
승을	-10542
전략	-10543
rier	-10544
▁후보가	-10545
▁Yongsan	-10546
▁telecommunic	-10547
줬다	-10548
▁저소득	-10549
ailand	-10550
▁Agriculture	-10551
▁편리	-10552
▁구속영	-10553
▁수업을	-10554
▁wedding	-10555
aza	-10556
▁여의도	-10557
▁medal	-10558
AS	-10559
▁회의를	-10560
▁dropped	-10561
▁tariffs	-10562
▁weapons	-10563
만명	-10564
▁Other	-10565
▁south	-10566
apse	-10567
▁DMZ	-10568
ijing	-10569
▁이탈리아	-10570
▁flower	-10571
▁spending	-10572
▁competitive	-10573
oi	-10574
리트	-10575
수에	-10576
▁동료	-10577
▁Sol	-10578
하였습니다	-10579
▁booth	-10580
▁imposed	-10581
▁statistics	-10582
물질	-10583
포구	-10584
▁나이	-10585
▁위로	-10586
▁Gal	-10587
▁서류를	-10588
▁handed	-10589
▁상관	-10590
▁원을	-10591
▁청소	-10592
▁보여주는	-10593
▁plane	-10594
생산	-10595
▁한인	-10596
▁교수가	-10597
▁bath	-10598
▁helps	-10599
▁업종	-10600
▁Mer	-10601
▁begun	-10602
▁bills	-10603
▁factor	-10604
텔레	-10605
▁ease	-10606
▁farms	-10607
▁grown	-10608
▁psych	-10609
▁voices	-10610
축구	-10611
▁김정	-10612
기관에	-10613
▁이른바	-10614
expected	-10615
상태	-10616
▁한화	-10617
▁Marine	-10618
▁도심	-10619
▁무대	-10620
▁수십	-10621
▁찾을	-10622
▁한정	-10623
▁Bio	-10624
▁가능할	-10625
▁prime	-10626
▁reply	-10627
▁stability	-10628
민의	-10629
회장	-10630
▁노사	-10631
▁생겨	-10632
▁토지	-10633
iece	-10634
▁올랐다	-10635
▁rock	-10636
씨와	-10637
▁밖의	-10638
SC	-10639
▁샌	-10640
mas	-10641
▁희생	-10642
▁gained	-10643
안보	-10644
▁관련하여	-10645
▁covered	-10646
▁경우에	-10647
▁세계적인	-10648
▁transparen	-10649
▁beer	-10650
▁이용하는	-10651
▁hiring	-10652
▁losses	-10653
▁Unification	-10654
▁헌법	-10655
▁cas	-10656
▁절차를	-10657
분간	-10658
▁승리	-10659
▁기독교	-10660
▁leisure	-10661
▁religious	-10662
천만	-10663
▁향한	-10664
▁안전한	-10665
rants	-10666
▁army	-10667
▁chart	-10668
▁resolved	-10669
▁놀라	-10670
에너지	-10671
▁부담을	-10672
▁Lead	-10673
▁novel	-10674
피해	-10675
한데	-10676
▁달하는	-10677
▁유기	-10678
2019	-10679
▁외에도	-10680
▁cancell	-10681
▁containing	-10682
용차	-10683
▁안팎	-10684
▁lay	-10685
▁있었지만	-10686
▁6,	-10687
▁다수	-10688
▁몰려	-10689
▁문제에	-10690
▁수준의	-10691
▁Stat	-10692
▁가능성도	-10693
▁분야에서	-10694
▁Tokyo	-10695
▁Thailand	-10696
▁소식을	-10697
▁Love	-10698
▁mill	-10699
utical	-10700
▁monitoring	-10701
▁Zone	-10702
▁mutual	-10703
▁예능	-10704
▁유력	-10705
▁유해	-10706
istance	-10707
▁Bureau	-10708
▁initial	-10709
▁receives	-10710
해질	-10711
▁첨단	-10712
▁보이지	-10713
aseong	-10714
▁defend	-10715
▁옷을	-10716
▁700	-10717
▁evaluated	-10718
시와	-10719
▁세워	-10720
▁작품을	-10721
hibition	-10722
ellectual	-10723
즈를	-10724
▁받게	-10725
▁질환	-10726
▁Sal	-10727
▁내용의	-10728
▁불리는	-10729
▁blind	-10730
23	-10731
조를	-10732
▁맞추	-10733
▁이것이	-10734
ulum	-10735
▁결정을	-10736
▁목표로	-10737
▁활용한	-10738
▁version	-10739
▁묵	-10740
change	-10741
▁Beijing	-10742
▁deliberate	-10743
▁낼	-10744
기록	-10745
력은	-10746
Com	-10747
▁그에	-10748
▁안보	-10749
▁당신과	-10750
▁Arab	-10751
▁시스템을	-10752
▁disposal	-10753
▁villages	-10754
▁convention	-10755
쪽에	-10756
▁떨어져	-10757
▁Army	-10758
▁Gyeongsangnam	-10759
dae	-10760
▁산하	-10761
리스트	-10762
▁70%	-10763
▁aid	-10764
▁신청을	-10765
celer	-10766
▁swim	-10767
▁supervision	-10768
▁연극	-10769
▁위기	-10770
▁남성이	-10771
▁Amid	-10772
▁때도	-10773
▁소화	-10774
▁통상	-10775
건으로	-10776
코리아	-10777
▁무료로	-10778
▁brands	-10779
▁degree	-10780
▁잡아	-10781
▁drivers	-10782
▁Citizens	-10783
▁cleaning	-10784
▁생존	-10785
▁pharm	-10786
▁Thanks	-10787
▁Engineering	-10788
역에	-10789
▁측정	-10790
▁800	-10791
▁따뜻한	-10792
▁Innovation	-10793
gg	-10794
how	-10795
되어야	-10796
▁둘러싼	-10797
▁acts	-10798
▁dishes	-10799
..	-10800
izz	-10801
▁날짜	-10802
▁대거	-10803
▁찾고	-10804
▁환경을	-10805
▁지역사회	-10806
물에	-10807
복을	-10808
피스	-10809
fit	-10810
▁교사	-10811
▁2005	-10812
▁inaug	-10813
▁suffer	-10814
▁sharply	-10815
티스트	-10816
▁easier	-10817
▁Vietnamese	-10818
▁그건	-10819
▁회장은	-10820
▁Planning	-10821
조선	-10822
▁Care	-10823
▁Temple	-10824
▁voting	-10825
▁blocked	-10826
Go	-10827
▁거짓	-10828
▁비용이	-10829
▁설치된	-10830
▁80%	-10831
▁ment	-10832
elling	-10833
▁payments	-10834
1)	-10835
▁유치원	-10836
▁분위기를	-10837
▁수소	-10838
▁이중	-10839
▁이용한	-10840
▁Urban	-10841
물로	-10842
uce	-10843
▁떠오	-10844
▁마약	-10845
▁hike	-10846
▁powerful	-10847
▁carefully	-10848
사일	-10849
▁법정	-10850
▁저도	-10851
▁강하게	-10852
▁Free	-10853
▁생각해요	-10854
▁desire	-10855
▁actress	-10856
망을	-10857
ham	-10858
하면서도	-10859
enary	-10860
▁sustain	-10861
군은	-10862
소방	-10863
▁포상	-10864
▁경우는	-10865
▁advertising	-10866
▁investments	-10867
웨어	-10868
▁출근	-10869
▁colon	-10870
reprene	-10871
▁competent	-10872
▁preferent	-10873
류가	-10874
▁행복한	-10875
▁죄송합니다	-10876
터리	-10877
▁별로	-10878
▁발전을	-10879
▁풍부한	-10880
▁Board	-10881
riculum	-10882
▁retail	-10883
▁identity	-10884
국에	-10885
▁측이	-10886
▁Cre	-10887
▁tow	-10888
▁결과에	-10889
▁비율이	-10890
▁영향으로	-10891
othing	-10892
▁College	-10893
▁satisfaction	-10894
PI	-10895
▁unp	-10896
▁기존의	-10897
▁지역은	-10898
eared	-10899
▁wake	-10900
eck	-10901
▁continuing	-10902
금리	-10903
▁동남	-10904
▁180	-10905
▁Nak	-10906
isition	-10907
▁gaining	-10908
Wh	-10909
노총	-10910
▁편성	-10911
▁공동으로	-10912
▁familiar	-10913
▁숲	-10914
▁탁	-10915
란히	-10916
벤처	-10917
서와	-10918
▁동원	-10919
▁spr	-10920
▁이유다	-10921
▁differences	-10922
'.	-10923
▁investigated	-10924
무역	-10925
set	-10926
▁과도	-10927
▁없지만	-10928
▁simp	-10929
▁긍정적인	-10930
▁aging	-10931
▁cloud	-10932
▁consc	-10933
▁publicly	-10934
▁smartphones	-10935
▁Administrative	-10936
▁그게	-10937
▁넘겨	-10938
사업에	-10939
하시면	-10940
umed	-10941
▁pretty	-10942
면으로	-10943
▁collaps	-10944
▁demands	-10945
▁rejected	-10946
▁fundament	-10947
ns	-10948
▁소식	-10949
▁Big	-10950
▁Cap	-10951
▁방법이	-10952
영이	-10953
▁포항	-10954
using	-10955
▁sick	-10956
hington	-10957
▁charged	-10958
▁Declaration	-10959
▁Town	-10960
▁Actor	-10961
OU	-10962
재난	-10963
lets	-10964
▁56	-10965
▁당일	-10966
▁오염	-10967
▁곳에서	-10968
▁이같이	-10969
▁지원이	-10970
▁recip	-10971
▁dispatched	-10972
호텔	-10973
▁나아	-10974
itter	-10975
▁images	-10976
▁funeral	-10977
employment	-10978
보니	-10979
wei	-10980
▁쓰고	-10981
시간이	-10982
▁bags	-10983
▁abandon	-10984
Kim	-10985
▁트위	-10986
▁환영	-10987
▁물건을	-10988
▁asset	-10989
▁herit	-10990
▁refers	-10991
▁Operation	-10992
IP	-10993
ox	-10994
국장	-10995
eup	-10996
▁적지	-10997
hyeon	-10998
▁kick	-10999
▁문화예술	-11000
▁인공지능	-11001
▁stadium	-11002
▁invested	-11003
자산	-11004
▁empt	-11005
▁litigation	-11006
이용	-11007
▁75	-11008
▁결합	-11009
▁박근혜	-11010
▁extension	-11011
ma	-11012
받았다	-11013
etary	-11014
▁국회에서	-11015
▁학생들의	-11016
▁Until	-11017
▁알려주세요	-11018
▁Strategy	-11019
주년	-11020
진의	-11021
▁내린	-11022
▁perman	-11023
▁realized	-11024
▁셀	-11025
▁가해	-11026
▁마감	-11027
▁바에	-11028
anam	-11029
▁뛰어난	-11030
▁이뤄질	-11031
▁증가한	-11032
▁이어졌다	-11033
▁downtown	-11034
▁responded	-11035
▁introducing	-11036
다시	-11037
▁준용	-11038
주년을	-11039
▁Yeo	-11040
▁dece	-11041
▁Gangseo	-11042
▁횡	-11043
혁명	-11044
▁식사	-11045
▁facing	-11046
▁spaces	-11047
aceutical	-11048
▁Cheongju	-11049
길이	-11050
▁통지	-11051
▁다문화	-11052
▁tu	-11053
▁돌려	-11054
▁형태로	-11055
odies	-11056
▁quantity	-11057
▁provinces	-11058
인가	-11059
전은	-11060
▁파티	-11061
해주는	-11062
▁여성의	-11063
▁bigger	-11064
▁murder	-11065
▁unless	-11066
▁Hwaseong	-11067
실로	-11068
▁인재	-11069
ager	-11070
▁구현	-11071
▁넘게	-11072
▁nut	-11073
▁exceeded	-11074
▁pleasant	-11075
▁펜	-11076
▁주주	-11077
eces	-11078
encing	-11079
▁advis	-11080
▁entrustment	-11081
동에	-11082
▁Gor	-11083
▁Rel	-11084
arian	-11085
▁Real	-11086
▁수리	-11087
▁신체	-11088
chon	-11089
oles	-11090
▁securing	-11091
▁wasn	-11092
▁purchasing	-11093
300	-11094
▁Dr	-11095
▁도서	-11096
▁제출한	-11097
▁stick	-11098
르신	-11099
hand	-11100
stra	-11101
▁자리에	-11102
▁지역을	-11103
▁Washington	-11104
▁continuous	-11105
기관이	-11106
▁tea	-11107
▁제품의	-11108
▁Attention	-11109
▁revolution	-11110
▁prosecutors	-11111
▁런	-11112
▁개봉	-11113
▁조언	-11114
▁Job	-11115
▁Vol	-11116
▁symp	-11117
▁amendment	-11118
▁architect	-11119
▁capabilities	-11120
mo	-11121
마저	-11122
▁turning	-11123
▁dialogue	-11124
▁expenditure	-11125
▁선출	-11126
▁Two	-11127
▁공무원이	-11128
▁examine	-11129
▁공기	-11130
▁아는	-11131
abin	-11132
▁fit	-11133
▁Housing	-11134
▁detected	-11135
▁Especially	-11136
봐야	-11137
사령	-11138
센터에서	-11139
▁대하여는	-11140
▁reserv	-11141
▁scholarship	-11142
▁입증	-11143
▁작동	-11144
▁정체	-11145
▁부분을	-11146
▁exempt	-11147
▁visits	-11148
▁singers	-11149
atization	-11150
▁originally	-11151
▁Independence	-11152
▁requirements	-11153
인천	-11154
창업	-11155
▁고급	-11156
▁매장	-11157
▁방북	-11158
▁투자를	-11159
▁Gold	-11160
▁필요합니다	-11161
▁mistake	-11162
년의	-11163
먼트	-11164
이즈	-11165
▁돈이	-11166
▁Ang	-11167
▁마치고	-11168
asury	-11169
▁Matters	-11170
hw	-11171
여서	-11172
asan	-11173
mail	-11174
▁나중에	-11175
▁마음에	-11176
▁imported	-11177
▁줘	-11178
zbe	-11179
▁안산	-11180
▁Map	-11181
▁이벤트	-11182
▁대변인은	-11183
▁singing	-11184
▁requests	-11185
▁Gyeongbuk	-11186
▁가족이	-11187
▁이름이	-11188
▁tons	-11189
▁concl	-11190
▁whenever	-11191
음악	-11192
▁맛있	-11193
anging	-11194
▁explos	-11195
량은	-11196
리게	-11197
▁선박	-11198
▁Mok	-11199
▁것인지	-11200
▁Senior	-11201
▁surface	-11202
▁collapse	-11203
안의	-11204
▁주력	-11205
▁centered	-11206
▁memorial	-11207
▁semester	-11208
▁추억	-11209
▁탑승	-11210
▁trends	-11211
▁troops	-11212
▁수급	-11213
▁질문에	-11214
style	-11215
▁vision	-11216
세로	-11217
▁나아가	-11218
▁운영할	-11219
▁훌륭	-11220
iented	-11221
▁프로그램이	-11222
▁Christmas	-11223
개로	-11224
조치	-11225
win	-11226
었다는	-11227
▁40%	-11228
▁목소리를	-11229
▁진행됐다	-11230
▁현재까지	-11231
▁talked	-11232
소와	-11233
▁찬성	-11234
▁업체가	-11235
▁gone	-11236
▁실종	-11237
▁아직도	-11238
▁imag	-11239
▁race	-11240
▁일자리를	-11241
▁deplo	-11242
gil	-11243
▁“(	-11244
▁검찰에	-11245
▁분야의	-11246
▁antic	-11247
닙니다	-11248
▁eth	-11249
▁chat	-11250
▁소녀	-11251
▁whom	-11252
▁plenary	-11253
▁returning	-11254
▁legislation	-11255
▁명절	-11256
▁용산	-11257
ades	-11258
▁다음달	-11259
▁회사의	-11260
essed	-11261
▁leads	-11262
▁merchants	-11263
란드	-11264
▁통제	-11265
▁드러나	-11266
▁Past	-11267
▁마친	-11268
▁폐쇄	-11269
zbek	-11270
▁winner	-11271
기본	-11272
▁편안	-11273
졌다는	-11274
▁KOS	-11275
▁영어를	-11276
▁daycare	-11277
▁category	-11278
▁agriculture	-11279
▁combination	-11280
▁researchers	-11281
달라고	-11282
▁190	-11283
▁Hua	-11284
▁Street	-11285
▁filming	-11286
▁positions	-11287
26	-11288
▁낭	-11289
▁63	-11290
▁물을	-11291
▁창원	-11292
rank	-11293
▁ped	-11294
▁추진할	-11295
▁recognize	-11296
▁59	-11297
▁너희	-11298
▁호응	-11299
reams	-11300
holder	-11301
▁Design	-11302
▁convey	-11303
▁multiple	-11304
▁테이	-11305
해지고	-11306
▁Pension	-11307
▁organize	-11308
▁칠	-11309
름이	-11310
시즌	-11311
▁착용	-11312
시켰다	-11313
▁개발한	-11314
ayment	-11315
▁섭	-11316
기능	-11317
ara	-11318
▁많고	-11319
▁돌아가	-11320
▁rally	-11321
▁earthquake	-11322
▁고소	-11323
▁날이	-11324
▁달려	-11325
▁법적	-11326
▁Show	-11327
▁Industries	-11328
▁1990	-11329
▁추진하고	-11330
▁reasonable	-11331
7)	-11332
순환	-11333
▁자리에서	-11334
▁replaced	-11335
이의	-11336
eds	-11337
▁출동	-11338
▁Regional	-11339
▁강서	-11340
ensus	-11341
▁decor	-11342
▁greater	-11343
committee	-11344
▁배제	-11345
▁착수	-11346
▁page	-11347
체계	-11348
폭력	-11349
▁선사	-11350
▁흘러	-11351
▁덕분에	-11352
▁선정된	-11353
▁소식이	-11354
▁patent	-11355
▁tournament	-11356
구나	-11357
니어	-11358
▁둔다	-11359
▁부적	-11360
iction	-11361
▁혼란	-11362
▁raw	-11363
eless	-11364
▁fort	-11365
▁않았습니다	-11366
▁helping	-11367
▁allowances	-11368
타운	-11369
▁언어	-11370
과장은	-11371
▁fest	-11372
▁linked	-11373
9)	-11374
▁낳	-11375
▁57	-11376
억원의	-11377
cheol	-11378
▁starts	-11379
해양	-11380
단으로	-11381
▁정도의	-11382
하니	-11383
▁peak	-11384
▁효율적으로	-11385
ength	-11386
▁tool	-11387
▁spokesman	-11388
▁상생	-11389
cel	-11390
cles	-11391
▁wins	-11392
▁분위기가	-11393
▁않았지만	-11394
▁simply	-11395
▁미만	-11396
▁하이	-11397
▁cru	-11398
▁kim	-11399
▁facts	-11400
▁본격적으로	-11401
▁citizen	-11402
▁friendly	-11403
▁dangerous	-11404
하실	-11405
kyu	-11406
▁분류	-11407
▁의지를	-11408
렸습니다	-11409
▁Bridge	-11410
▁strict	-11411
contract	-11412
▁Malaysia	-11413
하라	-11414
bon	-11415
▁7,	-11416
▁Mad	-11417
▁기간이	-11418
▁제주도	-11419
▁Jeollanam	-11420
▁applicant	-11421
▁mand	-11422
▁seal	-11423
dr	-11424
민주	-11425
행위	-11426
▁58	-11427
▁무너	-11428
▁피의	-11429
▁관계가	-11430
▁회사가	-11431
▁behalf	-11432
▁happiness	-11433
▁situations	-11434
」(	-11435
여행	-11436
인권	-11437
철도	-11438
▁화성	-11439
년으로	-11440
된다는	-11441
▁대화를	-11442
조건	-11443
mat	-11444
▁기대를	-11445
▁방문한	-11446
about	-11447
orney	-11448
▁dismissed	-11449
싱턴	-11450
▁떠올	-11451
▁소집	-11452
▁wal	-11453
▁knew	-11454
▁nood	-11455
mitting	-11456
▁단일	-11457
▁진료	-11458
jang	-11459
▁FC	-11460
▁비서	-11461
▁bow	-11462
▁kit	-11463
▁어디서	-11464
▁위원의	-11465
▁전망했다	-11466
▁밴	-11467
해왔다	-11468
hour	-11469
▁아티스트	-11470
▁marine	-11471
▁aircraft	-11472
▁거기	-11473
▁맡은	-11474
▁이승	-11475
▁일대	-11476
사이트	-11477
▁상태다	-11478
▁veter	-11479
▁incent	-11480
NG	-11481
▁따라서	-11482
▁Uzbek	-11483
▁shoes	-11484
outheast	-11485
▁handling	-11486
리어	-11487
▁개성	-11488
▁차가	-11489
▁추석	-11490
▁adults	-11491
바로	-11492
▁조절	-11493
▁호흡	-11494
uses	-11495
▁lease	-11496
▁pilot	-11497
▁passenger	-11498
RA	-11499
▁퇴직	-11500
▁한글	-11501
owned	-11502
▁discrimination	-11503
sp	-11504
▁51	-11505
▁도모	-11506
▁무게	-11507
집니다	-11508
▁bureau	-11509
▁pow	-11510
▁relief	-11511
조가	-11512
조례	-11513
udi	-11514
▁대사	-11515
▁요금	-11516
sook	-11517
▁specified	-11518
▁예수	-11519
기업의	-11520
▁joy	-11521
▁beat	-11522
▁것이란	-11523
▁트위터	-11524
▁freely	-11525
▁listening	-11526
▁revitalize	-11527
45	-11528
▁쾌	-11529
▁강의	-11530
osen	-11531
▁활용할	-11532
▁거주하는	-11533
▁Huawei	-11534
▁defect	-11535
▁railway	-11536
gon	-11537
▁영양	-11538
▁cafe	-11539
▁평가했다	-11540
▁worse	-11541
▁comply	-11542
뷰티	-11543
got	-11544
iter	-11545
령을	-11546
yal	-11547
▁접촉	-11548
▁포착	-11549
▁charm	-11550
▁consent	-11551
▁crackdown	-11552
보조	-11553
교육을	-11554
센터가	-11555
▁keen	-11556
▁Only	-11557
▁motor	-11558
▁별도의	-11559
▁스트레	-11560
enses	-11561
▁struct	-11562
▁widely	-11563
동구	-11564
층이	-11565
▁고정	-11566
▁발휘	-11567
▁아빠	-11568
embers	-11569
▁대선	-11570
▁문화재	-11571
pects	-11572
▁forget	-11573
▁ordinance	-11574
▁curriculum	-11575
▁8,	-11576
▁자가	-11577
▁출장	-11578
advant	-11579
▁disappeared	-11580
▁운동을	-11581
ursday	-11582
▁river	-11583
▁garden	-11584
▁annually	-11585
▁approach	-11586
다니	-11587
▁기사	-11588
부터는	-11589
▁1980	-11590
ception	-11591
▁gathering	-11592
약품	-11593
▁신한	-11594
▁urged	-11595
▁partner	-11596
▁뭔	-11597
▁관해	-11598
▁steel	-11599
▁Jongno	-11600
▁Military	-11601
▁비교적	-11602
▁팬들의	-11603
▁왜냐하면	-11604
가락	-11605
▁아이가	-11606
▁최소화	-11607
▁fill	-11608
▁공동주택	-11609
▁진행하고	-11610
oriented	-11611
▁package	-11612
나마	-11613
시대	-11614
황이	-11615
▁유니	-11616
▁말하는	-11617
▁heav	-11618
▁ranking	-11619
OC	-11620
미술	-11621
▁대책을	-11622
▁sand	-11623
▁Experts	-11624
▁Express	-11625
공연	-11626
화점	-11627
▁고마	-11628
▁시정	-11629
▁행사에	-11630
▁Store	-11631
▁however	-11632
35	-11633
회의를	-11634
▁콘서트	-11635
어버	-11636
▁실시할	-11637
3)	-11638
▁담아	-11639
▁unc	-11640
▁가능해	-11641
▁Water	-11642
td	-11643
▁며	-11644
▁노선	-11645
▁보낼	-11646
▁탓에	-11647
▁disappear	-11648
axy	-11649
▁AS	-11650
▁기도	-11651
▁변동	-11652
ondo	-11653
리티	-11654
북한	-11655
제와	-11656
▁동작	-11657
▁dogs	-11658
▁mood	-11659
▁비즈니스	-11660
▁사람에게	-11661
▁politic	-11662
ocol	-11663
▁곳이다	-11664
▁현대차	-11665
▁기반으로	-11666
▁세대	-11667
wise	-11668
▁제조업	-11669
▁John	-11670
▁방향으로	-11671
acific	-11672
▁deems	-11673
▁memories	-11674
수요	-11675
▁기준을	-11676
▁진행할	-11677
▁Good	-11678
▁진행하는	-11679
▁describ	-11680
▁감독의	-11681
▁거에요	-11682
▁임기는	-11683
고용	-11684
부문	-11685
▁보일	-11686
▁유발	-11687
▁탄생	-11688
▁저장	-11689
라운드	-11690
▁논의가	-11691
▁empty	-11692
▁thoughts	-11693
▁recording	-11694
▁딱	-11695
일의	-11696
지법	-11697
▁교부	-11698
▁feed	-11699
▁Before	-11700
▁corner	-11701
▁공간을	-11702
▁했다는	-11703
▁composition	-11704
른다	-11705
호선	-11706
▁살해	-11707
수수색	-11708
▁code	-11709
▁juven	-11710
▁prompt	-11711
▁succeeded	-11712
?"	-11713
▁얻고	-11714
스포츠	-11715
시장이	-11716
▁chose	-11717
▁awards	-11718
37	-11719
오고	-11720
▁68	-11721
urse	-11722
▁경기에서	-11723
▁remove	-11724
including	-11725
력의	-11726
enn	-11727
▁맞이	-11728
▁잠재	-11729
▁없도록	-11730
스플레이	-11731
▁smile	-11732
▁trouble	-11733
▁엑	-11734
▁동네	-11735
▁장르	-11736
ucks	-11737
▁건강한	-11738
anged	-11739
▁Each	-11740
▁vess	-11741
Gun	-11742
올림픽	-11743
▁상당히	-11744
드릴게요	-11745
▁residence	-11746
예방	-11747
층의	-11748
▁시급	-11749
▁자살	-11750
▁Ilbo	-11751
▁교육감은	-11752
▁brain	-11753
▁assembly	-11754
▁깜	-11755
단과	-11756
위원은	-11757
▁프리미엄	-11758
▁Northern	-11759
▁Particip	-11760
▁replacement	-11761
▁들이	-11762
itor	-11763
▁Four	-11764
▁disadvant	-11765
▁respondents	-11766
guk	-11767
▁수수료	-11768
겁게	-11769
ino	-11770
▁깨끗	-11771
았지만	-11772
▁map	-11773
▁된다는	-11774
▁않아도	-11775
▁적절한	-11776
▁현상이	-11777
▁grew	-11778
▁views	-11779
▁automatically	-11780
▁여부	-11781
터테인	-11782
▁Star	-11783
▁Concer	-11784
▁consists	-11785
렀다	-11786
▁(3)	-11787
▁mel	-11788
겠습니까	-11789
daemun	-11790
▁commit	-11791
,'	-11792
chen	-11793
▁진행될	-11794
▁unusual	-11795
▁securities	-11796
진과	-11797
ieces	-11798
▁cart	-11799
▁defic	-11800
▁usage	-11801
▁Earlier	-11802
▁attendance	-11803
▁Imp	-11804
▁Nex	-11805
▁discovered	-11806
린이	-11807
우러	-11808
표가	-11809
확실	-11810
▁반응을	-11811
▁차지하는	-11812
▁buyers	-11813
설을	-11814
lin	-11815
▁ID	-11816
▁박람	-11817
▁노래를	-11818
▁Nong	-11819
▁Elementary	-11820
▁professors	-11821
pyo	-11822
▁votes	-11823
▁leaves	-11824
▁frequent	-11825
지어	-11826
▁af	-11827
▁기각	-11828
▁의사를	-11829
idity	-11830
▁fruit	-11831
▁Fisheries	-11832
▁communities	-11833
▁1.	-11834
▁저지	-11835
comfort	-11836
▁seeking	-11837
▁internet	-11838
▁upcoming	-11839
물은	-11840
소송	-11841
▁64	-11842
▁공개한	-11843
▁boat	-11844
ocated	-11845
verning	-11846
▁Shinhan	-11847
▁relation	-11848
▁dedicated	-11849
트랙	-11850
▁CS	-11851
▁넣어	-11852
▁축소	-11853
▁130	-11854
▁갈수록	-11855
▁excav	-11856
▁kimchi	-11857
호는	-11858
▁건조	-11859
▁제약	-11860
▁짧은	-11861
▁흥미	-11862
▁신고를	-11863
▁자영업	-11864
mentia	-11865
▁Herit	-11866
기획	-11867
라서	-11868
기업이	-11869
▁압수수색	-11870
▁지역주민	-11871
▁steps	-11872
▁controll	-11873
▁감면	-11874
▁이재명	-11875
▁feas	-11876
▁Smart	-11877
▁dress	-11878
▁Cooperation	-11879
▁빗	-11880
▁일시	-11881
▁준공	-11882
▁기분이	-11883
▁잇따라	-11884
▁pray	-11885
▁아닙니다	-11886
▁purposes	-11887
▁났	-11888
국을	-11889
▁파트너	-11890
▁Those	-11891
▁royal	-11892
▁towards	-11893
▁transform	-11894
22	-11895
▁쟁	-11896
층에	-11897
▁스크	-11898
▁하던	-11899
▁변호사	-11900
익을	-11901
포를	-11902
ket	-11903
▁sac	-11904
▁정확히	-11905
▁ride	-11906
▁Saudi	-11907
▁yourself	-11908
▁털	-11909
▁전담	-11910
디자인	-11911
▁Self	-11912
▁Spain	-11913
▁faster	-11914
▁traveling	-11915
드로	-11916
▁일하는	-11917
▁Residents	-11918
yr	-11919
▁대단	-11920
▁Bre	-11921
▁vital	-11922
▁숫	-11923
힌다	-11924
▁부대	-11925
▁올리	-11926
▁노원구	-11927
▁대상이	-11928
▁이상을	-11929
▁Will	-11930
·4	-11931
▁재배	-11932
▁하노	-11933
사업의	-11934
억원이	-11935
lude	-11936
▁Tong	-11937
▁deterior	-11938
치게	-11939
▁ge	-11940
▁도쿄	-11941
▁컨설팅	-11942
▁yellow	-11943
▁Starting	-11944
폰을	-11945
geun	-11946
▁조사됐다	-11947
▁삼성바이오	-11948
▁돼요	-11949
▁선교	-11950
▁예를	-11951
with	-11952
▁이어지는	-11953
▁feels	-11954
전의	-11955
항을	-11956
▁구체적으로	-11957
▁점심	-11958
▁이전에	-11959
▁충분한	-11960
▁relax	-11961
▁Disaster	-11962
▁institutes	-11963
▁acquisition	-11964
MA	-11965
비의	-11966
obby	-11967
▁조례에	-11968
▁행사에는	-11969
▁flexible	-11970
용품	-11971
전으로	-11972
oral	-11973
▁jun	-11974
▁수사에	-11975
▁어려울	-11976
▁음악을	-11977
▁Gyeongsangbuk	-11978
▁옆에	-11979
▁이때	-11980
▁올렸다	-11981
eeper	-11982
▁Hanoi	-11983
▁Intelligence	-11984
▁bere	-11985
ivation	-11986
▁impress	-11987
▁썼	-11988
▁66	-11989
억달러	-11990
▁운영하고	-11991
▁데다	-11992
▁받으	-11993
▁정해	-11994
▁표창	-11995
월에는	-11996
▁conv	-11997
▁친구들과	-11998
▁verification	-11999
▁선도	-12000
▁Koo	-12001
▁가졌다	-12002
▁서비스가	-12003
▁disclosed	-12004
▁Ok	-12005
▁리그	-12006
▁rom	-12007
▁dish	-12008
▁증가하고	-12009
▁subord	-12010
▁Heritage	-12011
▁regulatory	-12012
▁underground	-12013
로드	-12014
사례	-12015
▁생겼	-12016
▁mal	-12017
▁owned	-12018
▁scient	-12019
▁adopted	-12020
▁audiences	-12021
▁inspections	-12022
deok	-12023
▁케이팝	-12024
▁Home	-12025
▁diet	-12026
▁nerv	-12027
▁managers	-12028
▁자아	-12029
▁풀어	-12030
▁web	-12031
▁Control	-12032
▁Gi	-12033
▁근본	-12034
▁나설	-12035
▁했고	-12036
▁Sur	-12037
▁주민의	-12038
▁zones	-12039
hak	-12040
▁걸려	-12041
▁발의	-12042
키스탄	-12043
▁POS	-12044
▁egg	-12045
▁워싱턴	-12046
▁consensus	-12047
▁exemption	-12048
▁disappoint	-12049
▁unexpected	-12050
▁지체	-12051
▁수준으로	-12052
▁bound	-12053
자유	-12054
▁매입	-12055
▁베이징	-12056
▁사우디	-12057
▁writer	-12058
▁donated	-12059
▁staying	-12060
Do	-12061
▁Us	-12062
▁과연	-12063
시간을	-12064
▁Kum	-12065
▁차지했다	-12066
▁noise	-12067
reement	-12068
▁diagnosis	-12069
▁공고	-12070
▁늦게	-12071
▁명시	-12072
▁부당	-12073
관으로	-12074
▁재미있	-12075
▁weaken	-12076
가격	-12077
▁눈을	-12078
▁shr	-12079
▁사람들	-12080
UV	-12081
▁않지만	-12082
▁demonstration	-12083
aes	-12084
▁내세	-12085
▁세무	-12086
▁추구	-12087
▁있었고	-12088
▁recy	-12089
▁지원한다	-12090
▁Bi	-12091
▁되었	-12092
▁일각	-12093
what	-12094
▁gun	-12095
LED	-12096
▁bereaved	-12097
값이	-12098
클럽	-12099
▁모르는	-12100
▁척	-12101
▁Mu	-12102
▁물건	-12103
pond	-12104
▁paintings	-12105
▁strengthened	-12106
▁김경	-12107
▁야구	-12108
▁에이	-12109
▁인용	-12110
식에는	-12111
았어요	-12112
▁spl	-12113
▁비판했다	-12114
▁제공하고	-12115
▁Singer	-12116
▁supplement	-12117
PS	-12118
▁채권	-12119
▁재판에	-12120
회의에서	-12121
▁acceler	-12122
▁때부터	-12123
▁사랑하는	-12124
▁agent	-12125
쇼핑	-12126
적의	-12127
▁강경	-12128
▁관리를	-12129
▁앞으로도	-12130
▁이야기가	-12131
making	-12132
▁경기도지사가	-12133
▁favorable	-12134
▁Valley	-12135
▁episode	-12136
▁appreciate	-12137
▁북측	-12138
▁적정	-12139
▁제공할	-12140
andis	-12141
▁collecting	-12142
Al	-12143
졌다고	-12144
▁사이트	-12145
▁unveiled	-12146
팀은	-12147
▁시는	-12148
▁가격을	-12149
▁지사는	-12150
▁Look	-12151
▁thus	-12152
▁Turkey	-12153
▁upload	-12154
결을	-12155
▁설득	-12156
▁스테	-12157
▁고려하여	-12158
▁대부분이	-12159
echeon	-12160
▁사람들에게	-12161
▁정상회담을	-12162
uls	-12163
▁KE	-12164
astern	-12165
▁enact	-12166
▁독특	-12167
▁소셜	-12168
▁투명	-12169
▁founded	-12170
릅니다	-12171
ping	-12172
▁불확실	-12173
▁지방선거	-12174
▁clubs	-12175
능력	-12176
어져	-12177
차로	-12178
▁막기	-12179
▁pip	-12180
▁기록한	-12181
▁어우러	-12182
▁대표하는	-12183
▁habit	-12184
▁Second	-12185
Committee	-12186
▁내는	-12187
▁부실	-12188
▁씨는	-12189
▁즐거	-12190
▁추락	-12191
된다고	-12192
arious	-12193
▁stake	-12194
듯이	-12195
전시	-12196
cean	-12197
▁속도를	-12198
▁판단했다	-12199
▁Three	-12200
▁stood	-12201
▁illegally	-12202
▁withdrawal	-12203
36	-12204
액은	-12205
▁관람객	-12206
▁노력이	-12207
▁기다리고	-12208
▁lifelong	-12209
중소	-12210
▁bio	-12211
정과	-12212
조직	-12213
▁소관	-12214
하라고	-12215
▁요청할	-12216
▁개인정보	-12217
▁bridge	-12218
▁personality	-12219
▁침해	-12220
▁squ	-12221
▁entreprene	-12222
8)	-12223
자들	-12224
▁Kia	-12225
▁sen	-12226
▁vacc	-12227
▁별도로	-12228
▁prim	-12229
▁promise	-12230
▁channels	-12231
▁붕	-12232
천시	-12233
▁처분	-12234
▁분들이	-12235
▁solo	-12236
▁만들었다	-12237
lihood	-12238
▁freed	-12239
▁numbers	-12240
▁logistics	-12241
▁violations	-12242
arity	-12243
▁smell	-12244
▁luxury	-12245
▁expertise	-12246
거든	-12247
case	-12248
▁휴대전	-12249
▁함께하는	-12250
uesday	-12251
BA	-12252
보증	-12253
▁위임	-12254
▁사용한	-12255
ounter	-12256
▁Joint	-12257
urt	-12258
▁경우도	-12259
▁사고로	-12260
▁직무를	-12261
▁직원들이	-12262
▁기자회견을	-12263
▁독서	-12264
▁스케	-12265
▁허위	-12266
▁Sim	-12267
▁갈등이	-12268
▁매출이	-12269
▁현장에	-12270
riers	-12271
▁Rural	-12272
▁핀	-12273
▁상상	-12274
▁트렌	-12275
▁자유롭게	-12276
▁semin	-12277
▁kilomet	-12278
▁teaching	-12279
▁voluntary	-12280
▁뚜렷	-12281
▁맞은	-12282
▁roll	-12283
▁Class	-12284
실은	-12285
ema	-12286
▁가끔	-12287
▁빠진	-12288
▁Moo	-12289
▁사이즈	-12290
▁mutatis	-12291
comfortable	-12292
▁destination	-12293
이로	-12294
800	-12295
▁보증	-12296
▁설문	-12297
▁pig	-12298
▁분야에	-12299
▁tears	-12300
▁civilian	-12301
고에	-12302
직한	-12303
▁목숨	-12304
▁숙박	-12305
▁보여주	-12306
▁상당한	-12307
▁역사를	-12308
inger	-12309
osite	-12310
achment	-12311
▁surpass	-12312
케이션	-12313
▁conclusion	-12314
▁accompanied	-12315
▁묶	-12316
각을	-12317
발을	-12318
▁세미	-12319
▁충전	-12320
raid	-12321
▁이것을	-12322
▁closing	-12323
▁밟	-12324
▁춘	-12325
▁서명	-12326
▁심화	-12327
센터를	-12328
▁원활한	-12329
서비스를	-12330
▁Forum	-12331
▁Songpa	-12332
▁multicultural	-12333
친구	-12334
▁생기	-12335
▁한층	-12336
This	-12337
▁실시한다	-12338
▁hundreds	-12339
▁mutandis	-12340
▁supplied	-12341
▁festivals	-12342
재로	-12343
카르	-12344
▁면세	-12345
▁철거	-12346
▁높이고	-12347
행사	-12348
▁세상을	-12349
▁경쟁력을	-12350
치료	-12351
▁성격	-12352
▁Analysts	-12353
▁Officials	-12354
▁preventing	-12355
(7	-12356
▁냄	-12357
합의	-12358
▁기후	-12359
amic	-12360
▁능력을	-12361
▁Congress	-12362
▁고교	-12363
▁Lun	-12364
▁usual	-12365
NA	-12366
▁sat	-12367
▁smoothly	-12368
등을	-12369
치의	-12370
rid	-12371
▁맞게	-12372
▁운송	-12373
▁바람이	-12374
▁Kook	-12375
▁fallen	-12376
▁smoking	-12377
▁previously	-12378
▁남부	-12379
▁네이버	-12380
▁미래를	-12381
▁사진이	-12382
▁서울대	-12383
wondo	-12384
▁streets	-12385
▁Following	-12386
가구	-12387
▁중심의	-12388
▁fulf	-12389
▁snack	-12390
▁afraid	-12391
▁phones	-12392
▁Another	-12393
▁멜	-12394
럭시	-12395
▁공을	-12396
▁공부를	-12397
▁규정을	-12398
▁어르신	-12399
▁사람들을	-12400
▁좋습니다	-12401
ighter	-12402
▁Girls	-12403
▁strategic	-12404
였고	-12405
▁걸어	-12406
▁행위	-12407
azon	-12408
▁remained	-12409
▁IP	-12410
연구소	-12411
▁사항이	-12412
▁테마	-12413
▁Ham	-12414
▁Inc	-12415
▁자연스럽게	-12416
▁Gwanak	-12417
▁begins	-12418
▁strange	-12419
▁Articles	-12420
39	-12421
판에	-12422
화의	-12423
gae	-12424
▁의회	-12425
▁특검	-12426
되거나	-12427
▁Bucheon	-12428
▁surprised	-12429
인에	-12430
▁테니	-12431
omer	-12432
▁하겠다	-12433
inations	-12434
MC	-12435
▁꽤	-12436
▁렌	-12437
기념	-12438
eal	-12439
▁KO	-12440
▁Hyo	-12441
▁아이템	-12442
▁않다는	-12443
▁governed	-12444
▁accumulated	-12445
수산	-12446
▁벤처	-12447
▁준수	-12448
▁2002	-12449
▁classified	-12450
▁repeatedly	-12451
했어	-12452
▁Ltd	-12453
▁이르는	-12454
▁인사를	-12455
▁chosen	-12456
소비	-12457
▁84	-12458
▁보건복지	-12459
▁Naver	-12460
▁optim	-12461
▁Thursday	-12462
▁messages	-12463
▁말한	-12464
▁미국은	-12465
▁평가가	-12466
▁roof	-12467
▁고용노동	-12468
▁abund	-12469
▁safely	-12470
원한	-12471
타임	-12472
▁dreams	-12473
▁hidden	-12474
umi	-12475
▁멋진	-12476
▁신선	-12477
도서관	-12478
▁sav	-12479
▁아무리	-12480
▁알려주	-12481
▁전화를	-12482
cknow	-12483
▁조사하고	-12484
▁landscape	-12485
▁perspective	-12486
▁그럴	-12487
▁클라	-12488
▁제품에	-12489
▁Mapo	-12490
▁Twitter	-12491
▁restrictions	-12492
uct	-12493
▁가시	-12494
▁스티	-12495
▁재능	-12496
▁주에	-12497
imately	-12498
▁guests	-12499
▁chemical	-12500
▁permanent	-12501
▁harassment	-12502
형의	-12503
▁때가	-12504
▁적응	-12505
관계가	-12506
bong	-12507
▁Pat	-12508
▁Ser	-12509
▁열었다	-12510
▁Exchange	-12511
▁heritage	-12512
▁steadily	-12513
론을	-12514
ris	-12515
▁김태	-12516
았는데	-12517
▁Does	-12518
▁Hang	-12519
▁2014,	-12520
▁inquir	-12521
▁removed	-12522
▁관악	-12523
▁맛이	-12524
▁참여를	-12525
▁Happ	-12526
▁deeply	-12527
▁auditor	-12528
▁climate	-12529
▁voluntarily	-12530
▁implementing	-12531
▁Entertainment	-12532
고기	-12533
▁상업	-12534
▁최창	-12535
▁FTA	-12536
사이	-12537
▁충족	-12538
▁영화가	-12539
▁현장을	-12540
▁보입니다	-12541
5)	-12542
▁야외	-12543
▁제정	-12544
▁일이다	-12545
▁auto	-12546
▁soup	-12547
▁Hyung	-12548
▁studied	-12549
▁uncomfortable	-12550
▁매주	-12551
▁병역	-12552
▁성인	-12553
▁tens	-12554
▁dollar	-12555
▁Deliberation	-12556
▁간편	-12557
▁kid	-12558
▁능력이	-12559
▁wire	-12560
▁anxiety	-12561
▁massive	-12562
TO	-12563
gye	-12564
▁가계	-12565
▁돋보	-12566
유치원	-12567
▁stim	-12568
▁진행되고	-12569
▁autumn	-12570
▁observ	-12571
▁martial	-12572
▁certified	-12573
트리	-12574
▁되기	-12575
▁품목	-12576
▁내용은	-12577
▁fake	-12578
▁valu	-12579
▁사이에서	-12580
▁holds	-12581
▁restoration	-12582
근무	-12583
▁KBO	-12584
▁belonging	-12585
▁shareholder	-12586
동물	-12587
박물	-12588
포럼	-12589
▁장학	-12590
▁예상되는	-12591
▁assoc	-12592
▁employed	-12593
▁동일한	-12594
▁하거나	-12595
▁Once	-12596
▁Which	-12597
▁acknow	-12598
▁emotional	-12599
▁얻을	-12600
▁자발	-12601
되었고	-12602
▁소프트	-12603
▁아이를	-12604
▁resignation	-12605
당과	-12606
▁즐거운	-12607
▁aims	-12608
▁아프리카	-12609
▁interior	-12610
사법	-12611
판이	-12612
▁머리	-12613
▁유관	-12614
▁위험이	-12615
eting	-12616
▁feet	-12617
▁청와대가	-12618
▁Guard	-12619
▁Square	-12620
▁prohib	-12621
▁disasters	-12622
▁사기	-12623
▁서해	-12624
당국은	-12625
▁모으고	-12626
적으로는	-12627
mother	-12628
▁routes	-12629
▁servants	-12630
ortunately	-12631
▁neighborhood	-12632
망이	-12633
차별	-12634
▁봤다	-12635
▁출마	-12636
▁투어	-12637
rary	-12638
▁기능이	-12639
▁cells	-12640
▁fires	-12641
▁missile	-12642
▁문학	-12643
▁가이드	-12644
▁중학교	-12645
▁아닐	-12646
▁위안	-12647
▁내다봤다	-12648
put	-12649
▁LA	-12650
▁충격	-12651
▁치매	-12652
▁북미정상회담	-12653
▁anticip	-12654
▁complic	-12655
▁opponent	-12656
▁미중	-12657
심에서	-12658
▁분석이다	-12659
▁Doosan	-12660
▁stream	-12661
▁firefight	-12662
▁achievements	-12663
배가	-12664
POP	-12665
▁미군	-12666
▁뮤지컬	-12667
▁차량을	-12668
▁서울중앙	-12669
▁disclose	-12670
An	-12671
▁존중	-12672
▁상태에서	-12673
▁어려움이	-12674
sufficient	-12675
gyo	-12676
▁붙잡	-12677
당에서	-12678
▁게임을	-12679
▁계획이	-12680
▁일정이	-12681
▁이번에는	-12682
▁죄송하지만	-12683
▁serving	-12684
▁Maritime	-12685
세에	-12686
▁몸을	-12687
ifts	-12688
ingu	-12689
▁Gap	-12690
▁milk	-12691
▁Author	-12692
▁formation	-12693
▁겹	-12694
▁공통	-12695
▁신흥	-12696
신가요	-12697
maker	-12698
▁publish	-12699
▁supplies	-12700
▁franchise	-12701
아버	-12702
▁보내주	-12703
진에	-12704
bin	-12705
▁매니	-12706
▁모은	-12707
▁물류	-12708
▁수백	-12709
▁Hon	-12710
▁총리가	-12711
▁draft	-12712
▁extend	-12713
▁keeping	-12714
ga	-12715
사건	-12716
집을	-12717
osu	-12718
▁성능	-12719
▁진흥	-12720
▁확충	-12721
▁것보다	-12722
▁회사에	-12723
abinet	-12724
▁proud	-12725
▁compete	-12726
▁resulting	-12727
▁institutional	-12728
님의	-12729
▁검출	-12730
▁조사한	-12731
▁Paul	-12732
▁주관하는	-12733
▁sincere	-12734
▁presence	-12735
▁닫	-12736
방에	-12737
400	-12738
▁지상	-12739
▁한미	-12740
▁expense	-12741
▁graduate	-12742
공업	-12743
베이	-12744
서로	-12745
ama	-12746
▁GS	-12747
▁오랫	-12748
osun	-12749
▁심사를	-12750
▁활동이	-12751
▁battery	-12752
▁irregular	-12753
▁공포	-12754
▁스웨	-12755
▁텐데	-12756
▁경쟁력	-12757
▁쪽으로	-12758
▁thick	-12759
▁bicycle	-12760
▁freedom	-12761
▁exhibitions	-12762
▁Sewol	-12763
▁sources	-12764
▁adjustment	-12765
▁cancellation	-12766
▁마련됐다	-12767
▁홈페이지	-12768
▁Techn	-12769
▁prefer	-12770
eth	-12771
▁GM	-12772
▁동해	-12773
▁입력	-12774
aret	-12775
▁잘못된	-12776
amber	-12777
▁Galaxy	-12778
aekwondo	-12779
▁issuance	-12780
▁momentum	-12781
▁generations	-12782
▁예전	-12783
▁점유	-12784
▁방향을	-12785
▁정책이	-12786
▁guess	-12787
▁spect	-12788
▁refused	-12789
▁principal	-12790
▁두려	-12791
▁송파	-12792
▁성폭력	-12793
▁이하의	-12794
▁Post	-12795
▁미국에서	-12796
▁Panmun	-12797
▁Autonom	-12798
▁manipulation	-12799
wood	-12800
▁investigations	-12801
협약	-12802
eon	-12803
▁균형	-12804
▁너에게	-12805
▁utilize	-12806
▁Southeast	-12807
▁너를	-12808
▁부처	-12809
▁한강	-12810
▁사건의	-12811
▁시민단체	-12812
▁cited	-12813
▁fisher	-12814
▁theory	-12815
▁maintaining	-12816
드려	-12817
청에	-12818
rian	-12819
▁Bel	-12820
▁이뤄진	-12821
▁특별히	-12822
▁Times	-12823
▁feasibility	-12824
▁『	-12825
▁국방부	-12826
▁만나는	-12827
▁필요할	-12828
profit	-12829
▁matches	-12830
▁selecting	-12831
여개	-12832
주행	-12833
▁비판이	-12834
▁어디에	-12835
▁오랫동안	-12836
▁위원으로	-12837
▁violating	-12838
▁livelihood	-12839
비와	-12840
▁대여	-12841
▁이래	-12842
iant	-12843
▁90%	-12844
▁Har	-12845
▁cup	-12846
▁내렸다	-12847
▁2004	-12848
▁detect	-12849
▁collapsed	-12850
워서	-12851
▁67	-12852
▁면제	-12853
▁Buk	-12854
▁날씨가	-12855
▁환자가	-12856
ometown	-12857
▁김현	-12858
▁육아	-12859
▁크고	-12860
하였고	-12861
▁settled	-12862
29	-12863
4)	-12864
▁상환	-12865
▁저를	-12866
▁60%	-12867
▁그렇지	-12868
▁영업이	-12869
▁좋겠다	-12870
▁Paris	-12871
▁incor	-12872
▁Amazon	-12873
원장	-12874
▁하자	-12875
▁Card	-12876
▁pork	-12877
▁작성하여	-12878
▁격려	-12879
▁upd	-12880
▁상태로	-12881
▁Tele	-12882
▁cake	-12883
▁furn	-12884
▁chair	-12885
habilit	-12886
▁opposed	-12887
▁supposed	-12888
generation	-12889
▁thoroughly	-12890
통을	-12891
hai	-12892
▁대처	-12893
iger	-12894
▁impr	-12895
▁displayed	-12896
▁Competition	-12897
38	-12898
TBC	-12899
▁다루	-12900
norm	-12901
rupt	-12902
▁Sen	-12903
▁것이라	-12904
▁행위를	-12905
▁Next	-12906
▁anymore	-12907
▁correspond	-12908
▁번째로	-12909
▁없으면	-12910
▁magaz	-12911
▁Branch	-12912
▁customs	-12913
▁factories	-12914
권은	-12915
유를	-12916
asc	-12917
▁게재	-12918
▁겪는	-12919
▁이정	-12920
▁후속	-12921
▁기온이	-12922
▁좋아요	-12923
▁시행규칙	-12924
▁quiet	-12925
▁solar	-12926
▁ultra	-12927
▁Jeonju	-12928
▁Fl	-12929
▁그중	-12930
▁호에	-12931
▁단순히	-12932
▁때문이에요	-12933
축제	-12934
▁단기	-12935
eong	-12936
▁ton	-12937
▁사항에	-12938
▁연구원은	-12939
▁Awards	-12940
▁willingness	-12941
설이	-12942
지인	-12943
▁술을	-12944
▁지분	-12945
일자리	-12946
When	-12947
▁서울의	-12948
▁전기차	-12949
arbage	-12950
▁radio	-12951
ederation	-12952
들어	-12953
디션	-12954
식에서	-12955
tech	-12956
▁활동에	-12957
중인	-12958
▁배려	-12959
▁의존	-12960
▁일환	-12961
▁최창식	-12962
▁Buddhist	-12963
과장	-12964
평양	-12965
▁aw	-12966
▁맡아	-12967
▁스튜	-12968
인들은	-12969
ello	-12970
▁Leg	-12971
▁김씨는	-12972
▁문화가	-12973
▁화려한	-12974
acing	-12975
▁peninsula	-12976
AD	-12977
▁되며	-12978
▁물러	-12979
▁워크	-12980
사업이	-12981
▁propos	-12982
▁Qu	-12983
▁뉴스	-12984
▁Jak	-12985
▁국가대표	-12986
▁closer	-12987
▁escape	-12988
▁enjoying	-12989
일보	-12990
▁85	-12991
▁guil	-12992
▁inher	-12993
문제	-12994
재정부	-12995
▁국내에서	-12996
▁Future	-12997
▁strategies	-12998
방법	-12999
함과	-13000
tra	-13001
▁내내	-13002
etic	-13003
매매	-13004
수한	-13005
▁극단	-13006
▁무더	-13007
▁adm	-13008
▁코리아	-13009
▁Gong	-13010
▁exting	-13011
▁solved	-13012
▁absence	-13013
익이	-13014
athy	-13015
▁이내로	-13016
▁인터뷰에서	-13017
▁국무위원장이	-13018
▁extingu	-13019
▁부작	-13020
▁열릴	-13021
▁시선을	-13022
▁않는다는	-13023
▁2016.	-13024
▁Asiana	-13025
▁workplace	-13026
▁시점	-13027
▁지목	-13028
센터는	-13029
▁하나가	-13030
▁행정안전	-13031
▁cheap	-13032
▁pieces	-13033
처분	-13034
▁가스	-13035
▁둔화	-13036
▁매력	-13037
▁Bas	-13038
▁기업을	-13039
▁진행한	-13040
▁제기됐다	-13041
▁주민들의	-13042
▁않기	-13043
▁congrat	-13044
▁subcontract	-13045
oT	-13046
sm	-13047
워요	-13048
▁사찰	-13049
▁조용	-13050
▁최신	-13051
▁호와	-13052
목으로	-13053
▁생활을	-13054
▁크리스마	-13055
▁mobil	-13056
▁Gwangjin	-13057
▁sufficient	-13058
▁들려	-13059
▁며칠	-13060
졌지만	-13061
주시기	-13062
▁phil	-13063
▁Ky	-13064
▁담겼다	-13065
▁aired	-13066
▁risks	-13067
▁refugees	-13068
비로	-13069
하길	-13070
▁성실	-13071
▁익숙	-13072
▁클래	-13073
▁portion	-13074
▁identify	-13075
▁countermeasures	-13076
▁1:	-13077
▁간호	-13078
▁모임	-13079
▁정지	-13080
▁정보가	-13081
▁회장의	-13082
▁permit	-13083
▁Olympic	-13084
▁answers	-13085
▁kilometers	-13086
면이	-13087
▁걸릴	-13088
▁김포	-13089
▁합리	-13090
시설이	-13091
▁늘어날	-13092
▁답했다	-13093
▁incumb	-13094
▁earnings	-13095
▁subsidiary	-13096
34	-13097
공급	-13098
▁72	-13099
▁들을	-13100
point	-13101
▁Mike	-13102
▁교통사고	-13103
▁spicy	-13104
▁Consum	-13105
▁processed	-13106
버그	-13107
▁그만	-13108
born	-13109
▁영향이	-13110
▁준비를	-13111
▁폐기물	-13112
while	-13113
▁Chan	-13114
▁harmony	-13115
▁acquaint	-13116
▁startups	-13117
출산	-13118
▁교과	-13119
▁에스	-13120
▁장이	-13121
▁합류	-13122
▁노동자	-13123
▁시리즈	-13124
▁최초의	-13125
▁calm	-13126
▁있었는데	-13127
▁honorary	-13128
▁celebrate	-13129
▁세금	-13130
▁진로	-13131
되기도	-13132
▁boom	-13133
▁데이터를	-13134
▁안정적인	-13135
▁제공한다	-13136
▁멘	-13137
중국	-13138
정부가	-13139
▁나타난	-13140
▁공정거래	-13141
▁준용한다	-13142
▁중국에서	-13143
▁마지막으로	-13144
▁practices	-13145
감과	-13146
▁Mo	-13147
enty	-13148
▁학생들은	-13149
▁ships	-13150
▁depict	-13151
Un	-13152
▁십	-13153
600	-13154
공사가	-13155
itch	-13156
▁교육과	-13157
ilateral	-13158
감한	-13159
마크	-13160
▁공인	-13161
▁김종	-13162
▁유족	-13163
미디어	-13164
▁포함하여	-13165
▁Summit	-13166
바른	-13167
▁동기	-13168
▁아들	-13169
▁아베	-13170
기까지	-13171
은행이	-13172
으로도	-13173
▁머리를	-13174
▁종로구	-13175
olute	-13176
▁phase	-13177
arta	-13178
▁위원이	-13179
▁기획재정부	-13180
▁regarded	-13181
▁textbook	-13182
▁원의	-13183
ores	-13184
▁voc	-13185
birth	-13186
▁Deok	-13187
▁9,	-13188
▁NH	-13189
▁기원	-13190
▁단위	-13191
▁25%	-13192
▁Out	-13193
▁검사를	-13194
▁기간을	-13195
▁토요일	-13196
고등학교	-13197
놨다	-13198
▁다이	-13199
▁동참	-13200
▁방치	-13201
rown	-13202
▁쓰레기	-13203
▁진행한다	-13204
▁engineering	-13205
Ph	-13206
복합	-13207
액의	-13208
프가	-13209
▁shel	-13210
▁worst	-13211
cription	-13212
▁outcome	-13213
▁admitted	-13214
▁샀	-13215
임대	-13216
▁명칭	-13217
▁부채	-13218
▁임원	-13219
▁관측이	-13220
▁원인을	-13221
▁mandatory	-13222
▁struggling	-13223
공공	-13224
노조	-13225
▁찍은	-13226
▁impose	-13227
▁winners	-13228
▁neighbors	-13229
▁충청	-13230
▁판문	-13231
page	-13232
▁blow	-13233
▁humans	-13234
▁states	-13235
▁assaulted	-13236
▁튀	-13237
급여	-13238
대사	-13239
래요	-13240
말을	-13241
▁일주일	-13242
▁위촉한다	-13243
번호	-13244
수행	-13245
▁La	-13246
▁본인	-13247
▁조심	-13248
▁태권	-13249
Park	-13250
▁경쟁이	-13251
▁그리스	-13252
▁근로자	-13253
▁hung	-13254
▁세계에서	-13255
igaret	-13256
▁moist	-13257
보장	-13258
가지로	-13259
▁기준에	-13260
▁Training	-13261
산화	-13262
▁2.	-13263
▁과제	-13264
▁이명	-13265
이어서	-13266
host	-13267
▁basket	-13268
▁garbage	-13269
론이	-13270
▁화학	-13271
itis	-13272
▁pal	-13273
▁있다며	-13274
▁Swed	-13275
▁arranged	-13276
▁disputes	-13277
▁incumbent	-13278
▁producing	-13279
▁직전	-13280
▁2.5	-13281
▁이들을	-13282
억원으로	-13283
▁imports	-13284
▁Resources	-13285
▁넷	-13286
▁펀드	-13287
▁Pay	-13288
▁Cooper	-13289
▁restruct	-13290
▁satisfied	-13291
▁seriously	-13292
▁덮	-13293
남도	-13294
할지	-13295
▁마련된	-13296
▁구청장의	-13297
▁입장이다	-13298
▁Dream	-13299
▁casual	-13300
▁length	-13301
▁꺾	-13302
현이	-13303
회관	-13304
▁목격	-13305
▁출판	-13306
레이드	-13307
rapy	-13308
▁보조금	-13309
▁부분은	-13310
▁분명히	-13311
▁페스티벌	-13312
▁학교에서	-13313
▁fails	-13314
▁hometown	-13315
▁Framework	-13316
AE	-13317
suk	-13318
▁마주	-13319
▁소리	-13320
▁수료	-13321
산업의	-13322
fast	-13323
▁젊은이	-13324
ultane	-13325
▁error	-13326
.'	-13327
▁떡	-13328
▁나섰	-13329
기간이	-13330
▁Cal	-13331
▁reun	-13332
▁smoke	-13333
▁waves	-13334
▁lowered	-13335
▁dementia	-13336
▁swimming	-13337
▁Conference	-13338
라가	-13339
위기	-13340
풍이	-13341
▁아마존	-13342
▁Shang	-13343
▁harmful	-13344
▁rebound	-13345
▁fighting	-13346
▁informed	-13347
habilitation	-13348
양이	-13349
유통	-13350
▁발주	-13351
▁포럼	-13352
겠네요	-13353
wing	-13354
▁개선을	-13355
▁경제가	-13356
▁2021	-13357
▁Club	-13358
▁Test	-13359
▁POSCO	-13360
▁Tuesday	-13361
▁Election	-13362
▁Constitutional	-13363
지수	-13364
해왔	-13365
▁검은	-13366
▁비치	-13367
▁시사	-13368
▁전투	-13369
생활을	-13370
▁wine	-13371
▁보유하고	-13372
urrence	-13373
포먼	-13374
▁메르	-13375
▁간사는	-13376
▁granted	-13377
▁accurate	-13378
▁intellectual	-13379
32	-13380
늦게	-13381
pil	-13382
▁발사	-13383
▁임신	-13384
▁없었던	-13385
▁정규직	-13386
enery	-13387
▁이상으로	-13388
▁teach	-13389
▁timing	-13390
▁subordinate	-13391
▁controversial	-13392
이니	-13393
pet	-13394
▁Abe	-13395
▁Mor	-13396
▁높이는	-13397
▁folk	-13398
acheon	-13399
▁곳을	-13400
▁양측	-13401
▁balanced	-13402
▁operates	-13403
▁somewhat	-13404
가와	-13405
모를	-13406
▁무시	-13407
▁미팅	-13408
▁분석한	-13409
▁stages	-13410
▁콩	-13411
▁성별	-13412
▁안녕	-13413
▁발언을	-13414
▁줄어든	-13415
▁evac	-13416
▁clothing	-13417
▁흰	-13418
▁신입	-13419
▁주변에	-13420
▁확인한	-13421
▁소상공인	-13422
▁좋겠어요	-13423
▁Account	-13424
▁analyze	-13425
▁얻어	-13426
▁영수	-13427
▁사고를	-13428
▁성장을	-13429
▁받아들이	-13430
▁Prize	-13431
▁Goryeo	-13432
▁Members	-13433
▁limitations	-13434
부담	-13435
토록	-13436
.0%	-13437
▁등급	-13438
정규직	-13439
▁어떠한	-13440
▁Unions	-13441
▁냄새	-13442
▁미칠	-13443
▁석유	-13444
▁않으	-13445
▁저렴한	-13446
▁iron	-13447
▁neck	-13448
▁Commerce	-13449
▁Exhibition	-13450
종을	-13451
▁분노	-13452
▁신임	-13453
▁미국에	-13454
▁실적이	-13455
onents	-13456
▁Chosun	-13457
▁precious	-13458
분쟁	-13459
oto	-13460
▁느꼈	-13461
▁살인	-13462
▁어깨	-13463
▁Who	-13464
▁보고서	-13465
▁유일한	-13466
▁larger	-13467
▁allowance	-13468
▁expiration	-13469
▁휩	-13470
▁부지	-13471
olic	-13472
▁바이어	-13473
▁본인이	-13474
▁음주운	-13475
▁최근에는	-13476
▁원내대표는	-13477
▁Enterpr	-13478
▁inauguration	-13479
렸던	-13480
르지	-13481
티즌	-13482
▁과반	-13483
▁삭제	-13484
▁dele	-13485
inances	-13486
연한	-13487
urb	-13488
otic	-13489
▁Chae	-13490
▁philos	-13491
▁Theater	-13492
▁Uzbekistan	-13493
ti	-13494
구로	-13495
받침	-13496
세의	-13497
인터	-13498
▁경계	-13499
하다가	-13500
▁아름다	-13501
▁경기북부	-13502
▁콘텐츠를	-13503
ocheon	-13504
▁Chungnam	-13505
▁probably	-13506
차는	-13507
▁지명	-13508
만원의	-13509
였지만	-13510
▁맛있는	-13511
▁Wang	-13512
▁boyfriend	-13513
이상	-13514
▁77	-13515
▁나눔	-13516
▁맞지	-13517
▁소외	-13518
▁많아서	-13519
▁쇼핑몰	-13520
myeong	-13521
▁risen	-13522
inisters	-13523
▁circles	-13524
ID	-13525
회와	-13526
▁감시	-13527
▁계절	-13528
▁심리	-13529
▁입원	-13530
▁기관의	-13531
▁반응이	-13532
▁부분에	-13533
▁Okay	-13534
▁원칙으로	-13535
inating	-13536
▁missed	-13537
▁Kookmin	-13538
인력	-13539
▁갖춰	-13540
▁날씨	-13541
▁서민	-13542
▁160	-13543
▁amb	-13544
▁다음과	-13545
▁주목을	-13546
▁차량이	-13547
▁Hist	-13548
▁참여했다	-13549
▁Pastor	-13550
▁reviews	-13551
▁promising	-13552
문학	-13553
▁보좌	-13554
▁일에	-13555
▁전파	-13556
▁정규	-13557
하기를	-13558
▁마세요	-13559
▁손해배	-13560
▁정도가	-13561
Chairman	-13562
리핑	-13563
▁발령	-13564
▁제도를	-13565
▁Here	-13566
▁지역경제	-13567
▁helic	-13568
▁seniors	-13569
▁FA	-13570
▁상용	-13571
▁금액을	-13572
▁angry	-13573
▁Jakarta	-13574
▁abundant	-13575
zy	-13576
▁듯한	-13577
▁방영	-13578
▁수사가	-13579
▁협상이	-13580
▁Like	-13581
▁bread	-13582
▁cream	-13583
▁immun	-13584
▁을	-13585
렉시	-13586
▁당직	-13587
▁대외	-13588
▁학술	-13589
▁Seon	-13590
▁perception	-13591
▁statements	-13592
▁particularly	-13593
▁맑	-13594
리면	-13595
IST	-13596
▁건너	-13597
▁물이	-13598
▁추모	-13599
지역의	-13600
word	-13601
▁inn	-13602
▁연락을	-13603
night	-13604
▁generated	-13605
▁Revolution	-13606
▁insufficient	-13607
터가	-13608
터를	-13609
amm	-13610
▁뒤를	-13611
▁만료	-13612
▁주지	-13613
▁창작	-13614
▁2017.	-13615
▁bodies	-13616
▁utilizing	-13617
▁Protection	-13618
부로	-13619
었기	-13620
▁돌입	-13621
▁지닌	-13622
▁폭로	-13623
angible	-13624
▁helicop	-13625
▁invoice	-13626
▁공약	-13627
▁과정에	-13628
▁inject	-13629
▁insisted	-13630
골을	-13631
▁MC	-13632
▁Guro	-13633
▁대한항공	-13634
family	-13635
isting	-13636
▁Force	-13637
주와	-13638
▁매월	-13639
▁과정이	-13640
▁국민이	-13641
▁부장판	-13642
▁자리가	-13643
▁involve	-13644
▁섞	-13645
수석	-13646
위탁	-13647
▁오프	-13648
▁의장	-13649
▁재발	-13650
데이트	-13651
콘텐츠	-13652
▁하는지	-13653
▁그렇다면	-13654
xit	-13655
▁두산	-13656
▁무상	-13657
▁보행	-13658
rete	-13659
uate	-13660
▁된다고	-13661
haust	-13662
▁빅데이터	-13663
▁새해	-13664
▁공간이	-13665
▁기업에	-13666
ented	-13667
▁JTBC	-13668
▁Over	-13669
▁note	-13670
▁스웨덴	-13671
▁패스트	-13672
▁한국문화	-13673
▁micro	-13674
▁vegetables	-13675
▁temperatures	-13676
▁등도	-13677
관계를	-13678
▁west	-13679
▁curious	-13680
▁joining	-13681
국인	-13682
안과	-13683
치로	-13684
▁높게	-13685
▁신문	-13686
▁지내	-13687
▁진상	-13688
▁Ber	-13689
▁없는데	-13690
ducer	-13691
urches	-13692
▁climb	-13693
▁Proper	-13694
▁Presidential	-13695
▁99	-13696
▁어때	-13697
▁전원	-13698
▁청약	-13699
결과를	-13700
▁상태가	-13701
▁영화는	-13702
▁집으로	-13703
▁테이블	-13704
▁Black	-13705
jeongbu	-13706
▁sitting	-13707
▁consultations	-13708
gin	-13709
▁널리	-13710
▁발효	-13711
▁시가	-13712
▁휴가	-13713
writ	-13714
▁도지사	-13715
force	-13716
▁Namyang	-13717
▁slowdown	-13718
▁partially	-13719
률은	-13720
질의	-13721
▁권리	-13722
▁냈다	-13723
▁이게	-13724
▁치러	-13725
irds	-13726
▁Eui	-13727
▁지정된	-13728
▁piece	-13729
▁simultane	-13730
료의	-13731
body	-13732
▁갤럭시	-13733
▁일어난	-13734
▁투자가	-13735
▁Broad	-13736
▁Establ	-13737
▁offers	-13738
▁indicators	-13739
▁장식	-13740
카르타	-13741
▁remov	-13742
▁officio	-13743
EX	-13744
견을	-13745
고는	-13746
▁매매	-13747
▁정식	-13748
▁Put	-13749
▁rid	-13750
▁얘기다	-13751
President	-13752
▁championship	-13753
MS	-13754
만여	-13755
▁6·	-13756
▁노무	-13757
▁매달	-13758
▁키워	-13759
▁내놓은	-13760
ounder	-13761
▁exactly	-13762
▁funding	-13763
▁confront	-13764
▁poss	-13765
hun	-13766
▁급여	-13767
▁본격화	-13768
▁pul	-13769
▁위촉직	-13770
▁최우수	-13771
▁떨어지는	-13772
▁실시하고	-13773
▁truck	-13774
▁Jeonnam	-13775
▁만났	-13776
▁pool	-13777
▁sexually	-13778
▁percentage	-13779
▁effectively	-13780
▁칭	-13781
와는	-13782
▁반박	-13783
▁LED	-13784
▁받는다	-13785
▁증가했다	-13786
▁uncon	-13787
▁manpower	-13788
31	-13789
My	-13790
평균	-13791
jud	-13792
▁부착	-13793
▁순위	-13794
▁그에게	-13795
▁소규모	-13796
▁생각하고	-13797
▁temple	-13798
▁preservation	-13799
▁꼼	-13800
▁고향	-13801
▁맡고	-13802
▁문건	-13803
▁지사	-13804
stan	-13805
▁Fac	-13806
▁무대에	-13807
▁시간은	-13808
통합	-13809
▁관여	-13810
▁항소	-13811
▁관리에	-13812
▁네티즌	-13813
▁아버지	-13814
인들에게	-13815
▁선정됐다	-13816
▁sauce	-13817
▁earned	-13818
▁hearts	-13819
▁arrange	-13820
▁주기	-13821
▁die	-13822
▁않아서	-13823
▁퍼포먼	-13824
▁Book	-13825
▁denied	-13826
▁stayed	-13827
▁reviewing	-13828
▁consultative	-13829
▁advertisement	-13830
적한	-13831
▁무려	-13832
▁늘었다	-13833
▁당분간	-13834
▁증상이	-13835
▁포스코	-13836
▁재판부는	-13837
▁닭	-13838
하러	-13839
▁광진	-13840
▁남양	-13841
▁Foot	-13842
▁colonial	-13843
▁excluding	-13844
▁constantly	-13845
종이	-13846
▁화물	-13847
berg	-13848
▁attrib	-13849
▁membership	-13850
통상	-13851
▁천연	-13852
었으나	-13853
▁치열한	-13854
▁대중교통	-13855
▁세계적으로	-13856
▁volunteers	-13857
▁개통	-13858
▁공원	-13859
▁현황	-13860
kyun	-13861
▁한계가	-13862
▁Italy	-13863
렸고	-13864
졌던	-13865
▁발생해	-13866
▁즐기는	-13867
▁자카르타	-13868
▁드리겠습니다	-13869
▁girlfriend	-13870
말로	-13871
▁CO	-13872
▁싫어	-13873
▁sin	-13874
▁목숨을	-13875
▁Rail	-13876
▁beach	-13877
inistries	-13878
▁Uijeongbu	-13879
▁literature	-13880
▁잦	-13881
공장	-13882
아동	-13883
짜리	-13884
gok	-13885
▁대통령을	-13886
▁Airlines	-13887
▁sensitive	-13888
▁Environmental	-13889
▁붉	-13890
▁76	-13891
▁빌려	-13892
▁KTX	-13893
▁자금을	-13894
▁연구개발	-13895
▁Angel	-13896
▁stamp	-13897
6)	-13898
마자	-13899
지난	-13900
▁스위	-13901
▁일방	-13902
▁닿	-13903
uous	-13904
▁사유로	-13905
▁scores	-13906
▁settle	-13907
▁assistance	-13908
▁구직	-13909
▁독특한	-13910
▁사용자가	-13911
▁Lunar	-13912
▁tuition	-13913
▁intended	-13914
EU	-13915
얀마	-13916
▁Os	-13917
리면서	-13918
▁금메달	-13919
▁넘치는	-13920
▁뒷받침	-13921
▁libr	-13922
▁하나님의	-13923
▁통보하여야	-13924
▁absolute	-13925
놓고	-13926
느라	-13927
rok	-13928
▁시공	-13929
▁glad	-13930
▁root	-13931
▁실질적인	-13932
inking	-13933
▁Gimpo	-13934
▁Given	-13935
▁carbon	-13936
▁expressing	-13937
유아	-13938
화는	-13939
▁강아	-13940
▁캠프	-13941
▁조례에서	-13942
▁citing	-13943
▁answered	-13944
▁critical	-13945
폐기물	-13946
▁되도록	-13947
▁1970	-13948
▁donations	-13949
▁subscribers	-13950
▁temporarily	-13951
▁가질	-13952
▁thr	-13953
▁곧바로	-13954
▁동영상	-13955
▁않을까	-13956
▁훌륭한	-13957
field	-13958
▁kill	-13959
▁만들어진	-13960
▁2013,	-13961
▁abnorm	-13962
▁assigned	-13963
▁fundamental	-13964
▁subscription	-13965
▁NC	-13966
▁공시	-13967
▁선적	-13968
했는지	-13969
▁Tom	-13970
됐습니다	-13971
위원회에	-13972
▁bear	-13973
▁업데이트	-13974
▁letters	-13975
지검	-13976
▁골목	-13977
▁서구	-13978
▁찾기	-13979
동조합	-13980
▁무엇이	-13981
▁성폭행	-13982
▁의정부	-13983
inals	-13984
▁Hana	-13985
▁법원행정	-13986
▁sixth	-13987
▁성공적으로	-13988
▁갖는	-13989
▁기대가	-13990
▁Major	-13991
▁shout	-13992
▁scenes	-13993
▁exhaust	-13994
▁separated	-13995
48	-13996
DS	-13997
▁상무	-13998
▁세입	-13999
▁아울	-14000
▁연수	-14001
▁절감	-14002
▁화가	-14003
▁Ban	-14004
▁faced	-14005
▁client	-14006
▁studio	-14007
▁reflecting	-14008
결정	-14009
▁위축	-14010
▁국무총	-14011
▁성적을	-14012
▁심지어	-14013
▁이같은	-14014
▁정책에	-14015
aming	-14016
▁ministries	-14017
곳이	-14018
품이	-14019
▁뮤직	-14020
▁색깔	-14021
▁없기	-14022
▁접속	-14023
문화재	-14024
lock	-14025
plus	-14026
▁세월호	-14027
▁fostering	-14028
▁advertisements	-14029
로그	-14030
소한	-14031
▁VR	-14032
▁당해	-14033
▁110	-14034
▁국가가	-14035
▁형태의	-14036
▁upgr	-14037
▁marks	-14038
분석	-14039
야구	-14040
업에	-14041
전과	-14042
▁라인	-14043
도지사	-14044
심으로	-14045
rooms	-14046
▁ferry	-14047
▁Contest	-14048
▁stronger	-14049
▁systematic	-14050
루킹	-14051
▁기무	-14052
하기가	-14053
whel	-14054
▁다르게	-14055
▁east	-14056
▁모니터링	-14057
▁fines	-14058
fledged	-14059
▁killing	-14060
ifications	-14061
▁considerable	-14062
▁내지	-14063
▁유사	-14064
▁기록을	-14065
oseong	-14066
▁dismant	-14067
▁kitchen	-14068
▁entrepreneurs	-14069
ps	-14070
▁달라고	-14071
▁작업이	-14072
▁협력을	-14073
▁Winter	-14074
▁wastes	-14075
▁emotions	-14076
▁펴	-14077
스토랑	-14078
odel	-14079
▁당연직	-14080
▁되면서	-14081
▁주민이	-14082
pection	-14083
▁batter	-14084
▁61	-14085
▁깊이	-14086
▁당한	-14087
▁에너	-14088
▁이어진	-14089
▁회사는	-14090
▁visual	-14091
▁artistic	-14092
▁secondary	-14093
영리	-14094
카이	-14095
"),	-14096
▁수행할	-14097
▁toile	-14098
▁interviews	-14099
▁벌금	-14100
▁예외	-14101
▁획득	-14102
▁속도가	-14103
▁음식이	-14104
▁breaking	-14105
▁intensive	-14106
▁solutions	-14107
▁photograph	-14108
He	-14109
바지	-14110
▁융합	-14111
▁방안이	-14112
▁인정되는	-14113
▁imprison	-14114
▁힐	-14115
권과	-14116
▁몸이	-14117
▁중국과	-14118
▁(1).	-14119
▁담당하는	-14120
▁academy	-14121
▁heating	-14122
▁struggle	-14123
▁되길	-14124
▁받기	-14125
▁왼쪽	-14126
▁입찰	-14127
▁(2),	-14128
▁Coast	-14129
▁pursue	-14130
▁값	-14131
뱅크	-14132
요금	-14133
·18	-14134
▁붕괴	-14135
▁승객	-14136
hyuk	-14137
▁벌이고	-14138
▁보내는	-14139
▁beef	-14140
▁훈	-14141
시키기	-14142
▁mir	-14143
▁방식을	-14144
▁소송을	-14145
▁역량을	-14146
erous	-14147
▁persu	-14148
▁cutting	-14149
▁otherwise	-14150
IM	-14151
정비	-14152
해줄	-14153
▁김용	-14154
▁퇴근	-14155
olitical	-14156
▁tension	-14157
▁Building	-14158
▁Gangdong	-14159
▁overwhel	-14160
▁종종	-14161
▁Wan	-14162
ondon	-14163
▁locals	-14164
▁shipment	-14165
▁산정	-14166
▁다음에	-14167
▁수준을	-14168
▁언제나	-14169
▁예산이	-14170
▁원인이	-14171
▁이곳은	-14172
▁경기도내	-14173
▁국민연금	-14174
bi	-14175
밀한	-14176
▁아침에	-14177
▁Africa	-14178
▁Investigation	-14179
나게	-14180
▁적절	-14181
▁체납	-14182
▁발견된	-14183
uries	-14184
▁sacr	-14185
▁easing	-14186
▁highlight	-14187
▁certificates	-14188
▁틈	-14189
▁놀이	-14190
▁회의에	-14191
▁pedest	-14192
▁wealth	-14193
▁noodles	-14194
▁reserve	-14195
▁sustainable	-14196
▁Heavy	-14197
▁cheer	-14198
회로	-14199
▁73	-14200
▁나오지	-14201
치에	-14202
화학	-14203
▁댄스	-14204
▁올랐	-14205
▁한마	-14206
화하는	-14207
gypt	-14208
▁Ren	-14209
▁아니지만	-14210
mittees	-14211
ponding	-14212
▁collaboration	-14213
장비	-14214
▁El	-14215
▁시에	-14216
tegr	-14217
▁무엇인지	-14218
▁어렵다는	-14219
▁attractions	-14220
PA	-14221
ona	-14222
▁불어	-14223
▁여겨	-14224
▁이주	-14225
방안을	-14226
▁alt	-14227
▁쏠리고	-14228
cling	-14229
▁Hello	-14230
▁netiz	-14231
▁overl	-14232
▁reviewed	-14233
▁음료	-14234
센터의	-14235
▁들어오	-14236
ordinary	-14237
가정	-14238
파가	-14239
▁amaz	-14240
▁받았습니다	-14241
▁deceased	-14242
▁analyzing	-14243
▁restricted	-14244
▁르	-14245
미는	-14246
lar	-14247
▁Ja	-14248
▁방해	-14249
▁규모로	-14250
▁엄청난	-14251
▁collective	-14252
유산	-14253
▁할지	-14254
▁배우고	-14255
▁병원에	-14256
▁사건에	-14257
▁Crit	-14258
▁Byeong	-14259
▁violated	-14260
▁팝	-14261
색이	-14262
심한	-14263
편이	-14264
▁아쉽	-14265
▁오면	-14266
▁우울	-14267
이라서	-14268
▁boss	-14269
▁위원회에	-14270
▁Offic	-14271
▁Gyeongju	-14272
기반	-14273
사람	-14274
소통	-14275
▁강연	-14276
▁유행	-14277
▁가격은	-14278
ivile	-14279
▁2003	-14280
▁많습니다	-14281
▁지원하고	-14282
▁western	-14283
▁Transportation	-14284
▁몰랐	-14285
▁소설	-14286
▁아예	-14287
▁증언	-14288
자료를	-14289
▁taxp	-14290
▁이미지를	-14291
General	-14292
▁finals	-14293
양의	-14294
준이	-14295
체에	-14296
▁대우	-14297
▁조달	-14298
▁주한	-14299
호서식	-14300
wage	-14301
▁Tre	-14302
▁사용을	-14303
▁사업이다	-14304
▁Library	-14305
▁explains	-14306
▁abandoned	-14307
▁manufacturers	-14308
▁넓은	-14309
▁영역	-14310
▁함은	-14311
gram	-14312
▁마련한	-14313
▁올라가	-14314
▁협상을	-14315
▁레스토랑	-14316
▁촉구했다	-14317
▁pastor	-14318
government	-14319
▁빵	-14320
▁과목	-14321
▁구제	-14322
▁뷰티	-14323
aser	-14324
▁손흥민	-14325
▁지사가	-14326
▁magn	-14327
▁Egypt	-14328
▁Various	-14329
▁법안	-14330
▁앞장	-14331
▁창조	-14332
하기에	-14333
ulpt	-14334
▁tun	-14335
▁경우를	-14336
▁문화체육	-14337
▁anger	-14338
▁weapon	-14339
차량	-14340
▁전수	-14341
▁진보	-14342
어린이	-14343
▁느끼는	-14344
▁stip	-14345
▁robot	-14346
▁Except	-14347
▁formal	-14348
▁graduates	-14349
▁다섯	-14350
▁스피	-14351
▁오지	-14352
▁우주	-14353
시장의	-14354
▁참가한	-14355
▁찾아가	-14356
▁지적이다	-14357
▁expectation	-14358
간다	-14359
ech	-14360
▁근육	-14361
▁많지	-14362
▁Mac	-14363
▁equal	-14364
▁Brexit	-14365
▁Custom	-14366
▁Period	-14367
▁lights	-14368
▁기아	-14369
▁김지	-14370
▁대다	-14371
▁돌봄	-14372
하지는	-14373
▁안전관리	-14374
▁booked	-14375
▁concrete	-14376
▁preferential	-14377
▁문자	-14378
▁Myan	-14379
▁실시하는	-14380
▁moves	-14381
여야	-14382
een	-14383
▁od	-14384
▁성사	-14385
▁쉬운	-14386
▁보내고	-14387
▁인정할	-14388
▁제시한	-14389
▁하여금	-14390
▁guilty	-14391
▁recession	-14392
확인	-14393
gyu	-14394
▁수렴	-14395
icks	-14396
seon	-14397
sequ	-14398
▁env	-14399
▁compar	-14400
▁Shanghai	-14401
▁attraction	-14402
연대	-14403
▁62	-14404
▁내게	-14405
▁유망	-14406
▁인명	-14407
기간을	-14408
chun	-14409
▁row	-14410
▁차세대	-14411
▁Mich	-14412
▁London	-14413
ils	-14414
unt	-14415
▁범행	-14416
▁체감	-14417
▁오른쪽	-14418
▁discover	-14419
▁democracy	-14420
▁calculated	-14421
친다	-14422
▁막을	-14423
▁조각	-14424
usan	-14425
▁hik	-14426
▁국무장	-14427
▁입장이	-14428
▁impressive	-14429
▁subcommittee	-14430
준비	-14431
▁솔루	-14432
▁쓰러	-14433
▁피아	-14434
▁너무나	-14435
▁사례를	-14436
▁현재의	-14437
▁지원대상	-14438
▁boast	-14439
▁walls	-14440
▁부위원장은	-14441
낸다	-14442
▁Gw	-14443
▁생길	-14444
▁fab	-14445
▁끌었다	-14446
▁wound	-14447
편의	-14448
▁74	-14449
▁가요	-14450
▁유동	-14451
▁탑재	-14452
▁피곤	-14453
▁종전선언	-14454
▁colorful	-14455
▁affiliates	-14456
마켓	-14457
세한	-14458
자문	-14459
▁탄력	-14460
▁Tot	-14461
▁끝나고	-14462
▁준비한	-14463
print	-14464
▁kids	-14465
▁poet	-14466
ulatory	-14467
▁qualification	-14468
▁객관	-14469
▁그날	-14470
▁누적	-14471
▁둘째	-14472
▁최악	-14473
▁아니고	-14474
▁요청한	-14475
▁작품이	-14476
lomer	-14477
▁Play	-14478
▁fare	-14479
▁친구들이	-14480
▁Confuc	-14481
▁intense	-14482
▁Property	-14483
▁얻은	-14484
▁유아	-14485
▁창립	-14486
보세요	-14487
회에는	-14488
▁사무를	-14489
▁늘어나고	-14490
▁마련했다	-14491
▁turns	-14492
▁shortly	-14493
간에	-14494
배우	-14495
May	-14496
▁멀리	-14497
▁전직	-14498
었으며	-14499
inct	-14500
▁높았다	-14501
▁발전에	-14502
▁divid	-14503
99	-14504
계에	-14505
▁경력	-14506
▁입금	-14507
▁취급	-14508
▁한해	-14509
▁계속해서	-14510
▁주최하고	-14511
▁Private	-14512
▁pending	-14513
▁Students	-14514
▁reflects	-14515
▁tradition	-14516
▁무죄	-14517
▁아무런	-14518
▁사업으로	-14519
▁rumors	-14520
▁revitalization	-14521
▁PD	-14522
▁성추	-14523
▁시중	-14524
▁진정	-14525
beom	-14526
▁미얀마	-14527
▁적합한	-14528
되었으며	-14529
▁Seod	-14530
▁colle	-14531
▁제외하고는	-14532
▁bullet	-14533
▁superior	-14534
▁childbirth	-14535
▁delegation	-14536
·1	-14537
bak	-14538
▁김진	-14539
▁준다	-14540
▁프레	-14541
▁정보통신	-14542
▁원내대표가	-14543
▁indoor	-14544
▁titled	-14545
▁England	-14546
천여	-14547
made	-14548
▁다수의	-14549
▁전략을	-14550
▁소비자가	-14551
▁contained	-14552
▁relocation	-14553
장기	-14554
▁끊임	-14555
▁말할	-14556
관리를	-14557
▁강화를	-14558
agues	-14559
▁Span	-14560
▁pace	-14561
▁faces	-14562
▁parks	-14563
▁targets	-14564
▁Football	-14565
▁indirect	-14566
크를	-14567
ECD	-14568
▁무기	-14569
▁기관이	-14570
▁무대를	-14571
▁개최한다	-14572
▁Persons	-14573
▁achievement	-14574
군에	-14575
▁외무	-14576
▁전후	-14577
사업은	-14578
amun	-14579
isor	-14580
▁Drug	-14581
▁hate	-14582
▁Plaza	-14583
▁cargo	-14584
▁marked	-14585
▁Myanmar	-14586
▁incentives	-14587
▁켜	-14588
▁김해	-14589
▁조명	-14590
▁bot	-14591
▁하노이	-14592
▁보여준다	-14593
▁왔습니다	-14594
케어	-14595
화한	-14596
▁완전	-14597
▁은퇴	-14598
▁주재	-14599
▁파괴	-14600
acle	-14601
▁자료에	-14602
▁cycle	-14603
▁desper	-14604
▁intern	-14605
▁Jeonbuk	-14606
▁alliance	-14607
▁demanding	-14608
▁배정	-14609
라스틱	-14610
▁방법은	-14611
▁알리는	-14612
deung	-14613
▁개최했다	-14614
▁들어가는	-14615
▁entity	-14616
▁promotional	-14617
hi	-14618
견이	-14619
▁5%	-14620
았다고	-14621
정책을	-14622
하나요	-14623
▁당연히	-14624
▁현재는	-14625
▁후에는	-14626
▁요청했다	-14627
▁측면에서	-14628
iaries	-14629
▁Woori	-14630
ivalent	-14631
ady	-14632
▁능력	-14633
▁부르	-14634
▁이자	-14635
▁장난	-14636
▁치킨	-14637
▁대체로	-14638
▁이미지	-14639
▁사용하고	-14640
▁equality	-14641
▁profession	-14642
▁supporters	-14643
구에서	-14644
opol	-14645
▁Non	-14646
▁위탁할	-14647
▁태양광	-14648
agram	-14649
▁Open	-14650
▁impe	-14651
▁solving	-14652
▁쥐	-14653
문의	-14654
aut	-14655
▁고시	-14656
▁끈다	-14657
▁부천	-14658
▁생일	-14659
사회의	-14660
bing	-14661
▁pad	-14662
▁사용해	-14663
▁crew	-14664
iosity	-14665
▁마찬가지로	-14666
▁20,000	-14667
▁equity	-14668
▁aggress	-14669
▁happens	-14670
▁philosop	-14671
▁talented	-14672
▁furniture	-14673
▁restructuring	-14674
부산	-14675
▁Ap	-14676
▁구미	-14677
▁김상	-14678
▁갖추고	-14679
▁우즈베	-14680
하더라도	-14681
aired	-14682
iations	-14683
▁minimize	-14684
청년	-14685
▁가상	-14686
▁달아	-14687
홀에서	-14688
▁140	-14689
▁금융감독	-14690
▁Jinju	-14691
▁nursing	-14692
▁monetary	-14693
파이	-14694
▁다운	-14695
▁메모	-14696
▁테러	-14697
▁cred	-14698
▁확인했다	-14699
chestra	-14700
essions	-14701
▁scenery	-14702
▁evaluate	-14703
▁software	-14704
▁웨	-14705
▁고조	-14706
▁모범	-14707
▁아우	-14708
용으로	-14709
▁lov	-14710
esides	-14711
▁2012,	-14712
▁Audit	-14713
▁seminar	-14714
ked	-14715
하자는	-14716
rect	-14717
▁Bund	-14718
▁드립니다	-14719
▁한국어를	-14720
▁engage	-14721
▁churches	-14722
▁claiming	-14723
▁Championship	-14724
▁characterized	-14725
성한	-14726
▁(7	-14727
▁무한	-14728
▁이수	-14729
▁컸다	-14730
▁파주	-14731
▁협업	-14732
▁보고서를	-14733
▁comed	-14734
ya	-14735
점과	-14736
▁비대	-14737
▁대표의	-14738
▁생각에	-14739
▁중국에	-14740
stood	-14741
rating	-14742
▁Memor	-14743
▁‘2019	-14744
▁surprise	-14745
미널	-14746
dep	-14747
▁팀을	-14748
체계를	-14749
▁근처에	-14750
▁추진을	-14751
▁추진한다	-14752
▁revise	-14753
▁workshop	-14754
림을	-14755
전문가	-14756
▁말까지	-14757
▁중에는	-14758
month	-14759
omach	-14760
▁unions	-14761
▁crowded	-14762
▁ratings	-14763
▁movements	-14764
석의	-14765
연도	-14766
점의	-14767
▁EX	-14768
▁모인	-14769
▁무관	-14770
▁비싸	-14771
▁조현	-14772
fall	-14773
▁기업과	-14774
▁기상청은	-14775
▁중입니다	-14776
▁Yeosu	-14777
viously	-14778
▁Prosecutor	-14779
▁Establishment	-14780
▁노트	-14781
▁사퇴	-14782
▁애초	-14783
▁해수	-14784
▁fle	-14785
▁hub	-14786
▁fault	-14787
▁consol	-14788
▁restore	-14789
▁Regulations	-14790
jom	-14791
▁다채	-14792
▁수거	-14793
▁역량	-14794
▁illness	-14795
▁opposite	-14796
▁sponsored	-14797
웠던	-14798
▁IC	-14799
▁아니라는	-14800
Japanese	-14801
▁Prevention	-14802
▁맹	-14803
대행	-14804
uan	-14805
▁공화	-14806
▁대피	-14807
▁마침	-14808
▁평창	-14809
▁가족과	-14810
▁밖으로	-14811
▁이익을	-14812
▁조치가	-14813
▁Gumi	-14814
▁Judge	-14815
management	-14816
aka	-14817
▁88	-14818
▁느낀	-14819
▁서식	-14820
▁영등	-14821
대문구	-14822
▁노하우	-14823
▁않았던	-14824
▁hire	-14825
finding	-14826
▁cigaret	-14827
▁utilization	-14828
▁가짜	-14829
▁고성	-14830
▁실업	-14831
▁압도	-14832
▁Heo	-14833
▁vir	-14834
▁목표를	-14835
▁Emer	-14836
▁everyday	-14837
▁Dongdaemun	-14838
▁corresponding	-14839
▁관찰	-14840
▁브렉시	-14841
▁이곳에서	-14842
북도	-14843
절을	-14844
▁안심	-14845
지역에	-14846
▁지금도	-14847
▁helpful	-14848
셨다	-14849
져서	-14850
▁마시	-14851
▁탄핵	-14852
▁공시가	-14853
▁불편을	-14854
▁의지가	-14855
시장에서	-14856
ashed	-14857
▁hired	-14858
▁Leader	-14859
▁signal	-14860
▁pregnant	-14861
탄을	-14862
항이	-14863
▁잠을	-14864
▁시기에	-14865
▁의장은	-14866
▁pledge	-14867
▁correction	-14868
공정	-14869
히고	-14870
IFA	-14871
▁남한	-14872
▁떠난	-14873
▁심한	-14874
▁음성	-14875
▁Great	-14876
▁dealing	-14877
▁conglomer	-14878
▁dismissal	-14879
▁extraordinary	-14880
자연	-14881
패를	-14882
▁가공	-14883
▁서버	-14884
▁선제	-14885
▁임기	-14886
▁FSS	-14887
▁영화의	-14888
▁조금씩	-14889
▁이뤄지지	-14890
▁Integr	-14891
▁Spanish	-14892
▁stomach	-14893
▁instructors	-14894
▁면역	-14895
▁중부	-14896
▁홈런	-14897
iano	-14898
▁서울시가	-14899
ortion	-14900
▁manual	-14901
▁smaller	-14902
▁distingu	-14903
체로	-14904
키로	-14905
▁몰아	-14906
▁신호	-14907
▁의식	-14908
▁헤어	-14909
▁회사에서	-14910
▁strik	-14911
▁assistant	-14912
▁Expressway	-14913
ymn	-14914
▁대량	-14915
▁몇몇	-14916
이었던	-14917
해지는	-14918
▁Its	-14919
▁tri	-14920
▁승리를	-14921
▁요구할	-14922
cript	-14923
▁inning	-14924
▁speaking	-14925
법은	-14926
Act	-14927
▁국경	-14928
▁급등	-14929
▁금요일	-14930
▁사용자	-14931
▁요구가	-14932
▁이처럼	-14933
Since	-14934
▁Daewoo	-14935
▁resource	-14936
▁Panmunjom	-14937
▁grandmother	-14938
▁동생	-14939
▁일고	-14940
▁것이고	-14941
▁tall	-14942
▁참여하고	-14943
▁knows	-14944
▁belief	-14945
▁Authority	-14946
▁confusion	-14947
▁curiosity	-14948
재는	-14949
▁어른	-14950
▁이집	-14951
▁사건은	-14952
▁이곳에	-14953
▁진행했다	-14954
▁50,000	-14955
▁Indian	-14956
▁savings	-14957
▁unemployment	-14958
▁accommodation	-14959
▁대목	-14960
▁밀집	-14961
▁적어	-14962
는데요	-14963
▁모았다	-14964
▁일환으로	-14965
aesong	-14966
▁makeup	-14967
▁attorney	-14968
chairperson	-14969
▁층	-14970
▁da	-14971
▁내외	-14972
▁이거	-14973
중소기업	-14974
▁2015.	-14975
▁preced	-14976
▁acquired	-14977
▁charging	-14978
TF	-14979
실과	-14980
위와	-14981
키는	-14982
퍼런	-14983
부에서	-14984
▁거리가	-14985
▁나한테	-14986
▁높이기	-14987
▁아름답	-14988
▁dies	-14989
▁exit	-14990
▁Chungcheongnam	-14991
▁커질	-14992
▁fro	-14993
▁휴대폰	-14994
▁Above	-14995
▁winds	-14996
▁apology	-14997
아웃	-14998
dis	-14999
▁끝내	-15000
▁ends	-15001
▁gifts	-15002
▁noted	-15003
▁Instead	-15004
▁78	-15005
▁배가	-15006
▁소형	-15007
사들의	-15008
ether	-15009
▁하더라도	-15010
▁fever	-15011
▁liked	-15012
▁spark	-15013
deungpo	-15014
▁Looking	-15015
▁excited	-15016
▁Democracy	-15017
▁constructed	-15018
▁달에	-15019
▁인적	-15020
▁편집	-15021
▁작성한	-15022
▁Bible	-15023
▁remind	-15024
amination	-15025
양을	-15026
▁감축	-15027
▁도가	-15028
▁수시로	-15029
▁살펴보면	-15030
▁welcome	-15031
▁responses	-15032
신의	-15033
평을	-15034
▁마이	-15035
▁재료	-15036
▁관련이	-15037
▁규칙은	-15038
▁리스트	-15039
▁Mean	-15040
▁mort	-15041
▁시민들의	-15042
▁thousands	-15043
xy	-15044
아요	-15045
협상	-15046
▁그걸	-15047
▁소환	-15048
그룹이	-15049
▁SUV	-15050
▁김씨가	-15051
▁비행기	-15052
▁인간의	-15053
▁인하여	-15054
▁카드를	-15055
apped	-15056
itory	-15057
▁cler	-15058
▁soil	-15059
shaped	-15060
▁reconstruction	-15061
▁곁	-15062
국에서	-15063
시장을	-15064
▁그림을	-15065
▁나타났	-15066
▁법원이	-15067
▁서초구	-15068
▁이상인	-15069
▁Qual	-15070
▁absor	-15071
▁디스플레이	-15072
국과	-15073
▁69	-15074
▁걸린	-15075
▁런던	-15076
▁무릎	-15077
▁연관	-15078
▁재직	-15079
▁폭력	-15080
▁해명	-15081
▁위기에	-15082
▁hack	-15083
Although	-15084
▁legislative	-15085
중이	-15086
씨에게	-15087
▁ine	-15088
▁과도한	-15089
▁장면이	-15090
▁Base	-15091
▁sets	-15092
▁발생하지	-15093
▁wooden	-15094
▁유형	-15095
계약을	-15096
할게요	-15097
▁매력을	-15098
▁행동을	-15099
▁확실히	-15100
▁기업들의	-15101
▁시작됐다	-15102
▁있었어요	-15103
▁nervous	-15104
▁impression	-15105
결이	-15106
학의	-15107
▁남겨	-15108
▁높고	-15109
▁비례	-15110
연합회	-15111
▁있었다고	-15112
▁증가하는	-15113
▁defeat	-15114
▁잉	-15115
헨티	-15116
▁담고	-15117
▁한때	-15118
해졌다	-15119
▁Chi	-15120
▁지역이	-15121
▁손해배상	-15122
▁카카오톡	-15123
▁deficit	-15124
▁dispatch	-15125
세포	-15126
일본	-15127
▁부득	-15128
▁속도	-15129
▁선물을	-15130
▁전반에	-15131
▁Mart	-15132
general	-15133
▁passage	-15134
▁partnership	-15135
달아	-15136
어는	-15137
▁사후	-15138
▁조별	-15139
들과의	-15140
▁버스를	-15141
▁사장이	-15142
▁협의를	-15143
uster	-15144
▁디자이너	-15145
▁girls	-15146
본다	-15147
악한	-15148
▁물리	-15149
▁전형	-15150
▁해상	-15151
▁350	-15152
▁monitor	-15153
▁proposals	-15154
▁renewable	-15155
▁rehabilitation	-15156
▁비트	-15157
avil	-15158
▁보면서	-15159
▁사회의	-15160
하였으며	-15161
▁crop	-15162
▁가능하며	-15163
▁비정규직	-15164
▁liber	-15165
▁virtual	-15166
사태	-15167
▁이내의	-15168
▁Lake	-15169
▁관리하는	-15170
▁horse	-15171
▁돕는	-15172
▁용역	-15173
▁주가	-15174
▁phr	-15175
▁소중한	-15176
▁진정한	-15177
▁뚫	-15178
▁찍어	-15179
▁Bal	-15180
▁ate	-15181
▁꼽힌다	-15182
▁사정이	-15183
▁samples	-15184
▁sleeping	-15185
▁Ambassador	-15186
경은	-15187
닝썬	-15188
▁배상	-15189
▁세탁	-15190
▁씨의	-15191
▁이스	-15192
▁곳곳에	-15193
▁차원의	-15194
▁hopes	-15195
▁advisory	-15196
▁installing	-15197
▁내야	-15198
▁먹어	-15199
▁엘리	-15200
▁좌우	-15201
rust	-15202
▁avo	-15203
▁특유의	-15204
▁포인트	-15205
들로부터	-15206
elsius	-15207
TX	-15208
시쯤	-15209
▁가량	-15210
시장은	-15211
rais	-15212
▁다이어	-15213
▁얼굴을	-15214
▁정의당	-15215
ulates	-15216
▁Actress	-15217
▁equivalent	-15218
DI	-15219
라의	-15220
았을	-15221
▁Ma	-15222
▁담배	-15223
▁영장	-15224
▁종이	-15225
▁한진	-15226
▁Ext	-15227
▁sty	-15228
▁금융당	-15229
▁백악관	-15230
▁준비가	-15231
▁들어갔다	-15232
▁pride	-15233
▁calculation	-15234
뒀다	-15235
▁된다면	-15236
ourage	-15237
rations	-15238
▁recall	-15239
▁ministers	-15240
▁guaranteed	-15241
대응	-15242
osc	-15243
▁벌인	-15244
▁복구	-15245
▁미래에	-15246
▁반대로	-15247
▁주차장	-15248
▁warned	-15249
▁우즈베키스탄	-15250
▁hitting	-15251
▁talents	-15252
▁existence	-15253
▁graduation	-15254
▁politicians	-15255
▁Yeongdeungpo	-15256
▁pharmaceutical	-15257
색을	-15258
gue	-15259
▁데는	-15260
▁초래	-15261
▁세미나	-15262
들에게는	-15263
▁Daily	-15264
▁Anyang	-15265
▁attempted	-15266
비전	-15267
▁농협	-15268
▁답변을	-15269
▁사용이	-15270
▁정부에	-15271
▁posts	-15272
▁succession	-15273
절차	-15274
▁무산	-15275
▁나라의	-15276
▁원장은	-15277
▁향상을	-15278
▁hole	-15279
▁stands	-15280
▁adjusted	-15281
▁generally	-15282
que	-15283
▁복원	-15284
▁송금	-15285
▁즉각	-15286
▁iPh	-15287
▁대해선	-15288
▁또다시	-15289
▁사이의	-15290
▁언급한	-15291
▁인구가	-15292
▁정상이	-15293
▁cand	-15294
ranking	-15295
▁disposition	-15296
로의	-15297
▁그랬	-15298
▁부각	-15299
orce	-15300
oyal	-15301
▁Doo	-15302
▁chain	-15303
▁cheering	-15304
▁friendship	-15305
내용	-15306
▁강좌	-15307
▁결의	-15308
▁김민	-15309
▁김재	-15310
▁진화	-15311
▁컬러	-15312
▁태극	-15313
abuk	-15314
▁기여할	-15315
▁문제의	-15316
▁소리가	-15317
▁이후에	-15318
▁협의회	-15319
▁확대를	-15320
break	-15321
▁사실이다	-15322
▁Budget	-15323
▁detention	-15324
▁봐야	-15325
▁리스크	-15326
▁판매가	-15327
itual	-15328
▁2030	-15329
▁unknown	-15330
95	-15331
받지	-15332
신문	-15333
청의	-15334
▁대답	-15335
▁시달	-15336
▁중기	-15337
된다면	-15338
▁북한에	-15339
▁인스타	-15340
rical	-15341
▁사회적경제	-15342
▁mechan	-15343
▁automobile	-15344
▁basketball	-15345
(8	-15346
▁앓	-15347
분께	-15348
▁별도	-15349
▁전세	-15350
별로는	-15351
▁논란을	-15352
▁마스크	-15353
▁외교부	-15354
정보통신	-15355
▁삼성전자가	-15356
▁waters	-15357
▁apologize	-15358
노인	-15359
라엘	-15360
zen	-15361
▁보지	-15362
▁세운	-15363
▁lyr	-15364
▁제기한	-15365
▁특성을	-15366
wards	-15367
슬람	-15368
영의	-15369
▁없애	-15370
▁중동	-15371
▁하천	-15372
만원이	-15373
선에서	-15374
진흥원	-15375
▁mig	-15376
▁Game	-15377
▁Argent	-15378
▁judiciary	-15379
▁supplementary	-15380
범위	-15381
▁거세	-15382
▁주제	-15383
odes	-15384
▁개인의	-15385
▁연락이	-15386
▁2001	-15387
▁knowing	-15388
물류	-15389
▁김병	-15390
▁도움	-15391
▁장려	-15392
선으로	-15393
▁강서구	-15394
▁경찰의	-15395
▁상태를	-15396
▁수준이	-15397
▁unre	-15398
▁Review	-15399
▁sculpt	-15400
▁accounted	-15401
▁complicated	-15402
스테	-15403
처는	-15404
uro	-15405
▁부부	-15406
▁잡은	-15407
님께서	-15408
▁900	-15409
▁비영리	-15410
▁종류의	-15411
▁최소한	-15412
▁negl	-15413
stance	-15414
▁syner	-15415
▁stepped	-15416
▁breakfast	-15417
농단	-15418
지다	-15419
PGA	-15420
▁비싼	-15421
▁조금만	-15422
antic	-15423
▁지원하기	-15424
▁문화체육관광	-15425
▁Meanwhile	-15426
▁competitions	-15427
생명	-15428
월말	-15429
▁김치	-15430
▁작곡	-15431
▁주문한	-15432
▁Hanjin	-15433
▁occasion	-15434
공유	-15435
데이	-15436
삼성	-15437
▁듣는	-15438
▁임용	-15439
▁통행	-15440
rael	-15441
▁안타까	-15442
▁유사한	-15443
▁해마다	-15444
▁핸드폰	-15445
clock	-15446
eding	-15447
▁cute	-15448
▁클라우드	-15449
▁quarters	-15450
▁survival	-15451
▁valuable	-15452
▁냈	-15453
▁셔	-15454
두로	-15455
아의	-15456
음에	-15457
▁방사	-15458
▁설비	-15459
▁구청장	-15460
icing	-15461
▁finger	-15462
▁Celsius	-15463
▁anywhere	-15464
▁immediate	-15465
▁notification	-15466
▁Confederation	-15467
석은	-15468
itz	-15469
▁명을	-15470
▁관리가	-15471
▁별다른	-15472
▁Mongolia	-15473
▁Agreement	-15474
▁exceeding	-15475
▁psychological	-15476
PC	-15477
ato	-15478
▁미니	-15479
▁배당	-15480
▁투수	-15481
▁프로그램은	-15482
▁patrol	-15483
▁Officer	-15484
▁Inspection	-15485
▁떼	-15486
enz	-15487
▁대안	-15488
▁번호	-15489
▁부활	-15490
▁신앙	-15491
▁양승	-15492
▁열려	-15493
▁하니	-15494
▁매니저	-15495
▁주장을	-15496
▁Both	-15497
▁moon	-15498
▁innoc	-15499
▁headed	-15500
▁commander	-15501
박람	-15502
▁깜짝	-15503
▁첫날	-15504
방에서	-15505
life	-15506
▁국가의	-15507
▁장점이	-15508
▁mine	-15509
▁민주노총	-15510
ruking	-15511
▁Sweden	-15512
▁facilit	-15513
▁magazine	-15514
화문	-15515
▁갖게	-15516
▁구의	-15517
▁농가	-15518
▁시설의	-15519
▁이름은	-15520
▁Rest	-15521
▁sevent	-15522
▁celebrities	-15523
미터	-15524
보자	-15525
수원	-15526
▁날부터	-15527
▁인상을	-15528
▁최근에	-15529
▁가능한가요	-15530
▁testim	-15531
▁couples	-15532
▁harvest	-15533
▁typical	-15534
원도	-15535
▁합병	-15536
▁Kaz	-15537
▁가져다	-15538
▁것들이	-15539
▁교육이	-15540
▁일본에서	-15541
▁chances	-15542
▁doctors	-15543
▁semiconductors	-15544
션이	-15545
▁귀국	-15546
▁목사	-15547
기에는	-15548
▁뒤늦게	-15549
▁스케줄	-15550
asure	-15551
▁고려하면	-15552
ruction	-15553
▁honest	-15554
▁trials	-15555
▁posting	-15556
▁엇	-15557
술을	-15558
까지의	-15559
▁나가는	-15560
▁일본이	-15561
▁서울에서	-15562
▁forms	-15563
▁prove	-15564
▁Studies	-15565
700	-15566
▁섭취	-15567
▁이로	-15568
▁재생	-15569
▁중독	-15570
▁출국	-15571
▁규제를	-15572
▁기준이	-15573
▁병원으로	-15574
estion	-15575
father	-15576
▁panel	-15577
▁30,000	-15578
▁decent	-15579
▁elements	-15580
금지	-15581
ien	-15582
▁이송	-15583
▁그나마	-15584
▁협약을	-15585
▁Prem	-15586
▁homepage	-15587
렸을	-15588
시각	-15589
Con	-15590
▁간부	-15591
▁CNN	-15592
▁건강을	-15593
위원장이	-15594
▁obst	-15595
▁자율주행	-15596
▁취약계층	-15597
▁가능하도록	-15598
▁Reform	-15599
▁Product	-15600
▁startup	-15601
▁showcase	-15602
▁destroyed	-15603
▁neighboring	-15604
▁보러	-15605
▁크로	-15606
기술을	-15607
▁fru	-15608
▁급격히	-15609
▁보여준	-15610
▁아니한	-15611
▁역사적	-15612
▁정상회담이	-15613
▁removal	-15614
▁argument	-15615
▁virtually	-15616
▁convergence	-15617
리포	-15618
물과	-15619
법상	-15620
추가	-15621
ana	-15622
war	-15623
▁UK	-15624
▁고의	-15625
▁엄격	-15626
▁이렇	-15627
▁절실	-15628
▁지침	-15629
메이션	-15630
하기는	-15631
▁Yon	-15632
▁사실은	-15633
▁얘기를	-15634
▁아르헨티	-15635
▁arbit	-15636
▁oblig	-15637
initely	-15638
endation	-15639
법원	-15640
▁선배	-15641
국으로	-15642
▁Acts	-15643
▁곳곳에서	-15644
▁targeting	-15645
▁connecting	-15646
▁공중	-15647
▁관심과	-15648
▁기업은	-15649
▁성과가	-15650
▁영어로	-15651
▁dorm	-15652
▁pure	-15653
▁부위원장	-15654
인천광역시	-15655
▁resume	-15656
▁misunder	-15657
▁앤	-15658
내가	-15659
rae	-15660
▁잊지	-15661
▁즐겨	-15662
shin	-15663
▁상품이	-15664
exist	-15665
위원회에서	-15666
▁Cheol	-15667
▁maxim	-15668
▁Seodaemun	-15669
▁transparent	-15670
▁experiencing	-15671
캠프	-15672
▁경과	-15673
▁드는	-15674
▁몸에	-15675
바이트	-15676
지원을	-15677
▁끝까지	-15678
▁아들이	-15679
▁여기는	-15680
▁임직원	-15681
한국시간	-15682
▁Cath	-15683
▁판매하는	-15684
porary	-15685
▁Federal	-15686
드의	-15687
르기	-15688
백을	-15689
실적	-15690
▁조사에	-15691
▁펼쳐진다	-15692
▁species	-15693
면적	-15694
치며	-15695
▁국세	-15696
▁나쁜	-15697
▁메인	-15698
▁수면	-15699
▁이영	-15700
▁주실	-15701
▁상담을	-15702
▁친구와	-15703
perity	-15704
▁straw	-15705
▁finishing	-15706
모가	-15707
▁Kw	-15708
▁요소	-15709
bang	-15710
xual	-15711
▁시대에	-15712
▁dump	-15713
▁gall	-15714
▁hero	-15715
▁부정적인	-15716
▁소득주도	-15717
▁아니한다	-15718
▁아시아나	-15719
▁Right	-15720
▁tough	-15721
▁관계자들이	-15722
▁exchanged	-15723
98	-15724
▁낯	-15725
수입	-15726
재해	-15727
▁접어	-15728
▁진학	-15729
트에서	-15730
▁걸그룹	-15731
▁기존에	-15732
▁올바른	-15733
▁있거나	-15734
▁호응을	-15735
▁Thai	-15736
▁flat	-15737
▁도중	-15738
▁믿고	-15739
▁보며	-15740
▁비율	-15741
▁위생	-15742
▁점포	-15743
▁갈등을	-15744
▁아울러	-15745
▁않았다는	-15746
▁200,000	-15747
▁prolong	-15748
▁Memorial	-15749
▁짙	-15750
jak	-15751
▁Ga	-15752
▁발간	-15753
▁택배	-15754
월드컵	-15755
▁genre	-15756
수당	-15757
팀을	-15758
▁도의	-15759
▁서서	-15760
▁추산	-15761
▁드러난	-15762
▁워크숍	-15763
▁하나인	-15764
▁fold	-15765
▁요구했다	-15766
▁observed	-15767
▁낫	-15768
끄러	-15769
누리	-15770
만간	-15771
▁면담	-15772
▁배터리	-15773
▁친구를	-15774
ducers	-15775
▁2018,	-15776
▁Schol	-15777
▁reign	-15778
▁circle	-15779
▁Instagram	-15780
▁departure	-15781
본을	-15782
실장	-15783
▁장을	-15784
flow	-15785
food	-15786
▁Lif	-15787
▁이해할	-15788
▁판문점	-15789
ograp	-15790
▁엉	-15791
기자	-15792
정치	-15793
트넘	-15794
▁상가	-15795
▁스페	-15796
▁연봉	-15797
▁한데	-15798
관에게	-15799
cend	-15800
▁논의를	-15801
inery	-15802
▁이뤄졌다	-15803
▁Tower	-15804
▁meets	-15805
▁wheel	-15806
▁option	-15807
연히	-15808
줘야	-15809
폭이	-15810
▁납품	-15811
▁들은	-15812
▁해체	-15813
▁스크린	-15814
▁시작해	-15815
▁의장이	-15816
▁일요일	-15817
▁Farm	-15818
▁Fort	-15819
▁stir	-15820
▁신용카드	-15821
stream	-15822
▁offline	-15823
▁땀	-15824
보에	-15825
▁IS	-15826
▁야간	-15827
▁전라	-15828
▁챙겨	-15829
▁청원	-15830
▁Israel	-15831
▁induce	-15832
▁shortage	-15833
▁뼈	-15834
spe	-15835
▁응시	-15836
▁조리	-15837
공동체	-15838
▁Dam	-15839
▁방식이	-15840
▁브리핑	-15841
▁감안하면	-15842
▁아니라고	-15843
▁lawyers	-15844
▁primary	-15845
▁integration	-15846
급식	-15847
별지	-15848
선은	-15849
▁86	-15850
▁겨냥	-15851
▁빨간	-15852
▁연동	-15853
▁인쇄	-15854
▁총리	-15855
▁가능성은	-15856
▁건강보험	-15857
arrass	-15858
▁인스타그램	-15859
▁Credit	-15860
▁Gender	-15861
▁mothers	-15862
▁launching	-15863
▁libraries	-15864
것도	-15865
방안	-15866
▁추적	-15867
▁패키	-15868
▁Bol	-15869
▁Candid	-15870
▁Rather	-15871
▁worship	-15872
-4	-15873
보수	-15874
iny	-15875
▁Ke	-15876
▁유포	-15877
▁착공	-15878
정보를	-15879
bery	-15880
▁1.2	-15881
▁USD	-15882
5,000	-15883
▁고속도로	-15884
▁일자리가	-15885
▁rough	-15886
부처	-15887
▁분이	-15888
▁제목	-15889
▁청주	-15890
▁코너	-15891
하였을	-15892
▁112	-15893
▁다행히	-15894
eline	-15895
▁드러냈다	-15896
▁사용하지	-15897
▁plate	-15898
▁estimate	-15899
▁mountains	-15900
▁빙	-15901
핑크	-15902
▁꼼꼼	-15903
▁장례	-15904
▁한반	-15905
▁들어갈	-15906
▁소리를	-15907
▁정보화	-15908
▁Pang	-15909
▁보여주고	-15910
▁parent	-15911
▁premiums	-15912
매를	-15913
▁방어	-15914
▁인건	-15915
wave	-15916
▁합의를	-15917
▁수행하는	-15918
▁chronic	-15919
▁Lawmaker	-15920
▁diagnosed	-15921
)"	-15922
ON	-15923
가량	-15924
실의	-15925
mal	-15926
▁87	-15927
▁연임	-15928
▁제게	-15929
▁조회	-15930
▁차이	-15931
▁털어	-15932
▁기금운용	-15933
▁모습으로	-15934
▁셰	-15935
아트	-15936
카데	-15937
▁거두	-15938
▁아까	-15939
▁워낙	-15940
▁ware	-15941
lywood	-15942
▁frust	-15943
▁entertain	-15944
▁speculation	-15945
▁맛을	-15946
▁점에	-15947
▁해운	-15948
했다가	-15949
▁위해선	-15950
▁특성상	-15951
iances	-15952
▁saved	-15953
▁interf	-15954
▁ancient	-15955
ciliation	-15956
▁Mc	-15957
▁데려	-15958
▁베네	-15959
▁실정	-15960
▁파리	-15961
▁이명박	-15962
▁Hope	-15963
▁millions	-15964
▁decisions	-15965
▁finalized	-15966
uly	-15967
▁IB	-15968
▁교육부	-15969
▁끌어올	-15970
▁사이버	-15971
▁안전하게	-15972
▁주민등록	-15973
iability	-15974
▁numerous	-15975
▁purchases	-15976
센트	-15977
았어	-15978
▁대립	-15979
▁신축	-15980
▁항의	-15981
십니다	-15982
▁느낌이	-15983
hwamun	-15984
▁liquid	-15985
▁unlikely	-15986
▁discussing	-15987
▁playground	-15988
결제	-15989
스턴	-15990
yun	-15991
▁번도	-15992
▁불을	-15993
▁장점	-15994
▁법무부	-15995
▁수익을	-15996
▁식으로	-15997
▁기대감이	-15998
▁발견됐다	-15999
▁수탁자는	-16000
▁좋겠습니다	-16001
▁bringing	-16002
▁normally	-16003
▁governance	-16004
계는	-16005
끼리	-16006
놓은	-16007
▁누리	-16008
▁명품	-16009
▁무리	-16010
▁cable	-16011
▁forgot	-16012
▁cultures	-16013
▁Convention	-16014
GB	-16015
∼4	-16016
온다	-16017
출을	-16018
ERS	-16019
▁71	-16020
▁차기	-16021
기관과	-16022
▁권리를	-16023
▁시험을	-16024
▁Ship	-16025
▁지역으로	-16026
ateful	-16027
▁slump	-16028
▁swing	-16029
▁보고하여야	-16030
▁terror	-16031
stantial	-16032
▁branches	-16033
▁resistance	-16034
박스	-16035
%),	-16036
ext	-16037
▁타당	-16038
억원에	-16039
하라는	-16040
▁주가가	-16041
▁math	-16042
▁전국에서	-16043
gently	-16044
▁passes	-16045
▁sounds	-16046
ifically	-16047
▁cheaper	-16048
▁reaching	-16049
▁팽	-16050
▁82	-16051
▁낮추	-16052
▁수의	-16053
▁여당	-16054
ancer	-16055
uters	-16056
▁늘어나는	-16057
▁이스라엘	-16058
irable	-16059
▁initi	-16060
ogether	-16061
▁commod	-16062
▁container	-16063
▁캘	-16064
장인	-16065
정신	-16066
진핑	-16067
▁비록	-16068
▁자립	-16069
▁패널	-16070
되는데	-16071
어지고	-16072
옵니다	-16073
▁감사를	-16074
▁Meeting	-16075
▁consign	-16076
▁seekers	-16077
▁analysts	-16078
▁embarrass	-16079
▁Ed	-16080
▁기쁨	-16081
▁수질	-16082
▁위법	-16083
▁의도	-16084
loor	-16085
▁bon	-16086
▁공동체	-16087
▁오래된	-16088
과학기술	-16089
▁Area	-16090
▁rainy	-16091
▁Communication	-16092
▁interpretation	-16093
▁옹	-16094
장한	-16095
▁입국	-16096
gage	-16097
▁책임이	-16098
matics	-16099
▁trips	-16100
▁enters	-16101
▁heated	-16102
▁organic	-16103
▁philosophy	-16104
▁confrontation	-16105
규제	-16106
면의	-16107
파로	-16108
▁3.	-16109
▁감상	-16110
▁강요	-16111
▁금강	-16112
▁남긴	-16113
▁이례	-16114
▁문화의	-16115
▁위주로	-16116
▁장에게	-16117
▁필요로	-16118
iques	-16119
▁raises	-16120
▁infants	-16121
▁기증	-16122
▁내릴	-16123
▁무용	-16124
▁신발	-16125
▁지진	-16126
▁emp	-16127
▁시책을	-16128
aught	-16129
hyung	-16130
▁hits	-16131
▁유일하게	-16132
▁afford	-16133
▁discharge	-16134
▁attractive	-16135
▁communications	-16136
55	-16137
렬한	-16138
▁건데	-16139
▁없게	-16140
▁원이	-16141
▁유효	-16142
거든요	-16143
▁조사가	-16144
▁도시재생	-16145
▁전문가들이	-16146
▁poison	-16147
▁ritual	-16148
▁Jinping	-16149
33	-16150
어촌	-16151
uit	-16152
▁FTC	-16153
▁경찰과	-16154
▁지적도	-16155
회에서는	-16156
▁경기도에	-16157
tenham	-16158
avilion	-16159
▁leaked	-16160
▁praised	-16161
▁weekends	-16162
▁principles	-16163
▁쫓	-16164
등이	-16165
▁수험	-16166
▁시위	-16167
▁유의	-16168
▁폭이	-16169
▁철저한	-16170
▁seiz	-16171
▁Capital	-16172
▁쳐	-16173
접한	-16174
▁적립	-16175
play	-16176
▁사람과	-16177
▁의혹에	-16178
▁철저히	-16179
ifier	-16180
minute	-16181
▁fortun	-16182
▁Iranian	-16183
astically	-16184
▁incorpor	-16185
▁extremely	-16186
구속	-16187
리즘	-16188
▁구상	-16189
▁안양	-16190
▁이걸	-16191
▁이의	-16192
▁선호하는	-16193
니가	-16194
록을	-16195
비에	-16196
▁Gye	-16197
▁가격에	-16198
▁안전을	-16199
▁CSAT	-16200
apping	-16201
utation	-16202
▁fulfill	-16203
▁representing	-16204
▁앙	-16205
서도	-16206
지대	-16207
▁블루	-16208
문화를	-16209
▁오피스	-16210
▁재활용	-16211
▁unav	-16212
▁포함한다	-16213
▁banking	-16214
▁founder	-16215
▁Chungbuk	-16216
▁networks	-16217
▁urgently	-16218
봉투	-16219
▁개척	-16220
▁미흡	-16221
▁재밌	-16222
계획에	-16223
▁hang	-16224
▁semi	-16225
▁10,	-16226
▁Dav	-16227
▁혐의가	-16228
통상자원	-16229
▁플라스틱	-16230
▁bench	-16231
▁provid	-16232
▁casualties	-16233
▁ordinances	-16234
withstanding	-16235
▁갔다	-16236
▁묻는	-16237
▁Ann	-16238
▁방문하는	-16239
▁소개했다	-16240
▁차지하고	-16241
school	-16242
▁pursued	-16243
▁납세	-16244
▁바뀐	-16245
▁실효	-16246
거리가	-16247
으니까	-16248
▁성적이	-16249
▁인식이	-16250
▁참가해	-16251
▁Pres	-16252
▁deaths	-16253
▁resulted	-16254
▁regularly	-16255
▁ambassador	-16256
▁inevitably	-16257
달라	-16258
르크	-16259
자도	-16260
▁김수	-16261
▁높여	-16262
▁선포	-16263
교육감	-16264
qual	-16265
▁에어컨	-16266
벤처기업	-16267
▁mask	-16268
▁tied	-16269
▁자동으로	-16270
▁대통령에게	-16271
▁drinks	-16272
▁native	-16273
appropriate	-16274
▁뒤로	-16275
▁미뤄	-16276
▁거라고	-16277
▁성범죄	-16278
▁화제를	-16279
▁pill	-16280
▁유럽연합	-16281
▁slowly	-16282
▁Emergency	-16283
▁locations	-16284
▁consisting	-16285
▁identification	-16286
매가	-16287
축산	-16288
▁축산	-16289
금으로	-16290
성으로	-16291
▁음식은	-16292
▁중국은	-16293
▁화웨이	-16294
▁bomb	-16295
▁floors	-16296
▁advised	-16297
▁visible	-16298
▁Standards	-16299
▁conscious	-16300
▁reorganization	-16301
년째	-16302
세는	-16303
▁뒤집	-16304
▁말에	-16305
▁비리	-16306
▁여유	-16307
▁원자	-16308
▁한식	-16309
▁경비를	-16310
▁역할이	-16311
▁일하고	-16312
▁자세한	-16313
▁조만간	-16314
▁중국을	-16315
▁협조를	-16316
eters	-16317
▁affection	-16318
▁investing	-16319
OK	-16320
▁쏘	-16321
▁칸	-16322
▁갑작	-16323
pool	-16324
▁거래가	-16325
▁이슬람	-16326
▁화재가	-16327
▁국민들이	-16328
▁스튜디오	-16329
터테인먼트	-16330
▁가속	-16331
▁어쩔	-16332
▁파손	-16333
agon	-16334
▁개발을	-16335
▁경향이	-16336
▁기간에	-16337
▁메이저	-16338
▁desk	-16339
▁검토하고	-16340
▁Belgi	-16341
▁suspend	-16342
▁autonomy	-16343
▁sessions	-16344
▁worsening	-16345
군을	-16346
드에	-16347
방지	-16348
타를	-16349
ICE	-16350
gen	-16351
▁가려	-16352
▁구단	-16353
▁드론	-16354
▁말은	-16355
▁손상	-16356
▁이룬	-16357
▁한창	-16358
▁간단한	-16359
▁지속가능	-16360
▁Joong	-16361
▁fruits	-16362
formance	-16363
▁indicted	-16364
WS	-16365
즈가	-16366
▁팀의	-16367
pper	-16368
▁시진핑	-16369
▁아이폰	-16370
▁총리는	-16371
▁1998	-16372
▁roles	-16373
▁discip	-16374
▁reaction	-16375
▁paragraphs	-16376
▁separation	-16377
▁Gwanghwamun	-16378
67	-16379
▁명령	-16380
▁문서	-16381
▁선보인	-16382
▁영상이	-16383
▁조성을	-16384
▁허가를	-16385
inseng	-16386
▁통지하여야	-16387
▁tastes	-16388
▁verify	-16389
위생	-16390
▁고맙	-16391
▁본부	-16392
▁연루	-16393
업체가	-16394
▁Dok	-16395
▁미사일	-16396
▁보도가	-16397
▁quit	-16398
▁일반적으로	-16399
▁useful	-16400
▁bathroom	-16401
▁producer	-16402
▁Broadcast	-16403
▁destruction	-16404
▁constitutional	-16405
▁곽	-16406
방향	-16407
셔도	-16408
▁LC	-16409
▁새겨	-16410
▁알리	-16411
하는지	-16412
kish	-16413
umes	-16414
▁기금의	-16415
▁전세계	-16416
▁elev	-16417
▁운영한다	-16418
▁준비하고	-16419
래도	-16420
인당	-16421
sup	-16422
▁거로	-16423
▁집권	-16424
신청을	-16425
▁뛰어나	-16426
▁출연해	-16427
▁피의자	-16428
▁1,500	-16429
▁athle	-16430
▁silver	-16431
▁amazing	-16432
▁amounts	-16433
▁Communications	-16434
∼5	-16435
고의	-16436
투표	-16437
akh	-16438
▁AP	-16439
▁손에	-16440
▁전주	-16441
▁청도	-16442
▁텔레	-16443
만달러	-16444
시장에	-16445
위에서	-16446
▁회의는	-16447
▁boxes	-16448
▁invent	-16449
▁Consumer	-16450
▁햇	-16451
장치	-16452
rad	-16453
▁많을	-16454
▁약간	-16455
▁입시	-16456
▁채워	-16457
▁doubt	-16458
▁fabric	-16459
▁intent	-16460
▁Cheongdo	-16461
▁ownership	-16462
▁reference	-16463
development	-16464
▁immigrants	-16465
94	-16466
내기	-16467
더라	-16468
▁로드	-16469
▁붉은	-16470
▁질의	-16471
▁없나요	-16472
▁여론이	-16473
▁신청서를	-16474
▁평생교육	-16475
▁react	-16476
▁Kindergart	-16477
▁correspondent	-16478
▁OS	-16479
▁감동	-16480
▁방학	-16481
▁솔로	-16482
▁임상	-16483
만명이	-16484
arsh	-16485
dens	-16486
▁개발에	-16487
▁메일을	-16488
▁환경이	-16489
▁arms	-16490
▁배경으로	-16491
▁Asset	-16492
▁Mokpo	-16493
▁iPhone	-16494
▁telephone	-16495
아파	-16496
천구	-16497
▁AR	-16498
▁병행	-16499
▁유용	-16500
▁이기	-16501
▁제고	-16502
임에도	-16503
▁Det	-16504
▁rot	-16505
▁정확하게	-16506
▁구속영장을	-16507
▁signature	-16508
▁impeachment	-16509
▁II	-16510
▁경로	-16511
▁중순	-16512
imal	-16513
▁170	-16514
▁Dom	-16515
▁식사를	-16516
▁흐름을	-16517
adays	-16518
▁banned	-16519
▁button	-16520
▁comprom	-16521
▁largely	-16522
▁combines	-16523
락을	-16524
box	-16525
▁가축	-16526
▁농민	-16527
▁영광	-16528
▁포인	-16529
운동을	-16530
▁gar	-16531
▁pou	-16532
▁끝나면	-16533
▁예정인	-16534
▁pour	-16535
▁다채로운	-16536
▁호텔에서	-16537
▁steady	-16538
▁designs	-16539
▁handled	-16540
▁Confucian	-16541
▁processes	-16542
▁펀	-16543
호와	-16544
▁가깝	-16545
▁분기	-16546
▁회수	-16547
mist	-16548
▁Sil	-16549
▁Silla	-16550
▁Forces	-16551
▁riding	-16552
▁creates	-16553
HA	-16554
ray	-16555
▁소년	-16556
▁여수	-16557
▁주행	-16558
▁흥행	-16559
센터에	-16560
▁Exc	-16561
▁불가능한	-16562
▁주장하는	-16563
▁Palace	-16564
▁lyrics	-16565
▁completing	-16566
▁encouraged	-16567
마를	-16568
소시	-16569
인도	-16570
oir	-16571
▁앞선	-16572
▁열람	-16573
▁있을까	-16574
▁결정했다	-16575
▁위원장과	-16576
Gyeong	-16577
▁jumped	-16578
▁declined	-16579
▁Namyangju	-16580
▁personally	-16581
▁proportional	-16582
▁shipbuilding	-16583
▁부사	-16584
시간에	-16585
rome	-16586
▁Suk	-16587
▁대표와	-16588
▁소속사	-16589
▁위기를	-16590
▁점수를	-16591
▁지금의	-16592
ighth	-16593
▁retal	-16594
ximately	-16595
▁Chamber	-16596
▁healing	-16597
내며	-16598
▁Ty	-16599
▁맞고	-16600
▁멘토	-16601
▁임직	-16602
▁측의	-16603
▁현상	-16604
자리에	-16605
▁경찰청	-16606
▁5·18	-16607
▁Along	-16608
▁summon	-16609
▁Siheung	-16610
▁contrary	-16611
▁fairness	-16612
대화	-16613
박한	-16614
▁부딪	-16615
▁서면	-16616
▁정원	-16617
▁주소	-16618
▁합쳐	-16619
정부의	-16620
▁신뢰를	-16621
▁지난주	-16622
▁관광객이	-16623
▁않았다고	-16624
▁있었다는	-16625
▁파악하고	-16626
▁아르바이트	-16627
▁abnormal	-16628
▁producers	-16629
▁preference	-16630
▁신중	-16631
aked	-16632
quet	-16633
▁건축물	-16634
▁기자가	-16635
orthy	-16636
▁legs	-16637
▁그러하지	-16638
▁feared	-16639
▁산업통상자원	-16640
▁Network	-16641
▁directed	-16642
영향	-16643
ano	-16644
▁그저	-16645
▁데이	-16646
▁오를	-16647
▁고양시	-16648
▁규정이	-16649
▁어디로	-16650
▁우승을	-16651
과정에서	-16652
story	-16653
▁분석된다	-16654
▁초등학생	-16655
▁Earth	-16656
gic	-16657
ria	-16658
▁결코	-16659
▁계엄	-16660
▁고백	-16661
사회적	-16662
▁Gov	-16663
▁구매할	-16664
▁비디오	-16665
드린다	-16666
[...]
